{
  "version": "1.0",
  "truncation": null,
  "padding": null,
  "added_tokens": [
    {
      "id": 0,
      "content": "[PAD]",
      "single_word": false,
      "lstrip": false,
      "rstrip": false,
      "normalized": false,
      "special": true
    },
    {
      "id": 1,
      "content": "[UNK]",
      "single_word": false,
      "lstrip": false,
      "rstrip": false,
      "normalized": false,
      "special": true
    },
    {
      "id": 2,
      "content": "[CLS]",
      "single_word": false,
      "lstrip": false,
      "rstrip": false,
      "normalized": false,
      "special": true
    },
    {
      "id": 3,
      "content": "[SEP]",
      "single_word": false,
      "lstrip": false,
      "rstrip": false,
      "normalized": false,
      "special": true
    },
    {
      "id": 4,
      "content": "[MASK]",
      "single_word": false,
      "lstrip": false,
      "rstrip": false,
      "normalized": false,
      "special": true
    }
  ],
  "normalizer": {
    "type": "BertNormalizer",
    "clean_text": true,
    "handle_chinese_chars": true,
    "strip_accents": null,
    "lowercase": true
  },
  "pre_tokenizer": {
    "type": "BertPreTokenizer"
  },
  "post_processor": {
    "type": "TemplateProcessing",
    "single": [
      {
        "SpecialToken": {
          "id": "[CLS]",
          "type_id": 0
        }
      },
      {
        "Sequence": {
          "id": "A",
          "type_id": 0
        }
      },
      {
        "SpecialToken": {
          "id": "[SEP]",
          "type_id": 0
        }
      }
    ],
    "pair": [
      {
        "SpecialToken": {
          "id": "[CLS]",
          "type_id": 0
        }
      },
      {
        "Sequence": {
          "id": "A",
          "type_id": 0
        }
      },
      {
        "SpecialToken": {
          "id": "[SEP]",
          "type_id": 0
        }
      },
      {
        "Sequence": {
          "id": "B",
          "type_id": 1
        }
      },
      {
        "SpecialToken": {
          "id": "[SEP]",
          "type_id": 1
        }
      }
    ],
    "special_tokens": {
      "[CLS]": {
        "id": "[CLS]",
        "ids": [
          2
        ],
        "tokens": [
          "[CLS]"
        ]
      },
      "[SEP]": {
        "id": "[SEP]",
        "ids": [
          3
        ],
        "tokens": [
          "[SEP]"
        ]
      }
    }
  },
  "decoder": {
    "type": "WordPiece",
    "prefix": "##",
    "cleanup": true
  },
  "model": {
    "type": "WordPiece",
    "unk_token": "[UNK]",
    "continuing_subword_prefix": "##",
    "max_input_chars_per_word": 100,
    "vocab": {
      "[PAD]": 0,
      "[UNK]": 1,
      "[CLS]": 2,
      "[SEP]": 3,
      "[MASK]": 4,
      "!": 5,
      "\"": 6,
      "#": 7,
      "$": 8,
      "%": 9,
      "&": 10,
      "'": 11,
      "(": 12,
      ")": 13,
      "*": 14,
      "+": 15,
      ",": 16,
      "-": 17,
      ".": 18,
      "/": 19,
      "0": 20,
      "1": 21,
      "2": 22,
      "3": 23,
      "4": 24,
      "5": 25,
      "6": 26,
      "7": 27,
      "8": 28,
      "9": 29,
      ":": 30,
      ";": 31,
      "<": 32,
      "=": 33,
      ">": 34,
      "?": 35,
      "@": 36,
      "[": 37,
      "\\": 38,
      "]": 39,
      "^": 40,
      "_": 41,
      "`": 42,
      "a": 43,
      "b": 44,
      "c": 45,
      "d": 46,
      "e": 47,
      "f": 48,
      "g": 49,
      "h": 50,
      "i": 51,
      "j": 52,
      "k": 53,
      "l": 54,
      "m": 55,
      "n": 56,
      "o": 57,
      "p": 58,
      "q": 59,
      "r": 60,
      "s": 61,
      "t": 62,
      "u": 63,
      "v": 64,
      "w": 65,
      "x": 66,
      "y": 67,
      "z": 68,
      "{": 69,
      "|": 70,
      "}": 71,
      "~": 72,
      "¡": 73,
      "£": 74,
      "º": 75,
      "¾": 76,
      "ø": 77,
      "##a": 78,
      "##u": 79,
      "##l": 80,
      "##t": 81,
      "##o": 82,
      "##n": 83,
      "##d": 84,
      "##e": 85,
      "##c": 86,
      "##h": 87,
      "##s": 88,
      "##r": 89,
      "##p": 90,
      "##i": 91,
      "##v": 92,
      "##k": 93,
      "##w": 94,
      "##g": 95,
      "##y": 96,
      "##m": 97,
      "##b": 98,
      "##z": 99,
      "##f": 100,
      "##8": 101,
      "##0": 102,
      "##1": 103,
      "##6": 104,
      "##j": 105,
      "##3": 106,
      "##x": 107,
      "##7": 108,
      "##2": 109,
      "##5": 110,
      "##9": 111,
      "##q": 112,
      "##4": 113,
      "##ø": 114,
      "##¾": 115,
      "##º": 116,
      "th": 117,
      "the": 118,
      "##er": 119,
      "##in": 120,
      "##nd": 121,
      "##on": 122,
      "##at": 123,
      "##or": 124,
      "##es": 125,
      "##ou": 126,
      "##is": 127,
      "##en": 128,
      "to": 129,
      "##ing": 130,
      "##ed": 131,
      "and": 132,
      "##it": 133,
      "of": 134,
      "##re": 135,
      "in": 136,
      "##an": 137,
      "##ar": 138,
      "##ll": 139,
      "##as": 140,
      "it": 141,
      "##ic": 142,
      "##om": 143,
      "is": 144,
      "##ion": 145,
      "re": 146,
      "this": 147,
      "##le": 148,
      "##ve": 149,
      "##ot": 150,
      "##al": 151,
      "be": 152,
      "##ut": 153,
      "on": 154,
      "##st": 155,
      "##ent": 156,
      "wh": 157,
      "##oo": 158,
      "##ct": 159,
      "##ad": 160,
      "that": 161,
      "##ly": 162,
      "for": 163,
      "##ro": 164,
      "st": 165,
      "##se": 166,
      "##et": 167,
      "##ld": 168,
      "you": 169,
      "##id": 170,
      "##gh": 171,
      "##ow": 172,
      "##ay": 173,
      "##ch": 174,
      "##ook": 175,
      "ha": 176,
      "##ver": 177,
      "##ith": 178,
      "was": 179,
      "not": 180,
      "##ur": 181,
      "##ce": 182,
      "with": 183,
      "##am": 184,
      "##ter": 185,
      "an": 186,
      "we": 187,
      "as": 188,
      "com": 189,
      "book": 190,
      "##all": 191,
      "##ir": 192,
      "##ould": 193,
      "##pe": 194,
      "##im": 195,
      "##ie": 196,
      "are": 197,
      "but": 198,
      "have": 199,
      "##ke": 200,
      "##th": 201,
      "sh": 202,
      "li": 203,
      "pro": 204,
      "##ill": 205,
      "##ation": 206,
      "se": 207,
      "my": 208,
      "##ust": 209,
      "so": 210,
      "de": 211,
      "ch": 212,
      "con": 213,
      "##il": 214,
      "al": 215,
      "##ess": 216,
      "##ble": 217,
      "##ers": 218,
      "ne": 219,
      "ex": 220,
      "##ul": 221,
      "##ght": 222,
      "mo": 223,
      "##ri": 224,
      "##pp": 225,
      "##est": 226,
      "##ra": 227,
      "##ck": 228,
      "##em": 229,
      "wor": 230,
      "su": 231,
      "do": 232,
      "##ore": 233,
      "##ally": 234,
      "fr": 235,
      "he": 236,
      "at": 237,
      "all": 238,
      "one": 239,
      "or": 240,
      "##ort": 241,
      "##ge": 242,
      "##ol": 243,
      "read": 244,
      "pr": 245,
      "en": 246,
      "##ist": 247,
      "##ant": 248,
      "##ate": 249,
      "##ive": 250,
      "##ain": 251,
      "##ment": 252,
      "##out": 253,
      "##us": 254,
      "me": 255,
      "ab": 256,
      "if": 257,
      "##op": 258,
      "##ere": 259,
      "would": 260,
      "##ich": 261,
      "un": 262,
      "can": 263,
      "##ery": 264,
      "##ome": 265,
      "will": 266,
      "pl": 267,
      "like": 268,
      "am": 269,
      "##un": 270,
      "##um": 271,
      "##reat": 272,
      "ma": 273,
      "##vie": 274,
      "has": 275,
      "##ci": 276,
      "##art": 277,
      "which": 278,
      "##ies": 279,
      "by": 280,
      "##ity": 281,
      "there": 282,
      "very": 283,
      "##ood": 284,
      "they": 285,
      "##one": 286,
      "##os": 287,
      "##ard": 288,
      "from": 289,
      "comm": 290,
      "no": 291,
      "just": 292,
      "##ff": 293,
      "le": 294,
      "out": 295,
      "tim": 296,
      "about": 297,
      "tr": 298,
      "##ect": 299,
      "##ong": 300,
      "##act": 301,
      "##el": 302,
      "##ight": 303,
      "##ound": 304,
      "what": 305,
      "up": 306,
      "lo": 307,
      "more": 308,
      "any": 309,
      "##au": 310,
      "##ame": 311,
      "##and": 312,
      "##ough": 313,
      "##ap": 314,
      "##ast": 315,
      "good": 316,
      "who": 317,
      "##ure": 318,
      "##ven": 319,
      "great": 320,
      "##ind": 321,
      "get": 322,
      "comp": 323,
      "co": 324,
      "##her": 325,
      "di": 326,
      "##ack": 327,
      "dis": 328,
      "some": 329,
      "go": 330,
      "ever": 331,
      "im": 332,
      "##able": 333,
      "ad": 334,
      "int": 335,
      "movie": 336,
      "when": 337,
      "eu": 338,
      "##ous": 339,
      "qu": 340,
      "how": 341,
      "##itt": 342,
      "us": 343,
      "##iss": 344,
      "##ions": 345,
      "time": 346,
      "fe": 347,
      "##ice": 348,
      "man": 349,
      "bu": 350,
      "had": 351,
      "work": 352,
      "rec": 353,
      "only": 354,
      "ta": 355,
      "bec": 356,
      "##ig": 357,
      "oth": 358,
      "##our": 359,
      "ag": 360,
      "##int": 361,
      "your": 362,
      "euro": 363,
      "##ory": 364,
      "than": 365,
      "##so": 366,
      "cl": 367,
      "act": 368,
      "##pt": 369,
      "europe": 370,
      "##uct": 371,
      "##end": 372,
      "##ue": 373,
      "##pl": 374,
      "fir": 375,
      "##ish": 376,
      "inter": 377,
      "##ab": 378,
      "##ag": 379,
      "##ite": 380,
      "##ud": 381,
      "##ause": 382,
      "did": 383,
      "##nder": 384,
      "also": 385,
      "##ear": 386,
      "other": 387,
      "##vel": 388,
      "them": 389,
      "##oun": 390,
      "been": 391,
      "ar": 392,
      "her": 393,
      "first": 394,
      "wr": 395,
      "his": 396,
      "##ink": 397,
      "##ought": 398,
      "these": 399,
      "##ission": 400,
      "res": 401,
      "##iv": 402,
      "should": 403,
      "po": 404,
      "part": 405,
      "over": 406,
      "sc": 407,
      "##oy": 408,
      "char": 409,
      "cont": 410,
      "because": 411,
      "bet": 412,
      "##ine": 413,
      "commission": 414,
      "does": 415,
      "mu": 416,
      "don": 417,
      "kn": 418,
      "imp": 419,
      "##ans": 420,
      "even": 421,
      "te": 422,
      "well": 423,
      "really": 424,
      "##ide": 425,
      "##li": 426,
      "much": 427,
      "could": 428,
      "pe": 429,
      "##age": 430,
      "##ber": 431,
      "##per": 432,
      "too": 433,
      "##ence": 434,
      "pre": 435,
      "sa": 436,
      "pres": 437,
      "##ful": 438,
      "their": 439,
      "fa": 440,
      "##ult": 441,
      "every": 442,
      "af": 443,
      "she": 444,
      "year": 445,
      "##orm": 446,
      "were": 447,
      "look": 448,
      "prod": 449,
      "its": 450,
      "##hing": 451,
      "##ance": 452,
      "spe": 453,
      "think": 454,
      "##ary": 455,
      "need": 456,
      "##ade": 457,
      "##ose": 458,
      "buy": 459,
      "##ical": 460,
      "want": 461,
      "our": 462,
      "new": 463,
      "##ass": 464,
      "know": 465,
      "european": 466,
      "mr": 467,
      "after": 468,
      "##qu": 469,
      "story": 470,
      "per": 471,
      "into": 472,
      "reg": 473,
      "must": 474,
      "way": 475,
      "##gr": 476,
      "ac": 477,
      "##ated": 478,
      "##ase": 479,
      "##iz": 480,
      "##ick": 481,
      "off": 482,
      "see": 483,
      "say": 484,
      "##ens": 485,
      "make": 486,
      "##ict": 487,
      "##if": 488,
      "tw": 489,
      "##atch": 490,
      "##sel": 491,
      "##are": 492,
      "peop": 493,
      "now": 494,
      "##ach": 495,
      "##ious": 496,
      "par": 497,
      "##ry": 498,
      "##ak": 499,
      "##ition": 500,
      "##ations": 501,
      "people": 502,
      "##form": 503,
      "inc": 504,
      "app": 505,
      "under": 506,
      "most": 507,
      "##der": 508,
      "##te": 509,
      "##ep": 510,
      "play": 511,
      "str": 512,
      "##fore": 513,
      "des": 514,
      "ser": 515,
      "##ved": 516,
      "##cial": 517,
      "back": 518,
      "product": 519,
      "##og": 520,
      "inst": 521,
      "##ount": 522,
      "sp": 523,
      "then": 524,
      "thing": 525,
      "many": 526,
      "end": 527,
      "love": 528,
      "##wn": 529,
      "##ree": 530,
      "gr": 531,
      "gu": 532,
      "pol": 533,
      "again": 534,
      "##way": 535,
      "better": 536,
      "hi": 537,
      "br": 538,
      "fil": 539,
      "##urn": 540,
      "charact": 541,
      "ro": 542,
      "##pect": 543,
      "##ple": 544,
      "##omm": 545,
      "bl": 546,
      "use": 547,
      "thr": 548,
      "##ace": 549,
      "##az": 550,
      "diff": 551,
      "made": 552,
      "##gin": 553,
      "##ving": 554,
      "mus": 555,
      "##ces": 556,
      "rep": 557,
      "fin": 558,
      "##00": 559,
      "##od": 560,
      "##ull": 561,
      "##ommend": 562,
      "film": 563,
      "##ile": 564,
      "##other": 565,
      "##ise": 566,
      "##king": 567,
      "##ever": 568,
      "ve": 569,
      "##ident": 570,
      "recommend": 571,
      "##ip": 572,
      "##ang": 573,
      "##view": 574,
      "##uth": 575,
      "##own": 576,
      "ho": 577,
      "##kes": 578,
      "books": 579,
      "##ament": 580,
      "find": 581,
      "real": 582,
      "may": 583,
      "never": 584,
      "##ittle": 585,
      "ke": 586,
      "##ire": 587,
      "best": 588,
      "##we": 589,
      "##fe": 590,
      "two": 591,
      "##ves": 592,
      "high": 593,
      "still": 594,
      "watch": 595,
      "little": 596,
      "mem": 597,
      "cr": 598,
      "som": 599,
      "##cess": 600,
      "got": 601,
      "##ible": 602,
      "rem": 603,
      "cd": 604,
      "through": 605,
      "##ord": 606,
      "mar": 607,
      "##ced": 608,
      "##ased": 609,
      "##ond": 610,
      "##ting": 611,
      "19": 612,
      "somet": 613,
      "##ub": 614,
      "tra": 615,
      "conc": 616,
      "em": 617,
      "long": 618,
      "put": 619,
      "cons": 620,
      "music": 621,
      "mon": 622,
      "##tain": 623,
      "##self": 624,
      "interest": 625,
      "##ress": 626,
      "##ars": 627,
      "##app": 628,
      "alb": 629,
      "supp": 630,
      "found": 631,
      "sm": 632,
      "years": 633,
      "review": 634,
      "dec": 635,
      "reading": 636,
      "ind": 637,
      "##oint": 638,
      "##ates": 639,
      "eff": 640,
      "##oney": 641,
      "##ject": 642,
      "bel": 643,
      "being": 644,
      "pur": 645,
      "song": 646,
      "fl": 647,
      "##ors": 648,
      "money": 649,
      "##ative": 650,
      "auth": 651,
      "seem": 652,
      "##xt": 653,
      "bought": 654,
      "pos": 655,
      "however": 656,
      "##ating": 657,
      "president": 658,
      "##ments": 659,
      "##liament": 660,
      "sec": 661,
      "parliament": 662,
      "album": 663,
      "down": 664,
      "right": 665,
      "##ph": 666,
      "same": 667,
      "life": 668,
      "##ning": 669,
      "those": 670,
      "##blem": 671,
      "##joy": 672,
      "fact": 673,
      "problem": 674,
      "enjoy": 675,
      "amaz": 676,
      "day": 677,
      "sound": 678,
      "old": 679,
      "where": 680,
      "##oth": 681,
      "ter": 682,
      "##oc": 683,
      "point": 684,
      "bad": 685,
      "##ually": 686,
      "such": 687,
      "##ial": 688,
      "fun": 689,
      "##ual": 690,
      "##ents": 691,
      "take": 692,
      "progr": 693,
      "set": 694,
      "sim": 695,
      "didn": 696,
      "thought": 697,
      "##get": 698,
      "##rect": 699,
      "##ild": 700,
      "cle": 701,
      "##ons": 702,
      "eas": 703,
      "mat": 704,
      "ext": 705,
      "##ail": 706,
      "hard": 707,
      "far": 708,
      "dv": 709,
      "list": 710,
      "##thing": 711,
      "before": 712,
      "##me": 713,
      "trans": 714,
      "dvd": 715,
      "jo": 716,
      "feel": 717,
      "order": 718,
      "ob": 719,
      "hel": 720,
      "op": 721,
      "##ures": 722,
      "author": 723,
      "##ib": 724,
      "why": 725,
      "min": 726,
      "class": 727,
      "##ily": 728,
      "here": 729,
      "##arly": 730,
      "own": 731,
      "att": 732,
      "def": 733,
      "##ks": 734,
      "##ality": 735,
      "disc": 736,
      "lot": 737,
      "game": 738,
      "show": 739,
      "few": 740,
      "es": 741,
      "happ": 742,
      "start": 743,
      "##cy": 744,
      "while": 745,
      "something": 746,
      "last": 747,
      "import": 748,
      "add": 749,
      "##ft": 750,
      "union": 751,
      "give": 752,
      "sub": 753,
      "##ia": 754,
      "sin": 755,
      "world": 756,
      "acc": 757,
      "##ieve": 758,
      "##de": 759,
      "try": 760,
      "##cept": 761,
      "another": 762,
      "##fer": 763,
      "##les": 764,
      "bor": 765,
      "gen": 766,
      "differ": 767,
      "che": 768,
      "help": 769,
      "##iting": 770,
      "program": 771,
      "##ty": 772,
      "rel": 773,
      "bo": 774,
      "going": 775,
      "##ues": 776,
      "vers": 777,
      "worth": 778,
      "fo": 779,
      "##less": 780,
      "tri": 781,
      "##ics": 782,
      "##velop": 783,
      "count": 784,
      "sy": 785,
      "ec": 786,
      "##ider": 787,
      "gl": 788,
      "##ention": 789,
      "pers": 790,
      "##und": 791,
      "ph": 792,
      "purch": 793,
      "##ign": 794,
      "##pos": 795,
      "characters": 796,
      "develop": 797,
      "##day": 798,
      "##read": 799,
      "used": 800,
      "##appoint": 801,
      "##stand": 802,
      "comple": 803,
      "since": 804,
      "iss": 805,
      "ins": 806,
      "disappoint": 807,
      "without": 808,
      "##ward": 809,
      "##ives": 810,
      "let": 811,
      "##ute": 812,
      "##ility": 813,
      "car": 814,
      "##lud": 815,
      "inform": 816,
      "##icul": 817,
      "sl": 818,
      "wo": 819,
      "##ool": 820,
      "doesn": 821,
      "nothing": 822,
      "coll": 823,
      "##ave": 824,
      "ori": 825,
      "##itten": 826,
      "report": 827,
      "quality": 828,
      "##lic": 829,
      "##ian": 830,
      "##ac": 831,
      "second": 832,
      "makes": 833,
      "cour": 834,
      "commun": 835,
      "written": 836,
      "said": 837,
      "polic": 838,
      "ap": 839,
      "ed": 840,
      "effect": 841,
      "##ities": 842,
      "novel": 843,
      "support": 844,
      "anyone": 845,
      "##lish": 846,
      "concer": 847,
      "war": 848,
      "fav": 849,
      "direct": 850,
      "version": 851,
      "##als": 852,
      "##ution": 853,
      "##onom": 854,
      "wonder": 855,
      "big": 856,
      "believe": 857,
      "el": 858,
      "##llow": 859,
      "origin": 860,
      "##ather": 861,
      "ret": 862,
      "keep": 863,
      "sch": 864,
      "##ug": 865,
      "##fort": 866,
      "##ately": 867,
      "looking": 868,
      "##ween": 869,
      "him": 870,
      "between": 871,
      "##ason": 872,
      "important": 873,
      "states": 874,
      "different": 875,
      "prov": 876,
      "##ement": 877,
      "plot": 878,
      "econom": 879,
      "kind": 880,
      "##cil": 881,
      "though": 882,
      "both": 883,
      "##be": 884,
      "times": 885,
      "member": 886,
      "enough": 887,
      "art": 888,
      "understand": 889,
      "wa": 890,
      "leg": 891,
      "##ower": 892,
      "wom": 893,
      "hand": 894,
      "quest": 895,
      "##ably": 896,
      "amazon": 897,
      "ev": 898,
      "sing": 899,
      "inv": 900,
      "coun": 901,
      "##ater": 902,
      "##oup": 903,
      "##ote": 904,
      "hum": 905,
      "##cri": 906,
      "##ational": 907,
      "tal": 908,
      "##ked": 909,
      "##ism": 910,
      "expect": 911,
      "##iend": 912,
      "la": 913,
      "##ural": 914,
      "ple": 915,
      "come": 916,
      "aw": 917,
      "less": 918,
      "person": 919,
      "hor": 920,
      "ll": 921,
      "ide": 922,
      "sur": 923,
      "includ": 924,
      "##ways": 925,
      "##ange": 926,
      "bas": 927,
      "listen": 928,
      "vie": 929,
      "##ense": 930,
      "##iter": 931,
      "pub": 932,
      "##ee": 933,
      "##vern": 934,
      "##cks": 935,
      "view": 936,
      "vide": 937,
      "propos": 938,
      "conf": 939,
      "exam": 940,
      "things": 941,
      "small": 942,
      "##ings": 943,
      "##ath": 944,
      "##ised": 945,
      "sure": 946,
      "actually": 947,
      "##ted": 948,
      "defin": 949,
      "child": 950,
      "##led": 951,
      "##ne": 952,
      "word": 953,
      "##man": 954,
      "##ize": 955,
      "group": 956,
      "dem": 957,
      "particul": 958,
      "form": 959,
      "series": 960,
      "consider": 961,
      "det": 962,
      "##ead": 963,
      "interesting": 964,
      "able": 965,
      "cer": 966,
      "turn": 967,
      "##ost": 968,
      "##row": 969,
      "fam": 970,
      "easy": 971,
      "##ouse": 972,
      "exp": 973,
      "character": 974,
      "council": 975,
      "action": 976,
      "polit": 977,
      "cam": 978,
      "##not": 979,
      "exce": 980,
      "exper": 981,
      "month": 982,
      "songs": 983,
      "complete": 984,
      "##red": 985,
      "full": 986,
      "##ional": 987,
      "each": 988,
      "##ix": 989,
      "##ready": 990,
      "already": 991,
      "cover": 992,
      "##av": 993,
      "always": 994,
      "expl": 995,
      "##ety": 996,
      "##ically": 997,
      "##ages": 998,
      "poss": 999,
      "mov": 1000,
      "##ters": 1001,
      "##ection": 1002,
      "##ited": 1003,
      "waste": 1004,
      "tell": 1005,
      "policy": 1006,
      "movies": 1007,
      "information": 1008,
      "once": 1009,
      "av": 1010,
      "##ently": 1011,
      "stu": 1012,
      "price": 1013,
      "next": 1014,
      "certain": 1015,
      "ear": 1016,
      "rece": 1017,
      "appro": 1018,
      "original": 1019,
      "fan": 1020,
      "199": 1021,
      "pict": 1022,
      "##icult": 1023,
      "prin": 1024,
      "around": 1025,
      "call": 1026,
      "therefore": 1027,
      "return": 1028,
      "ent": 1029,
      "##ned": 1030,
      "descri": 1031,
      "excell": 1032,
      "power": 1033,
      "gener": 1034,
      "num": 1035,
      "ty": 1036,
      "wish": 1037,
      "##ency": 1038,
      "item": 1039,
      "within": 1040,
      "friend": 1041,
      "fut": 1042,
      "yet": 1043,
      "##ract": 1044,
      "video": 1045,
      "##ys": 1046,
      "seen": 1047,
      "pret": 1048,
      "##air": 1049,
      "##vious": 1050,
      "##lect": 1051,
      "quite": 1052,
      "dra": 1053,
      "ass": 1054,
      "cur": 1055,
      "requ": 1056,
      "seems": 1057,
      "today": 1058,
      "##ken": 1059,
      "bit": 1060,
      "fund": 1061,
      "three": 1062,
      "social": 1063,
      "cor": 1064,
      "main": 1065,
      "##alf": 1066,
      "excellent": 1067,
      "adv": 1068,
      "resp": 1069,
      "scen": 1070,
      "whole": 1071,
      "gra": 1072,
      "rele": 1073,
      "##augh": 1074,
      "mark": 1075,
      "reason": 1076,
      "deb": 1077,
      "cannot": 1078,
      "having": 1079,
      "place": 1080,
      "level": 1081,
      "follow": 1082,
      "done": 1083,
      "hist": 1084,
      "##io": 1085,
      "##cially": 1086,
      "future": 1087,
      "top": 1088,
      "##wh": 1089,
      "chr": 1090,
      "away": 1091,
      "bat": 1092,
      "house": 1093,
      "##uring": 1094,
      "poor": 1095,
      "##ness": 1096,
      "star": 1097,
      "dr": 1098,
      "##ten": 1099,
      "hope": 1100,
      "rest": 1101,
      "stud": 1102,
      "lear": 1103,
      "##ision": 1104,
      "works": 1105,
      "disappointed": 1106,
      "sit": 1107,
      "##iven": 1108,
      "job": 1109,
      "##most": 1110,
      "stand": 1111,
      "abs": 1112,
      "special": 1113,
      "course": 1114,
      "##ock": 1115,
      "wee": 1116,
      "eng": 1117,
      "contro": 1118,
      "200": 1119,
      "begin": 1120,
      "sk": 1121,
      "##ash": 1122,
      "present": 1123,
      "##pr": 1124,
      "##ines": 1125,
      "##ger": 1126,
      "reviews": 1127,
      "##its": 1128,
      "boring": 1129,
      "card": 1130,
      "compet": 1131,
      "cost": 1132,
      "govern": 1133,
      "miss": 1134,
      "##ts": 1135,
      "ref": 1136,
      "##rible": 1137,
      "##ories": 1138,
      "##ark": 1139,
      "difficult": 1140,
      "committ": 1141,
      "least": 1142,
      "nice": 1143,
      "pie": 1144,
      "regard": 1145,
      "creat": 1146,
      "##ature": 1147,
      "espe": 1148,
      "development": 1149,
      "10": 1150,
      "bra": 1151,
      "##pped": 1152,
      "rather": 1153,
      "favor": 1154,
      "pretty": 1155,
      "especially": 1156,
      "mind": 1157,
      "toget": 1158,
      "exc": 1159,
      "together": 1160,
      "##res": 1161,
      "##stem": 1162,
      "light": 1163,
      "anything": 1164,
      "everything": 1165,
      "cap": 1166,
      "contin": 1167,
      "##aut": 1168,
      "intern": 1169,
      "came": 1170,
      "state": 1171,
      "almost": 1172,
      "treat": 1173,
      "system": 1174,
      "##ner": 1175,
      "##aper": 1176,
      "##par": 1177,
      "alth": 1178,
      "##olog": 1179,
      "problems": 1180,
      "lead": 1181,
      "making": 1182,
      "community": 1183,
      "although": 1184,
      "##ren": 1185,
      "instead": 1186,
      "might": 1187,
      "term": 1188,
      "##ither": 1189,
      "sol": 1190,
      "perf": 1191,
      "case": 1192,
      "hour": 1193,
      "##ell": 1194,
      "repl": 1195,
      "##ime": 1196,
      "prob": 1197,
      "##uss": 1198,
      "clear": 1199,
      "mad": 1200,
      "son": 1201,
      "bro": 1202,
      "cra": 1203,
      "care": 1204,
      "else": 1205,
      "##hip": 1206,
      "##utes": 1207,
      "stars": 1208,
      "##ided": 1209,
      "writing": 1210,
      "init": 1211,
      "sci": 1212,
      "short": 1213,
      "extre": 1214,
      "opin": 1215,
      "open": 1216,
      "##ience": 1217,
      "tot": 1218,
      "purchased": 1219,
      "market": 1220,
      "air": 1221,
      "head": 1222,
      "##uc": 1223,
      "##ruct": 1224,
      "##ries": 1225,
      "##aster": 1226,
      "beaut": 1227,
      "sever": 1228,
      "using": 1229,
      "maybe": 1230,
      "christ": 1231,
      "true": 1232,
      "lar": 1233,
      "val": 1234,
      "##ploy": 1235,
      "political": 1236,
      "happen": 1237,
      "##gg": 1238,
      "tech": 1239,
      "highly": 1240,
      "given": 1241,
      "cond": 1242,
      "question": 1243,
      "red": 1244,
      "issue": 1245,
      "probably": 1246,
      "won": 1247,
      "tried": 1248,
      "mean": 1249,
      "night": 1250,
      "run": 1251,
      "##ied": 1252,
      "amend": 1253,
      "ur": 1254,
      "sty": 1255,
      "ago": 1256,
      "perfect": 1257,
      "deal": 1258,
      "worst": 1259,
      "amer": 1260,
      "extreme": 1261,
      "med": 1262,
      "kid": 1263,
      "##ists": 1264,
      "loved": 1265,
      "##ss": 1266,
      "##lement": 1267,
      "classic": 1268,
      "col": 1269,
      "port": 1270,
      "americ": 1271,
      "age": 1272,
      "##vers": 1273,
      "months": 1274,
      "live": 1275,
      "enter": 1276,
      "record": 1277,
      "hold": 1278,
      "trying": 1279,
      "receiv": 1280,
      "inf": 1281,
      "wonderful": 1282,
      "possible": 1283,
      "##bers": 1284,
      "##ird": 1285,
      "cult": 1286,
      "##eng": 1287,
      "comes": 1288,
      "unt": 1289,
      "control": 1290,
      "cou": 1291,
      "cent": 1292,
      "half": 1293,
      "cre": 1294,
      "fre": 1295,
      "##ny": 1296,
      "opinion": 1297,
      "aff": 1298,
      "##ific": 1299,
      "programme": 1300,
      "public": 1301,
      "env": 1302,
      "committee": 1303,
      "compan": 1304,
      "absol": 1305,
      "##irl": 1306,
      "dep": 1307,
      "getting": 1308,
      "women": 1309,
      "##ps": 1310,
      "##ully": 1311,
      "appe": 1312,
      "minutes": 1313,
      "family": 1314,
      "several": 1315,
      "youn": 1316,
      "initi": 1317,
      "##rib": 1318,
      "dist": 1319,
      "##osed": 1320,
      "loc": 1321,
      "school": 1322,
      "isn": 1323,
      "others": 1324,
      "thank": 1325,
      "number": 1326,
      "pay": 1327,
      "commissioner": 1328,
      "against": 1329,
      "definite": 1330,
      "##que": 1331,
      "couldn": 1332,
      "economic": 1333,
      "free": 1334,
      "lack": 1335,
      "##jor": 1336,
      "areas": 1337,
      "serious": 1338,
      "##ody": 1339,
      "inde": 1340,
      "##ling": 1341,
      "##itive": 1342,
      "##ference": 1343,
      "entire": 1344,
      "girl": 1345,
      "##ustr": 1346,
      "plan": 1347,
      "speak": 1348,
      "absolute": 1349,
      "line": 1350,
      "pack": 1351,
      "tit": 1352,
      "received": 1353,
      "fall": 1354,
      "ok": 1355,
      "went": 1356,
      "beh": 1357,
      "serv": 1358,
      "##ury": 1359,
      "quick": 1360,
      "##ged": 1361,
      "prom": 1362,
      "scre": 1363,
      "enjoyed": 1364,
      "idea": 1365,
      "until": 1366,
      "opp": 1367,
      "pri": 1368,
      "sect": 1369,
      "const": 1370,
      "major": 1371,
      "bre": 1372,
      "met": 1373,
      "size": 1374,
      "wasn": 1375,
      "someone": 1376,
      "finan": 1377,
      "human": 1378,
      "detail": 1379,
      "fine": 1380,
      "##ror": 1381,
      "##pping": 1382,
      "super": 1383,
      "##iction": 1384,
      "itself": 1385,
      "process": 1386,
      "everyone": 1387,
      "words": 1388,
      "debate": 1389,
      "style": 1390,
      "adm": 1391,
      "dri": 1392,
      "##gan": 1393,
      "definitely": 1394,
      "area": 1395,
      "hear": 1396,
      "heard": 1397,
      "gets": 1398,
      "finally": 1399,
      "techn": 1400,
      "##rod": 1401,
      "##astic": 1402,
      "##ption": 1403,
      "watching": 1404,
      "##ired": 1405,
      "comput": 1406,
      "regul": 1407,
      "example": 1408,
      "pass": 1409,
      "paper": 1410,
      "##gy": 1411,
      "princi": 1412,
      "band": 1413,
      "either": 1414,
      "##land": 1415,
      "##ply": 1416,
      "##ier": 1417,
      "##fic": 1418,
      "##ences": 1419,
      "stories": 1420,
      "taken": 1421,
      "text": 1422,
      "matter": 1423,
      "ann": 1424,
      "prot": 1425,
      "countries": 1426,
      "curr": 1427,
      "situ": 1428,
      "aid": 1429,
      "##mental": 1430,
      "left": 1431,
      "working": 1432,
      "result": 1433,
      "simply": 1434,
      "past": 1435,
      "##wor": 1436,
      "pages": 1437,
      "##son": 1438,
      "##mm": 1439,
      "wrong": 1440,
      "days": 1441,
      "bed": 1442,
      "pop": 1443,
      "##ru": 1444,
      "subject": 1445,
      "##fortun": 1446,
      "home": 1447,
      "##atic": 1448,
      "##ew": 1449,
      "takes": 1450,
      "wanted": 1451,
      "##ibility": 1452,
      "country": 1453,
      "et": 1454,
      "##ination": 1455,
      "##iron": 1456,
      "est": 1457,
      "equ": 1458,
      "mention": 1459,
      "##ames": 1460,
      "took": 1461,
      "batter": 1462,
      "strong": 1463,
      "ordered": 1464,
      "camer": 1465,
      "gave": 1466,
      "##cc": 1467,
      "##ross": 1468,
      "##ized": 1469,
      "##ots": 1470,
      "##aps": 1471,
      "extremely": 1472,
      "environ": 1473,
      "during": 1474,
      "##over": 1475,
      "speci": 1476,
      "object": 1477,
      "pick": 1478,
      "stay": 1479,
      "liked": 1480,
      "fit": 1481,
      "##ret": 1482,
      "please": 1483,
      "completely": 1484,
      "##uly": 1485,
      "myself": 1486,
      "unfortun": 1487,
      "effects": 1488,
      "respons": 1489,
      "history": 1490,
      "government": 1491,
      "favorite": 1492,
      "ra": 1493,
      "##elt": 1494,
      "needed": 1495,
      "box": 1496,
      "##itch": 1497,
      "##ott": 1498,
      "##ether": 1499,
      "cop": 1500,
      "sense": 1501,
      "##ember": 1502,
      "acting": 1503,
      "overall": 1504,
      "##ov": 1505,
      "common": 1506,
      "##apter": 1507,
      "perform": 1508,
      "finish": 1509,
      "dou": 1510,
      "non": 1511,
      "amazing": 1512,
      "issues": 1513,
      "invol": 1514,
      "avail": 1515,
      "based": 1516,
      "pa": 1517,
      "##ices": 1518,
      "soci": 1519,
      "regions": 1520,
      "##mes": 1521,
      "##ther": 1522,
      "cut": 1523,
      "discuss": 1524,
      "##ake": 1525,
      "##fully": 1526,
      "competition": 1527,
      "aud": 1528,
      "##raph": 1529,
      "absolutely": 1530,
      "##ides": 1531,
      "##empt": 1532,
      "meas": 1533,
      "buying": 1534,
      "computer": 1535,
      "employ": 1536,
      "liter": 1537,
      "children": 1538,
      "hu": 1539,
      "young": 1540,
      "var": 1541,
      "##iful": 1542,
      "##mas": 1543,
      "##bed": 1544,
      "##iness": 1545,
      "toy": 1546,
      "##tern": 1547,
      "##istic": 1548,
      "respect": 1549,
      "particular": 1550,
      "project": 1551,
      "chang": 1552,
      "struct": 1553,
      "law": 1554,
      "piece": 1555,
      "bar": 1556,
      "fig": 1557,
      "lang": 1558,
      "mess": 1559,
      "reform": 1560,
      "move": 1561,
      "heart": 1562,
      "allow": 1563,
      "reader": 1564,
      "introd": 1565,
      "implement": 1566,
      "type": 1567,
      "financial": 1568,
      "page": 1569,
      "yes": 1570,
      "##ying": 1571,
      "##utions": 1572,
      "##ains": 1573,
      "impro": 1574,
      "experience": 1575,
      "hop": 1576,
      "##ital": 1577,
      "suc": 1578,
      "ens": 1579,
      "needs": 1580,
      "bus": 1581,
      "bud": 1582,
      "simple": 1583,
      "single": 1584,
      "sw": 1585,
      "##oss": 1586,
      "happy": 1587,
      "five": 1588,
      "##fact": 1589,
      "##ump": 1590,
      "goes": 1591,
      "english": 1592,
      "##gn": 1593,
      "saw": 1594,
      "hours": 1595,
      "couple": 1596,
      "available": 1597,
      "four": 1598,
      "##ane": 1599,
      "##ustri": 1600,
      "conn": 1601,
      "members": 1602,
      "unfortunately": 1603,
      "national": 1604,
      "pract": 1605,
      "##oice": 1606,
      "##bs": 1607,
      "##ured": 1608,
      "general": 1609,
      "mom": 1610,
      "sent": 1611,
      "##port": 1612,
      "##zz": 1613,
      "##ential": 1614,
      "democ": 1615,
      "particularly": 1616,
      "picture": 1617,
      "camera": 1618,
      "fast": 1619,
      "sugg": 1620,
      "entertain": 1621,
      "suggest": 1622,
      "felt": 1623,
      "##ware": 1624,
      "##itions": 1625,
      "##ared": 1626,
      "##imes": 1627,
      "change": 1628,
      "become": 1629,
      "forward": 1630,
      "looks": 1631,
      "gar": 1632,
      "prof": 1633,
      "agre": 1634,
      "resol": 1635,
      "incre": 1636,
      "account": 1637,
      "20": 1638,
      "imm": 1639,
      "thinking": 1640,
      "cheap": 1641,
      "beautiful": 1642,
      "rom": 1643,
      "side": 1644,
      "##ising": 1645,
      "teach": 1646,
      "started": 1647,
      "express": 1648,
      "friends": 1649,
      "etc": 1650,
      "ill": 1651,
      "name": 1652,
      "##itiz": 1653,
      "sell": 1654,
      "doing": 1655,
      "fail": 1656,
      "er": 1657,
      "truly": 1658,
      "##ensive": 1659,
      "purchase": 1660,
      "##line": 1661,
      "##ability": 1662,
      "##well": 1663,
      "##aughter": 1664,
      "replace": 1665,
      "christmas": 1666,
      "del": 1667,
      "lost": 1668,
      "imag": 1669,
      "ess": 1670,
      "##pend": 1671,
      "mrs": 1672,
      "large": 1673,
      "##bo": 1674,
      "##ont": 1675,
      "remember": 1676,
      "collection": 1677,
      "sign": 1678,
      "often": 1679,
      "along": 1680,
      "print": 1681,
      "effort": 1682,
      "kids": 1683,
      "society": 1684,
      "ach": 1685,
      "citiz": 1686,
      "sat": 1687,
      "##lus": 1688,
      "ste": 1689,
      "clearly": 1690,
      "pain": 1691,
      "whether": 1692,
      "necess": 1693,
      "close": 1694,
      "##ples": 1695,
      "certainly": 1696,
      "stra": 1697,
      "taking": 1698,
      "previous": 1699,
      "instit": 1700,
      "rock": 1701,
      "track": 1702,
      "funny": 1703,
      "madam": 1704,
      "situation": 1705,
      "mill": 1706,
      "sad": 1707,
      "##ale": 1708,
      "##lf": 1709,
      "##come": 1710,
      "comfort": 1711,
      "except": 1712,
      "guess": 1713,
      "learn": 1714,
      "langu": 1715,
      "elect": 1716,
      "gives": 1717,
      "mor": 1718,
      "##ances": 1719,
      "wait": 1720,
      "fur": 1721,
      "##haps": 1722,
      "##ats": 1723,
      "##leep": 1724,
      "##selves": 1725,
      "woman": 1726,
      "1999": 1727,
      "break": 1728,
      "##aw": 1729,
      "##cu": 1730,
      "ask": 1731,
      "save": 1732,
      "perhaps": 1733,
      "198": 1734,
      "##wards": 1735,
      "slow": 1736,
      "##erial": 1737,
      "##ank": 1738,
      "worked": 1739,
      "obvious": 1740,
      "ca": 1741,
      "har": 1742,
      "mot": 1743,
      "mid": 1744,
      "##book": 1745,
      "sou": 1746,
      "step": 1747,
      "addition": 1748,
      "check": 1749,
      "scenes": 1750,
      "vis": 1751,
      "water": 1752,
      "wear": 1753,
      "sex": 1754,
      "mod": 1755,
      "parts": 1756,
      "attention": 1757,
      "local": 1758,
      "mis": 1759,
      "test": 1760,
      "##cing": 1761,
      "dev": 1762,
      "wouldn": 1763,
      "repres": 1764,
      "gif": 1765,
      "hon": 1766,
      "##he": 1767,
      "third": 1768,
      "##ined": 1769,
      "##used": 1770,
      "adop": 1771,
      "party": 1772,
      "##ins": 1773,
      "white": 1774,
      "neg": 1775,
      "agree": 1776,
      "player": 1777,
      "called": 1778,
      "##where": 1779,
      "austri": 1780,
      "lim": 1781,
      "##ets": 1782,
      "shi": 1783,
      "spend": 1784,
      "surpr": 1785,
      "proposal": 1786,
      "boy": 1787,
      "##lation": 1788,
      "##alog": 1789,
      "##ims": 1790,
      "##ush": 1791,
      "concern": 1792,
      "company": 1793,
      "occ": 1794,
      "##ici": 1795,
      "self": 1796,
      "##peration": 1797,
      "stuff": 1798,
      "terms": 1799,
      "ray": 1800,
      "##ob": 1801,
      "##iod": 1802,
      "##isation": 1803,
      "##edom": 1804,
      "shall": 1805,
      "tax": 1806,
      "fire": 1807,
      "##unch": 1808,
      "yourself": 1809,
      "terrible": 1810,
      "##ream": 1811,
      "god": 1812,
      "shows": 1813,
      "language": 1814,
      "dark": 1815,
      "##ric": 1816,
      "moder": 1817,
      "impress": 1818,
      "playing": 1819,
      "attempt": 1820,
      "service": 1821,
      "further": 1822,
      "food": 1823,
      "win": 1824,
      "stat": 1825,
      "longer": 1826,
      "legis": 1827,
      "battery": 1828,
      "huge": 1829,
      "fant": 1830,
      "accept": 1831,
      "american": 1832,
      "initiative": 1833,
      "later": 1834,
      "##uck": 1835,
      "means": 1836,
      "arri": 1837,
      "period": 1838,
      "color": 1839,
      "citizens": 1840,
      "##br": 1841,
      "soft": 1842,
      "enl": 1843,
      "fair": 1844,
      "pat": 1845,
      "##ton": 1846,
      "##ove": 1847,
      "##gu": 1848,
      "##go": 1849,
      "##ining": 1850,
      "ending": 1851,
      "material": 1852,
      "install": 1853,
      "role": 1854,
      "glad": 1855,
      "copy": 1856,
      "bott": 1857,
      "daughter": 1858,
      "##lly": 1859,
      "ones": 1860,
      "comb": 1861,
      "position": 1862,
      "week": 1863,
      "cool": 1864,
      "dam": 1865,
      "rul": 1866,
      "##ablish": 1867,
      "decided": 1868,
      "phot": 1869,
      "##ength": 1870,
      "establish": 1871,
      "ey": 1872,
      "##ster": 1873,
      "design": 1874,
      "rights": 1875,
      "low": 1876,
      "##ron": 1877,
      "##ench": 1878,
      "justice": 1879,
      "played": 1880,
      "freedom": 1881,
      "##ah": 1882,
      "##ene": 1883,
      "manu": 1884,
      "crit": 1885,
      "edition": 1886,
      "amendments": 1887,
      "business": 1888,
      "modern": 1889,
      "lab": 1890,
      "stop": 1891,
      "saf": 1892,
      "ensure": 1893,
      "##ler": 1894,
      "##asing": 1895,
      "soon": 1896,
      "docu": 1897,
      "unless": 1898,
      "regional": 1899,
      "programmes": 1900,
      "title": 1901,
      "ep": 1902,
      "kill": 1903,
      "master": 1904,
      "sn": 1905,
      "directive": 1906,
      "correct": 1907,
      "##work": 1908,
      "says": 1909,
      "sometimes": 1910,
      "horrible": 1911,
      "culture": 1912,
      "quickly": 1913,
      "jud": 1914,
      "nor": 1915,
      "##ban": 1916,
      "concerned": 1917,
      "pictures": 1918,
      "principle": 1919,
      "manufact": 1920,
      "necessary": 1921,
      "safety": 1922,
      "gre": 1923,
      "##gic": 1924,
      "##ases": 1925,
      "##eless": 1926,
      "sounds": 1927,
      "legal": 1928,
      "15": 1929,
      "coo": 1930,
      "men": 1931,
      "##ator": 1932,
      "2000": 1933,
      "screen": 1934,
      "measures": 1935,
      "##vent": 1936,
      "##ources": 1937,
      "##ograph": 1938,
      "tracks": 1939,
      "totally": 1940,
      "budget": 1941,
      "represent": 1942,
      "##ming": 1943,
      "##ouch": 1944,
      "proper": 1945,
      "##els": 1946,
      "standard": 1947,
      "indeed": 1948,
      "##com": 1949,
      "##mb": 1950,
      "told": 1951,
      "exist": 1952,
      "exact": 1953,
      "beginning": 1954,
      "treaty": 1955,
      "success": 1956,
      "##anger": 1957,
      "easily": 1958,
      "brand": 1959,
      "##ises": 1960,
      "ans": 1961,
      "organ": 1962,
      "##ortun": 1963,
      "##unk": 1964,
      "##earch": 1965,
      "colle": 1966,
      "weeks": 1967,
      "missing": 1968,
      "opportun": 1969,
      "sleep": 1970,
      "##hn": 1971,
      "##wise": 1972,
      "sus": 1973,
      "supposed": 1974,
      "effective": 1975,
      "release": 1976,
      "fiction": 1977,
      "ger": 1978,
      "grow": 1979,
      "id": 1980,
      "##ium": 1981,
      "dont": 1982,
      "black": 1983,
      "kept": 1984,
      "sor": 1985,
      "deli": 1986,
      "##ilar": 1987,
      "uni": 1988,
      "research": 1989,
      "favour": 1990,
      "horror": 1991,
      "incred": 1992,
      "indust": 1993,
      "contrib": 1994,
      "including": 1995,
      "prior": 1996,
      "##atives": 1997,
      "##ivid": 1998,
      "john": 1999,
      "questions": 2000,
      "answ": 2001,
      "##oid": 2002,
      "##yc": 2003,
      "##edi": 2004,
      "pred": 2005,
      "inte": 2006,
      "##aged": 2007,
      "##ude": 2008,
      "##ogn": 2009,
      "tv": 2010,
      "##pri": 2011,
      "##pose": 2012,
      "##itting": 2013,
      "##iving": 2014,
      "guy": 2015,
      "extra": 2016,
      "total": 2017,
      "institutions": 2018,
      "fight": 2019,
      "ener": 2020,
      "##ained": 2021,
      "post": 2022,
      "artic": 2023,
      "expected": 2024,
      "urban": 2025,
      "specific": 2026,
      "vote": 2027,
      "##na": 2028,
      "##itor": 2029,
      "dialog": 2030,
      "guid": 2031,
      "12": 2032,
      "burn": 2033,
      "wal": 2034,
      "##reg": 2035,
      "##right": 2036,
      "feat": 2037,
      "build": 2038,
      "recogn": 2039,
      "seemed": 2040,
      "ideas": 2041,
      "##ology": 2042,
      "various": 2043,
      "early": 2044,
      "rid": 2045,
      "##uce": 2046,
      "##side": 2047,
      "store": 2048,
      "amount": 2049,
      "compl": 2050,
      "looked": 2051,
      "bring": 2052,
      "decision": 2053,
      "accord": 2054,
      "comfortable": 2055,
      "towards": 2056,
      "reach": 2057,
      "##set": 2058,
      "orwell": 2059,
      "write": 2060,
      "prec": 2061,
      "transport": 2062,
      "doub": 2063,
      "##igh": 2064,
      "desp": 2065,
      "room": 2066,
      "relations": 2067,
      "continue": 2068,
      "30": 2069,
      "rad": 2070,
      "##ging": 2071,
      "conference": 2072,
      "##using": 2073,
      "##ume": 2074,
      "face": 2075,
      "funds": 2076,
      "science": 2077,
      "lad": 2078,
      "oper": 2079,
      "rapp": 2080,
      "vol": 2081,
      "##ibly": 2082,
      "infl": 2083,
      "rules": 2084,
      "due": 2085,
      "ele": 2086,
      "laugh": 2087,
      "##esome": 2088,
      "plug": 2089,
      "otherwise": 2090,
      "presid": 2091,
      "interested": 2092,
      "cast": 2093,
      "hol": 2094,
      "##band": 2095,
      "##nda": 2096,
      "##ister": 2097,
      "##ements": 2098,
      "worse": 2099,
      "##apt": 2100,
      "strate": 2101,
      "50": 2102,
      "hot": 2103,
      "mist": 2104,
      "mix": 2105,
      "##men": 2106,
      "##urd": 2107,
      "scary": 2108,
      "spent": 2109,
      "points": 2110,
      "included": 2111,
      "democr": 2112,
      "cooperation": 2113,
      "presidency": 2114,
      "##arch": 2115,
      "provide": 2116,
      "employment": 2117,
      "##pid": 2118,
      "##arity": 2119,
      "enc": 2120,
      "fill": 2121,
      "##ges": 2122,
      "##bury": 2123,
      "refer": 2124,
      "sho": 2125,
      "loves": 2126,
      "touch": 2127,
      "##erv": 2128,
      "##oud": 2129,
      "coming": 2130,
      "chapter": 2131,
      "throughout": 2132,
      "stupid": 2133,
      "agenda": 2134,
      "involved": 2135,
      "enlar": 2136,
      "ris": 2137,
      "##up": 2138,
      "##dle": 2139,
      "##by": 2140,
      "##oura": 2141,
      "sto": 2142,
      "##amp": 2143,
      "ant": 2144,
      "##imin": 2145,
      "concept": 2146,
      "press": 2147,
      "recommended": 2148,
      "1984": 2149,
      "cust": 2150,
      "wind": 2151,
      "##ones": 2152,
      "##isions": 2153,
      "proced": 2154,
      "pla": 2155,
      "cla": 2156,
      "applic": 2157,
      "annoy": 2158,
      "popul": 2159,
      "sorry": 2160,
      "industry": 2161,
      "hus": 2162,
      "##dd": 2163,
      "##ley": 2164,
      "suff": 2165,
      "dog": 2166,
      "##antly": 2167,
      "meet": 2168,
      "listening": 2169,
      "description": 2170,
      "internal": 2171,
      "projects": 2172,
      "gift": 2173,
      "arrived": 2174,
      "husband": 2175,
      "voice": 2176,
      "##lo": 2177,
      "##gement": 2178,
      "bey": 2179,
      "haven": 2180,
      "weak": 2181,
      "##ief": 2182,
      "brad": 2183,
      "invest": 2184,
      "awesome": 2185,
      "entertaining": 2186,
      "##ape": 2187,
      "##ms": 2188,
      "##ows": 2189,
      "among": 2190,
      "lea": 2191,
      "remind": 2192,
      "##ledge": 2193,
      "current": 2194,
      "dance": 2195,
      "jack": 2196,
      "sand": 2197,
      "##eur": 2198,
      "note": 2199,
      "send": 2200,
      "##ants": 2201,
      "intend": 2202,
      "access": 2203,
      "clean": 2204,
      "importance": 2205,
      "approach": 2206,
      "affair": 2207,
      "beyond": 2208,
      "bab": 2209,
      "none": 2210,
      "##ration": 2211,
      "##let": 2212,
      "usually": 2213,
      "offer": 2214,
      "deser": 2215,
      "instruct": 2216,
      "useful": 2217,
      "apart": 2218,
      "value": 2219,
      "create": 2220,
      "message": 2221,
      "resolution": 2222,
      "danger": 2223,
      "##uced": 2224,
      "##for": 2225,
      "lives": 2226,
      "summ": 2227,
      "mac": 2228,
      "wrote": 2229,
      "prepar": 2230,
      "positive": 2231,
      "court": 2232,
      "draw": 2233,
      "energy": 2234,
      "bal": 2235,
      "foc": 2236,
      "##ral": 2237,
      "##body": 2238,
      "##alth": 2239,
      "beat": 2240,
      "conv": 2241,
      "upon": 2242,
      "key": 2243,
      "event": 2244,
      "scene": 2245,
      "improve": 2246,
      "despite": 2247,
      "100": 2248,
      "games": 2249,
      "six": 2250,
      "##tle": 2251,
      "##bage": 2252,
      "##ction": 2253,
      "##eth": 2254,
      "##ili": 2255,
      "content": 2256,
      "humor": 2257,
      "typ": 2258,
      "connect": 2259,
      "deliver": 2260,
      "integr": 2261,
      "custom": 2262,
      "##itar": 2263,
      "aspect": 2264,
      "peace": 2265,
      "appre": 2266,
      "watched": 2267,
      "appropri": 2268,
      "manufactur": 2269,
      "giving": 2270,
      "pot": 2271,
      "ru": 2272,
      "sort": 2273,
      "##iced": 2274,
      "##irth": 2275,
      "##akes": 2276,
      "basis": 2277,
      "basic": 2278,
      "##ney": 2279,
      "garbage": 2280,
      "german": 2281,
      "guidel": 2282,
      "mult": 2283,
      "##por": 2284,
      "##ien": 2285,
      "##ication": 2286,
      "##urity": 2287,
      "libr": 2288,
      "unit": 2289,
      "thanks": 2290,
      "known": 2291,
      "##ension": 2292,
      "##ife": 2293,
      "##ified": 2294,
      "spir": 2295,
      "personal": 2296,
      "publish": 2297,
      "require": 2298,
      "graph": 2299,
      "honest": 2300,
      "rapport": 2301,
      "fans": 2302,
      "##la": 2303,
      "forget": 2304,
      "stick": 2305,
      "intell": 2306,
      "##play": 2307,
      "progress": 2308,
      "talking": 2309,
      "environment": 2310,
      "paid": 2311,
      "audio": 2312,
      "document": 2313,
      "rapporteur": 2314,
      "##ior": 2315,
      "french": 2316,
      "films": 2317,
      "emot": 2318,
      "rural": 2319,
      "actors": 2320,
      "resources": 2321,
      "blu": 2322,
      "conclus": 2323,
      "individ": 2324,
      "similar": 2325,
      "lots": 2326,
      "proposals": 2327,
      "guidelines": 2328,
      "45": 2329,
      "cir": 2330,
      "ir": 2331,
      "chall": 2332,
      "heav": 2333,
      "production": 2334,
      "pleased": 2335,
      "literature": 2336,
      "illustr": 2337,
      "soul": 2338,
      "doubt": 2339,
      "mer": 2340,
      "##hes": 2341,
      "wel": 2342,
      "dead": 2343,
      "##uction": 2344,
      "##aging": 2345,
      "histor": 2346,
      "behind": 2347,
      "appreci": 2348,
      "cook": 2349,
      "dan": 2350,
      "##icip": 2351,
      "haun": 2352,
      "death": 2353,
      "writer": 2354,
      "charge": 2355,
      "happened": 2356,
      "voc": 2357,
      "##ites": 2358,
      "##vert": 2359,
      "actual": 2360,
      "blue": 2361,
      "decent": 2362,
      "figure": 2363,
      "essential": 2364,
      "satis": 2365,
      "article": 2366,
      "cause": 2367,
      "je": 2368,
      "nat": 2369,
      "##asons": 2370,
      "##oose": 2371,
      "living": 2372,
      "chance": 2373,
      "frame": 2374,
      "##oph": 2375,
      "tale": 2376,
      "tape": 2377,
      "knowledge": 2378,
      "instru": 2379,
      "pieces": 2380,
      "middle": 2381,
      "bradbury": 2382,
      "body": 2383,
      "fle": 2384,
      "pu": 2385,
      "sens": 2386,
      "##yr": 2387,
      "##more": 2388,
      "repe": 2389,
      "##idence": 2390,
      "themselves": 2391,
      "##like": 2392,
      "foot": 2393,
      "fundament": 2394,
      "mentioned": 2395,
      "environmental": 2396,
      "responsibility": 2397,
      "plastic": 2398,
      "leave": 2399,
      "scar": 2400,
      "address": 2401,
      "kindle": 2402,
      "structural": 2403,
      "library": 2404,
      "date": 2405,
      "vi": 2406,
      "##asc": 2407,
      "deep": 2408,
      "printer": 2409,
      "shipping": 2410,
      "ge": 2411,
      "rich": 2412,
      "##ners": 2413,
      "##ening": 2414,
      "##ires": 2415,
      "hero": 2416,
      "continu": 2417,
      "international": 2418,
      "features": 2419,
      "##ta": 2420,
      "##ians": 2421,
      "rev": 2422,
      "ship": 2423,
      "##ried": 2424,
      "recently": 2425,
      "interreg": 2426,
      "##ground": 2427,
      "roll": 2428,
      "turned": 2429,
      "poorly": 2430,
      "condition": 2431,
      "replacement": 2432,
      "achieve": 2433,
      "obviously": 2434,
      "exactly": 2435,
      "lat": 2436,
      "tas": 2437,
      "##isod": 2438,
      "tom": 2439,
      "search": 2440,
      "above": 2441,
      "anyway": 2442,
      "##ptions": 2443,
      "saying": 2444,
      "feeling": 2445,
      "portug": 2446,
      "agreement": 2447,
      "episod": 2448,
      "individual": 2449,
      "40": 2450,
      "swe": 2451,
      "force": 2452,
      "plus": 2453,
      "security": 2454,
      "capt": 2455,
      "leader": 2456,
      "dialogue": 2457,
      "enlargement": 2458,
      "bene": 2459,
      "cars": 2460,
      "dro": 2461,
      "pull": 2462,
      "rent": 2463,
      "##use": 2464,
      "##icial": 2465,
      "mel": 2466,
      "greater": 2467,
      "adult": 2468,
      "travel": 2469,
      "insp": 2470,
      "seriously": 2471,
      "profess": 2472,
      "fantastic": 2473,
      "software": 2474,
      "80": 2475,
      "cross": 2476,
      "dream": 2477,
      "hy": 2478,
      "hate": 2479,
      "charger": 2480,
      "wants": 2481,
      "economy": 2482,
      "events": 2483,
      "equal": 2484,
      "da": 2485,
      "norm": 2486,
      "ren": 2487,
      "tre": 2488,
      "##arant": 2489,
      "anal": 2490,
      "##ilt": 2491,
      "becom": 2492,
      "regarding": 2493,
      "protection": 2494,
      "spirit": 2495,
      "gent": 2496,
      "##hic": 2497,
      "##sc": 2498,
      "##bing": 2499,
      "reference": 2500,
      "##etic": 2501,
      "max": 2502,
      "collect": 2503,
      "aware": 2504,
      "groups": 2505,
      "immedi": 2506,
      "model": 2507,
      "austria": 2508,
      "bottom": 2509,
      "fundamental": 2510,
      "##inist": 2511,
      "front": 2512,
      "strength": 2513,
      "cred": 2514,
      "albums": 2515,
      "slight": 2516,
      "talk": 2517,
      "meaning": 2518,
      "objectives": 2519,
      "performance": 2520,
      "susp": 2521,
      "bi": 2522,
      "van": 2523,
      "vot": 2524,
      "sequ": 2525,
      "brother": 2526,
      "insight": 2527,
      "proposed": 2528,
      "avoid": 2529,
      "skin": 2530,
      "predict": 2531,
      "annoying": 2532,
      "##tra": 2533,
      "ital": 2534,
      "anim": 2535,
      "##uses": 2536,
      "contact": 2537,
      "##aking": 2538,
      "setting": 2539,
      "authority": 2540,
      "include": 2541,
      "following": 2542,
      "adopted": 2543,
      "legislation": 2544,
      "opportunity": 2545,
      "##load": 2546,
      "circ": 2547,
      "hit": 2548,
      "nature": 2549,
      "vict": 2550,
      "##ze": 2551,
      "select": 2552,
      "trad": 2553,
      "truth": 2554,
      "office": 2555,
      "space": 2556,
      "smo": 2557,
      "discover": 2558,
      "request": 2559,
      "grand": 2560,
      "ident": 2561,
      "tour": 2562,
      "##ring": 2563,
      "##iny": 2564,
      "##onst": 2565,
      "comment": 2566,
      "##ield": 2567,
      "diss": 2568,
      "advert": 2569,
      "##ify": 2570,
      "products": 2571,
      "guys": 2572,
      "consum": 2573,
      "hands": 2574,
      "hoping": 2575,
      "concerns": 2576,
      "answer": 2577,
      "relationship": 2578,
      "affairs": 2579,
      "gentle": 2580,
      "tight": 2581,
      "wife": 2582,
      "greatest": 2583,
      "dig": 2584,
      "ground": 2585,
      "subst": 2586,
      "policies": 2587,
      "warm": 2588,
      "results": 2589,
      "catch": 2590,
      "lay": 2591,
      "oh": 2592,
      "##bel": 2593,
      "tool": 2594,
      "##sequ": 2595,
      "intergo": 2596,
      "prevent": 2597,
      "apple": 2598,
      "guarant": 2599,
      "road": 2600,
      "reality": 2601,
      "talent": 2602,
      "##vernmental": 2603,
      "million": 2604,
      "intergovernmental": 2605,
      "bill": 2606,
      "mother": 2607,
      "pet": 2608,
      "##back": 2609,
      "##ony": 2610,
      "##ann": 2611,
      "##arr": 2612,
      "##enty": 2613,
      "frustr": 2614,
      "##umb": 2615,
      "helpful": 2616,
      "inside": 2617,
      "basically": 2618,
      "returned": 2619,
      "required": 2620,
      "solid": 2621,
      "objective": 2622,
      "moment": 2623,
      "##ography": 2624,
      "complain": 2625,
      "risk": 2626,
      "ign": 2627,
      "late": 2628,
      "rub": 2629,
      "##vant": 2630,
      "prose": 2631,
      "recent": 2632,
      "activ": 2633,
      "seeing": 2634,
      "final": 2635,
      "waiting": 2636,
      "25": 2637,
      "dest": 2638,
      "ps": 2639,
      "vir": 2640,
      "##inating": 2641,
      "##ison": 2642,
      "##lying": 2643,
      "##ams": 2644,
      "somewh": 2645,
      "adapter": 2646,
      "putting": 2647,
      "boots": 2648,
      "fully": 2649,
      "00": 2650,
      "fasc": 2651,
      "pair": 2652,
      "##orge": 2653,
      "manag": 2654,
      "knew": 2655,
      "brit": 2656,
      "matt": 2657,
      "transform": 2658,
      "transpar": 2659,
      "disappointment": 2660,
      "novels": 2661,
      "released": 2662,
      "##ruction": 2663,
      "running": 2664,
      "somewhat": 2665,
      "luck": 2666,
      "mil": 2667,
      "##iant": 2668,
      "##zy": 2669,
      "##orn": 2670,
      "alone": 2671,
      "readers": 2672,
      "ways": 2673,
      "across": 2674,
      "eyes": 2675,
      "rating": 2676,
      "tun": 2677,
      "##cut": 2678,
      "##ores": 2679,
      "##ceed": 2680,
      "weight": 2681,
      "asked": 2682,
      "unlike": 2683,
      "contr": 2684,
      "boot": 2685,
      "trip": 2686,
      "##iculous": 2687,
      "study": 2688,
      "creative": 2689,
      "century": 2690,
      "occas": 2691,
      "ladies": 2692,
      "fem": 2693,
      "ii": 2694,
      "jour": 2695,
      "mine": 2696,
      "ut": 2697,
      "bear": 2698,
      "##key": 2699,
      "##pper": 2700,
      "plain": 2701,
      "prodi": 2702,
      "##arely": 2703,
      "purpose": 2704,
      "phil": 2705,
      "earth": 2706,
      "central": 2707,
      "majority": 2708,
      "stopped": 2709,
      "baby": 2710,
      "jap": 2711,
      "wall": 2712,
      "##to": 2713,
      "##bit": 2714,
      "thin": 2715,
      "ine": 2716,
      "##oti": 2717,
      "united": 2718,
      "foundation": 2719,
      "##ological": 2720,
      "broke": 2721,
      "values": 2722,
      "metal": 2723,
      "seller": 2724,
      "negoti": 2725,
      "graphics": 2726,
      "heavy": 2727,
      "bother": 2728,
      "birth": 2729,
      "king": 2730,
      "pill": 2731,
      "rate": 2732,
      "ten": 2733,
      "thor": 2734,
      "town": 2735,
      "##amm": 2736,
      "background": 2737,
      "vehic": 2738,
      "monitor": 2739,
      "decisions": 2740,
      "authorities": 2741,
      "border": 2742,
      "provided": 2743,
      "advent": 2744,
      "scient": 2745,
      "affect": 2746,
      "administ": 2747,
      "ri": 2748,
      "tem": 2749,
      "##old": 2750,
      "##ray": 2751,
      "##wood": 2752,
      "##esh": 2753,
      "##verage": 2754,
      "##iev": 2755,
      "held": 2756,
      "unc": 2757,
      "##ource": 2758,
      "prefer": 2759,
      "guide": 2760,
      "brill": 2761,
      "training": 2762,
      "mont": 2763,
      "##uese": 2764,
      "carry": 2765,
      "assist": 2766,
      "dram": 2767,
      "amendment": 2768,
      "hur": 2769,
      "net": 2770,
      "sal": 2771,
      "##light": 2772,
      "throw": 2773,
      "##ering": 2774,
      "##itude": 2775,
      "##lling": 2776,
      "season": 2777,
      "code": 2778,
      "spo": 2779,
      "ended": 2780,
      "brought": 2781,
      "expensive": 2782,
      "advice": 2783,
      "cultural": 2784,
      "##ification": 2785,
      "appears": 2786,
      "sector": 2787,
      "straight": 2788,
      "according": 2789,
      "dangerous": 2790,
      "welcome": 2791,
      "portuguese": 2792,
      "ban": 2793,
      "dim": 2794,
      "fi": 2795,
      "joy": 2796,
      "tast": 2797,
      "##head": 2798,
      "inn": 2799,
      "reasons": 2800,
      "fell": 2801,
      "firstly": 2802,
      "happens": 2803,
      "waist": 2804,
      "awful": 2805,
      "learned": 2806,
      "responsible": 2807,
      "implementation": 2808,
      "surprised": 2809,
      "appropriate": 2810,
      "japan": 2811,
      "11": 2812,
      "tur": 2813,
      "table": 2814,
      "exch": 2815,
      "moving": 2816,
      "mag": 2817,
      "trou": 2818,
      "uses": 2819,
      "knows": 2820,
      "smell": 2821,
      "flat": 2822,
      "older": 2823,
      "letter": 2824,
      "director": 2825,
      "demand": 2826,
      "explain": 2827,
      "excited": 2828,
      "section": 2829,
      "changed": 2830,
      "practice": 2831,
      "cin": 2832,
      "ms": 2833,
      "##oof": 2834,
      "shame": 2835,
      "share": 2836,
      "myst": 2837,
      "clos": 2838,
      "imposs": 2839,
      "remain": 2840,
      "enjoyable": 2841,
      "starts": 2842,
      "america": 2843,
      "finished": 2844,
      "changes": 2845,
      "increase": 2846,
      "cable": 2847,
      "ye": 2848,
      "##rit": 2849,
      "##iece": 2850,
      "mach": 2851,
      "outside": 2852,
      "##apters": 2853,
      "div": 2854,
      "manson": 2855,
      "crime": 2856,
      "interests": 2857,
      "details": 2858,
      "benef": 2859,
      "fra": 2860,
      "lyr": 2861,
      "mount": 2862,
      "pump": 2863,
      "##rated": 2864,
      "##ators": 2865,
      "##anced": 2866,
      "##ript": 2867,
      "##racy": 2868,
      "##apoint": 2869,
      "twice": 2870,
      "memory": 2871,
      "download": 2872,
      "presented": 2873,
      "package": 2874,
      "gentlemen": 2875,
      "thorough": 2876,
      "000": 2877,
      "aim": 2878,
      "average": 2879,
      "hp": 2880,
      "hook": 2881,
      "lines": 2882,
      "rice": 2883,
      "##eign": 2884,
      "##cent": 2885,
      "##onse": 2886,
      "whate": 2887,
      "shape": 2888,
      "near": 2889,
      "scan": 2890,
      "disappointing": 2891,
      "communication": 2892,
      "created": 2893,
      "depth": 2894,
      "appear": 2895,
      "harm": 2896,
      "limited": 2897,
      "ridiculous": 2898,
      "democratic": 2899,
      "encoura": 2900,
      "whatever": 2901,
      "push": 2902,
      "##ax": 2903,
      "##uel": 2904,
      "##ik": 2905,
      "##fr": 2906,
      "comments": 2907,
      "##ills": 2908,
      "recyc": 2909,
      "grant": 2910,
      "indic": 2911,
      "complex": 2912,
      "educ": 2913,
      "concert": 2914,
      "pleas": 2915,
      "personally": 2916,
      "confusing": 2917,
      "camp": 2918,
      "costs": 2919,
      "conditions": 2920,
      "admit": 2921,
      "##board": 2922,
      "efforts": 2923,
      "critic": 2924,
      "procedure": 2925,
      "impossible": 2926,
      "dull": 2927,
      "fix": 2928,
      "junk": 2929,
      "ul": 2930,
      "##aced": 2931,
      "##ees": 2932,
      "##edy": 2933,
      "##ston": 2934,
      "##amed": 2935,
      "shar": 2936,
      "sold": 2937,
      "##antic": 2938,
      "whose": 2939,
      "fear": 2940,
      "script": 2941,
      "news": 2942,
      "region": 2943,
      "parents": 2944,
      "authors": 2945,
      "genre": 2946,
      "himself": 2947,
      "explan": 2948,
      "response": 2949,
      "sony": 2950,
      "connection": 2951,
      "451": 2952,
      "appreciate": 2953,
      "viol": 2954,
      "immediately": 2955,
      "cat": 2956,
      "pen": 2957,
      "pal": 2958,
      "pure": 2959,
      "rap": 2960,
      "sitting": 2961,
      "ver": 2962,
      "wood": 2963,
      "##oon": 2964,
      "##reh": 2965,
      "##arily": 2966,
      "haw": 2967,
      "health": 2968,
      "canon": 2969,
      "strange": 2970,
      "crimin": 2971,
      "flo": 2972,
      "obs": 2973,
      "accur": 2974,
      "demonst": 2975,
      "companies": 2976,
      "behalf": 2977,
      "introduction": 2978,
      "imagine": 2979,
      "##icient": 2980,
      "radio": 2981,
      "published": 2982,
      "historical": 2983,
      "den": 2984,
      "##ext": 2985,
      "##yn": 2986,
      "##mp": 2987,
      "hell": 2988,
      "##gel": 2989,
      "##azz": 2990,
      "emph": 2991,
      "difference": 2992,
      "warning": 2993,
      "examples": 2994,
      "perfectly": 2995,
      "technical": 2996,
      "romance": 2997,
      "standards": 2998,
      "14": 2999,
      "aut": 3000,
      "ber": 3001,
      "und": 3002,
      "##iet": 3003,
      "##ina": 3004,
      "##ese": 3005,
      "##iding": 3006,
      "doll": 3007,
      "commit": 3008,
      "##ously": 3009,
      "##ips": 3010,
      "soundtra": 3011,
      "minute": 3012,
      "stuck": 3013,
      "students": 3014,
      "independ": 3015,
      "multi": 3016,
      "bunch": 3017,
      "cart": 3018,
      "city": 3019,
      "civ": 3020,
      "los": 3021,
      "link": 3022,
      "tend": 3023,
      "##cul": 3024,
      "##ened": 3025,
      "##verse": 3026,
      "alot": 3027,
      "altern": 3028,
      "feet": 3029,
      "actions": 3030,
      "firm": 3031,
      "aren": 3032,
      "context": 3033,
      "##seless": 3034,
      "grade": 3035,
      "glob": 3036,
      "format": 3037,
      "considered": 3038,
      "described": 3039,
      "currently": 3040,
      "specif": 3041,
      "conclusion": 3042,
      "satisf": 3043,
      "emphas": 3044,
      "99": 3045,
      "dur": 3046,
      "fab": 3047,
      "gone": 3048,
      "hund": 3049,
      "##gent": 3050,
      "stated": 3051,
      "shot": 3052,
      "ready": 3053,
      "built": 3054,
      "##ague": 3055,
      "particip": 3056,
      "##lier": 3057,
      "easier": 3058,
      "learning": 3059,
      "broad": 3060,
      "delight": 3061,
      "incredible": 3062,
      "suspense": 3063,
      "mattress": 3064,
      "lyrics": 3065,
      "hundred": 3066,
      "joint": 3067,
      "##omp": 3068,
      "nearly": 3069,
      "##ppy": 3070,
      "trash": 3071,
      "cohes": 3072,
      "##itted": 3073,
      "argu": 3074,
      "incor": 3075,
      "appar": 3076,
      "plays": 3077,
      "keeps": 3078,
      "##ugg": 3079,
      "refund": 3080,
      "promot": 3081,
      "priv": 3082,
      "##heit": 3083,
      "fairly": 3084,
      "precise": 3085,
      "prepared": 3086,
      "puzz": 3087,
      "13": 3088,
      "field": 3089,
      "lapt": 3090,
      "wide": 3091,
      "##ett": 3092,
      "web": 3093,
      "##ieved": 3094,
      "liber": 3095,
      "trade": 3096,
      "contains": 3097,
      "stress": 3098,
      "reviewers": 3099,
      "transfer": 3100,
      "subs": 3101,
      "considering": 3102,
      "powerful": 3103,
      "levels": 3104,
      "services": 3105,
      "regular": 3106,
      "signific": 3107,
      "intellig": 3108,
      "framework": 3109,
      "analys": 3110,
      "fascinating": 3111,
      "global": 3112,
      "laptop": 3113,
      "breat": 3114,
      "jaw": 3115,
      "land": 3116,
      "##een": 3117,
      "##just": 3118,
      "##ionally": 3119,
      "##rown": 3120,
      "webs": 3121,
      "choice": 3122,
      "disaster": 3123,
      "arr": 3124,
      "speed": 3125,
      "function": 3126,
      "matters": 3127,
      "extend": 3128,
      "bored": 3129,
      "surf": 3130,
      "depress": 3131,
      "protect": 3132,
      "legisl": 3133,
      "college": 3134,
      "convin": 3135,
      "british": 3136,
      "cord": 3137,
      "die": 3138,
      "##ope": 3139,
      "stock": 3140,
      "##thor": 3141,
      "shir": 3142,
      "chapters": 3143,
      "prim": 3144,
      "unre": 3145,
      "##umm": 3146,
      "trust": 3147,
      "clim": 3148,
      "guitar": 3149,
      "sets": 3150,
      "expecting": 3151,
      "turns": 3152,
      "regulations": 3153,
      "unique": 3154,
      "strategy": 3155,
      "haunting": 3156,
      "transparency": 3157,
      "soundtrack": 3158,
      "cohesion": 3159,
      "ball": 3160,
      "cave": 3161,
      "rh": 3162,
      "tar": 3163,
      "##ky": 3164,
      "thus": 3165,
      "forever": 3166,
      "forced": 3167,
      "stage": 3168,
      "hair": 3169,
      "ourselves": 3170,
      "regret": 3171,
      "brief": 3172,
      "added": 3173,
      "developed": 3174,
      "deter": 3175,
      "crap": 3176,
      "medium": 3177,
      "principles": 3178,
      "picked": 3179,
      "expressed": 3180,
      "windows": 3181,
      "leaves": 3182,
      "focus": 3183,
      "##ievable": 3184,
      "civil": 3185,
      "18": 3186,
      "cases": 3187,
      "mich": 3188,
      "path": 3189,
      "useless": 3190,
      "pros": 3191,
      "consequ": 3192,
      "##aught": 3193,
      "cold": 3194,
      "feature": 3195,
      "bug": 3196,
      "tele": 3197,
      "consist": 3198,
      "minor": 3199,
      "concerning": 3200,
      "understanding": 3201,
      "creating": 3202,
      "capital": 3203,
      "broken": 3204,
      "crazy": 3205,
      "recording": 3206,
      "increasing": 3207,
      "negative": 3208,
      "statement": 3209,
      "volume": 3210,
      "influ": 3211,
      "filled": 3212,
      "website": 3213,
      "led": 3214,
      "##ding": 3215,
      "##piece": 3216,
      "theat": 3217,
      "##lled": 3218,
      "##ches": 3219,
      "mostly": 3220,
      "ends": 3221,
      "facts": 3222,
      "terri": 3223,
      "attach": 3224,
      "provides": 3225,
      "telling": 3226,
      "jobs": 3227,
      "exciting": 3228,
      "okay": 3229,
      "constit": 3230,
      "incredibly": 3231,
      "places": 3232,
      "potential": 3233,
      "natural": 3234,
      "flex": 3235,
      "becomes": 3236,
      "digital": 3237,
      "management": 3238,
      "du": 3239,
      "jazz": 3240,
      "sam": 3241,
      "##ient": 3242,
      "##isher": 3243,
      "##iday": 3244,
      "wasted": 3245,
      "##iment": 3246,
      "france": 3247,
      "interp": 3248,
      "##icks": 3249,
      "musical": 3250,
      "realize": 3251,
      "##standing": 3252,
      "covers": 3253,
      "skip": 3254,
      "##ucing": 3255,
      "vehicles": 3256,
      "loud": 3257,
      "##acy": 3258,
      "##ued": 3259,
      "##dy": 3260,
      "##rate": 3261,
      "##rors": 3262,
      "##iff": 3263,
      "isra": 3264,
      "forth": 3265,
      "##cies": 3266,
      "usual": 3267,
      "became": 3268,
      "appl": 3269,
      "thrill": 3270,
      "phone": 3271,
      "earlier": 3272,
      "receive": 3273,
      "movement": 3274,
      "teacher": 3275,
      "austrian": 3276,
      "impressed": 3277,
      "customer": 3278,
      "criminal": 3279,
      "israel": 3280,
      "bow": 3281,
      "fits": 3282,
      "jan": 3283,
      "##how": 3284,
      "##ych": 3285,
      "##bone": 3286,
      "##10": 3287,
      "##ered": 3288,
      "##ored": 3289,
      "##ading": 3290,
      "stri": 3291,
      "notice": 3292,
      "une": 3293,
      "compreh": 3294,
      "feed": 3295,
      "##ization": 3296,
      "apply": 3297,
      "economics": 3298,
      "smaller": 3299,
      "politics": 3300,
      "tells": 3301,
      "descriptions": 3302,
      "items": 3303,
      "electron": 3304,
      "morning": 3305,
      "photos": 3306,
      "properly": 3307,
      "illustrations": 3308,
      "task": 3309,
      "slightly": 3310,
      "female": 3311,
      "brilliant": 3312,
      "analysis": 3313,
      "ahead": 3314,
      "bay": 3315,
      "bag": 3316,
      "base": 3317,
      "fish": 3318,
      "father": 3319,
      "##vision": 3320,
      "##ana": 3321,
      "forg": 3322,
      "shock": 3323,
      "likes": 3324,
      "deg": 3325,
      "##employ": 3326,
      "plenty": 3327,
      "leak": 3328,
      "upd": 3329,
      "safe": 3330,
      "##odies": 3331,
      "flaw": 3332,
      "helps": 3333,
      "reflect": 3334,
      "internet": 3335,
      "opened": 3336,
      "initiatives": 3337,
      "girls": 3338,
      "discussion": 3339,
      "motion": 3340,
      "manufacturer": 3341,
      "predictable": 3342,
      "##rant": 3343,
      "reci": 3344,
      "comedy": 3345,
      "ability": 3346,
      "unemploy": 3347,
      "likely": 3348,
      "##ective": 3349,
      "official": 3350,
      "cru": 3351,
      "feels": 3352,
      "artist": 3353,
      "covered": 3354,
      "governments": 3355,
      "brain": 3356,
      "solution": 3357,
      "drive": 3358,
      "practical": 3359,
      "democracy": 3360,
      "elements": 3361,
      "claim": 3362,
      "##iliar": 3363,
      "aspects": 3364,
      "sweet": 3365,
      "dut": 3366,
      "eur": 3367,
      "fol": 3368,
      "hun": 3369,
      "length": 3370,
      "mass": 3371,
      "pc": 3372,
      "sust": 3373,
      "##asy": 3374,
      "##lear": 3375,
      "##imov": 3376,
      "depend": 3377,
      "reads": 3378,
      "compared": 3379,
      "gold": 3380,
      "faith": 3381,
      "storyline": 3382,
      "##izes": 3383,
      "holly": 3384,
      "helped": 3385,
      "singing": 3386,
      "confidence": 3387,
      "relevant": 3388,
      "planning": 3389,
      "green": 3390,
      "mistake": 3391,
      "eventually": 3392,
      "challeng": 3393,
      "vocals": 3394,
      "psych": 3395,
      "##friend": 3396,
      "##thorne": 3397,
      "cal": 3398,
      "cry": 3399,
      "jun": 3400,
      "loss": 3401,
      "rand": 3402,
      "wild": 3403,
      "##erc": 3404,
      "##order": 3405,
      "##rew": 3406,
      "asimov": 3407,
      "##imum": 3408,
      "##illy": 3409,
      "sun": 3410,
      "magic": 3411,
      "writ": 3412,
      "offers": 3413,
      "starting": 3414,
      "direction": 3415,
      "adventure": 3416,
      "trouble": 3417,
      "mystery": 3418,
      "hawthorne": 3419,
      "16": 3420,
      "ce": 3421,
      "mc": 3422,
      "##hren": 3423,
      "##sh": 3424,
      "##pes": 3425,
      "##enn": 3426,
      "online": 3427,
      "noticed": 3428,
      "cho": 3429,
      "fran": 3430,
      "##ively": 3431,
      "unable": 3432,
      "##agraph": 3433,
      "partners": 3434,
      "teen": 3435,
      "paragraph": 3436,
      "realistic": 3437,
      "remote": 3438,
      "emb": 3439,
      "secondly": 3440,
      "numbers": 3441,
      "draft": 3442,
      "student": 3443,
      "appeal": 3444,
      "double": 3445,
      "anti": 3446,
      "george": 3447,
      "transformers": 3448,
      "exchange": 3449,
      "ble": 3450,
      "nation": 3451,
      "range": 3452,
      "site": 3453,
      "wow": 3454,
      "##yl": 3455,
      "##0s": 3456,
      "##erely": 3457,
      "compar": 3458,
      "interview": 3459,
      "herself": 3460,
      "scr": 3461,
      "charging": 3462,
      "fahren": 3463,
      "twist": 3464,
      "rob": 3465,
      "highlight": 3466,
      "hardly": 3467,
      "glass": 3468,
      "edge": 3469,
      "##utionary": 3470,
      "includes": 3471,
      "##ava": 3472,
      "missed": 3473,
      "portray": 3474,
      "batteries": 3475,
      "failed": 3476,
      "summer": 3477,
      "philos": 3478,
      "negotiations": 3479,
      "dry": 3480,
      "hom": 3481,
      "oil": 3482,
      "opt": 3483,
      "pra": 3484,
      "ug": 3485,
      "##ius": 3486,
      "##ero": 3487,
      "##owers": 3488,
      "moves": 3489,
      "unf": 3490,
      "##pective": 3491,
      "finding": 3492,
      "higher": 3493,
      "thoughts": 3494,
      "translation": 3495,
      "relig": 3496,
      "##utional": 3497,
      "elsewhere": 3498,
      "structure": 3499,
      "hollywood": 3500,
      "fahrenheit": 3501,
      "17": 3502,
      "##aff": 3503,
      "##gest": 3504,
      "##ma": 3505,
      "##ino": 3506,
      "##orrow": 3507,
      "##enge": 3508,
      "##otic": 3509,
      "##ads": 3510,
      "notes": 3511,
      "conven": 3512,
      "congr": 3513,
      "neither": 3514,
      "##ulf": 3515,
      "died": 3516,
      "actor": 3517,
      "##lied": 3518,
      "concent": 3519,
      "attack": 3520,
      "informative": 3521,
      "experts": 3522,
      "maintain": 3523,
      "replaced": 3524,
      "detailed": 3525,
      "regulation": 3526,
      "masterpiece": 3527,
      "intended": 3528,
      "tomorrow": 3529,
      "episode": 3530,
      "normal": 3531,
      "tradition": 3532,
      "guarantee": 3533,
      "ult": 3534,
      "ig": 3535,
      "jul": 3536,
      "java": 3537,
      "lol": 3538,
      "ment": 3539,
      "match": 3540,
      "narr": 3541,
      "vib": 3542,
      "##ael": 3543,
      "##co": 3544,
      "##ert": 3545,
      "##inary": 3546,
      "island": 3547,
      "separ": 3548,
      "##ular": 3549,
      "display": 3550,
      "manner": 3551,
      "##izing": 3552,
      "realized": 3553,
      "subm": 3554,
      "brown": 3555,
      "falls": 3556,
      "motor": 3557,
      "building": 3558,
      "application": 3559,
      "instrument": 3560,
      "dissapoint": 3561,
      "benefit": 3562,
      "24": 3563,
      "cro": 3564,
      "cute": 3565,
      "##mber": 3566,
      "##atory": 3567,
      "stre": 3568,
      "sea": 3569,
      "seat": 3570,
      "uns": 3571,
      "willing": 3572,
      "magn": 3573,
      "lose": 3574,
      "anymore": 3575,
      "goods": 3576,
      "produce": 3577,
      "spee": 3578,
      "strugg": 3579,
      "span": 3580,
      "196": 3581,
      "simpl": 3582,
      "listed": 3583,
      "relative": 3584,
      "controls": 3585,
      "romantic": 3586,
      "wearing": 3587,
      "shipped": 3588,
      "damage": 3589,
      "specifically": 3590,
      "jawbone": 3591,
      "arrang": 3592,
      "target": 3593,
      "philosoph": 3594,
      "ultim": 3595,
      "3d": 3596,
      "dav": 3597,
      "odd": 3598,
      "rac": 3599,
      "##nes": 3600,
      "##cer": 3601,
      "##rict": 3602,
      "##ker": 3603,
      "##ball": 3604,
      "##onna": 3605,
      "react": 3606,
      "##ession": 3607,
      "exerc": 3608,
      "##cked": 3609,
      "meant": 3610,
      "club": 3611,
      "##ished": 3612,
      "score": 3613,
      "fault": 3614,
      "##sels": 3615,
      "farm": 3616,
      "obl": 3617,
      "board": 3618,
      "versions": 3619,
      "##accept": 3620,
      "listened": 3621,
      "drawn": 3622,
      "assess": 3623,
      "distur": 3624,
      "speaking": 3625,
      "moments": 3626,
      "errors": 3627,
      "device": 3628,
      "taste": 3629,
      "accurate": 3630,
      "ugly": 3631,
      "bon": 3632,
      "dub": 3633,
      "fif": 3634,
      "ip": 3635,
      "kos": 3636,
      "##hood": 3637,
      "##rid": 3638,
      "threat": 3639,
      "reject": 3640,
      "##uted": 3641,
      "##irm": 3642,
      "fresh": 3643,
      "unaccept": 3644,
      "mail": 3645,
      "outstanding": 3646,
      "impact": 3647,
      "prem": 3648,
      "players": 3649,
      "desk": 3650,
      "cris": 3651,
      "email": 3652,
      "expectations": 3653,
      "drag": 3654,
      "cards": 3655,
      "opening": 3656,
      "construction": 3657,
      "meth": 3658,
      "raised": 3659,
      "boys": 3660,
      "occur": 3661,
      "balance": 3662,
      "manufacturers": 3663,
      "smooth": 3664,
      "independent": 3665,
      "legislative": 3666,
      "unemployment": 3667,
      "kosov": 3668,
      "fright": 3669,
      "loose": 3670,
      "##itable": 3671,
      "##leg": 3672,
      "##iel": 3673,
      "##theless": 3674,
      "##olic": 3675,
      "coord": 3676,
      "tab": 3677,
      "##bert": 3678,
      "blood": 3679,
      "reviewer": 3680,
      "camc": 3681,
      "possibly": 3682,
      "returning": 3683,
      "follows": 3684,
      "##quez": 3685,
      "entirely": 3686,
      "packaging": 3687,
      "hearing": 3688,
      "steel": 3689,
      "designed": 3690,
      "##coming": 3691,
      "meeting": 3692,
      "jean": 3693,
      "renew": 3694,
      "##mpath": 3695,
      "subsid": 3696,
      "determ": 3697,
      "era": 3698,
      "james": 3699,
      "sque": 3700,
      "##ially": 3701,
      "##ka": 3702,
      "beats": 3703,
      "fort": 3704,
      "##char": 3705,
      "weird": 3706,
      "asking": 3707,
      "shown": 3708,
      "choose": 3709,
      "##ilities": 3710,
      "##ulate": 3711,
      "##rap": 3712,
      "quot": 3713,
      "usb": 3714,
      "agr": 3715,
      "nevertheless": 3716,
      "showing": 3717,
      "syn": 3718,
      "singer": 3719,
      "reasonable": 3720,
      "happening": 3721,
      "lacking": 3722,
      "delay": 3723,
      "caused": 3724,
      "adopt": 3725,
      "eye": 3726,
      "successful": 3727,
      "instructions": 3728,
      "requirements": 3729,
      "professional": 3730,
      "circum": 3731,
      "floor": 3732,
      "fool": 3733,
      "hes": 3734,
      "tess": 3735,
      "tough": 3736,
      "wire": 3737,
      "##dam": 3738,
      "##omas": 3739,
      "shop": 3740,
      "chem": 3741,
      "chair": 3742,
      "compr": 3743,
      "image": 3744,
      "fellow": 3745,
      "contain": 3746,
      "marquez": 3747,
      "suppose": 3748,
      "carried": 3749,
      "videos": 3750,
      "familiar": 3751,
      "experien": 3752,
      "approved": 3753,
      "respond": 3754,
      "creation": 3755,
      "strongly": 3756,
      "imagination": 3757,
      "visual": 3758,
      "rule": 3759,
      "inspir": 3760,
      "rubber": 3761,
      "activities": 3762,
      "destro": 3763,
      "scientific": 3764,
      "administration": 3765,
      "montag": 3766,
      "thoroughly": 3767,
      "precisely": 3768,
      "michael": 3769,
      "sustain": 3770,
      "unacceptable": 3771,
      "method": 3772,
      "agricult": 3773,
      "barely": 3774,
      "gh": 3775,
      "gree": 3776,
      "hill": 3777,
      "jump": 3778,
      "rab": 3779,
      "##mark": 3780,
      "##bour": 3781,
      "##esy": 3782,
      "##aded": 3783,
      "foreign": 3784,
      "##room": 3785,
      "prime": 3786,
      "male": 3787,
      "somehow": 3788,
      "undert": 3789,
      "remo": 3790,
      "decl": 3791,
      "relation": 3792,
      "symb": 3793,
      "constantly": 3794,
      "vari": 3795,
      "switch": 3796,
      "combat": 3797,
      "contribution": 3798,
      "honestly": 3799,
      "challenge": 3800,
      "advertised": 3801,
      "complaint": 3802,
      "pillow": 3803,
      "assistance": 3804,
      "congrat": 3805,
      "igc": 3806,
      "kosovo": 3807,
      "cities": 3808,
      "east": 3809,
      "hang": 3810,
      "mp": 3811,
      "names": 3812,
      "sil": 3813,
      "sister": 3814,
      "source": 3815,
      "tap": 3816,
      "tiny": 3817,
      "vo": 3818,
      "##lict": 3819,
      "##here": 3820,
      "##pet": 3821,
      "##gate": 3822,
      "##outh": 3823,
      "##urs": 3824,
      "lif": 3825,
      "doct": 3826,
      "amster": 3827,
      "adjust": 3828,
      "closed": 3829,
      "arm": 3830,
      "arch": 3831,
      "charl": 3832,
      "guest": 3833,
      "smith": 3834,
      "genius": 3835,
      "sympath": 3836,
      "generally": 3837,
      "treaties": 3838,
      "younger": 3839,
      "promote": 3840,
      "situations": 3841,
      "implemented": 3842,
      "yester": 3843,
      "succeed": 3844,
      "sexual": 3845,
      "impression": 3846,
      "existing": 3847,
      "machine": 3848,
      "fraud": 3849,
      "harmon": 3850,
      "intelligent": 3851,
      "recipes": 3852,
      "amsterdam": 3853,
      "cand": 3854,
      "eat": 3855,
      "ears": 3856,
      "g4": 3857,
      "hits": 3858,
      "lame": 3859,
      "od": 3860,
      "silly": 3861,
      "ww": 3862,
      "##dom": 3863,
      "##round": 3864,
      "##ingly": 3865,
      "asso": 3866,
      "button": 3867,
      "shut": 3868,
      "sudd": 3869,
      "door": 3870,
      "unbel": 3871,
      "adapt": 3872,
      "bucks": 3873,
      "theme": 3874,
      "parties": 3875,
      "produced": 3876,
      "desire": 3877,
      "grad": 3878,
      "conclud": 3879,
      "emp": 3880,
      "decide": 3881,
      "related": 3882,
      "phys": 3883,
      "##acing": 3884,
      "talks": 3885,
      "consideration": 3886,
      "funding": 3887,
      "followed": 3888,
      "battle": 3889,
      "stargate": 3890,
      "drug": 3891,
      "exclus": 3892,
      "beauty": 3893,
      "beautif": 3894,
      "media": 3895,
      "screw": 3896,
      "limit": 3897,
      "installed": 3898,
      "growing": 3899,
      "fighting": 3900,
      "reached": 3901,
      "popular": 3902,
      "population": 3903,
      "typical": 3904,
      "repeat": 3905,
      "virt": 3906,
      "japanese": 3907,
      "crucial": 3908,
      "writers": 3909,
      "oblig": 3910,
      "sudden": 3911,
      "2nd": 3912,
      "90": 3913,
      "lin": 3914,
      "mas": 3915,
      "mouth": 3916,
      "sized": 3917,
      "sides": 3918,
      "vill": 3919,
      "##time": 3920,
      "##ein": 3921,
      "##ba": 3922,
      "thomas": 3923,
      "##erous": 3924,
      "beware": 3925,
      "wash": 3926,
      "sher": 3927,
      "propose": 3928,
      "amb": 3929,
      "##cious": 3930,
      "disk": 3931,
      "##agues": 3932,
      "##ival": 3933,
      "repet": 3934,
      "197": 3935,
      "puts": 3936,
      "consult": 3937,
      "flick": 3938,
      "discr": 3939,
      "accident": 3940,
      "relate": 3941,
      "artists": 3942,
      "lesson": 3943,
      "confused": 3944,
      "conflict": 3945,
      "##iveness": 3946,
      "measure": 3947,
      "literary": 3948,
      "bottle": 3949,
      "leaving": 3950,
      "contacted": 3951,
      "consumer": 3952,
      "alternative": 3953,
      "puzzle": 3954,
      "camcorder": 3955,
      "circumst": 3956,
      "yesterday": 3957,
      "associ": 3958,
      "dar": 3959,
      "element": 3960,
      "fat": 3961,
      "fing": 3962,
      "fash": 3963,
      "mart": 3964,
      "nuc": 3965,
      "ring": 3966,
      "squ": 3967,
      "##eper": 3968,
      "##cr": 3969,
      "##hs": 3970,
      "##val": 3971,
      "sturd": 3972,
      "##chan": 3973,
      "neigh": 3974,
      "worry": 3975,
      "unus": 3976,
      "commer": 3977,
      "anywhere": 3978,
      "clich": 3979,
      "seek": 3980,
      "spot": 3981,
      "##gins": 3982,
      "gotten": 3983,
      "musicians": 3984,
      "belong": 3985,
      "terror": 3986,
      "dvds": 3987,
      "minister": 3988,
      "attract": 3989,
      "relating": 3990,
      "warrant": 3991,
      "surv": 3992,
      "surround": 3993,
      "views": 3994,
      "mainly": 3995,
      "##while": 3996,
      "markets": 3997,
      "christian": 3998,
      "techni": 3999,
      "strand": 4000,
      "fantasy": 4001,
      "answers": 4002,
      "pressure": 4003,
      "##force": 4004,
      "italy": 4005,
      "innov": 4006,
      "recycling": 4007,
      "multiple": 4008,
      "random": 4009,
      "speech": 4010,
      "david": 4011,
      "ipod": 4012,
      "cath": 4013,
      "gam": 4014,
      "ou": 4015,
      "om": 4016,
      "powers": 4017,
      "ran": 4018,
      "tired": 4019,
      "wit": 4020,
      "##vention": 4021,
      "##any": 4022,
      "plans": 4023,
      "intention": 4024,
      "workers": 4025,
      "clar": 4026,
      "##ager": 4027,
      "perm": 4028,
      "purs": 4029,
      "classics": 4030,
      "cheaper": 4031,
      "perspective": 4032,
      "developing": 4033,
      "reports": 4034,
      "schem": 4035,
      "evil": 4036,
      "former": 4037,
      "requires": 4038,
      "holds": 4039,
      "titan": 4040,
      "sections": 4041,
      "technology": 4042,
      "subjects": 4043,
      "figured": 4044,
      "furthermore": 4045,
      "winston": 4046,
      "labor": 4047,
      "opportunities": 4048,
      "priority": 4049,
      "preca": 4050,
      "deserves": 4051,
      "integration": 4052,
      "episodes": 4053,
      "victims": 4054,
      "cinem": 4055,
      "rhy": 4056,
      "interpret": 4057,
      "forgot": 4058,
      "nuclear": 4059,
      "dick": 4060,
      "jer": 4061,
      "lu": 4062,
      "mood": 4063,
      "nations": 4064,
      "option": 4065,
      "ram": 4066,
      "##lock": 4067,
      "theory": 4068,
      "whe": 4069,
      "##ched": 4070,
      "##erson": 4071,
      "exe": 4072,
      "##emy": 4073,
      "frank": 4074,
      "mechan": 4075,
      "##ums": 4076,
      "noise": 4077,
      "compat": 4078,
      "compare": 4079,
      "coast": 4080,
      "diane": 4081,
      "qual": 4082,
      "scope": 4083,
      "contem": 4084,
      "remove": 4085,
      "factor": 4086,
      "transl": 4087,
      "esc": 4088,
      "originally": 4089,
      "2006": 4090,
      "larger": 4091,
      "entertainment": 4092,
      "steps": 4093,
      "established": 4094,
      "representatives": 4095,
      "placed": 4096,
      "voted": 4097,
      "italian": 4098,
      "journey": 4099,
      "durable": 4100,
      "private": 4101,
      "electronic": 4102,
      "mp3": 4103,
      "fashion": 4104,
      "precautionary": 4105,
      "ay": 4106,
      "boo": 4107,
      "core": 4108,
      "eth": 4109,
      "fed": 4110,
      "mur": 4111,
      "mir": 4112,
      "rat": 4113,
      "rated": 4114,
      "##uff": 4115,
      "##gle": 4116,
      "##isters": 4117,
      "tob": 4118,
      "rein": 4119,
      "##oop": 4120,
      "storm": 4121,
      "##idd": 4122,
      "anth": 4123,
      "##imm": 4124,
      "shakes": 4125,
      "##ille": 4126,
      "dece": 4127,
      "mode": 4128,
      "##oles": 4129,
      "uncom": 4130,
      "outd": 4131,
      "trick": 4132,
      "themes": 4133,
      "##ivity": 4134,
      "strict": 4135,
      "instance": 4136,
      "criter": 4137,
      "below": 4138,
      "flash": 4139,
      "flims": 4140,
      "classes": 4141,
      "lasted": 4142,
      "confirm": 4143,
      "turning": 4144,
      "1998": 4145,
      "1997": 4146,
      "assum": 4147,
      "skills": 4148,
      "favorites": 4149,
      "carefully": 4150,
      "recorded": 4151,
      "frequ": 4152,
      "performances": 4153,
      "involve": 4154,
      "audience": 4155,
      "introduced": 4156,
      "attempts": 4157,
      "sleeping": 4158,
      "types": 4159,
      "mountain": 4160,
      "explanation": 4161,
      "breath": 4162,
      "shirley": 4163,
      "comprehensive": 4164,
      "symbol": 4165,
      "beautifully": 4166,
      "commercial": 4167,
      "70": 4168,
      "bul": 4169,
      "cant": 4170,
      "fulf": 4171,
      "ire": 4172,
      "moth": 4173,
      "ton": 4174,
      "tack": 4175,
      "vamp": 4176,
      "vhs": 4177,
      "##eem": 4178,
      "thick": 4179,
      "##omb": 4180,
      "whom": 4181,
      "##ades": 4182,
      "haider": 4183,
      "##raid": 4184,
      "heat": 4185,
      "enth": 4186,
      "##omend": 4187,
      "hasn": 4188,
      "recomend": 4189,
      "sheets": 4190,
      "specul": 4191,
      "##quate": 4192,
      "repair": 4193,
      "remains": 4194,
      "flow": 4195,
      "secret": 4196,
      "extent": 4197,
      "purchasing": 4198,
      "wondering": 4199,
      "biggest": 4200,
      "wishes": 4201,
      "info": 4202,
      "##ribly": 4203,
      "bands": 4204,
      "allowed": 4205,
      "hopes": 4206,
      "sadly": 4207,
      "colleagues": 4208,
      "investig": 4209,
      "intellect": 4210,
      "credit": 4211,
      "birthday": 4212,
      "affected": 4213,
      "granted": 4214,
      "fishing": 4215,
      "charlie": 4216,
      "circumstances": 4217,
      "21": 4218,
      "35": 4219,
      "austr": 4220,
      "bur": 4221,
      "bound": 4222,
      "lane": 4223,
      "nic": 4224,
      "sick": 4225,
      "tree": 4226,
      "##cd": 4227,
      "##gar": 4228,
      "##alistic": 4229,
      "stret": 4230,
      "stores": 4231,
      "aside": 4232,
      "shel": 4233,
      "wore": 4234,
      "sucks": 4235,
      "intri": 4236,
      "recover": 4237,
      "ages": 4238,
      "##ables": 4239,
      "presents": 4240,
      "afric": 4241,
      "spin": 4242,
      "rod": 4243,
      "traged": 4244,
      "explained": 4245,
      "numerous": 4246,
      "restrict": 4247,
      "difficulties": 4248,
      "nights": 4249,
      "creep": 4250,
      "falling": 4251,
      "driver": 4252,
      "passion": 4253,
      "##ternal": 4254,
      "delivery": 4255,
      "scarlet": 4256,
      "adults": 4257,
      "solidarity": 4258,
      "prosecut": 4259,
      "turkey": 4260,
      "commitment": 4261,
      "incorpor": 4262,
      "significant": 4263,
      "spanish": 4264,
      "flimsy": 4265,
      "austral": 4266,
      "60": 4267,
      "cas": 4268,
      "kar": 4269,
      "lower": 4270,
      "via": 4271,
      "vac": 4272,
      "vision": 4273,
      "wed": 4274,
      "##boy": 4275,
      "##orable": 4276,
      "##omin": 4277,
      "reve": 4278,
      "onto": 4279,
      "##urally": 4280,
      "asse": 4281,
      "##imination": 4282,
      "liability": 4283,
      "##iling": 4284,
      "expos": 4285,
      "##rage": 4286,
      "que": 4287,
      "scared": 4288,
      "knock": 4289,
      "teeth": 4290,
      "saving": 4291,
      "afraid": 4292,
      "applied": 4293,
      "underst": 4294,
      "cds": 4295,
      "##orders": 4296,
      "effici": 4297,
      "programming": 4298,
      "phr": 4299,
      "inspect": 4300,
      "##fortable": 4301,
      "tales": 4302,
      "famous": 4303,
      "studio": 4304,
      "regards": 4305,
      "systems": 4306,
      "distrib": 4307,
      "paying": 4308,
      "speakers": 4309,
      "##thern": 4310,
      "changing": 4311,
      "barb": 4312,
      "##box": 4313,
      "additional": 4314,
      "elev": 4315,
      "holiday": 4316,
      "sandler": 4317,
      "daily": 4318,
      "joyce": 4319,
      "satisfied": 4320,
      "ireland": 4321,
      "a5": 4322,
      "bes": 4323,
      "eight": 4324,
      "gri": 4325,
      "iron": 4326,
      "jones": 4327,
      "mic": 4328,
      "named": 4329,
      "pin": 4330,
      "pun": 4331,
      "round": 4332,
      "sight": 4333,
      "ted": 4334,
      "##lin": 4335,
      "##ca": 4336,
      "##ha": 4337,
      "##fying": 4338,
      "##aling": 4339,
      "##stein": 4340,
      "thats": 4341,
      "##etary": 4342,
      "wealth": 4343,
      "sole": 4344,
      "chann": 4345,
      "complic": 4346,
      "adam": 4347,
      "manual": 4348,
      "poet": 4349,
      "scare": 4350,
      "scale": 4351,
      "saved": 4352,
      "didnt": 4353,
      "joke": 4354,
      "cheesy": 4355,
      "provo": 4356,
      "presentation": 4357,
      "medi": 4358,
      "increased": 4359,
      "painful": 4360,
      "causes": 4361,
      "businesses": 4362,
      "label": 4363,
      "mistakes": 4364,
      "claims": 4365,
      "sensitive": 4366,
      "liberal": 4367,
      "partnership": 4368,
      "scratch": 4369,
      "comprom": 4370,
      "bible": 4371,
      "bodies": 4372,
      "merely": 4373,
      "sen": 4374,
      "san": 4375,
      "west": 4376,
      "##uge": 4377,
      "##ox": 4378,
      "##ga": 4379,
      "##mos": 4380,
      "##atically": 4381,
      "toys": 4382,
      "##ita": 4383,
      "stone": 4384,
      "compe": 4385,
      "##ula": 4386,
      "unin": 4387,
      "disg": 4388,
      "disag": 4389,
      "somewhere": 4390,
      "cloth": 4391,
      "active": 4392,
      "interact": 4393,
      "wanting": 4394,
      "gramm": 4395,
      "police": 4396,
      "##ube": 4397,
      "emer": 4398,
      "##acity": 4399,
      "provision": 4400,
      "handle": 4401,
      "explains": 4402,
      "lights": 4403,
      "conduct": 4404,
      "colors": 4405,
      "##versity": 4406,
      "superb": 4407,
      "passed": 4408,
      "figures": 4409,
      "agreements": 4410,
      "materials": 4411,
      "documents": 4412,
      "strategic": 4413,
      "delivered": 4414,
      "conclusions": 4415,
      "closer": 4416,
      "scanner": 4417,
      "apparently": 4418,
      "crisis": 4419,
      "##charge": 4420,
      "tobin": 4421,
      "uncomfortable": 4422,
      "cate": 4423,
      "caught": 4424,
      "dumb": 4425,
      "gal": 4426,
      "gun": 4427,
      "hig": 4428,
      "kin": 4429,
      "rome": 4430,
      "spl": 4431,
      "sans": 4432,
      "tear": 4433,
      "wer": 4434,
      "##hh": 4435,
      "##ios": 4436,
      "##ieving": 4437,
      "lived": 4438,
      "##iled": 4439,
      "excess": 4440,
      "##usi": 4441,
      "willi": 4442,
      "##inding": 4443,
      "disci": 4444,
      "managed": 4445,
      "clan": 4446,
      "##agon": 4447,
      "poll": 4448,
      "charter": 4449,
      "everyday": 4450,
      "host": 4451,
      "finds": 4452,
      "defend": 4453,
      "showed": 4454,
      "lessons": 4455,
      "publ": 4456,
      "assign": 4457,
      "continues": 4458,
      "dealing": 4459,
      "depart": 4460,
      "packed": 4461,
      "discussions": 4462,
      "literally": 4463,
      "allows": 4464,
      "immig": 4465,
      "achieved": 4466,
      "south": 4467,
      "surprising": 4468,
      "judicial": 4469,
      "priorities": 4470,
      "talented": 4471,
      "journ": 4472,
      "monitoring": 4473,
      "yeah": 4474,
      "depressing": 4475,
      "degree": 4476,
      "tabled": 4477,
      "variety": 4478,
      "unbelievable": 4479,
      "discrimination": 4480,
      "sturdy": 4481,
      "murder": 4482,
      "criteria": 4483,
      "bure": 4484,
      "hos": 4485,
      "mal": 4486,
      "nons": 4487,
      "ride": 4488,
      "sli": 4489,
      "session": 4490,
      "tone": 4491,
      "wat": 4492,
      "##bes": 4493,
      "##oration": 4494,
      "##anna": 4495,
      "##aries": 4496,
      "ash": 4497,
      "##usion": 4498,
      "upgr": 4499,
      "dism": 4500,
      "images": 4501,
      "hadn": 4502,
      "thinks": 4503,
      "##ques": 4504,
      "brus": 4505,
      "brings": 4506,
      "blues": 4507,
      "block": 4508,
      "flor": 4509,
      "flav": 4510,
      "pointed": 4511,
      "genu": 4512,
      "worthy": 4513,
      "worthwhile": 4514,
      "supporting": 4515,
      "supported": 4516,
      "directly": 4517,
      "definately": 4518,
      "stands": 4519,
      "begins": 4520,
      "excuse": 4521,
      "craft": 4522,
      "careful": 4523,
      "urge": 4524,
      "behav": 4525,
      "oppos": 4526,
      "drivers": 4527,
      "noneth": 4528,
      "agreed": 4529,
      "teaching": 4530,
      "selling": 4531,
      "fails": 4532,
      "moral": 4533,
      "spending": 4534,
      "status": 4535,
      "photo": 4536,
      "growth": 4537,
      "shoes": 4538,
      "concepts": 4539,
      "repeated": 4540,
      "tasks": 4541,
      "tunes": 4542,
      "criticism": 4543,
      "participation": 4544,
      "television": 4545,
      "influence": 4546,
      "lola": 4547,
      "street": 4548,
      "arrangements": 4549,
      "philosophy": 4550,
      "destroy": 4551,
      "odys": 4552,
      "sansa": 4553,
      "nonetheless": 4554,
      "1st": 4555,
      "cens": 4556,
      "cyc": 4557,
      "gain": 4558,
      "ju": 4559,
      "operation": 4560,
      "pad": 4561,
      "ske": 4562,
      "sources": 4563,
      "tort": 4564,
      "xp": 4565,
      "##ey": 4566,
      "##ris": 4567,
      "##iest": 4568,
      "##isations": 4569,
      "##enz": 4570,
      "##itary": 4571,
      "##ctions": 4572,
      "##sey": 4573,
      "##cend": 4574,
      "##irty": 4575,
      "proceed": 4576,
      "chose": 4577,
      "##ulous": 4578,
      "unne": 4579,
      "actress": 4580,
      "##inks": 4581,
      "produc": 4582,
      "##gry": 4583,
      "##ogy": 4584,
      "rocks": 4585,
      "blo": 4586,
      "monetary": 4587,
      "smart": 4588,
      "defective": 4589,
      "tries": 4590,
      "counter": 4591,
      "topic": 4592,
      "afford": 4593,
      "currency": 4594,
      "improved": 4595,
      "namely": 4596,
      "misle": 4597,
      "effectively": 4598,
      "improvement": 4599,
      "##iliation": 4600,
      "instruments": 4601,
      "discovered": 4602,
      "frustrating": 4603,
      "ignor": 4604,
      "observ": 4605,
      "experienced": 4606,
      "sustainable": 4607,
      "shakespe": 4608,
      "publisher": 4609,
      "genuine": 4610,
      "diction": 4611,
      "jew": 4612,
      "zero": 4613,
      "##uable": 4614,
      "##po": 4615,
      "##wr": 4616,
      "thous": 4617,
      "##eral": 4618,
      "toler": 4619,
      "##itime": 4620,
      "inch": 4621,
      "began": 4622,
      "belly": 4623,
      "##entially": 4624,
      "weap": 4625,
      "##imp": 4626,
      "##cket": 4627,
      "##ems": 4628,
      "worn": 4629,
      "##gend": 4630,
      "upset": 4631,
      "diab": 4632,
      "ade": 4633,
      "intent": 4634,
      "feb": 4635,
      "contained": 4636,
      "knowing": 4637,
      "acad": 4638,
      "acqu": 4639,
      "##ifying": 4640,
      "##oga": 4641,
      "blow": 4642,
      "##ocol": 4643,
      "pointless": 4644,
      "obtain": 4645,
      "##ibilities": 4646,
      "attitude": 4647,
      "worthless": 4648,
      "doesnt": 4649,
      "providing": 4650,
      "wake": 4651,
      "possibility": 4652,
      "powerbook": 4653,
      "airbed": 4654,
      "##rupt": 4655,
      "##itches": 4656,
      "discussed": 4657,
      "##comend": 4658,
      "critical": 4659,
      "correctly": 4660,
      "connected": 4661,
      "##itarian": 4662,
      "germany": 4663,
      "dancing": 4664,
      "haunted": 4665,
      "##ophob": 4666,
      "revol": 4667,
      "latest": 4668,
      "animal": 4669,
      "substance": 4670,
      "drama": 4671,
      "hurt": 4672,
      "dollars": 4673,
      "arguments": 4674,
      "traditional": 4675,
      "warranty": 4676,
      "catholic": 4677,
      "ought": 4678,
      "ayla": 4679,
      "weren": 4680,
      "bureau": 4681,
      "thousand": 4682,
      "fly": 4683,
      "hat": 4684,
      "hence": 4685,
      "hated": 4686,
      "ker": 4687,
      "lord": 4688,
      "pan": 4689,
      "rise": 4690,
      "rush": 4691,
      "wes": 4692,
      "wil": 4693,
      "xen": 4694,
      "##put": 4695,
      "##iences": 4696,
      "##gies": 4697,
      "##gency": 4698,
      "##50": 4699,
      "thrown": 4700,
      "##oned": 4701,
      "##eness": 4702,
      "##ller": 4703,
      "reven": 4704,
      "##ald": 4705,
      "staff": 4706,
      "##ilies": 4707,
      "external": 4708,
      "atmos": 4709,
      "alloc": 4710,
      "##unt": 4711,
      "greatly": 4712,
      "impl": 4713,
      "reccomend": 4714,
      "overd": 4715,
      "team": 4716,
      "robert": 4717,
      "crash": 4718,
      "maritime": 4719,
      "defl": 4720,
      "wonderfully": 4721,
      "keeping": 4722,
      "kinda": 4723,
      "awa": 4724,
      "grab": 4725,
      "topics": 4726,
      "hopefully": 4727,
      "refuge": 4728,
      "initial": 4729,
      "lacks": 4730,
      "##ruary": 4731,
      "implementing": 4732,
      "paint": 4733,
      "acceptable": 4734,
      "accordance": 4735,
      "mixed": 4736,
      "referred": 4737,
      "##porary": 4738,
      "satisfact": 4739,
      "hyp": 4740,
      "tourism": 4741,
      "magaz": 4742,
      "education": 4743,
      "terrific": 4744,
      "interviews": 4745,
      "ultimately": 4746,
      "wireless": 4747,
      "removed": 4748,
      "prosecutor": 4749,
      "complicated": 4750,
      "medioc": 4751,
      "categ": 4752,
      "higgins": 4753,
      "brussels": 4754,
      "shakespeare": 4755,
      "february": 4756,
      "auel": 4757,
      "bass": 4758,
      "borders": 4759,
      "cu": 4760,
      "ded": 4761,
      "fal": 4762,
      "rout": 4763,
      "rarely": 4764,
      "tor": 4765,
      "ya": 4766,
      "##lor": 4767,
      "##bre": 4768,
      "##onic": 4769,
      "##lla": 4770,
      "##ications": 4771,
      "station": 4772,
      "##cher": 4773,
      "sept": 4774,
      "myster": 4775,
      "chart": 4776,
      "##iler": 4777,
      "##umps": 4778,
      "legend": 4779,
      "whatso": 4780,
      "##appe": 4781,
      "discharge": 4782,
      "user": 4783,
      "perman": 4784,
      "nowhere": 4785,
      "##aken": 4786,
      "hole": 4787,
      "clever": 4788,
      "lets": 4789,
      "letters": 4790,
      "informed": 4791,
      "laid": 4792,
      "surely": 4793,
      "families": 4794,
      "creates": 4795,
      "##resp": 4796,
      "treatment": 4797,
      "reduce": 4798,
      "records": 4799,
      "holding": 4800,
      "prompt": 4801,
      "sectors": 4802,
      "equally": 4803,
      "##zzzz": 4804,
      "error": 4805,
      "surprise": 4806,
      "holmes": 4807,
      "sufficient": 4808,
      "jackson": 4809,
      "integrated": 4810,
      "##laf": 4811,
      "cooking": 4812,
      "captiv": 4813,
      "catchy": 4814,
      "contrary": 4815,
      "utter": 4816,
      "administr": 4817,
      "folks": 4818,
      "dissapointed": 4819,
      "relatively": 4820,
      "subsidi": 4821,
      "rhyth": 4822,
      "##idden": 4823,
      "efficiency": 4824,
      "provoking": 4825,
      "bol": 4826,
      "dated": 4827,
      "soo": 4828,
      "yoga": 4829,
      "##ls": 4830,
      "##ril": 4831,
      "##ipped": 4832,
      "##ena": 4833,
      "##oted": 4834,
      "beg": 4835,
      "forest": 4836,
      "forces": 4837,
      "noted": 4838,
      "##urch": 4839,
      "angel": 4840,
      "asleep": 4841,
      "butt": 4842,
      "alt": 4843,
      "proud": 4844,
      "meets": 4845,
      "##cient": 4846,
      "##itty": 4847,
      "writes": 4848,
      "charles": 4849,
      "pregn": 4850,
      "sale": 4851,
      "spect": 4852,
      "blah": 4853,
      "recommendations": 4854,
      "conciliation": 4855,
      "flag": 4856,
      "##phere": 4857,
      "##phone": 4858,
      "badly": 4859,
      "math": 4860,
      "ministers": 4861,
      "attend": 4862,
      "born": 4863,
      "seconds": 4864,
      "bigger": 4865,
      "forms": 4866,
      "describe": 4867,
      "committed": 4868,
      "nicely": 4869,
      "leaders": 4870,
      "dealt": 4871,
      "textbook": 4872,
      "discussing": 4873,
      "failure": 4874,
      "establishing": 4875,
      "walk": 4876,
      "walking": 4877,
      "plugged": 4878,
      "procedures": 4879,
      "deserve": 4880,
      "emotion": 4881,
      "emotional": 4882,
      "becoming": 4883,
      "selection": 4884,
      "dimens": 4885,
      "hooked": 4886,
      "pleasure": 4887,
      "convinced": 4888,
      "comparison": 4889,
      "narrative": 4890,
      "assessment": 4891,
      "frightening": 4892,
      "ghost": 4893,
      "rabbit": 4894,
      "congratulate": 4895,
      "doctor": 4896,
      "repetitive": 4897,
      "titanic": 4898,
      "tedious": 4899,
      "hosp": 4900,
      "dictionary": 4901,
      "whatsoever": 4902,
      "bank": 4903,
      "bright": 4904,
      "gonna": 4905,
      "lam": 4906,
      "lie": 4907,
      "mcc": 4908,
      "nut": 4909,
      "rail": 4910,
      "tus": 4911,
      "tang": 4912,
      "yor": 4913,
      "##uces": 4914,
      "##hen": 4915,
      "##hist": 4916,
      "##pol": 4917,
      "##yle": 4918,
      "##che": 4919,
      "sem": 4920,
      "seven": 4921,
      "alive": 4922,
      "##olf": 4923,
      "##umes": 4924,
      "log": 4925,
      "##ander": 4926,
      "disas": 4927,
      "commissioners": 4928,
      "blind": 4929,
      "parliamentary": 4930,
      "feelings": 4931,
      "minimum": 4932,
      "shower": 4933,
      "subt": 4934,
      "syri": 4935,
      "provisions": 4936,
      "friendly": 4937,
      "mainst": 4938,
      "advance": 4939,
      "studies": 4940,
      "england": 4941,
      "beginner": 4942,
      "humanity": 4943,
      "reforms": 4944,
      "killer": 4945,
      "contribute": 4946,
      "convention": 4947,
      "naturally": 4948,
      "inspired": 4949,
      "military": 4950,
      "network": 4951,
      "magical": 4952,
      "encourage": 4953,
      "update": 4954,
      "officials": 4955,
      "duty": 4956,
      "exercise": 4957,
      "premise": 4958,
      "intellectual": 4959,
      "tragedy": 4960,
      "discipl": 4961,
      "misleading": 4962,
      "xenophob": 4963,
      "award": 4964,
      "dress": 4965,
      "lit": 4966,
      "mi": 4967,
      "mut": 4968,
      "nir": 4969,
      "pace": 4970,
      "rare": 4971,
      "sizes": 4972,
      "tank": 4973,
      "von": 4974,
      "ven": 4975,
      "yr": 4976,
      "##ties": 4977,
      "##eg": 4978,
      "##ely": 4979,
      "##con": 4980,
      "##cra": 4981,
      "##hab": 4982,
      "##vi": 4983,
      "##kers": 4984,
      "toward": 4985,
      "##itation": 4986,
      "##ancy": 4987,
      "stream": 4988,
      "##ays": 4989,
      "##tered": 4990,
      "asyl": 4991,
      "##ilation": 4992,
      "##ulation": 4993,
      "hey": 4994,
      "proof": 4995,
      "##istry": 4996,
      "anybody": 4997,
      "quiet": 4998,
      "##ender": 4999,
      "##ounced": 5000,
      "arms": 5001,
      "resource": 5002,
      "charm": 5003,
      "prep": 5004,
      "twists": 5005,
      "##cessary": 5006,
      "remake": 5007,
      "belie": 5008,
      "secure": 5009,
      "owned": 5010,
      "helping": 5011,
      "phen": 5012,
      "launch": 5013,
      "calling": 5014,
      "describes": 5015,
      "capacity": 5016,
      "craw": 5017,
      "redeem": 5018,
      "runs": 5019,
      "enterpr": 5020,
      "recordings": 5021,
      "center": 5022,
      "speaker": 5023,
      "stays": 5024,
      "raise": 5025,
      "suggested": 5026,
      "signal": 5027,
      "checked": 5028,
      "visit": 5029,
      "impressive": 5030,
      "enlight": 5031,
      "establishment": 5032,
      "killed": 5033,
      "budgetary": 5034,
      "burning": 5035,
      "lady": 5036,
      "touching": 5037,
      "investment": 5038,
      "heroine": 5039,
      "latter": 5040,
      "dreams": 5041,
      "activity": 5042,
      "dramatic": 5043,
      "sharp": 5044,
      "unrealistic": 5045,
      "pathetic": 5046,
      "consequences": 5047,
      "disturbing": 5048,
      "sympathy": 5049,
      "mechanism": 5050,
      "weapons": 5051,
      "atmosphere": 5052,
      "mediocre": 5053,
      "subsidiarity": 5054,
      "tusc": 5055,
      "mainstream": 5056,
      "asylum": 5057,
      "400": 5058,
      "biz": 5059,
      "cash": 5060,
      "cake": 5061,
      "dat": 5062,
      "eri": 5063,
      "ibook": 5064,
      "olaf": 5065,
      "rig": 5066,
      "till": 5067,
      "tib": 5068,
      "tempt": 5069,
      "zen": 5070,
      "##lines": 5071,
      "##now": 5072,
      "##ras": 5073,
      "##vana": 5074,
      "threw": 5075,
      "tow": 5076,
      "##itate": 5077,
      "##sters": 5078,
      "##urt": 5079,
      "##the": 5080,
      "convers": 5081,
      "##riage": 5082,
      "##esting": 5083,
      "ord": 5084,
      "pratch": 5085,
      "enorm": 5086,
      "mand": 5087,
      "##osi": 5088,
      "##ards": 5089,
      "##aud": 5090,
      "quit": 5091,
      "##place": 5092,
      "overcome": 5093,
      "##perate": 5094,
      "everybody": 5095,
      "twin": 5096,
      "peoples": 5097,
      "descent": 5098,
      "lovely": 5099,
      "keel": 5100,
      "remark": 5101,
      "supply": 5102,
      "join": 5103,
      "accomp": 5104,
      "##lessly": 5105,
      "legit": 5106,
      "evidence": 5107,
      "bask": 5108,
      "advant": 5109,
      "advanced": 5110,
      "refres": 5111,
      "career": 5112,
      "construct": 5113,
      "superior": 5114,
      "cuts": 5115,
      "introduce": 5116,
      "closely": 5117,
      "breaking": 5118,
      "winter": 5119,
      "accepted": 5120,
      "idi": 5121,
      "recognise": 5122,
      "bringing": 5123,
      "references": 5124,
      "anticip": 5125,
      "reminds": 5126,
      "macally": 5127,
      "voting": 5128,
      "sequel": 5129,
      "relationships": 5130,
      "tune": 5131,
      "divor": 5132,
      "autom": 5133,
      "cartoon": 5134,
      "fabulous": 5135,
      "forthcoming": 5136,
      "praise": 5137,
      "suddenly": 5138,
      "december": 5139,
      "intrigu": 5140,
      "understood": 5141,
      "micro": 5142,
      "william": 5143,
      "september": 5144,
      "nirvana": 5145,
      "22": 5146,
      "bird": 5147,
      "dad": 5148,
      "flying": 5149,
      "gore": 5150,
      "gorge": 5151,
      "gender": 5152,
      "ko": 5153,
      "mary": 5154,
      "nar": 5155,
      "ow": 5156,
      "sg": 5157,
      "sle": 5158,
      "vel": 5159,
      "wid": 5160,
      "##ef": 5161,
      "##cast": 5162,
      "##vis": 5163,
      "##gers": 5164,
      "##zen": 5165,
      "theater": 5166,
      "##ania": 5167,
      "##arre": 5168,
      "##oos": 5169,
      "##eter": 5170,
      "##ette": 5171,
      "##idge": 5172,
      "##verty": 5173,
      "chick": 5174,
      "##rived": 5175,
      "##istent": 5176,
      "##ushing": 5177,
      "##aph": 5178,
      "compact": 5179,
      "##herent": 5180,
      "goal": 5181,
      "intense": 5182,
      "poverty": 5183,
      "paran": 5184,
      "incomp": 5185,
      "repub": 5186,
      "empt": 5187,
      "monop": 5188,
      "amazed": 5189,
      "territ": 5190,
      "accom": 5191,
      "editing": 5192,
      "elig": 5193,
      "debut": 5194,
      "drink": 5195,
      "leading": 5196,
      "crack": 5197,
      "medic": 5198,
      "depict": 5199,
      "girlfriend": 5200,
      "planet": 5201,
      "driving": 5202,
      "involving": 5203,
      "hoped": 5204,
      "sentences": 5205,
      "previously": 5206,
      "gifted": 5207,
      "shallow": 5208,
      "statements": 5209,
      "organisations": 5210,
      "universe": 5211,
      "castle": 5212,
      "amongst": 5213,
      "drop": 5214,
      "trem": 5215,
      "sequences": 5216,
      "consumers": 5217,
      "substant": 5218,
      "contrad": 5219,
      "##bitious": 5220,
      "dimension": 5221,
      "globalisation": 5222,
      "primarily": 5223,
      "attached": 5224,
      "flexible": 5225,
      "besides": 5226,
      "compromise": 5227,
      "nonsense": 5228,
      "western": 5229,
      "administrative": 5230,
      "hospital": 5231,
      "disasters": 5232,
      "phenom": 5233,
      "tibet": 5234,
      "pratchett": 5235,
      "ast": 5236,
      "gard": 5237,
      "ice": 5238,
      "pi": 5239,
      "pap": 5240,
      "ry": 5241,
      "rough": 5242,
      "russ": 5243,
      "wise": 5244,
      "wars": 5245,
      "##uary": 5246,
      "##ns": 5247,
      "##han": 5248,
      "##hold": 5249,
      "##rd": 5250,
      "##mer": 5251,
      "##ford": 5252,
      "##11": 5253,
      "##inct": 5254,
      "##isc": 5255,
      "##anim": 5256,
      "##arks": 5257,
      "##icit": 5258,
      "reli": 5259,
      "##vey": 5260,
      "##ented": 5261,
      "stability": 5262,
      "##idate": 5263,
      "anch": 5264,
      "##imate": 5265,
      "myth": 5266,
      "deeper": 5267,
      "china": 5268,
      "church": 5269,
      "##ulated": 5270,
      "moon": 5271,
      "moved": 5272,
      "unp": 5273,
      "##unning": 5274,
      "##cia": 5275,
      "##ffs": 5276,
      "outcome": 5277,
      "tril": 5278,
      "lover": 5279,
      "lock": 5280,
      "compos": 5281,
      "recall": 5282,
      "acted": 5283,
      "contents": 5284,
      "evening": 5285,
      "##liosi": 5286,
      "everywhere": 5287,
      "aftern": 5288,
      "##ache": 5289,
      "serve": 5290,
      "thru": 5291,
      "highest": 5292,
      "sounded": 5293,
      "sinc": 5294,
      "trib": 5295,
      "insult": 5296,
      "schol": 5297,
      "legs": 5298,
      "recei": 5299,
      "curious": 5300,
      "scenery": 5301,
      "##arker": 5302,
      "headset": 5303,
      "courage": 5304,
      "planned": 5305,
      "##works": 5306,
      "cutting": 5307,
      "erotic": 5308,
      "essentially": 5309,
      "totalitarian": 5310,
      "articles": 5311,
      "##ighter": 5312,
      "holes": 5313,
      "encoun": 5314,
      "##laim": 5315,
      "normally": 5316,
      "grounds": 5317,
      "ignore": 5318,
      "palest": 5319,
      "rapid": 5320,
      "emphasis": 5321,
      "hundreds": 5322,
      "incorrect": 5323,
      "bugliosi": 5324,
      "flexibility": 5325,
      "january": 5326,
      "coordination": 5327,
      "renewable": 5328,
      "fortun": 5329,
      "greece": 5330,
      "innovative": 5331,
      "creepy": 5332,
      "elevator": 5333,
      "clothes": 5334,
      "gorgeous": 5335,
      "ack": 5336,
      "burd": 5337,
      "fate": 5338,
      "gas": 5339,
      "hint": 5340,
      "hult": 5341,
      "kick": 5342,
      "les": 5343,
      "options": 5344,
      "rot": 5345,
      "rain": 5346,
      "rip": 5347,
      "vast": 5348,
      "vivid": 5349,
      "wing": 5350,
      "wanna": 5351,
      "##ai": 5352,
      "##uit": 5353,
      "##under": 5354,
      "##cat": 5355,
      "##point": 5356,
      "##gi": 5357,
      "##gue": 5358,
      "##12": 5359,
      "##xic": 5360,
      "##enry": 5361,
      "##encies": 5362,
      "tomb": 5363,
      "##aser": 5364,
      "##eta": 5365,
      "##iders": 5366,
      "##vereign": 5367,
      "##aming": 5368,
      "prop": 5369,
      "prove": 5370,
      "soph": 5371,
      "sovereign": 5372,
      "deleg": 5373,
      "suck": 5374,
      "supr": 5375,
      "heater": 5376,
      "plant": 5377,
      "ambitious": 5378,
      "nove": 5379,
      "timeless": 5380,
      "moreover": 5381,
      "disappe": 5382,
      "##ptive": 5383,
      "overl": 5384,
      "charges": 5385,
      "##teen": 5386,
      "files": 5387,
      "blur": 5388,
      "blade": 5389,
      "blank": 5390,
      "march": 5391,
      "train": 5392,
      "reviewed": 5393,
      "efficient": 5394,
      "believable": 5395,
      "hardc": 5396,
      "ordering": 5397,
      "differences": 5398,
      "evol": 5399,
      "humans": 5400,
      "confident": 5401,
      "expert": 5402,
      "socialists": 5403,
      "corn": 5404,
      "engine": 5405,
      "engaging": 5406,
      "competit": 5407,
      "costume": 5408,
      "solitude": 5409,
      "condem": 5410,
      "urgent": 5411,
      "infr": 5412,
      "techno": 5413,
      "protagon": 5414,
      "paced": 5415,
      "fourth": 5416,
      "teachers": 5417,
      "electric": 5418,
      "stephen": 5419,
      "sexy": 5420,
      "models": 5421,
      "boyfriend": 5422,
      "colorful": 5423,
      "installation": 5424,
      "representative": 5425,
      "brando": 5426,
      "radical": 5427,
      "applicable": 5428,
      "addressed": 5429,
      "continued": 5430,
      "ships": 5431,
      "spiritual": 5432,
      "commentary": 5433,
      "tools": 5434,
      "billion": 5435,
      "frustrated": 5436,
      "iii": 5437,
      "inex": 5438,
      "yellow": 5439,
      "campa": 5440,
      "violence": 5441,
      "links": 5442,
      "promoting": 5443,
      "promotion": 5444,
      "extended": 5445,
      "##ummy": 5446,
      "separate": 5447,
      "bonus": 5448,
      "neighbour": 5449,
      "enthusi": 5450,
      "disgust": 5451,
      "unnecessary": 5452,
      "false": 5453,
      "##craft": 5454,
      "tremend": 5455,
      "acknow": 5456,
      "hulten": 5457,
      "3rd": 5458,
      "bri": 5459,
      "bread": 5460,
      "der": 5461,
      "faster": 5462,
      "si": 5463,
      "tub": 5464,
      "vital": 5465,
      "##inative": 5466,
      "##oric": 5467,
      "##rop": 5468,
      "stere": 5469,
      "anne": 5470,
      "ancient": 5471,
      "##thy": 5472,
      "shap": 5473,
      "prices": 5474,
      "enh": 5475,
      "unanim": 5476,
      "nobody": 5477,
      "whenever": 5478,
      "manage": 5479,
      "argent": 5480,
      "shouldn": 5481,
      "pocket": 5482,
      "sake": 5483,
      "eastern": 5484,
      "extension": 5485,
      "harder": 5486,
      "transact": 5487,
      "owners": 5488,
      "directives": 5489,
      "talked": 5490,
      "horri": 5491,
      "explos": 5492,
      "eargel": 5493,
      "calls": 5494,
      "generation": 5495,
      "corpor": 5496,
      "##proof": 5497,
      "difficulty": 5498,
      "opinions": 5499,
      "nightm": 5500,
      "promised": 5501,
      "opposed": 5502,
      "equality": 5503,
      "profound": 5504,
      "cheaply": 5505,
      "printing": 5506,
      "steve": 5507,
      "attempting": 5508,
      "window": 5509,
      "cleaning": 5510,
      "documentary": 5511,
      "irrit": 5512,
      "danish": 5513,
      "latin": 5514,
      "analy": 5515,
      "requested": 5516,
      "lucky": 5517,
      "inev": 5518,
      "educational": 5519,
      "fabric": 5520,
      "applies": 5521,
      "applause": 5522,
      "religion": 5523,
      "croc": 5524,
      "wwi": 5525,
      "finger": 5526,
      "techniques": 5527,
      "outdated": 5528,
      "blocks": 5529,
      "adequate": 5530,
      "kerou": 5531,
      "refugees": 5532,
      "magazine": 5533,
      "republic": 5534,
      "accompl": 5535,
      "afternoon": 5536,
      "23": 5537,
      "ara": 5538,
      "fro": 5539,
      "hous": 5540,
      "hide": 5541,
      "hidden": 5542,
      "kitch": 5543,
      "nos": 5544,
      "oct": 5545,
      "race": 5546,
      "rang": 5547,
      "tamp": 5548,
      "tension": 5549,
      "taught": 5550,
      "vend": 5551,
      "zeta": 5552,
      "##lined": 5553,
      "##iers": 5554,
      "##kin": 5555,
      "##bb": 5556,
      "##isk": 5557,
      "##iture": 5558,
      "##itled": 5559,
      "inches": 5560,
      "isol": 5561,
      "##aled": 5562,
      "proph": 5563,
      "exists": 5564,
      "units": 5565,
      "##umbs": 5566,
      "load": 5567,
      "lovers": 5568,
      "dish": 5569,
      "dispar": 5570,
      "recon": 5571,
      "sheet": 5572,
      "##aker": 5573,
      "hip": 5574,
      "roots": 5575,
      "reply": 5576,
      "recommendation": 5577,
      "memorable": 5578,
      "emarker": 5579,
      "industri": 5580,
      "rightly": 5581,
      "fox": 5582,
      "fold": 5583,
      "communities": 5584,
      "viewing": 5585,
      "formula": 5586,
      "considerable": 5587,
      "experiences": 5588,
      "medical": 5589,
      "americans": 5590,
      "distort": 5591,
      "distract": 5592,
      "##world": 5593,
      "ensuring": 5594,
      "swing": 5595,
      "sentence": 5596,
      "elected": 5597,
      "elections": 5598,
      "slowly": 5599,
      "combination": 5600,
      "existence": 5601,
      "colleague": 5602,
      "democrats": 5603,
      "risks": 5604,
      "offered": 5605,
      "balanced": 5606,
      "sixth": 5607,
      "customers": 5608,
      "emotions": 5609,
      "strengthen": 5610,
      "victor": 5611,
      "temper": 5612,
      "newsp": 5613,
      "apparent": 5614,
      "safegu": 5615,
      "magnific": 5616,
      "voices": 5617,
      "physical": 5618,
      "witness": 5619,
      "scheme": 5620,
      "dickens": 5621,
      "execut": 5622,
      "symbolism": 5623,
      "mothman": 5624,
      "shelf": 5625,
      "grammar": 5626,
      "erika": 5627,
      "accompan": 5628,
      "trilogy": 5629,
      "kerouac": 5630,
      "26": 5631,
      "dread": 5632,
      "dyn": 5633,
      "dirty": 5634,
      "fisher": 5635,
      "gib": 5636,
      "mission": 5637,
      "por": 5638,
      "rack": 5639,
      "rings": 5640,
      "roles": 5641,
      "vent": 5642,
      "##ault": 5643,
      "##uous": 5644,
      "##ti": 5645,
      "##oot": 5646,
      "##iation": 5647,
      "##ipp": 5648,
      "##kward": 5649,
      "##kins": 5650,
      "##gs": 5651,
      "##fting": 5652,
      "##99": 5653,
      "##inate": 5654,
      "beach": 5655,
      "##ros": 5656,
      "stiff": 5657,
      "hallow": 5658,
      "lies": 5659,
      "##uster": 5660,
      "chest": 5661,
      "chines": 5662,
      "ali": 5663,
      "priced": 5664,
      "somebody": 5665,
      "quant": 5666,
      "fee": 5667,
      "click": 5668,
      "##ift": 5669,
      "twenty": 5670,
      "##iously": 5671,
      "##tech": 5672,
      "realism": 5673,
      "##weight": 5674,
      "gotta": 5675,
      "##orship": 5676,
      "##phones": 5677,
      "extras": 5678,
      "jokes": 5679,
      "adds": 5680,
      "subsequ": 5681,
      "relax": 5682,
      "editor": 5683,
      "schro": 5684,
      "importantly": 5685,
      "##bell": 5686,
      "evident": 5687,
      "awkward": 5688,
      "examination": 5689,
      "approve": 5690,
      "advis": 5691,
      "regardless": 5692,
      "replacing": 5693,
      "wont": 5694,
      "appeared": 5695,
      "location": 5696,
      "paperback": 5697,
      "##ficial": 5698,
      "annual": 5699,
      "employees": 5700,
      "laws": 5701,
      "improving": 5702,
      "budd": 5703,
      "simpletech": 5704,
      "accounts": 5705,
      "signed": 5706,
      "exceptional": 5707,
      "pattern": 5708,
      "damaged": 5709,
      "burned": 5710,
      "amounts": 5711,
      "shoot": 5712,
      "##ourable": 5713,
      "instruction": 5714,
      "footage": 5715,
      "richard": 5716,
      "searching": 5717,
      "individuals": 5718,
      "hype": 5719,
      "preferred": 5720,
      "explanations": 5721,
      "denmark": 5722,
      "bern": 5723,
      "surface": 5724,
      "prosper": 5725,
      "glasses": 5726,
      "religious": 5727,
      "racism": 5728,
      "reaction": 5729,
      "agriculture": 5730,
      "tapes": 5731,
      "unusual": 5732,
      "forgotten": 5733,
      "wheel": 5734,
      "frequently": 5735,
      "australian": 5736,
      "poetry": 5737,
      "uninter": 5738,
      "journal": 5739,
      "censorship": 5740,
      "diabet": 5741,
      "thousands": 5742,
      "captivating": 5743,
      "enormous": 5744,
      "eligible": 5745,
      "tampere": 5746,
      "chinese": 5747,
      "bore": 5748,
      "cow": 5749,
      "cab": 5750,
      "fu": 5751,
      "file": 5752,
      "gay": 5753,
      "grown": 5754,
      "hd": 5755,
      "henry": 5756,
      "jam": 5757,
      "punch": 5758,
      "rive": 5759,
      "tall": 5760,
      "wra": 5761,
      "##aur": 5762,
      "##tles": 5763,
      "##bl": 5764,
      "##birth": 5765,
      "thumbs": 5766,
      "##oring": 5767,
      "##edter": 5768,
      "ink": 5769,
      "##ares": 5770,
      "retain": 5771,
      "##stal": 5772,
      "haz": 5773,
      "haik": 5774,
      "ang": 5775,
      "shared": 5776,
      "##illes": 5777,
      "##illing": 5778,
      "##illed": 5779,
      "seasons": 5780,
      "socks": 5781,
      "enforce": 5782,
      "aband": 5783,
      "##ops": 5784,
      "compens": 5785,
      "dispos": 5786,
      "usa": 5787,
      "europol": 5788,
      "intervention": 5789,
      "##abled": 5790,
      "arth": 5791,
      "charged": 5792,
      "pepper": 5793,
      "presence": 5794,
      "facing": 5795,
      "##aked": 5796,
      "incident": 5797,
      "spare": 5798,
      "##apped": 5799,
      "terribly": 5800,
      "adding": 5801,
      "addict": 5802,
      "subtle": 5803,
      "borrow": 5804,
      "relates": 5805,
      "insist": 5806,
      "plots": 5807,
      "artwork": 5808,
      "viewer": 5809,
      "expand": 5810,
      "1996": 5811,
      "descriptive": 5812,
      "advise": 5813,
      "##whel": 5814,
      "2002": 5815,
      "brave": 5816,
      "capable": 5817,
      "leads": 5818,
      "solutions": 5819,
      "valuable": 5820,
      "halfway": 5821,
      "constant": 5822,
      "achieving": 5823,
      "necessarily": 5824,
      "motiv": 5825,
      "waterproof": 5826,
      "tests": 5827,
      "represents": 5828,
      "darkness": 5829,
      "damn": 5830,
      "north": 5831,
      "##ographical": 5832,
      "univers": 5833,
      "recognition": 5834,
      "operate": 5835,
      "inflated": 5836,
      "rented": 5837,
      "occasions": 5838,
      "delightful": 5839,
      "functioning": 5840,
      "consistent": 5841,
      "constitutional": 5842,
      "thriller": 5843,
      "challenges": 5844,
      "challenging": 5845,
      "choices": 5846,
      "optim": 5847,
      "concentrate": 5848,
      "submitted": 5849,
      "agricultural": 5850,
      "cinemat": 5851,
      "interpretation": 5852,
      "disagree": 5853,
      "upgrade": 5854,
      "flavor": 5855,
      "revenge": 5856,
      "rhythm": 5857,
      "data": 5858,
      "advantage": 5859,
      "divorce": 5860,
      "campaign": 5861,
      "kitchen": 5862,
      "industrial": 5863,
      "schroedter": 5864,
      "haiku": 5865,
      "28": 5866,
      "aims": 5867,
      "binding": 5868,
      "cgi": 5869,
      "din": 5870,
      "daugh": 5871,
      "dying": 5872,
      "ease": 5873,
      "gy": 5874,
      "hound": 5875,
      "hilar": 5876,
      "jab": 5877,
      "osc": 5878,
      "pil": 5879,
      "pity": 5880,
      "pound": 5881,
      "tent": 5882,
      "ves": 5883,
      "##nic": 5884,
      "##ds": 5885,
      "##pir": 5886,
      "##gl": 5887,
      "##yote": 5888,
      "##bon": 5889,
      "##bor": 5890,
      "##bles": 5891,
      "##zer": 5892,
      "##ener": 5893,
      "##itage": 5894,
      "inner": 5895,
      "##asp": 5896,
      "##ica": 5897,
      "##icated": 5898,
      "##alu": 5899,
      "##idos": 5900,
      "##chest": 5901,
      "hamm": 5902,
      "washing": 5903,
      "##alling": 5904,
      "proved": 5905,
      "conce": 5906,
      "##uls": 5907,
      "hea": 5908,
      "orchest": 5909,
      "##aint": 5910,
      "unw": 5911,
      "unb": 5912,
      "##ung": 5913,
      "compon": 5914,
      "compilation": 5915,
      "diet": 5916,
      "disp": 5917,
      "workout": 5918,
      "interf": 5919,
      "##ounce": 5920,
      "heritage": 5921,
      "scand": 5922,
      "faced": 5923,
      "sheer": 5924,
      "wayne": 5925,
      "seeking": 5926,
      "parent": 5927,
      "underlying": 5928,
      "string": 5929,
      "spring": 5930,
      "finest": 5931,
      "memories": 5932,
      "remix": 5933,
      "married": 5934,
      "conserv": 5935,
      "factory": 5936,
      "extensive": 5937,
      "hardy": 5938,
      "##mell": 5939,
      "minim": 5940,
      "ecological": 5941,
      "cares": 5942,
      "directed": 5943,
      "directions": 5944,
      "evalu": 5945,
      "sings": 5946,
      "definition": 5947,
      "childbirth": 5948,
      "##notes": 5949,
      "experiment": 5950,
      "approx": 5951,
      "approval": 5952,
      "assure": 5953,
      "assume": 5954,
      "exclud": 5955,
      "heads": 5956,
      "receiving": 5957,
      "envis": 5958,
      "titles": 5959,
      "promise": 5960,
      "metaph": 5961,
      "computers": 5962,
      "raw": 5963,
      "audit": 5964,
      "resolved": 5965,
      "breaks": 5966,
      "photography": 5967,
      "suspect": 5968,
      "extraord": 5969,
      "recognize": 5970,
      "reminded": 5971,
      "drawing": 5972,
      "cooker": 5973,
      "continuing": 5974,
      "tomcat": 5975,
      "occasionally": 5976,
      "smells": 5977,
      "demonstrate": 5978,
      "dollar": 5979,
      "minority": 5980,
      "june": 5981,
      "chemical": 5982,
      "empire": 5983,
      "exclusion": 5984,
      "sherlock": 5985,
      "gammell": 5986,
      "compatible": 5987,
      "storms": 5988,
      "channel": 5989,
      "producers": 5990,
      "york": 5991,
      "bizarre": 5992,
      "territory": 5993,
      "burden": 5994,
      "november": 5995,
      "competitiveness": 5996,
      "safeguard": 5997,
      "halloween": 5998,
      "300": 5999,
      "brow": 6000,
      "cage": 6001,
      "dict": 6002,
      "fli": 6003,
      "fitting": 6004,
      "gill": 6005,
      "gang": 6006,
      "july": 6007,
      "ner": 6008,
      "naz": 6009,
      "patch": 6010,
      "ros": 6011,
      "sar": 6012,
      "uk": 6013,
      "uf": 6014,
      "vice": 6015,
      "##af": 6016,
      "##aces": 6017,
      "##tes": 6018,
      "##dra": 6019,
      "##ham": 6020,
      "##hib": 6021,
      "##ship": 6022,
      "##rates": 6023,
      "##pack": 6024,
      "##iq": 6025,
      "##ville": 6026,
      "##bling": 6027,
      "##40": 6028,
      "thread": 6029,
      "##erness": 6030,
      "##inet": 6031,
      "##oops": 6032,
      "stab": 6033,
      "anx": 6034,
      "angry": 6035,
      "dele": 6036,
      "delic": 6037,
      "cham": 6038,
      "conver": 6039,
      "alas": 6040,
      "##emic": 6041,
      "suitable": 6042,
      "atl": 6043,
      "pron": 6044,
      "enable": 6045,
      "loving": 6046,
      "coyote": 6047,
      "disapoint": 6048,
      "buck": 6049,
      "clarity": 6050,
      "acts": 6051,
      "fires": 6052,
      "facil": 6053,
      "everytime": 6054,
      "blame": 6055,
      "musiq": 6056,
      "hoc": 6057,
      "marked": 6058,
      "marriage": 6059,
      "tragic": 6060,
      "decor": 6061,
      "positions": 6062,
      "listing": 6063,
      "obst": 6064,
      "classical": 6065,
      "##iac": 6066,
      "developments": 6067,
      "turner": 6068,
      "certainty": 6069,
      "scenar": 6070,
      "grace": 6071,
      "cardboard": 6072,
      "competitive": 6073,
      "reducing": 6074,
      "prize": 6075,
      "raider": 6076,
      "copies": 6077,
      "finishing": 6078,
      "printed": 6079,
      "combined": 6080,
      "damme": 6081,
      "epic": 6082,
      "snow": 6083,
      "organisation": 6084,
      "instructor": 6085,
      "summit": 6086,
      "focused": 6087,
      "ruined": 6088,
      "irre": 6089,
      "dropped": 6090,
      "credibility": 6091,
      "animals": 6092,
      "identify": 6093,
      "kingdom": 6094,
      "scientists": 6095,
      "salt": 6096,
      "sales": 6097,
      "innoc": 6098,
      "cincher": 6099,
      "downloaded": 6100,
      "pushed": 6101,
      "cartrid": 6102,
      "losing": 6103,
      "briefly": 6104,
      "janet": 6105,
      "folk": 6106,
      "embarr": 6107,
      "blend": 6108,
      "frankly": 6109,
      "federal": 6110,
      "fulfil": 6111,
      "stretch": 6112,
      "africa": 6113,
      "assigned": 6114,
      "dimensional": 6115,
      "prepare": 6116,
      "medicine": 6117,
      "palestin": 6118,
      "cornwell": 6119,
      "infrast": 6120,
      "dynam": 6121,
      "cinematography": 6122,
      "bt": 6123,
      "bomb": 6124,
      "c5": 6125,
      "cup": 6126,
      "fond": 6127,
      "mild": 6128,
      "nu": 6129,
      "os": 6130,
      "pian": 6131,
      "sd": 6132,
      "vul": 6133,
      "##nock": 6134,
      "##rick": 6135,
      "##mo": 6136,
      "##repr": 6137,
      "ingr": 6138,
      "stip": 6139,
      "youth": 6140,
      "##ura": 6141,
      "withdra": 6142,
      "##tering": 6143,
      "##alled": 6144,
      "sucked": 6145,
      "enemy": 6146,
      "meat": 6147,
      "abuse": 6148,
      "amate": 6149,
      "diag": 6150,
      "disney": 6151,
      "queen": 6152,
      "##ived": 6153,
      "overview": 6154,
      "contract": 6155,
      "tea": 6156,
      "applying": 6157,
      "sport": 6158,
      "realise": 6159,
      "consol": 6160,
      "belg": 6161,
      "enjoying": 6162,
      "obsc": 6163,
      "kinds": 6164,
      "proposing": 6165,
      "confusion": 6166,
      "defined": 6167,
      "explore": 6168,
      "explicit": 6169,
      "socialist": 6170,
      "corner": 6171,
      "corresp": 6172,
      "releases": 6173,
      "studying": 6174,
      "absurd": 6175,
      "minds": 6176,
      "excit": 6177,
      "treated": 6178,
      "##ologies": 6179,
      "larry": 6180,
      "distant": 6181,
      "supervision": 6182,
      "passing": 6183,
      "equip": 6184,
      "cameras": 6185,
      "paul": 6186,
      "employed": 6187,
      "structures": 6188,
      "movements": 6189,
      "swed": 6190,
      "suggestions": 6191,
      "garcia": 6192,
      "resolve": 6193,
      "thirdly": 6194,
      "adopting": 6195,
      "taxation": 6196,
      "fairy": 6197,
      "grew": 6198,
      "researched": 6199,
      "featuring": 6200,
      "balk": 6201,
      "vocal": 6202,
      "decentral": 6203,
      "deeply": 6204,
      "capture": 6205,
      "dawn": 6206,
      "peter": 6207,
      "frustration": 6208,
      "contrast": 6209,
      "adventures": 6210,
      "carrying": 6211,
      "demands": 6212,
      "fixed": 6213,
      "loses": 6214,
      "shocked": 6215,
      "inspiring": 6216,
      "guests": 6217,
      "conclude": 6218,
      "virtually": 6219,
      "attractive": 6220,
      "compelling": 6221,
      "wilson": 6222,
      "redeeming": 6223,
      "empty": 6224,
      "monopol": 6225,
      "sovereignty": 6226,
      "diabetes": 6227,
      "daughters": 6228,
      "hilarious": 6229,
      "jabra": 6230,
      "chamber": 6231,
      "infrastruct": 6232,
      "ingredi": 6233,
      "correspond": 6234,
      "32": 6235,
      "75": 6236,
      "gross": 6237,
      "giant": 6238,
      "lens": 6239,
      "mt": 6240,
      "nav": 6241,
      "tay": 6242,
      "tick": 6243,
      "vs": 6244,
      "witty": 6245,
      "##ux": 6246,
      "##overs": 6247,
      "##cution": 6248,
      "##inated": 6249,
      "##atis": 6250,
      "##enced": 6251,
      "##itably": 6252,
      "##rees": 6253,
      "inade": 6254,
      "##arm": 6255,
      "##uting": 6256,
      "##rol": 6257,
      "hall": 6258,
      "seam": 6259,
      "chocol": 6260,
      "##ested": 6261,
      "dolly": 6262,
      "friday": 6263,
      "heck": 6264,
      "##ista": 6265,
      "abst": 6266,
      "plat": 6267,
      "##unction": 6268,
      "##anda": 6269,
      "cod": 6270,
      "coal": 6271,
      "diary": 6272,
      "diversity": 6273,
      "dishes": 6274,
      "goals": 6275,
      "bull": 6276,
      "overwhel": 6277,
      "##berg": 6278,
      "shell": 6279,
      "needless": 6280,
      "spread": 6281,
      "hiking": 6282,
      "finance": 6283,
      "crude": 6284,
      "marks": 6285,
      "decades": 6286,
      "belief": 6287,
      "parliaments": 6288,
      "terry": 6289,
      "courts": 6290,
      "april": 6291,
      "elimin": 6292,
      "retail": 6293,
      "handy": 6294,
      "singers": 6295,
      "invent": 6296,
      "considerably": 6297,
      "bits": 6298,
      "controvers": 6299,
      "reduction": 6300,
      "schools": 6301,
      "titled": 6302,
      "barn": 6303,
      "introducing": 6304,
      "##umping": 6305,
      "friendship": 6306,
      "eric": 6307,
      "remembered": 6308,
      "millions": 6309,
      "##icians": 6310,
      "fireman": 6311,
      "combating": 6312,
      "labour": 6313,
      "##ventions": 6314,
      "represented": 6315,
      "operators": 6316,
      "laughs": 6317,
      "laughing": 6318,
      "touched": 6319,
      "graphic": 6320,
      "illustrated": 6321,
      "roller": 6322,
      "professor": 6323,
      "miles": 6324,
      "ripped": 6325,
      "satisfying": 6326,
      "argument": 6327,
      "consequently": 6328,
      "wilderness": 6329,
      "juliet": 6330,
      "struggle": 6331,
      "fifth": 6332,
      "squeem": 6333,
      "hanging": 6334,
      "cliche": 6335,
      "surrounding": 6336,
      "contemporary": 6337,
      "anthony": 6338,
      "strictly": 6339,
      "involvement": 6340,
      "vacation": 6341,
      "assemb": 6342,
      "kinnock": 6343,
      "excessive": 6344,
      "crafted": 6345,
      "intentions": 6346,
      "permanent": 6347,
      "subtit": 6348,
      "enterprises": 6349,
      "remarkable": 6350,
      "baskerv": 6351,
      "phenomen": 6352,
      "eargels": 6353,
      "crocod": 6354,
      "disparities": 6355,
      "magnificent": 6356,
      "uninteresting": 6357,
      "heaven": 6358,
      "taylor": 6359,
      "36": 6360,
      "bent": 6361,
      "bang": 6362,
      "cos": 6363,
      "cel": 6364,
      "crow": 6365,
      "dust": 6366,
      "eating": 6367,
      "fict": 6368,
      "jes": 6369,
      "lis": 6370,
      "lone": 6371,
      "oce": 6372,
      "ped": 6373,
      "pitch": 6374,
      "rit": 6375,
      "rum": 6376,
      "sir": 6377,
      "##lon": 6378,
      "##rants": 6379,
      "##vab": 6380,
      "##word": 6381,
      "##mans": 6382,
      "##zes": 6383,
      "##fied": 6384,
      "##xual": 6385,
      "##inator": 6386,
      "##ndon": 6387,
      "##oul": 6388,
      "tooth": 6389,
      "##itan": 6390,
      "##rete": 6391,
      "##arian": 6392,
      "##lle": 6393,
      "##ada": 6394,
      "stor": 6395,
      "stable": 6396,
      "stunning": 6397,
      "##eto": 6398,
      "wasting": 6399,
      "anten": 6400,
      "asvab": 6401,
      "bookst": 6402,
      "##kend": 6403,
      "shr": 6404,
      "proves": 6405,
      "seg": 6406,
      "dear": 6407,
      "command": 6408,
      "lew": 6409,
      "lean": 6410,
      "london": 6411,
      "coff": 6412,
      "quote": 6413,
      "buff": 6414,
      "##uds": 6415,
      "##akers": 6416,
      "backpack": 6417,
      "instant": 6418,
      "instantly": 6419,
      "##angers": 6420,
      "crimes": 6421,
      "195": 6422,
      "concrete": 6423,
      "##arsh": 6424,
      "##ointed": 6425,
      "presidents": 6426,
      "sounding": 6427,
      "functions": 6428,
      "mature": 6429,
      "##ails": 6430,
      "transition": 6431,
      "owner": 6432,
      "chew": 6433,
      "edited": 6434,
      "edges": 6435,
      "supports": 6436,
      "warned": 6437,
      "economies": 6438,
      "waited": 6439,
      "horse": 6440,
      "surre": 6441,
      "examine": 6442,
      "detect": 6443,
      "earned": 6444,
      "pictured": 6445,
      "entitled": 6446,
      "pretend": 6447,
      "advoc": 6448,
      "absor": 6449,
      "weekend": 6450,
      "governance": 6451,
      "committees": 6452,
      "creatures": 6453,
      "madonna": 6454,
      "valid": 6455,
      "##gged": 6456,
      "ports": 6457,
      "packaged": 6458,
      "fallen": 6459,
      "responsibilities": 6460,
      "messages": 6461,
      "allowing": 6462,
      "practically": 6463,
      "roman": 6464,
      "illeg": 6465,
      "imagery": 6466,
      "imaginative": 6467,
      "essence": 6468,
      "institutional": 6469,
      "rocket": 6470,
      "checking": 6471,
      "visible": 6472,
      "honourable": 6473,
      "patten": 6474,
      "judge": 6475,
      "operating": 6476,
      "strategies": 6477,
      "sandisk": 6478,
      "intends": 6479,
      "irish": 6480,
      "footnotes": 6481,
      "pulled": 6482,
      "melodies": 6483,
      "treas": 6484,
      "animation": 6485,
      "identity": 6486,
      "bearing": 6487,
      "river": 6488,
      "demonstrated": 6489,
      "commitments": 6490,
      "terrifying": 6491,
      "sample": 6492,
      "israeli": 6493,
      "updated": 6494,
      "convenience": 6495,
      "mental": 6496,
      "squee": 6497,
      "drugs": 6498,
      "escape": 6499,
      "vampire": 6500,
      "recovery": 6501,
      "wedding": 6502,
      "phrases": 6503,
      "senior": 6504,
      "tears": 6505,
      "department": 6506,
      "opposite": 6507,
      "odyssey": 6508,
      "torture": 6509,
      "allocated": 6510,
      "mysterious": 6511,
      "utterly": 6512,
      "buttons": 6513,
      "spectac": 6514,
      "refreshing": 6515,
      "arab": 6516,
      "vendor": 6517,
      "oscar": 6518,
      "hockey": 6519,
      "embarrass": 6520,
      "excitement": 6521,
      "jesus": 6522,
      "cf": 6523,
      "cather": 6524,
      "dent": 6525,
      "gem": 6526,
      "gig": 6527,
      "hose": 6528,
      "harsh": 6529,
      "il": 6530,
      "jon": 6531,
      "murd": 6532,
      "nom": 6533,
      "nap": 6534,
      "nine": 6535,
      "native": 6536,
      "rere": 6537,
      "tie": 6538,
      "vig": 6539,
      "wick": 6540,
      "##of": 6541,
      "##night": 6542,
      "##national": 6543,
      "##down": 6544,
      "##cision": 6545,
      "##iance": 6546,
      "##vin": 6547,
      "##kn": 6548,
      "##gb": 6549,
      "##gence": 6550,
      "##yst": 6551,
      "##bc": 6552,
      "##full": 6553,
      "##20": 6554,
      "thurs": 6555,
      "##enary": 6556,
      "##ingu": 6557,
      "##asher": 6558,
      "##icing": 6559,
      "##oma": 6560,
      "rend": 6561,
      "render": 6562,
      "##entic": 6563,
      "##adow": 6564,
      "##roll": 6565,
      "##roph": 6566,
      "stinks": 6567,
      "##cho": 6568,
      "##urance": 6569,
      "weather": 6570,
      "shots": 6571,
      "shake": 6572,
      "seams": 6573,
      "cha": 6574,
      "##rah": 6575,
      "ati": 6576,
      "prison": 6577,
      "megan": 6578,
      "##opian": 6579,
      "cance": 6580,
      "plenary": 6581,
      "makers": 6582,
      "lee": 6583,
      "diam": 6584,
      "gover": 6585,
      "everest": 6586,
      "##ousy": 6587,
      "manages": 6588,
      "##ours": 6589,
      "cliff": 6590,
      "##ishing": 6591,
      "interm": 6592,
      "##agger": 6593,
      "##inki": 6594,
      "resort": 6595,
      "resist": 6596,
      "contrived": 6597,
      "knight": 6598,
      "##quis": 6599,
      "perpet": 6600,
      "##iforn": 6601,
      "spr": 6602,
      "spite": 6603,
      "grasp": 6604,
      "brut": 6605,
      "##ginal": 6606,
      "##ode": 6607,
      "##ondo": 6608,
      "decade": 6609,
      "enjoys": 6610,
      "lists": 6611,
      "hels": 6612,
      "mini": 6613,
      "discworld": 6614,
      "lastly": 6615,
      "glor": 6616,
      "issued": 6617,
      "collab": 6618,
      "##acc": 6619,
      "effectiveness": 6620,
      "##athan": 6621,
      "childhood": 6622,
      "formal": 6623,
      "politically": 6624,
      "explo": 6625,
      "2005": 6626,
      "headphones": 6627,
      "reduced": 6628,
      "##pson": 6629,
      "lacked": 6630,
      "admir": 6631,
      "passages": 6632,
      "##lands": 6633,
      "texts": 6634,
      "beds": 6635,
      "stronger": 6636,
      "20th": 6637,
      "citizen": 6638,
      "millenn": 6639,
      "exception": 6640,
      "visiting": 6641,
      "tested": 6642,
      "devoted": 6643,
      "firemen": 6644,
      "gods": 6645,
      "successfully": 6646,
      "reaching": 6647,
      "annoyed": 6648,
      "sending": 6649,
      "accession": 6650,
      "accessible": 6651,
      "summary": 6652,
      "keyboard": 6653,
      "welcom": 6654,
      "scarpet": 6655,
      "rolling": 6656,
      "maximum": 6657,
      "insights": 6658,
      "selections": 6659,
      "guarantees": 6660,
      "transparent": 6661,
      "occasion": 6662,
      "vehicle": 6663,
      "encouraging": 6664,
      "pleasant": 6665,
      "firmly": 6666,
      "shirt": 6667,
      "theato": 6668,
      "bowie": 6669,
      "unex": 6670,
      "leaks": 6671,
      "cele": 6672,
      "convenient": 6673,
      "simplistic": 6674,
      "farmers": 6675,
      "dragon": 6676,
      "synth": 6677,
      "declar": 6678,
      "belongs": 6679,
      "boost": 6680,
      "ethnic": 6681,
      "confirmed": 6682,
      "speculative": 6683,
      "romeo": 6684,
      "slip": 6685,
      "ashamed": 6686,
      "behavi": 6687,
      "destroyed": 6688,
      "cycle": 6689,
      "satisfaction": 6690,
      "syria": 6691,
      "xenophobia": 6692,
      "substantial": 6693,
      "tribute": 6694,
      "##laimed": 6695,
      "propag": 6696,
      "newspaper": 6697,
      "amateur": 6698,
      "monopolies": 6699,
      "chocolate": 6700,
      "antenna": 6701,
      "bookstore": 6702,
      "murders": 6703,
      "thursday": 6704,
      "scarpetta": 6705,
      "010": 6706,
      "dh": 6707,
      "domin": 6708,
      "eidos": 6709,
      "gut": 6710,
      "gear": 6711,
      "gels": 6712,
      "ht": 6713,
      "kate": 6714,
      "lau": 6715,
      "lap": 6716,
      "mud": 6717,
      "mouse": 6718,
      "na": 6719,
      "pit": 6720,
      "pushing": 6721,
      "witch": 6722,
      "##aci": 6723,
      "##aves": 6724,
      "##uing": 6725,
      "##oe": 6726,
      "##die": 6727,
      "##eit": 6728,
      "##cis": 6729,
      "##hel": 6730,
      "##bted": 6731,
      "##fl": 6732,
      "##ern": 6733,
      "##att": 6734,
      "##orse": 6735,
      "##orous": 6736,
      "##eson": 6737,
      "##rets": 6738,
      "inj": 6739,
      "infer": 6740,
      "##ashing": 6741,
      "##icate": 6742,
      "beads": 6743,
      "fore": 6744,
      "##ghter": 6745,
      "##allel": 6746,
      "shred": 6747,
      "proven": 6748,
      "proport": 6749,
      "sees": 6750,
      "chips": 6751,
      "alien": 6752,
      "neeson": 6753,
      "##emption": 6754,
      "height": 6755,
      "##oler": 6756,
      "pray": 6757,
      "unst": 6758,
      "unif": 6759,
      "amish": 6760,
      "amusing": 6761,
      "nov": 6762,
      "outlet": 6763,
      "logic": 6764,
      "##inder": 6765,
      "compress": 6766,
      "adap": 6767,
      "buend": 6768,
      "preach": 6769,
      "preser": 6770,
      "fake": 6771,
      "buyer": 6772,
      "parad": 6773,
      "##eping": 6774,
      "spider": 6775,
      "grate": 6776,
      "reput": 6777,
      "filmed": 6778,
      "marvel": 6779,
      "albeit": 6780,
      "authentic": 6781,
      "sett": 6782,
      "transnational": 6783,
      "joe": 6784,
      "##ception": 6785,
      "programs": 6786,
      "bob": 6787,
      "glue": 6788,
      "glitches": 6789,
      "persons": 6790,
      "insert": 6791,
      "editions": 6792,
      "arts": 6793,
      "handles": 6794,
      "##cription": 6795,
      "politicians": 6796,
      "covering": 6797,
      "1995": 6798,
      "1994": 6799,
      "describing": 6800,
      "generated": 6801,
      "generations": 6802,
      "curtain": 6803,
      "topical": 6804,
      "battles": 6805,
      "presenting": 6806,
      "creativity": 6807,
      "portable": 6808,
      "distinct": 6809,
      "located": 6810,
      "plane": 6811,
      "speaks": 6812,
      "drivel": 6813,
      "announced": 6814,
      "countryside": 6815,
      "unfortunate": 6816,
      "performed": 6817,
      "langen": 6818,
      "introduct": 6819,
      "resolutions": 6820,
      "immense": 6821,
      "largely": 6822,
      "signs": 6823,
      "southern": 6824,
      "testing": 6825,
      "spends": 6826,
      "arrive": 6827,
      "critics": 6828,
      "killing": 6829,
      "snap": 6830,
      "organised": 6831,
      "supposedly": 6832,
      "favourite": 6833,
      "intex": 6834,
      "recognized": 6835,
      "applications": 6836,
      "blueto": 6837,
      "heavily": 6838,
      "historic": 6839,
      "vocab": 6840,
      "portugal": 6841,
      "collector": 6842,
      "virgin": 6843,
      "bootleg": 6844,
      "occasional": 6845,
      "networks": 6846,
      "codecision": 6847,
      "wooden": 6848,
      "theatre": 6849,
      "interpre": 6850,
      "psychological": 6851,
      "californ": 6852,
      "franken": 6853,
      "paragraphs": 6854,
      "nationals": 6855,
      "islands": 6856,
      "dubbed": 6857,
      "occurred": 6858,
      "chemistry": 6859,
      "associated": 6860,
      "mirror": 6861,
      "african": 6862,
      "juven": 6863,
      "believes": 6864,
      "intriguing": 6865,
      "tremendous": 6866,
      "approxim": 6867,
      "extraordinary": 6868,
      "equipment": 6869,
      "ingredients": 6870,
      "coalition": 6871,
      "crocodile": 6872,
      "coffee": 6873,
      "helsinki": 6874,
      "millennium": 6875,
      "bluetooth": 6876,
      "500": 6877,
      "ale": 6878,
      "aug": 6879,
      "ba": 6880,
      "bin": 6881,
      "bir": 6882,
      "eld": 6883,
      "goo": 6884,
      "jenn": 6885,
      "kit": 6886,
      "lou": 6887,
      "lcd": 6888,
      "pse": 6889,
      "pear": 6890,
      "pants": 6891,
      "porn": 6892,
      "sore": 6893,
      "sons": 6894,
      "vista": 6895,
      "##lter": 6896,
      "##lim": 6897,
      "##top": 6898,
      "##ole": 6899,
      "##ober": 6900,
      "##cle": 6901,
      "##rs": 6902,
      "##rich": 6903,
      "##pin": 6904,
      "##iable": 6905,
      "##ipping": 6906,
      "##gas": 6907,
      "##ml": 6908,
      "##bi": 6909,
      "##zed": 6910,
      "##fall": 6911,
      "##ertain": 6912,
      "##oral": 6913,
      "toss": 6914,
      "inse": 6915,
      "##arthy": 6916,
      "reward": 6917,
      "##otes": 6918,
      "bears": 6919,
      "##chise": 6920,
      "ham": 6921,
      "##iments": 6922,
      "liam": 6923,
      "soap": 6924,
      "deals": 6925,
      "##estyle": 6926,
      "##race": 6927,
      "sugar": 6928,
      "dozen": 6929,
      "##arded": 6930,
      "league": 6931,
      "outer": 6932,
      "trite": 6933,
      "loaded": 6934,
      "dise": 6935,
      "quar": 6936,
      "timely": 6937,
      "##oured": 6938,
      "clip": 6939,
      "clips": 6940,
      "resident": 6941,
      "overly": 6942,
      "scra": 6943,
      "spell": 6944,
      "regime": 6945,
      "register": 6946,
      "##ifer": 6947,
      "paris": 6948,
      "incest": 6949,
      "desired": 6950,
      "##ogether": 6951,
      "spark": 6952,
      "endless": 6953,
      "broth": 6954,
      "bless": 6955,
      "monsters": 6956,
      "##appro": 6957,
      "whereas": 6958,
      "hardware": 6959,
      "helter": 6960,
      "oprah": 6961,
      "defence": 6962,
      "glimp": 6963,
      "##acles": 6964,
      "sched": 6965,
      "legally": 6966,
      "handed": 6967,
      "horiz": 6968,
      "horribly": 6969,
      "entry": 6970,
      "bitter": 6971,
      "standing": 6972,
      "2001": 6973,
      "urgency": 6974,
      "styles": 6975,
      "portion": 6976,
      "freak": 6977,
      "pays": 6978,
      "index": 6979,
      "breed": 6980,
      "superficial": 6981,
      "picks": 6982,
      "amazingly": 6983,
      "bush": 6984,
      "causing": 6985,
      "harry": 6986,
      "gifts": 6987,
      "photograph": 6988,
      "northern": 6989,
      "industries": 6990,
      "contributions": 6991,
      "postp": 6992,
      "opera": 6993,
      "suffer": 6994,
      "suffering": 6995,
      "deserved": 6996,
      "appropriations": 6997,
      "emotionally": 6998,
      "merit": 6999,
      "immediate": 7000,
      "sequence": 7001,
      "advertising": 7002,
      "layout": 7003,
      "complaints": 7004,
      "spoke": 7005,
      "spoken": 7006,
      "exchang": 7007,
      "explaining": 7008,
      "appearance": 7009,
      "obser": 7010,
      "emphasise": 7011,
      "intelligence": 7012,
      "convincing": 7013,
      "climate": 7014,
      "bugs": 7015,
      "thrilled": 7016,
      "baseball": 7017,
      "degrees": 7018,
      "flaws": 7019,
      "massive": 7020,
      "teenager": 7021,
      "julia": 7022,
      "ultimate": 7023,
      "rejected": 7024,
      "determine": 7025,
      "quotes": 7026,
      "inspiration": 7027,
      "methods": 7028,
      "greek": 7029,
      "silver": 7030,
      "candidate": 7031,
      "washed": 7032,
      "consultation": 7033,
      "fingers": 7034,
      "technique": 7035,
      "contempl": 7036,
      "tackle": 7037,
      "vampires": 7038,
      "speculation": 7039,
      "##boys": 7040,
      "inspection": 7041,
      "interaction": 7042,
      "immigrants": 7043,
      "skelter": 7044,
      "academy": 7045,
      "promptly": 7046,
      "altogether": 7047,
      "mccarthy": 7048,
      "venus": 7049,
      "ordinary": 7050,
      "contradict": 7051,
      "garden": 7052,
      "reliable": 7053,
      "tubth": 7054,
      "argento": 7055,
      "transactions": 7056,
      "october": 7057,
      "vessels": 7058,
      "scenario": 7059,
      "piano": 7060,
      "subtitles": 7061,
      "storage": 7062,
      "catherine": 7063,
      "##known": 7064,
      "uniform": 7065,
      "grateful": 7066,
      "frankenstein": 7067,
      "jennifer": 7068,
      "glimpse": 7069,
      "07": 7070,
      "800": 7071,
      "98": 7072,
      "95": 7073,
      "ax": 7074,
      "bust": 7075,
      "bars": 7076,
      "bib": 7077,
      "dud": 7078,
      "eli": 7079,
      "fest": 7080,
      "gained": 7081,
      "hitch": 7082,
      "iv": 7083,
      "las": 7084,
      "lunch": 7085,
      "nud": 7086,
      "nathan": 7087,
      "pci": 7088,
      "pink": 7089,
      "punk": 7090,
      "rou": 7091,
      "sf": 7092,
      "vague": 7093,
      "wog": 7094,
      "wider": 7095,
      "##oqu": 7096,
      "##cre": 7097,
      "##house": 7098,
      "##ses": 7099,
      "##pay": 7100,
      "##gra": 7101,
      "##yp": 7102,
      "##yy": 7103,
      "##za": 7104,
      "##zing": 7105,
      "##jud": 7106,
      "theories": 7107,
      "##onn": 7108,
      "##ati": 7109,
      "##orter": 7110,
      "##rey": 7111,
      "input": 7112,
      "##ione": 7113,
      "##vet": 7114,
      "##othing": 7115,
      "##ales": 7116,
      "##roc": 7117,
      "##ids": 7118,
      "##urate": 7119,
      "asia": 7120,
      "butter": 7121,
      "##kel": 7122,
      "##think": 7123,
      "sha": 7124,
      "chic": 7125,
      "chip": 7126,
      "neck": 7127,
      "exha": 7128,
      "##ulary": 7129,
      "mond": 7130,
      "sum": 7131,
      "readable": 7132,
      "##anta": 7133,
      "##ante": 7134,
      "##anted": 7135,
      "thereby": 7136,
      "nobel": 7137,
      "justified": 7138,
      "goodness": 7139,
      "whoever": 7140,
      "##aga": 7141,
      "##agan": 7142,
      "reserv": 7143,
      "scott": 7144,
      "tec": 7145,
      "preview": 7146,
      "storyte": 7147,
      "##grass": 7148,
      "incom": 7149,
      "underm": 7150,
      "underne": 7151,
      "underground": 7152,
      "guard": 7153,
      "filter": 7154,
      "finn": 7155,
      "filmm": 7156,
      "maria": 7157,
      "194": 7158,
      "conscious": 7159,
      "purpos": 7160,
      "flu": 7161,
      "seemingly": 7162,
      "gameplay": 7163,
      "lasting": 7164,
      "sym": 7165,
      "letting": 7166,
      "slot": 7167,
      "communism": 7168,
      "understandable": 7169,
      "surg": 7170,
      "viewers": 7171,
      "definitive": 7172,
      "cert": 7173,
      "printers": 7174,
      "returns": 7175,
      "entrepr": 7176,
      "generic": 7177,
      "pretent": 7178,
      "restore": 7179,
      "competence": 7180,
      "continent": 7181,
      "solve": 7182,
      "solved": 7183,
      "severely": 7184,
      "amended": 7185,
      "##engen": 7186,
      "couples": 7187,
      "initially": 7188,
      "stayed": 7189,
      "barri": 7190,
      "hopkins": 7191,
      "profit": 7192,
      "expression": 7193,
      "exceptionally": 7194,
      "limits": 7195,
      "occup": 7196,
      "taxpay": 7197,
      "freedoms": 7198,
      "judges": 7199,
      "manufacturing": 7200,
      "##priate": 7201,
      "guidance": 7202,
      "recognised": 7203,
      "volumes": 7204,
      "laughable": 7205,
      "applicant": 7206,
      "dogs": 7207,
      "weakness": 7208,
      "preparing": 7209,
      "humorous": 7210,
      "environmentally": 7211,
      "bluegrass": 7212,
      "jeff": 7213,
      "revision": 7214,
      "identical": 7215,
      "substit": 7216,
      "destruction": 7217,
      "transformer": 7218,
      "uncertain": 7219,
      "hurry": 7220,
      "remaining": 7221,
      "aimed": 7222,
      "independence": 7223,
      "tends": 7224,
      "suspenseful": 7225,
      "significance": 7226,
      "protecting": 7227,
      "convince": 7228,
      "climax": 7229,
      "increasingly": 7230,
      "feeding": 7231,
      "electronics": 7232,
      "franchise": 7233,
      "appealing": 7234,
      "narrator": 7235,
      "scoreboard": 7236,
      "visuals": 7237,
      "##bourg": 7238,
      "obligation": 7239,
      "survive": 7240,
      "schemes": 7241,
      "jerry": 7242,
      "wheels": 7243,
      "qualified": 7244,
      "translated": 7245,
      "investigation": 7246,
      "gripping": 7247,
      "emergency": 7248,
      "hostel": 7249,
      "immigration": 7250,
      "surprisingly": 7251,
      "behavior": 7252,
      "observations": 7253,
      "jewish": 7254,
      "soooo": 7255,
      "pregnancy": 7256,
      "crawford": 7257,
      "tuscany": 7258,
      "papers": 7259,
      "sincerely": 7260,
      "overlook": 7261,
      "victorian": 7262,
      "feehan": 7263,
      "prosperity": 7264,
      "abandoned": 7265,
      "arthur": 7266,
      "minimal": 7267,
      "barnier": 7268,
      "spectacular": 7269,
      "propaganda": 7270,
      "california": 7271,
      "juvenile": 7272,
      "wogau": 7273,
      "exhaust": 7274,
      "underneath": 7275,
      "purposes": 7276,
      "27": 7277,
      "29": 7278,
      "4th": 7279,
      "81": 7280,
      "ain": 7281,
      "ben": 7282,
      "bath": 7283,
      "bench": 7284,
      "dts": 7285,
      "fet": 7286,
      "gil": 7287,
      "gab": 7288,
      "jim": 7289,
      "jumps": 7290,
      "luc": 7291,
      "pam": 7292,
      "ppe": 7293,
      "pile": 7294,
      "pony": 7295,
      "rose": 7296,
      "ruth": 7297,
      "sink": 7298,
      "vint": 7299,
      "wis": 7300,
      "wave": 7301,
      "wides": 7302,
      "##lers": 7303,
      "##list": 7304,
      "##table": 7305,
      "##ek": 7306,
      "##case": 7307,
      "##hile": 7308,
      "##rical": 7309,
      "##rating": 7310,
      "##va": 7311,
      "##gen": 7312,
      "##bur": 7313,
      "##bby": 7314,
      "therap": 7315,
      "##inc": 7316,
      "##inal": 7317,
      "##edly": 7318,
      "##itative": 7319,
      "inacc": 7320,
      "##anks": 7321,
      "revel": 7322,
      "bend": 7323,
      "##stit": 7324,
      "whil": 7325,
      "##ctional": 7326,
      "##advant": 7327,
      "stac": 7328,
      "##seus": 7329,
      "##sets": 7330,
      "##owing": 7331,
      "notch": 7332,
      "weigh": 7333,
      "shorter": 7334,
      "dean": 7335,
      "chos": 7336,
      "expend": 7337,
      "##ulates": 7338,
      "##ulating": 7339,
      "##rix": 7340,
      "##raint": 7341,
      "worried": 7342,
      "oral": 7343,
      "##ola": 7344,
      "meg": 7345,
      "una": 7346,
      "unh": 7347,
      "unknown": 7348,
      "timber": 7349,
      "troma": 7350,
      "loy": 7351,
      "##apes": 7352,
      "manip": 7353,
      "europeans": 7354,
      "##ago": 7355,
      "##earing": 7356,
      "arc": 7357,
      "wrest": 7358,
      "partner": 7359,
      "donors": 7360,
      "teens": 7361,
      "inclus": 7362,
      "bland": 7363,
      "blown": 7364,
      "repr": 7365,
      "remarks": 7366,
      "marine": 7367,
      "trave": 7368,
      "trains": 7369,
      "emma": 7370,
      "consens": 7371,
      "monster": 7372,
      "##appy": 7373,
      "indul": 7374,
      "indian": 7375,
      "checks": 7376,
      "persu": 7377,
      "phase": 7378,
      "completed": 7379,
      "inser": 7380,
      "slick": 7381,
      "schengen": 7382,
      "artistic": 7383,
      "awhile": 7384,
      "formed": 7385,
      "detract": 7386,
      "detective": 7387,
      "futur": 7388,
      "relev": 7389,
      "reasonably": 7390,
      "batman": 7391,
      "drum": 7392,
      "beginners": 7393,
      "refers": 7394,
      "lightweight": 7395,
      "crappy": 7396,
      "holder": 7397,
      "publication": 7398,
      "wasnt": 7399,
      "financed": 7400,
      "admitted": 7401,
      "picking": 7402,
      "societ": 7403,
      "barg": 7404,
      "entertained": 7405,
      "prints": 7406,
      "guessing": 7407,
      "patience": 7408,
      "patric": 7409,
      "##going": 7410,
      "brands": 7411,
      "organized": 7412,
      "delivers": 7413,
      "inflate": 7414,
      "casting": 7415,
      "shoe": 7416,
      "pressed": 7417,
      "suffered": 7418,
      "desert": 7419,
      "appreciated": 7420,
      "heroes": 7421,
      "melod": 7422,
      "trend": 7423,
      "slightest": 7424,
      "##onstruction": 7425,
      "warmer": 7426,
      "affects": 7427,
      "benefits": 7428,
      "frag": 7429,
      "hooks": 7430,
      "palaci": 7431,
      "puzzles": 7432,
      "breathing": 7433,
      "primary": 7434,
      "crystal": 7435,
      "choppy": 7436,
      "embar": 7437,
      "highlights": 7438,
      "portrayed": 7439,
      "portrayal": 7440,
      "seattle": 7441,
      "racist": 7442,
      "determination": 7443,
      "hester": 7444,
      "declared": 7445,
      "sheri": 7446,
      "square": 7447,
      "unusable": 7448,
      "permit": 7449,
      "##immy": 7450,
      "australia": 7451,
      "casual": 7452,
      "distribution": 7453,
      "distributed": 7454,
      "barbie": 7455,
      "channels": 7456,
      "guns": 7457,
      "split": 7458,
      "waters": 7459,
      "odysseus": 7460,
      "ignorant": 7461,
      "##writer": 7462,
      "implications": 7463,
      "hypoc": 7464,
      "category": 7465,
      "routine": 7466,
      "begun": 7467,
      "mutual": 7468,
      "mechanisms": 7469,
      "temptation": 7470,
      "delegation": 7471,
      "hardcore": 7472,
      "protagonist": 7473,
      "explosions": 7474,
      "nightmare": 7475,
      "accomplish": 7476,
      "subsequent": 7477,
      "advisers": 7478,
      "enforcement": 7479,
      "components": 7480,
      "excluded": 7481,
      "disapointed": 7482,
      "cartridge": 7483,
      "withdraw": 7484,
      "obscure": 7485,
      "balkans": 7486,
      "overwhelming": 7487,
      "fictional": 7488,
      "lewis": 7489,
      "governing": 7490,
      "vocabulary": 7491,
      "pearl": 7492,
      "brothers": 7493,
      "pretentious": 7494,
      "vintage": 7495,
      "whilst": 7496,
      "palacio": 7497,
      "65": 7498,
      "85": 7499,
      "ath": 7500,
      "bd": 7501,
      "bun": 7502,
      "bond": 7503,
      "cy": 7504,
      "cell": 7505,
      "celt": 7506,
      "dor": 7507,
      "eager": 7508,
      "fpo": 7509,
      "hers": 7510,
      "jur": 7511,
      "jimmy": 7512,
      "rates": 7513,
      "tons": 7514,
      "torn": 7515,
      "tips": 7516,
      "wic": 7517,
      "xbox": 7518,
      "ze": 7519,
      "##aa": 7520,
      "##aver": 7521,
      "##litt": 7522,
      "##oly": 7523,
      "##off": 7524,
      "##nel": 7525,
      "##eed": 7526,
      "##cs": 7527,
      "##commend": 7528,
      "##cracy": 7529,
      "##rane": 7530,
      "##pher": 7531,
      "##ients": 7532,
      "##ique": 7533,
      "##ki": 7534,
      "##war": 7535,
      "##med": 7536,
      "##mble": 7537,
      "##fi": 7538,
      "##15": 7539,
      "ther": 7540,
      "##oubted": 7541,
      "todd": 7542,
      "##eds": 7543,
      "##rend": 7544,
      "inhab": 7545,
      "##anes": 7546,
      "##aring": 7547,
      "reb": 7548,
      "reun": 7549,
      "##uten": 7550,
      "##str": 7551,
      "stink": 7552,
      "stations": 7553,
      "##terbury": 7554,
      "ank": 7555,
      "aspir": 7556,
      "##irt": 7557,
      "chase": 7558,
      "choos": 7559,
      "conj": 7560,
      "convey": 7561,
      "alten": 7562,
      "neat": 7563,
      "neph": 7564,
      "exit": 7565,
      "##ckhe": 7566,
      "suited": 7567,
      "sums": 7568,
      "##istics": 7569,
      "##opia": 7570,
      "canterbury": 7571,
      "map": 7572,
      "hass": 7573,
      "justify": 7574,
      "outl": 7575,
      "outs": 7576,
      "whats": 7577,
      "ups": 7578,
      "##astically": 7579,
      "disse": 7580,
      "disadvant": 7581,
      "intr": 7582,
      "##issions": 7583,
      "manif": 7584,
      "buzz": 7585,
      "reconstruction": 7586,
      "herb": 7587,
      "resum": 7588,
      "overrated": 7589,
      "scot": 7590,
      "preced": 7591,
      "prehist": 7592,
      "prejud": 7593,
      "##osexual": 7594,
      "buyers": 7595,
      "ours": 7596,
      "newly": 7597,
      "##izations": 7598,
      "struck": 7599,
      "ende": 7600,
      "endorse": 7601,
      "grat": 7602,
      "grass": 7603,
      "bookshel": 7604,
      "mars": 7605,
      "sometime": 7606,
      "trailer": 7607,
      "concise": 7608,
      "considers": 7609,
      "puritan": 7610,
      "flight": 7611,
      "factors": 7612,
      "enjoyment": 7613,
      "setup": 7614,
      "opens": 7615,
      "esp": 7616,
      "complement": 7617,
      "warn": 7618,
      "##beat": 7619,
      "forming": 7620,
      "typos": 7621,
      "restaur": 7622,
      "controlled": 7623,
      "refused": 7624,
      "shortly": 7625,
      "headed": 7626,
      "isnt": 7627,
      "respects": 7628,
      "busy": 7629,
      "practices": 7630,
      "essay": 7631,
      "strap": 7632,
      "devices": 7633,
      "surprises": 7634,
      "attempted": 7635,
      "winning": 7636,
      "patrick": 7637,
      "combine": 7638,
      "modernisation": 7639,
      "judgement": 7640,
      "budgets": 7641,
      "hotel": 7642,
      "preparation": 7643,
      "drawings": 7644,
      "beatles": 7645,
      "peaceful": 7646,
      "deadline": 7647,
      "appreciation": 7648,
      "instrumental": 7649,
      "sweat": 7650,
      "pulling": 7651,
      "traveling": 7652,
      "meaningful": 7653,
      "preventing": 7654,
      "guaranteed": 7655,
      "billy": 7656,
      "rubb": 7657,
      "earthqu": 7658,
      "##ammed": 7659,
      "unclear": 7660,
      "machines": 7661,
      "recycled": 7662,
      "catalog": 7663,
      "penal": 7664,
      "purely": 7665,
      "undoubted": 7666,
      "participate": 7667,
      "delighted": 7668,
      "landsc": 7669,
      "minorities": 7670,
      "dutch": 7671,
      "depends": 7672,
      "depending": 7673,
      "sung": 7674,
      "ceiling": 7675,
      "concentration": 7676,
      "vibe": 7677,
      "displayed": 7678,
      "lifet": 7679,
      "lifestyle": 7680,
      "adaptation": 7681,
      "exclusively": 7682,
      "screws": 7683,
      "liner": 7684,
      "mask": 7685,
      "martin": 7686,
      "assumed": 7687,
      "nickel": 7688,
      "incorporate": 7689,
      "incorporated": 7690,
      "casset": 7691,
      "solely": 7692,
      "pollution": 7693,
      "dismant": 7694,
      "florenz": 7695,
      "bureaucr": 7696,
      "bureaucracy": 7697,
      "dedicated": 7698,
      "##zzzzzzzz": 7699,
      "forestry": 7700,
      "pregnant": 7701,
      "logical": 7702,
      "enlightening": 7703,
      "koch": 7704,
      "narrow": 7705,
      "anchov": 7706,
      "condemn": 7707,
      "irritating": 7708,
      "inevitably": 7709,
      "temperature": 7710,
      "hazlitt": 7711,
      "metaphors": 7712,
      "innocent": 7713,
      "palestinian": 7714,
      "infrastructure": 7715,
      "inadequate": 7716,
      "rollerball": 7717,
      "baskervilles": 7718,
      "crowd": 7719,
      "dentist": 7720,
      "jonckhe": 7721,
      "reread": 7722,
      "buendia": 7723,
      "insec": 7724,
      "nudity": 7725,
      "entreprene": 7726,
      "stacie": 7727,
      "chosen": 7728,
      "consensus": 7729,
      "patricia": 7730,
      "celtic": 7731,
      "altener": 7732,
      "nephew": 7733,
      "undoubtedly": 7734,
      "jonckheer": 7735,
      "03": 7736,
      "42": 7737,
      "64": 7738,
      "bil": 7739,
      "cents": 7740,
      "cott": 7741,
      "dom": 7742,
      "dummy": 7743,
      "ell": 7744,
      "epson": 7745,
      "ft": 7746,
      "fats": 7747,
      "hal": 7748,
      "ive": 7749,
      "icon": 7750,
      "jams": 7751,
      "ken": 7752,
      "kay": 7753,
      "lp": 7754,
      "lid": 7755,
      "lyn": 7756,
      "lousy": 7757,
      "mere": 7758,
      "ninet": 7759,
      "rust": 7760,
      "rave": 7761,
      "rash": 7762,
      "sed": 7763,
      "sought": 7764,
      "tile": 7765,
      "tip": 7766,
      "viny": 7767,
      "wet": 7768,
      "wolf": 7769,
      "##ule": 7770,
      "##lam": 7771,
      "##taking": 7772,
      "##dp": 7773,
      "##ram": 7774,
      "##pa": 7775,
      "##pensive": 7776,
      "##vation": 7777,
      "##kind": 7778,
      "##mother": 7779,
      "##bble": 7780,
      "##buster": 7781,
      "##zil": 7782,
      "##zab": 7783,
      "##erie": 7784,
      "##atical": 7785,
      "##inge": 7786,
      "##itars": 7787,
      "inappro": 7788,
      "##arma": 7789,
      "##asion": 7790,
      "##icable": 7791,
      "rew": 7792,
      "stro": 7793,
      "stew": 7794,
      "##sell": 7795,
      "hack": 7796,
      "ane": 7797,
      "asks": 7798,
      "comed": 7799,
      "##kell": 7800,
      "lift": 7801,
      "seld": 7802,
      "sevent": 7803,
      "depl": 7804,
      "chilling": 7805,
      "alright": 7806,
      "##ulter": 7807,
      "mold": 7808,
      "alle": 7809,
      "##istan": 7810,
      "noises": 7811,
      "timet": 7812,
      "anyways": 7813,
      "##andering": 7814,
      "comply": 7815,
      "cock": 7816,
      "coherent": 7817,
      "dislike": 7818,
      "disabled": 7819,
      "intro": 7820,
      "recieved": 7821,
      "##igning": 7822,
      "interventions": 7823,
      "##agers": 7824,
      "ark": 7825,
      "popped": 7826,
      "overse": 7827,
      "prevention": 7828,
      "sav": 7829,
      "fac": 7830,
      "newer": 7831,
      "perip": 7832,
      "##ensible": 7833,
      "income": 7834,
      "appoint": 7835,
      "serves": 7836,
      "guitars": 7837,
      "root": 7838,
      "memor": 7839,
      "193": 7840,
      "1950": 7841,
      "smes": 7842,
      "decides": 7843,
      "belt": 7844,
      "##oca": 7845,
      "functional": 7846,
      "transm": 7847,
      "joan": 7848,
      "discs": 7849,
      "discount": 7850,
      "bold": 7851,
      "foam": 7852,
      "glitch": 7853,
      "slo": 7854,
      "collar": 7855,
      "directing": 7856,
      "originals": 7857,
      "evo": 7858,
      "humour": 7859,
      "personality": 7860,
      "ideal": 7861,
      "ideology": 7862,
      "##neg": 7863,
      "characterization": 7864,
      "excel": 7865,
      "exploration": 7866,
      "avid": 7867,
      "##raction": 7868,
      "dragged": 7869,
      "debated": 7870,
      "debating": 7871,
      "chronic": 7872,
      "restruct": 7873,
      "controller": 7874,
      "skipped": 7875,
      "brazil": 7876,
      "mindless": 7877,
      "solo": 7878,
      "perfection": 7879,
      "extrem": 7880,
      "aired": 7881,
      "freud": 7882,
      "screaming": 7883,
      "financing": 7884,
      "driven": 7885,
      "princip": 7886,
      "protocol": 7887,
      "bedroom": 7888,
      "involves": 7889,
      "lawy": 7890,
      "introduces": 7891,
      "##zzy": 7892,
      "suggests": 7893,
      "profile": 7894,
      "illum": 7895,
      "institution": 7896,
      "exceptions": 7897,
      "foods": 7898,
      "winner": 7899,
      "masterful": 7900,
      "menu": 7901,
      "contributed": 7902,
      "laughed": 7903,
      "referring": 7904,
      "touches": 7905,
      "enlarged": 7906,
      "investments": 7907,
      "offering": 7908,
      "repeating": 7909,
      "geographical": 7910,
      "pulls": 7911,
      "victim": 7912,
      "selected": 7913,
      "advertis": 7914,
      "luckily": 7915,
      "util": 7916,
      "inequ": 7917,
      "bothered": 7918,
      "towns": 7919,
      "temp": 7920,
      "monti": 7921,
      "assistants": 7922,
      "tastes": 7923,
      "closing": 7924,
      "encouraged": 7925,
      "indicate": 7926,
      "camping": 7927,
      "penny": 7928,
      "demonstrates": 7929,
      "widely": 7930,
      "extending": 7931,
      "consistently": 7932,
      "samples": 7933,
      "stripped": 7934,
      "twisted": 7935,
      "determined": 7936,
      "chairman": 7937,
      "undertaken": 7938,
      "succeeded": 7939,
      "adaptor": 7940,
      "empath": 7941,
      "cliches": 7942,
      "survival": 7943,
      "innovation": 7944,
      "lux": 7945,
      "assuming": 7946,
      "breathtaking": 7947,
      "restricted": 7948,
      "exposed": 7949,
      "punish": 7950,
      "repeatedly": 7951,
      "overdone": 7952,
      "deflate": 7953,
      "satisfactory": 7954,
      "cups": 7955,
      "charts": 7956,
      "leadership": 7957,
      "tango": 7958,
      "semi": 7959,
      "tuscan": 7960,
      "mainstreaming": 7961,
      "mandate": 7962,
      "legitimate": 7963,
      "slept": 7964,
      "paranoid": 7965,
      "receiver": 7966,
      "receipt": 7967,
      "inexpensive": 7968,
      "acknowled": 7969,
      "enhance": 7970,
      "horrifying": 7971,
      "housing": 7972,
      "patterns": 7973,
      "evaluation": 7974,
      "stabil": 7975,
      "deleted": 7976,
      "mtv": 7977,
      "navig": 7978,
      "celebr": 7979,
      "behaviour": 7980,
      "august": 7981,
      "birthing": 7982,
      "nathaniel": 7983,
      "expenditure": 7984,
      "loyal": 7985,
      "reprint": 7986,
      "futuristic": 7987,
      "relevance": 7988,
      "juris": 7989,
      "hassle": 7990,
      "manifest": 7991,
      "prehistoric": 7992,
      "endeav": 7993,
      "lifetime": 7994,
      "stewart": 7995,
      "bog": 7996,
      "cad": 7997,
      "cous": 7998,
      "cats": 7999,
      "dre": 8000,
      "dal": 8001,
      "dill": 8002,
      "fw": 8003,
      "fuel": 8004,
      "gather": 8005,
      "gems": 8006,
      "ira": 8007,
      "jor": 8008,
      "jose": 8009,
      "jane": 8010,
      "kurt": 8011,
      "lj": 8012,
      "lor": 8013,
      "nich": 8014,
      "rus": 8015,
      "rational": 8016,
      "sizing": 8017,
      "tact": 8018,
      "vin": 8019,
      "voy": 8020,
      "wol": 8021,
      "yard": 8022,
      "yell": 8023,
      "zone": 8024,
      "##uate": 8025,
      "##tical": 8026,
      "##ok": 8027,
      "##oom": 8028,
      "##oons": 8029,
      "##non": 8030,
      "##daughter": 8031,
      "##ex": 8032,
      "##hol": 8033,
      "##riment": 8034,
      "##pass": 8035,
      "##bian": 8036,
      "##fin": 8037,
      "thro": 8038,
      "theres": 8039,
      "##esis": 8040,
      "anderson": 8041,
      "##ari": 8042,
      "reiter": 8043,
      "reverse": 8044,
      "whale": 8045,
      "##adel": 8046,
      "stitch": 8047,
      "notification": 8048,
      "ange": 8049,
      "comic": 8050,
      "shia": 8051,
      "shaking": 8052,
      "lighter": 8053,
      "cher": 8054,
      "chuck": 8055,
      "alter": 8056,
      "##rior": 8057,
      "##esty": 8058,
      "##estic": 8059,
      "orle": 8060,
      "mexic": 8061,
      "commend": 8062,
      "outline": 8063,
      "timer": 8064,
      "##active": 8065,
      "locked": 8066,
      "##asts": 8067,
      "compuls": 8068,
      "disj": 8069,
      "quir": 8070,
      "reccommend": 8071,
      "tag": 8072,
      "##placed": 8073,
      "resem": 8074,
      "overnight": 8075,
      "charming": 8076,
      "donati": 8077,
      "impose": 8078,
      "##perately": 8079,
      "producing": 8080,
      "percent": 8081,
      "##izer": 8082,
      "param": 8083,
      "incon": 8084,
      "blond": 8085,
      "##aze": 8086,
      "keen": 8087,
      "cruel": 8088,
      "gothic": 8089,
      "remaster": 8090,
      "supplement": 8091,
      "founding": 8092,
      "decis": 8093,
      "flows": 8094,
      "secrets": 8095,
      "thoughtful": 8096,
      "define": 8097,
      "discovers": 8098,
      "fewer": 8099,
      "lasts": 8100,
      "worlds": 8101,
      "gloss": 8102,
      "gluten": 8103,
      "insom": 8104,
      "insuff": 8105,
      "carl": 8106,
      "reported": 8107,
      "courses": 8108,
      "apolog": 8109,
      "apache": 8110,
      "elvis": 8111,
      "##ugged": 8112,
      "understands": 8113,
      "basics": 8114,
      "viewpoint": 8115,
      "proposes": 8116,
      "##mann": 8117,
      "considerations": 8118,
      "detriment": 8119,
      "expense": 8120,
      "possibilities": 8121,
      "fancy": 8122,
      "poorest": 8123,
      "starring": 8124,
      "sites": 8125,
      "engaged": 8126,
      "openness": 8127,
      "headphone": 8128,
      "lara": 8129,
      "redund": 8130,
      "crew": 8131,
      "cream": 8132,
      "locations": 8133,
      "regularly": 8134,
      "equival": 8135,
      "performing": 8136,
      "pale": 8137,
      "teaches": 8138,
      "failing": 8139,
      "steam": 8140,
      "painted": 8141,
      "motions": 8142,
      "miser": 8143,
      "devast": 8144,
      "honour": 8145,
      "##heart": 8146,
      "acceptance": 8147,
      "lowest": 8148,
      "stops": 8149,
      "sooner": 8150,
      "greens": 8151,
      "screenplay": 8152,
      "representation": 8153,
      "suspend": 8154,
      "university": 8155,
      "120": 8156,
      "operational": 8157,
      "holoca": 8158,
      "democrat": 8159,
      "procedural": 8160,
      "##forced": 8161,
      "connector": 8162,
      "connecting": 8163,
      "ruin": 8164,
      "publishing": 8165,
      "requirement": 8166,
      "progressive": 8167,
      "mergers": 8168,
      "deaths": 8169,
      "searched": 8170,
      "captures": 8171,
      "captured": 8172,
      "drown": 8173,
      "melody": 8174,
      "collective": 8175,
      "collections": 8176,
      "meaningless": 8177,
      "bikes": 8178,
      "biography": 8179,
      "votes": 8180,
      "circle": 8181,
      "smoke": 8182,
      "##umbled": 8183,
      "ignored": 8184,
      "monitored": 8185,
      "##olds": 8186,
      "uncle": 8187,
      "spoil": 8188,
      "sharing": 8189,
      "violent": 8190,
      "verb": 8191,
      "linked": 8192,
      "depression": 8193,
      "guitarist": 8194,
      "prospect": 8195,
      "uneven": 8196,
      "bags": 8197,
      "hungry": 8198,
      "homer": 8199,
      "homosexual": 8200,
      "unfair": 8201,
      "dissapointing": 8202,
      "struggles": 8203,
      "1963": 8204,
      "targeted": 8205,
      "bloody": 8206,
      "adoption": 8207,
      "removing": 8208,
      "candy": 8209,
      "www": 8210,
      "obliged": 8211,
      "obligations": 8212,
      "villain": 8213,
      "ambition": 8214,
      "accidents": 8215,
      "elementary": 8216,
      "worrying": 8217,
      "cinema": 8218,
      "rambling": 8219,
      "outdo": 8220,
      "revealed": 8221,
      "phrase": 8222,
      "disagre": 8223,
      "##enzel": 8224,
      "flyboys": 8225,
      "rushed": 8226,
      "categories": 8227,
      "discipline": 8228,
      "birds": 8229,
      "drinking": 8230,
      "russian": 8231,
      "acknowledge": 8232,
      "distracting": 8233,
      "gibson": 8234,
      "bernstein": 8235,
      "platform": 8236,
      "controversial": 8237,
      "illegal": 8238,
      "treasure": 8239,
      "collaboration": 8240,
      "dharma": 8241,
      "inferior": 8242,
      "reputation": 8243,
      "interpreted": 8244,
      "approximately": 8245,
      "disease": 8246,
      "finnish": 8247,
      "wisdom": 8248,
      "unhappy": 8249,
      "bargain": 8250,
      "scotland": 8251,
      "vinyl": 8252,
      "inappropriate": 8253,
      "anecd": 8254,
      "holocaust": 8255,
      "33": 8256,
      "37": 8257,
      "39": 8258,
      "46": 8259,
      "5th": 8260,
      "96": 8261,
      "94": 8262,
      "boss": 8263,
      "bbc": 8264,
      "cere": 8265,
      "cena": 8266,
      "dum": 8267,
      "dare": 8268,
      "dual": 8269,
      "dump": 8270,
      "dumm": 8271,
      "dyst": 8272,
      "eve": 8273,
      "ego": 8274,
      "echo": 8275,
      "fence": 8276,
      "gel": 8277,
      "gap": 8278,
      "goof": 8279,
      "gdp": 8280,
      "hut": 8281,
      "hull": 8282,
      "kh": 8283,
      "lic": 8284,
      "mb": 8285,
      "mism": 8286,
      "nether": 8287,
      "pour": 8288,
      "pix": 8289,
      "rp": 8290,
      "rog": 8291,
      "sid": 8292,
      "tro": 8293,
      "vitor": 8294,
      "wine": 8295,
      "wrap": 8296,
      "##ea": 8297,
      "##eve": 8298,
      "##ecess": 8299,
      "##can": 8300,
      "##cue": 8301,
      "##rr": 8302,
      "##rot": 8303,
      "##ront": 8304,
      "##win": 8305,
      "##gger": 8306,
      "##bod": 8307,
      "##fy": 8308,
      "##xy": 8309,
      "##iner": 8310,
      "##inth": 8311,
      "##inations": 8312,
      "##oust": 8313,
      "##itz": 8314,
      "##itly": 8315,
      "##itant": 8316,
      "##arn": 8317,
      "##areness": 8318,
      "##asa": 8319,
      "##asm": 8320,
      "reass": 8321,
      "##lem": 8322,
      "##lein": 8323,
      "##alous": 8324,
      "##alities": 8325,
      "##utor": 8326,
      "ongoing": 8327,
      "##ado": 8328,
      "##ader": 8329,
      "forum": 8330,
      "ster": 8331,
      "stal": 8332,
      "stance": 8333,
      "analog": 8334,
      "##imming": 8335,
      "shore": 8336,
      "shif": 8337,
      "shines": 8338,
      "shadow": 8339,
      "lip": 8340,
      "lili": 8341,
      "proc": 8342,
      "##illa": 8343,
      "##ationally": 8344,
      "sof": 8345,
      "dell": 8346,
      "defe": 8347,
      "deploy": 8348,
      "chore": 8349,
      "chain": 8350,
      "champ": 8351,
      "##iles": 8352,
      "##essions": 8353,
      "##ulations": 8354,
      "mob": 8355,
      "##estors": 8356,
      "suit": 8357,
      "doc": 8358,
      "doors": 8359,
      "fraser": 8360,
      "alliance": 8361,
      "orange": 8362,
      "ench": 8363,
      "enrich": 8364,
      "##usive": 8365,
      "meps": 8366,
      "abba": 8367,
      "##opher": 8368,
      "##erend": 8369,
      "unim": 8370,
      "unfor": 8371,
      "pled": 8372,
      "plants": 8373,
      "likeable": 8374,
      "##unes": 8375,
      "tray": 8376,
      "##elic": 8377,
      "upli": 8378,
      "uphold": 8379,
      "##apse": 8380,
      "compass": 8381,
      "coinc": 8382,
      "dipl": 8383,
      "intens": 8384,
      "intoler": 8385,
      "qua": 8386,
      "usable": 8387,
      "feas": 8388,
      "fears": 8389,
      "bubble": 8390,
      "agencies": 8391,
      "clue": 8392,
      "clothing": 8393,
      "##ending": 8394,
      "##abling": 8395,
      "##itely": 8396,
      "##udos": 8397,
      "reser": 8398,
      "rescue": 8399,
      "partly": 8400,
      "overs": 8401,
      "scoot": 8402,
      "prev": 8403,
      "pref": 8404,
      "##ormal": 8405,
      "regener": 8406,
      "parallel": 8407,
      "incent": 8408,
      "incons": 8409,
      "desir": 8410,
      "served": 8411,
      "serving": 8412,
      "bridge": 8413,
      "kelly": 8414,
      "remin": 8415,
      "marg": 8416,
      "marginal": 8417,
      "traff": 8418,
      "consists": 8419,
      "monot": 8420,
      "founded": 8421,
      "belive": 8422,
      "beings": 8423,
      "##xture": 8424,
      "poses": 8425,
      "factual": 8426,
      "##ocal": 8427,
      "cleans": 8428,
      "transcend": 8429,
      "happily": 8430,
      "happier": 8431,
      "happiness": 8432,
      "accent": 8433,
      "boat": 8434,
      "trials": 8435,
      "trips": 8436,
      "glowing": 8437,
      "develops": 8438,
      "##readable": 8439,
      "insurance": 8440,
      "caring": 8441,
      "cared": 8442,
      "carter": 8443,
      "orient": 8444,
      "##acle": 8445,
      "warming": 8446,
      "warrior": 8447,
      "handling": 8448,
      "singles": 8449,
      "inval": 8450,
      "lake": 8451,
      "awareness": 8452,
      "viewed": 8453,
      "confront": 8454,
      "##athers": 8455,
      "demo": 8456,
      "formation": 8457,
      "exped": 8458,
      "coverage": 8459,
      "1993": 8460,
      "generate": 8461,
      "generous": 8462,
      "2003": 8463,
      "##ashed": 8464,
      "costa": 8465,
      "refuse": 8466,
      "minded": 8467,
      "lighting": 8468,
      "solving": 8469,
      "##gging": 8470,
      "centres": 8471,
      "companion": 8472,
      "distance": 8473,
      "promising": 8474,
      "oppress": 8475,
      "processes": 8476,
      "admire": 8477,
      "technological": 8478,
      "aids": 8479,
      "resulted": 8480,
      "##mmmm": 8481,
      "estim": 8482,
      "raises": 8483,
      "structured": 8484,
      "suggestion": 8485,
      "agrees": 8486,
      "2011": 8487,
      "satire": 8488,
      "stepped": 8489,
      "languages": 8490,
      "##cuit": 8491,
      "harris": 8492,
      "misunder": 8493,
      "honor": 8494,
      "installing": 8495,
      "installment": 8496,
      "bottles": 8497,
      "designs": 8498,
      "predecess": 8499,
      "posted": 8500,
      "walks": 8501,
      "ridd": 8502,
      "##ighters": 8503,
      "shopping": 8504,
      "sandra": 8505,
      "approaches": 8506,
      "babies": 8507,
      "typically": 8508,
      "documentation": 8509,
      "addresses": 8510,
      "interregional": 8511,
      "strengthened": 8512,
      "traditions": 8513,
      "grandson": 8514,
      "granddaughter": 8515,
      "identified": 8516,
      "roads": 8517,
      "ratings": 8518,
      "unlikely": 8519,
      "walls": 8520,
      "temporary": 8521,
      "throwing": 8522,
      "turk": 8523,
      "troubles": 8524,
      "harmful": 8525,
      "granting": 8526,
      "indicated": 8527,
      "indicates": 8528,
      "accuracy": 8529,
      "hello": 8530,
      "autob": 8531,
      "alternate": 8532,
      "stressed": 8533,
      "##ummer": 8534,
      "consequence": 8535,
      "constitute": 8536,
      "duh": 8537,
      "bowls": 8538,
      "feedback": 8539,
      "shocking": 8540,
      "reflection": 8541,
      "hunting": 8542,
      "jungle": 8543,
      "mckell": 8544,
      "francis": 8545,
      "teenagers": 8546,
      "mentions": 8547,
      "vibr": 8548,
      "submit": 8549,
      "emailed": 8550,
      "delays": 8551,
      "experiencing": 8552,
      "village": 8553,
      "association": 8554,
      "ranks": 8555,
      "bulbs": 8556,
      "enthr": 8557,
      "rods": 8558,
      "knocked": 8559,
      "ironic": 8560,
      "##hhhh": 8561,
      "skept": 8562,
      "proceedings": 8563,
      "producer": 8564,
      "genuinely": 8565,
      "tolerance": 8566,
      "acquis": 8567,
      "revolution": 8568,
      "textbooks": 8569,
      "xenophobic": 8570,
      "rigid": 8571,
      "tower": 8572,
      "legitim": 8573,
      "russia": 8574,
      "rapidly": 8575,
      "fortunately": 8576,
      "confidential": 8577,
      "expertise": 8578,
      "stereo": 8579,
      "corporate": 8580,
      "prophe": 8581,
      "accompanied": 8582,
      "wrapped": 8583,
      "unbear": 8584,
      "interface": 8585,
      "envisaged": 8586,
      "auditors": 8587,
      "brows": 8588,
      "ufo": 8589,
      "obstacles": 8590,
      "dynamic": 8591,
      "btw": 8592,
      "sweden": 8593,
      "assembly": 8594,
      "lisbon": 8595,
      "lonely": 8596,
      "oceania": 8597,
      "ritter": 8598,
      "squeeze": 8599,
      "introductory": 8600,
      "elizab": 8601,
      "chicago": 8602,
      "uncertainty": 8603,
      "inclusion": 8604,
      "travelling": 8605,
      "rubbish": 8606,
      "bureaucratic": 8607,
      "anchovy": 8608,
      "timetable": 8609,
      "insomn": 8610,
      "equivalent": 8611,
      "dummies": 8612,
      "netherlands": 8613,
      "vitorino": 8614,
      "elizabeth": 8615,
      "31": 8616,
      "34": 8617,
      "bum": 8618,
      "bare": 8619,
      "bree": 8620,
      "bump": 8621,
      "bums": 8622,
      "cush": 8623,
      "dies": 8624,
      "dave": 8625,
      "drew": 8626,
      "egy": 8627,
      "fame": 8628,
      "fighter": 8629,
      "gi": 8630,
      "gim": 8631,
      "gee": 8632,
      "goss": 8633,
      "golf": 8634,
      "hog": 8635,
      "hates": 8636,
      "jar": 8637,
      "jet": 8638,
      "jac": 8639,
      "kore": 8640,
      "kicks": 8641,
      "lion": 8642,
      "laz": 8643,
      "lac": 8644,
      "lange": 8645,
      "loop": 8646,
      "mes": 8647,
      "mun": 8648,
      "mig": 8649,
      "nt": 8650,
      "nick": 8651,
      "nik": 8652,
      "ov": 8653,
      "owe": 8654,
      "pic": 8655,
      "pul": 8656,
      "pool": 8657,
      "pione": 8658,
      "rib": 8659,
      "rising": 8660,
      "sab": 8661,
      "soup": 8662,
      "sided": 8663,
      "saga": 8664,
      "tied": 8665,
      "ugh": 8666,
      "wond": 8667,
      "zomb": 8668,
      "##lies": 8669,
      "##oll": 8670,
      "##oir": 8671,
      "##nat": 8672,
      "##cro": 8673,
      "##cers": 8674,
      "##hy": 8675,
      "##rad": 8676,
      "##rum": 8677,
      "##rough": 8678,
      "##ped": 8679,
      "##pot": 8680,
      "##wear": 8681,
      "##gant": 8682,
      "##mart": 8683,
      "##bro": 8684,
      "##fit": 8685,
      "##father": 8686,
      "##field": 8687,
      "##xley": 8688,
      "thou": 8689,
      "thier": 8690,
      "##oning": 8691,
      "##atable": 8692,
      "##ara": 8693,
      "##oms": 8694,
      "bell": 8695,
      "bebel": 8696,
      "##entine": 8697,
      "fores": 8698,
      "stim": 8699,
      "stake": 8700,
      "stamp": 8701,
      "##ete": 8702,
      "yout": 8703,
      "##idation": 8704,
      "##chy": 8705,
      "##child": 8706,
      "##urg": 8707,
      "asian": 8708,
      "##iring": 8709,
      "sham": 8710,
      "shift": 8711,
      "lil": 8712,
      "liable": 8713,
      "prohib": 8714,
      "sew": 8715,
      "degr": 8716,
      "decept": 8717,
      "chand": 8718,
      "alph": 8719,
      "alert": 8720,
      "alarm": 8721,
      "neo": 8722,
      "exu": 8723,
      "exagger": 8724,
      "exemption": 8725,
      "mos": 8726,
      "sup": 8727,
      "fruit": 8728,
      "##outing": 8729,
      "##usible": 8730,
      "unm": 8731,
      "plate": 8732,
      "leather": 8733,
      "output": 8734,
      "tran": 8735,
      "##eline": 8736,
      "locks": 8737,
      "##aste": 8738,
      "##astroph": 8739,
      "compart": 8740,
      "composed": 8741,
      "cob": 8742,
      "dign": 8743,
      "diverse": 8744,
      "disres": 8745,
      "adject": 8746,
      "intim": 8747,
      "quart": 8748,
      "users": 8749,
      "##issed": 8750,
      "##iger": 8751,
      "##ourse": 8752,
      "##agement": 8753,
      "argue": 8754,
      "pose": 8755,
      "scores": 8756,
      "scrap": 8757,
      "knife": 8758,
      "sacri": 8759,
      "fare": 8760,
      "faces": 8761,
      "newest": 8762,
      "acoust": 8763,
      "offic": 8764,
      "offensive": 8765,
      "##ensen": 8766,
      "makeup": 8767,
      "twent": 8768,
      "##aches": 8769,
      "desperate": 8770,
      "desperately": 8771,
      "spine": 8772,
      "spots": 8773,
      "groo": 8774,
      "##pectives": 8775,
      "thrash": 8776,
      "veget": 8777,
      "##irect": 8778,
      "##ords": 8779,
      "trail": 8780,
      "monu": 8781,
      "##apping": 8782,
      "reviewing": 8783,
      "deciding": 8784,
      "indis": 8785,
      "india": 8786,
      "believed": 8787,
      "flesh": 8788,
      "fluff": 8789,
      "funk": 8790,
      "transf": 8791,
      "mins": 8792,
      "classification": 8793,
      "discont": 8794,
      "accents": 8795,
      "cheated": 8796,
      "glued": 8797,
      "perspectives": 8798,
      "##ignant": 8799,
      "complet": 8800,
      "secondary": 8801,
      "communist": 8802,
      "edit": 8803,
      "retro": 8804,
      "##ateral": 8805,
      "laura": 8806,
      "lesser": 8807,
      "definitions": 8808,
      "expired": 8809,
      "earb": 8810,
      "wishing": 8811,
      "wished": 8812,
      "drain": 8813,
      "dracul": 8814,
      "assass": 8815,
      "assured": 8816,
      "releasing": 8817,
      "marker": 8818,
      "tops": 8819,
      "chris": 8820,
      "studied": 8821,
      "absence": 8822,
      "2004": 8823,
      "competent": 8824,
      "regarded": 8825,
      "caps": 8826,
      "openly": 8827,
      "marketing": 8828,
      "severe": 8829,
      "largest": 8830,
      "redgra": 8831,
      "mediter": 8832,
      "absolut": 8833,
      "thankfully": 8834,
      "entirety": 8835,
      "technologies": 8836,
      "regulate": 8837,
      "protest": 8838,
      "resulting": 8839,
      "##ruption": 8840,
      "species": 8841,
      "huxley": 8842,
      "buddy": 8843,
      "swift": 8844,
      "garage": 8845,
      "expressing": 8846,
      "essays": 8847,
      "mills": 8848,
      "miller": 8849,
      "learns": 8850,
      "caution": 8851,
      "##books": 8852,
      "modest": 8853,
      "misplaced": 8854,
      "devoid": 8855,
      "##heim": 8856,
      "##iciently": 8857,
      "periods": 8858,
      "ruling": 8859,
      "snug": 8860,
      "snapped": 8861,
      "cooperate": 8862,
      "contributing": 8863,
      "prediction": 8864,
      "posting": 8865,
      "wales": 8866,
      "builds": 8867,
      "riding": 8868,
      "compliment": 8869,
      "doubts": 8870,
      "##archy": 8871,
      "stocks": 8872,
      "suffers": 8873,
      "macondo": 8874,
      "focuses": 8875,
      "potter": 8876,
      "publishers": 8877,
      "circuit": 8878,
      "sensible": 8879,
      "sensual": 8880,
      "sweeping": 8881,
      "drops": 8882,
      "dropping": 8883,
      "renting": 8884,
      "rental": 8885,
      "80s": 8886,
      "hatebre": 8887,
      "trek": 8888,
      "collecting": 8889,
      "biased": 8890,
      "animated": 8891,
      "settings": 8892,
      "trading": 8893,
      "discovery": 8894,
      "dissappoint": 8895,
      "virus": 8896,
      "britain": 8897,
      "throws": 8898,
      "banks": 8899,
      "directorate": 8900,
      "pleasantly": 8901,
      "shares": 8902,
      "catastroph": 8903,
      "cartoons": 8904,
      "tender": 8905,
      "firmware": 8906,
      "privile": 8907,
      "climbing": 8908,
      "influenced": 8909,
      "theaters": 8910,
      "constitution": 8911,
      "noticeable": 8912,
      "reflects": 8913,
      "claimed": 8914,
      "duties": 8915,
      "golden": 8916,
      "crying": 8917,
      "junior": 8918,
      "robots": 8919,
      "portrays": 8920,
      "attacks": 8921,
      "maintained": 8922,
      "odds": 8923,
      "##nesday": 8924,
      "exercises": 8925,
      "fifteen": 8926,
      "desktop": 8927,
      "fooled": 8928,
      "hesitate": 8929,
      "jumped": 8930,
      "undertake": 8931,
      "switched": 8932,
      "concluded": 8933,
      "1970": 8934,
      "clarify": 8935,
      "pursue": 8936,
      "qualities": 8937,
      "fashioned": 8938,
      "frequent": 8939,
      "mothers": 8940,
      "vacu": 8941,
      "wednesday": 8942,
      "assemble": 8943,
      "partnerships": 8944,
      "compelled": 8945,
      "pollut": 8946,
      "assignment": 8947,
      "departments": 8948,
      "watson": 8949,
      "blockbuster": 8950,
      "await": 8951,
      "awaiting": 8952,
      "bolts": 8953,
      "nuts": 8954,
      "launched": 8955,
      "rigorous": 8956,
      "idiot": 8957,
      "automatically": 8958,
      "velvet": 8959,
      "depicts": 8960,
      "contradiction": 8961,
      "piper": 8962,
      "sophom": 8963,
      "protagonists": 8964,
      "disgusting": 8965,
      "stereot": 8966,
      "enhanced": 8967,
      "inevitable": 8968,
      "houses": 8969,
      "reconcil": 8970,
      "executed": 8971,
      "aliens": 8972,
      "borrowed": 8973,
      "dinner": 8974,
      "pilot": 8975,
      "conservative": 8976,
      "experimental": 8977,
      "gillian": 8978,
      "anxious": 8979,
      "delicate": 8980,
      "belgium": 8981,
      "decentralised": 8982,
      "corresponding": 8983,
      "surreal": 8984,
      "embarrassed": 8985,
      "##quisite": 8986,
      "welcomed": 8987,
      "declaration": 8988,
      "elder": 8989,
      "tubthumping": 8990,
      "router": 8991,
      "substitute": 8992,
      "fetched": 8993,
      "indulgent": 8994,
      "admittedly": 8995,
      "dissem": 8996,
      "restaurant": 8997,
      "cassette": 8998,
      "overseas": 8999,
      "restructuring": 9000,
      "jorg": 9001,
      "orleans": 9002,
      "compulsory": 9003,
      "disjointed": 9004,
      "misman": 9005,
      "uplifting": 9006,
      "reminis": 9007,
      "disrespect": 9008,
      "acoustic": 9009,
      "dracula": 9010,
      "redgrave": 9011,
      "hatebreed": 9012,
      "48": 9013,
      "55": 9014,
      "700": 9015,
      "8th": 9016,
      "awards": 9017,
      "bom": 9018,
      "cs": 9019,
      "ced": 9020,
      "cum": 9021,
      "dome": 9022,
      "dun": 9023,
      "dimin": 9024,
      "dangers": 9025,
      "eag": 9026,
      "egg": 9027,
      "fer": 9028,
      "furn": 9029,
      "font": 9030,
      "gn": 9031,
      "g3": 9032,
      "gol": 9033,
      "gamm": 9034,
      "gba": 9035,
      "jay": 9036,
      "jason": 9037,
      "ky": 9038,
      "kouch": 9039,
      "ling": 9040,
      "lust": 9041,
      "lag": 9042,
      "lbs": 9043,
      "ol": 9044,
      "pact": 9045,
      "pagan": 9046,
      "row": 9047,
      "tant": 9048,
      "wann": 9049,
      "xmas": 9050,
      "zr": 9051,
      "##oided": 9052,
      "##nt": 9053,
      "##don": 9054,
      "##ded": 9055,
      "##dance": 9056,
      "##cuss": 9057,
      "##sen": 9058,
      "##riel": 9059,
[...]
