[PAD]
[UNK]
[CLS]
[SEP]
[MASK]
!
"
#
$
%
&
'
(
)
*
+
,
-
.
/
0
1
2
3
4
5
6
7
8
9
:
;
<
=
>
?
@
[
\
]
^
_
`
a
b
c
d
e
f
g
h
i
j
k
l
m
n
o
p
q
r
s
t
u
v
w
x
y
z
{
|
}
~
¡
£
º
¾
ø
##a
##u
##l
##t
##o
##n
##d
##e
##c
##h
##s
##r
##p
##i
##v
##k
##w
##g
##y
##m
##b
##z
##f
##8
##0
##1
##6
##j
##3
##x
##7
##2
##5
##9
##q
##4
##ø
##¾
##º
th
the
##er
##in
##nd
##on
##at
##or
##es
##ou
##is
##en
to
##ing
##ed
and
##it
of
##re
in
##an
##ar
##ll
##as
it
##ic
##om
is
##ion
re
this
##le
##ve
##ot
##al
be
##ut
on
##st
##ent
wh
##oo
##ct
##ad
that
##ly
for
##ro
st
##se
##et
##ld
you
##id
##gh
##ow
##ay
##ch
##ook
ha
##ver
##ith
was
not
##ur
##ce
with
##am
##ter
an
we
as
com
book
##all
##ir
##ould
##pe
##im
##ie
are
but
have
##ke
##th
sh
li
pro
##ill
##ation
se
my
##ust
so
de
ch
con
##il
al
##ess
##ble
##ers
ne
ex
##ul
##ght
mo
##ri
##pp
##est
##ra
##ck
##em
wor
su
do
##ore
##ally
fr
he
at
all
one
or
##ort
##ge
##ol
read
pr
en
##ist
##ant
##ate
##ive
##ain
##ment
##out
##us
me
ab
if
##op
##ere
would
##ich
un
can
##ery
##ome
will
pl
like
am
##un
##um
##reat
ma
##vie
has
##ci
##art
which
##ies
by
##ity
there
very
##ood
they
##one
##os
##ard
from
comm
no
just
##ff
le
out
tim
about
tr
##ect
##ong
##act
##el
##ight
##ound
what
up
lo
more
any
##au
##ame
##and
##ough
##ap
##ast
good
who
##ure
##ven
great
##ind
get
comp
co
##her
di
##ack
dis
some
go
ever
im
##able
ad
int
movie
when
eu
##ous
qu
how
##itt
us
##iss
##ions
time
fe
##ice
man
bu
had
work
rec
only
ta
bec
##ig
oth
##our
ag
##int
your
euro
##ory
than
##so
cl
act
##pt
europe
##uct
##end
##ue
##pl
fir
##ish
inter
##ab
##ag
##ite
##ud
##ause
did
##nder
also
##ear
other
##vel
them
##oun
been
ar
her
first
wr
his
##ink
##ought
these
##ission
res
##iv
should
po
part
over
sc
##oy
char
cont
because
bet
##ine
commission
does
mu
don
kn
imp
##ans
even
te
well
really
##ide
##li
much
could
pe
##age
##ber
##per
too
##ence
pre
sa
pres
##ful
their
fa
##ult
every
af
she
year
##orm
were
look
prod
its
##hing
##ance
spe
think
##ary
need
##ade
##ose
buy
##ical
want
our
new
##ass
know
european
mr
after
##qu
story
per
into
reg
must
way
##gr
ac
##ated
##ase
##iz
##ick
off
see
say
##ens
make
##ict
##if
tw
##atch
##sel
##are
peop
now
##ach
##ious
par
##ry
##ak
##ition
##ations
people
##form
inc
app
under
most
##der
##te
##ep
play
str
##fore
des
ser
##ved
##cial
back
product
##og
inst
##ount
sp
then
thing
many
end
love
##wn
##ree
gr
gu
pol
again
##way
better
hi
br
fil
##urn
charact
ro
##pect
##ple
##omm
bl
use
thr
##ace
##az
diff
made
##gin
##ving
mus
##ces
rep
fin
##00
##od
##ull
##ommend
film
##ile
##other
##ise
##king
##ever
ve
##ident
recommend
##ip
##ang
##view
##uth
##own
ho
##kes
books
##ament
find
real
may
never
##ittle
ke
##ire
best
##we
##fe
two
##ves
high
still
watch
little
mem
cr
som
##cess
got
##ible
rem
cd
through
##ord
mar
##ced
##ased
##ond
##ting
19
somet
##ub
tra
conc
em
long
put
cons
music
mon
##tain
##self
interest
##ress
##ars
##app
alb
supp
found
sm
years
review
dec
reading
ind
##oint
##ates
eff
##oney
##ject
bel
being
pur
song
fl
##ors
money
##ative
auth
seem
##xt
bought
pos
however
##ating
president
##ments
##liament
sec
parliament
album
down
right
##ph
same
life
##ning
those
##blem
##joy
fact
problem
enjoy
amaz
day
sound
old
where
##oth
ter
##oc
point
bad
##ually
such
##ial
fun
##ual
##ents
take
progr
set
sim
didn
thought
##get
##rect
##ild
cle
##ons
eas
mat
ext
##ail
hard
far
dv
list
##thing
before
##me
trans
dvd
jo
feel
order
ob
hel
op
##ures
author
##ib
why
min
class
##ily
here
##arly
own
att
def
##ks
##ality
disc
lot
game
show
few
es
happ
start
##cy
while
something
last
import
add
##ft
union
give
sub
##ia
sin
world
acc
##ieve
##de
try
##cept
another
##fer
##les
bor
gen
differ
che
help
##iting
program
##ty
rel
bo
going
##ues
vers
worth
fo
##less
tri
##ics
##velop
count
sy
ec
##ider
gl
##ention
pers
##und
ph
purch
##ign
##pos
characters
develop
##day
##read
used
##appoint
##stand
comple
since
iss
ins
disappoint
without
##ward
##ives
let
##ute
##ility
car
##lud
inform
##icul
sl
wo
##ool
doesn
nothing
coll
##ave
ori
##itten
report
quality
##lic
##ian
##ac
second
makes
cour
commun
written
said
polic
ap
ed
effect
##ities
novel
support
anyone
##lish
concer
war
fav
direct
version
##als
##ution
##onom
wonder
big
believe
el
##llow
origin
##ather
ret
keep
sch
##ug
##fort
##ately
looking
##ween
him
between
##ason
important
states
different
prov
##ement
plot
econom
kind
##cil
though
both
##be
times
member
enough
art
understand
wa
leg
##ower
wom
hand
quest
##ably
amazon
ev
sing
inv
coun
##ater
##oup
##ote
hum
##cri
##ational
tal
##ked
##ism
expect
##iend
la
##ural
ple
come
aw
less
person
hor
ll
ide
sur
includ
##ways
##ange
bas
listen
vie
##ense
##iter
pub
##ee
##vern
##cks
view
vide
propos
conf
exam
things
small
##ings
##ath
##ised
sure
actually
##ted
defin
child
##led
##ne
word
##man
##ize
group
dem
particul
form
series
consider
det
##ead
interesting
able
cer
turn
##ost
##row
fam
easy
##ouse
exp
character
council
action
polit
cam
##not
exce
exper
month
songs
complete
##red
full
##ional
each
##ix
##ready
already
cover
##av
always
expl
##ety
##ically
##ages
poss
mov
##ters
##ection
##ited
waste
tell
policy
movies
information
once
av
##ently
stu
price
next
certain
ear
rece
appro
original
fan
199
pict
##icult
prin
around
call
therefore
return
ent
##ned
descri
excell
power
gener
num
ty
wish
##ency
item
within
friend
fut
yet
##ract
video
##ys
seen
pret
##air
##vious
##lect
quite
dra
ass
cur
requ
seems
today
##ken
bit
fund
three
social
cor
main
##alf
excellent
adv
resp
scen
whole
gra
rele
##augh
mark
reason
deb
cannot
having
place
level
follow
done
hist
##io
##cially
future
top
##wh
chr
away
bat
house
##uring
poor
##ness
star
dr
##ten
hope
rest
stud
lear
##ision
works
disappointed
sit
##iven
job
##most
stand
abs
special
course
##ock
wee
eng
contro
200
begin
sk
##ash
present
##pr
##ines
##ger
reviews
##its
boring
card
compet
cost
govern
miss
##ts
ref
##rible
##ories
##ark
difficult
committ
least
nice
pie
regard
creat
##ature
espe
development
10
bra
##pped
rather
favor
pretty
especially
mind
toget
exc
together
##res
##stem
light
anything
everything
cap
contin
##aut
intern
came
state
almost
treat
system
##ner
##aper
##par
alth
##olog
problems
lead
making
community
although
##ren
instead
might
term
##ither
sol
perf
case
hour
##ell
repl
##ime
prob
##uss
clear
mad
son
bro
cra
care
else
##hip
##utes
stars
##ided
writing
init
sci
short
extre
opin
open
##ience
tot
purchased
market
air
head
##uc
##ruct
##ries
##aster
beaut
sever
using
maybe
christ
true
lar
val
##ploy
political
happen
##gg
tech
highly
given
cond
question
red
issue
probably
won
tried
mean
night
run
##ied
amend
ur
sty
ago
perfect
deal
worst
amer
extreme
med
kid
##ists
loved
##ss
##lement
classic
col
port
americ
age
##vers
months
live
enter
record
hold
trying
receiv
inf
wonderful
possible
##bers
##ird
cult
##eng
comes
unt
control
cou
cent
half
cre
fre
##ny
opinion
aff
##ific
programme
public
env
committee
compan
absol
##irl
dep
getting
women
##ps
##ully
appe
minutes
family
several
youn
initi
##rib
dist
##osed
loc
school
isn
others
thank
number
pay
commissioner
against
definite
##que
couldn
economic
free
lack
##jor
areas
serious
##ody
inde
##ling
##itive
##ference
entire
girl
##ustr
plan
speak
absolute
line
pack
tit
received
fall
ok
went
beh
serv
##ury
quick
##ged
prom
scre
enjoyed
idea
until
opp
pri
sect
const
major
bre
met
size
wasn
someone
finan
human
detail
fine
##ror
##pping
super
##iction
itself
process
everyone
words
debate
style
adm
dri
##gan
definitely
area
hear
heard
gets
finally
techn
##rod
##astic
##ption
watching
##ired
comput
regul
example
pass
paper
##gy
princi
band
either
##land
##ply
##ier
##fic
##ences
stories
taken
text
matter
ann
prot
countries
curr
situ
aid
##mental
left
working
result
simply
past
##wor
pages
##son
##mm
wrong
days
bed
pop
##ru
subject
##fortun
home
##atic
##ew
takes
wanted
##ibility
country
et
##ination
##iron
est
equ
mention
##ames
took
batter
strong
ordered
camer
gave
##cc
##ross
##ized
##ots
##aps
extremely
environ
during
##over
speci
object
pick
stay
liked
fit
##ret
please
completely
##uly
myself
unfortun
effects
respons
history
government
favorite
ra
##elt
needed
box
##itch
##ott
##ether
cop
sense
##ember
acting
overall
##ov
common
##apter
perform
finish
dou
non
amazing
issues
invol
avail
based
pa
##ices
soci
regions
##mes
##ther
cut
discuss
##ake
##fully
competition
aud
##raph
absolutely
##ides
##empt
meas
buying
computer
employ
liter
children
hu
young
var
##iful
##mas
##bed
##iness
toy
##tern
##istic
respect
particular
project
chang
struct
law
piece
bar
fig
lang
mess
reform
move
heart
allow
reader
introd
implement
type
financial
page
yes
##ying
##utions
##ains
impro
experience
hop
##ital
suc
ens
needs
bus
bud
simple
single
sw
##oss
happy
five
##fact
##ump
goes
english
##gn
saw
hours
couple
available
four
##ane
##ustri
conn
members
unfortunately
national
pract
##oice
##bs
##ured
general
mom
sent
##port
##zz
##ential
democ
particularly
picture
camera
fast
sugg
entertain
suggest
felt
##ware
##itions
##ared
##imes
change
become
forward
looks
gar
prof
agre
resol
incre
account
20
imm
thinking
cheap
beautiful
rom
side
##ising
teach
started
express
friends
etc
ill
name
##itiz
sell
doing
fail
er
truly
##ensive
purchase
##line
##ability
##well
##aughter
replace
christmas
del
lost
imag
ess
##pend
mrs
large
##bo
##ont
remember
collection
sign
often
along
print
effort
kids
society
ach
citiz
sat
##lus
ste
clearly
pain
whether
necess
close
##ples
certainly
stra
taking
previous
instit
rock
track
funny
madam
situation
mill
sad
##ale
##lf
##come
comfort
except
guess
learn
langu
elect
gives
mor
##ances
wait
fur
##haps
##ats
##leep
##selves
woman
1999
break
##aw
##cu
ask
save
perhaps
198
##wards
slow
##erial
##ank
worked
obvious
ca
har
mot
mid
##book
sou
step
addition
check
scenes
vis
water
wear
sex
mod
parts
attention
local
mis
test
##cing
dev
wouldn
repres
gif
hon
##he
third
##ined
##used
adop
party
##ins
white
neg
agree
player
called
##where
austri
lim
##ets
shi
spend
surpr
proposal
boy
##lation
##alog
##ims
##ush
concern
company
occ
##ici
self
##peration
stuff
terms
ray
##ob
##iod
##isation
##edom
shall
tax
fire
##unch
yourself
terrible
##ream
god
shows
language
dark
##ric
moder
impress
playing
attempt
service
further
food
win
stat
longer
legis
battery
huge
fant
accept
american
initiative
later
##uck
means
arri
period
color
citizens
##br
soft
enl
fair
pat
##ton
##ove
##gu
##go
##ining
ending
material
install
role
glad
copy
bott
daughter
##lly
ones
comb
position
week
cool
dam
rul
##ablish
decided
phot
##ength
establish
ey
##ster
design
rights
low
##ron
##ench
justice
played
freedom
##ah
##ene
manu
crit
edition
amendments
business
modern
lab
stop
saf
ensure
##ler
##asing
soon
docu
unless
regional
programmes
title
ep
kill
master
sn
directive
correct
##work
says
sometimes
horrible
culture
quickly
jud
nor
##ban
concerned
pictures
principle
manufact
necessary
safety
gre
##gic
##ases
##eless
sounds
legal
15
coo
men
##ator
2000
screen
measures
##vent
##ources
##ograph
tracks
totally
budget
represent
##ming
##ouch
proper
##els
standard
indeed
##com
##mb
told
exist
exact
beginning
treaty
success
##anger
easily
brand
##ises
ans
organ
##ortun
##unk
##earch
colle
weeks
missing
opportun
sleep
##hn
##wise
sus
supposed
effective
release
fiction
ger
grow
id
##ium
dont
black
kept
sor
deli
##ilar
uni
research
favour
horror
incred
indust
contrib
including
prior
##atives
##ivid
john
questions
answ
##oid
##yc
##edi
pred
inte
##aged
##ude
##ogn
tv
##pri
##pose
##itting
##iving
guy
extra
total
institutions
fight
ener
##ained
post
artic
expected
urban
specific
vote
##na
##itor
dialog
guid
12
burn
wal
##reg
##right
feat
build
recogn
seemed
ideas
##ology
various
early
rid
##uce
##side
store
amount
compl
looked
bring
decision
accord
comfortable
towards
reach
##set
orwell
write
prec
transport
doub
##igh
desp
room
relations
continue
30
rad
##ging
conference
##using
##ume
face
funds
science
lad
oper
rapp
vol
##ibly
infl
rules
due
ele
laugh
##esome
plug
otherwise
presid
interested
cast
hol
##band
##nda
##ister
##ements
worse
##apt
strate
50
hot
mist
mix
##men
##urd
scary
spent
points
included
democr
cooperation
presidency
##arch
provide
employment
##pid
##arity
enc
fill
##ges
##bury
refer
sho
loves
touch
##erv
##oud
coming
chapter
throughout
stupid
agenda
involved
enlar
ris
##up
##dle
##by
##oura
sto
##amp
ant
##imin
concept
press
recommended
1984
cust
wind
##ones
##isions
proced
pla
cla
applic
annoy
popul
sorry
industry
hus
##dd
##ley
suff
dog
##antly
meet
listening
description
internal
projects
gift
arrived
husband
voice
##lo
##gement
bey
haven
weak
##ief
brad
invest
awesome
entertaining
##ape
##ms
##ows
among
lea
remind
##ledge
current
dance
jack
sand
##eur
note
send
##ants
intend
access
clean
importance
approach
affair
beyond
bab
none
##ration
##let
usually
offer
deser
instruct
useful
apart
value
create
message
resolution
danger
##uced
##for
lives
summ
mac
wrote
prepar
positive
court
draw
energy
bal
foc
##ral
##body
##alth
beat
conv
upon
key
event
scene
improve
despite
100
games
six
##tle
##bage
##ction
##eth
##ili
content
humor
typ
connect
deliver
integr
custom
##itar
aspect
peace
appre
watched
appropri
manufactur
giving
pot
ru
sort
##iced
##irth
##akes
basis
basic
##ney
garbage
german
guidel
mult
##por
##ien
##ication
##urity
libr
unit
thanks
known
##ension
##ife
##ified
spir
personal
publish
require
graph
honest
rapport
fans
##la
forget
stick
intell
##play
progress
talking
environment
paid
audio
document
rapporteur
##ior
french
films
emot
rural
actors
resources
blu
conclus
individ
similar
lots
proposals
guidelines
45
cir
ir
chall
heav
production
pleased
literature
illustr
soul
doubt
mer
##hes
wel
dead
##uction
##aging
histor
behind
appreci
cook
dan
##icip
haun
death
writer
charge
happened
voc
##ites
##vert
actual
blue
decent
figure
essential
satis
article
cause
je
nat
##asons
##oose
living
chance
frame
##oph
tale
tape
knowledge
instru
pieces
middle
bradbury
body
fle
pu
sens
##yr
##more
repe
##idence
themselves
##like
foot
fundament
mentioned
environmental
responsibility
plastic
leave
scar
address
kindle
structural
library
date
vi
##asc
deep
printer
shipping
ge
rich
##ners
##ening
##ires
hero
continu
international
features
##ta
##ians
rev
ship
##ried
recently
interreg
##ground
roll
turned
poorly
condition
replacement
achieve
obviously
exactly
lat
tas
##isod
tom
search
above
anyway
##ptions
saying
feeling
portug
agreement
episod
individual
40
swe
force
plus
security
capt
leader
dialogue
enlargement
bene
cars
dro
pull
rent
##use
##icial
mel
greater
adult
travel
insp
seriously
profess
fantastic
software
80
cross
dream
hy
hate
charger
wants
economy
events
equal
da
norm
ren
tre
##arant
anal
##ilt
becom
regarding
protection
spirit
gent
##hic
##sc
##bing
reference
##etic
max
collect
aware
groups
immedi
model
austria
bottom
fundamental
##inist
front
strength
cred
albums
slight
talk
meaning
objectives
performance
susp
bi
van
vot
sequ
brother
insight
proposed
avoid
skin
predict
annoying
##tra
ital
anim
##uses
contact
##aking
setting
authority
include
following
adopted
legislation
opportunity
##load
circ
hit
nature
vict
##ze
select
trad
truth
office
space
smo
discover
request
grand
ident
tour
##ring
##iny
##onst
comment
##ield
diss
advert
##ify
products
guys
consum
hands
hoping
concerns
answer
relationship
affairs
gentle
tight
wife
greatest
dig
ground
subst
policies
warm
results
catch
lay
oh
##bel
tool
##sequ
intergo
prevent
apple
guarant
road
reality
talent
##vernmental
million
intergovernmental
bill
mother
pet
##back
##ony
##ann
##arr
##enty
frustr
##umb
helpful
inside
basically
returned
required
solid
objective
moment
##ography
complain
risk
ign
late
rub
##vant
prose
recent
activ
seeing
final
waiting
25
dest
ps
vir
##inating
##ison
##lying
##ams
somewh
adapter
putting
boots
fully
00
fasc
pair
##orge
manag
knew
brit
matt
transform
transpar
disappointment
novels
released
##ruction
running
somewhat
luck
mil
##iant
##zy
##orn
alone
readers
ways
across
eyes
rating
tun
##cut
##ores
##ceed
weight
asked
unlike
contr
boot
trip
##iculous
study
creative
century
occas
ladies
fem
ii
jour
mine
ut
bear
##key
##pper
plain
prodi
##arely
purpose
phil
earth
central
majority
stopped
baby
jap
wall
##to
##bit
thin
ine
##oti
united
foundation
##ological
broke
values
metal
seller
negoti
graphics
heavy
bother
birth
king
pill
rate
ten
thor
town
##amm
background
vehic
monitor
decisions
authorities
border
provided
advent
scient
affect
administ
ri
tem
##old
##ray
##wood
##esh
##verage
##iev
held
unc
##ource
prefer
guide
brill
training
mont
##uese
carry
assist
dram
amendment
hur
net
sal
##light
throw
##ering
##itude
##lling
season
code
spo
ended
brought
expensive
advice
cultural
##ification
appears
sector
straight
according
dangerous
welcome
portuguese
ban
dim
fi
joy
tast
##head
inn
reasons
fell
firstly
happens
waist
awful
learned
responsible
implementation
surprised
appropriate
japan
11
tur
table
exch
moving
mag
trou
uses
knows
smell
flat
older
letter
director
demand
explain
excited
section
changed
practice
cin
ms
##oof
shame
share
myst
clos
imposs
remain
enjoyable
starts
america
finished
changes
increase
cable
ye
##rit
##iece
mach
outside
##apters
div
manson
crime
interests
details
benef
fra
lyr
mount
pump
##rated
##ators
##anced
##ript
##racy
##apoint
twice
memory
download
presented
package
gentlemen
thorough
000
aim
average
hp
hook
lines
rice
##eign
##cent
##onse
whate
shape
near
scan
disappointing
communication
created
depth
appear
harm
limited
ridiculous
democratic
encoura
whatever
push
##ax
##uel
##ik
##fr
comments
##ills
recyc
grant
indic
complex
educ
concert
pleas
personally
confusing
camp
costs
conditions
admit
##board
efforts
critic
procedure
impossible
dull
fix
junk
ul
##aced
##ees
##edy
##ston
##amed
shar
sold
##antic
whose
fear
script
news
region
parents
authors
genre
himself
explan
response
sony
connection
451
appreciate
viol
immediately
cat
pen
pal
pure
rap
sitting
ver
wood
##oon
##reh
##arily
haw
health
canon
strange
crimin
flo
obs
accur
demonst
companies
behalf
introduction
imagine
##icient
radio
published
historical
den
##ext
##yn
##mp
hell
##gel
##azz
emph
difference
warning
examples
perfectly
technical
romance
standards
14
aut
ber
und
##iet
##ina
##ese
##iding
doll
commit
##ously
##ips
soundtra
minute
stuck
students
independ
multi
bunch
cart
city
civ
los
link
tend
##cul
##ened
##verse
alot
altern
feet
actions
firm
aren
context
##seless
grade
glob
format
considered
described
currently
specif
conclusion
satisf
emphas
99
dur
fab
gone
hund
##gent
stated
shot
ready
built
##ague
particip
##lier
easier
learning
broad
delight
incredible
suspense
mattress
lyrics
hundred
joint
##omp
nearly
##ppy
trash
cohes
##itted
argu
incor
appar
plays
keeps
##ugg
refund
promot
priv
##heit
fairly
precise
prepared
puzz
13
field
lapt
wide
##ett
web
##ieved
liber
trade
contains
stress
reviewers
transfer
subs
considering
powerful
levels
services
regular
signific
intellig
framework
analys
fascinating
global
laptop
breat
jaw
land
##een
##just
##ionally
##rown
webs
choice
disaster
arr
speed
function
matters
extend
bored
surf
depress
protect
legisl
college
convin
british
cord
die
##ope
stock
##thor
shir
chapters
prim
unre
##umm
trust
clim
guitar
sets
expecting
turns
regulations
unique
strategy
haunting
transparency
soundtrack
cohesion
ball
cave
rh
tar
##ky
thus
forever
forced
stage
hair
ourselves
regret
brief
added
developed
deter
crap
medium
principles
picked
expressed
windows
leaves
focus
##ievable
civil
18
cases
mich
path
useless
pros
consequ
##aught
cold
feature
bug
tele
consist
minor
concerning
understanding
creating
capital
broken
crazy
recording
increasing
negative
statement
volume
influ
filled
website
led
##ding
##piece
theat
##lled
##ches
mostly
ends
facts
terri
attach
provides
telling
jobs
exciting
okay
constit
incredibly
places
potential
natural
flex
becomes
digital
management
du
jazz
sam
##ient
##isher
##iday
wasted
##iment
france
interp
##icks
musical
realize
##standing
covers
skip
##ucing
vehicles
loud
##acy
##ued
##dy
##rate
##rors
##iff
isra
forth
##cies
usual
became
appl
thrill
phone
earlier
receive
movement
teacher
austrian
impressed
customer
criminal
israel
bow
fits
jan
##how
##ych
##bone
##10
##ered
##ored
##ading
stri
notice
une
compreh
feed
##ization
apply
economics
smaller
politics
tells
descriptions
items
electron
morning
photos
properly
illustrations
task
slightly
female
brilliant
analysis
ahead
bay
bag
base
fish
father
##vision
##ana
forg
shock
likes
deg
##employ
plenty
leak
upd
safe
##odies
flaw
helps
reflect
internet
opened
initiatives
girls
discussion
motion
manufacturer
predictable
##rant
reci
comedy
ability
unemploy
likely
##ective
official
cru
feels
artist
covered
governments
brain
solution
drive
practical
democracy
elements
claim
##iliar
aspects
sweet
dut
eur
fol
hun
length
mass
pc
sust
##asy
##lear
##imov
depend
reads
compared
gold
faith
storyline
##izes
holly
helped
singing
confidence
relevant
planning
green
mistake
eventually
challeng
vocals
psych
##friend
##thorne
cal
cry
jun
loss
rand
wild
##erc
##order
##rew
asimov
##imum
##illy
sun
magic
writ
offers
starting
direction
adventure
trouble
mystery
hawthorne
16
ce
mc
##hren
##sh
##pes
##enn
online
noticed
cho
fran
##ively
unable
##agraph
partners
teen
paragraph
realistic
remote
emb
secondly
numbers
draft
student
appeal
double
anti
george
transformers
exchange
ble
nation
range
site
wow
##yl
##0s
##erely
compar
interview
herself
scr
charging
fahren
twist
rob
highlight
hardly
glass
edge
##utionary
includes
##ava
missed
portray
batteries
failed
summer
philos
negotiations
dry
hom
oil
opt
pra
ug
##ius
##ero
##owers
moves
unf
##pective
finding
higher
thoughts
translation
relig
##utional
elsewhere
structure
hollywood
fahrenheit
17
##aff
##gest
##ma
##ino
##orrow
##enge
##otic
##ads
notes
conven
congr
neither
##ulf
died
actor
##lied
concent
attack
informative
experts
maintain
replaced
detailed
regulation
masterpiece
intended
tomorrow
episode
normal
tradition
guarantee
ult
ig
jul
java
lol
ment
match
narr
vib
##ael
##co
##ert
##inary
island
separ
##ular
display
manner
##izing
realized
subm
brown
falls
motor
building
application
instrument
dissapoint
benefit
24
cro
cute
##mber
##atory
stre
sea
seat
uns
willing
magn
lose
anymore
goods
produce
spee
strugg
span
196
simpl
listed
relative
controls
romantic
wearing
shipped
damage
specifically
jawbone
arrang
target
philosoph
ultim
3d
dav
odd
rac
##nes
##cer
##rict
##ker
##ball
##onna
react
##ession
exerc
##cked
meant
club
##ished
score
fault
##sels
farm
obl
board
versions
##accept
listened
drawn
assess
distur
speaking
moments
errors
device
taste
accurate
ugly
bon
dub
fif
ip
kos
##hood
##rid
threat
reject
##uted
##irm
fresh
unaccept
mail
outstanding
impact
prem
players
desk
cris
email
expectations
drag
cards
opening
construction
meth
raised
boys
occur
balance
manufacturers
smooth
independent
legislative
unemployment
kosov
fright
loose
##itable
##leg
##iel
##theless
##olic
coord
tab
##bert
blood
reviewer
camc
possibly
returning
follows
##quez
entirely
packaging
hearing
steel
designed
##coming
meeting
jean
renew
##mpath
subsid
determ
era
james
sque
##ially
##ka
beats
fort
##char
weird
asking
shown
choose
##ilities
##ulate
##rap
quot
usb
agr
nevertheless
showing
syn
singer
reasonable
happening
lacking
delay
caused
adopt
eye
successful
instructions
requirements
professional
circum
floor
fool
hes
tess
tough
wire
##dam
##omas
shop
chem
chair
compr
image
fellow
contain
marquez
suppose
carried
videos
familiar
experien
approved
respond
creation
strongly
imagination
visual
rule
inspir
rubber
activities
destro
scientific
administration
montag
thoroughly
precisely
michael
sustain
unacceptable
method
agricult
barely
gh
gree
hill
jump
rab
##mark
##bour
##esy
##aded
foreign
##room
prime
male
somehow
undert
remo
decl
relation
symb
constantly
vari
switch
combat
contribution
honestly
challenge
advertised
complaint
pillow
assistance
congrat
igc
kosovo
cities
east
hang
mp
names
sil
sister
source
tap
tiny
vo
##lict
##here
##pet
##gate
##outh
##urs
lif
doct
amster
adjust
closed
arm
arch
charl
guest
smith
genius
sympath
generally
treaties
younger
promote
situations
implemented
yester
succeed
sexual
impression
existing
machine
fraud
harmon
intelligent
recipes
amsterdam
cand
eat
ears
g4
hits
lame
od
silly
ww
##dom
##round
##ingly
asso
button
shut
sudd
door
unbel
adapt
bucks
theme
parties
produced
desire
grad
conclud
emp
decide
related
phys
##acing
talks
consideration
funding
followed
battle
stargate
drug
exclus
beauty
beautif
media
screw
limit
installed
growing
fighting
reached
popular
population
typical
repeat
virt
japanese
crucial
writers
oblig
sudden
2nd
90
lin
mas
mouth
sized
sides
vill
##time
##ein
##ba
thomas
##erous
beware
wash
sher
propose
amb
##cious
disk
##agues
##ival
repet
197
puts
consult
flick
discr
accident
relate
artists
lesson
confused
conflict
##iveness
measure
literary
bottle
leaving
contacted
consumer
alternative
puzzle
camcorder
circumst
yesterday
associ
dar
element
fat
fing
fash
mart
nuc
ring
squ
##eper
##cr
##hs
##val
sturd
##chan
neigh
worry
unus
commer
anywhere
clich
seek
spot
##gins
gotten
musicians
belong
terror
dvds
minister
attract
relating
warrant
surv
surround
views
mainly
##while
markets
christian
techni
strand
fantasy
answers
pressure
##force
italy
innov
recycling
multiple
random
speech
david
ipod
cath
gam
ou
om
powers
ran
tired
wit
##vention
##any
plans
intention
workers
clar
##ager
perm
purs
classics
cheaper
perspective
developing
reports
schem
evil
former
requires
holds
titan
sections
technology
subjects
figured
furthermore
winston
labor
opportunities
priority
preca
deserves
integration
episodes
victims
cinem
rhy
interpret
forgot
nuclear
dick
jer
lu
mood
nations
option
ram
##lock
theory
whe
##ched
##erson
exe
##emy
frank
mechan
##ums
noise
compat
compare
coast
diane
qual
scope
contem
remove
factor
transl
esc
originally
2006
larger
entertainment
steps
established
representatives
placed
voted
italian
journey
durable
private
electronic
mp3
fashion
precautionary
ay
boo
core
eth
fed
mur
mir
rat
rated
##uff
##gle
##isters
tob
rein
##oop
storm
##idd
anth
##imm
shakes
##ille
dece
mode
##oles
uncom
outd
trick
themes
##ivity
strict
instance
criter
below
flash
flims
classes
lasted
confirm
turning
1998
1997
assum
skills
favorites
carefully
recorded
frequ
performances
involve
audience
introduced
attempts
sleeping
types
mountain
explanation
breath
shirley
comprehensive
symbol
beautifully
commercial
70
bul
cant
fulf
ire
moth
ton
tack
vamp
vhs
##eem
thick
##omb
whom
##ades
haider
##raid
heat
enth
##omend
hasn
recomend
sheets
specul
##quate
repair
remains
flow
secret
extent
purchasing
wondering
biggest
wishes
info
##ribly
bands
allowed
hopes
sadly
colleagues
investig
intellect
credit
birthday
affected
granted
fishing
charlie
circumstances
21
35
austr
bur
bound
lane
nic
sick
tree
##cd
##gar
##alistic
stret
stores
aside
shel
wore
sucks
intri
recover
ages
##ables
presents
afric
spin
rod
traged
explained
numerous
restrict
difficulties
nights
creep
falling
driver
passion
##ternal
delivery
scarlet
adults
solidarity
prosecut
turkey
commitment
incorpor
significant
spanish
flimsy
austral
60
cas
kar
lower
via
vac
vision
wed
##boy
##orable
##omin
reve
onto
##urally
asse
##imination
liability
##iling
expos
##rage
que
scared
knock
teeth
saving
afraid
applied
underst
cds
##orders
effici
programming
phr
inspect
##fortable
tales
famous
studio
regards
systems
distrib
paying
speakers
##thern
changing
barb
##box
additional
elev
holiday
sandler
daily
joyce
satisfied
ireland
a5
bes
eight
gri
iron
jones
mic
named
pin
pun
round
sight
ted
##lin
##ca
##ha
##fying
##aling
##stein
thats
##etary
wealth
sole
chann
complic
adam
manual
poet
scare
scale
saved
didnt
joke
cheesy
provo
presentation
medi
increased
painful
causes
businesses
label
mistakes
claims
sensitive
liberal
partnership
scratch
comprom
bible
bodies
merely
sen
san
west
##uge
##ox
##ga
##mos
##atically
toys
##ita
stone
compe
##ula
unin
disg
disag
somewhere
cloth
active
interact
wanting
gramm
police
##ube
emer
##acity
provision
handle
explains
lights
conduct
colors
##versity
superb
passed
figures
agreements
materials
documents
strategic
delivered
conclusions
closer
scanner
apparently
crisis
##charge
tobin
uncomfortable
cate
caught
dumb
gal
gun
hig
kin
rome
spl
sans
tear
wer
##hh
##ios
##ieving
lived
##iled
excess
##usi
willi
##inding
disci
managed
clan
##agon
poll
charter
everyday
host
finds
defend
showed
lessons
publ
assign
continues
dealing
depart
packed
discussions
literally
allows
immig
achieved
south
surprising
judicial
priorities
talented
journ
monitoring
yeah
depressing
degree
tabled
variety
unbelievable
discrimination
sturdy
murder
criteria
bure
hos
mal
nons
ride
sli
session
tone
wat
##bes
##oration
##anna
##aries
ash
##usion
upgr
dism
images
hadn
thinks
##ques
brus
brings
blues
block
flor
flav
pointed
genu
worthy
worthwhile
supporting
supported
directly
definately
stands
begins
excuse
craft
careful
urge
behav
oppos
drivers
noneth
agreed
teaching
selling
fails
moral
spending
status
photo
growth
shoes
concepts
repeated
tasks
tunes
criticism
participation
television
influence
lola
street
arrangements
philosophy
destroy
odys
sansa
nonetheless
1st
cens
cyc
gain
ju
operation
pad
ske
sources
tort
xp
##ey
##ris
##iest
##isations
##enz
##itary
##ctions
##sey
##cend
##irty
proceed
chose
##ulous
unne
actress
##inks
produc
##gry
##ogy
rocks
blo
monetary
smart
defective
tries
counter
topic
afford
currency
improved
namely
misle
effectively
improvement
##iliation
instruments
discovered
frustrating
ignor
observ
experienced
sustainable
shakespe
publisher
genuine
diction
jew
zero
##uable
##po
##wr
thous
##eral
toler
##itime
inch
began
belly
##entially
weap
##imp
##cket
##ems
worn
##gend
upset
diab
ade
intent
feb
contained
knowing
acad
acqu
##ifying
##oga
blow
##ocol
pointless
obtain
##ibilities
attitude
worthless
doesnt
providing
wake
possibility
powerbook
airbed
##rupt
##itches
discussed
##comend
critical
correctly
connected
##itarian
germany
dancing
haunted
##ophob
revol
latest
animal
substance
drama
hurt
dollars
arguments
traditional
warranty
catholic
ought
ayla
weren
bureau
thousand
fly
hat
hence
hated
ker
lord
pan
rise
rush
wes
wil
xen
##put
##iences
##gies
##gency
##50
thrown
##oned
##eness
##ller
reven
##ald
staff
##ilies
external
atmos
alloc
##unt
greatly
impl
reccomend
overd
team
robert
crash
maritime
defl
wonderfully
keeping
kinda
awa
grab
topics
hopefully
refuge
initial
lacks
##ruary
implementing
paint
acceptable
accordance
mixed
referred
##porary
satisfact
hyp
tourism
magaz
education
terrific
interviews
ultimately
wireless
removed
prosecutor
complicated
medioc
categ
higgins
brussels
shakespeare
february
auel
bass
borders
cu
ded
fal
rout
rarely
tor
ya
##lor
##bre
##onic
##lla
##ications
station
##cher
sept
myster
chart
##iler
##umps
legend
whatso
##appe
discharge
user
perman
nowhere
##aken
hole
clever
lets
letters
informed
laid
surely
families
creates
##resp
treatment
reduce
records
holding
prompt
sectors
equally
##zzzz
error
surprise
holmes
sufficient
jackson
integrated
##laf
cooking
captiv
catchy
contrary
utter
administr
folks
dissapointed
relatively
subsidi
rhyth
##idden
efficiency
provoking
bol
dated
soo
yoga
##ls
##ril
##ipped
##ena
##oted
beg
forest
forces
noted
##urch
angel
asleep
butt
alt
proud
meets
##cient
##itty
writes
charles
pregn
sale
spect
blah
recommendations
conciliation
flag
##phere
##phone
badly
math
ministers
attend
born
seconds
bigger
forms
describe
committed
nicely
leaders
dealt
textbook
discussing
failure
establishing
walk
walking
plugged
procedures
deserve
emotion
emotional
becoming
selection
dimens
hooked
pleasure
convinced
comparison
narrative
assessment
frightening
ghost
rabbit
congratulate
doctor
repetitive
titanic
tedious
hosp
dictionary
whatsoever
bank
bright
gonna
lam
lie
mcc
nut
rail
tus
tang
yor
##uces
##hen
##hist
##pol
##yle
##che
sem
seven
alive
##olf
##umes
log
##ander
disas
commissioners
blind
parliamentary
feelings
minimum
shower
subt
syri
provisions
friendly
mainst
advance
studies
england
beginner
humanity
reforms
killer
contribute
convention
naturally
inspired
military
network
magical
encourage
update
officials
duty
exercise
premise
intellectual
tragedy
discipl
misleading
xenophob
award
dress
lit
mi
mut
nir
pace
rare
sizes
tank
von
ven
yr
##ties
##eg
##ely
##con
##cra
##hab
##vi
##kers
toward
##itation
##ancy
stream
##ays
##tered
asyl
##ilation
##ulation
hey
proof
##istry
anybody
quiet
##ender
##ounced
arms
resource
charm
prep
twists
##cessary
remake
belie
secure
owned
helping
phen
launch
calling
describes
capacity
craw
redeem
runs
enterpr
recordings
center
speaker
stays
raise
suggested
signal
checked
visit
impressive
enlight
establishment
killed
budgetary
burning
lady
touching
investment
heroine
latter
dreams
activity
dramatic
sharp
unrealistic
pathetic
consequences
disturbing
sympathy
mechanism
weapons
atmosphere
mediocre
subsidiarity
tusc
mainstream
asylum
400
biz
cash
cake
dat
eri
ibook
olaf
rig
till
tib
tempt
zen
##lines
##now
##ras
##vana
threw
tow
##itate
##sters
##urt
##the
convers
##riage
##esting
ord
pratch
enorm
mand
##osi
##ards
##aud
quit
##place
overcome
##perate
everybody
twin
peoples
descent
lovely
keel
remark
supply
join
accomp
##lessly
legit
evidence
bask
advant
advanced
refres
career
construct
superior
cuts
introduce
closely
breaking
winter
accepted
idi
recognise
bringing
references
anticip
reminds
macally
voting
sequel
relationships
tune
divor
autom
cartoon
fabulous
forthcoming
praise
suddenly
december
intrigu
understood
micro
william
september
nirvana
22
bird
dad
flying
gore
gorge
gender
ko
mary
nar
ow
sg
sle
vel
wid
##ef
##cast
##vis
##gers
##zen
theater
##ania
##arre
##oos
##eter
##ette
##idge
##verty
chick
##rived
##istent
##ushing
##aph
compact
##herent
goal
intense
poverty
paran
incomp
repub
empt
monop
amazed
territ
accom
editing
elig
debut
drink
leading
crack
medic
depict
girlfriend
planet
driving
involving
hoped
sentences
previously
gifted
shallow
statements
organisations
universe
castle
amongst
drop
trem
sequences
consumers
substant
contrad
##bitious
dimension
globalisation
primarily
attached
flexible
besides
compromise
nonsense
western
administrative
hospital
disasters
phenom
tibet
pratchett
ast
gard
ice
pi
pap
ry
rough
russ
wise
wars
##uary
##ns
##han
##hold
##rd
##mer
##ford
##11
##inct
##isc
##anim
##arks
##icit
reli
##vey
##ented
stability
##idate
anch
##imate
myth
deeper
china
church
##ulated
moon
moved
unp
##unning
##cia
##ffs
outcome
tril
lover
lock
compos
recall
acted
contents
evening
##liosi
everywhere
aftern
##ache
serve
thru
highest
sounded
sinc
trib
insult
schol
legs
recei
curious
scenery
##arker
headset
courage
planned
##works
cutting
erotic
essentially
totalitarian
articles
##ighter
holes
encoun
##laim
normally
grounds
ignore
palest
rapid
emphasis
hundreds
incorrect
bugliosi
flexibility
january
coordination
renewable
fortun
greece
innovative
creepy
elevator
clothes
gorgeous
ack
burd
fate
gas
hint
hult
kick
les
options
rot
rain
rip
vast
vivid
wing
wanna
##ai
##uit
##under
##cat
##point
##gi
##gue
##12
##xic
##enry
##encies
tomb
##aser
##eta
##iders
##vereign
##aming
prop
prove
soph
sovereign
deleg
suck
supr
heater
plant
ambitious
nove
timeless
moreover
disappe
##ptive
overl
charges
##teen
files
blur
blade
blank
march
train
reviewed
efficient
believable
hardc
ordering
differences
evol
humans
confident
expert
socialists
corn
engine
engaging
competit
costume
solitude
condem
urgent
infr
techno
protagon
paced
fourth
teachers
electric
stephen
sexy
models
boyfriend
colorful
installation
representative
brando
radical
applicable
addressed
continued
ships
spiritual
commentary
tools
billion
frustrated
iii
inex
yellow
campa
violence
links
promoting
promotion
extended
##ummy
separate
bonus
neighbour
enthusi
disgust
unnecessary
false
##craft
tremend
acknow
hulten
3rd
bri
bread
der
faster
si
tub
vital
##inative
##oric
##rop
stere
anne
ancient
##thy
shap
prices
enh
unanim
nobody
whenever
manage
argent
shouldn
pocket
sake
eastern
extension
harder
transact
owners
directives
talked
horri
explos
eargel
calls
generation
corpor
##proof
difficulty
opinions
nightm
promised
opposed
equality
profound
cheaply
printing
steve
attempting
window
cleaning
documentary
irrit
danish
latin
analy
requested
lucky
inev
educational
fabric
applies
applause
religion
croc
wwi
finger
techniques
outdated
blocks
adequate
kerou
refugees
magazine
republic
accompl
afternoon
23
ara
fro
hous
hide
hidden
kitch
nos
oct
race
rang
tamp
tension
taught
vend
zeta
##lined
##iers
##kin
##bb
##isk
##iture
##itled
inches
isol
##aled
proph
exists
units
##umbs
load
lovers
dish
dispar
recon
sheet
##aker
hip
roots
reply
recommendation
memorable
emarker
industri
rightly
fox
fold
communities
viewing
formula
considerable
experiences
medical
americans
distort
distract
##world
ensuring
swing
sentence
elected
elections
slowly
combination
existence
colleague
democrats
risks
offered
balanced
sixth
customers
emotions
strengthen
victor
temper
newsp
apparent
safegu
magnific
voices
physical
witness
scheme
dickens
execut
symbolism
mothman
shelf
grammar
erika
accompan
trilogy
kerouac
26
dread
dyn
dirty
fisher
gib
mission
por
rack
rings
roles
vent
##ault
##uous
##ti
##oot
##iation
##ipp
##kward
##kins
##gs
##fting
##99
##inate
beach
##ros
stiff
hallow
lies
##uster
chest
chines
ali
priced
somebody
quant
fee
click
##ift
twenty
##iously
##tech
realism
##weight
gotta
##orship
##phones
extras
jokes
adds
subsequ
relax
editor
schro
importantly
##bell
evident
awkward
examination
approve
advis
regardless
replacing
wont
appeared
location
paperback
##ficial
annual
employees
laws
improving
budd
simpletech
accounts
signed
exceptional
pattern
damaged
burned
amounts
shoot
##ourable
instruction
footage
richard
searching
individuals
hype
preferred
explanations
denmark
bern
surface
prosper
glasses
religious
racism
reaction
agriculture
tapes
unusual
forgotten
wheel
frequently
australian
poetry
uninter
journal
censorship
diabet
thousands
captivating
enormous
eligible
tampere
chinese
bore
cow
cab
fu
file
gay
grown
hd
henry
jam
punch
rive
tall
wra
##aur
##tles
##bl
##birth
thumbs
##oring
##edter
ink
##ares
retain
##stal
haz
haik
ang
shared
##illes
##illing
##illed
seasons
socks
enforce
aband
##ops
compens
dispos
usa
europol
intervention
##abled
arth
charged
pepper
presence
facing
##aked
incident
spare
##apped
terribly
adding
addict
subtle
borrow
relates
insist
plots
artwork
viewer
expand
1996
descriptive
advise
##whel
2002
brave
capable
leads
solutions
valuable
halfway
constant
achieving
necessarily
motiv
waterproof
tests
represents
darkness
damn
north
##ographical
univers
recognition
operate
inflated
rented
occasions
delightful
functioning
consistent
constitutional
thriller
challenges
challenging
choices
optim
concentrate
submitted
agricultural
cinemat
interpretation
disagree
upgrade
flavor
revenge
rhythm
data
advantage
divorce
campaign
kitchen
industrial
schroedter
haiku
28
aims
binding
cgi
din
daugh
dying
ease
gy
hound
hilar
jab
osc
pil
pity
pound
tent
ves
##nic
##ds
##pir
##gl
##yote
##bon
##bor
##bles
##zer
##ener
##itage
inner
##asp
##ica
##icated
##alu
##idos
##chest
hamm
washing
##alling
proved
conce
##uls
hea
orchest
##aint
unw
unb
##ung
compon
compilation
diet
disp
workout
interf
##ounce
heritage
scand
faced
sheer
wayne
seeking
parent
underlying
string
spring
finest
memories
remix
married
conserv
factory
extensive
hardy
##mell
minim
ecological
cares
directed
directions
evalu
sings
definition
childbirth
##notes
experiment
approx
approval
assure
assume
exclud
heads
receiving
envis
titles
promise
metaph
computers
raw
audit
resolved
breaks
photography
suspect
extraord
recognize
reminded
drawing
cooker
continuing
tomcat
occasionally
smells
demonstrate
dollar
minority
june
chemical
empire
exclusion
sherlock
gammell
compatible
storms
channel
producers
york
bizarre
territory
burden
november
competitiveness
safeguard
halloween
300
brow
cage
dict
fli
fitting
gill
gang
july
ner
naz
patch
ros
sar
uk
uf
vice
##af
##aces
##tes
##dra
##ham
##hib
##ship
##rates
##pack
##iq
##ville
##bling
##40
thread
##erness
##inet
##oops
stab
anx
angry
dele
delic
cham
conver
alas
##emic
suitable
atl
pron
enable
loving
coyote
disapoint
buck
clarity
acts
fires
facil
everytime
blame
musiq
hoc
marked
marriage
tragic
decor
positions
listing
obst
classical
##iac
developments
turner
certainty
scenar
grace
cardboard
competitive
reducing
prize
raider
copies
finishing
printed
combined
damme
epic
snow
organisation
instructor
summit
focused
ruined
irre
dropped
credibility
animals
identify
kingdom
scientists
salt
sales
innoc
cincher
downloaded
pushed
cartrid
losing
briefly
janet
folk
embarr
blend
frankly
federal
fulfil
stretch
africa
assigned
dimensional
prepare
medicine
palestin
cornwell
infrast
dynam
cinematography
bt
bomb
c5
cup
fond
mild
nu
os
pian
sd
vul
##nock
##rick
##mo
##repr
ingr
stip
youth
##ura
withdra
##tering
##alled
sucked
enemy
meat
abuse
amate
diag
disney
queen
##ived
overview
contract
tea
applying
sport
realise
consol
belg
enjoying
obsc
kinds
proposing
confusion
defined
explore
explicit
socialist
corner
corresp
releases
studying
absurd
minds
excit
treated
##ologies
larry
distant
supervision
passing
equip
cameras
paul
employed
structures
movements
swed
suggestions
garcia
resolve
thirdly
adopting
taxation
fairy
grew
researched
featuring
balk
vocal
decentral
deeply
capture
dawn
peter
frustration
contrast
adventures
carrying
demands
fixed
loses
shocked
inspiring
guests
conclude
virtually
attractive
compelling
wilson
redeeming
empty
monopol
sovereignty
diabetes
daughters
hilarious
jabra
chamber
infrastruct
ingredi
correspond
32
75
gross
giant
lens
mt
nav
tay
tick
vs
witty
##ux
##overs
##cution
##inated
##atis
##enced
##itably
##rees
inade
##arm
##uting
##rol
hall
seam
chocol
##ested
dolly
friday
heck
##ista
abst
plat
##unction
##anda
cod
coal
diary
diversity
dishes
goals
bull
overwhel
##berg
shell
needless
spread
hiking
finance
crude
marks
decades
belief
parliaments
terry
courts
april
elimin
retail
handy
singers
invent
considerably
bits
controvers
reduction
schools
titled
barn
introducing
##umping
friendship
eric
remembered
millions
##icians
fireman
combating
labour
##ventions
represented
operators
laughs
laughing
touched
graphic
illustrated
roller
professor
miles
ripped
satisfying
argument
consequently
wilderness
juliet
struggle
fifth
squeem
hanging
cliche
surrounding
contemporary
anthony
strictly
involvement
vacation
assemb
kinnock
excessive
crafted
intentions
permanent
subtit
enterprises
remarkable
baskerv
phenomen
eargels
crocod
disparities
magnificent
uninteresting
heaven
taylor
36
bent
bang
cos
cel
crow
dust
eating
fict
jes
lis
lone
oce
ped
pitch
rit
rum
sir
##lon
##rants
##vab
##word
##mans
##zes
##fied
##xual
##inator
##ndon
##oul
tooth
##itan
##rete
##arian
##lle
##ada
stor
stable
stunning
##eto
wasting
anten
asvab
bookst
##kend
shr
proves
seg
dear
command
lew
lean
london
coff
quote
buff
##uds
##akers
backpack
instant
instantly
##angers
crimes
195
concrete
##arsh
##ointed
presidents
sounding
functions
mature
##ails
transition
owner
chew
edited
edges
supports
warned
economies
waited
horse
surre
examine
detect
earned
pictured
entitled
pretend
advoc
absor
weekend
governance
committees
creatures
madonna
valid
##gged
ports
packaged
fallen
responsibilities
messages
allowing
practically
roman
illeg
imagery
imaginative
essence
institutional
rocket
checking
visible
honourable
patten
judge
operating
strategies
sandisk
intends
irish
footnotes
pulled
melodies
treas
animation
identity
bearing
river
demonstrated
commitments
terrifying
sample
israeli
updated
convenience
mental
squee
drugs
escape
vampire
recovery
wedding
phrases
senior
tears
department
opposite
odyssey
torture
allocated
mysterious
utterly
buttons
spectac
refreshing
arab
vendor
oscar
hockey
embarrass
excitement
jesus
cf
cather
dent
gem
gig
hose
harsh
il
jon
murd
nom
nap
nine
native
rere
tie
vig
wick
##of
##night
##national
##down
##cision
##iance
##vin
##kn
##gb
##gence
##yst
##bc
##full
##20
thurs
##enary
##ingu
##asher
##icing
##oma
rend
render
##entic
##adow
##roll
##roph
stinks
##cho
##urance
weather
shots
shake
seams
cha
##rah
ati
prison
megan
##opian
cance
plenary
makers
lee
diam
gover
everest
##ousy
manages
##ours
cliff
##ishing
interm
##agger
##inki
resort
resist
contrived
knight
##quis
perpet
##iforn
spr
spite
grasp
brut
##ginal
##ode
##ondo
decade
enjoys
lists
hels
mini
discworld
lastly
glor
issued
collab
##acc
effectiveness
##athan
childhood
formal
politically
explo
2005
headphones
reduced
##pson
lacked
admir
passages
##lands
texts
beds
stronger
20th
citizen
millenn
exception
visiting
tested
devoted
firemen
gods
successfully
reaching
annoyed
sending
accession
accessible
summary
keyboard
welcom
scarpet
rolling
maximum
insights
selections
guarantees
transparent
occasion
vehicle
encouraging
pleasant
firmly
shirt
theato
bowie
unex
leaks
cele
convenient
simplistic
farmers
dragon
synth
declar
belongs
boost
ethnic
confirmed
speculative
romeo
slip
ashamed
behavi
destroyed
cycle
satisfaction
syria
xenophobia
substantial
tribute
##laimed
propag
newspaper
amateur
monopolies
chocolate
antenna
bookstore
murders
thursday
scarpetta
010
dh
domin
eidos
gut
gear
gels
ht
kate
lau
lap
mud
mouse
na
pit
pushing
witch
##aci
##aves
##uing
##oe
##die
##eit
##cis
##hel
##bted
##fl
##ern
##att
##orse
##orous
##eson
##rets
inj
infer
##ashing
##icate
beads
fore
##ghter
##allel
shred
proven
proport
sees
chips
alien
neeson
##emption
height
##oler
pray
unst
unif
amish
amusing
nov
outlet
logic
##inder
compress
adap
buend
preach
preser
fake
buyer
parad
##eping
spider
grate
reput
filmed
marvel
albeit
authentic
sett
transnational
joe
##ception
programs
bob
glue
glitches
persons
insert
editions
arts
handles
##cription
politicians
covering
1995
1994
describing
generated
generations
curtain
topical
battles
presenting
creativity
portable
distinct
located
plane
speaks
drivel
announced
countryside
unfortunate
performed
langen
introduct
resolutions
immense
largely
signs
southern
testing
spends
arrive
critics
killing
snap
organised
supposedly
favourite
intex
recognized
applications
blueto
heavily
historic
vocab
portugal
collector
virgin
bootleg
occasional
networks
codecision
wooden
theatre
interpre
psychological
californ
franken
paragraphs
nationals
islands
dubbed
occurred
chemistry
associated
mirror
african
juven
believes
intriguing
tremendous
approxim
extraordinary
equipment
ingredients
coalition
crocodile
coffee
helsinki
millennium
bluetooth
500
ale
aug
ba
bin
bir
eld
goo
jenn
kit
lou
lcd
pse
pear
pants
porn
sore
sons
vista
##lter
##lim
##top
##ole
##ober
##cle
##rs
##rich
##pin
##iable
##ipping
##gas
##ml
##bi
##zed
##fall
##ertain
##oral
toss
inse
##arthy
reward
##otes
bears
##chise
ham
##iments
liam
soap
deals
##estyle
##race
sugar
dozen
##arded
league
outer
trite
loaded
dise
quar
timely
##oured
clip
clips
resident
overly
scra
spell
regime
register
##ifer
paris
incest
desired
##ogether
spark
endless
broth
bless
monsters
##appro
whereas
hardware
helter
oprah
defence
glimp
##acles
sched
legally
handed
horiz
horribly
entry
bitter
standing
2001
urgency
styles
portion
freak
pays
index
breed
superficial
picks
amazingly
bush
causing
harry
gifts
photograph
northern
industries
contributions
postp
opera
suffer
suffering
deserved
appropriations
emotionally
merit
immediate
sequence
advertising
layout
complaints
spoke
spoken
exchang
explaining
appearance
obser
emphasise
intelligence
convincing
climate
bugs
thrilled
baseball
degrees
flaws
massive
teenager
julia
ultimate
rejected
determine
quotes
inspiration
methods
greek
silver
candidate
washed
consultation
fingers
technique
contempl
tackle
vampires
speculation
##boys
inspection
interaction
immigrants
skelter
academy
promptly
altogether
mccarthy
venus
ordinary
contradict
garden
reliable
tubth
argento
transactions
october
vessels
scenario
piano
subtitles
storage
catherine
##known
uniform
grateful
frankenstein
jennifer
glimpse
07
800
98
95
ax
bust
bars
bib
dud
eli
fest
gained
hitch
iv
las
lunch
nud
nathan
pci
pink
punk
rou
sf
vague
wog
wider
##oqu
##cre
##house
##ses
##pay
##gra
##yp
##yy
##za
##zing
##jud
theories
##onn
##ati
##orter
##rey
input
##ione
##vet
##othing
##ales
##roc
##ids
##urate
asia
butter
##kel
##think
sha
chic
chip
neck
exha
##ulary
mond
sum
readable
##anta
##ante
##anted
thereby
nobel
justified
goodness
whoever
##aga
##agan
reserv
scott
tec
preview
storyte
##grass
incom
underm
underne
underground
guard
filter
finn
filmm
maria
194
conscious
purpos
flu
seemingly
gameplay
lasting
sym
letting
slot
communism
understandable
surg
viewers
definitive
cert
printers
returns
entrepr
generic
pretent
restore
competence
continent
solve
solved
severely
amended
##engen
couples
initially
stayed
barri
hopkins
profit
expression
exceptionally
limits
occup
taxpay
freedoms
judges
manufacturing
##priate
guidance
recognised
volumes
laughable
applicant
dogs
weakness
preparing
humorous
environmentally
bluegrass
jeff
revision
identical
substit
destruction
transformer
uncertain
hurry
remaining
aimed
independence
tends
suspenseful
significance
protecting
convince
climax
increasingly
feeding
electronics
franchise
appealing
narrator
scoreboard
visuals
##bourg
obligation
survive
schemes
jerry
wheels
qualified
translated
investigation
gripping
emergency
hostel
immigration
surprisingly
behavior
observations
jewish
soooo
pregnancy
crawford
tuscany
papers
sincerely
overlook
victorian
feehan
prosperity
abandoned
arthur
minimal
barnier
spectacular
propaganda
california
juvenile
wogau
exhaust
underneath
purposes
27
29
4th
81
ain
ben
bath
bench
dts
fet
gil
gab
jim
jumps
luc
pam
ppe
pile
pony
rose
ruth
sink
vint
wis
wave
wides
##lers
##list
##table
##ek
##case
##hile
##rical
##rating
##va
##gen
##bur
##bby
therap
##inc
##inal
##edly
##itative
inacc
##anks
revel
bend
##stit
whil
##ctional
##advant
stac
##seus
##sets
##owing
notch
weigh
shorter
dean
chos
expend
##ulates
##ulating
##rix
##raint
worried
oral
##ola
meg
una
unh
unknown
timber
troma
loy
##apes
manip
europeans
##ago
##earing
arc
wrest
partner
donors
teens
inclus
bland
blown
repr
remarks
marine
trave
trains
emma
consens
monster
##appy
indul
indian
checks
persu
phase
completed
inser
slick
schengen
artistic
awhile
formed
detract
detective
futur
relev
reasonably
batman
drum
beginners
refers
lightweight
crappy
holder
publication
wasnt
financed
admitted
picking
societ
barg
entertained
prints
guessing
patience
patric
##going
brands
organized
delivers
inflate
casting
shoe
pressed
suffered
desert
appreciated
heroes
melod
trend
slightest
##onstruction
warmer
affects
benefits
frag
hooks
palaci
puzzles
breathing
primary
crystal
choppy
embar
highlights
portrayed
portrayal
seattle
racist
determination
hester
declared
sheri
square
unusable
permit
##immy
australia
casual
distribution
distributed
barbie
channels
guns
split
waters
odysseus
ignorant
##writer
implications
hypoc
category
routine
begun
mutual
mechanisms
temptation
delegation
hardcore
protagonist
explosions
nightmare
accomplish
subsequent
advisers
enforcement
components
excluded
disapointed
cartridge
withdraw
obscure
balkans
overwhelming
fictional
lewis
governing
vocabulary
pearl
brothers
pretentious
vintage
whilst
palacio
65
85
ath
bd
bun
bond
cy
cell
celt
dor
eager
fpo
hers
jur
jimmy
rates
tons
torn
tips
wic
xbox
ze
##aa
##aver
##litt
##oly
##off
##nel
##eed
##cs
##commend
##cracy
##rane
##pher
##ients
##ique
##ki
##war
##med
##mble
##fi
##15
ther
##oubted
todd
##eds
##rend
inhab
##anes
##aring
reb
reun
##uten
##str
stink
stations
##terbury
ank
aspir
##irt
chase
choos
conj
convey
alten
neat
neph
exit
##ckhe
suited
sums
##istics
##opia
canterbury
map
hass
justify
outl
outs
whats
ups
##astically
disse
disadvant
intr
##issions
manif
buzz
reconstruction
herb
resum
overrated
scot
preced
prehist
prejud
##osexual
buyers
ours
newly
##izations
struck
ende
endorse
grat
grass
bookshel
mars
sometime
trailer
concise
considers
puritan
flight
factors
enjoyment
setup
opens
esp
complement
warn
##beat
forming
typos
restaur
controlled
refused
shortly
headed
isnt
respects
busy
practices
essay
strap
devices
surprises
attempted
winning
patrick
combine
modernisation
judgement
budgets
hotel
preparation
drawings
beatles
peaceful
deadline
appreciation
instrumental
sweat
pulling
traveling
meaningful
preventing
guaranteed
billy
rubb
earthqu
##ammed
unclear
machines
recycled
catalog
penal
purely
undoubted
participate
delighted
landsc
minorities
dutch
depends
depending
sung
ceiling
concentration
vibe
displayed
lifet
lifestyle
adaptation
exclusively
screws
liner
mask
martin
assumed
nickel
incorporate
incorporated
casset
solely
pollution
dismant
florenz
bureaucr
bureaucracy
dedicated
##zzzzzzzz
forestry
pregnant
logical
enlightening
koch
narrow
anchov
condemn
irritating
inevitably
temperature
hazlitt
metaphors
innocent
palestinian
infrastructure
inadequate
rollerball
baskervilles
crowd
dentist
jonckhe
reread
buendia
insec
nudity
entreprene
stacie
chosen
consensus
patricia
celtic
altener
nephew
undoubtedly
jonckheer
03
42
64
bil
cents
cott
dom
dummy
ell
epson
ft
fats
hal
ive
icon
jams
ken
kay
lp
lid
lyn
lousy
mere
ninet
rust
rave
rash
sed
sought
tile
tip
viny
wet
wolf
##ule
##lam
##taking
##dp
##ram
##pa
##pensive
##vation
##kind
##mother
##bble
##buster
##zil
##zab
##erie
##atical
##inge
##itars
inappro
##arma
##asion
##icable
rew
stro
stew
##sell
hack
ane
asks
comed
##kell
lift
seld
sevent
depl
chilling
alright
##ulter
mold
alle
##istan
noises
timet
anyways
##andering
comply
cock
coherent
dislike
disabled
intro
recieved
##igning
interventions
##agers
ark
popped
overse
prevention
sav
fac
newer
perip
##ensible
income
appoint
serves
guitars
root
memor
193
1950
smes
decides
belt
##oca
functional
transm
joan
discs
discount
bold
foam
glitch
slo
collar
directing
originals
evo
humour
personality
ideal
ideology
##neg
characterization
excel
exploration
avid
##raction
dragged
debated
debating
chronic
restruct
controller
skipped
brazil
mindless
solo
perfection
extrem
aired
freud
screaming
financing
driven
princip
protocol
bedroom
involves
lawy
introduces
##zzy
suggests
profile
illum
institution
exceptions
foods
winner
masterful
menu
contributed
laughed
referring
touches
enlarged
investments
offering
repeating
geographical
pulls
victim
selected
advertis
luckily
util
inequ
bothered
towns
temp
monti
assistants
tastes
closing
encouraged
indicate
camping
penny
demonstrates
widely
extending
consistently
samples
stripped
twisted
determined
chairman
undertaken
succeeded
adaptor
empath
cliches
survival
innovation
lux
assuming
breathtaking
restricted
exposed
punish
repeatedly
overdone
deflate
satisfactory
cups
charts
leadership
tango
semi
tuscan
mainstreaming
mandate
legitimate
slept
paranoid
receiver
receipt
inexpensive
acknowled
enhance
horrifying
housing
patterns
evaluation
stabil
deleted
mtv
navig
celebr
behaviour
august
birthing
nathaniel
expenditure
loyal
reprint
futuristic
relevance
juris
hassle
manifest
prehistoric
endeav
lifetime
stewart
bog
cad
cous
cats
dre
dal
dill
fw
fuel
gather
gems
ira
jor
jose
jane
kurt
lj
lor
nich
rus
rational
sizing
tact
vin
voy
wol
yard
yell
zone
##uate
##tical
##ok
##oom
##oons
##non
##daughter
##ex
##hol
##riment
##pass
##bian
##fin
thro
theres
##esis
anderson
##ari
reiter
reverse
whale
##adel
stitch
notification
ange
comic
shia
shaking
lighter
cher
chuck
alter
##rior
##esty
##estic
orle
mexic
commend
outline
timer
##active
locked
##asts
compuls
disj
quir
reccommend
tag
##placed
resem
overnight
charming
donati
impose
##perately
producing
percent
##izer
param
incon
blond
##aze
keen
cruel
gothic
remaster
supplement
founding
decis
flows
secrets
thoughtful
define
discovers
fewer
lasts
worlds
gloss
gluten
insom
insuff
carl
reported
courses
apolog
apache
elvis
##ugged
understands
basics
viewpoint
proposes
##mann
considerations
detriment
expense
possibilities
fancy
poorest
starring
sites
engaged
openness
headphone
lara
redund
crew
cream
locations
regularly
equival
performing
pale
teaches
failing
steam
painted
motions
miser
devast
honour
##heart
acceptance
lowest
stops
sooner
greens
screenplay
representation
suspend
university
120
operational
holoca
democrat
procedural
##forced
connector
connecting
ruin
publishing
requirement
progressive
mergers
deaths
searched
captures
captured
drown
melody
collective
collections
meaningless
bikes
biography
votes
circle
smoke
##umbled
ignored
monitored
##olds
uncle
spoil
sharing
violent
verb
linked
depression
guitarist
prospect
uneven
bags
hungry
homer
homosexual
unfair
dissapointing
struggles
1963
targeted
bloody
adoption
removing
candy
www
obliged
obligations
villain
ambition
accidents
elementary
worrying
cinema
rambling
outdo
revealed
phrase
disagre
##enzel
flyboys
rushed
categories
discipline
birds
drinking
russian
acknowledge
distracting
gibson
bernstein
platform
controversial
illegal
treasure
collaboration
dharma
inferior
reputation
interpreted
approximately
disease
finnish
wisdom
unhappy
bargain
scotland
vinyl
inappropriate
anecd
holocaust
33
37
39
46
5th
96
94
boss
bbc
cere
cena
dum
dare
dual
dump
dumm
dyst
eve
ego
echo
fence
gel
gap
goof
gdp
hut
hull
kh
lic
mb
mism
nether
pour
pix
rp
rog
sid
tro
vitor
wine
wrap
##ea
##eve
##ecess
##can
##cue
##rr
##rot
##ront
##win
##gger
##bod
##fy
##xy
##iner
##inth
##inations
##oust
##itz
##itly
##itant
##arn
##areness
##asa
##asm
reass
##lem
##lein
##alous
##alities
##utor
ongoing
##ado
##ader
forum
ster
stal
stance
analog
##imming
shore
shif
shines
shadow
lip
lili
proc
##illa
##ationally
sof
dell
defe
deploy
chore
chain
champ
##iles
##essions
##ulations
mob
##estors
suit
doc
doors
fraser
alliance
orange
ench
enrich
##usive
meps
abba
##opher
##erend
unim
unfor
pled
plants
likeable
##unes
tray
##elic
upli
uphold
##apse
compass
coinc
dipl
intens
intoler
qua
usable
feas
fears
bubble
agencies
clue
clothing
##ending
##abling
##itely
##udos
reser
rescue
partly
overs
scoot
prev
pref
##ormal
regener
parallel
incent
incons
desir
served
serving
bridge
kelly
remin
marg
marginal
traff
consists
monot
founded
belive
beings
##xture
poses
factual
##ocal
cleans
transcend
happily
happier
happiness
accent
boat
trials
trips
glowing
develops
##readable
insurance
caring
cared
carter
orient
##acle
warming
warrior
handling
singles
inval
lake
awareness
viewed
confront
##athers
demo
formation
exped
coverage
1993
generate
generous
2003
##ashed
costa
refuse
minded
lighting
solving
##gging
centres
companion
distance
promising
oppress
processes
admire
technological
aids
resulted
##mmmm
estim
raises
structured
suggestion
agrees
2011
satire
stepped
languages
##cuit
harris
misunder
honor
installing
installment
bottles
designs
predecess
posted
walks
ridd
##ighters
shopping
sandra
approaches
babies
typically
documentation
addresses
interregional
strengthened
traditions
grandson
granddaughter
identified
roads
ratings
unlikely
walls
temporary
throwing
turk
troubles
harmful
granting
indicated
indicates
accuracy
hello
autob
alternate
stressed
##ummer
consequence
constitute
duh
bowls
feedback
shocking
reflection
hunting
jungle
mckell
francis
teenagers
mentions
vibr
submit
emailed
delays
experiencing
village
association
ranks
bulbs
enthr
rods
knocked
ironic
##hhhh
skept
proceedings
producer
genuinely
tolerance
acquis
revolution
textbooks
xenophobic
rigid
tower
legitim
russia
rapidly
fortunately
confidential
expertise
stereo
corporate
prophe
accompanied
wrapped
unbear
interface
envisaged
auditors
brows
ufo
obstacles
dynamic
btw
sweden
assembly
lisbon
lonely
oceania
ritter
squeeze
introductory
elizab
chicago
uncertainty
inclusion
travelling
rubbish
bureaucratic
anchovy
timetable
insomn
equivalent
dummies
netherlands
vitorino
elizabeth
31
34
bum
bare
bree
bump
bums
cush
dies
dave
drew
egy
fame
fighter
gi
gim
gee
goss
golf
hog
hates
jar
jet
jac
kore
kicks
lion
laz
lac
lange
loop
mes
mun
mig
nt
nick
nik
ov
owe
pic
pul
pool
pione
rib
rising
sab
soup
sided
saga
tied
ugh
wond
zomb
##lies
##oll
##oir
##nat
##cro
##cers
##hy
##rad
##rum
##rough
##ped
##pot
##wear
##gant
##mart
##bro
##fit
##father
##field
##xley
thou
thier
##oning
##atable
##ara
##oms
bell
bebel
##entine
fores
stim
stake
stamp
##ete
yout
##idation
##chy
##child
##urg
asian
##iring
sham
shift
lil
liable
prohib
sew
degr
decept
chand
alph
alert
alarm
neo
exu
exagger
exemption
mos
sup
fruit
##outing
##usible
unm
plate
leather
output
tran
##eline
locks
##aste
##astroph
compart
composed
cob
dign
diverse
disres
adject
intim
quart
users
##issed
##iger
##ourse
##agement
argue
pose
scores
scrap
knife
sacri
fare
faces
newest
acoust
offic
offensive
##ensen
makeup
twent
##aches
desperate
desperately
spine
spots
groo
##pectives
thrash
veget
##irect
##ords
trail
monu
##apping
reviewing
deciding
indis
india
believed
flesh
fluff
funk
transf
mins
classification
discont
accents
cheated
glued
perspectives
##ignant
complet
secondary
communist
edit
retro
##ateral
laura
lesser
definitions
expired
earb
wishing
wished
drain
dracul
assass
assured
releasing
marker
tops
chris
studied
absence
2004
competent
regarded
caps
openly
marketing
severe
largest
redgra
mediter
absolut
thankfully
entirety
technologies
regulate
protest
resulting
##ruption
species
huxley
buddy
swift
garage
expressing
essays
mills
miller
learns
caution
##books
modest
misplaced
devoid
##heim
##iciently
periods
ruling
snug
snapped
cooperate
contributing
prediction
posting
wales
builds
riding
compliment
doubts
##archy
stocks
suffers
macondo
focuses
potter
publishers
circuit
sensible
sensual
sweeping
drops
dropping
renting
rental
80s
hatebre
trek
collecting
biased
animated
settings
trading
discovery
dissappoint
virus
britain
throws
banks
directorate
pleasantly
shares
catastroph
cartoons
tender
firmware
privile
climbing
influenced
theaters
constitution
noticeable
reflects
claimed
duties
golden
crying
junior
robots
portrays
attacks
maintained
odds
##nesday
exercises
fifteen
desktop
fooled
hesitate
jumped
undertake
switched
concluded
1970
clarify
pursue
qualities
fashioned
frequent
mothers
vacu
wednesday
assemble
partnerships
compelled
pollut
assignment
departments
watson
blockbuster
await
awaiting
bolts
nuts
launched
rigorous
idiot
automatically
velvet
depicts
contradiction
piper
sophom
protagonists
disgusting
stereot
enhanced
inevitable
houses
reconcil
executed
aliens
borrowed
dinner
pilot
conservative
experimental
gillian
anxious
delicate
belgium
decentralised
corresponding
surreal
embarrassed
##quisite
welcomed
declaration
elder
tubthumping
router
substitute
fetched
indulgent
admittedly
dissem
restaurant
cassette
overseas
restructuring
jorg
orleans
compulsory
disjointed
misman
uplifting
reminis
disrespect
acoustic
dracula
redgrave
hatebreed
48
55
700
8th
awards
bom
cs
ced
cum
dome
dun
dimin
dangers
eag
egg
fer
furn
font
gn
g3
gol
gamm
gba
jay
jason
ky
kouch
ling
lust
lag
lbs
ol
pact
pagan
row
tant
wann
xmas
zr
##oided
##nt
##don
##ded
##dance
##cuss
##sen
##riel
##ias
##ige
##iantly
##mith
##fight
##fast
##jah
thir
thirty
thes
##inent
##inued
##atly
##enheit
toef
toxic
##itney
##rel
##ano
itunes
##icide
##omy
##levant
##stone
##ente
whist
whitney
forb
forcing
stating
##ida
##ching
anton
angle
wears
combo
shod
liking
deaf
chat
chor
chills
exempt
moore
##riere
dol
fred
##orted
##anting
unint
unrated
unreadable
likewise
##oodoo
noir
lect
outrage
loads
cole
coher
adapters
recons
agency
clin
clint
clock
##pless
firms
##udo
wrench
resign
poem
popping
poems
overpr
muse
produces
needing
perse
acce
offend
offices
##ensions
##ifies
park
##akis
inco
inclined
stranger
spar
bran
##pected
##ommod
blows
##iley
holl
holy
findings
keeper
remit
##cedes
musician
##taining
flicks
##phia
##othy
pointing
funky
simon
extract
farenheit
defect
esque
accommod
borne
gene
relief
foster
trial
counting
synd
carib
slide
collapse
differently
##cript
talents
survey
definet
expans
cambod
exceed
avoided
entail
corners
drill
drums
engross
competences
costly
costumes
governmental
101
captain
continually
##ologist
##ologically
scifi
airport
##uccess
colon
infring
cultures
##engu
depri
distingu
freezes
scream
brend
texture
esteem
raising
2010
alongside
steal
painting
straps
comfortably
1980
cape
midi
wouldnt
##ushed
taxes
periodic
damaging
kills
judg
grey
germans
favoured
fights
burns
walked
compliments
democratically
stopping
weaken
investing
##forward
draws
focusing
1000
integral
customs
sorts
honesty
sticks
sticky
soulm
daniel
fleet
continuously
profession
collectors
credits
bike
grandchild
tighten
layers
tripod
utmost
philadel
riffs
hurts
divided
indicator
campbell
pencil
woods
berlin
broadcast
significantly
surfing
challenged
remotely
scrut
robb
julie
motorcy
motorola
unsuccess
philosophical
disturbed
subsidies
quota
army
harmonisation
grader
limitations
conflicts
martial
neighbor
terrorist
pursu
reinst
holidays
scratches
sanctions
criticisms
##cending
academic
deflated
cuz
##respons
sooo
flags
disciplinary
mike
mixture
tempted
constructed
constructive
anticipated
intrigued
chicken
incompet
incompreh
astrol
anchor
mythology
unpre
scholarly
totalitarianism
encountered
hints
lesbian
disappear
evolution
sixt
unanimously
swinging
accompanying
fisheries
##9999
angles
addicted
universal
gym
irrelevant
sports
phenomenon
vigil
paradox
immensely
google
quarter
horizont
monday
surgery
societies
##ranean
russell
decisive
anecdotes
diplom
inconsistent
invaluable
gossip
lackey
##natural
chandler
mediterranean
vacuum
elderly
mismanagement
kouchner
wannab
toefl
reconsider
cambodia
philadelphia
6th
9th
ai
aston
ahab
cen
cub
dating
dense
eb
fx
fis
fuss
gall
gos
gary
jensen
lind
nord
oem
pas
pow
pads
ral
roth
sv
sour
sams
saint
santa
tout
tube
vit
vall
wre
wound
wack
wires
xtra
##aire
##acies
##ua
##uu
##uv
##och
##city
##cles
##cave
##ho
##hr
##hard
##rent
##rest
##viet
##kay
##wire
##gom
tho
theor
##inn
##inity
##instit
##oner
##ato
##orate
##isy
##itating
##itzer
inso
inqu
##anth
##anity
##ancing
reh
rely
rebo
rethink
beef
##uts
##stick
##enth
##oooo
##lyss
ford
##roid
stenzel
##etical
##ama
ante
anger
##pel
shed
shaker
socially
soviet
chau
chains
chunk
chicks
conve
conform
##ilty
##ilted
alco
##essive
neander
exotic
moby
##emon
##emies
sue
frances
##olas
prest
prere
pride
enabling
enemies
##ussel
abol
abilities
##opard
unra
unions
cancer
canada
plates
placing
##unte
maker
nose
lev
leaking
timing
truck
tricks
##asty
cope
##heral
imo
adher
adulter
usage
##issy
mankind
tail
##ourriere
cloud
##uctive
interim
interference
interinstit
##udes
##udge
##ndering
thematic
arise
poster
poignant
chargers
betray
mund
peel
##berish
afterwards
offences
##ensed
twins
##aret
para
underrated
backing
backed
##ogue
spook
spain
endure
grim
grinding
guilt
##pleas
##plete
reprod
realised
realizes
19th
traum
trapped
decourriere
indication
simil
owning
discoura
addiction
acclaimed
relatives
glory
persistent
slap
slower
woke
##avell
apocal
eddie
originality
retire
schussel
artific
awake
listenable
config
examined
examining
smallest
##aval
explored
earn
fanatic
1990
powered
drafting
curse
corny
corruption
grain
debates
chron
batcave
absent
begining
skill
refuses
madame
truely
valentine
##ggy
condes
portra
entered
inflation
deprived
promises
screens
constraint
superst
technically
##ierd
boxed
dougl
respected
baron
hearts
illness
steer
1985
watered
misfortun
firef
godd
arrival
labels
150
grows
reaches
volunt
volunte
mistaken
mixing
sufficiently
meetings
integrity
ruins
sticking
irrespons
souls
souljah
merch
flea
puppy
scares
continuum
continuity
renational
strengthening
requests
dissatis
consuming
warmth
laying
##umbling
250
mattel
ineff
negotiating
temple
spoiled
accordingly
demanding
closest
recycle
fixing
ultra
rapkay
criminals
berger
tendency
fields
webb
primer
climb
ballet
duke
unequ
forgive
leaked
teenage
highlighted
##affe
convening
attacking
separated
unsatis
struggled
fifty
crisp
smoothly
sync
delayed
containing
responded
jumping
declare
silent
physically
darn
cliched
seekers
compatibility
translations
tonnes
stretched
karl
reveal
exposure
barbra
scratched
disgrace
conducted
opposition
actresses
ignorance
jewel
blowing
crashes
permanently
dimensions
ghosts
enlighten
towers
conversation
conversations
orders
narration
owen
paranormal
depicted
sincere
erotica
bluray
neighbouring
shaped
wwii
ranging
dreadful
alike
buddhist
shooting
cabin
riveting
compensation
washington
nazi
convergence
facilitate
fonda
stipulates
diagn
eliminate
advocate
nomad
chaos
lapinator
proportion
unstable
virginia
sorely
tossed
##creen
taxpayers
gabriel
inaccurate
bookshelf
cotton
deplore
lawyers
jurisd
manifesto
cousin
quirky
remastered
miserably
feasible
scooter
regeneration
skeptical
unbearable
egypt
youtube
dignity
polluter
shoddy
overpriced
incoherent
engrossing
brendan
pursuant
reboot
neanderth
interinstitutional
08
01
60s
aven
aerial
aunt
bone
cyn
dates
dude
fm
fist
faded
gor
gau
gimm
jammed
kyl
laud
loos
mort
ni
niece
nomin
oo
ost
pins
rud
rick
rude
ti
tore
tel
tread
tighter
um
ulyss
viv
vio
voodoo
wi
witches
yer
##aving
##upp
##obe
##nis
##nual
##ec
##col
##hem
##hand
##rous
##kable
##with
##wide
##gos
##met
##bits
##bird
##fold
##13
##17
##100
##ouf
##encing
##enberg
toe
##eding
##eday
##itations
inability
##anium
##omach
reper
rewr
##lend
beating
##station
whine
##road
##rocious
stain
stood
stack
stomach
##sella
##ayette
havent
habit
notably
##uries
anat
comfor
##irms
##peak
butch
shine
liqu
proli
sel
sean
deple
chasing
exhib
moist
##rian
##ppers
##rak
##rain
suicide
doom
hein
hend
healing
readily
prone
enabled
##istrib
mellow
abrupt
canad
amp
##arts
bytes
##osis
noble
lein
outlines
##actic
uphe
upside
upcoming
upbeat
lobby
##andi
dire
##acks
disreg
adore
adorable
##ittany
usd
clamp
clavell
actively
##plug
##ishes
interven
arro
herbs
reset
poetic
muff
imper
tex
sail
prescri
buys
newman
##quately
perce
backd
backup
productive
spouse
spray
splend
guine
brittany
finland
watches
memoir
crook
someday
marry
##cedented
trav
alban
downright
downside
##ocr
listens
transpos
obn
##ibal
classroom
attic
attent
attrib
additions
cheese
tripe
countless
syner
phare
purchases
carries
##lude
slave
woven
oriented
##iannual
economically
waits
legacy
handful
handled
evita
invite
bases
defining
wordy
explores
approving
mainten
grave
grabs
grainy
drunk
drummer
skipping
refill
10th
capita
internationally
mighty
madness
brok
writings
shortcom
heading
headache
christine
valve
redistrib
uranium
couch
centre
##ifications
depiction
initiate
distress
district
freeze
metall
metals
superv
drives
passage
anni
este
mentioning
measured
huh
accountable
accountability
delux
imagined
##ontz
signals
satur
sadd
sadness
morality
moria
harness
visited
devol
darker
##rico
fantas
##ucky
patti
judith
judging
manufactured
property
##comes
organization
contributes
johnson
energies
complained
transported
transportation
shoots
weaker
bradley
sends
macro
drawback
integrating
forgetting
rapporteurs
irreg
cookbook
fleas
richly
continuation
continuous
revised
shipown
inspire
hyster
sequels
smoking
discovering
substances
complaining
pairs
managers
centralised
pillar
smelled
remainder
mountains
ridiculously
complexity
criticize
soldier
soldiers
denied
broadway
privacy
depressed
ballads
constitu
applaud
reflected
sustained
psycho
calcul
blew
bleak
robin
robot
homes
opted
mentally
vibrant
separately
struggling
targets
reactions
faulty
disturb
dubious
coordinate
fools
inspirational
destroying
undertaking
doctors
virtue
ambig
ambient
accidentally
execution
mechanical
electronica
ratified
fulfilled
intrigue
tragedies
restrictive
inspections
sightings
wealthy
kinsella
journals
malta
observation
revolutionary
mysteries
tanker
##viance
basket
idiots
koontz
velcro
scholars
encounters
supran
blanket
hardcover
linksys
tremendously
brian
unanimity
corporations
accomplished
frozen
executive
gibberish
##ippers
buddh
journalist
fuzzy
compensate
disposal
motivation
chemicals
dictators
flip
sarah
threads
delicious
vulner
vulgar
consolidate
explicitly
decentralisation
beliefs
phenomenal
chewed
validity
cancelled
diamond
brutal
unexpected
naive
novice
compression
louis
pseudo
schedul
photographs
observed
reservations
incomplete
filmmakers
barriers
lucas
therapy
revelation
wrestling
dismantling
insecurity
entrepreneurs
cockt
peripheral
sloppy
dillon
throat
disagreement
goofy
compassion
estimated
prophecies
ovp
exuviance
quartet
transfers
discontinued
absolutly
privilege
stereotyp
golan
gammel
dolby
coherence
resignation
museum
acceler
grandchildren
unprecedented
horizontal
ebay
chaucer
ulysses
violet
shortcomings
05
38
47
49
44
82
az
aust
auss
aka
bod
bumps
cure
cried
cumm
dd
dc
dj
eerie
fade
fraction
felic
fathers
gle
gad
gord
groc
hors
hott
hitting
hrs
jig
jail
kiss
kings
kudos
lh
lite
lately
laughter
laser
mit
ny
nail
nerv
nurs
nipp
nasty
omb
pg
pant
piv
pension
pengu
rv
rage
sic
sessions
tir
tummy
tiger
upper
vary
vcr
wierd
xanth
zones
##aise
##uity
##uild
##lical
##lated
##lings
##tr
##no
##nn
##ng
##nam
##dac
##eer
##sp
##some
##rams
##power
##pired
##ij
##iate
##iator
##wick
##washer
##gm
##bra
##bound
##bled
##fol
##fayette
##18
##23
##27
##200
thy
theology
##inum
##ongh
##esth
##isit
topper
##itisation
inject
##arked
##ico
##icion
##icity
rebell
##lets
##aler
sting
stap
stead
stages
##eters
##ethe
##lditch
##chool
##chair
##very
##amps
welf
##pelled
seal
chop
chances
chief
chlor
aloud
##esses
##essed
##cking
##ckets
dogg
doyle
fru
atea
atrocious
orrico
pric
##istence
##mented
##usal
meal
abund
##opoul
unhe
unlim
plague
amy
##une
##umble
maj
##cile
nostal
noisy
lend
leon
leap
leban
tru
lod
anytime
##apso
disgu
imb
ads
intric
##issible
mans
worker
workings
##iggy
aged
agent
eurojust
eurodac
clark
clients
##pled
##velope
arising
reson
residence
shoulder
pod
poison
parton
partial
contra
imposed
precious
sax
preserv
specially
spelling
needle
##quest
storylines
perab
perverse
regga
acid
acne
##atchable
##aks
##aky
appalling
strings
serial
backwards
instability
spy
spice
spons
sphere
endearing
grues
grants
gritty
guilty
hier
hilditch
brick
bruce
finale
vegas
highs
watchable
crises
remov
remained
marking
##uba
emarks
mono
monk
indie
indirect
terron
settle
easiest
joined
authorised
ministry
worldwide
boredom
versus
##lessness
triple
trigger
glance
##igned
insane
carp
carol
carpet
slim
slack
slasher
communications
communicate
warnes
directors
wondered
elab
elmo
retros
schw
laces
lafayette
surpass
basement
listener
listeners
confron
definitly
councils
exploring
aval
receives
1991
1992
assert
curve
curios
corp
corrupt
standout
controlling
##print
compete
lightly
capit
airpl
aircraft
christopher
medication
lively
locally
payments
quicker
oppose
supernatural
pops
cameron
objects
picky
##otti
performs
barak
reformed
hearted
membership
steven
tracking
morals
breakdown
devot
austrians
fireplace
firewire
statistics
patri
patient
ruled
photog
eyed
snmp
snoop
corrected
judged
greg
existed
sorrow
##ediate
postc
walmart
recognises
rappers
mistress
pressing
winded
nonex
apartment
positively
improvements
connections
multiannual
individually
illustration
illustrate
merits
mercedes
deadlines
jeopard
knowledgeable
sensit
footing
scarier
rolls
trees
frontiers
credible
insightful
circles
discoveries
007
utopian
ripping
division
shapewear
appearances
encourages
##uela
indicative
scripture
verse
vertical
auto
unders
arena
satisfy
durability
mattresses
##ettes
cords
unreal
ballad
ballroom
rhapso
consistency
theatrical
dupl
israelis
bowl
striking
strikes
comprehend
flawed
flawless
flawlessly
unemployed
hung
lengthy
comparable
matched
streets
1967
boning
dubbing
dublin
##hoods
rejection
emails
loosely
hesitant
fellowship
silence
taped
sympathetic
succeeds
candid
graduate
measurements
associations
##crime
musicianship
terrorists
randomly
pursuit
interpretations
escap
reinforce
symbols
tonight
thicker
reveals
queens
savings
##gaard
uninst
interactions
flavors
tortured
##risy
counterp
affordable
ignoring
tolerate
diabetic
##rupted
revenue
yawn
syrian
tankers
believer
securely
mandatory
automatic
sg1
phenomena
composition
scholar
encounter
disappeared
engineer
shaping
transaction
isolation
dishwasher
reconcile
distortion
subsequently
optimistic
pounds
orchestra
interfere
stringent
safeguarding
nerves
stipulated
belgian
ticket
codes
rumours
segments
##udsman
absorbed
napole
wicked
rendition
rendering
intermediate
springs
##odeon
geared
injury
adapting
adapted
spiderman
marvelous
alex
hamper
schedule
exchanges
bibli
shaft
guardian
mariah
consciousness
symph
certific
jefferson
widescreen
arcade
hypocrisy
wicca
toddler
reunion
ankle
choosing
conjunction
disadvantaged
prejudice
landscape
nickelodeon
seventh
appointment
chronicles
acknowledged
gathering
inconven
insufficient
suspended
dystopian
quaestors
traffic
monoton
expedition
mckellen
confidentiality
breeze
hogan
korean
lazy
mesmer
wonders
compartment
groove
earbuds
reconciliation
reminiscent
cedar
chorus
expansion
motorcycle
incomprehensible
diplomatic
nordic
ralph
samsung
valley
inquir
similarly
artificial
douglas
misfortune
renationalisation
jurisdiction
kylie
comforter
depleted
heinlein
canadian
backdrop
splendid
travesty
obnox
maintenance
deluxe
fantasies
shipowners
supranational
buddhism
gammelgaard
gordon
grocery
ombudsman
pivot
penguin
welfare
unlimited
gruesome
rhapsody
napoleon
06
512
7th
70s
90s
940
awe
aesth
bis
bones
berend
cig
coup
caut
colog
crown
cusi
dil
dens
dred
eject
eby
ella
fid
fought
fighters
gb
gory
gaz
gains
gulf
gault
hind
hmm
hann
ian
jr
jf
kir
lan
lent
loun
lenn
loops
lemon
mile
malf
nan
nam
nyc
nude
niel
oz
py
pent
rin
ration
rop
rag
rides
rank
scept
sisters
tat
tong
tony
tina
umb
va
vat
wade
wto
wander
wurt
yield
zoom
##aic
##aac
##uase
##lbs
##tp
##tarian
##ni
##cl
##hill
##hum
##ran
##rust
##rist
##rome
##rations
##rille
##pens
##pread
##iat
##iety
##iently
##ieth
##ipper
##vor
##villes
##ww
##was
##wish
##writ
##wered
##gance
##giving
##you
##yard
##mons
##bly
##bow
##bies
##bors
##zens
##far
##fire
##xie
##25
ths
thigh
thunder
##era
##atible
##atron
##organ
##ouri
##isse
##isible
##isons
##eno
##ederal
andrew
##itated
##itrak
##anor
##aned
##anne
##arious
##asbourg
##icop
##ician
isaac
##ioned
rej
revers
rebel
reception
##oto
beer
bele
##uther
whim
whims
##adrille
##rob
stir
stard
stell
stumbled
stilted
##etus
##etto
##chet
hap
hav
##verted
notable
##urb
##aman
annot
asp
como
comfy
booklet
##irus
##peg
proving
proactive
seix
deff
chap
churn
nepot
worries
worship
suction
dose
dozens
heed
heel
attain
allus
enforced
abuses
unans
unins
unlock
cannon
plight
##umn
maps
##cience
##ciating
##artz
justification
outcomes
troops
logo
lobb
##andise
intensive
howard
manon
bund
workbook
recomm
recru
aggr
yours
##soft
cler
##uctions
##abel
##ears
##ouncing
resur
ponder
overt
overr
scor
impos
wells
peck
pelle
sac
saves
##quin
regain
##grino
##icking
seeks
##ifter
##ifiable
nowad
##ached
parables
appet
playstation
strangers
strasbourg
descend
spa
endings
gray
hike
brook
brass
rope
blat
##azzy
mush
finneg
##oding
filming
vegan
##iped
realy
keys
marie
marsh
marlon
trained
emissions
##ressive
supplies
smile
smash
decre
songwriter
flint
flann
##atively
secular
downfall
farce
farming
disconn
##ftw
sinister
genesis
cheating
reluct
tribe
ecsc
glen
glam
phill
carrot
slides
woe
eloqu
artif
invasion
expectation
awsome
horrors
horrend
confine
confined
confirms
formally
pricey
entries
numbing
assault
curie
todays
funded
socialism
histories
stark
drastically
restock
restored
sket
##itsu
misses
brake
brains
excru
internally
terminator
##ello
##elle
clearer
madd
cracked
careers
christina
##ggie
meanwhile
kidding
colin
colour
##versary
holders
infin
centered
centuries
publicly
locate
screams
announce
##working
##worthy
estate
strongest
##apses
objections
staying
fitness
raft
boxes
doug
paci
employee
varies
varied
##isticated
sword
fourteen
profits
accounting
immort
expressly
sells
sellers
steering
closet
rockin
electoral
electrical
caan
caves
visually
devote
neglect
rays
coloring
citizenship
##bridge
critique
labe
epid
cooper
deliber
researching
posts
posture
##itorial
walt
featured
rooms
operations
plugs
mixer
filler
stupidity
populations
popularity
dogfight
weakest
reminder
accessories
cleaner
babe
courtney
appropriately
doubtless
scariest
addressing
geforce
revisit
shipment
achievement
beneath
beneficial
crossed
collected
suspension
biological
skinny
predictions
contacting
hitler
victory
requesting
grandfather
tourist
answered
prosecution
256
viruses
002
manager
feminist
utopia
##ieval
brilliantly
montgom
spoiler
straightforward
banned
dimitrak
11th
mystical
yea
pumping
downloading
pushes
healthy
strangely
obsession
accurately
demonstration
bert
undes
multipl
loser
duration
argued
refunded
liberty
libertarian
stressing
subscri
subscription
laptops
breathe
stockings
rhet
regretted
deterior
civilization
influential
attaches
thrilling
strip
feeder
safely
massac
faithful
calm
losses
praising
maintaining
matches
displays
speeches
meantime
fifties
threatens
drags
occurring
quoted
responding
rabbi
adjustable
armed
harmonious
concludes
exclusive
liners
linear
discrimin
daring
fatal
squares
strands
omitted
intentional
clarification
permission
pursued
coastal
ethical
anthrop
##immer
bulky
21st
boundaries
stretches
restrictions
assets
exposition
irony
galax
williams
murdered
padding
tolerable
bellydance
adequately
acquire
acquired
obtained
hatred
impla
overdue
magazines
route
torso
##breaking
legends
rhythms
spectrum
mathem
yoruba
enterprise
anticipation
monopoly
tibetan
insulting
fortunate
rainy
sophie
suprised
neighbours
enthusiasm
annex
argentine
horrific
nightmares
profoundly
republicans
ranges
isolate
quantity
relaxing
prosperous
cowboy
punches
rivend
##blings
universally
gyps
unwatchable
component
scandals
conservatives
envisage
metaphor
rosal
palestinians
diagrams
swedish
controversy
celiac
ocean
##words
##manship
segment
diameter
intermitt
perpetrated
welcomes
dominated
html
http
heights
settled
contemplating
storytelling
undermine
sympt
barrier
widespread
inserts
therm
inhabit
aspirations
earthquake
earthquakes
catalogue
halti
nineteen
rewind
seldom
inequalities
empathy
punishment
tactics
carlton
redundant
devastating
homosexuality
outdoor
cereal
shifting
proclaimed
softer
unimag
predecessors
enthralling
insomnia
zombie
alpha
sacrific
twentieth
indispens
dissappointed
dissemination
forbidden
syndrome
deprivation
judgements
fleetwood
scrutiny
incompetence
vigilant
insofar
alcohol
prerequisite
mundane
spooky
portrait
voluntary
volunteers
irresponsible
merchandise
moistur
leinen
texas
albanians
districts
anniversary
saturday
aussie
cummins
felicia
gadget
lhasa
nervous
chlorine
##opoulos
perabo
reggae
removable
curiosity
monotonous
obnoxious
cologne
wurtz
##writers
seixas
nepotism
allusions
unanswered
pellegrino
finnegans
disconnect
excruciating
montgomery
dimitrakopoulos
indispensable
61
67
8gb
aa
ari
aero
bid
bout
bour
bach
bisc
baked
bds
cb
cri
cass
cited
cables
dale
dwar
ebook
eternal
fisc
gro
gaps
hou
hoo
hay
hil
hood
hither
hurd
ie
jazzy
kent
kau
kink
loo
lace
lingu
mitch
nause
nba
oop
poo
pals
puss
pier
pets
pending
roy
rade
raz
rio
rugged
sap
sitt
sang
sals
sne
ts
til
tate
ties
tire
tene
tones
vic
vous
vien
woo
wie
wwe
yu
yo
yep
ziggy
##away
##aunch
##uos
##olet
##offs
##dan
##dled
##egr
##cal
##care
##cock
##corn
##coon
##cube
##hed
##hal
##hame
##hoot
##ritorial
##iw
##vo
##vc
##vas
##kest
##ye
##mle
##mach
##born
##fred
##fits
##ja
##jet
##70
##90
##erun
##atures
##atics
##atement
##attered
##orig
##orized
##orah
##ouge
##iser
tol
##ingo
##itives
##itudes
##rea
##reet
##reme
inland
##anas
##anol
##llor
##llers
islam
rear
rect
reyn
##lemm
##ala
##alo
beast
##stood
##stock
whis
whining
forens
forty
stem
stun
##ido
##idad
##idating
##aying
##chler
##verine
notion
##cell
##amb
##amiliar
anc
anime
wend
weld
asap
##peop
##ieces
lill
libro
prover
probe
deem
chock
alum
alice
albert
##raged
##embourg
succ
dod
heap
heels
alleg
##ols
##olen
##oluted
envelope
##outs
##usic
##usable
meals
abusive
abroad
##opy
unav
unjust
unquest
plas
plun
amnes
##umph
##artney
nope
lex
outfit
trump
##ela
lov
##aude
##apers
goodman
compil
co2
##hern
dip
divers
dilemm
disli
intu
intimate
usher
usmle
manually
buffs
buggy
recom
becuase
##igan
##integr
clunk
clums
claude
##ptic
arrow
arbit
resume
##ivirus
shoulders
poly
scant
sciss
contest
muy
mule
mugs
knot
impetus
##life
pean
##bervilles
sappy
sheik
specs
##quist
percept
perception
pertaining
##izz
##ensing
##ensical
parade
undergr
undergo
playback
backs
productivity
instances
spill
grind
grinder
guides
polish
bru
brush
rooted
muscles
##oda
##angle
mayhem
remed
##ordan
marin
margin
1911
emily
conspir
supplier
decline
indians
indiff
believing
flop
flood
flute
secured
downhill
problematic
olds
territorial
funn
simps
matrix
##ailing
hardback
transitions
helm
helicop
##iba
mines
minus
attor
defici
startling
chee
programm
boom
trio
triumph
phd
carriage
collins
communitisation
##onomy
elastic
retarded
provin
provider
articul
handbook
eva
evans
invisible
humble
expects
laur
pleasing
personnel
surve
confess
childish
##neys
wording
##ostic
expose
##redict
explor
earl
prince
excellence
##ractive
assent
bites
corset
advised
advances
wholeheart
deborah
drastic
restart
restoring
sits
engage
2008
2007
skate
refusal
brace
lightning
capability
systematically
cracks
headsets
questioning
reding
redemption
nightwish
amending
entering
infect
appeals
payment
lackl
behrend
breast
breach
processing
admission
annie
leftovers
bedding
equation
pickup
rape
##mese
audiences
hupper
respective
respectable
barns
reforming
improv
improves
swob
##aneously
practicing
moms
stealing
painfully
rocking
breakfast
1982
modified
testament
accepting
copyright
combines
combining
killers
killings
mastered
snaps
snob
snugg
158
screenwriter
##ographic
organic
organise
gerald
priorit
burnt
buildings
operated
volt
inflates
mixes
encl
fills
stole
antivirus
suffice
jacket
approaching
instructional
usefulness
##forcing
preparations
preparatory
convoluted
personalities
heavier
cooked
chancellor
pupp
sensor
fundamentally
revive
achievements
caption
professors
crossing
hyper
renov
trevor
voters
circulation
truths
grandmother
tightly
warmly
catches
catching
prevented
##onym
rubbed
destined
008
milk
plainly
negotiation
negotiate
pillows
backgrounds
scientist
affecting
uncon
dramas
closure
harmony
indicators
newspeak
violin
violated
palance
verd
floating
denomin
140
unden
dolls
formatting
specify
emphasises
participated
broader
promoted
transferred
surfaces
protected
legislature
capitalism
constitutes
strive
bayles
recipe
brainless
hunt
greenhouse
psychology
writen
cease
##shifter
choir
embrace
drafts
optimum
unfamiliar
guaranteeing
mentality
unsure
willingness
magnum
simplify
arranged
arrangement
oddly
clubs
faults
assessing
threats
threatened
quotas
foolish
shops
ghetto
switches
congratulations
eaten
gradually
screwed
lincol
ambitions
repetition
1975
1970s
neighbors
terrorism
attraction
survived
cathol
luftw
ramblings
franka
escapes
escadrille
tricked
assumes
fulfill
tackling
recomended
secretly
investigations
burg
burrough
burmese
nicer
nicolet
shelves
recovering
passionate
karas
efficiently
grips
pinch
poettering
degreez
nonsensical
slipping
dismay
dismiss
florette
##impy
academ
allocation
implies
grabbed
refugee
hypoth
captivated
bolt
bolkest
##riloqu
forests
angels
altitude
attending
attended
lama
mccartney
streaming
anticipate
owing
width
incompatible
substantive
pipe
unpredict
fortune
sucker
suprise
blurry
condemned
spirituality
inexpl
neighbourhoods
enthusiast
disgusted
unanimous
ownership
explosion
irritated
folding
distortions
newspapers
venture
ventriloqu
quantitative
jamming
hazard
arthrit
optimus
hammer
hammering
concealer
remixes
suspects
flipping
nerve
nazism
patches
roses
anxiety
atlantic
pronounced
cartridges
mildly
consolidation
retailer
inventory
assembled
banging
lisa
pitched
pitchshifter
rendered
resistance
gloria
admiration
unexpl
amateurish
dominant
laund
muddled
pitiful
preserve
artsy
alec
binchy
rewarding
rewarded
outermost
quarters
blessing
exchanged
contradictions
lunchbox
reservation
storyteller
fluke
melodram
athlet
bunny
zeal
chooses
resumed
##zzzzzzzzzzzzzzzz
kenned
lynn
extremism
advertisement
inequality
luxembourg
navigate
endeavour
dalai
vincent
voyage
wolverine
reiterate
mexican
paramount
prospects
hutton
mobility
intolerable
cleansing
orientated
huntington
vibrator
legitimacy
nikon
exaggerated
cobain
adjectives
officer
vegetarian
swiftly
##heimer
sophomore
furniture
kyoto
thesis
whistle
antonio
exemptions
outrageous
coleman
clinton
branch
soulmate
professionals
astrology
sixties
wannabe
fischler
gallery
gospel
##uvre
theoretical
unravel
adultery
retirement
condescending
constraints
diagnosed
guinea
irregular
dictatorship
vulnerable
scheduled
stereotypical
unheard
leonard
lebanon
elaborate
schwartz
nonexistent
sensitivity
bibliography
940c
cautious
density
jfk
nielson
tongue
nowadays
blatant
artifact
horrendous
labeouf
rhetoric
galaxy
unimaginative
aerobed
biscay
bdsm
houston
hitherto
kauf
radeon
sittings
vienna
##people
aluminum
unquestion
amnesia
arbitr
sheikh
indiffer
simpsons
behrendt
huppert
swoboda
denominator
lincoln
luftwaffe
nicoletta
bolkestein
02
2k
5mm
97
900
ald
athe
ahern
bse
bite
bry
bounce
cood
cement
cater
caval
dirt
eg
fy
fri
fog
fates
fier
fitted
faint
gop
gently
han
hiss
hod
hats
iphone
jos
jax
jordan
kat
kil
ly
lun
lud
lump
lank
lining
lup
luther
mm
mam
mant
mous
mish
momm
moura
naked
pon
pist
pig
pino
pacing
puls
rd
rant
rarity
ss
sj
sq
sri
swell
sigh
tan
tid
tues
tism
tanks
vain
vite
vimes
veter
ward
wand
wings
wandering
wiley
xt
xx
zipper
##uates
##low
##long
##lass
##limin
##tling
##oke
##oven
##oved
##oves
##net
##do
##ech
##cion
##comm
##cope
##hm
##hot
##hop
##sd
##rie
##rine
##rence
##rison
##ping
##iar
##iating
##vals
##ku
##wer
##waves
##gf
##gone
##god
##gles
##gently
##my
##mic
##mind
##master
##bath
##fo
##felt
##88
##60
##30
tha
thri
thea
##ini
##inter
##inqu
##inently
##inness
##inction
##inarily
##ndi
##atin
##aters
##isal
toast
tome
##edes
##itect
##real
inad
ingen
##anen
##arms
##omes
reck
reiss
rewards
relied
##alt
bean
##stuff
whirl
##ctic
forem
forums
stan
stub
stolen
##seller
##etically
##idences
##owed
##ayer
##cha
hah
haha
washer
notified
##urable
comical
comics
##ira
##pell
##ieves
##iegel
##this
shy
shade
shades
shouting
##ustroph
socc
sodom
deck
deeds
chir
confer
conventions
##ila
##ilight
alfred
##ulk
##ularity
moor
##riatic
##raisal
dover
doss
frm
atom
allen
orph
orginal
orgas
##orton
##gear
enact
engin
envelop
enables
##istically
##uscript
mep
mejor
abc
unplay
unatt
unpleas
plod
##umer
maggie
haste
##ciation
thereof
##onel
outlined
outraged
timothy
tres
loading
anyhow
##aux
##ando
goodie
goodby
greatness
compli
dial
adj
adhere
adriatic
quil
quiz
quinn
##issa
##issive
##issance
feast
managing
manoe
manuscript
bubb
workplace
recapt
recorder
tac
taz
euros
thanking
##sole
clut
clay
clap
interst
interrupted
themed
arn
ard
herr
wrought
##ivod
partially
scent
contam
donald
knee
knots
imply
teams
##liest
##liable
preference
prelimin
prescription
theirs
everyman
shepher
spelled
ac4
twe
twilight
##ryche
##akings
underpin
playable
playlist
serb
serum
serbs
backbone
producto
productions
##ogen
lovebird
##wned
grief
guided
guinness
bruth
bruck
filth
##plex
thrills
differs
muslim
vein
##anging
bestseller
cres
crud
crunch
cringe
crushed
remakes
margins
tract
monolog
supplied
foundations
inducing
belva
beloved
purple
flam
flies
fluct
flower
flock
flowers
posed
securing
wherever
terrain
##meat
transit
joining
helquist
defense
discl
discom
discri
lotr
gameboy
gamecube
imported
substand
cheer
boats
boston
syll
eco
glider
gluc
issuing
carri
cargo
informing
slam
sliding
reporting
communic
apologies
supportive
concerts
warcraft
##onomic
elite
origins
##asonic
provis
##bean
legion
##isms
lao
lav
horrid
ideals
surge
viewson
confederal
demon
demos
demag
cambridge
aviation
earliest
entails
excellant
##lectic
assante
curt
requis
corky
grav
reasoning
debt
debun
hopeful
restraint
skating
creature
treats
treating
systematic
solos
replay
replied
cleared
madman
sonic
starship
opener
marketed
marketplace
airwaves
##ructive
happenings
dealer
medieval
colomb
infant
##bersome
affirm
envoy
thankful
numbered
couldnt
indefin
planes
behold
financially
processed
dried
drift
regulatory
##fici
##rup
homeless
homework
##overed
responses
racial
races
noni
availability
socio
employers
employability
respecting
messy
heartily
heartbreaking
heartfelt
swear
switzer
sentiment
fastest
garp
immature
paints
institute
rockets
electro
visions
visits
waterways
misery
winners
statute
accepts
arrives
colored
##tones
gladly
critically
epit
mastery
snoo
snapping
correctness
jude
judici
greed
greedy
greasy
15th
representing
organising
postings
walker
complac
accorded
precision
radios
radiator
operates
50s
filling
shocks
plausible
claire
claustroph
cleaned
approached
connects
integrate
ruining
multif
libraries
spiral
documented
irr
doubtful
deadly
historian
dancer
danube
dancers
viking
heroic
rolled
melissa
travelers
dreamed
maxim
fundamentalist
bias
avoiding
selecting
identification
handsome
digest
layer
motherhood
ignores
destructive
britney
transformation
dramatically
salv
salvation
##lights
banal
banning
110
mystere
lyrical
##centric
depths
##front
sharm
penet
verify
specified
emphasised
participants
joints
trashy
##etti
surfers
diehard
unrelated
unreliable
hairy
michigan
telephone
telemach
capitalist
strike
comprehensible
claiming
masses
dependence
dependency
comparing
robbed
unfold
congress
concentrated
vibration
submitting
simplicity
reactors
##ridged
threatening
coordinated
renewables
##rapher
undertakings
symbolic
voiced
voivod
adjusted
adjustment
armand
arche
architect
sexuality
harmonising
odor
gradual
concluding
physics
battlefield
villa
consulting
attracted
surroundings
stranded
ipods
clarisse
permits
rhymes
jerk
luke
ratio
reinforced
anthology
confirmation
bulge
spineless
incorporation
revealing
beside
eighty
grip
rounded
senseless
sanity
grammatical
emerges
galactic
charterer
malam
upgraded
florida
cycles
observatory
obtaining
panasonic
wilbur
##aldi
crashed
deflates
awaited
dede
routes
legendary
lamaze
blindly
dressing
dressed
yrs
streams
crawl
enlightened
advantages
daddy
widen
##casts
compactfl
territories
cracking
papua
ryan
##holders
myths
composer
composers
palestine
rotation
rotating
sophisticated
evolving
engineering
fourthly
electricity
breadth
shapes
analyse
analyze
analyzing
frost
froze
hideous
rangers
distracted
witnesses
witnessed
bernie
taller
wrapping
retaining
abandon
disposed
disposable
incidentally
addicting
280
dinos
pilots
scandal
scandalous
sarc
ufos
delete
atlas
pronoun
decorate
decorative
withdrawn
contracts
abstract
bullet
eliminated
inventive
baskerville
ritual
shrink
buffalo
transitional
absorbing
gigantic
wickham
prisoners
glorious
exploit
exploitation
keyboards
synthes
guts
preserving
introductions
residents
freakin
breeding
postponed
biblical
taxpayer
bathroom
sinking
therapist
megatron
megaman
inserted
melodic
fragile
withdrawal
outlaw
resumption
entrepreneur
bilateral
nineties
rashel
comedian
seldon
alleged
excelent
principal
luxury
dreary
dali
joseph
ljs
cherry
mexico
resembl
blonde
creamer
pixel
reassure
deployed
enchanted
enriching
unforget
pledge
coincidence
intolerance
incentives
margret
turkish
troubleshoot
autobi
francisco
cushion
gimli
municip
migration
pioneer
foresee
sewing
supreme
monument
monumental
catastrophe
cumbersome
diminish
eaggf
##cussions
wrenching
sparse
caribbean
definetely
infringement
distinguished
unsuccessful
neighborhood
rehash
apocaly
enlightenment
neanderthal
cynical
gimmick
teles
wipe
repercussions
stainless
anatomy
liquid
intervene
imperative
attentive
metallica
supervise
entrepreneurship
cocktails
tiresome
chopin
fruition
nostalgic
preservation
highschool
aesthetic
kirk
lounge
lennon
malfunction
whimsical
stardust
stellar
happend
uninspired
recruit
spawned
flannel
phillips
maddening
pacific
immortal
massacre
implausible
rivendell
rosalind
symptoms
inhabitants
moisturizer
cripp
fiscal
##original
forensic
lillian
disliked
clumsy
scissors
conspiracy
helicopter
deficiencies
wholeheartedly
lackluster
snuggly
catholics
burgess
hazardous
arthritis
laundry
zealand
kennedy
irregularities
fierce
pinochet
tuesday
vitex
foremost
soccer
engines
unplayable
goodbye
manoeuvre
preliminary
shepherd
bruckheimer
substandard
glucose
viewsonic
switzerland
claustrophob
compactflash
012
41
43
600
77
72
8mm
91
ah
aol
aure
bc
bb
b5
bou
bos
bio
baker
binder
cc
cm
c4
dot
dere
dough
daz
dang
dug
dash
dots
dwell
dances
dining
dazz
erod
ff
fue
fract
foss
foul
gw
gir
gest
gag
girth
hem
honey
hiding
jans
km
ket
kim
kenn
khan
lb
lle
lest
lene
lapses
mall
mim
mum
mint
masc
mpeg
nb
nif
nyl
nurt
nbc
ngos
oly
oops
pir
piss
pak
pomp
pissed
ron
rons
rug
rts
rains
ross
ramp
roof
rival
rushing
sill
sant
sain
sard
sib
signing
tu
tin
tad
troll
tutor
vign
vene
vouch
void
wag
wins
xl
yah
yarn
##aved
##uch
##uation
##uard
##uations
##lum
##link
##lang
##liness
##lane
##tu
##oia
##nie
##nap
##note
##nels
##df
##eing
##eal
##cm
##cas
##core
##cub
##cents
##cury
##cover
##cases
##hd
##hery
##hog
##hamm
##rus
##pu
##pard
##prod
##pieces
##ii
##iated
##vania
##wed
##will
##west
##wind
##wife
##gon
##gie
##gage
##gically
##yh
##yan
##ystem
##mn
##mc
##min
##mar
##zin
##zio
##fs
##fly
##fest
##fish
##80
##16
##62
##69
##ji
##jitsu
##inters
##nday
##ata
##atar
##ateness
##oro
##isen
toes
##inger
##ede
##edge
##itter
##itious
##itors
##itals
##rep
##rell
inane
inherent
##asers
##icter
##icism
reed
rever
recharge
##otte
##otics
##alk
##alien
##alousy
beac
beige
##sth
##stan
##staking
##enting
stall
stones
staling
stems
stitches
##idoro
##chin
habits
washes
notor
##urous
##amous
weber
weaves
weaving
compend
shad
shining
shamp
shiny
props
prostit
##illion
sewn
seperate
soy
deci
chare
chumb
convert
##ilateral
alan
altered
##ersed
neu
neil
exor
exter
exert
##estone
##rable
##rained
##racies
##eman
##empl
##emade
sunday
dos
fridge
heated
hears
heating
atle
atroc
alley
org
##oluc
##olta
pryn
##aine
mend
meandering
abd
##opic
uned
unad
unse
unli
unused
unsc
unplug
unoriginal
plath
##una
##unct
##unity
##unny
##umber
maid
maast
maeve
##arten
therein
##oses
##osure
comming
noon
outright
outlets
outfits
##acters
##elve
##ounding
##ounded
upload
lob
logan
##asta
##astics
coat
coaster
coex
##hero
diver
digr
diana
diaries
disks
disintegr
im7
impe
adf
adhes
adverse
adored
adoles
adobe
##ittin
recieve
taos
tags
tacis
##igo
##igence
agony
clo
client
clippers
##ptly
##endo
fired
##abby
arent
array
arisen
writting
pole
pockets
overb
overused
overcoming
scans
scroll
##oyd
charism
##inees
donate
knees
peat
peers
peak
saver
facial
fauna
sheep
##assy
##quettes
percuss
regurg
##gram
acrob
##izers
##izable
offense
offset
##ensibly
makeover
##ictions
twelve
##atched
parall
appointed
appraisal
underlined
strang
stricter
desires
backyard
##ogical
instinct
spont
spins
spaces
spiegel
endlessly
gran
grotes
guards
polidoro
brood
brittle
filed
blog
thrust
finne
recommends
recommending
##ipid
hof
hollow
##aments
twofold
memph
cram
remem
remedy
##ordinate
marred
mario
marlow
trace
emu
emper
longest
conscience
monies
monox
##ressing
smashing
readings
indo
bela
purist
flame
flap
flour
fluss
amaze
whereby
##ocation
##ials
simul
##getic
matress
hardship
##ibles
mince
minolta
disco
##fty
sins
accused
accuse
##feration
programmer
boiling
versa
triangle
county
counted
gloves
pho
phant
phones
phony
phoned
pharm
insanity
insipid
carbon
carneg
slice
slog
slaver
slayer
##acinth
edgar
novelty
warner
elton
retard
scho
schrey
differentiation
plotting
plotless
kinder
handic
invited
invitation
invented
humming
plethor
comeback
persona
bashing
basque
childs
turnout
##osted
export
characteristics
fullest
teller
earpiece
princess
entr
entom
tying
tycoon
##airs
##aires
drains
curs
corks
graca
chrissy
household
drinks
hopelessly
rests
restoration
studios
jobst
specials
specialist
2009
skips
skimming
refurb
105
excer
lightness
termed
crazed
openings
headway
headaches
condensed
questionable
redisc
urging
urgently
columb
colonel
portions
portfol
coupled
centers
creations
freaking
publicity
distaste
distinction
fallacies
supervis
drip
passes
bander
anna
popcorn
equipped
##apsed
objection
raven
copying
performer
performers
hugh
barrel
figuring
messed
improper
enshr
swearing
swimming
##faction
##portant
democracies
suggesting
profitable
profanity
resolving
romp
teachings
##itizer
replacements
delves
delongh
satan
steals
stepping
steiner
painstaking
straw
strauss
rocky
learnt
election
1983
1989
harper
harlem
motive
visa
devour
honors
limp
limer
occult
statist
##brid
enlist
patrol
patients
positioned
##aholic
masterton
norway
manufacture
existent
branded
colleges
sorbo
johnny
##ycle
predators
postage
specifications
dialogues
##ighth
despair
laden
rapper
inflict
inflating
eleph
elegant
eleanor
stupidest
enlarge
claus
invested
leaf
sanders
intending
accessory
instructors
summar
macar
beaten
connectors
delivering
appropriateness
##ienced
stickers
progresses
progressed
audiobook
audiobooks
soulful
mercy
mercury
cooks
cookie
jealousy
flew
sensation
##yrs
richer
##tax
tomato
individuality
benefici
melville
travels
crosses
hyacinth
reno
strengths
vanity
contacts
traded
tradem
identifying
advertized
layered
bills
billions
##backs
solidly
ps2
managerial
femin
femalien
ripper
tempo
uncont
prefered
networking
##llington
spoon
banking
tasty
turtle
demanded
shameful
divide
divinity
scanning
recycl
indications
indicating
educated
##boards
criticise
junkie
catal
float
obsessed
warnings
autumn
soundtracks
linking
tended
formatted
emphasize
duran
jointly
promotes
puzzling
liberties
globalization
landing
arrested
protector
trusted
civilisation
civilizations
180
influences
theatres
terrified
duo
duet
loudly
comprehension
updates
brainw
brainer
massager
dependent
randzio
mcm
bleeding
comparisons
homemade
praised
unfolds
unfunny
conveniently
vibrate
displaying
submission
motorhead
instrumentation
dissapointment
1968
1962
1969
simpler
simplified
boards
rejecting
mailing
dragons
camcorders
syntax
##market
adjusting
adjustments
charlotte
harmonies
graders
virtual
dario
gamble
omg
omission
clarified
titanium
cinematic
jersey
lucy
rambo
translate
boobs
miracles
miracle
##immed
deceiving
criterion
flashy
flashlight
breathless
bulk
tackled
repaired
investigate
intellectually
burst
spinout
spinning
passionately
scarletti
visioneer
##ilingual
understatement
inspectors
barbara
##caid
liberalism
liberalisation
emerge
galaga
kincaid
polluting
defended
departure
slipp
upgrading
gaining
proceeding
bloom
counterfe
jews
##writing
tangled
semin
intellectuals
litter
venice
##vii
datab
conversion
refresher
idiotic
automated
microsoft
widened
unpro
compositions
tribulations
gasol
kicking
rotten
vastly
##uitous
disappears
infrared
brighter
analytical
isolated
prophet
prophetic
folds
dreaded
dreadfully
quantities
relaxed
evidently
cabinet
angst
insisting
expanding
expanded
motivated
waterproofing
campaigns
industrialised
pilgr
pounding
tenth
orchestrated
extensively
extraordinarily
dictator
gillain
nazis
converter
alaska
facilities
facilitating
obstruct
scenarios
dynamics
mildred
nuance
##repres
balkan
contrasts
navy
tickets
hallmark
abstain
bullets
eliminating
celine
pedest
pedantic
chewing
surrender
pretends
advocating
napier
##vincing
sprung
brutally
collabor
synths
behaviors
laundering
naader
witchcraft
shredding
prayer
paradise
reputable
curtains
distinctive
##richt
spells
photographed
contemplate
fluid
weaknesses
sooooo
overlooked
exhaustive
gilman
manipulate
persuasion
societal
embarass
embargo
eagerly
rebuild
stinker
aspiring
disadvantage
preceding
endorsement
gratuitous
bookshelves
espanol
landscapes
domestic
seductive
stroke
stroking
molded
allevi
facinating
periphery
glitchy
evokes
excelente
brazilian
illumination
advertisements
empathize
acknowledges
loyalty
bogged
iraq
angeles
chuckle
resemble
glossary
outdoors
dumber
hutch
rpg
##rrrr
lipstick
enchanting
unimportant
pledges
intensity
reserves
oversized
prevents
incentive
desirable
margaret
oppression
predecessor
enthralled
browser
browsing
insomniac
pulp
shameless
prohibited
mosby
farewell
officers
fleshed
completion
completly
sophomoric
csi
eagle
eggs
lingerie
unintention
hollies
accommodate
definetly
unsuccessfully
##99999999
touted
levon
firefighter
firefighters
dissatisfied
dissatisfaction
ineffective
unequiv
cabinets
egyptian
vivitar
rewrite
proliferation
hendrix
upheld
disregard
arrogant
perceived
synergy
ambiguity
compassionate
horses
nurses
nipple
sicily
priceless
abundant
majestic
lodged
disguised
intricate
mansion
indirectly
retrospective
confronted
avalan
corpus
airplanes
devotion
gregory
postcards
queensryche
symphony
certificates
pivotal
dredg
gaza
rinaldi
rationale
##human
aggressive
imposing
marshall
decrease
reluctantly
woefully
sketches
epidemic
bertoluc
thermom
bourlang
dwarf
hurdles
kentucky
looph
linguistic
mitchum
razor
salsa
reynolds
deemed
allegations
unjustified
compilations
dilemma
intuitive
funniest
programmers
enclosed
undeniable
burroughs
inexplicable
artifacts
arbitrary
cooder
fyi
lupone
mousitizer
mommy
##commun
##stuffs
atomic
mejores
unattractive
unpleasant
clapton
arnold
brutha
crespo
provisional
requisite
judiciary
irrational
outlawed
apocalyptic
claustrophobic
aureli
dereg
fossil
gesture
jansport
kettle
nifty
pakistan
pompous
ronson
wagner
##cubes
##hammer
stalingrad
compendium
shampoo
decipher
charect
chumbaw
unlikable
maastricht
coexistence
adhesive
percussion
grotesque
finnegan
memphis
marlowe
monoxide
flusser
carnegie
slavery
schreyer
plethora
refurbished
delonghi
bertolucci
bourlanges
210
59
66
62
7i
71
88
86
87
89
92
au
ace
ape
aus
azz
ayn
bs
bong
bind
batch
bise
bac
bien
baking
baff
bingo
bilingual
cul
cau
cue
cree
cube
cns
dl
ds
dp
dy
dir
dess
dive
dice
dorm
drib
duly
ditch
duck
dumping
ef
eer
ect
ethern
eighth
ellington
fs
fad
frod
fusion
fbi
ga
gail
goose
hart
hans
hord
hinge
hmmmm
io
ix
iq
jell
kur
kra
kits
kyr
kunder
klein
kandi
krist
kzin
len
lur
latch
lured
mour
mits
mamm
mgm
np
nv
nin
nur
ness
nest
nite
nub
nash
niet
nasa
norton
ox
oun
oxy
pere
pel
ppl
pause
pine
pens
pia
pac
pny
poop
pumps
poured
p100
rf
rally
rach
raps
rerun
sr
sack
sag
sway
sier
siding
sassy
tx
tis
tame
tug
tense
tilt
uc
vb
vom
vet
vest
vive
vod
vile
venge
wally
wig
wage
wiz
yidd
yanks
zo
zel
zoe
##aq
##ait
##agh
##acious
##aissance
##ught
##upt
##ups
##ueless
##ln
##len
##lie
##lore
##lite
##lance
##lace
##lord
##law
##tower
##tled
##oving
##oise
##oire
##obs
##nation
##dough
##eu
##cces
##crew
##hl
##hin
##hall
##hart
##hag
##sons
##sche
##smith
##rition
##rators
##running
##pm
##page
##paper
##person
##iu
##iased
##iates
##iques
##vy
##via
##kit
##ket
##kill
##kien
##wagon
##gid
##gow
##gun
##gled
##yon
##yte
##yards
##mi
##mun
##mond
##mail
##making
##bie
##zid
##zart
##zel
##zuela
##zstan
##zsche
##fli
##face
##fires
##01
##jik
##33
##24
##250
##54
##94
##41
##45
thail
thys
thumb
thai
theological
##eron
##erts
##inery
##oni
##onents
##atility
##atisation
##eni
##encer
toll
toile
tomm
tosh
tozer
##edith
##edelic
ofthe
##reci
##aning
##anos
##anked
##ancies
##anza
##aric
##arities
##lli
##llous
##asgow
##icon
##icle
##omer
##oman
isab
rearr
rechar
rehab
##leine
##lements
##lequin
##vellous
##ota
beth
beau
belle
begging
##star
##entiful
##ador
##adic
##adle
##ados
forte
foresh
##rock
stend
stif
static
stains
stale
stored
stagger
stoner
stamps
##eting
##idia
notions
notwith
anom
angu
anita
wein
weep
asset
ascer
comedi
##irts
##irming
##imps
##imony
##iem
##kebox
##thur
##through
shu
shit
shaken
ligh
livel
lips
likable
##illard
##illance
semb
sega
sod
deform
deme
demented
conan
conqu
##ils
##ilated
##ilian
alast
alittle
alvin
##essa
##essional
neop
nelly
exting
exiting
exquisite
exempl
##ules
molly
mozart
##river
##rium
##ppings
##estro
##ckers
sug
suf
sux
dope
doig
dosen
heal
hefty
ate
allot
allies
ortu
##oli
##olin
##olved
prong
##antis
##usa
mega
abb
abra
abys
##opol
##opies
unle
unch
unity
unab
unite
unful
unthink
unrest
unamb
canyon
plac
plumer
plastics
plentiful
amd
amid
ampl
amoc
amused
ammun
##umper
##reating
mack
hast
##ciously
bye
##osystem
##ardon
leo
leis
lever
outset
timson
timeline
trim
trance
troop
##ections
##elope
##ounds
##aug
##apid
wholly
complying
cox
coach
coating
copper
disbel
disorgan
imitation
adver
advers
intact
quas
quint
quee
quilt
fever
maniac
mancha
recre
recur
recoll
recourse
taut
tajik
##igm
##igious
agu
aggra
yourselves
clause
clif
claud
clueless
##pts
firth
interfer
##abet
##uda
##ivable
poets
polem
overload
overwr
overbl
overex
scour
scars
scales
bett
muffs
knitting
impat
impart
impract
imprison
peice
pecul
peek
##berry
##berts
##berto
prey
prete
prelude
safer
presum
##fulness
shepard
spear
spears
##qued
##queness
pero
perry
perme
regimes
regina
offs
offici
sayin
##enses
twain
underway
##tec
##epth
stray
strick
server
backward
instig
spi
spur
spiel
spiders
endors
gull
hire
bras
brun
filters
blast
blink
blake
blush
blamed
blowers
blanks
blaise
thresh
madeleine
muscle
mushy
repress
recommendable
hok
hoot
hoax
hocking
realization
realizing
realistically
mayor
highway
watchtower
cring
crust
crus
crink
crushing
crashing
crammed
##cessarily
remarked
marble
marath
marvellous
192
##ubbed
travis
concur
emo
emblem
emmons
monstr
smear
smiling
decay
indepth
purport
seeming
downward
##phlet
##ocative
##ocused
funeral
similiar
extensions
hardest
farris
beforehand
joanna
obsole
helpless
authorization
authoritative
##ibil
classified
attitudes
discarded
lotion
showcase
additives
subordinate
##develop
borred
differing
cheat
cheers
chefs
relies
counties
ecosystem
glover
glove
gloom
glasgow
phases
completing
insulation
letdown
carbs
carbo
slapped
slaves
##aco
##acion
apath
apology
edward
edgy
schure
schne
plotted
economical
bothers
##beck
legality
questo
evid
evry
singular
invo
laan
laos
lessen
llam
lloyd
##eez
##eeee
confuse
defines
detached
interestingly
familar
famili
expir
characterizations
covert
possess
stuart
1990s
entity
enticing
dragging
assurance
curves
poorer
staring
starter
restless
sitcom
##mostat
standby
specialists
sky
skilled
costello
misspell
refl
referend
cameo
##parable
##ologists
termin
solar
replies
replaces
clearance
madison
crave
carey
christy
christians
truehd
larrea
rediculous
urged
urbervilles
dealings
meda
medications
colt
colum
coloss
portability
ageing
infamous
culturally
##engut
centr
freed
##psd
append
payed
freezing
lineup
packing
servants
prominent
meter
meticulous
supergl
superhero
admired
admitting
##gani
passions
paperport
paperweight
##gyzstan
##ieri
annually
situated
paste
homeland
estimate
##ccable
raving
boxset
audi
youngsters
respectful
reformat
ensures
buds
swall
swings
swords
##factory
##aneous
practition
practiced
sentin
sentiments
forwarding
forwarded
garth
garlic
gargani
2012
immoral
imminent
cheapest
romances
romania
##isingly
failures
erad
remembering
ache
steep
comforting
morgan
morison
breakthrough
1986
1980s
caving
cautionary
hari
harrow
harbor
harlequin
motives
midnight
additionality
visas
module
misled
devise
whitey
whiteley
negatives
limb
limiting
shipper
boyc
##ricane
moderate
foodstuffs
statues
hugely
fantastically
arriving
fairness
patron
combinations
cooler
photoc
##enchant
businesspeople
modernise
labian
snack
snake
snacks
soundsc
menus
screening
standardisation
successive
sleeps
uniqueness
extrav
energetic
guiding
burner
##regard
recognizes
radically
radiation
eleven
holt
##archical
referenced
custody
clauses
husbands
havens
weakening
investors
dancehall
offerings
deserving
macbook
drawer
beatrix
conviction
eventual
typo
appreh
potente
sorta
##neyed
thanksgiving
spirits
forgettable
##player
similarities
irres
illustrator
merger
meroving
meredith
historically
historians
jealous
nato
sensational
football
viable
deepening
richest
conditionality
forcefully
drove
melt
melan
melted
traveler
traveled
inspires
professionally
dreamers
hateful
renaissance
##scope
frontal
credited
suspence
suspicion
biograph
bikers
biographical
vanessa
predicted
circa
circus
tourn
tours
commenting
commented
consumption
gentleman
groundhog
lays
billie
pete
petite
petty
##anni
##umbles
momentum
finalised
milestone
tunnel
##cuted
females
centralisation
wallet
thinner
kingston
pills
pillars
scientif
brilliance
hurting
netfli
banana
banotti
waistline
troubled
letterbox
explaination
cinch
closes
machinery
mounted
pumped
scanned
campy
criticised
criticising
scripts
explanatory
violation
penelope
palm
palatable
floats
demonstrations
dennis
undone
alternatives
specifics
emphasizes
fables
participating
delights
liberals
stresses
landed
speeds
legislate
shirts
balls
caveat
regrettable
1800
telecommun
consisting
attachment
sampl
bowed
unease
uneasy
shocker
updating
goldsmith
psyche
psychedelic
cali
160
franco
embra
drafted
nationality
interviewed
highlighting
unfocused
igles
mentor
submissive
instrumentals
1960
1965
simplification
racing
exercising
farmer
obliv
tasteful
ipad
mailed
premature
deskjet
frightened
coordinating
tables
steelworks
renewed
subsidy
hesitation
shopaholic
chemists
comprise
containers
variations
lifeless
doctrine
archive
sympathize
unbelieve
adaptability
grades
beautifull
virtuos
masks
masters
1976
1977
consultations
consultative
alternatively
associate
unusually
spotlight
surrounded
gama
omissions
omni
intentioned
intentionally
clarke
permitted
permissible
pursuing
luv
moody
compatable
compatability
coastline
qualify
qualitative
ethn
mirage
rattle
reinforcing
stormy
anthem
flashbacks
assumptions
frequency
toned
tacky
heaters
hasnt
repairs
flowing
flowery
secretary
investigated
investigative
buried
bounds
nicolas
recovered
karate
visionary
exposes
phrasing
distributor
elevate
ironically
puns
punishing
sights
sighting
solemn
compromised
emerged
emergence
galang
##hhh
excessively
murderous
malt
dismissed
cycl
jukebox
smartmed
mislead
tolerated
weapon
upsetting
acquaint
revolved
hatzid
##aldon
awaits
hypnot
cleverly
begs
bankrupt
nutrition
railways
##history
semit
blinds
syrians
disciplines
mutilation
proofread
crawling
visitors
towels
enormously
accompany
divorced
microphone
owes
sleeper
intensely
paranoia
eligibility
medicines
westerns
astr
ryth
roughly
locking
recalled
insulted
hinted
delegates
evolved
engineers
enthusiastic
enthusiasts
brio
fingern
vendors
formulaic
witnessing
fishermen
chests
clicked
editorial
advisors
cowor
retained
insisted
motivations
optimism
rhythmic
##glass
concealed
conceived
unbiased
dispro
evaluate
exclude
dictate
rosie
sara
atlanta
pronounce
decorated
innocence
folklore
stretching
nuances
sd8
##movie
vocalist
lenses
inadequ
seamless
abstained
##unctionality
dusty
pedal
stunningly
backpacking
1957
1950s
absorb
romano
ilk
vigorous
renders
cancel
resorts
resorting
declarations
boosting
0107
0105
0104
muddle
injured
shredded
proportions
preachy
preserved
settlement
approximation
eldr
##falls
scraps
bitterness
postpone
layouts
observe
contradictory
079
axe
lasch
##ypse
##yyyy
necklace
incomes
filmmaking
surgical
certification
continental
occupied
exhausted
gabaldon
pamphlet
##burg
bends
detracts
drumming
trends
hypocrit
8500
dorothy
wiccan
##warming
thermostat
toddlers
##strom
ankles
conjug
outlining
buzzing
precedent
gratifying
penalty
penalties
condemnation
insecure
elles
lynne
rusted
##paid
hackneyed
##ulterated
facility
memorand
memorial
lawyer
illuminated
enhancement
stabilise
bogus
cadiz
dreck
vince
yello
throats
reiterated
stitching
stitched
angela
percentage
apologise
detrimental
devastated
drowning
phrasebook
hulled
license
stalin
defeats
choreography
champion
docum
intensify
reserve
prefect
marginalised
confrontations
misunderstand
misunderstanding
misunderstood
autobots
mckellan
davey
gimme
geek
jargon
jacob
jacques
munich
pulse
ribbon
sabbath
zombies
foresight
stimulating
deceptive
alphabet
intimidating
twenties
assassination
cumul
gnostic
paganism
##donald
geneva
caribes
exceeded
colonial
distinguish
soulmates
robbery
sixty
paradoxical
astonished
astonishing
linden
sourdough
vitam
conveys
prestigious
abolish
adhered
betrayal
trauma
traumatic
discourage
discouraged
apocalypse
chrono
goddess
goddesses
inefficient
unequal
unsatisfying
unsatisfactory
neanderthals
avenger
gorilla
rudy
butchered
selengut
exhibitions
henderson
abruptly
arrogance
muffled
transposed
saddest
constituency
basketball
ddr
litecubes
pantyh
thyroid
rebellious
staple
steady
imbal
contravention
sponsored
hierarchy
hierarchical
markings
assertions
capitol
photographer
jeopardise
escaped
uninstalled
hampered
mesmerizing
inquiries
bisquettes
cigaret
coupon
fiddle
hmmm
hannah
nanci
sceptical
tatum
umbra
reversed
havn
aspire
deffin
lobbying
recommened
overriding
scorched
sacred
brooks
restocking
mathematical
gypsy
intermittently
sacrificing
pooch
tolkien
whisper
unavoid
plasplug
recomment
clunky
peanuts
undergrad
spillage
marinho
surveillance
bracelet
renovation
unconvincing
hypothesis
ventriloquist
kaufman
unquestionably
indifferent
2k3
aldous
atheist
cavalry
hodge
josh
mambo
pulsating
sjosted
thrive
inadvert
conferences
plodding
compliance
adjour
quilts
recapture
arduous
disclosure
discomfort
carrier
lavish
curtis
indefinitely
snooze
complacency
multifunctionality
penetrating
dinosaur
resemblance
unforgettable
troubleshooting
crippled
bosn
kenneth
mascul
nylon
olymp
rampant
santana
saints
sardonic
venezuela
yahoo
atleast
prynne
unadulterated
disintegration
impeccable
acrobat
parallels
spiegelman
brooding
emperor
mincemeat
phoen
phantom
corkscrew
excerpts
portfolio
supervisory
banderas
enshrined
limericks
statistical
elephant
trademark
recyclable
seminars
##viiith
database
unprof
gasoliba
pilgrim
pedestrian
aureliano
deregulation
bisexual
ethernet
fsol
frodo
iogear
kyrgyzstan
kundera
nvidia
nietzsche
ounce
piaa
vomit
vivendi
wizard
yiddish
thailand
thyssen
tommy
belleville
stendhal
notwithstanding
comedians
extingu
ortuondo
unabridged
unfulf
unthinkable
unambig
amoco
ammunition
disbelief
disorganized
tajikistan
claudia
overblown
impracticable
officially
spielberg
threshold
monstrous
obsolete
schneider
familiarity
misspellings
referendum
colossal
superglue
netflix
smartmedia
hatzidakis
pantyhose
sjostedt
04
3x
4x
4pin
5b
52
510
79
74
93
ak
aer
aptly
bf
bic
bim
bast
bose
bick
biting
bont
biod
bunk
bino
cie
cite
cud
cip
cries
css
cakes
cien
cze
cunning
citations
cpu
ding
dion
dall
dul
dand
ditt
dime
dane
dcr
dumps
dds
ea
ez
epp
efor
eax
e200
fas
fow
fars
fug
fury
fading
fidd
fern
faux
gf
gin
gould
gate
gird
gats
gases
giff
ggm
hust
hub
hating
hark
hired
hunk
hoop
hiring
hulk
ic
iw
iz
ices
igu
iza
jake
jumble
jvc
jeez
kl
kg
kb
kle
kong
kans
kale
korn
kino
kris
kittin
lt
lg
lore
lick
lament
lars
lense
lying
lush
lds
mct
mate
mick
mph
mia
mmmmm
mumbling
nj
nas
nay
nim
nint
npr
nina
nuff
oily
ocr
pp
pes
pall
pess
pend
pita
poul
penchant
riv
ratch
rimes
rca
rarities
ses
sce
sul
sper
sade
sny
tm
ting
tut
tam
tide
tuck
tires
tarant
tensions
tcm
umm
vas
vid
vand
vang
vino
vault
vested
vallel
vapid
wt
ware
wool
wired
wright
waking
wma
wulf
wenzel
wiped
xs
xps
xero
xml
xuela
yaz
yug
zap
zod
zoot
##ae
##auth
##afe
##average
##uld
##uated
##uating
##lan
##lain
##lash
##lime
##lists
##label
##tv
##tw
##tting
##tml
##nan
##nth
##nally
##nect
##nacle
##ders
##dale
##disc
##ez
##ean
##eble
##eenth
##cin
##cor
##cen
##cist
##cop
##cap
##cult
##cension
##course
##hov
##hanger
##hael
##holic
##hops
##hole
##sula
##rer
##rin
##rity
##ritt
##pers
##pine
##pins
##iot
##iere
##iks
##iopia
##vd
##vol
##vating
##vada
##kan
##kirt
##wa
##wing
##wre
##wich
##wiz
##wave
##gia
##gues
##gling
##greg
##garity
##garten
##ya
##yton
##ypes
##ympath
##mon
##mat
##mal
##mad
##mill
##mod
##math
##mills
##music
##bn
##bid
##bos
##bach
##build
##zog
##fice
##fue
##fare
##fler
##85
##05
##600
##jan
##jack
##34
##xon
##xim
##55
##500
##44
thour
thumping
##eration
##erable
##erick
##erating
##inart
##inav
##inbeck
##ndas
##onia
##onne
##atow
##atur
##atter
##atim
##atus
##atos
##atia
##attering
##orem
##orical
##orph
##orously
##esed
##esse
##isan
##iscu
tod
toxie
##edo
##eded
android
##itas
##itel
##itates
##itology
##itiously
##reen
##reted
##rels
inher
injust
inaug
##anu
##anc
##ancial
##aro
##arish
##arned
##arming
##arians
##asive
##asia
##icrous
##omba
ish
##ionante
ree
reall
reich
reap
rete
recept
rebe
relying
reaff
##lex
##leased
##velled
bef
bees
beck
bender
##utoy
##sta
##storm
##static
##stril
##entions
whin
whas
whack
whiny
whipped
##ooo
##adio
foret
foray
forew
##rose
##rolled
##roads
##ropol
##roscope
stove
stained
stern
staunch
##section
##semble
##etor
##ldon
youre
##idant
##ghan
##ayon
##chain
##change
##chief
haul
##vere
wast
notify
noticing
##urm
##uration
##urities
##urances
##urban
##celon
withstand
##amos
##amount
##ameless
##amba
ana
anarchy
anonym
anasta
weaver
ashes
comitology
##irable
##imer
##imeter
##ieu
##keep
##keys
##that
##thought
##thouse
##thew
shove
sheds
shaky
lia
liv
lied
lily
liik
prow
prog
proles
profic
proxim
##illi
seas
sender
seper
seats
sealed
deer
deed
dept
deities
decks
deuts
chi
chin
ches
chill
chess
chomp
chipped
chops
choler
choral
chords
chanting
##ilitation
als
alm
align
alav
alger
alpine
alarming
##essant
##ersh
##ersund
neut
exh
exile
expelled
exotics
##ulz
##ulas
##ulatory
mock
mosh
##riger
##estation
##rav
##rack
##raine
##emen
##eminate
suite
suits
suitably
sudan
doh
dost
doone
dockers
fray
frames
framing
frameless
heil
hehe
ally
allig
allusion
##orting
##olab
##olby
prist
eno
enters
##istocr
##uso
##usai
meand
aber
abused
##oped
##opath
##opular
##erell
##ichand
unic
unnot
unset
unload
uncut
unappe
unlaw
cann
cans
canal
willy
pliers
##unken
##unciation
##reates
mais
hasta
hasbro
##artum
##osl
##osity
##osph
##ardo
fromm
commens
commod
commons
commander
nostril
justifying
justifies
justifiable
outwe
outback
timid
trish
trully
##actively
upt
upright
upsets
##auer
##astrous
compiled
coin
##heres
diving
dives
##acking
disill
disability
dispose
dischar
displeas
disastrous
imf
imho
adren
intel
##ouses
##oused
quo
quad
quess
timefr
feared
manni
workmanship
recount
tai
tapping
becau
becuse
agents
agressive
thang
clit
cloy
clown
clues
clank
cloning
##pton
##uelle
##plots
intergr
intercept
interplay
interior
interchange
##abilities
artec
aristocr
heros
herman
herland
herzog
wrt
wrist
resent
resid
##ivor
poking
overha
overtones
overkill
overpaid
muz
knox
knobs
teaser
##lip
##liver
peyton
##bering
##beral
##perienced
sailing
presupp
fait
##ultaneously
aforem
sheldon
spec
speedy
needy
newton
newborn
##assing
afterward
aftermath
##quet
perks
pervas
perplex
##gren
##grade
##ensation
##ensored
##ifier
##aching
parable
parody
paraph
##formers
incl
incumb
incessant
appalled
underated
underline
underwhel
undergone
underdevelop
##derman
##teenth
playset
playboy
playlists
designing
backst
spor
spun
spheres
endured
endanger
gras
grill
grun
grish
polished
hi8
hips
brid
bram
bride
bromin
rox
roxy
roberts
blot
blair
blunt
##aceut
##cesful
repay
repack
fina
finer
##odd
hobby
realm
realisation
mayes
kevin
keeble
##weet
stills
watcher
crist
crass
crane
crank
crush
cradle
crayon
somber
goth
remedi
marries
trait
tracing
traction
travi
tragically
emi
emil
emman
embed
eminently
longing
consigned
musica
musically
monty
monkey
monitors
##appily
smug
effeminate
belts
belkin
purity
songbook
songwriters
flush
downt
downer
soundly
terra
##ocating
seth
simulated
simultaneously
thoughtcrime
matured
matthew
farther
listings
transcription
authorise
authorising
authorisation
authoritarian
classy
classed
defen
defint
deflation
default
defiantly
discern
discourse
discreet
discrep
lotter
showcases
sublime
suburban
subplots
worldview
accol
acclaim
##dez
borner
genious
genres
genetic
cheep
relent
relieve
relieved
relaunch
boast
fok
foil
counts
syl
eclectic
eccentric
glimps
##entioned
persist
phasing
philly
##posed
completes
insin
insign
insoles
disappointments
##utely
carroll
caruso
informs
slaughter
origan
##licit
##acer
##acci
commune
communaut
communicated
apatow
eden
edwards
effected
warped
favors
favourable
directs
directory
elves
schulz
##ugging
##asonable
differential
differentiate
providers
plotline
kindly
kindling
##bec
wax
waves
legible
handover
invites
invitations
##atern
humili
##iendo
lawn
awfully
horos
idealistic
basing
basset
bassets
definatly
worded
demol
demographic
formulas
famine
expound
expire
expier
exported
characterised
politician
camps
avc
avatar
returnable
entren
powerfully
tyra
tyran
futures
drained
assim
curved
requiring
##kened
cork
coral
grahame
reasoned
placement
followers
histoire
##iov
##iold
chrom
starred
starters
drench
hopeless
workshops
specialized
ski
skimpy
skimmed
##pres
##prus
costing
governed
missions
refin
refere
refute
refusing
refriger
especial
bravery
mindset
mindcrime
excuses
lighten
treatise
##rences
solana
solitary
##ella
##elling
##ellig
probable
bros
craig
caret
shorts
shorted
valdez
condensation
rede
reduces
meanings
ursula
stylus
kidn
kiddie
agendas
untr
controlgel
creb
crease
freer
freaked
affili
publicised
schoolers
number17
freezer
indebted
packs
packages
behave
behaving
priest
breasts
metric
metropol
humankind
supermarket
admits
admissible
regulated
passable
password
textures
pastor
##worth
wrongly
bedtime
subjected
subjective
etched
etrust
##inationals
##cca
environments
pickerell
##retched
boxing
copied
nonf
paige
discusses
audible
audacity
measuring
huck
respectively
barcelon
messes
heartless
heartache
heartwarming
succesful
swiss
##umped
fours
nationalism
##ports
fastforward
entertains
garmin
increases
2013
roma
expresses
expressive
expressions
err
erg
erased
erdf
delve
delors
delta
delinqu
imagining
achingly
achieves
satir
steinbeck
rockers
learners
morally
morons
moratin
morbid
1987
cafe
harv
harbour
motown
midwife
additionally
watering
waterway
sexism
modification
misn
miscast
misrepres
mislabel
testimony
devil
devoured
thirds
adopts
occass
selfish
darkest
impressively
##bral
installs
installations
weekly
cooling
coolest
rulers
eyre
lowers
##aha
labs
mastering
masterfully
snipp
judd
nora
gregg
mennon
standardised
existance
existential
successes
organizing
organizations
sleepy
sleepover
id3
favourites
contributor
priori
predator
energ
posters
128
125
1215
recognising
accords
preclude
doubles
doubled
roomy
faceless
operatic
volta
inflatable
elegance
laughably
plugging
50running
shovel
shopped
enlarging
risen
##ourably
stoker
winds
plaus
annoyance
populism
##apel
reminding
notebook
summed
bald
beatty
convictions
keychain
sixteen
##ethoven
humorless
typing
connectivity
potent
potty
potentially
potato
rucks
guideline
multip
multitude
multinationals
##poraries
spirited
forgets
forgetable
sticker
merry
mercan
merritt
welcoming
danced
haunt
vocally
blueprint
jeans
jehov
natal
puer
puff
senses
sensus
scaring
viet
viability
viii
deepest
geography
heroines
revital
revlon
40gb
swept
pulley
melting
professions
hyd
hyph
renie
renown
spiritually
immediatly
frontier
suspic
suspens
vanilla
predicting
italians
circular
selective
smoother
smokes
smoked
smoker
grandma
identities
identifies
touring
commentaries
answering
tightening
grounded
millionaires
peters
peterson
##umburg
255
ps3
0018
fascist
fascism
transformed
milan
milton
tuning
tuned
tunnels
##cuts
weighting
booty
utility
philis
babylon
babymother
wallpaper
wallstrom
inept
tenets
tennis
riot
ripp
riff
rivers
temps
tempor
##ievably
uncensored
preferable
preferences
guidebook
brillant
montreal
hurl
hurricane
salient
seasoned
sectoral
banner
bananas
fiber
fiance
fiasc
joys
tasted
##heads
1115
turf
turchin
magically
smelling
lettering
directorates
msi
closures
divo
divine
benefited
fragr
fraught
0004
nearest
nearby
appearing
complexities
educate
educators
pleasures
pleasurable
##boarding
sharon
sharper
violate
violations
catag
penn
penns
rapes
raped
raphael
veritable
obsessive
denver
denounce
autonomy
berry
undo
##culation
firmness
emphasising
broaden
broadly
broadest
delightfully
arguably
transferring
landmark
functionality
protective
stocking
stockhol
primal
unreleased
unreasonable
##ummed
trusting
climber
rhomba
tarn
briefcase
deterrent
civilized
186
18th
prospective
capitalize
flexibil
ducks
musicals
forthright
striving
feeds
fished
degener
leakage
artistry
hunter
hunted
hunger
hungar
calib
wildly
wildest
wildlife
suns
mcle
mcgu
mcnally
##shell
franz
antiqu
compares
twisting
portrayals
dryer
homophob
homogen
optional
prague
praetor
unfav
1700
##maid
concentrates
concentrating
maintains
vibes
separation
240
cros
crop
unsafe
unsympath
magnon
magnet
magnets
magnetic
spanning
1960s
simplifying
davis
davies
exercised
assessed
##ridge
freshman
impacts
premiere
crispin
occurrences
smoothie
tabling
jeanine
renewal
synops
chairmen
container
responds
destroys
sustainability
methodology
undertook
variation
congratulating
lifel
lifting
archives
archaic
archae
harmonised
harmonica
candle
ww1
shuts
shutting
unbelievably
adaptors
physi
virtuous
linus
masoch
villian
villains
1979
consulted
circumstance
darwin
martian
sturdier
belonging
belonged
ministerial
warrantee
survivor
gaming
oui
ouch
clarifying
permitting
evils
dicken
jerome
jerks
coasts
contemporaries
translates
translator
ethics
ethiopia
ratify
rattling
flashes
flashdance
commercials
repairing
350
scarlett
prosecuted
prosecutors
incorporates
kara
karin
wedge
exposing
quebec
elevated
eighteen
gripe
pinpoint
punct
sighted
complications
labeled
scratching
compromises
santer
compel
conductor
superbly
dumbest
gald
higgin
splinters
disciples
charterers
immigrant
murderers
watt
dismal
flora
florence
flavour
crafts
censor
censored
cycling
tortoise
##enzie
unnecessarily
affords
afforded
observance
airbeds
flynn
panel
panning
panned
panels
staffing
atmospher
hypn
categorized
shakespearean
dedication
routines
torque
##brex
prompted
bolster
beggin
proudly
mathies
ghostly
lamest
lambert
nutshell
tangible
logically
blindness
subtraction
conventional
disciplined
awarded
dresses
streamlined
quietly
launching
bizkit
cakey
erik
refresh
anticipating
microsd
222
22nd
owl
slee
widest
widening
depicting
depictions
tibetans
astounding
gardener
iceland
ryu
ryder
wisely
reliability
unpopular
courageous
eroticism
leslie
rotate
rainbow
vividly
suprisingly
novella
disappearing
overlap
trainer
evolves
competitors
radicals
inexperienced
campaigning
enthusiastically
brien
deriv
deriving
shouldnt
horrified
nightmarish
republican
noshame
isolating
dishon
disparate
distorts
distorted
distraction
victoria
temperatures
executives
porridge
quantum
wheeling
wheelchair
diabetics
hdmi
retains
disposing
peppered
subtlety
expands
gyroscope
vessel
##idoscope
hammers
hammett
conceive
orchestration
unwilling
dispute
disputes
workouts
scandinav
parenting
remixed
conservation
suspected
gangs
gangsters
gangsta
patched
##after
anxiously
atlantis
disapointing
disapointment
obstacle
graceful
salesman
blending
federalist
pianist
vulgarity
##uracies
diagram
obscured
fairygod
infrastructures
infrastructural
ingredient
plato
coda
overwhelmed
shelley
friendships
celia
rumor
buffoon
1956
detector
detected
detectives
advocates
squeezed
squeezing
cfa
nominees
rereading
resorted
perpetual
perpetrators
brutality
miniature
admirer
admirable
celebrex
dhtml
forefront
compressed
buendias
preaching
marvelously
settlers
bobble
interpreting
bait
baal
pornography
diseases
scrapped
scrapping
sparkling
horizon
horizons
freaky
postponing
postpartum
observer
tubthumper
dudes
festive
hitchcock
ivan
##creens
inputs
scottish
previews
undermines
undermined
filmmaker
1948
1949
fluence
certified
occupation
minimalist
benchmark
gilberto
lucid
pamela
inaccuracies
bending
weighs
weighing
unaware
manipul
manipulation
wrestle
persuaded
fragment
fragility
hypocr
accomplishes
accomplishments
athena
bunyan
bonde
bonds
cyber
cyprus
doran
inhabited
##strong
conveyed
outlook
dissect
intrins
herbal
prejudices
gratitude
puritanical
restaurants
sweaty
martini
dismantle
nephews
seduction
##lamation
comedies
lifted
seventeen
molds
savage
memorize
1930s
transmission
evoke
evoked
principally
illuminating
stabilising
stabilisation
navigation
celebration
celebrate
celebrated
loyalists
reprinted
cousins
lorna
nicholas
nichols
voyeur
##oku
##financial
##ariat
parameter
parameters
supplementary
glossy
apologize
miserable
spoils
verbal
verbally
verbatim
4600
dumped
dumpster
hulls
licensed
licensing
mbpsd
rpm
rpgs
shifts
sofa
defeat
unforgiving
reserved
marginalisation
trafficking
cleanser
transcends
transcendent
confrontation
oppressive
ridden
riddled
vibrators
##hhhhhhhh
acquisitions
prophecy
cushions
giver
korea
pioneering
ribs
bells
stakeholders
fruitful
tranche
compartments
adjective
sacrifice
retroactive
retroactively
earbud
assassin
snugly
catastrophic
disrespectful
bombs
dunn
lagwagon
tantrum
tantamount
thirteen
frederick
unintellig
lecture
clinical
persecution
offended
paintings
scrutin
robbie
reinstall
incompetent
powder
vitally
wreck
##uuuu
chainsaw
chunky
conveying
conformity
presto
abolished
copeland
clouds
betrays
peeling
reproduced
configure
earnest
superstar
superstate
mistakenly
disgraceful
rebooting
gaudy
looses
nominated
ostensibly
##metal
whiney
doomed
bytesaverage
bytesdisc
upheaval
prescribed
perceive
crooks
crooked
##ocratic
transposition
attributed
redistribution
distressing
metallic
hysterical
psychohistory
ambiguous
scholarship
cocktail
austen
glean
hottest
jiggle
mitig
mitutoy
nipples
varying
trucks
disguise
poisoning
sponsor
carpent
carpets
retrospect
surpassed
airplane
breakdowns
patriotic
snoopy
postcard
duplicate
counterpart
counterparts
alexander
symphonic
certificate
inconvenient
inquiry
512mb
nanny
ropes
thsi
rejoice
annotated
chapman
churning
bundled
resurf
resurgence
ponderous
mushroom
eloquent
eloquently
infinite
cooperative
dogfights
256mb
undesirable
subscriber
deteriorated
discriminated
gypsies
intermittent
excruciatingly
hilton
kinky
pussyc
pierre
sneak
wieland
islamic
stunts
ancestors
succinct
dodge
lexar
lovable
arrows
perceptions
attorney
attorneys
cheezy
province
lauren
explorer
infectious
prioritise
voltage
captioning
verdict
unpredictable
unexplained
melodrama
melodramatic
athletes
athletic
gopichand
kilmer
lyric
ludicrous
lanka
mantra
tidbits
veteran
xxviiith
ingenious
reissued
dossiers
dialouge
intersting
tweaking
monologue
discription
syllables
communicates
demagog
debunked
colombia
drifted
epitome
architecture
sarcastic
synthesizers
entrepreneurial
cherryh
pixelated
autobiography
telescreens
pirates
silliness
vignettes
##casus
##product
exterior
atrocity
unedited
maiden
adolescent
strangler
instincts
pharmaceut
retardants
kindergarten
rediscovered
distasteful
painstakingly
macarthur
tomatoes
beneficiaries
catalyst
slippery
counterfeit
unintentionally
unequivoc
avalanche
loopholes
chumbawamba
caucasus
creek
dribble
eerily
mitsuda
mammoth
nurse
nashville
oxygen
p1000
zelia
##hagen
##54g
toilet
rehabilitation
beauregard
staggering
liveli
semblance
sodium
neopagan
sufism
prongs
abraham
abysmal
unleashed
plumeria
mackenzie
hastily
leisure
quasi
clifton
scourge
bettie
pretext
presumably
stricken
endorsed
bruno
hokusai
llamas
reflux
columns
centrally
sentinel
eradicate
harrowing
labianca
extravag
merovingian
biographies
telecommunications
sampling
unbelieveable
astronomy
rythm
documate
misunderstandings
cumulatively
vitamin
cigarette
plasplugs
inadvertently
adjourned
phoenix
unprofessional
pilgrimage
unambiguous
bickering
binoche
cielo
cienfue
czech
dallas
eforcity
gatsby
kansas
kaleidoscope
larsson
nintendo
pessim
ratchet
tarantino
vanguard
vallelersund
xerox
zodiac
##wreck
injustice
receptive
rebecca
forewarned
staunchly
anastacia
liikanen
proximity
cholera
alavanos
pristine
unappealing
unlawful
commensurate
outweigh
displeasure
adrenal
timeframe
overhaul
presupposes
aforementioned
incumbent
brominated
remedios
traviata
emmanuelle
glimpses
communautaire
tyranny
barcelona
delinquency
moratinos
snippets
pennsyl
stockholm
unsympathetic
synopsis
atmospheric
mbpsdolby
mitutoyo
cienfuegos
vallelersundi
09
011
020
4gb
5l
56
5x
54
5yr
69
83
9v
aver
akin
aura
bm
bion
bot
bess
bere
bart
bard
boun
bitten
bark
bots
baw
barker
bumbling
bouncing
bummed
cg
cz
c3
ces
cot
cet
cough
cade
carly
citing
cee
cav
cuc
cbs
casc
cyl
dg
dm
dood
dong
dab
dag
dine
dys
dross
dank
dah
dores
dyl
dagger
eh
eq
ein
eure
eros
egom
elicit
fart
fable
fag
fated
fib
fals
fath
fert
fades
fudge
fencing
fizz
gt
g7
g5
gust
gour
gins
groom
gros
gomes
giov
hs
hr
hive
hong
hud
homm
hush
hunch
hires
hems
hemic
i4
ich
iam
ick
jc
jin
jess
jol
jum
jak
jog
jets
jett
jumbled
jaffe
jsp
jitsu
jello
jiu
kr
kre
kap
kia
kath
koss
kins
kush
kinks
kung
kaf
krets
lance
lull
loth
lug
lined
lung
lanes
md
mk
mx
mong
mast
mics
mute
munch
mumbled
nit
nad
nce
nag
null
nancy
naming
nails
nappy
ninth
nhl
nappily
ot
ood
ode
ocil
opend
ogins
oreal
oliver
pt
pm
pis
pau
pitt
pans
piz
pious
pip
pics
pund
pave
pots
pains
pane
pont
psc
pyn
piled
pimp
p15
pvc
pardon
rn
rite
rans
rif
rider
rote
rav
raged
rained
rife
rina
rma
rasp
ranting
riley
sx
sould
sie
sate
sine
sult
sany
sinks
saud
sissy
tand
tint
tink
tens
tatt
tico
uh
uppers
vil
vra
vitt
vance
vents
vale
vcd
vida
wir
wich
wart
wif
wip
wives
wits
wik
wmp
witted
wisc
wiring
wye
wimpy
wretched
yi
yall
yose
yves
zing
zep
##aid
##aul
##aica
##uy
##ugh
##uery
##uven
##uber
##uzz
##lot
##lity
##lics
##lining
##leness
##lords
##logue
##tz
##tin
##tic
##tens
##tte
##tub
##tably
##tru
##times
##tale
##tales
##oine
##oord
##oaster
##ogram
##nen
##nut
##nate
##normal
##nostic
##den
##dem
##dome
##del
##dish
##dling
##driver
##eb
##eous
##eber
##eful
##eins
##cet
##cord
##cogn
##cakes
##cusable
##clectic
##hough
##hler
##horn
##hoe
##hrs
##sx
##sound
##saw
##sky
##rg
##rat
##rom
##rir
##run
##rics
##riction
##rising
##pro
##pful
##pace
##pix
##pret
##pices
##iro
##ike
##iary
##iors
##iably
##iversity
##vil
##vial
##kh
##kke
##kree
##kok
##wan
##wall
##were
##watch
##wild
##wash
##wling
##wax
##woven
##walk
##gal
##gly
##gol
##gus
##game
##gap
##giv
##gass
##grow
##gio
##girl
##graph
##yu
##yo
##ym
##yre
##mot
##mate
##mite
##mission
##mire
##mph
##matic
##mium
##makers
##marked
##bar
##but
##bet
##bain
##bable
##burn
##bial
##bility
##bug
##bett
##binding
##binder
##zon
##zor
##zger
##zmann
##fu
##fat
##fed
##fut
##fet
##found
##free
##fuly
##figer
##8a
##19
##14
##110
##ju
##jo
##38a
##xx
##700
##210
##58
##52
##533
##98
##ºc
thom
thia
thug
##erge
##erment
##erog
##erning
##erres
##eridge
##inion
##inci
##inable
##inates
##inational
##inished
##inidad
##nde
##nds
##onizing
##atble
##atri
##ativ
##atories
##atley
##ora
##orial
##orio
##orient
##esies
##esia
##escap
##ouls
##isance
##isical
##isational
##isenberg
##enc
##enco
##encers
##enhagen
token
##edged
andy
##ito
##iti
##itical
##itlement
##itake
##rella
ina
ing
in2
inund
inward
inert
inquis
##anian
##around
##arach
##arism
##lls
##llite
##lliv
##asue
##asph
##asement
itag
itwas
##icent
##icone
##icating
##icia
##icles
##icatble
##omon
##oming
##omed
##omix
##omination
ism
isle
ispa
isabel
isbn
##ionage
reas
reim
reop
rework
reorgan
##velling
##otage
##otry
##otomy
##also
bead
beet
bever
beans
beep
bebe
beeping
beasts
beethoven
bewild
##utter
##utally
##utors
ons
onion
onset
##sto
##stro
##stant
##state
##stown
##stones
##sticks
##stairs
##steins
##enta
##entin
##entary
whad
whore
whos
whites
whaa
##cters
##cturn
##adas
##adia
##addle
##adakis
##lyn
fors
fork
forge
forged
foref
forrest
forerun
##rov
stut
stong
stag
stare
stile
stee
stair
stats
stunk
stoned
stunt
stumble
stumbles
stodd
stumped
##sex
##send
##etend
##ething
##etics
##idy
##owitz
##ayann
##cht
##chon
##chase
##chism
##chron
##chmann
##chiold
haph
haired
hamb
haley
hagger
hapless
##vering
##ithers
wastes
noting
notices
nothin
##uracy
##celain
withhold
withstood
##ami
##amaged
##amorph
ani
anach
anarch
anemic
weeping
weaved
ascending
comically
combs
##alleng
##irting
##pez
##pelin
##imedes
##iever
##kee
##thon
##thal
##there
##thorn
##throp
shes
shout
shud
shog
shave
shank
shah
shuff
lik
lib
liar
prolong
prologue
sev
seed
seated
seiz
seens
seism
seized
segu
sealing
sock
soars
sooth
soles
sobre
soothing
dement
deus
deux
deception
chal
chad
chass
chiron
chases
chival
chimp
conse
concess
conced
##ilm
##ilib
##ilater
##ilitating
alab
alia
alsth
alerts
##essential
##blend
##erschiold
nec
neb
nell
neill
nevada
exs
exited
exiled
exxon
exacer
##ulm
##ulin
##ulge
##ulity
##ulos
moc
moi
mog
mosc
mocking
##ria
##rique
##estor
##estim
##estry
##rand
##raci
##emper
wors
worm
worms
sufi
sulliv
dogged
donde
fry
fron
fres
framed
fratern
heath
hectic
atwood
atkins
atatur
allison
orgin
orde
##gee
##olgy
pry
prat
prud
prote
prank
predom
prude
prerog
enam
enge
enoy
encom
enforcing
ensemble
enrique
##istor
##istas
##antor
##antique
##ainted
##oute
meh
meld
meag
meats
meager
abre
abus
abide
abrid
abdom
aborted
abomination
##opoly
##oplane
##opfler
##ichi
##icher
uno
unpl
uniter
unpr
unner
unpar
unob
unification
unimp
unhel
unending
unnatural
unilater
canister
##eryl
willed
plu
plated
amore
amos
amour
amber
amuse
##unting
##unted
##unts
##umbing
mae
maze
maestro
hassel
byron
##ardieu
commence
nocturn
##ffen
##ffman
leaps
leagues
levelled
outing
outro
outage
outcast
timed
tras
trout
trun
trough
troup
trashing
trudge
trinidad
trantor
##ectly
##acter
##elf
##ighty
upward
uprising
loan
loot
loans
loire
loath
##andra
##oughly
##astly
##astical
##astyle
##vene
greats
compost
complied
comprable
compounded
compaq
coke
coil
cobr
cozy
coax
cofin
dif
diox
dizzy
dilem
disgr
disple
diseng
disench
disorder
disrupt
disput
disheart
goll
goethe
goju
imitate
ada
adams
adolf
intros
quig
quag
quarre
quentin
uss
usability
##ionship
fees
feiler
mann
manstein
maneu
buen
haddon
workload
recital
recieving
recreating
taber
becasue
##igal
##igent
##igue
##ourt
agi
aging
agnostic
agonizing
thanked
##sover
cling
clad
clam
clone
clans
clash
claw
clapt
clones
clicks
clipp
actin
##ended
##plus
##planes
##ishable
interse
intersp
intervals
intertw
interwoven
##abus
##abbles
##agne
##agements
##itech
##udging
##nderoga
##oung
##ounces
arular
arbor
arctic
herd
wrists
##inky
##inkin
resh
rescu
##ivation
poe
pondering
parte
partying
partisan
overhe
overarch
overplay
overboard
overweight
overpower
overstock
scal
scam
scree
scorn
scattered
##oye
contention
beta
betty
##inez
commissioned
knob
knopfler
impor
impot
impres
impover
imperson
##anson
##anslated
teu
pep
peas
pegs
peggy
peaks
##berville
##pera
precept
preval
preset
presently
presley
prescient
preschool
fave
faking
faulk
##ultures
shea
shelly
prodigal
spewing
thinker
thinkers
newcom
newbies
afterword
afterthought
##qui
##quer
##quete
storys
percy
pervers
perkins
muster
aces
acced
acutally
offence
offbeat
sayers
##ictment
##atches
##atching
##atchiks
##seling
##achi
parking
parks
parker
##rynth
##forms
inciner
incarn
incidences
underlies
undertones
underestim
strut
strug
strongh
serie
serbian
backlight
insted
##ountable
spart
spans
spade
spared
spills
spacing
sparks
sparing
spouting
thingy
enduring
lovecraft
grin
grit
grating
gruff
grudging
guise
poles
polishes
hiph
hiked
hiker
brits
brisk
filing
rover
roam
roomm
##ommon
bling
bliss
blaz
blower
blouse
blister
blades
blaming
blaze
blasph
##azard
diffic
diffusion
diffrent
musings
repers
repud
repuls
repressive
finesse
##000
##odes
##odder
veil
##ipes
##anged
##angling
hokey
hobb
hoffman
realt
keitel
##feld
crt
cron
cranked
somthing
remaking
mara
marc
marx
marines
marches
marino
marquis
1940
someting
##ubs
##ubstant
trap
traced
emits
embell
longed
longtime
consume
mons
monst
monte
monoc
##ressed
alblum
albulm
supper
supplements
smack
decency
indist
indiv
indictment
effe
songwriting
flair
flops
flailing
flabby
fledged
##xton
##xtap
positives
##atingly
parliamentarians
downs
rightfully
##phy
##nings
amazes
daytime
daycare
soundbl
oldie
oldest
##othold
##occu
funner
funnel
takei
simulation
simpson
simcity
thoughtfully
##ilda
cleav
##onsin
##onscious
mats
matri
matilda
exto
extol
##ailable
farms
dvi
transcri
transistor
joking
joann
obey
obama
helen
opion
opus
##ibe
mining
minnes
minnie
classify
atten
defying
deficit
discust
discret
discript
disclaim
discerning
esf
esper
imports
subway
subty
worldly
accum
bores
genoc
genital
cheek
helpfull
programmed
relo
relieving
relinqu
bok
bolly
boett
boiled
bohm
verson
verses
trikke
syrup
ecof
ecologically
ecclectic
glow
gluing
glaring
glaze
globe
glimmer
glitter
##entional
persistence
##undo
phew
phosph
purchasers
developer
developers
##reads
insulate
insurm
insulin
lethal
carlo
informal
informations
##iculum
slash
slams
slugg
slicks
slums
slimmer
sledge
nothingness
collapses
collapsed
##aca
##acco
##acular
##aceno
communal
communists
policeman
apro
edd
edf
edie
edits
edged
warms
warns
warwick
warfare
favourably
wonderous
wonderland
wonderfull
elph
eluc
elimination
retr
retreat
schlock
schippers
##ugen
provan
economists
kindred
lego
legged
##owering
womens
handmaid
evocation
evocative
inviting
invari
counseling
expectant
plea
awak
horrib
horns
horowitz
ideological
surfer
surplus
bash
basie
##iteration
##eee
viewings
proposition
confidant
##nell
wordings
demise
formulating
detach
expon
expires
characterise
characteristic
politic
camus
monthly
##redited
fuller
##ixed
##avia
exploding
possesses
##terson
##tersweet
wasteful
tellers
stupend
earland
earphone
earphones
earpieces
earmarked
approvals
entitlement
excellently
powering
powerless
powerball
generates
wishmaster
##racted
pretension
##airy
##lection
drab
draining
assurances
curl
curb
curly
curren
bittersweet
corbett
mainland
graf
gracious
graham
markers
markham
debont
debatable
debilitating
chrome
starr
stared
starving
starret
starcraft
drought
drup
drones
drunken
restriction
standpoint
specialised
controllers
sk8
skit
skits
skirt
skaters
##pring
##prom
competing
competitions
missouri
committing
pieced
creator
creators
103
104
brackets
bravo
favored
favorable
excurs
exclamation
capwiz
capabilities
continual
treatments
##ologue
terminal
hourglass
##ellah
##ussing
clearest
madrid
madeline
sont
crab
crapp
crapped
craze
carelessness
shortest
shortcoming
airline
airpower
headlam
headlong
##ucar
##ucive
##ucated
christain
valium
condol
conducive
questioned
redo
redef
redirect
redressing
nightworld
runaway
##ieder
urine
urges
urberville
styx
styling
stylist
stylings
dealers
meds
medal
kidcraft
colony
colours
coleridge
americas
##versible
infat
infused
infilt
untill
untouch
couln
centred
creed
freem
freight
freestyle
affection
envision
companions
depardieu
initiated
distances
thankyou
number1
payne
freeing
freely
##odynam
planets
promo
prominently
promiscu
opponents
constern
bret
breton
mete
finances
detailing
superfic
superfl
dripping
drifting
hearings
computing
regulating
##landish
textured
anno
protracted
curriculum
pasted
wronged
homelessness
##ews
etre
esta
esteve
equations
equilib
fitzger
responsive
raff
raunch
copenhagen
##ova
##ovich
commonplace
paved
paley
paquete
paxton
sociology
##mesdale
cutter
cutouts
##akey
audrey
computerized
employer
literal
literate
literacy
youngest
##ternally
respectability
structuring
structurally
lawrence
barney
figu
figur
messrs
typeface
ensuing
budding
swore
swap
swig
swanson
nationalistic
generalised
sentenced
##portion
##zzle
##zzled
fasten
changeover
garner
immers
immunity
romans
romany
illiter
illogical
failings
errol
replaceable
delving
imaginary
##boat
signature
achete
satin
satrian
paine
painless
painfull
strains
strapless
rocker
rocked
millar
sadistic
mores
morse
moronic
moreno
furious
furland
furiously
##atsos
womanopoly
breakout
##awa
1988
harley
mids
midst
stephan
sexist
modus
modify
modding
modifications
mises
misgu
miscon
miscell
misinter
mischief
misgiv
testify
devin
devises
deviate
honoured
##heugen
agreeing
limbs
boyband
##alogy
stuffed
rayman
firearms
firetru
godmother
godfather
moderately
impressions
serviceable
furthering
winthrop
fantastical
##brush
softness
softcover
patently
patinkin
patterson
materialise
damp
ruler
decidedly
establishes
eyel
eyew
designers
lowell
##ronaut
##ronisms
##enex
manuel
critter
businessman
labyr
laberge
stopgap
safest
mastermind
masterpieces
snl
correcting
corrections
judas
manufactures
greet
properties
existant
beginnings
successors
brandy
brandon
organize
organisational
opportune
gerard
idle
researchers
favours
johnsons
predicatble
##ageddon
totaly
postal
specification
dialogs
123
12th
1244
builders
buildup
recognizable
amounted
complies
##sett
##setete
orwells
precarious
transporting
despise
despicable
30th
ladder
ladders
operas
operandi
rapping
volatility
inflamm
eleg
holzmann
hotter
misty
encore
encoding
referencing
shoppers
touchy
##ervice
##erville
antic
antid
antagon
antoine
conception
pressures
pressured
plaque
applicants
populated
populace
reminders
sandy
sandwich
notebo
babble
babbling
instructed
instructive
##forth
##forces
macdonald
courtesy
balances
balancing
##althy
keyes
typographical
customary
appropriation
multilateral
multinational
personaly
graphite
graphically
forgetfulness
audiovis
similarity
cirrus
illustrating
soulstar
souladakis
merlin
cookers
cookies
danner
vocational
jeetend
##ophone
##ophical
##ophile
fleeing
puchase
sensations
repeats
scarred
geor
geoff
revise
revival
shipments
shipyards
shipwreck
rollerc
latino
searches
individualism
40s
sweating
sweater
captions
droppings
rentals
melts
inspite
professes
crossroads
dreamy
dreaming
hybrid
daheim
daunting
norms
norman
rennt
protectionism
##screen
maxwell
fundamentalists
biology
biker
skinned
skinner
predicts
predictability
annoyingly
circulating
##zeus
traders
truthfully
grande
grandaughter
advertise
tightness
tightened
digs
digi
digit
layman
layoffs
talentless
##onyms
##annon
##arranted
frustrations
objectively
risky
ignite
rubs
rubbing
destination
destiny
001
0069
fascists
fascination
paired
milking
tuner
weights
unlikeable
iiia
journeys
utens
plaint
philips
earthbound
centralist
japhy
walley
##bitant
metalcore
bothering
tenacity
bordering
uncover
uncovered
uncommon
unconscious
brillance
montana
assisted
salty
spokes
straighten
dimage
dimmesdale
tasting
turgid
tablet
tabletop
exchanger
troubling
flatten
flattens
shareholders
mystic
machinations
divulge
mounts
mounting
thoroughness
0006
0003
aiming
aimlessly
hp9
nearing
scanners
encouragement
##from
pleasent
criticized
criticizing
ulta
scripted
violates
violinist
penins
vert
verry
verheugen
woody
woodland
hawk
hawtin
hawthorn
floors
floppy
demonstrating
deny
denounced
denouncing
##mpo
hellish
hellman
14th
autores
bernd
berth
berengu
undead
undec
undamaged
independant
multiplayer
bunched
civic
tendencies
alternates
alternating
alternately
fabares
cohesive
apparatus
apparatchiks
privatisation
puzzled
130
133
webster
analyses
analysed
lands
landlord
websites
arrest
arrange
diego
stocked
primitive
unrecogn
climates
climatic
hauntingly
ballard
tariff
tarja
regrettably
187
1888
michie
michelle
micheal
paths
pathos
prosaic
consisted
consistant
influencing
duisenberg
samuel
##howers
unecessary
photosmart
forgiving
shockingly
reflecting
reflections
recip
cruise
crucially
sweetness
sweetener
euromix
folger
pcm
goldf
goldman
goldstein
faithfully
psychic
psychiat
calification
juno
jung
lossless
randy
sunk
sunny
sunsh
167
ceases
mcbain
##shod
##shadow
choas
chopped
chopper
teeny
embark
doublethink
blech
nationally
scrub
robillard
portraying
philosopher
optics
ugolin
unfinished
religions
170
175
concentric
attacked
##coat
separates
crops
croatia
streaks
unsus
unsubstant
1966
simplest
romanticism
arranging
philosophies
racquet
##ricted
##balls
reacting
assessments
bonz
freshmen
unacceptably
mailbox
premier
premises
premium
smooths
frightful
##bertron
renewing
fortress
quoting
synonym
synchron
synonyms
delaying
professionalism
shopkeep
shopzeus
sustaining
ghastly
greeks
hillarious
undertakes
switching
congratulatory
hangs
silicone
taping
vox
voce
lifes
armstrong
armageddon
archer
archie
archers
archimedes
sympathise
harmonic
candice
adaptations
empires
screwdriver
masquer
villages
villians
1978
1973
1974
accidental
conflicting
darak
darius
darkened
martinez
squand
squabbles
##crimin
sturdily
attracting
surviving
gamer
powershot
rani
ranch
witwick
clarks
formerly
laborious
laboratory
rhyme
jeremy
moods
ramsey
exec
execra
mechanics
coastgu
qualms
translating
fashionable
fedex
federation
fedellah
murphy
mirrors
rattles
tobacco
reinv
reinfl
reinforces
##ooping
anthologies
deceive
uncomprom
outdone
bulb
bulges
bulgar
fulfilling
tacks
thickness
heaton
speculators
secretariat
birthdays
217
burke
nicest
shelter
creeps
creeped
cashing
karon
karen
lowered
vacant
vacuous
queer
knockoff
knockoffs
understated
inspected
barbaric
barbieri
eighties
microw
pinnacle
punished
tedium
##haven
scarey
provoked
compromising
senor
senate
interactive
grammy
grammer
catechism
gung
splits
splitting
spliced
tearing
excesses
disciple
pollute
hostile
defends
defender
defending
murderer
malk
males
slipped
watts
ashore
hadnt
brushing
bluesy
blocked
crafty
opposing
sansaview
juic
jujitsu
juxtap
padula
skewed
unnecces
blowup
pointlessly
revolves
catholicism
hatin
haters
henceforth
kerman
panic
allocate
allocations
##untled
overdri
teamwork
deflating
mediocrity
cuis
tora
torment
torrey
stationary
mysteriously
##ilera
administrations
subsidiary
salem
walkman
hospitals
banker
brightest
lamb
lambs
mccl
rails
railway
railroad
tangent
tangents
seminary
logs
logitech
venue
resourceful
believers
launcher
enterprising
4000
bizz
rigour
tempting
towel
conversational
mandy
mandated
##placement
constructing
constructively
superiority
winterize
idiom
cartoonish
microphones
narc
owed
sleeve
velve
widow
goalie
republics
emptor
emptiness
cracker
girlfriends
substantially
astronaut
gardens
gardening
piu
pige
papayann
ryans
roughshod
reliance
insults
curiously
incorrectly
gasp
gasket
kicker
delegations
delegating
sucking
suckered
hardcopies
evolve
confidently
condemning
condemns
inexcusable
breads
dern
derog
tubes
##ropic
stereolab
shapesh
explosive
corporal
irritation
fabricated
arafat
octane
##kinson
prophesy
reconnect
folded
folders
tempered
safeguards
missionary
porch
porque
porcelain
racket
chestnut
clicking
advisory
paperbacks
buddies
shooters
bernard
journalists
caball
fuzz
fuels
jamaica
riveted
rivets
tallant
wraps
wrapper
##aurus
enforceable
compensated
incidents
addictive
borrowing
insistence
motivating
northwest
universes
divorcee
diner
hounds
oscill
vespera
orchestral
orchestrations
unwield
unwarranted
unbound
parental
minimise
evaluations
experimenting
experimentation
excluding
3000
browse
nerdy
saraceno
stabbed
converting
alaskan
pronunciation
buckle
decorating
gracefully
irreparable
irreversible
blends
blended
federalism
federalists
dynamite
btu
nuisance
oslo
sd700
meaty
meatless
amateurs
contractual
consolation
consolidating
cornerstone
vocalists
dawned
32mb
7500
abstentions
shellfish
spreads
spreading
fifthly
heavens
360
bangkok
crowley
fictitious
loneliness
rumors
segundo
leaning
leanne
1955
detects
weekends
treasures
treasury
embarrassing
embarrassment
embarrassingly
giggles
nomination
tiempo
vigorously
wickedly
renditions
##choly
chaotic
cancell
goverment
cliffs
cliffhanger
resistant
knights
knightley
glorification
exploiting
exploited
exploits
admirably
declaring
0108
0106
dominate
guterres
muddy
pitfalls
##attan
inferno
shreds
provence
proportional
alienation
heightened
praying
compressor
preacher
preaches
authenticity
bootlegs
registering
registered
sparkle
blessed
bitterly
bushmills
exchanging
contradicts
uniformly
078
8000
axes
axis
busty
busted
bibles
dudley
festival
laswell
vaguely
##yyy
butterfly
shaq
shaumburg
mondo
previewed
storytellers
undermining
occupy
occupations
jeffrey
substituted
exhausting
bathtub
gilmore
jimi
ruthless
inaccuracy
revelations
manipulated
wrestlers
indiana
persuade
persuasive
trendy
embarking
casualties
watershed
accomplishment
65533
cymb
cybertron
cells
inhabitant
rebound
rebels
reuniting
aspiration
outsider
intrest
intrans
intresting
intrested
preceded
precedence
flights
espionage
complementarity
rubbery
penalise
dismantled
bureaucrats
anchovies
64mb
domed
ellis
ellison
elliot
halt
lynette
sedentary
wolfman
comedic
seventies
deplorable
chillingworth
savor
rooting
functionalist
transmitter
discounted
extremist
protocols
utilise
utilitarian
navigating
endeavours
endeavoured
caddy
cadmium
josef
niche
tactical
tactile
yelled
commended
commendable
quirks
percentages
inconce
remastering
decisively
glossed
insufferable
redundancies
steamy
steamer
drowned
spoilers
disagreed
platforms
394
cerebral
dumbed
duality
khouri
pixels
roger
rogen
rogers
rogue
troy
trojan
##arnos
reassured
sterne
sterling
steroid
stalked
stalker
analogy
defeated
deploying
champagne
mobile
enriched
enrichment
upholding
coincident
feasibility
prevailing
prefers
preface
oriental
orientation
oppressed
estimates
autobot
vibrations
unbearably
bumble
bumper
bumpin
nicky
pulitzer
pioneers
wondrous
##hyd
stimulate
stamping
prohibition
degrade
degrading
degraded
deceptively
exuber
exaggerating
moshe
unmik
tranfer
intimately
intimacy
quartets
scrapbook
vegetables
trails
indiscrimin
editors
assuredly
sensuality
dissappointing
catastrophes
stereotypes
reconciling
disseminating
bombed
csu
cederschiold
diminished
fergus
gnp
linger
lustful
rowan
zr40
##fighting
thirst
thirties
thesaurus
whistles
antonline
chatting
exempted
unintended
lecter
lectures
clinic
wrenches
persecuted
defects
genealogy
syndication
expansive
colonists
infringements
deprive
esteemed
capella
judgment
broadcasting
robbins
motorcycles
reinstalled
astrological
gymn
vigilance
wannabes
cubes
cubic
fischer
linda
sourced
wacky
insole
rehears
##oooooooo
conformist
alcoholic
tailor
reproduction
voluntarily
volunteer
irresponsibility
merchant
gauge
gauges
lauded
laudable
loosing
mortgage
nih
nominate
nominations
ooh
oozes
ostraci
ricky
tiene
treadmill
umpt
##upport
reperto
anatoli
prolific
selves
lobbyist
disregards
muffin
prescribe
prescriptive
guinevere
memoirs
classrooms
attribute
attributes
cheesey
synergies
pharell
redistributed
saddened
devolved
macrofinancial
irregularity
hysteria
hysterically
remaindered
constituents
applauded
calculated
calculating
robinhood
disturbance
vulnerability
naivety
stereotyped
accelerate
accelerated
accelerator
azores
azucar
austin
bodily
gleaned
hottie
jigsaw
##trusive
injection
rebellion
staples
steadfast
chiefly
fruits
abundance
nostalgia
lending
imbeni
resonate
resonates
podcast
podcasts
poisonous
contraption
settlements
caroline
capitals
devotional
patriot
patriarch
photograv
0078
0073
underside
underskirt
candidates
uninstalling
inconvenience
mesmerized
aweful
dilution
gainsbourg
hindering
hannibal
jrb
namco
pyun
python
pentium
ropers
ragga
tatami
umbrella
##rusted
##bowl
thunderdome
rejuven
reversing
beleive
stirring
chaplin
heeded
heelis
lobbies
bundle
aggression
clerk
clergy
appetite
appetizing
descendants
##ipedia
marshal
decreased
glamorous
assaults
infinitely
neglected
cooperating
deliberate
deliberately
geforce4
multiplier
multiplication
deterioration
discriminatory
anthropology
anthropological
thermodynam
gadgets
ariane
arizon
boutique
bacharach
cassie
cassidy
hilfiger
nauseating
royal
tsatsos
tilting
stunned
##cello
wendy
proverbial
heaped
unavailable
plunge
lexmark
diversification
recomiendo
clunker
polycentric
peanut
bruises
remedies
remedied
floods
boombox
provinces
laurie
earloop
restarting
infected
snobby
puppet
puppys
hyperlink
0087
verdi
draftsman
foolishness
fulfillment
dismayed
academics
academically
unpredictability
##zzzzzzzzzzzzzzzzzzzzzzzzzzzzzzzz
unraveled
aerobeds
indifference
bryan
gopi
lunatics
lankan
ponies
ponca
piston
pistols
sqlite
tanning
wanders
xtc
##kuyu
ingenuity
reckon
stanley
alfredo
dossier
orphan
orgasm
enacting
enactment
envelopes
tresor
bubbab
bubbles
euroscept
clutter
contamination
contaminated
underpinning
lovebirds
crunching
monologues
flamboy
flamenco
fluctuates
flocked
legionaire
gravity
affirmation
##rupulous
salvador
telemachus
telemachos
unfolded
archeologist
spinelessness
malamud
malamute
sarcasm
pronounciation
allegedly
autobiographical
municipal
municipalities
foreseeable
malfunctioning
malfunctioned
shepherdstown
boukree
dwellers
dazzling
erodes
fractal
gwyn
llego
lleva
minty
nurture
nurturing
rivalry
sibling
siblings
tutorials
notoriously
shadows
prostitutes
neuros
exorcist
exorbitant
organs
abduction
unseen
digress
cloak
overbearing
scansnap
charisma
charismatic
spontaneously
hofst
hofmann
remembers
traceability
indoor
indoors
flourish
simulators
hardships
schoemper
handicapped
entombed
columbus
columbia
hughes
improperly
inflicted
feminine
uncontroll
uncontrolled
brainwashed
bursts
obstructed
collaborative
alleviate
insomniacs
disregarding
thermometer
thermometers
deciphering
66x
auspices
dessert
hansch
jelly
kurupt
oxford
reruns
sierra
vodou
vengeance
wiggle
zoete
toshiba
isabelle
foreshadow
stifling
angua
weinstock
ascertain
lighthouse
demeanor
alastor
exemplary
unchalleng
unrestricted
amidst
amplifier
troopers
adverb
quintessential
recurring
recollections
aguilera
interfering
polemic
overloaded
overwrought
impatient
imprisoned
peculiar
permeate
instigate
gullible
repression
highwayman
crinkle
marathon
1929
helplessness
ecosystems
carbohyd
apathetic
evidenced
expiry
terminology
coltrane
appendix
swallowed
practitioners
boycott
soundscapes
apprehensive
irresist
melancholy
tournament
scientifically
letterboxed
cinchers
iglesia
virtuosity
maltese
cyclops
acquaintances
hypnotic
bankruptcy
semitism
fingernails
coworkers
disproportion
sd800
inadequacies
hypocritical
memorandum
prefecture
imbalance
deffinitly
unavoidable
undergraduate
joshua
masculine
extinguish
unfulfilled
akkuyu
aeroplane
bicycle
biodiversity
cuddy
ditto
foward
fiddling
fernando
girders
gifford
iguanas
kleenex
nasb
pesky
pallid
rivals
sesame
sperry
snyder
yugosl
##author
##copes
##building
thouroughly
todos
retelling
liaison
prowess
proficient
seperated
alsace
almighty
algeria
unnoticed
cannibal
commodore
disillusion
discharged
becaue
cloying
intergroup
interceptor
muzak
pervasive
paraphr
inclination
underwhelmed
underdeveloped
sporadic
endangering
grunge
roxanne
repayment
embedded
discrepancy
relentless
fokker
insinuations
slaughtered
horoscopes
entrenched
drenched
referenda
refrigerator
redeploy
kidnapped
untrue
ergonomic
satirical
misnomer
mislabeled
jehovah
natalise
vietnam
hyphen
suspicions
suspensful
philisophical
temporarily
fragrance
catagory
degenerate
calibre
sunshowers
praetorians
karaoke
punctuation
hypnosis
scandinavian
manipulative
hypocrites
unintelligible
pussycat
demagoguery
pharmaceutical
unequivocally
neopaganism
extravagant
pessimistic
adrenaline
pennsylvania
bionic
carlyle
cucumber
doresse
dylan
egomania
fagin
fathom
ginsberg
grossetete
giovanni
hudson
hemicycle
i410
jumbo
kushner
kafka
kretschmann
lothar
ncees
oodles
oginski
paucity
pundits
pscn
pynchon
p1538a
satellite
sultry
sanyo
saudi
tandem
ticonderoga
vraiment
vittorio
wifes
wiping
wikipedia
wisconsin
yikes
yosemite
zeppelin
##motif
thompson
inundated
inertia
reopen
reorganisation
beetle
forerunner
steele
stoddard
haphazard
haggerty
anachronisms
shudder
shogun
shuffle
seismic
chassis
chivalry
concessions
alsthom
exacerb
moscow
sullivan
ataturk
ordeal
protein
encompass
meagre
unplugged
unobtrusive
unhelpful
unilaterally
amusement
nocturne
cobrastyle
dioxin
dilemna
disgruntled
displeased
disenchanted
disputing
disheartened
quagmire
quarrel
claptrap
clippings
overarching
overplayed
overpowering
impresionante
impoverished
precepts
prevalent
faulkner
strugles
grudgingly
hiphop
hobbies
monocultures
soundblaster
##occup
cleavage
minnesota
discriptive
disclaimer
bollywood
boetticher
syrupy
ecofin
phosphate
insurmountable
sluggish
sledgehammer
invariably
currencies
starrett
drupal
excursion
headlamps
superficially
estevez
equilibrium
fitzgerald
satriani
misguided
miscellaneous
misgivings
labyrinth
inflammatory
audiovisual
jeetendra
rollercoaster
berenguer
undecided
unrecognizable
psychiatrist
sunshine
unsubstantiated
shopkeepers
witwicky
execrable
bulgaria
papayannakis
ferguson
photogravure
thermodynamics
arizona
hyperlinked
boukreev
schoemperlen
1x
1yr
2l
2d
299
4l
4am
4yr
410
53
57
5mb
520
68
63
617
690
76
73
870
a1
aas
aic
aur
apl
aod
aull
aute
aural
aways
aime
aided
aque
aleg
aux
aaa
azab
auctions
arose
bv
bj
bing
bam
bop
bough
bice
bated
bord
bier
bane
bah
benn
bbb
buster
bpa
bummer
bpm
c2
cis
cess
cus
cun
corm
caz
cia
cages
caster
crib
cale
caged
cms
cows
cyr
c50
ceter
ctr
doo
dse
dow
dain
dint
duct
dans
dach
dail
dool
dmm
daw
dins
dup
duel
dented
dgs
darts
dye
dwind
dmc
ee
ej
e2
ere
ese
eso
erect
ets
eats
eims
eforce
ebooks
eww
fon
fes
fould
fel
fide
fount
feng
fustr
fried
fuse
fuses
fisk
fado
farts
fvo
fencer
fencers
fodder
gc
g1
git
gan
gom
gist
gus
gue
giz
gav
gps
gret
gale
gaw
gior
gina
gables
gai
gaur
gopher
gmail
gersh
gsx
hc
hk
hir
hul
hight
horm
hug
hines
hides
hbo
hanger
hilt
hills
hicks
heter
hoodoo
hissy
ih
ib
iow
ivie
icy
icing
ihn
ilo
icer
ils
ieee
ja
jj
jø
jen
jas
jot
jut
jag
jade
jip
joc
jav
jinks
jays
jilted
ka
kal
kam
kest
kem
kol
kum
kel
kass
kapp
kool
kitten
kench
kfor
kla
kios
kram
krak
kiser
kensing
kuch
kersh
ld
lter
lem
lus
lome
lum
lions
lint
lass
lub
lime
lps
lamp
lakes
lann
lleg
lurch
lids
loooo
lsd
ml
mould
mie
mul
mard
mound
mates
mool
mason
mash
mott
mesh
mama
m250
nl
nd
nw
nes
ned
noo
nook
nun
nue
nab
noun
nary
nase
nme
nde
niven
naw
nigh
nms
nuel
nero
ngl
nada
nfl
nadel
nano
nieces
oe
oc
oy
oj
o2
oat
ore
oom
ole
ooo
ora
oven
oak
omm
olf
oreg
omen
olin
oaken
pd
pb
pom
pct
pith
pate
pag
pug
pss
pbs
pms
pows
pyr
pik
pitty
poops
pouting
piggy
pizz
pomes
pothold
qr
qm
qing
rc
rw
rm
ric
roo
rook
rall
rim
rath
rene
ranger
rises
righ
rows
rants
rakes
razz
rips
rumm
rationally
s2
sis
sly
sau
sast
sence
sount
sip
sord
siting
slud
seng
saps
sane
sien
sills
sift
sica
suther
sigm
td
tes
tum
tau
tig
tought
tts
tuc
tier
tides
tien
ticks
tsh
tingly
tiles
tuv
uz
u2
uen
ule
upped
ubi
vl
vh
v8
v2
vor
vect
vind
vag
vick
vets
vai
wc
wm
wb
wri
wist
witt
wary
wail
wank
waged
wien
wager
wagon
warts
waned
x3
yin
yen
yan
yar
yas
yale
yob
yuck
yummy
yok
yitz
yucky
ypu
yanked
yanni
zy
zoo
zil
zest
zip
zinn
zune
##aing
##aad
##aay
##aith
##aus
##alect
##aurs
##uf
##uan
##uil
##ument
##uities
##uio
##ulet
##uously
##uitable
##uendo
##lu
##lj
##lø
##lay
##lab
##lastic
##lson
##lims
##love
##lene
##lantic
##lana
##litz
##ligence
##lattering
##lgass
##tar
##too
##tur
##tation
##tout
##tos
##ture
##tick
##try
##tual
##trow
##taste
##tinent
##oil
##opp
##oard
##onder
##oach
##oder
##oism
##ocks
##oken
##nit
##nest
##nment
##nard
##name
##nak
##nee
##nav
##nik
##nette
##nroll
##nuts
##nacular
##da
##din
##dly
##dog
##dles
##dues
##dream
##dney
##eet
##eel
##eking
##evelop
##eering
##eker
##eval
##cf
##cou
##cid
##cam
##cation
##cate
##cery
##cun
##cos
##came
##cans
##cence
##cical
##cise
##cons
##citing
##cred
##cream
##casing
##cape
##code
##c15
##hg
##has
##hoo
##hid
##hook
##hie
##hos
##hite
##hak
##hire
##hement
##hah
##hik
##hadow
##horse
##sj
##sight
##sport
##she
##rt
##rou
##rion
##rite
##rud
##rade
##rality
##rider
##rings
##rne
##rically
##rently
##rash
##rush
##rases
##renty
##rina
##rums
##rari
##rune
##r600
##ranslated
##py
##pit
##pan
##pent
##pere
##past
##pable
##pire
##pider
##pool
##path
##pots
##poon
##pox
##p200
##pcion
##preted
##painted
##ih
##iis
##iing
##ipe
##iery
##ipl
##iose
##iarly
##iams
##iological
##iators
##vx
##vay
##vity
##vine
##vates
##visions
##vien
##vrir
##kb
##kish
##kets
##kah
##kita
##kids
##kki
##kistan
##kwer
##ws
##wes
##wal
##woo
##would
##worm
##wool
##water
##wright
##washed
##woman
##gt
##gre
##gion
##gir
##good
##goy
##gade
##gional
##gones
##gencies
##gione
##yer
##yll
##year
##mu
##mor
##mis
##mom
##mand
##made
##mass
##moth
##mash
##mov
##make
##mont
##metic
##maker
##morized
##malt
##bal
##bir
##bust
##bol
##bard
##bish
##bine
##brow
##buck
##bones
##bbit
##billy
##burs
##block
##bums
##baker
##banging
##billard
##baco
##buy
##zan
##zers
##zilla
##zanne
##f3
##fle
##fro
##fam
##fir
##fill
##fand
##fia
##fically
##fah
##foot
##fishing
##finder
##federal
##fections
##08
##06
##03
##07
##04
##66
##65
##jer
##jin
##37
##32
##388
##xp
##xis
##xed
##xter
##xhaven
##71
##727
##28
##21
##96
##95
##912
##ql
##qt
##40s
thh
thow
thur
thorn
thumps
threes
thuv
thizz
theo
thee
thera
theft
thewh
##erl
##erk
##eret
##erver
##eries
##erving
##eristic
##errat
##inant
##inence
##inement
##inators
##inchan
##inotti
##ndes
##ndar
##onent
##onge
##onte
##oncer
##atu
##aty
##aton
##atas
##atom
##atra
##aties
##atile
##atting
##atize
##atru
##atized
##ativity
##atogen
##atonia
##atlantic
##ori
##oray
##orth
##orite
##orated
##orrect
##orily
##orality
##orpriate
##orials
##orestation
##esa
##ouk
##ouw
##oufl
##ougly
##ouvrir
##isive
##isand
##isory
##isans
##isia
##isism
##isness
##isplacement
##enes
##enis
##enly
##enet
##enie
##enity
##enail
##enne
##enetic
##enburg
tots
topped
toaster
topping
tomas
toby
tosc
todo
toenail
##inging
##ingway
##ingale
##edance
##edia
##edman
andre
##itin
##iton
##itis
##itve
##itum
##itous
##itory
##itness
##itutional
##itially
##itimate
##itmotif
oft
ofcourse
##reich
##requ
##relation
##recommend
##recise
iner
inan
inapp
inked
ingle
inasm
ingles
inhuman
inmate
inescap
##aner
##anter
##anese
##arent
##arse
##arter
##arance
##arcy
##arently
##arlo
##ariously
##llan
##llet
##lless
##llos
##asse
##asions
##asked
itis
itched
itchy
##ican
##icol
##icus
##icious
##icons
##omi
##omen
##omot
##omet
##omag
##omets
##omania
##omitant
ist
rea
reat
ream
reem
reel
reind
reint
reign
reused
relly
reuse
reorder
reilly
reappe
reanim
reusable
reenc
thisproduct
##lee
##leen
##lege
##leys
##leton
##legent
##leader
##leberry
##veted
##veiw
##oty
##otting
##alm
##alion
##alot
##along
##alock
##aligned
##albums
bee
bej
beam
beard
bevel
begr
beging
beams
beverage
befriend
becket
bella
bemo
beaver
beech
##utation
##utary
##utty
##utres
##utala
##utnik
ont
ono
onwards
onerous
##sts
##story
##step
##stasy
##style
##ento
##entric
wha
whould
whol
whiz
whiter
whoop
wholes
whaling
whales
whibal
whql
##ooge
##ooij
##cter
##cting
##ctive
##cture
##adt
##adal
##aday
##adation
##aders
##adron
##advent
##adows
##adores
fora
fords
##roy
##roit
##robe
##roiled
##rofo
stly
stace
stench
staged
stakes
stoop
staked
stumbling
stairs
stamos
stedman
##sement
##season
##semb
##eted
##etly
##ettered
##lda
##lder
##idon
##idal
##idity
##idend
##idious
##ghz
##ghly
##ghetti
##ayered
##chn
##chies
##chure
##chips
##cholic
##chapel
##chews
hail
haard
haves
hacks
haird
haze
hacer
habra
hagal
hautala
##verent
##verance
##ithmetic
wasp
waster
nota
notations
notches
noticable
notmad
##urer
##urry
##urations
##urize
##urpose
##urrid
##urante
##uriating
##cement
##cewind
witht
withers
withthe
##amic
##amess
##amish
##amaz
##ambitious
##ameron
##terdam
##terlø
anf
ants
anamorph
weve
weiss
wep200
weenie
asn
asy
aske
aswell
ascent
ascension
asmov
asatru
coms
comf
comart
comings
bookmark
bookcase
bookbinding
bookworm
##allion
##alloch
##irie
##iria
##irism
##irically
##irculation
##peice
##peche
##pefied
##pevine
##imo
##imn
##imy
##imeters
##iew
##iell
##ielle
butts
butler
##keeper
##keeping
##thood
shen
shre
shind
shear
shult
shak
shaw
shoud
shield
shores
shamed
shlock
shimm
shards
shai
shears
shattered
shalt
shabby
shannon
shinchan
lire
liven
liaise
propri
propelled
##illary
##illian
sep
seag
sears
semes
seeds
seperately
myri
myopic
##ustomed
sos
sond
soar
soil
soiled
socket
socal
soderman
dew
dej
delet
deification
develope
dehuman
depeche
chen
choo
chant
chile
chased
chac
chract
chanced
chugg
chilled
chipping
choms
chaste
chanu
chapel
cone
converse
congest
confortable
console
conciously
##ilo
##ilus
##ilful
##ilize
##ilton
##iloqu
##ilayered
alge
alber
alib
alps
alto
altering
algun
##essly
nez
neur
nept
nella
neader
neoli
nelson
expe
exel
exict
exod
exell
exager
exoner
expel
exudes
exfol
exectly
externally
##uling
##ulent
##ulse
##ularly
##ulously
##ghts
mol
mop
moll
moors
mocked
molass
##rip
##rily
##riet
##riol
##riages
##ppin
##ppen
##ppard
##ppling
##ppointed
##rapp
##raved
##racial
##raining
##rawling
##cki
##cken
##ema
##eme
##emly
##emorable
##empo
##emely
##emocratic
wormm
worsh
sud
sued
supl
sumer
suzanne
doin
doot
doses
dovet
frust
frass
frise
frys
frills
fringe
fraying
frenetic
hep
heb
heir
heather
heirl
heaps
heats
healer
atari
attaining
allan
allay
allure
allend
allian
allways
allman
allude
orb
orte
ornette
##ortion
##ortation
##ortment
##orties
##olk
##olve
##olph
##olson
##olitan
readability
readmission
prun
pricing
prancing
prisons
enn
enig
enqu
enron
enhan
##isted
##istant
##istance
##istak
##antz
##antes
##antation
##antra
##antically
##ainable
##outed
##usin
##usional
##usale
mez
mech
meij
abit
abble
abound
abbe
abiding
abbre
abode
abridged
abounding
abnormal
aboard
aburrid
##opation
##opable
##opulation
##opias
##opatra
##ichton
unap
unear
unapp
unfort
unbe
unres
uneng
unwise
uneth
unified
unsh
unbox
unche
unica
unbeat
unilateral
unbrid
unorth
unasked
canals
canned
canvas
canopy
cancion
willow
willie
plo
plow
plough
ploy
plural
plains
plunk
plagues
plooij
amel
ample
amature
amps
amarant
amigo
amassing
##unas
##unci
##unctions
##unctional
##unzel
##unori
##uming
##uman
##umann
##reatly
maz
maur
mage
maple
maby
maunder
makin
mahler
makita
mafia
hash
hasten
hassell
##cii
##cias
##arta
bys
bygone
byrne
bygones
thereafter
##oodle
theyre
##oneous
##osh
##osing
##ardice
commute
commited
commits
commissions
noone
nods
nobility
nondes
justin
##ffo
##ffer
##ffective
leer
leop
leans
leary
leif
leach
leann
leopard
leitmotif
outa
outt
outages
outwards
outta
outlying
outcasts
outgrow
outlandish
timers
timel
timbre
trion
trice
trays
trimmer
trillion
trimmed
##ected
##acting
##eling
##eled
##elion
##ighted
##ightly
whatare
upro
upstairs
lovel
loft
lovin
loeb
lopez
##amey
##ande
##andrew
##apy
##aping
##apas
##apore
##apanese
##astle
goodies
goodwill
whoa
##venport
##inda
##inds
geting
getaway
compre
compound
compose
compusa
coated
coving
coined
coiled
cocon
cobb
coveted
diy
dior
diaz
dipping
divert
dietary
diagon
digging
dixie
diverted
diagh
diologue
dialect
##acked
##ackle
disl
disre
disem
disqu
disorders
disappro
displaced
disabling
dispelled
disrep
disorient
disburs
someof
goe
goin
gogol
everg
everly
everthing
everday
imbe
impend
imax
imitations
imitated
imersed
ado
adr
adversity
intre
intead
intently
intru
eux
qui
quack
quib
quix
quits
quark
quien
quedo
howl
usally
usless
##issom
##issipp
timeout
fey
feud
feira
manch
manger
manny
mangione
bugg
bucket
bugged
buisness
workable
recast
recite
reciting
recoup
recession
recopy
reclass
recedes
recitals
recreates
recirculation
becomm
##igs
##igi
##iging
##igth
##igger
##ourced
##ourcing
agar
agri
agian
agger
agular
agalloch
##intock
yourcen
eurofederal
clc
clog
clued
clipped
clasp
clipping
clapping
clamps
acto
actully
##ptitious
##uctor
##ucted
##pla
##plate
##plane
##planted
##isha
##ishly
##ishment
##ishnam
interes
interwe
interned
interru
intercon
interruption
intercourse
interracial
##aba
##abe
##abs
##aby
##aber
##agine
##agna
##uded
##udged
##udges
diddly
##nderd
##ndered
otherworld
##vela
##ouncer
arb
arty
arson
arises
arches
aroma
arsen
argues
aroused
aradia
arlene
arithmetic
heres
hermes
heresy
herald
herrick
hertz
wrink
wrath
##inker
##issioning
resd
resend
reside
resents
residing
resumes
##ivo
##ivise
##ivier
pope
poke
poked
pokey
poppy
poker
pointers
partway
overated
overhead
overval
overfl
overcomes
overprod
overstate
overshadow
overcoat
overfishing
overambitious
overacting
scrib
scots
scape
scored
charach
charters
charco
charaters
charcters
contend
contempt
contested
bette
##inee
mug
muck
muker
muller
muzzle
donor
donated
donne
knit
knives
impass
impris
impede
evenly
evenings
teem
tequ
tease
teasing
teague
teasers
##idey
##liers
##lift
##lips
##libr
mucho
muchas
pef
pepe
peking
peices
peels
peuge
peaces
peeve
peij
peeking
peppard
##berb
##berian
##pering
##perform
preist
prety
preying
preorder
pregant
preoccup
preveiw
sao
sakes
presume
faq
fach
faite
faves
fazz
fa50
fa70
##ulty
every1
everyth
everyones
afro
afew
aflo
aficion
afghan
afqt
shelling
sheila
lookout
speach
needles
newsc
newhart
##assa
##assionally
knowled
aftermarket
aftertaste
##quier
##quarr
##quita
storybook
perd
peron
pertain
perky
pernic
perverted
perils
pertinent
registers
registry
regrets
wayside
##grind
##grine
##grats
aca
acp
acces
acress
acute
acape
acrid
acurate
acoly
##atedly
##ickson
offsh
##enson
##ensional
##ifac
##ifters
tween
twidd
##arel
##areyou
##achian
##achines
parr
pared
parson
parlor
parrot
paroding
parfo
parkinson
##itionally
increadable
incurable
incisive
incantation
applet
appaling
apporpriate
underage
underused
underval
underlines
underwear
underarms
underrepres
underpins
##tex
##teous
##epiece
playa
playin
playtime
playoffs
playwright
playtex
strunk
desol
desens
despar
desperation
descending
serge
sermons
backround
backhand
backlash
##ogies
##ographer
##ountry
sped
spong
spree
spices
spank
spiced
spoof
spaced
spares
spilled
sponne
sponge
sputnik
sprawling
spidey
thingys
endures
endnotes
endemic
endurance
##wns
##wny
grph
grime
grimes
graded
grupp
gruber
gromets
grusin
guer
guill
guild
guia
gugg
gueni
guf3
poland
polite
politely
hipp
hikes
hipper
hijack
bron
brat
brutes
broud
brunt
filthy
##urned
##urnable
charactor
charactors
rove
roch
roach
robe
roaring
roku
##pecting
##ommissioning
bla
blaster
blames
blaring
blalock
useable
usefull
throne
throught
##azy
##azon
madeira
muss
muslims
##cesary
repent
##odox
filmography
filmakers
##ilev
##ilections
##otherapy
vee
vez
veers
veiled
veiw
vehement
##ango
##anglement
##owness
hoars
hopped
hopping
hoppers
hooray
##amente
reali
realities
mayors
mayfield
keith
##iregion
bestow
##feed
##feeding
highways
crim
crick
crunk
cramp
crummy
cranks
cromag
remod
remanu
remeber
remenis
cdo
cdr
throughly
marau
marrow
marjor
marley
maroon
margar
marpol
marvin
marcello
marriages
1900
1912
1917
1918
1923
1916
1901
somethin
##ublj
traces
traject
traits
traitor
traverse
trailing
conco
concord
concili
concomitant
emit
emachines
longman
longstanding
puting
consent
consort
musicology
monet
monks
moniter
monarchy
monkeys
##appen
albino
suppliers
founders
smiles
smashed
smiley
smacks
smarter
reviewes
decid
decode
decouvrir
decameron
decommissioning
indest
indones
induces
indignant
believ
belfast
belatedly
purit
purdues
flim
flout
flown
flaut
flats
flacc
flashing
flirt
flushed
flaky
flirts
flakey
flurry
positing
secures
securities
downplay
righteous
##phed
##pherson
##phrases
lifeforms
factually
factories
amazement
daylights
daydream
wherein
wherewith
whereareyou
##otheme
terse
teratogen
teresa
##ocaine
##ocentric
pointy
baddie
funim
fungic
takeover
settles
simone
simulate
similes
simmons
##rectly
clevern
cleaver
cleopatra
matte
matting
maturing
maturity
extrane
extrad
extemely
##ailed
faring
farrell
farcical
dvr
##meal
transpired
transbound
transpire
transatlantic
transplanted
dvdand
jock
jocks
joins
obvi
helper
helmet
opium
opacity
authored
authorises
##ibile
##ibian
minogue
miniser
classless
classiest
classifying
hereby
owns
attac
deft
defies
defied
defiance
defunct
defenses
discone
discourt
disconcer
lotta
gameing
showers
showdown
showcasing
essex
eschews
happing
startup
startech
##cycle
somethings
lastest
subj
subpar
subvers
subcription
subwoo
sincer
accross
accredited
accustomed
##deco
tryin
##ceptions
borring
borgir
genie
genetically
differnt
cheery
cheats
cheering
cheesed
programing
relive
relives
relocating
relativ
boh
boor
bock
bopper
boaring
boasts
bohem
goings
versed
versatility
foie
fosters
foaming
foibles
triad
tripped
triology
trippy
trivial
triplanes
trifle
sydney
ecu
ecm
ecstatic
eclip
ecstasy
eclips
glit
glut
glide
glows
glenn
glimm
gliders
glaci
glitz
glancing
persian
##unde
##undgren
pha
phased
phob
pharre
pharcy
purchaser
##ignault
##posure
insite
insists
insured
insulated
insidious
carn
carb
caric
carring
carlin
carrey
carrie
caracters
carnation
caranza
carwash
caracter
##ludes
##luded
##icules
slit
slid
slant
slop
slum
sloth
slug
slav
slots
slims
slush
slob
slouch
slammed
slimming
slumber
slithers
wobble
collage
colletti
##avez
orign
origional
##licable
##iano
##acra
communit
communistic
policing
policemen
apoc
apoll
apaches
edith
edible
novelist
concerto
warp
wario
warren
warrick
warrants
warlord
warrenty
favs
favro
favorties
##onomics
##onomantique
bigoted
elated
elise
elites
elusive
elaine
elapsed
retrod
retired
retold
retitled
retrie
retreating
reticent
schn
schwar
schmalt
schumann
stateside
differentiated
provocative
kindness
##cilable
##cilessly
##bee
##bekistan
artisans
understandably
wah
waving
waxy
waech
waffen
waaay
legolas
handyc
handouts
handgun
handpainted
quests
evange
evaded
evanes
evidences
evvy
singularity
singalong
singapore
invade
invoke
##otechn
humiliation
humbly
##cribed
##cribable
laced
awed
awry
awoken
personified
horn
horr
horne
llc
ideologically
surp
surm
surest
basil
basest
baseline
listenings
viewfinder
videost
confed
confines
confuses
confession
confisc
confessions
confirming
confinement
exams
examines
examinations
smallpox
definate
childress
childless
childcare
##nev
##nebaker
##mania
grouping
demi
demons
demograph
demonic
demyst
particulary
forma
formulate
formulated
detest
detour
detention
detrit
detroit
ceramic
turntable
turnaround
##ostrate
##osterous
expedi
expander
expati
characterisations
camper
camco
camoufl
##noted
experiece
experiments
fullscreen
##ionaly
##ixon
##ixes
##ixing
explic
possib
possession
possessions
##tersbach
avon
avent
avant
stupefied
earp
eared
earns
earlands
earhook
approves
fanci
fanboys
fanatical
fanatics
picturing
pictorial
calla
entities
entices
entanglement
powerpoint
generating
generators
generously
generosity
numb
tyres
tyler
tynan
wishy
futility
##ractic
##ractable
pretensions
pretzel
##lectually
asser
assas
assad
assuring
assorted
assortment
cured
curbed
curls
bitrate
threefold
socialite
corrie
corcor
correlation
corazon
excellente
advising
respon
graves
grains
grapevine
gracias
debuted
debris
follower
histrion
chronomantique
batte
battled
batgirl
housewife
starz
starved
starcd
starlite
dru
drone
drank
druck
drugg
restate
restrained
workshop
sitka
engli
engages
engagements
skim
skies
skull
skater
skunk
skirm
skilful
##ashbuck
presentations
##prit
competion
competitor
costco
costuming
governo
misspent
refine
refills
refilled
refrain
refractive
reflex
reforestation
developmental
developmentally
10gb
braces
bracket
mindful
exclaimed
excusable
lighted
capulet
treath
##parent
altho
makings
##renees
##renheit
terminating
terminated
solbes
solomon
perfume
##ells
probes
probly
probability
##ussed
clearing
sono
sonnet
brochure
craz
crais
crabby
careless
sciences
shorten
shortened
shortcuts
extremes
totalling
totalled
airs
airy
airing
airhead
airlin
airlift
heady
header
headings
headline
headrest
headlights
headbanging
##ucult
##ucutres
beauties
christie
vala
valance
##ggs
##ggers
##ggles
techo
techie
condo
condos
condense
redra
redone
redness
redchair
reductions
reddish
nightly
nightstand
nightrider
nightingale
runners
runedance
stylish
styrofo
perfecto
medina
meditation
medea
medela
medusa
medzor
kidde
kidnap
##sson
livecrime
enterta
holdin
infom
infancy
inflection
infrequ
infuriating
untrained
controling
creaky
freighter
freesia
opinionated
afflict
##ificant
publications
envir
enviro
depot
depreci
depopulation
##pshire
appease
younker
distill
distopia
locating
locals
locomot
schooling
thankless
##queg
freebie
lackada
##lingly
planner
lineage
titus
falla
behaves
servlet
servlets
##gedy
screamed
opprob
opperating
oppinion
pried
prizes
constell
constru
brew
breaches
brevity
metres
metroid
sizeable
humanly
humanist
finely
finepix
superman
superhuman
supermod
processor
processors
admin
admitt
admited
technologically
technician
##roduce
##roductive
passwords
paperless
paperwork
principe
banda
##lander
##iernan
textually
mattered
annals
annabel
announcer
protesting
resultant
pasta
pastry
pastels
##worked
##sonian
##mmet
##ruhe
##ewed
etch
estes
estado
equity
equals
equalled
equipping
batterie
##ccion
##apsing
##overall
stayin
##returnable
unfortunatly
raid
rake
raved
raison
raidos
##elties
cops
##ovak
commonly
finishes
doulgass
nonreturnable
pais
pausing
paula
cutout
audition
auditing
audits
employs
literiture
hunderd
youngster
vargas
##masters
lawful
barth
barber
barren
barnes
barbell
langston
messing
messina
reformational
heartwood
heartedly
allowable
allowance
typewriter
improvis
hopkin
ensue
ensured
busquin
singlemind
swan
swim
swind
swapped
swarm
swapping
swashbuck
##factured
##umpy
##umpin
##gnosis
connors
nationalist
practise
generalisations
##zzz
##zzell
##entials
camerawork
entertainer
forwards
garter
garry
garmo
garnell
gargoy
profund
profuse
resolutely
208
2025
20ºc
immune
immorality
cheapened
romij
sidek
sidewalk
expresso
illusion
erb
erin
erich
erase
erna
errs
erkki
erickson
##wells
replacem
christmases
deloach
delusional
imaginable
##pendent
##bob
##boats
##onto
signatories
alongs
effortlessly
saturn
steward
steaming
painter
necessity
necessarly
necessitates
closeups
strain
straits
strapping
straining
rocknroll
milli
milloy
sadie
sadler
excepting
excepted
guessed
electing
electroc
moris
moralistic
morris
furture
breaker
slowest
cavern
harass
harvey
harpoon
harriet
motors
midget
midworld
midlands
midlife
midsection
soulless
visor
visibly
viscer
waterfront
wearings
sexes
sexed
sexiest
modem
modules
mister
misapp
misread
misused
misuse
misfit
misfire
miscal
misfits
misdem
misaligned
misadvent
testifying
devine
gifting
##hehe
##insy
##insale
##insky
whitewashed
whitechapel
negligence
negativity
shipp
shivers
stuffs
stuffer
rayner
raymond
##obile
fireworks
godly
godwin
##ricone
moderation
impressing
winced
win98
statue
periodically
colorless
colorwave
colorblend
##broner
soften
softly
fairer
fairies
fairyc
patter
patio
patton
##ovement
##goat
copycat
combos
coolness
dams
damm
damnes
photost
establishments
eyepiece
designate
lowly
##ahn
##ahaha
critize
critiques
moderns
modernity
modernism
modernised
modernising
laband
labelling
labrynth
docups
epig
epics
epoch
masterwork
masterpeice
snes
snatch
snail
snows
snuff
corrects
correction
legalities
legalised
menace
mencken
screened
##venting
##ographed
##mingham
##comp
exacting
brandt
brandenburg
organises
organizes
organisms
collegues
susan
susanne
gerber
geriat
idol
blacks
blacky
blackmail
sores
sorcery
delia
researcher
contributors
johns
##ycological
predilections
intelegent
intelectually
tvs
postive
postulates
##naire
121
1260
walter
builder
ridge
riddle
ridicules
orwellian
precis
transports
doubted
30s
radiological
lads
presidencies
holiness
hologram
strategically
50th
hotels
mistitled
mistranslated
##menistan
##urds
##urdened
encry
encasement
fille
fillers
shopper
risible
##bya
stopper
antics
conceptions
conceptual
pressurize
windy
applicability
annoys
populist
populate
suffocating
suffolk
##locks
beyerl
weakling
weakened
investor
investiture
##owski
jackie
sandals
noteworthy
cleanly
cleanup
babes
babys
##rationality
##letter
##leties
deserted
summing
summaries
macs
macab
macnee
macpherson
prepares
focal
focussing
beatle
keynes
keystone
eventhough
##ilians
contentious
typography
deliverance
customization
##itarisation
apprends
ruiz
rukh
rugrats
germanys
multimeter
multilayered
multiregion
unites
publishes
stickler
progressively
documenting
iris
irons
illustrates
soulwax
merge
merci
merged
mercut
mercilessly
welch
welsh
deadwood
cookbooks
danny
danielle
haunts
##vertide
essentials
jeu
jeep
frameworks
##ophag
puede
puedo
sensical
sensibility
sensibilities
repealed
footwork
footwear
footnote
footnoted
fundamentals
environmentalists
leaveamess
scarp
scarce
viene
viker
##ascular
deepen
geo
richter
richness
richards
heroin
revamp
revisions
reviled
revoke
shiping
shipbuilding
rollator
rollicking
conditioner
conditional
tasked
searchers
40g
406
402
40yr
40388
sweep
sweeet
forceful
dropo
puller
melba
adultry
travelogue
inspiron
802
dreamt
dreamcast
dreamboat
hygi
hyanc
davenport
daignault
normand
renounced
renissance
renfro
protectionist
gentler
##sc2
##scenes
maxa
collectable
collectively
modeling
bottomless
bottomline
fundamentalism
credence
creditable
credulity
credentials
suspiria
bikin
biologist
biographer
biotechn
vanishing
vanilli
vancou
sequal
sequencing
brotherhood
avoids
predictably
italics
animalistic
##zef
truthful
smoky
smoothing
discoverd
grandiose
identifiable
toured
tourists
commentator
dissip
dissape
dissolved
disservice
dissolve
advertises
handspring
groundbreaking
catchphrases
layed
layperson
ohio
toolfet
preventive
applets
millionaire
billing
billboard
motherboards
petition
petco
petrol
##umba
momento
rubig
##vantes
prosec
activate
activision
psp
psued
virg
0066
fascistic
fascinated
fascinates
pairing
transforms
milked
milky
militarisation
##cutive
booted
bearable
purposely
purposeful
philip
earthly
centralising
wallace
thinly
ineptly
negotiated
negotiators
heavyweight
birthright
pillage
pillaging
tener
thorugh
thorougly
townsend
##ammy
bordered
borderless
adventurous
riis
temas
tempos
temples
template
uncond
uncoord
uncorrect
preferably
preferential
preferring
montand
dramatisation
hurried
netnav
salon
salad
salman
saludos
salinger
throwback
seasonal
spoiling
spohr
bangin
banalities
dimentional
dimmu
fiery
joyous
joyful
joystick
tasteless
innate
innuendo
waisting
waisted
waistband
115
turbo
turtles
turistas
turtur
tablets
tableware
exchangers
magick
magestic
flatly
flatter
flatware
flattering
cinching
cinnam
msa
msg
mystics
mystique
impossibility
impossibly
macho
diva
divas
divisions
dividend
crimea
benefiting
benefitted
downloadable
0007
aimless
hooking
nearer
disappointingly
appearence
harmed
##ikov
educating
campers
campfire
campfires
dulles
fixx
fixation
junkies
ulob
ulmer
sharks
scripting
scriptwriters
authorship
violently
cato
pennebaker
pales
paltrow
palpable
rapunzel
vernacular
woodwork
hawai
obsess
obsoles
denies
denying
hella
148
144
14yr
autre
autism
berg
berstein
berlitz
undest
unduly
undef
undubbed
undevelop
##ieties
bunches
cartels
civilians
tenderness
firmer
contexts
globally
satisfies
99cents
durbervilles
durrell
broadening
trashed
keepsake
##uggle
privy
13x
13th
1394
##ettos
webpage
liberated
transfert
intelligents
analysing
globalised
lander
landis
landlock
landlords
arranger
extends
depressive
protects
legislators
prima
primrose
unrel
trusty
guitarists
uniquely
##kyo
stageco
haircuts
regretting
detergent
civilian
civilised
1850
pathologist
pathetically
colder
coldest
buggin
telegram
telegraph
telepath
televisions
negatively
ledge
terrify
naturalist
flexibly
duplex
sampled
samira
##imentary
thrillers
criminalise
bowe
bowis
##yche
##10e
strips
striped
noticeably
photoshop
bayer
bayard
baggage
forgone
degassing
safehold
crux
cruci
cruising
cruiser
artistically
practicality
sweeter
sweetest
sweetheart
eurasia
euratom
hunters
huneker
massage
pcs
pcos
pc55
dependability
goldberg
goldrush
faithfull
greener
psychotic
psychologically
psychosis
psychopath
calam
calyp
crypt
juniors
juncture
wilder
##ercise
sunglass
magician
writter
168
165
16gb
ceo
ceased
cecil
mcl
mcsh
mcwill
mcdonald
mcgreg
mcgee
mcvay
mcquarr
##shop
##shire
##shock
##ennial
choke
embod
embroiled
bleed
bleek
scrooge
robust
homily
hombre
optical
praxis
prairie
##eroa
unfilm
unfaith
unflattering
unfettered
religios
177
17th
1762
normaly
normalization
java2
lolita
matching
narrating
vibrating
islander
separating
mannered
brownies
2458
2496
crock
croft
cropped
crooning
crochet
streisand
unspo
unsuitable
magnitude
spanx
1961
philosophic
philosophers
##balling
obliter
boarding
disturbs
bona
boned
##rida
threaten
rejects
rejections
impacting
methane
occurs
occurances
occurrence
kosovan
kosovar
frights
frighting
coordinator
coordinators
bloodsport
bloodrune
subsidised
determining
squeals
squeaky
squeamish
forties
fortitude
fortran
##charine
##characters
weirdness
quotation
quotable
syncing
adoptive
circumference
fooling
foolhard
tougher
toughness
chaired
comprised
comprising
familiarize
visualize
ghz
ghettos
hillage
hillbilly
jumpin
raby
rabit
rabassa
foreigner
declining
variants
pillowcase
congratulated
silvertide
tapestry
voz
voila
lifesty
armchair
armaments
archival
smiths
smithsonian
yesteryear
succeeding
impressionable
harmonise
g4s
graduated
empowering
empirically
physician
battlechips
limitation
limitless
popularise
popularized
virtues
obligatory
90210
linux
masse
mouths
mouthpiece
villagers
##bao
washy
sherri
sherry
ambul
ambass
ambience
repetit
repetitions
1972
consultant
consultants
consultancy
flicker
flickering
dares
darien
fashions
marty
martyrs
ringing
squir
squarely
squandering
squadron
##crush
commerical
attracts
survives
surrounds
gambling
omn
omits
omitting
ranked
rancid
witless
##ventional
permissive
pursues
scheming
rhyt
interpretive
jerky
jerusale
lui
lucht
luigi
rambles
##locker
execs
frankie
franklin
qualification
qualifications
transliteration
italiano
mp3s
ayers
ayud
boos
boob
booster
boook
corect
ethos
ethanol
murky
miranda
ratification
ratifying
rattled
tobbaco
storming
shakespere
deceased
deceived
tricky
trickery
strictness
flashlink
assumption
mountaineering
breathy
commercialism
commercialized
7024
bulging
mothmen
toner
tonal
toners
tacked
tackles
vampirism
enthus
recomendable
speculations
investigators
2110
2123
2127
2124
burt
burr
boundless
nicole
sickly
sickest
sickness
sickening
shelve
shelters
intriging
spinster
restricting
creepiness
incorporating
604
karls
karamaz
viao
wedged
wedges
reveiw
knocking
phrased
distribute
distributing
barbarian
barbarism
elevators
holidaymakers
griff
gripped
gripes
ironed
ironies
micus
microt
pinth
pinned
pinched
rounds
teddy
provoke
provokes
medias
mediation
liberalise
liberalised
saned
sanction
sanitation
interacting
policewoman
dumbbell
galv
galicia
galapas
kinetic
splur
splattered
splinter
clancy
hosts
hostage
hostility
defendant
southside
southwest
journalistic
journaling
murdering
bureac
hosiery
malcol
malaise
malicious
slips
ashame
blocking
blockade
blockbust
opposes
opposites
streetz
censures
censoring
cyclical
juice
paddle
padded
padanian
skeleton
##eyes
##iesto
##cended
proceeds
unnecesary
bloated
smartwool
counterfit
affording
ignoram
jewels
bellydan
obtainable
revolver
revolted
revolutions
bureaux
kernel
kernels
pancakes
rushdie
wilife
xenote
revenues
staffs
allocating
implicit
reccomendation
overdid
overdram
overdubbed
paintbrush
cuxhaven
dedicate
deductions
deducted
tori
torned
tormented
torqued
toronto
##lorator
stationed
mysteriis
username
prompts
angelilli
altman
spectre
spectral
attends
frighteningly
doctoral
bankers
brighten
brightness
lamar
lamps
lieu
seminal
loggins
subtly
subtitled
subtleties
litre
litig
litany
liturg
mutants
venom
##egro
##concilable
##viated
streamlining
quieter
launches
crawlers
sharpening
mainstreamed
ibooks
zeno
##urti
remarkably
anticipates
automatical
praiseworthy
microec
microcred
gorey
gorecki
kobe
maryland
sleek
velco
velzen
widows
accomod
crackling
medicinal
castlevania
tremble
westerners
hospitalized
astley
piers
piqued
papa
russians
##fordshire
reliant
reliably
anchors
mythos
mythical
trilogies
locker
lockup
recalling
afternoons
thruout
tribal
tribun
fortunes
burdens
fateful
gaskets
kicked
lester
rotates
rotterdam
rainfall
ripoff
tombstone
proponents
delegated
plantation
overlong
overlapping
blurb
blurred
blurays
cornwall
yellowed
yellowstone
neighbourhood
brigh
briggs
derive
derrick
derisory
derrida
##ropractic
manageable
explosives
corporation
analyst
analyzed
fingerprint
accomplishing
arabs
hideously
##bbly
industrious
folder
distracts
magnificant
magnificently
dickenson
executable
accompaniment
262
265
pork
porter
racks
venturing
ventured
ventilated
beaches
stiffs
feeble
relaxation
advisable
shootout
shootings
wheeler
uninterested
journalism
boreing
cowardice
fuji
fujitsu
gaye
jamie
punchy
rivetting
inkling
anglo
##opsy
compensating
peppercorn
bravely
motivate
universality
universities
optimal
disagreeing
daugher
pitying
pounder
##piring
##borness
hammond
washings
unwanted
unwaver
dispatch
disputed
dispensed
dispensing
parenthood
stringing
remixing
minimis
evaluating
approximate
envisages
envisaging
rawlings
channeling
browder
dictates
flix
flipped
flips
gillette
nerds
patchwork
ukraine
ufc
ufology
threaded
threadlocker
stabbing
deleting
delicacy
converge
converted
pronouncing
lovingly
bucky
buckets
facilitated
markedly
decorations
snowman
snowboarding
irrefut
irreverent
irreconcilable
kingdoms
folktales
embarrasing
fulfils
dynamically
bt250
bombay
bombastic
bombarded
fondly
nuest
nuestro
stipulate
stipulating
youthful
overviews
contractor
cornerstones
absurdly
absurdity
excitment
swede
fairytale
monopolised
correspondence
ticking
ticked
tickler
inadequately
halls
halliday
seamlessly
platinum
platitudes
codified
bullying
bullsh
bulldo
overwhelms
retailing
bitspider
barnouw
subtitulos
crocodiles
heavenly
bentley
cosmic
crowds
pedals
rumour
rumoured
sirens
##worded
shrie
shrine
shrank
shroud
shrinks
shrugged
shrubs
segreg
commands
commandments
leanings
coffin
buffet
backpacks
1951
1953
concretely
chews
horsemen
surrendering
detecting
detectors
pretending
pretended
advocated
romanies
romanian
illegally
illegible
illegality
illegitimate
imaginatively
treasured
rivera
spectacles
refreshingly
arabic
arabia
arabian
cfp
cfi
cfsp
catherin
dental
giggled
harshly
ilustr
jonathan
nominee
napster
napolitan
##inguishable
rende
chafer
canceled
cliffnotes
##quisites
perpetrate
perpetuating
sprint
sprink
sprouted
glorifying
gloriously
admirers
unexpect
unexciting
synthetic
synthesis
boosts
slipcase
slipcover
dhc
gutters
gears
htm
laure
laurels
lapland
naomi
##flies
injure
injuries
forecast
forecasts
##alleled
proportionally
alienate
unstitch
unstopp
unstopable
nova
novices
adapaters
preserves
paradigm
settling
bobby
insertion
distinctly
5000
baile
baiting
baaa
birmingham
elders
googled
louie
louder
pearls
porno
tossing
insect
hamlet
hamilton
hampshire
sugarcrush
scraw
scrapes
spellbound
spellbinder
parisian
incestuous
sparkles
handedness
breeders
photographic
convincingly
contemplated
contemplative
axess
busta
bustle
busters
hitchhik
ivies
nudge
nathanial
pinky
punkrock
roubillard
sfar
##creation
##create
##onnotheme
buttery
butterflies
shawn
monde
mondrian
incoming
incomparable
1947
1942
1945
1944
definitively
entreprises
profitability
occupants
substitutes
uncertainties
climaxing
soooooo
minimalism
exhaustion
29th
8100
benign
benches
fetish
gilbert
lucie
wiser
##listed
##bursement
revelatory
megal
loyola
arcane
arcadio
inclusive
inclusions
traveller
indulge
indulging
inserting
slicker
detracted
relevancy
bargains
fragments
fragmented
embaraz
embarked
routinely
overwhelmingly
fictionalized
6527
athow
athlon
cyndi
dora
dork
doris
tornado
wiccans
zeff
zebra
zelda
##aaaa
##olyn
thermos
reborn
reunite
reunited
stinking
outsiders
disadvantages
buzzword
buzzwords
resuming
graters
puritanism
espn
espoused
complemented
complementary
judgemental
sweaters
landscaping
cassettes
##zzzzzzzzzzz
insecurities
0341
0352
bilious
bilbao
cottages
domain
dominating
ellen
ftp
ftm
kenny
lidocaine
rusty
seduce
wetness
rewinding
rewiew
strokes
comedia
deploring
molding
cockpit
oversea
savior
savoring
appointments
memorized
1930
1933
1932
transmits
transmitting
joanie
joanne
sloven
evoking
idealism
chronicle
restructure
perfectionism
extremly
extremists
airedale
airedales
principals
principales
bedrooms
advertiser
utilised
utilising
utilisation
tempi
tempest
breathtakingly
horrifyingly
stabilization
navigator
celebrity
celebrating
augustine
reprinting
endeavor
dillin
dillion
fueled
ljublj
loro
lori
lorraine
nicholson
rationalize
rationalisation
wolves
wolitzer
yelling
reiterates
angelic
cherish
cherished
chucked
compulsive
tagalog
resembled
inconvien
keenly
supplemented
thoughtfulness
insufficiently
apologetic
viewpoints
redundancy
crews
creamy
suspending
drowns
verbose
unevenly
disagreements
platforming
anecdote
370
46d
bossa
bosses
cereals
dystopia
dystopic
egoism
echoes
echoing
gelfand
khakis
khandi
pouring
roget
sidel
reassuring
sterile
stalinist
analogies
lipsticks
proclaim
procacci
deployment
championship
suitcase
unforg
pledged
compasses
coinciding
intensifying
fearsome
oversight
oversize
scooters
prevails
regenerating
incentivise
inconsist
monotone
monotony
expeditions
expeditiously
oppressors
riddles
turkmenistan
rigidly
legitimately
legitimising
elizabethan
breezy
cushioned
giants
jacuzz
lazare
munsel
nikki
nikitin
poolside
ribeyes
sabotage
##croft
##hyth
bello
stimulation
stimulated
stamped
shaman
prohibitions
sewer
sewed
degradation
decepticon
decepticons
alarmed
exaggeration
supers
unmatched
unmemorable
tranqu
tranformers
cobra
dignified
adjectival
intimidation
poseidon
scraping
scrapyards
grooving
vegetation
trailers
indisput
fluffy
transfixed
retrograde
assassinations
capsules
absolutley
protestant
protestants
modestly
complimentary
trekk
trekking
dissappointment
privileged
polluters
disseminate
reminisce
7000
bomber
bombing
dunno
dunbar
furnish
furnace
kyra
kyuss
lingering
lusts
olay
olivier
pacts
tanto
tantrums
zr20
zr45
forbids
antony
chorography
freddie
noirs
lecturing
outrageously
clincher
clockwork
resigned
persecut
perseverance
accelorator
offenders
sparking
sparingly
branches
holland
holladay
extracted
extractors
accommodated
accommodations
fostered
exceedingly
entailing
entailed
airports
colonized
stealer
1000amp
tripods
reinstate
reinstalling
incomprehensibly
astrolog
paradoxes
paradoxically
gossipy
vacuumed
cubbies
gallagh
gosh
gossett
lindsey
ralink
svcd
valle
wreak
wrecks
wrecked
woundn
wounds
##ochial
##anthropic
antec
convex
prerequisites
abolition
unravelling
levy
levitation
adheres
adherence
[...]
