{
  "version": "1.0",
  "truncation": null,
  "padding": null,
  "added_tokens": [
    {
      "id": 0,
      "content": "[PAD]",
      "single_word": false,
      "lstrip": false,
      "rstrip": false,
      "normalized": false,
      "special": true
    },
    {
      "id": 1,
      "content": "[UNK]",
      "single_word": false,
      "lstrip": false,
      "rstrip": false,
      "normalized": false,
      "special": true
    },
    {
      "id": 2,
      "content": "[CLS]",
      "single_word": false,
      "lstrip": false,
      "rstrip": false,
      "normalized": false,
      "special": true
    },
    {
      "id": 3,
      "content": "[SEP]",
      "single_word": false,
      "lstrip": false,
      "rstrip": false,
      "normalized": false,
      "special": true
    },
    {
      "id": 4,
      "content": "[MASK]",
      "single_word": false,
      "lstrip": false,
      "rstrip": false,
      "normalized": false,
      "special": true
    }
  ],
  "normalizer": {
    "type": "BertNormalizer",
    "clean_text": true,
    "handle_chinese_chars": true,
    "strip_accents": null,
    "lowercase": true
  },
  "pre_tokenizer": {
    "type": "BertPreTokenizer"
  },
  "post_processor": {
    "type": "TemplateProcessing",
    "single": [
      {
        "SpecialToken": {
          "id": "[CLS]",
          "type_id": 0
        }
      },
      {
        "Sequence": {
          "id": "A",
          "type_id": 0
        }
      },
      {
        "SpecialToken": {
          "id": "[SEP]",
          "type_id": 0
        }
      }
    ],
    "pair": [
      {
        "SpecialToken": {
          "id": "[CLS]",
          "type_id": 0
        }
      },
      {
        "Sequence": {
          "id": "A",
          "type_id": 0
        }
      },
      {
        "SpecialToken": {
          "id": "[SEP]",
          "type_id": 0
        }
      },
      {
        "Sequence": {
          "id": "B",
          "type_id": 1
        }
      },
      {
        "SpecialToken": {
          "id": "[SEP]",
          "type_id": 1
        }
      }
    ],
    "special_tokens": {
      "[CLS]": {
        "id": "[CLS]",
        "ids": [
          2
        ],
        "tokens": [
          "[CLS]"
        ]
      },
      "[SEP]": {
        "id": "[SEP]",
        "ids": [
          3
        ],
        "tokens": [
          "[SEP]"
        ]
      }
    }
  },
  "decoder": {
    "type": "WordPiece",
    "prefix": "##",
    "cleanup": true
  },
  "model": {
    "type": "WordPiece",
    "unk_token": "[UNK]",
    "continuing_subword_prefix": "##",
    "max_input_chars_per_word": 100,
    "vocab": {
      "[PAD]": 0,
      "[UNK]": 1,
      "[CLS]": 2,
      "[SEP]": 3,
      "[MASK]": 4,
      "!": 5,
      "\"": 6,
      "%": 7,
      "'": 8,
      "(": 9,
      ")": 10,
      "+": 11,
      ",": 12,
      "-": 13,
      ".": 14,
      "/": 15,
      "0": 16,
      "1": 17,
      "2": 18,
      "3": 19,
      "4": 20,
      "5": 21,
      "6": 22,
      "7": 23,
      "8": 24,
      "9": 25,
      ":": 26,
      ";": 27,
      "?": 28,
      "[": 29,
      "]": 30,
      "a": 31,
      "b": 32,
      "c": 33,
      "d": 34,
      "e": 35,
      "f": 36,
      "g": 37,
      "h": 38,
      "i": 39,
      "j": 40,
      "k": 41,
      "l": 42,
      "m": 43,
      "n": 44,
      "o": 45,
      "p": 46,
      "q": 47,
      "r": 48,
      "s": 49,
      "t": 50,
      "u": 51,
      "v": 52,
      "w": 53,
      "x": 54,
      "y": 55,
      "z": 56,
      "£": 57,
      "º": 58,
      "¾": 59,
      "ß": 60,
      "ø": 61,
      "##a": 62,
      "##n": 63,
      "##u": 64,
      "##f": 65,
      "##c": 66,
      "##t": 67,
      "##r": 68,
      "##e": 69,
      "##i": 70,
      "##s": 71,
      "##h": 72,
      "##l": 73,
      "##o": 74,
      "##k": 75,
      "##g": 76,
      "##d": 77,
      "##v": 78,
      "##p": 79,
      "##y": 80,
      "##x": 81,
      "##z": 82,
      "##b": 83,
      "##m": 84,
      "##w": 85,
      "##j": 86,
      "##ß": 87,
      "##1": 88,
      "##9": 89,
      "##4": 90,
      "##5": 91,
      "##q": 92,
      "##7": 93,
      "##6": 94,
      "##8": 95,
      "##0": 96,
      "##º": 97,
      "##2": 98,
      "##3": 99,
      "##¾": 100,
      "##ø": 101,
      "##en": 102,
      "##er": 103,
      "##ch": 104,
      "th": 105,
      "##in": 106,
      "##on": 107,
      "##es": 108,
      "##nd": 109,
      "##at": 110,
      "##it": 111,
      "the": 112,
      "##ie": 113,
      "##is": 114,
      "##or": 115,
      "##ur": 116,
      "##ion": 117,
      "in": 118,
      "##ich": 119,
      "##an": 120,
      "##ar": 121,
      "##st": 122,
      "##un": 123,
      "##al": 124,
      "##ent": 125,
      "##re": 126,
      "die": 127,
      "be": 128,
      "of": 129,
      "##om": 130,
      "to": 131,
      "##ung": 132,
      "##te": 133,
      "##le": 134,
      "der": 135,
      "##as": 136,
      "##ing": 137,
      "and": 138,
      "##ll": 139,
      "##ro": 140,
      "au": 141,
      "##ed": 142,
      "und": 143,
      "##ig": 144,
      "##em": 145,
      "##ir": 146,
      "re": 147,
      "ein": 148,
      "##ra": 149,
      "##ic": 150,
      "##op": 151,
      "##el": 152,
      "##omm": 153,
      "##ut": 154,
      "##eit": 155,
      "un": 156,
      "##et": 157,
      "##am": 158,
      "##icht": 159,
      "##id": 160,
      "is": 161,
      "zu": 162,
      "##ol": 163,
      "##ies": 164,
      "ver": 165,
      "##ul": 166,
      "an": 167,
      "##ge": 168,
      "##sch": 169,
      "##ve": 170,
      "wir": 171,
      "##ation": 172,
      "we": 173,
      "##ter": 174,
      "ha": 175,
      "that": 176,
      "st": 177,
      "##us": 178,
      "wh": 179,
      "##ten": 180,
      "pro": 181,
      "##lich": 182,
      "for": 183,
      "da": 184,
      "##ct": 185,
      "##hr": 186,
      "eur": 187,
      "##gen": 188,
      "##ber": 189,
      "##iss": 190,
      "##il": 191,
      "europ": 192,
      "no": 193,
      "##ere": 194,
      "den": 195,
      "##den": 196,
      "##isch": 197,
      "##ein": 198,
      "on": 199,
      "##ommiss": 200,
      "##der": 201,
      "##ly": 202,
      "this": 203,
      "so": 204,
      "er": 205,
      "it": 206,
      "al": 207,
      "dies": 208,
      "pr": 209,
      "im": 210,
      "##ommission": 211,
      "##and": 212,
      "en": 213,
      "##ier": 214,
      "con": 215,
      "##ort": 216,
      "##os": 217,
      "ge": 218,
      "par": 219,
      "auf": 220,
      "##de": 221,
      "das": 222,
      "daß": 223,
      "##ach": 224,
      "##im": 225,
      "ich": 226,
      "as": 227,
      "##ce": 228,
      "##ben": 229,
      "##ru": 230,
      "fur": 231,
      "##ment": 232,
      "mit": 233,
      "##ess": 234,
      "##ft": 235,
      "##ver": 236,
      "##men": 237,
      "von": 238,
      "are": 239,
      "de": 240,
      "##est": 241,
      "vor": 242,
      "co": 243,
      "##ill": 244,
      "ist": 245,
      "es": 246,
      "ne": 247,
      "nicht": 248,
      "##kt": 249,
      "des": 250,
      "not": 251,
      "##ff": 252,
      "##ith": 253,
      "aus": 254,
      "##uld": 255,
      "with": 256,
      "##ble": 257,
      "reg": 258,
      "which": 259,
      "##ischen": 260,
      "ma": 261,
      "##ust": 262,
      "##th": 263,
      "se": 264,
      "##la": 265,
      "##ive": 266,
      "europe": 267,
      "wer": 268,
      "##ould": 269,
      "##sp": 270,
      "##pp": 271,
      "have": 272,
      "als": 273,
      "##ke": 274,
      "eine": 275,
      "##ident": 276,
      "sch": 277,
      "dem": 278,
      "##ate": 279,
      "##ungen": 280,
      "##ament": 281,
      "##for": 282,
      "le": 283,
      "##ind": 284,
      "ex": 285,
      "##ah": 286,
      "ab": 287,
      "##ial": 288,
      "##we": 289,
      "##ity": 290,
      "europa": 291,
      "##iv": 292,
      "##ant": 293,
      "her": 294,
      "parl": 295,
      "commission": 296,
      "mo": 297,
      "will": 298,
      "##be": 299,
      "su": 300,
      "werden": 301,
      "sie": 302,
      "all": 303,
      "sich": 304,
      "##nen": 305,
      "ent": 306,
      "##aft": 307,
      "do": 308,
      "um": 309,
      "auch": 310,
      "##lie": 311,
      "##um": 312,
      "uber": 313,
      "sh": 314,
      "##ht": 315,
      "fra": 316,
      "uns": 317,
      "kon": 318,
      "##ann": 319,
      "##ern": 320,
      "##ahr": 321,
      "##ay": 322,
      "kommission": 323,
      "##ions": 324,
      "##ug": 325,
      "european": 326,
      "pol": 327,
      "##ungs": 328,
      "##end": 329,
      "##ist": 330,
      "##if": 331,
      "union": 332,
      "##ck": 333,
      "me": 334,
      "##iti": 335,
      "inter": 336,
      "##igen": 337,
      "ber": 338,
      "##ect": 339,
      "wie": 340,
      "##sen": 341,
      "##eh": 342,
      "by": 343,
      "pres": 344,
      "##schaft": 345,
      "ta": 346,
      "mr": 347,
      "sp": 348,
      "there": 349,
      "ar": 350,
      "or": 351,
      "at": 352,
      "##cht": 353,
      "##etz": 354,
      "##me": 355,
      "comm": 356,
      "fr": 357,
      "##hal": 358,
      "has": 359,
      "herr": 360,
      "com": 361,
      "##au": 362,
      "yo": 363,
      "ho": 364,
      "##ad": 365,
      "##gra": 366,
      "res": 367,
      "unter": 368,
      "##ure": 369,
      "##ang": 370,
      "##und": 371,
      "hat": 372,
      "##ers": 373,
      "##99": 374,
      "##iel": 375,
      "##ien": 376,
      "##eren": 377,
      "wird": 378,
      "##uß": 379,
      "##port": 380,
      "##keit": 381,
      "was": 382,
      "##ib": 383,
      "##ges": 384,
      "##gram": 385,
      "##all": 386,
      "would": 387,
      "also": 388,
      "sind": 389,
      "##se": 390,
      "nach": 391,
      "##aus": 392,
      "am": 393,
      "##heit": 394,
      "##ain": 395,
      "##ab": 396,
      "##ord": 397,
      "dar": 398,
      "bes": 399,
      "##ell": 400,
      "##beit": 401,
      "ges": 402,
      "##ische": 403,
      "ste": 404,
      "zur": 405,
      "##ken": 406,
      "##ip": 407,
      "haben": 408,
      "##ze": 409,
      "fin": 410,
      "##ult": 411,
      "##ted": 412,
      "mein": 413,
      "##asident": 414,
      "##lichen": 415,
      "coun": 416,
      "gro": 417,
      "##ard": 418,
      "program": 419,
      "bet": 420,
      "man": 421,
      "##ow": 422,
      "part": 423,
      "##ert": 424,
      "##ast": 425,
      "##00": 426,
      "but": 427,
      "##sam": 428,
      "##ens": 429,
      "##chte": 430,
      "##her": 431,
      "wen": 432,
      "##qu": 433,
      "diese": 434,
      "should": 435,
      "##ran": 436,
      "europaischen": 437,
      "##ag": 438,
      "bei": 439,
      "he": 440,
      "our": 441,
      "wor": 442,
      "parlament": 443,
      "##aat": 444,
      "##ational": 445,
      "you": 446,
      "dur": 447,
      "##zu": 448,
      "must": 449,
      "##iament": 450,
      "##ot": 451,
      "parliament": 452,
      "##cial": 453,
      "comp": 454,
      "president": 455,
      "li": 456,
      "einer": 457,
      "go": 458,
      "ih": 459,
      "##ise": 460,
      "ag": 461,
      "dis": 462,
      "##ember": 463,
      "##ige": 464,
      "qu": 465,
      "##ore": 466,
      "sein": 467,
      "prasident": 468,
      "##anz": 469,
      "##ue": 470,
      "##hen": 471,
      "ad": 472,
      "fa": 473,
      "stat": 474,
      "app": 475,
      "##ese": 476,
      "##ition": 477,
      "gem": 478,
      "sa": 479,
      "##rund": 480,
      "##rit": 481,
      "wur": 482,
      "##chen": 483,
      "##ical": 484,
      "##form": 485,
      "##io": 486,
      "##fen": 487,
      "199": 488,
      "##oll": 489,
      "##olle": 490,
      "##ement": 491,
      "##pr": 492,
      "##pt": 493,
      "##rat": 494,
      "region": 495,
      "been": 496,
      "from": 497,
      "##ations": 498,
      "di": 499,
      "##fu": 500,
      "ob": 501,
      "cont": 502,
      "##reat": 503,
      "member": 504,
      "##our": 505,
      "##ight": 506,
      "##ick": 507,
      "##og": 508,
      "wenn": 509,
      "soll": 510,
      "##con": 511,
      "inst": 512,
      "##pos": 513,
      "pos": 514,
      "##ussen": 515,
      "##able": 516,
      "ind": 517,
      "aber": 518,
      "##vel": 519,
      "ch": 520,
      "##ative": 521,
      "##wer": 522,
      "its": 523,
      "conc": 524,
      "##ome": 525,
      "##ok": 526,
      "rat": 527,
      "can": 528,
      "##ud": 529,
      "##itte": 530,
      "##stand": 531,
      "##cy": 532,
      "##ther": 533,
      "bericht": 534,
      "##cc": 535,
      "##lar": 536,
      "durch": 537,
      "##rag": 538,
      "these": 539,
      "##ute": 540,
      "##ark": 541,
      "mussen": 542,
      "mochte": 543,
      "##ely": 544,
      "##utz": 545,
      "zw": 546,
      "##ance": 547,
      "gen": 548,
      "polit": 549,
      "##dern": 550,
      "##ution": 551,
      "like": 552,
      "more": 553,
      "dieser": 554,
      "gemein": 555,
      "##lo": 556,
      "##ap": 557,
      "##reich": 558,
      "fre": 559,
      "war": 560,
      "spe": 561,
      "##igkeit": 562,
      "##elt": 563,
      "us": 564,
      "muß": 565,
      "##ommen": 566,
      "##ction": 567,
      "##out": 568,
      "##od": 569,
      "##ish": 570,
      "##ject": 571,
      "##oc": 572,
      "proble": 573,
      "hin": 574,
      "##ms": 575,
      "ihr": 576,
      "zum": 577,
      "##liche": 578,
      "##glie": 579,
      "##ieren": 580,
      "nur": 581,
      "need": 582,
      "just": 583,
      "pre": 584,
      "what": 585,
      "##ne": 586,
      "einen": 587,
      "##ider": 588,
      "recht": 589,
      "tran": 590,
      "##nah": 591,
      "te": 592,
      "##ik": 593,
      "##ally": 594,
      "noch": 595,
      "one": 596,
      "frau": 597,
      "##ary": 598,
      "##sten": 599,
      "inc": 600,
      "arbeit": 601,
      "if": 602,
      "polic": 603,
      "##staat": 604,
      "propos": 605,
      "##imm": 606,
      "##ments": 607,
      "##fore": 608,
      "alle": 609,
      "grund": 610,
      "str": 611,
      "konnen": 612,
      "land": 613,
      "report": 614,
      "##ts": 615,
      "##lin": 616,
      "my": 617,
      "sy": 618,
      "diesem": 619,
      "eff": 620,
      "kann": 621,
      "mon": 622,
      "##ank": 623,
      "##uss": 624,
      "po": 625,
      "##uch": 626,
      "##ierung": 627,
      "cons": 628,
      "dam": 629,
      "##ime": 630,
      "##cil": 631,
      "##mer": 632,
      "who": 633,
      "mitglie": 634,
      "##tschaft": 635,
      "##ktion": 636,
      "##ub": 637,
      "##itat": 638,
      "##ahl": 639,
      "they": 640,
      "import": 641,
      "int": 642,
      "##ass": 643,
      "leg": 644,
      "##ger": 645,
      "##ffen": 646,
      "vert": 647,
      "entsch": 648,
      "##ear": 649,
      "off": 650,
      "resp": 651,
      "jed": 652,
      "mehr": 653,
      "their": 654,
      "##che": 655,
      "##itik": 656,
      "##sicht": 657,
      "##stell": 658,
      "wurde": 659,
      "pe": 660,
      "##wo": 661,
      "##king": 662,
      "la": 663,
      "entw": 664,
      "deb": 665,
      "states": 666,
      "##gan": 667,
      "very": 668,
      "up": 669,
      "##ible": 670,
      "imp": 671,
      "##iden": 672,
      "initi": 673,
      "bec": 674,
      "##art": 675,
      "##pport": 676,
      "council": 677,
      "##erung": 678,
      "dec": 679,
      "##fahr": 680,
      "##mp": 681,
      "##fuhr": 682,
      "##teil": 683,
      "##lic": 684,
      "mitglied": 685,
      "##per": 686,
      "beg": 687,
      "out": 688,
      "commun": 689,
      "##stem": 690,
      "##neh": 691,
      "##los": 692,
      "##iert": 693,
      "##ond": 694,
      "##ster": 695,
      "##ice": 696,
      "hier": 697,
      "national": 698,
      "##feren": 699,
      "##ließ": 700,
      "oder": 701,
      "new": 702,
      "##he": 703,
      "gegen": 704,
      "kein": 705,
      "##int": 706,
      "zusam": 707,
      "##iven": 708,
      "groß": 709,
      "ra": 710,
      "##bar": 711,
      "##ry": 712,
      "zusammen": 713,
      "kolle": 714,
      "##uck": 715,
      "##gt": 716,
      "##alt": 717,
      "##leich": 718,
      "##ri": 719,
      "iss": 720,
      "count": 721,
      "##ities": 722,
      "sehr": 723,
      "fir": 724,
      "per": 725,
      "programme": 726,
      "##velop": 727,
      "acc": 728,
      "##amp": 729,
      "200": 730,
      "sit": 731,
      "mitgliedstaat": 732,
      "##iz": 733,
      "policy": 734,
      "weit": 735,
      "develop": 736,
      "ihre": 737,
      "intern": 738,
      "eu": 739,
      "##cess": 740,
      "sub": 741,
      "##ugh": 742,
      "entwick": 743,
      "only": 744,
      "##ordn": 745,
      "##ren": 746,
      "##schla": 747,
      "##vern": 748,
      "ur": 749,
      "partic": 750,
      "ev": 751,
      "other": 752,
      "##ility": 753,
      "sol": 754,
      "##ious": 755,
      "##conom": 756,
      "dieses": 757,
      "econom": 758,
      "them": 759,
      "##up": 760,
      "##arbeit": 761,
      "gew": 762,
      "end": 763,
      "##wend": 764,
      "##ural": 765,
      "einem": 766,
      "##reg": 767,
      "##ause": 768,
      "besch": 769,
      "concern": 770,
      "ter": 771,
      "##ced": 772,
      "##lung": 773,
      "##rie": 774,
      "car": 775,
      "##wn": 776,
      "under": 777,
      "##atter": 778,
      "fund": 779,
      "##ett": 780,
      "therefore": 781,
      "erw": 782,
      "ger": 783,
      "right": 784,
      "about": 785,
      "emp": 786,
      "##ention": 787,
      "##ular": 788,
      "prod": 789,
      "wo": 790,
      "##lichkeit": 791,
      "important": 792,
      "jahr": 793,
      "##land": 794,
      "time": 795,
      "1999": 796,
      "bur": 797,
      "europaische": 798,
      "programm": 799,
      "richt": 800,
      "##lear": 801,
      "any": 802,
      "reform": 803,
      "##auf": 804,
      "verb": 805,
      "##ose": 806,
      "unser": 807,
      "##ces": 808,
      "stru": 809,
      "geb": 810,
      "wicht": 811,
      "first": 812,
      "fe": 813,
      "##wir": 814,
      "transp": 815,
      "##ring": 816,
      "##iß": 817,
      "##ase": 818,
      "min": 819,
      "instit": 820,
      "pl": 821,
      "##etzt": 822,
      "best": 823,
      "##atz": 824,
      "hand": 825,
      "sicher": 826,
      "viel": 827,
      "##ives": 828,
      "peop": 829,
      "ko": 830,
      "art": 831,
      "##ong": 832,
      "social": 833,
      "because": 834,
      "ander": 835,
      "system": 836,
      "ins": 837,
      "when": 838,
      "ser": 839,
      "##assen": 840,
      "soz": 841,
      "work": 842,
      "vie": 843,
      "wirtschaft": 844,
      "cour": 845,
      "dire": 846,
      "##age": 847,
      "##ons": 848,
      "##llen": 849,
      "mitgliedstaaten": 850,
      "##igt": 851,
      "bereit": 852,
      "some": 853,
      "##pe": 854,
      "say": 855,
      "make": 856,
      "##forder": 857,
      "##halb": 858,
      "again": 859,
      "eben": 860,
      "##ak": 861,
      "group": 862,
      "##unkt": 863,
      "compet": 864,
      "frage": 865,
      "##ehen": 866,
      "take": 867,
      "unterst": 868,
      "fact": 869,
      "act": 870,
      "son": 871,
      "people": 872,
      "year": 873,
      "now": 874,
      "##mend": 875,
      "##ibt": 876,
      "quest": 877,
      "regional": 878,
      "particular": 879,
      "##dam": 880,
      "##ire": 881,
      "##lement": 882,
      "damit": 883,
      "##ner": 884,
      "##entr": 885,
      "denn": 886,
      "vorschla": 887,
      "mog": 888,
      "fu": 889,
      "##ated": 890,
      "proposal": 891,
      "##hl": 892,
      "auß": 893,
      "##geb": 894,
      "##ink": 895,
      "sozial": 896,
      "committe": 897,
      "tra": 898,
      "wel": 899,
      "into": 900,
      "initiative": 901,
      "amend": 902,
      "##uf": 903,
      "##iger": 904,
      "##nehmen": 905,
      "##ite": 906,
      "appro": 907,
      "##loy": 908,
      "mark": 909,
      "##inn": 910,
      "##ange": 911,
      "##uation": 912,
      "##gend": 913,
      "way": 914,
      "##vor": 915,
      "nat": 916,
      "##ign": 917,
      "##aß": 918,
      "prov": 919,
      "exp": 920,
      "support": 921,
      "##fol": 922,
      "##tet": 923,
      "finanz": 924,
      "community": 925,
      "##och": 926,
      "maß": 927,
      "zeit": 928,
      "##fur": 929,
      "##wever": 930,
      "however": 931,
      "##mal": 932,
      "##ision": 933,
      "bere": 934,
      "eing": 935,
      "##ues": 936,
      "##rol": 937,
      "stand": 938,
      "wieder": 939,
      "##nahmen": 940,
      "##legen": 941,
      "##ous": 942,
      "##day": 943,
      "beh": 944,
      "prin": 945,
      "##bewer": 946,
      "##one": 947,
      "##olitik": 948,
      "##xt": 949,
      "##wie": 950,
      "##innen": 951,
      "inv": 952,
      "rec": 953,
      "committee": 954,
      "##ide": 955,
      "op": 956,
      "gemeinschaft": 957,
      "govern": 958,
      "over": 959,
      "commissioner": 960,
      "##ific": 961,
      "clear": 962,
      "agre": 963,
      "##schen": 964,
      "see": 965,
      "meine": 966,
      "wett": 967,
      "##uer": 968,
      "##setz": 969,
      "##kon": 970,
      "##get": 971,
      "made": 972,
      "such": 973,
      "##bewerb": 974,
      "##ans": 975,
      "##tel": 976,
      "ass": 977,
      "wettbewerb": 978,
      "##ste": 979,
      "staat": 980,
      "##ween": 981,
      "between": 982,
      "eines": 983,
      "aussch": 984,
      "regard": 985,
      "bereich": 986,
      "##ism": 987,
      "political": 988,
      "##igung": 989,
      "##ries": 990,
      "rel": 991,
      "state": 992,
      "sc": 993,
      "unterstutz": 994,
      "within": 995,
      "##halt": 996,
      "heute": 997,
      "dann": 998,
      "##rage": 999,
      "consider": 1000,
      "development": 1001,
      "##ho": 1002,
      "##wort": 1003,
      "inform": 1004,
      "##ateg": 1005,
      "your": 1006,
      "sondern": 1007,
      "men": 1008,
      "##now": 1009,
      "ihnen": 1010,
      "##ban": 1011,
      "being": 1012,
      "situation": 1013,
      "##ures": 1014,
      "##uber": 1015,
      "disc": 1016,
      "nam": 1017,
      "##fall": 1018,
      "##ient": 1019,
      "direct": 1020,
      "fest": 1021,
      "##uen": 1022,
      "##mit": 1023,
      "ro": 1024,
      "sel": 1025,
      "poss": 1026,
      "bas": 1027,
      "mich": 1028,
      "##ile": 1029,
      "bez": 1030,
      "port": 1031,
      "red": 1032,
      "##act": 1033,
      "##deut": 1034,
      "##okrat": 1035,
      "lo": 1036,
      "diff": 1037,
      "debate": 1038,
      "2000": 1039,
      "finan": 1040,
      "aid": 1041,
      "zwe": 1042,
      "those": 1043,
      "env": 1044,
      "entwicklung": 1045,
      "gleich": 1046,
      "rem": 1047,
      "##ote": 1048,
      "##ertain": 1049,
      "great": 1050,
      "##unft": 1051,
      "##ings": 1052,
      "##ommissar": 1053,
      "gemeinsam": 1054,
      "pla": 1055,
      "were": 1056,
      "gel": 1057,
      "##alis": 1058,
      "##achen": 1059,
      "point": 1060,
      "pub": 1061,
      "##acht": 1062,
      "economic": 1063,
      "market": 1064,
      "lie": 1065,
      "##rif": 1066,
      "##satz": 1067,
      "##hang": 1068,
      "##zeit": 1069,
      "kommissar": 1070,
      "##dem": 1071,
      "abge": 1072,
      "##ving": 1073,
      "areas": 1074,
      "zwischen": 1075,
      "fall": 1076,
      "wahr": 1077,
      "##gr": 1078,
      "wirk": 1079,
      "##use": 1080,
      "entsche": 1081,
      "gibt": 1082,
      "treat": 1083,
      "##kte": 1084,
      "##ved": 1085,
      "belie": 1086,
      "gu": 1087,
      "requ": 1088,
      "##ors": 1089,
      "##essen": 1090,
      "countries": 1091,
      "question": 1092,
      "einz": 1093,
      "unsere": 1094,
      "know": 1095,
      "herrn": 1096,
      "problem": 1097,
      "##fl": 1098,
      "##issen": 1099,
      "##weis": 1100,
      "rechts": 1101,
      "außer": 1102,
      "bo": 1103,
      "##nis": 1104,
      "##oun": 1105,
      "##esent": 1106,
      "jedoch": 1107,
      "mar": 1108,
      "where": 1109,
      "sowie": 1110,
      "lea": 1111,
      "issue": 1112,
      "than": 1113,
      "##ieden": 1114,
      "##cip": 1115,
      "##chn": 1116,
      "##ied": 1117,
      "##ierungs": 1118,
      "princip": 1119,
      "tat": 1120,
      "regions": 1121,
      "##les": 1122,
      "##isten": 1123,
      "##mitte": 1124,
      "weil": 1125,
      "##mental": 1126,
      "add": 1127,
      "kollegen": 1128,
      "certain": 1129,
      "##hil": 1130,
      "##ority": 1131,
      "interreg": 1132,
      "international": 1133,
      "dan": 1134,
      "##ine": 1135,
      "##read": 1136,
      "##eten": 1137,
      "##ame": 1138,
      "##weise": 1139,
      "doch": 1140,
      "##mittel": 1141,
      "habe": 1142,
      "##zen": 1143,
      "bek": 1144,
      "##bei": 1145,
      "##ungsant": 1146,
      "how": 1147,
      "##qual": 1148,
      "urban": 1149,
      "bis": 1150,
      "##ild": 1151,
      "diesen": 1152,
      "scha": 1153,
      "competition": 1154,
      "mittel": 1155,
      "##halten": 1156,
      "beste": 1157,
      "fun": 1158,
      "ganz": 1159,
      "mir": 1160,
      "##richt": 1161,
      "portug": 1162,
      "##ister": 1163,
      "gesch": 1164,
      "effect": 1165,
      "hel": 1166,
      "mill": 1167,
      "##fe": 1168,
      "##iron": 1169,
      "##ragen": 1170,
      "##eln": 1171,
      "darauf": 1172,
      "natur": 1173,
      "environ": 1174,
      "auth": 1175,
      "ange": 1176,
      "present": 1177,
      "##ordnung": 1178,
      "hal": 1179,
      "##bes": 1180,
      "##erg": 1181,
      "forder": 1182,
      "implement": 1183,
      "##pro": 1184,
      "##ward": 1185,
      "bed": 1186,
      "financial": 1187,
      "sin": 1188,
      "##chten": 1189,
      "employ": 1190,
      "##ld": 1191,
      "##ough": 1192,
      "##welt": 1193,
      "##cept": 1194,
      "ext": 1195,
      "burger": 1196,
      "public": 1197,
      "last": 1198,
      "dafur": 1199,
      "selb": 1200,
      "##imin": 1201,
      "does": 1202,
      "order": 1203,
      "many": 1204,
      "believe": 1205,
      "##wor": 1206,
      "##antwort": 1207,
      "keine": 1208,
      "ever": 1209,
      "pra": 1210,
      "##isl": 1211,
      "geht": 1212,
      "##ktur": 1213,
      "wurden": 1214,
      "bereits": 1215,
      "maßnahmen": 1216,
      "##rechen": 1217,
      "##ruck": 1218,
      "kont": 1219,
      "##ibility": 1220,
      "incl": 1221,
      "legisl": 1222,
      "respons": 1223,
      "here": 1224,
      "want": 1225,
      "pers": 1226,
      "anderen": 1227,
      "ens": 1228,
      "regionen": 1229,
      "object": 1230,
      "##ov": 1231,
      "aust": 1232,
      "##licher": 1233,
      "dazu": 1234,
      "##ahmen": 1235,
      "fraktion": 1236,
      "good": 1237,
      "aff": 1238,
      "far": 1239,
      "matter": 1240,
      "##ater": 1241,
      "##stru": 1242,
      "##led": 1243,
      "##utions": 1244,
      "umwelt": 1245,
      "ihrer": 1246,
      "today": 1247,
      "madam": 1248,
      "gener": 1249,
      "##nahme": 1250,
      "even": 1251,
      "level": 1252,
      "rahmen": 1253,
      "inte": 1254,
      "deshalb": 1255,
      "democ": 1256,
      "leben": 1257,
      "strateg": 1258,
      "weiter": 1259,
      "##rib": 1260,
      "##ating": 1261,
      "most": 1262,
      "##hing": 1263,
      "think": 1264,
      "##oren": 1265,
      "selbst": 1266,
      "able": 1267,
      "##ga": 1268,
      "##olk": 1269,
      "alread": 1270,
      "leader": 1271,
      "already": 1272,
      "woll": 1273,
      "ziel": 1274,
      "##lish": 1275,
      "sagen": 1276,
      "possible": 1277,
      "two": 1278,
      "##enden": 1279,
      "prasidentin": 1280,
      "##ferenz": 1281,
      "denen": 1282,
      "richtlin": 1283,
      "##klar": 1284,
      "##leg": 1285,
      "could": 1286,
      "view": 1287,
      "##min": 1288,
      "form": 1289,
      "organ": 1290,
      "##aren": 1291,
      "##rei": 1292,
      "sollten": 1293,
      "##ference": 1294,
      "dra": 1295,
      "et": 1296,
      "fut": 1297,
      "##fin": 1298,
      "##llt": 1299,
      "##olog": 1300,
      "well": 1301,
      "area": 1302,
      "spec": 1303,
      "ant": 1304,
      "process": 1305,
      "resol": 1306,
      "fo": 1307,
      "##ondere": 1308,
      "##ac": 1309,
      "##gem": 1310,
      "then": 1311,
      "thank": 1312,
      "##oper": 1313,
      "haus": 1314,
      "unserer": 1315,
      "gebie": 1316,
      "citi": 1317,
      "nun": 1318,
      "##ene": 1319,
      "immer": 1320,
      "wichtig": 1321,
      "##geben": 1322,
      "energ": 1323,
      "meas": 1324,
      "parlaments": 1325,
      "##fer": 1326,
      "##rimin": 1327,
      "##are": 1328,
      "institution": 1329,
      "menschen": 1330,
      "jo": 1331,
      "letz": 1332,
      "versch": 1333,
      "may": 1334,
      "indust": 1335,
      "ac": 1336,
      "oster": 1337,
      "##ope": 1338,
      "had": 1339,
      "struct": 1340,
      "##hand": 1341,
      "##erst": 1342,
      "pri": 1343,
      "same": 1344,
      "vom": 1345,
      "##igh": 1346,
      "sollte": 1347,
      "inde": 1348,
      "incre": 1349,
      "own": 1350,
      "##druck": 1351,
      "verantwort": 1352,
      "stra": 1353,
      "sicherheit": 1354,
      "future": 1355,
      "##tend": 1356,
      "tax": 1357,
      "mrs": 1358,
      "course": 1359,
      "osterreich": 1360,
      "too": 1361,
      "ask": 1362,
      "schw": 1363,
      "att": 1364,
      "austri": 1365,
      "equal": 1366,
      "notwend": 1367,
      "produ": 1368,
      "##kommen": 1369,
      "##stimm": 1370,
      "##els": 1371,
      "conf": 1372,
      "said": 1373,
      "position": 1374,
      "##af": 1375,
      "regierungs": 1376,
      "anderungsant": 1377,
      "cann": 1378,
      "much": 1379,
      "som": 1380,
      "##zens": 1381,
      "cannot": 1382,
      "cult": 1383,
      "wissen": 1384,
      "bedeut": 1385,
      "##press": 1386,
      "##gangen": 1387,
      "##setzung": 1388,
      "wollen": 1389,
      "##ack": 1390,
      "why": 1391,
      "meiner": 1392,
      "entscheid": 1393,
      "citizens": 1394,
      "##punkt": 1395,
      "##isation": 1396,
      "##ory": 1397,
      "prodi": 1398,
      "information": 1399,
      "every": 1400,
      "put": 1401,
      "voll": 1402,
      "##ling": 1403,
      "##zip": 1404,
      "##isse": 1405,
      "##cond": 1406,
      "prev": 1407,
      "klar": 1408,
      "##isp": 1409,
      "##reten": 1410,
      "real": 1411,
      "##lage": 1412,
      "common": 1413,
      "years": 1414,
      "get": 1415,
      "his": 1416,
      "still": 1417,
      "second": 1418,
      "konn": 1419,
      "against": 1420,
      "amendments": 1421,
      "bra": 1422,
      "cur": 1423,
      "##je": 1424,
      "##stab": 1425,
      "beit": 1426,
      "vers": 1427,
      "legal": 1428,
      "law": 1429,
      "beschaft": 1430,
      "vorschlag": 1431,
      "ide": 1432,
      "##nt": 1433,
      "##onder": 1434,
      "##icult": 1435,
      "##ischer": 1436,
      "##lau": 1437,
      "directive": 1438,
      "jetzt": 1439,
      "demokrat": 1440,
      "adop": 1441,
      "posit": 1442,
      "programmes": 1443,
      "discuss": 1444,
      "##ty": 1445,
      "project": 1446,
      "members": 1447,
      "teil": 1448,
      "ensure": 1449,
      "etw": 1450,
      "kult": 1451,
      "##par": 1452,
      "aut": 1453,
      "regul": 1454,
      "person": 1455,
      "af": 1456,
      "given": 1457,
      "##du": 1458,
      "einige": 1459,
      "disk": 1460,
      "contin": 1461,
      "erweit": 1462,
      "verein": 1463,
      "trans": 1464,
      "allem": 1465,
      "insbes": 1466,
      "particularly": 1467,
      "insbesondere": 1468,
      "bring": 1469,
      "seit": 1470,
      "##ful": 1471,
      "##ia": 1472,
      "##hin": 1473,
      "##chie": 1474,
      "beisp": 1475,
      "##tern": 1476,
      "##ffe": 1477,
      "##gesch": 1478,
      "principle": 1479,
      "richtlinie": 1480,
      "action": 1481,
      "num": 1482,
      "##ument": 1483,
      "##ised": 1484,
      "##ale": 1485,
      "##reit": 1486,
      "unternehmen": 1487,
      "treaty": 1488,
      "zahl": 1489,
      "##sel": 1490,
      "cooper": 1491,
      "respect": 1492,
      "fuhr": 1493,
      "government": 1494,
      "agend": 1495,
      "bin": 1496,
      "komm": 1497,
      "##ichts": 1498,
      "verw": 1499,
      "examp": 1500,
      "entsp": 1501,
      "ihren": 1502,
      "opin": 1503,
      "case": 1504,
      "estab": 1505,
      "##ks": 1506,
      "techn": 1507,
      "##ount": 1508,
      "establish": 1509,
      "##ves": 1510,
      "thro": 1511,
      "debat": 1512,
      "agenda": 1513,
      "achie": 1514,
      "gest": 1515,
      "use": 1516,
      "val": 1517,
      "##air": 1518,
      "##hne": 1519,
      "##ict": 1520,
      "##spr": 1521,
      "measures": 1522,
      "zweit": 1523,
      "arbeits": 1524,
      "rights": 1525,
      "gut": 1526,
      "##ium": 1527,
      "##grund": 1528,
      "erklar": 1529,
      "##ppor": 1530,
      "fragen": 1531,
      "fl": 1532,
      "aller": 1533,
      "dien": 1534,
      "##cted": 1535,
      "##vour": 1536,
      "cost": 1537,
      "neue": 1538,
      "ausge": 1539,
      "maj": 1540,
      "interest": 1541,
      "##ual": 1542,
      "##red": 1543,
      "##kehr": 1544,
      "##reichen": 1545,
      "agreement": 1546,
      "tun": 1547,
      "##way": 1548,
      "##lex": 1549,
      "saf": 1550,
      "instru": 1551,
      "justice": 1552,
      "##hilfen": 1553,
      "naturlich": 1554,
      "##lus": 1555,
      "##ines": 1556,
      "##ited": 1557,
      "##ential": 1558,
      "##ety": 1559,
      "##ether": 1560,
      "##lagen": 1561,
      "ware": 1562,
      "problems": 1563,
      "##onds": 1564,
      "million": 1565,
      "integr": 1566,
      "zie": 1567,
      "##orities": 1568,
      "##ree": 1569,
      "repr": 1570,
      "necess": 1571,
      "neuen": 1572,
      "since": 1573,
      "beispiel": 1574,
      "fol": 1575,
      "ris": 1576,
      "##racht": 1577,
      "taken": 1578,
      "##fahren": 1579,
      "institutions": 1580,
      "opinion": 1581,
      "give": 1582,
      "tur": 1583,
      "house": 1584,
      "zusammenarbeit": 1585,
      "through": 1586,
      "find": 1587,
      "##ail": 1588,
      "##gleich": 1589,
      "##ently": 1590,
      "bew": 1591,
      "erst": 1592,
      "deut": 1593,
      "sec": 1594,
      "control": 1595,
      "invol": 1596,
      "bezug": 1597,
      "##rifft": 1598,
      "example": 1599,
      "safety": 1600,
      "hope": 1601,
      "wish": 1602,
      "zun": 1603,
      "##zie": 1604,
      "##ital": 1605,
      "##urs": 1606,
      "neg": 1607,
      "politik": 1608,
      "##ritt": 1609,
      "vertrag": 1610,
      "##lossen": 1611,
      "terms": 1612,
      "transparen": 1613,
      "extre": 1614,
      "number": 1615,
      "ir": 1616,
      "loc": 1617,
      "ohne": 1618,
      "##maß": 1619,
      "##aten": 1620,
      "##rache": 1621,
      "schon": 1622,
      "issues": 1623,
      "wettbewerbs": 1624,
      "machen": 1625,
      "vote": 1626,
      "##uchen": 1627,
      "##icher": 1628,
      "anges": 1629,
      "conference": 1630,
      "shall": 1631,
      "result": 1632,
      "seine": 1633,
      "funds": 1634,
      "struktur": 1635,
      "daher": 1636,
      "express": 1637,
      "presiden": 1638,
      "world": 1639,
      "##stellen": 1640,
      "country": 1641,
      "transport": 1642,
      "bestimm": 1643,
      "##konferenz": 1644,
      "subject": 1645,
      "cooperation": 1646,
      "det": 1647,
      "prom": 1648,
      "##achst": 1649,
      "##spolitik": 1650,
      "##rolle": 1651,
      "employment": 1652,
      "represent": 1653,
      "presidency": 1654,
      "sim": 1655,
      "##kunft": 1656,
      "before": 1657,
      "##spro": 1658,
      "##etzen": 1659,
      "offent": 1660,
      "concerned": 1661,
      "moglichkeit": 1662,
      "look": 1663,
      "guid": 1664,
      "general": 1665,
      "lassen": 1666,
      "mention": 1667,
      "opport": 1668,
      "##gest": 1669,
      "##politik": 1670,
      "besonder": 1671,
      "minister": 1672,
      "##erstatter": 1673,
      "regierungskonferenz": 1674,
      "opportun": 1675,
      "bud": 1676,
      "##lan": 1677,
      "##go": 1678,
      "##ately": 1679,
      "reas": 1680,
      "##ability": 1681,
      "serv": 1682,
      "includ": 1683,
      "bal": 1684,
      "##ler": 1685,
      "##arkt": 1686,
      "##tellt": 1687,
      "berichterstatter": 1688,
      "freed": 1689,
      "artik": 1690,
      "abgeordn": 1691,
      "somet": 1692,
      "long": 1693,
      "##nung": 1694,
      "##luß": 1695,
      "stark": 1696,
      "prote": 1697,
      "##ander": 1698,
      "both": 1699,
      "mor": 1700,
      "##urz": 1701,
      "enlar": 1702,
      "sect": 1703,
      "kolleg": 1704,
      "require": 1705,
      "democrat": 1706,
      "freedom": 1707,
      "##ey": 1708,
      "dabei": 1709,
      "favour": 1710,
      "zwar": 1711,
      "##stimmung": 1712,
      "kultur": 1713,
      "budget": 1714,
      "##ucht": 1715,
      "##atives": 1716,
      "##ents": 1717,
      "##schließ": 1718,
      "without": 1719,
      "##ppen": 1720,
      "probleme": 1721,
      "einzel": 1722,
      "bor": 1723,
      "kommen": 1724,
      "##ade": 1725,
      "##tem": 1726,
      "verst": 1727,
      "##wohl": 1728,
      "viele": 1729,
      "place": 1730,
      "lebens": 1731,
      "##gement": 1732,
      "##alen": 1733,
      "##recht": 1734,
      "steuer": 1735,
      "##agt": 1736,
      "##ically": 1737,
      "##wendung": 1738,
      "bedeutung": 1739,
      "etwas": 1740,
      "leit": 1741,
      "welt": 1742,
      "##ret": 1743,
      "proje": 1744,
      "##ellen": 1745,
      "betrifft": 1746,
      "qual": 1747,
      "glo": 1748,
      "ja": 1749,
      "kom": 1750,
      "##igten": 1751,
      "whether": 1752,
      "##weisen": 1753,
      "resolution": 1754,
      "necessary": 1755,
      "##ian": 1756,
      "frei": 1757,
      "##ys": 1758,
      "##legt": 1759,
      "aussp": 1760,
      "##heiten": 1761,
      "##altung": 1762,
      "##wirtschaft": 1763,
      "glob": 1764,
      "erfol": 1765,
      "##anger": 1766,
      "gesam": 1767,
      "stehen": 1768,
      "##immt": 1769,
      "impro": 1770,
      "decision": 1771,
      "artikel": 1772,
      "nor": 1773,
      "sm": 1774,
      "set": 1775,
      "##lungen": 1776,
      "einmal": 1777,
      "isra": 1778,
      "proced": 1779,
      "##unden": 1780,
      "##fuhrt": 1781,
      "ii": 1782,
      "##tz": 1783,
      "weiß": 1784,
      "gefahr": 1785,
      "daruber": 1786,
      "contrib": 1787,
      "prec": 1788,
      "rappor": 1789,
      "zwei": 1790,
      "wirklich": 1791,
      "##aften": 1792,
      "erweiterung": 1793,
      "rapporte": 1794,
      "rul": 1795,
      "##ude": 1796,
      "##come": 1797,
      "##ativen": 1798,
      "##genommen": 1799,
      "##verstand": 1800,
      "umf": 1801,
      "tages": 1802,
      "##zeich": 1803,
      "##wirk": 1804,
      "moglich": 1805,
      "##falls": 1806,
      "los": 1807,
      "##arge": 1808,
      "zukunft": 1809,
      "stad": 1810,
      "##ught": 1811,
      "beihilfen": 1812,
      "##cyc": 1813,
      "##merk": 1814,
      "proposals": 1815,
      "gemeinschafts": 1816,
      "ausschuß": 1817,
      "gren": 1818,
      "oper": 1819,
      "##cing": 1820,
      "further": 1821,
      "allen": 1822,
      "debatte": 1823,
      "guidel": 1824,
      "el": 1825,
      "bef": 1826,
      "next": 1827,
      "##ordin": 1828,
      "entschließ": 1829,
      "raum": 1830,
      "zusammenhang": 1831,
      "few": 1832,
      "forderung": 1833,
      "av": 1834,
      "ele": 1835,
      "punkt": 1836,
      "dav": 1837,
      "##ache": 1838,
      "##ruß": 1839,
      "meinung": 1840,
      "account": 1841,
      "artic": 1842,
      "israel": 1843,
      "pap": 1844,
      "recyc": 1845,
      "##zept": 1846,
      "##linien": 1847,
      "internal": 1848,
      "unterstutzung": 1849,
      "projects": 1850,
      "local": 1851,
      "guidelines": 1852,
      "sor": 1853,
      "##iar": 1854,
      "##mog": 1855,
      "##itions": 1856,
      "##rop": 1857,
      "##ices": 1858,
      "politischen": 1859,
      "##ucksicht": 1860,
      "full": 1861,
      "curr": 1862,
      "cap": 1863,
      "foll": 1864,
      "deren": 1865,
      "##elle": 1866,
      "##tens": 1867,
      "begruß": 1868,
      "thema": 1869,
      "serious": 1870,
      "gemeinsamen": 1871,
      "follow": 1872,
      "geben": 1873,
      "##assung": 1874,
      "difficult": 1875,
      "besteht": 1876,
      "verantwortung": 1877,
      "tagesordnung": 1878,
      "del": 1879,
      "done": 1880,
      "kos": 1881,
      "##nisse": 1882,
      "##lick": 1883,
      "##urity": 1884,
      "##str": 1885,
      "##reif": 1886,
      "making": 1887,
      "berucksicht": 1888,
      "##halts": 1889,
      "come": 1890,
      "##gemein": 1891,
      "structural": 1892,
      "kolleginnen": 1893,
      "kosov": 1894,
      "rural": 1895,
      "##fung": 1896,
      "##fonds": 1897,
      "andere": 1898,
      "ausdruck": 1899,
      "resour": 1900,
      "party": 1901,
      "##stellung": 1902,
      "accord": 1903,
      "help": 1904,
      "rapporteur": 1905,
      "rules": 1906,
      "back": 1907,
      "cr": 1908,
      "##isions": 1909,
      "##raum": 1910,
      "aufga": 1911,
      "regierung": 1912,
      "environmental": 1913,
      "##sprasident": 1914,
      "cre": 1915,
      "glau": 1916,
      "kurz": 1917,
      "##hol": 1918,
      "##arm": 1919,
      "main": 1920,
      "down": 1921,
      "##wards": 1922,
      "institutionen": 1923,
      "something": 1924,
      "##has": 1925,
      "##hip": 1926,
      "##lungs": 1927,
      "once": 1928,
      "deal": 1929,
      "worden": 1930,
      "##iod": 1931,
      "hinsicht": 1932,
      "ebene": 1933,
      "namlich": 1934,
      "basis": 1935,
      "enlargement": 1936,
      "bar": 1937,
      "crit": 1938,
      "##ace": 1939,
      "##len": 1940,
      "##vement": 1941,
      "##man": 1942,
      "##uman": 1943,
      "jahren": 1944,
      "role": 1945,
      "instrument": 1946,
      "rest": 1947,
      "sign": 1948,
      "volk": 1949,
      "wort": 1950,
      "euro": 1951,
      "europas": 1952,
      "responsibility": 1953,
      "industry": 1954,
      "increas": 1955,
      "colle": 1956,
      "##angen": 1957,
      "##ird": 1958,
      "stellen": 1959,
      "period": 1960,
      "extrem": 1961,
      "kosovo": 1962,
      "bess": 1963,
      "cor": 1964,
      "let": 1965,
      "nie": 1966,
      "word": 1967,
      "rev": 1968,
      "##sche": 1969,
      "having": 1970,
      "ergeb": 1971,
      "##ahre": 1972,
      "daran": 1973,
      "steht": 1974,
      "zuruck": 1975,
      "##zeu": 1976,
      "##usses": 1977,
      "importance": 1978,
      "nationalen": 1979,
      "affair": 1980,
      "indeed": 1981,
      "dienst": 1982,
      "leitlinien": 1983,
      "high": 1984,
      "human": 1985,
      "rolle": 1986,
      "##ting": 1987,
      "##markt": 1988,
      "##omen": 1989,
      "##icial": 1990,
      "##immen": 1991,
      "abs": 1992,
      "##annt": 1993,
      "##ife": 1994,
      "rates": 1995,
      "rather": 1996,
      "##fuhrung": 1997,
      "tats": 1998,
      "environment": 1999,
      "austria": 2000,
      "after": 2001,
      "davon": 2002,
      "mind": 2003,
      "pow": 2004,
      "##ress": 2005,
      "##ph": 2006,
      "##bin": 2007,
      "##stit": 2008,
      "##alle": 2009,
      "##ilt": 2010,
      "geh": 2011,
      "gewahr": 2012,
      "einge": 2013,
      "specific": 2014,
      "aw": 2015,
      "br": 2016,
      "##ost": 2017,
      "means": 2018,
      "darf": 2019,
      "##zeug": 2020,
      "##agement": 2021,
      "going": 2022,
      "proposed": 2023,
      "solid": 2024,
      "clearly": 2025,
      "letzten": 2026,
      "yet": 2027,
      "##iate": 2028,
      "##zw": 2029,
      "##reffen": 2030,
      "##rachten": 2031,
      "##vers": 2032,
      "allow": 2033,
      "##sequ": 2034,
      "waren": 2035,
      "welche": 2036,
      "invest": 2037,
      "redu": 2038,
      "##prochen": 2039,
      "legislation": 2040,
      "objectives": 2041,
      "security": 2042,
      "zunachst": 2043,
      "besonders": 2044,
      "resources": 2045,
      "clos": 2046,
      "eigen": 2047,
      "flex": 2048,
      "jahre": 2049,
      "##itor": 2050,
      "##alten": 2051,
      "##roffen": 2052,
      "zustand": 2053,
      "dep": 2054,
      "vors": 2055,
      "intergo": 2056,
      "quite": 2057,
      "gegenuber": 2058,
      "jud": 2059,
      "##atast": 2060,
      "rep": 2061,
      "zug": 2062,
      "behor": 2063,
      "aussprache": 2064,
      "small": 2065,
      "##atastrop": 2066,
      "gar": 2067,
      "##fah": 2068,
      "##so": 2069,
      "##atze": 2070,
      "##isen": 2071,
      "vorge": 2072,
      "ess": 2073,
      "konk": 2074,
      "##ists": 2075,
      "vertra": 2076,
      "konnte": 2077,
      "border": 2078,
      "intergovern": 2079,
      "gr": 2080,
      "je": 2081,
      "life": 2082,
      "var": 2083,
      "##ende": 2084,
      "##ichte": 2085,
      "##schaften": 2086,
      "schwer": 2087,
      "##ively": 2088,
      "liber": 2089,
      "adv": 2090,
      "unterstutzen": 2091,
      "article": 2092,
      "intergovernmental": 2093,
      "med": 2094,
      "##ually": 2095,
      "##ss": 2096,
      "towards": 2097,
      "##raft": 2098,
      "##ulation": 2099,
      "fort": 2100,
      "hatte": 2101,
      "##zeß": 2102,
      "manuf": 2103,
      "lander": 2104,
      "sozialen": 2105,
      "staaten": 2106,
      "##riften": 2107,
      "food": 2108,
      "culture": 2109,
      "simp": 2110,
      "affairs": 2111,
      "manufact": 2112,
      "akt": 2113,
      "bro": 2114,
      "bus": 2115,
      "pal": 2116,
      "##fort": 2117,
      "##bau": 2118,
      "third": 2119,
      "##ont": 2120,
      "imm": 2121,
      "conv": 2122,
      "schließ": 2123,
      "herren": 2124,
      "amster": 2125,
      "speak": 2126,
      "##teilung": 2127,
      "term": 2128,
      "gerade": 2129,
      "##ismus": 2130,
      "accept": 2131,
      "schwier": 2132,
      "amsterdam": 2133,
      "hil": 2134,
      "##lei": 2135,
      "##ided": 2136,
      "ansicht": 2137,
      "##schriften": 2138,
      "defin": 2139,
      "##liegen": 2140,
      "interess": 2141,
      "finally": 2142,
      "fundament": 2143,
      "plan": 2144,
      "pract": 2145,
      "job": 2146,
      "brauchen": 2147,
      "solidar": 2148,
      "essential": 2149,
      "gere": 2150,
      "less": 2151,
      "pay": 2152,
      "##weit": 2153,
      "##llung": 2154,
      "##eder": 2155,
      "regel": 2156,
      "subs": 2157,
      "verbess": 2158,
      "fuhren": 2159,
      "ak": 2160,
      "dist": 2161,
      "tas": 2162,
      "##iations": 2163,
      "##bed": 2164,
      "##iness": 2165,
      "inn": 2166,
      "cond": 2167,
      "commit": 2168,
      "policies": 2169,
      "poin": 2170,
      "economy": 2171,
      "court": 2172,
      "wahrend": 2173,
      "##flicht": 2174,
      "protection": 2175,
      "manufactur": 2176,
      "ben": 2177,
      "ig": 2178,
      "##ekt": 2179,
      "three": 2180,
      "##ante": 2181,
      "##rauch": 2182,
      "parte": 2183,
      "##ffung": 2184,
      "meet": 2185,
      "hatten": 2186,
      "prasidentschaft": 2187,
      "admin": 2188,
      "##ccess": 2189,
      "##igkeiten": 2190,
      "concerns": 2191,
      "vielen": 2192,
      "funf": 2193,
      "prior": 2194,
      "##icherheit": 2195,
      "abgeordneten": 2196,
      "each": 2197,
      "kle": 2198,
      "wahl": 2199,
      "##kten": 2200,
      "##mu": 2201,
      "##ierten": 2202,
      "applic": 2203,
      "sollen": 2204,
      "effort": 2205,
      "großen": 2206,
      "understand": 2207,
      "wohl": 2208,
      "kosten": 2209,
      "anderungsantrage": 2210,
      "erfolg": 2211,
      "glaube": 2212,
      "administ": 2213,
      "000": 2214,
      "aim": 2215,
      "ub": 2216,
      "##hor": 2217,
      "##grat": 2218,
      "##inzip": 2219,
      "##urf": 2220,
      "##entlich": 2221,
      "##iesen": 2222,
      "start": 2223,
      "erforder": 2224,
      "umsetzung": 2225,
      "##ience": 2226,
      "seiner": 2227,
      "whole": 2228,
      "liegt": 2229,
      "authority": 2230,
      "reason": 2231,
      "subsid": 2232,
      "binnen": 2233,
      "women": 2234,
      "##ates": 2235,
      "vergangen": 2236,
      "never": 2237,
      "nichts": 2238,
      "char": 2239,
      "landlichen": 2240,
      "month": 2241,
      "peace": 2242,
      "namen": 2243,
      "differ": 2244,
      "authorities": 2245,
      "adopted": 2246,
      "continue": 2247,
      "##ways": 2248,
      "integration": 2249,
      "ziele": 2250,
      "00": 2251,
      "centr": 2252,
      "ru": 2253,
      "tal": 2254,
      "##hes": 2255,
      "##ock": 2256,
      "##zentr": 2257,
      "offen": 2258,
      "##leist": 2259,
      "anal": 2260,
      "fordern": 2261,
      "erg": 2262,
      "hervor": 2263,
      "doc": 2264,
      "gesagt": 2265,
      "amendment": 2266,
      "positive": 2267,
      "negot": 2268,
      "sector": 2269,
      "business": 2270,
      "creat": 2271,
      "wesent": 2272,
      "##uese": 2273,
      "##fit": 2274,
      "##ix": 2275,
      "##hn": 2276,
      "##org": 2277,
      "##eless": 2278,
      "ans": 2279,
      "haider": 2280,
      "success": 2281,
      "disast": 2282,
      "appropr": 2283,
      "schaffen": 2284,
      "portuguese": 2285,
      "fundamental": 2286,
      "dank": 2287,
      "drei": 2288,
      "##eng": 2289,
      "erne": 2290,
      "allgemein": 2291,
      "##ify": 2292,
      "##aussch": 2293,
      "##ably": 2294,
      "darum": 2295,
      "meines": 2296,
      "##ards": 2297,
      "lage": 2298,
      "groups": 2299,
      "open": 2300,
      "markt": 2301,
      "paper": 2302,
      "a5": 2303,
      "bu": 2304,
      "##fach": 2305,
      "##other": 2306,
      "##erv": 2307,
      "##als": 2308,
      "refer": 2309,
      "##ication": 2310,
      "##elf": 2311,
      "verl": 2312,
      "another": 2313,
      "ital": 2314,
      "enth": 2315,
      "##ruch": 2316,
      "heraus": 2317,
      "unseren": 2318,
      "during": 2319,
      "change": 2320,
      "vorschlage": 2321,
      "greater": 2322,
      "implementation": 2323,
      "notwendig": 2324,
      "lim": 2325,
      "lang": 2326,
      "mom": 2327,
      "non": 2328,
      "##tle": 2329,
      "##ration": 2330,
      "##ogen": 2331,
      "##ystem": 2332,
      "##zug": 2333,
      "##leicht": 2334,
      "##rodu": 2335,
      "unab": 2336,
      "verp": 2337,
      "anf": 2338,
      "erinn": 2339,
      "große": 2340,
      "agree": 2341,
      "certainly": 2342,
      "haushalts": 2343,
      "kommt": 2344,
      "extremely": 2345,
      "absol": 2346,
      "fahr": 2347,
      "tobin": 2348,
      "verf": 2349,
      "weise": 2350,
      "forward": 2351,
      "##ierungen": 2352,
      "##iving": 2353,
      "hoffe": 2354,
      "##cially": 2355,
      "##nete": 2356,
      "cars": 2357,
      "##gress": 2358,
      "portugies": 2359,
      "##work": 2360,
      "energy": 2361,
      "entsprechen": 2362,
      "freiheit": 2363,
      "recycling": 2364,
      "various": 2365,
      "##ep": 2366,
      "##iation": 2367,
      "##hmen": 2368,
      "##ence": 2369,
      "##rech": 2370,
      "##emp": 2371,
      "eng": 2372,
      "show": 2373,
      "darin": 2374,
      "itself": 2375,
      "politische": 2376,
      "frauen": 2377,
      "damen": 2378,
      "firstly": 2379,
      "ausschusses": 2380,
      "objective": 2381,
      "achieve": 2382,
      "major": 2383,
      "different": 2384,
      "lad": 2385,
      "ruck": 2386,
      "van": 2387,
      "##ness": 2388,
      "##kes": 2389,
      "##ining": 2390,
      "##ath": 2391,
      "behal": 2392,
      "derzeit": 2393,
      "##inge": 2394,
      "ret": 2395,
      "##graph": 2396,
      "##gesehen": 2397,
      "stellung": 2398,
      "introdu": 2399,
      "solche": 2400,
      "bezie": 2401,
      "verschieden": 2402,
      "democratic": 2403,
      "lebensmittel": 2404,
      "eig": 2405,
      "lit": 2406,
      "veh": 2407,
      "##ha": 2408,
      "##icient": 2409,
      "anwendung": 2410,
      "##gehen": 2411,
      "prot": 2412,
      "exc": 2413,
      "mot": 2414,
      "statt": 2415,
      "welcome": 2416,
      "recog": 2417,
      "##richtung": 2418,
      "halte": 2419,
      "opportunity": 2420,
      "moment": 2421,
      "12": 2422,
      "kind": 2423,
      "ple": 2424,
      "##ged": 2425,
      "##zahl": 2426,
      "anst": 2427,
      "weg": 2428,
      "##bere": 2429,
      "espe": 2430,
      "##spl": 2431,
      "arg": 2432,
      "compan": 2433,
      "1997": 2434,
      "genau": 2435,
      "wirtschaftlichen": 2436,
      "standpunkt": 2437,
      "assist": 2438,
      "guar": 2439,
      "##riminal": 2440,
      "angesichts": 2441,
      "behalf": 2442,
      "gent": 2443,
      "##hungen": 2444,
      "##lass": 2445,
      "intend": 2446,
      "bel": 2447,
      "##lemen": 2448,
      "##ingungen": 2449,
      "rece": 2450,
      "united": 2451,
      "exper": 2452,
      "##ension": 2453,
      "comple": 2454,
      "statement": 2455,
      "##fuhren": 2456,
      "ende": 2457,
      "feel": 2458,
      "ebenso": 2459,
      "prevent": 2460,
      "especially": 2461,
      "guarante": 2462,
      "gentlemen": 2463,
      "ged": 2464,
      "##sweise": 2465,
      "##dings": 2466,
      "##ziel": 2467,
      "##blick": 2468,
      "##ises": 2469,
      "tot": 2470,
      "toget": 2471,
      "alth": 2472,
      "always": 2473,
      "nachsten": 2474,
      "working": 2475,
      "prepar": 2476,
      "##ika": 2477,
      "landern": 2478,
      "##fordert": 2479,
      "effective": 2480,
      "kontrolle": 2481,
      "akzept": 2482,
      "together": 2483,
      "although": 2484,
      "dim": 2485,
      "danger": 2486,
      "gilt": 2487,
      "lok": 2488,
      "macht": 2489,
      "##affen": 2490,
      "##zung": 2491,
      "##wert": 2492,
      "##ising": 2493,
      "##racy": 2494,
      "progress": 2495,
      "erreichen": 2496,
      "seem": 2497,
      "exist": 2498,
      "frieden": 2499,
      "gesetz": 2500,
      "text": 2501,
      "grundsatz": 2502,
      "lack": 2503,
      "##idence": 2504,
      "provide": 2505,
      "##zeitig": 2506,
      "address": 2507,
      "bekamp": 2508,
      "schaffung": 2509,
      "interests": 2510,
      "call": 2511,
      "did": 2512,
      "ec": 2513,
      "feh": 2514,
      "harm": 2515,
      "nutz": 2516,
      "wider": 2517,
      "##trag": 2518,
      "##ob": 2519,
      "##zust": 2520,
      "##atten": 2521,
      "proper": 2522,
      "##ily": 2523,
      "##denken": 2524,
      "schutz": 2525,
      "modern": 2526,
      "1998": 2527,
      "needs": 2528,
      "ihrem": 2529,
      "außerdem": 2530,
      "addition": 2531,
      "danken": 2532,
      "kontro": 2533,
      "wissenschaft": 2534,
      "allerdings": 2535,
      "vertrags": 2536,
      "mentioned": 2537,
      "procedure": 2538,
      "binnenmarkt": 2539,
      "ladies": 2540,
      "15": 2541,
      "five": 2542,
      "hol": 2543,
      "sen": 2544,
      "sing": 2545,
      "##oted": 2546,
      "priv": 2547,
      "gegeben": 2548,
      "least": 2549,
      "##ified": 2550,
      "taking": 2551,
      "hoch": 2552,
      "weniger": 2553,
      "used": 2554,
      "approach": 2555,
      "##kont": 2556,
      "zweif": 2557,
      "bestehen": 2558,
      "ze": 2559,
      "##isierung": 2560,
      "inner": 2561,
      "beteil": 2562,
      "reach": 2563,
      "verhand": 2564,
      "day": 2565,
      "##ellschaft": 2566,
      "apply": 2567,
      "arbeitspl": 2568,
      "access": 2569,
      "empf": 2570,
      "##legenheit": 2571,
      "entscheidung": 2572,
      "stadt": 2573,
      "ubr": 2574,
      "dort": 2575,
      "hist": 2576,
      "pop": 2577,
      "vier": 2578,
      "##wand": 2579,
      "##wart": 2580,
      "##unkte": 2581,
      "##ross": 2582,
      "really": 2583,
      "vorgesch": 2584,
      "demon": 2585,
      "suff": 2586,
      "alles": 2587,
      "frame": 2588,
      "agr": 2589,
      "money": 2590,
      "decisions": 2591,
      "beschaftigung": 2592,
      "hinsichtlich": 2593,
      "bruss": 2594,
      "unabhang": 2595,
      "vehic": 2596,
      "single": 2597,
      "dial": 2598,
      "ken": 2599,
      "##yl": 2600,
      "themen": 2601,
      "ref": 2602,
      "einigen": 2603,
      "##eter": 2604,
      "while": 2605,
      "cohes": 2606,
      "##lag": 2607,
      "werde": 2608,
      "schi": 2609,
      "special": 2610,
      "communication": 2611,
      "activ": 2612,
      "regarding": 2613,
      "kommissarin": 2614,
      "responsible": 2615,
      "attention": 2616,
      "beispielsweise": 2617,
      "involved": 2618,
      "transparency": 2619,
      "einzelnen": 2620,
      "ear": 2621,
      "led": 2622,
      "ty": 2623,
      "##voll": 2624,
      "##bild": 2625,
      "##rechte": 2626,
      "read": 2627,
      "star": 2628,
      "demand": 2629,
      "##ivil": 2630,
      "##gestellt": 2631,
      "conclus": 2632,
      "##steller": 2633,
      "become": 2634,
      "wichtige": 2635,
      "questions": 2636,
      "funktion": 2637,
      "bringen": 2638,
      "risk": 2639,
      "deutlich": 2640,
      "services": 2641,
      "conditions": 2642,
      "months": 2643,
      "dialog": 2644,
      "cohesion": 2645,
      "erachten": 2646,
      "kr": 2647,
      "pass": 2648,
      "wun": 2649,
      "##com": 2650,
      "##ehr": 2651,
      "##buch": 2652,
      "##alth": 2653,
      "##igungs": 2654,
      "##ilitat": 2655,
      "ersten": 2656,
      "sei": 2657,
      "##ivid": 2658,
      "gemacht": 2659,
      "consum": 2660,
      "wirtschafts": 2661,
      "increase": 2662,
      "avail": 2663,
      "mult": 2664,
      "nu": 2665,
      "opt": 2666,
      "##fassung": 2667,
      "beim": 2668,
      "vern": 2669,
      "verkehr": 2670,
      "##eint": 2671,
      "sowohl": 2672,
      "##ierte": 2673,
      "##ehmen": 2674,
      "step": 2675,
      "better": 2676,
      "chang": 2677,
      "##itaten": 2678,
      "regulations": 2679,
      "dienstleist": 2680,
      "klein": 2681,
      "framework": 2682,
      "bene": 2683,
      "four": 2684,
      "tru": 2685,
      "##sicherheit": 2686,
      "##onger": 2687,
      "ann": 2688,
      "denke": 2689,
      "asyl": 2690,
      "##ceed": 2691,
      "##last": 2692,
      "mean": 2693,
      "finden": 2694,
      "##aps": 2695,
      "tragen": 2696,
      "##mitt": 2697,
      "words": 2698,
      "hilfe": 2699,
      "erachtens": 2700,
      "fam": 2701,
      "mater": 2702,
      "opp": 2703,
      "past": 2704,
      "##ufen": 2705,
      "##ionen": 2706,
      "##entw": 2707,
      "##schutz": 2708,
      "##ationen": 2709,
      "soc": 2710,
      "aufgrund": 2711,
      "##laf": 2712,
      "##spect": 2713,
      "lead": 2714,
      "uberein": 2715,
      "##aged": 2716,
      "durfen": 2717,
      "##ritte": 2718,
      "individ": 2719,
      "jeder": 2720,
      "remain": 2721,
      "##alisation": 2722,
      "previous": 2723,
      "konnten": 2724,
      "idea": 2725,
      "transparenz": 2726,
      "##reifen": 2727,
      "create": 2728,
      "colleag": 2729,
      "14": 2730,
      "99": 2731,
      "aktion": 2732,
      "ke": 2733,
      "tr": 2734,
      "##ners": 2735,
      "##rang": 2736,
      "##volk": 2737,
      "inf": 2738,
      "eindeut": 2739,
      "##gew": 2740,
      "force": 2741,
      "##spruch": 2742,
      "untersch": 2743,
      "amb": 2744,
      "hinaus": 2745,
      "##forderungen": 2746,
      "halten": 2747,
      "energie": 2748,
      "cultural": 2749,
      "strukturfonds": 2750,
      "including": 2751,
      "projekte": 2752,
      "##stitution": 2753,
      "subsidiar": 2754,
      "ubrigen": 2755,
      "vorgeschlagen": 2756,
      "kunft": 2757,
      "large": 2758,
      "##po": 2759,
      "##ßt": 2760,
      "##initi": 2761,
      "##eits": 2762,
      "##imes": 2763,
      "asp": 2764,
      "aspe": 2765,
      "vorgesehen": 2766,
      "code": 2767,
      "nothing": 2768,
      "abstimmung": 2769,
      "##weg": 2770,
      "##ived": 2771,
      "meinen": 2772,
      "##prinzip": 2773,
      "##utet": 2774,
      "monitor": 2775,
      "office": 2776,
      "initiatives": 2777,
      "gegenwart": 2778,
      "vielleicht": 2779,
      "gemeinsame": 2780,
      "entscheiden": 2781,
      "millionen": 2782,
      "weißbuch": 2783,
      "power": 2784,
      "aware": 2785,
      "schließlich": 2786,
      "points": 2787,
      "available": 2788,
      "bzw": 2789,
      "fru": 2790,
      "krit": 2791,
      "might": 2792,
      "occ": 2793,
      "##ning": 2794,
      "bemu": 2795,
      "##text": 2796,
      "##leit": 2797,
      "white": 2798,
      "kommissions": 2799,
      "##oting": 2800,
      "hinblick": 2801,
      "grundlage": 2802,
      "streng": 2803,
      "vertre": 2804,
      "##losigkeit": 2805,
      "particip": 2806,
      "erwah": 2807,
      "verbrauch": 2808,
      "##alisierung": 2809,
      "bisher": 2810,
      "majority": 2811,
      "##employ": 2812,
      "bod": 2813,
      "olaf": 2814,
      "##fern": 2815,
      "##luck": 2816,
      "##over": 2817,
      "##zus": 2818,
      "things": 2819,
      "bevolk": 2820,
      "unemploy": 2821,
      "ersch": 2822,
      "aufge": 2823,
      "schn": 2824,
      "##ants": 2825,
      "spiel": 2826,
      "betroffen": 2827,
      "2006": 2828,
      "##ißt": 2829,
      "plen": 2830,
      "ebenfalls": 2831,
      "actually": 2832,
      "behand": 2833,
      "gleichzeitig": 2834,
      "draft": 2835,
      "values": 2836,
      "komp": 2837,
      "##wirkungen": 2838,
      "current": 2839,
      "increasing": 2840,
      "partei": 2841,
      "vehicles": 2842,
      "hul": 2843,
      "tro": 2844,
      "##best": 2845,
      "##10": 2846,
      "##iellen": 2847,
      "beiden": 2848,
      "##rug": 2849,
      "vorliegen": 2850,
      "##ragt": 2851,
      "##ried": 2852,
      "bekannt": 2853,
      "matters": 2854,
      "austrian": 2855,
      "folgen": 2856,
      "turke": 2857,
      "efforts": 2858,
      "##bereich": 2859,
      "companies": 2860,
      "19": 2861,
      "dessen": 2862,
      "met": 2863,
      "##cen": 2864,
      "##gern": 2865,
      "##zogen": 2866,
      "##ases": 2867,
      "##iges": 2868,
      "##olit": 2869,
      "sehen": 2870,
      "uberw": 2871,
      "table": 2872,
      "comb": 2873,
      "##gesetzt": 2874,
      "beginn": 2875,
      "training": 2876,
      "##mals": 2877,
      "standards": 2878,
      "##hof": 2879,
      "legislative": 2880,
      "indep": 2881,
      "gerecht": 2882,
      "innerhalb": 2883,
      "10": 2884,
      "brit": 2885,
      "katastrop": 2886,
      "ph": 2887,
      "zentr": 2888,
      "##gren": 2889,
      "##mark": 2890,
      "often": 2891,
      "##ingen": 2892,
      "aner": 2893,
      "erho": 2894,
      "leider": 2895,
      "abschließ": 2896,
      "##ordnete": 2897,
      "stress": 2898,
      "##forderung": 2899,
      "##ification": 2900,
      "based": 2901,
      "entschließung": 2902,
      "aufgabe": 2903,
      "innov": 2904,
      "negotiations": 2905,
      "complete": 2906,
      "socie": 2907,
      "gre": 2908,
      "rand": 2909,
      "##net": 2910,
      "##fr": 2911,
      "##side": 2912,
      "##vention": 2913,
      "##esen": 2914,
      "##itz": 2915,
      "verstand": 2916,
      "wee": 2917,
      "stud": 2918,
      "ausfuhr": 2919,
      "auswirkungen": 2920,
      "##thing": 2921,
      "doub": 2922,
      "##erseits": 2923,
      "among": 2924,
      "frem": 2925,
      "effiz": 2926,
      "jeden": 2927,
      "mehrheit": 2928,
      "##teilen": 2929,
      "concerning": 2930,
      "gerichts": 2931,
      "democracy": 2932,
      "joint": 2933,
      "demokratie": 2934,
      "diskuss": 2935,
      "##selves": 2936,
      "according": 2937,
      "##fortun": 2938,
      "13": 2939,
      "fisch": 2940,
      "gra": 2941,
      "longer": 2942,
      "##dent": 2943,
      "##urch": 2944,
      "##ingt": 2945,
      "unfortun": 2946,
      "enough": 2947,
      "schluß": 2948,
      "mod": 2949,
      "##gramm": 2950,
      "seinen": 2951,
      "obl": 2952,
      "##nehmer": 2953,
      "care": 2954,
      "trade": 2955,
      "expect": 2956,
      "##struktur": 2957,
      "morgen": 2958,
      "dimension": 2959,
      "dangerous": 2960,
      "bekampfung": 2961,
      "##uments": 2962,
      "##gang": 2963,
      "##bur": 2964,
      "##ances": 2965,
      "einzu": 2966,
      "voraus": 2967,
      "##lauf": 2968,
      "wenig": 2969,
      "ourselves": 2970,
      "ratsprasident": 2971,
      "jahres": 2972,
      "wettbewerbspolitik": 2973,
      "principles": 2974,
      "include": 2975,
      "anderungsantrag": 2976,
      "erklarung": 2977,
      "service": 2978,
      "besser": 2979,
      "task": 2980,
      "harmon": 2981,
      "material": 2982,
      "individual": 2983,
      "fremden": 2984,
      "bit": 2985,
      "chal": 2986,
      "vi": 2987,
      "##iver": 2988,
      "##hung": 2989,
      "##haps": 2990,
      "##less": 2991,
      "##gar": 2992,
      "derart": 2993,
      "rechte": 2994,
      "##ics": 2995,
      "erster": 2996,
      "neu": 2997,
      "werte": 2998,
      "##ifiz": 2999,
      "comes": 3000,
      "unters": 3001,
      "free": 3002,
      "perhaps": 3003,
      "##aßt": 3004,
      "gebiete": 3005,
      "regulation": 3006,
      "erforderlich": 3007,
      "verschiedenen": 3008,
      "verbraucher": 3009,
      "hulten": 3010,
      "challen": 3011,
      "20": 3012,
      "bitte": 3013,
      "east": 3014,
      "ident": 3015,
      "mann": 3016,
      "sinn": 3017,
      "##app": 3018,
      "##system": 3019,
      "##gent": 3020,
      "##bru": 3021,
      "##reicht": 3022,
      "bede": 3023,
      "einheit": 3024,
      "happen": 3025,
      "enter": 3026,
      "dev": 3027,
      "nehmen": 3028,
      "absch": 3029,
      "ship": 3030,
      "konzentr": 3031,
      "##ausch": 3032,
      "ihm": 3033,
      "großer": 3034,
      "erwar": 3035,
      "soziale": 3036,
      "play": 3037,
      "organis": 3038,
      "draw": 3039,
      "secondly": 3040,
      "expressed": 3041,
      "gemeinschaftsiniti": 3042,
      "##zeuge": 3043,
      "jobs": 3044,
      "verfug": 3045,
      "benefit": 3046,
      "50": 3047,
      "caus": 3048,
      "dring": 3049,
      "em": 3050,
      "gute": 3051,
      "lin": 3052,
      "sicht": 3053,
      "sach": 3054,
      "tib": 3055,
      "##ckt": 3056,
      "##here": 3057,
      "##itive": 3058,
      "##urd": 3059,
      "bear": 3060,
      "##amt": 3061,
      "verhin": 3062,
      "verfahren": 3063,
      "##gegen": 3064,
      "prof": 3065,
      "alt": 3066,
      "consequ": 3067,
      "##imum": 3068,
      "exam": 3069,
      "short": 3070,
      "##mehr": 3071,
      "obv": 3072,
      "indem": 3073,
      "upon": 3074,
      "febru": 3075,
      "wirksam": 3076,
      "request": 3077,
      "internationalen": 3078,
      "beitrag": 3079,
      "##fahigkeit": 3080,
      "little": 3081,
      "##zustellen": 3082,
      "unemployment": 3083,
      "oblig": 3084,
      "25": 3085,
      "kap": 3086,
      "mer": 3087,
      "nah": 3088,
      "sust": 3089,
      "tamp": 3090,
      "##agen": 3091,
      "##cour": 3092,
      "##lang": 3093,
      "##oten": 3094,
      "##gel": 3095,
      "##ench": 3096,
      "tour": 3097,
      "angenommen": 3098,
      "stab": 3099,
      "ern": 3100,
      "erste": 3101,
      "press": 3102,
      "gehen": 3103,
      "##ruppen": 3104,
      "mitteilung": 3105,
      "vorzu": 3106,
      "##thers": 3107,
      "left": 3108,
      "##indust": 3109,
      "super": 3110,
      "doing": 3111,
      "interessen": 3112,
      "franz": 3113,
      "france": 3114,
      "programms": 3115,
      "partners": 3116,
      "##erts": 3117,
      "justiz": 3118,
      "grunde": 3119,
      "keinen": 3120,
      "emphas": 3121,
      "plann": 3122,
      "##mitglie": 3123,
      "strategy": 3124,
      "beschaftigungs": 3125,
      "technolog": 3126,
      "zweitens": 3127,
      "sorgen": 3128,
      "following": 3129,
      "simply": 3130,
      "central": 3131,
      "disaster": 3132,
      "appropriate": 3133,
      "aspect": 3134,
      "obvious": 3135,
      "sustain": 3136,
      "tampere": 3137,
      "key": 3138,
      "others": 3139,
      "sur": 3140,
      "sag": 3141,
      "##upt": 3142,
      "##ove": 3143,
      "##ko": 3144,
      "##wiesen": 3145,
      "though": 3146,
      "##ased": 3147,
      "##ctions": 3148,
      "erika": 3149,
      "auffassung": 3150,
      "sprechen": 3151,
      "french": 3152,
      "##ield": 3153,
      "grow": 3154,
      "management": 3155,
      "territ": 3156,
      "##gaben": 3157,
      "gebiet": 3158,
      "straf": 3159,
      "fully": 3160,
      "build": 3161,
      "strength": 3162,
      "##industrie": 3163,
      "cross": 3164,
      "drit": 3165,
      "lange": 3166,
      "sens": 3167,
      "setzen": 3168,
      "six": 3169,
      "yes": 3170,
      "##ric": 3171,
      "##komm": 3172,
      "befur": 3173,
      "##utes": 3174,
      "haupt": 3175,
      "stim": 3176,
      "##isches": 3177,
      "erhalten": 3178,
      "encour": 3179,
      "context": 3180,
      "aufmerk": 3181,
      "dok": 3182,
      "##annten": 3183,
      "##itiken": 3184,
      "##sec": 3185,
      "official": 3186,
      "##bare": 3187,
      "event": 3188,
      "burgern": 3189,
      "handelt": 3190,
      "actions": 3191,
      "governments": 3192,
      "assess": 3193,
      "scient": 3194,
      "geld": 3195,
      "confidence": 3196,
      "##self": 3197,
      "offentlichkeit": 3198,
      "administration": 3199,
      "abschließend": 3200,
      "unfortunately": 3201,
      "aufmerksam": 3202,
      "bild": 3203,
      "criminal": 3204,
      "cases": 3205,
      "lau": 3206,
      "tell": 3207,
      "##iste": 3208,
      "##isely": 3209,
      "oft": 3210,
      "##lly": 3211,
      "rele": 3212,
      "sta": 3213,
      "erfahr": 3214,
      "enor": 3215,
      "gefordert": 3216,
      "##verfahren": 3217,
      "contain": 3218,
      "prinzip": 3219,
      "bereichen": 3220,
      "relations": 3221,
      "goods": 3222,
      "autom": 3223,
      "##ziehen": 3224,
      "eigenen": 3225,
      "vertrauen": 3226,
      "fortsch": 3227,
      "igc": 3228,
      "document": 3229,
      "total": 3230,
      "verhandlungen": 3231,
      "famil": 3232,
      "oppos": 3233,
      "society": 3234,
      "dut": 3235,
      "hinge": 3236,
      "pot": 3237,
      "##aum": 3238,
      "##jen": 3239,
      "##ators": 3240,
      "##orge": 3241,
      "##uring": 3242,
      "##stat": 3243,
      "##bereit": 3244,
      "europol": 3245,
      "##verkehr": 3246,
      "def": 3247,
      "hersteller": 3248,
      "sug": 3249,
      "##endent": 3250,
      "arm": 3251,
      "gestellt": 3252,
      "hinter": 3253,
      "wichtigen": 3254,
      "liegen": 3255,
      "##hilfe": 3256,
      "prakt": 3257,
      "organisation": 3258,
      "antrag": 3259,
      "requirements": 3260,
      "quality": 3261,
      "capital": 3262,
      "ergebnis": 3263,
      "##ausschuß": 3264,
      "stellungnahme": 3265,
      "agricult": 3266,
      "bedeutet": 3267,
      "tibet": 3268,
      "bill": 3269,
      "c5": 3270,
      "oil": 3271,
      "old": 3272,
      "##akt": 3273,
      "##aking": 3274,
      "##ift": 3275,
      "##lt": 3276,
      "##vere": 3277,
      "##pru": 3278,
      "##schreit": 3279,
      "ermog": 3280,
      "##achlich": 3281,
      "deleg": 3282,
      "vorschriften": 3283,
      "coordin": 3284,
      "##sper": 3285,
      "schro": 3286,
      "she": 3287,
      "konferenz": 3288,
      "partner": 3289,
      "heißt": 3290,
      "##fugen": 3291,
      "genu": 3292,
      "richtig": 3293,
      "regionalen": 3294,
      "liebe": 3295,
      "treaties": 3296,
      "results": 3297,
      "precisely": 3298,
      "analys": 3299,
      "absolute": 3300,
      "recogn": 3301,
      "eindeutig": 3302,
      "schnell": 3303,
      "trotz": 3304,
      "bre": 3305,
      "cal": 3306,
      "cru": 3307,
      "element": 3308,
      "fight": 3309,
      "kar": 3310,
      "kern": 3311,
      "miß": 3312,
      "##az": 3313,
      "##fert": 3314,
      "##clear": 3315,
      "##bour": 3316,
      "##atis": 3317,
      "##ional": 3318,
      "##row": 3319,
      "einbe": 3320,
      "##eld": 3321,
      "##uth": 3322,
      "erarbeit": 3323,
      "alten": 3324,
      "sever": 3325,
      "share": 3326,
      "gesellschaft": 3327,
      "fail": 3328,
      "propose": 3329,
      "strong": 3330,
      "weitere": 3331,
      "subst": 3332,
      "solchen": 3333,
      "carry": 3334,
      "##etting": 3335,
      "staatlichen": 3336,
      "remind": 3337,
      "abgeordnete": 3338,
      "##finden": 3339,
      "gebieten": 3340,
      "diskut": 3341,
      "vereinbar": 3342,
      "offentlichen": 3343,
      "iii": 3344,
      "currently": 3345,
      "##scheid": 3346,
      "gewahrle": 3347,
      "behorde": 3348,
      "interesse": 3349,
      "seems": 3350,
      "sense": 3351,
      "##kontrolle": 3352,
      "empfeh": 3353,
      "histor": 3354,
      "type": 3355,
      "dokument": 3356,
      "21": 3357,
      "jan": 3358,
      "rap": 3359,
      "##aution": 3360,
      "##hens": 3361,
      "##ßen": 3362,
      "##itim": 3363,
      "##unter": 3364,
      "prufen": 3365,
      "exch": 3366,
      "##behor": 3367,
      "tag": 3368,
      "##ielle": 3369,
      "##fully": 3370,
      "berichts": 3371,
      "warum": 3372,
      "vertreten": 3373,
      "terr": 3374,
      "funding": 3375,
      "##setzen": 3376,
      "implemented": 3377,
      "erstens": 3378,
      "moglichkeiten": 3379,
      "berucksichtigt": 3380,
      "tatsache": 3381,
      "gehort": 3382,
      "behorden": 3383,
      "immig": 3384,
      "verpflicht": 3385,
      "eigentlich": 3386,
      "assistance": 3387,
      "guarantee": 3388,
      "blei": 3389,
      "eth": 3390,
      "hon": 3391,
      "langen": 3392,
      "treffen": 3393,
      "##av": 3394,
      "##ected": 3395,
      "##lim": 3396,
      "##vant": 3397,
      "##itzen": 3398,
      "##ichen": 3399,
      "##ream": 3400,
      "bevor": 3401,
      "##tell": 3402,
      "unt": 3403,
      "verte": 3404,
      "verfol": 3405,
      "constru": 3406,
      "##theless": 3407,
      "seen": 3408,
      "extend": 3409,
      "##ußt": 3410,
      "quick": 3411,
      "contra": 3412,
      "##reiche": 3413,
      "post": 3414,
      "##iveness": 3415,
      "weiteren": 3416,
      "german": 3417,
      "koordin": 3418,
      "welch": 3419,
      "approved": 3420,
      "provided": 3421,
      "staats": 3422,
      "consideration": 3423,
      "##iled": 3424,
      "##alised": 3425,
      "##demokrat": 3426,
      "adopt": 3427,
      "losung": 3428,
      "aufgaben": 3429,
      "nieder": 3430,
      "nevertheless": 3431,
      "##bildung": 3432,
      "##ehrte": 3433,
      "true": 3434,
      "infra": 3435,
      "bevolkerung": 3436,
      "independent": 3437,
      "doubt": 3438,
      "franzos": 3439,
      "##atisf": 3440,
      "foc": 3441,
      "field": 3442,
      "pur": 3443,
      "rad": 3444,
      "sure": 3445,
      "tom": 3446,
      "##res": 3447,
      "##jahr": 3448,
      "##ativ": 3449,
      "##istet": 3450,
      "##arent": 3451,
      "##unehmen": 3452,
      "undert": 3453,
      "recon": 3454,
      "verg": 3455,
      "verz": 3456,
      "##ulf": 3457,
      "pruf": 3458,
      "##rupp": 3459,
      "##formen": 3460,
      "movement": 3461,
      "kommissionsprasident": 3462,
      "frank": 3463,
      "##absch": 3464,
      "meinem": 3465,
      "ground": 3466,
      "obs": 3467,
      "arbeiten": 3468,
      "##heb": 3469,
      "##rieben": 3470,
      "wobei": 3471,
      "systems": 3472,
      "##legenheiten": 3473,
      "discrimin": 3474,
      "festge": 3475,
      "markets": 3476,
      "außerst": 3477,
      "weiterhin": 3478,
      "vollig": 3479,
      "detail": 3480,
      "promote": 3481,
      "representatives": 3482,
      "gesamten": 3483,
      "precaution": 3484,
      "flexib": 3485,
      "vorsorge": 3486,
      "enthalten": 3487,
      "strengthen": 3488,
      "##jenigen": 3489,
      "janu": 3490,
      "verteid": 3491,
      "precautionary": 3492,
      "80": 3493,
      "kinn": 3494,
      "rene": 3495,
      "voted": 3496,
      "##ait": 3497,
      "##aut": 3498,
      "##ichtet": 3499,
      "##arf": 3500,
      "##stehen": 3501,
      "##rete": 3502,
      "##leben": 3503,
      "repe": 3504,
      "erreicht": 3505,
      "congrat": 3506,
      "sech": 3507,
      "##laub": 3508,
      "europaischer": 3509,
      "sum": 3510,
      "##lied": 3511,
      "##ehm": 3512,
      "comments": 3513,
      "##ishing": 3514,
      "monop": 3515,
      "##ktionen": 3516,
      "##nehm": 3517,
      "regionalpolitik": 3518,
      "vorschlagen": 3519,
      "einges": 3520,
      "relation": 3521,
      "rede": 3522,
      "found": 3523,
      "asked": 3524,
      "product": 3525,
      "entscheidungen": 3526,
      "getan": 3527,
      "discussion": 3528,
      "##verstandlich": 3529,
      "begruße": 3530,
      "pleased": 3531,
      "population": 3532,
      "activities": 3533,
      "kommissionsmitglie": 3534,
      "stimme": 3535,
      "kinnock": 3536,
      "renew": 3537,
      "congratul": 3538,
      "him": 3539,
      "mut": 3540,
      "##lud": 3541,
      "##off": 3542,
      "##por": 3543,
      "##bod": 3544,
      "##orrow": 3545,
      "##entions": 3546,
      "##iglich": 3547,
      "fore": 3548,
      "gef": 3549,
      "cover": 3550,
      "above": 3551,
      "fraud": 3552,
      "health": 3553,
      "obwohl": 3554,
      "hinweisen": 3555,
      "legitim": 3556,
      "entwicklungs": 3557,
      "##lands": 3558,
      "unserem": 3559,
      "provision": 3560,
      "recent": 3561,
      "relating": 3562,
      "priority": 3563,
      "notwendigkeit": 3564,
      "vereinigten": 3565,
      "technical": 3566,
      "findet": 3567,
      "opportunities": 3568,
      "ergebnisse": 3569,
      "manufacturers": 3570,
      "meeting": 3571,
      "answer": 3572,
      "argument": 3573,
      "lediglich": 3574,
      "keep": 3575,
      "bleiben": 3576,
      "tomorrow": 3577,
      "vorsorgeprinzip": 3578,
      "don": 3579,
      "hig": 3580,
      "item": 3581,
      "jur": 3582,
      "pa": 3583,
      "tank": 3584,
      "##ti": 3585,
      "##ograph": 3586,
      "##zunehmen": 3587,
      "thing": 3588,
      "threat": 3589,
      "theat": 3590,
      "##unst": 3591,
      "##entscheid": 3592,
      "##letz": 3593,
      "##edter": 3594,
      "rein": 3595,
      "einfach": 3596,
      "##opp": 3597,
      "ang": 3598,
      "stimmen": 3599,
      "prozeß": 3600,
      "soon": 3601,
      "impos": 3602,
      "##ims": 3603,
      "sekt": 3604,
      "schen": 3605,
      "absicht": 3606,
      "##weil": 3607,
      "##istischen": 3608,
      "resear": 3609,
      "needed": 3610,
      "declar": 3611,
      "##baren": 3612,
      "beschran": 3613,
      "bestand": 3614,
      "zeitraum": 3615,
      "verwalt": 3616,
      "costs": 3617,
      "included": 3618,
      "balk": 3619,
      "improve": 3620,
      "##zeichnet": 3621,
      "delay": 3622,
      "signific": 3623,
      "##zeugen": 3624,
      "solidarity": 3625,
      "erinnern": 3626,
      "##haben": 3627,
      "prepared": 3628,
      "kennt": 3629,
      "##lastung": 3630,
      "vertreter": 3631,
      "gerichtshof": 3632,
      "gemeinschaftsinitiative": 3633,
      "schroedter": 3634,
      "research": 3635,
      "eith": 3636,
      "falle": 3637,
      "lu": 3638,
      "mid": 3639,
      "patten": 3640,
      "##nor": 3641,
      "##lies": 3642,
      "##kund": 3643,
      "##bring": 3644,
      "##most": 3645,
      "##inder": 3646,
      "##atic": 3647,
      "inhalt": 3648,
      "##rect": 3649,
      "##round": 3650,
      "##irm": 3651,
      "##ichten": 3652,
      "verd": 3653,
      "##gefuhrt": 3654,
      "stahl": 3655,
      "whose": 3656,
      "ausrichtung": 3657,
      "regierungen": 3658,
      "exce": 3659,
      "entire": 3660,
      "steel": 3661,
      "betrug": 3662,
      "liability": 3663,
      "##stellt": 3664,
      "begin": 3665,
      "submit": 3666,
      "finanziellen": 3667,
      "zeitpunkt": 3668,
      "road": 3669,
      "bedingungen": 3670,
      "##reiben": 3671,
      "antwort": 3672,
      "strand": 3673,
      "verwaltung": 3674,
      "reasons": 3675,
      "grenzen": 3676,
      "limit": 3677,
      "anfrage": 3678,
      "exclus": 3679,
      "belg": 3680,
      "experience": 3681,
      "kontroll": 3682,
      "demonstr": 3683,
      "changes": 3684,
      "anerken": 3685,
      "##frist": 3686,
      "focus": 3687,
      "frankreich": 3688,
      "either": 3689,
      "nations": 3690,
      "san": 3691,
      "##eil": 3692,
      "##hend": 3693,
      "##by": 3694,
      "##atory": 3695,
      "bemerk": 3696,
      "top": 3697,
      "##asch": 3698,
      "einfuhrung": 3699,
      "##ommend": 3700,
      "verabsch": 3701,
      "stor": 3702,
      "prosec": 3703,
      "##einander": 3704,
      "sogar": 3705,
      "erfu": 3706,
      "##andid": 3707,
      "##verb": 3708,
      "vorbereit": 3709,
      "schl": 3710,
      "amer": 3711,
      "heut": 3712,
      "durchfuhrung": 3713,
      "entschieden": 3714,
      "entwurf": 3715,
      "##lichkeiten": 3716,
      "experts": 3717,
      "recommend": 3718,
      "fallen": 3719,
      "integrat": 3720,
      "arbeitslosigkeit": 3721,
      "contribution": 3722,
      "umfassen": 3723,
      "begrußen": 3724,
      "critic": 3725,
      "tatsachlich": 3726,
      "garant": 3727,
      "creating": 3728,
      "nuclear": 3729,
      "partnership": 3730,
      "quickly": 3731,
      "##ruppe": 3732,
      "clar": 3733,
      "civil": 3734,
      "eas": 3735,
      "fern": 3736,
      "low": 3737,
      "rom": 3738,
      "vis": 3739,
      "##national": 3740,
      "##ued": 3741,
      "##fte": 3742,
      "##chan": 3743,
      "##anken": 3744,
      "bedenken": 3745,
      "##omp": 3746,
      "##iding": 3747,
      "vermitt": 3748,
      "wegen": 3749,
      "desp": 3750,
      "makes": 3751,
      "##fordern": 3752,
      "nachhalt": 3753,
      "effekt": 3754,
      "monet": 3755,
      "vertrage": 3756,
      "verbind": 3757,
      "trad": 3758,
      "##vorschriften": 3759,
      "unterstutzt": 3760,
      "considered": 3761,
      "wahrung": 3762,
      "function": 3763,
      "presented": 3764,
      "sicherheits": 3765,
      "personal": 3766,
      "diskrimin": 3767,
      "agreements": 3768,
      "turn": 3769,
      "##maßnahmen": 3770,
      "##sprozeß": 3771,
      "verbesserung": 3772,
      "application": 3773,
      "vergangenheit": 3774,
      "businesses": 3775,
      "portugiesischen": 3776,
      "##rechend": 3777,
      "nutzen": 3778,
      "verfugung": 3779,
      "hingewiesen": 3780,
      "crucial": 3781,
      "bl": 3782,
      "bil": 3783,
      "brie": 3784,
      "due": 3785,
      "equ": 3786,
      "fast": 3787,
      "fear": 3788,
      "kraft": 3789,
      "punkte": 3790,
      "##nier": 3791,
      "##falt": 3792,
      "##ought": 3793,
      "##durch": 3794,
      "thought": 3795,
      "##llent": 3796,
      "aud": 3797,
      "##icien": 3798,
      "unac": 3799,
      "##gency": 3800,
      "##ission": 3801,
      "erken": 3802,
      "leisten": 3803,
      "##ending": 3804,
      "spir": 3805,
      "unterb": 3806,
      "gesp": 3807,
      "compr": 3808,
      "##ritts": 3809,
      "che": 3810,
      "landwirtschaft": 3811,
      "initiativen": 3812,
      "raised": 3813,
      "endlich": 3814,
      "##wendet": 3815,
      "carried": 3816,
      "##lander": 3817,
      "##wirken": 3818,
      "bestat": 3819,
      "kohas": 3820,
      "anderungen": 3821,
      "portugal": 3822,
      "bedau": 3823,
      "strategic": 3824,
      "informationen": 3825,
      "curren": 3826,
      "irgend": 3827,
      "angesprochen": 3828,
      "bestimmte": 3829,
      "berichterstatterin": 3830,
      "umfang": 3831,
      "berucksichtigen": 3832,
      "crime": 3833,
      "vergangenen": 3834,
      "charter": 3835,
      "motion": 3836,
      "received": 3837,
      "vernunft": 3838,
      "colleagues": 3839,
      "tabled": 3840,
      "bitten": 3841,
      "kapital": 3842,
      "ermoglichen": 3843,
      "absolutely": 3844,
      "several": 3845,
      "excellent": 3846,
      "unaccept": 3847,
      "010": 3848,
      "30": 3849,
      "cir": 3850,
      "hu": 3851,
      "link": 3852,
      "line": 3853,
      "sache": 3854,
      "water": 3855,
      "##aken": 3856,
      "##lassen": 3857,
      "##kraft": 3858,
      "##wurd": 3859,
      "##ences": 3860,
      "##iew": 3861,
      "##organ": 3862,
      "rei": 3863,
      "##ides": 3864,
      "anzu": 3865,
      "neuer": 3866,
      "maint": 3867,
      "##wegen": 3868,
      "supp": 3869,
      "ents": 3870,
      "kons": 3871,
      "##ehn": 3872,
      "coming": 3873,
      "##angt": 3874,
      "stellt": 3875,
      "hear": 3876,
      "##zuber": 3877,
      "ago": 3878,
      "1996": 3879,
      "##fuge": 3880,
      "chance": 3881,
      "reports": 3882,
      "saying": 3883,
      "außen": 3884,
      "differen": 3885,
      "gelten": 3886,
      "##ledge": 3887,
      "priorities": 3888,
      "beitragen": 3889,
      "autos": 3890,
      "transnational": 3891,
      "seite": 3892,
      "##geschlossen": 3893,
      "kommun": 3894,
      "zweite": 3895,
      "zweiten": 3896,
      "bestimmungen": 3897,
      "starker": 3898,
      "##anderungen": 3899,
      "global": 3900,
      "grenzuber": 3901,
      "criter": 3902,
      "judicial": 3903,
      "practical": 3904,
      "commitment": 3905,
      "italien": 3906,
      "portugiesische": 3907,
      "hold": 3908,
      "conclusion": 3909,
      "dienstleistungs": 3910,
      "monitoring": 3911,
      "sagte": 3912,
      "suggest": 3913,
      "vergessen": 3914,
      "discrimination": 3915,
      "monopol": 3916,
      "despite": 3917,
      "brief": 3918,
      "circ": 3919,
      "maintain": 3920,
      "flag": 3921,
      "home": 3922,
      "list": 3923,
      "ok": 3924,
      "satisf": 3925,
      "##action": 3926,
      "##sink": 3927,
      "##haft": 3928,
      "##bo": 3929,
      "##wun": 3930,
      "##ße": 3931,
      "##enz": 3932,
      "##onen": 3933,
      "##ested": 3934,
      "ine": 3935,
      "##stimmen": 3936,
      "##ales": 3937,
      "rechn": 3938,
      "##rachte": 3939,
      "zustimmung": 3940,
      "##uly": 3941,
      "note": 3942,
      "erziel": 3943,
      "gelegenheit": 3944,
      "wert": 3945,
      "abzu": 3946,
      "uberzeug": 3947,
      "span": 3948,
      "##aupt": 3949,
      "hohe": 3950,
      "##undheit": 3951,
      "ihres": 3952,
      "incor": 3953,
      "monaten": 3954,
      "consult": 3955,
      "plans": 3956,
      "##atzen": 3957,
      "nature": 3958,
      "behind": 3959,
      "helsink": 3960,
      "extent": 3961,
      "established": 3962,
      "throughout": 3963,
      "bewußt": 3964,
      "abgeordneter": 3965,
      "zugang": 3966,
      "solidaritat": 3967,
      "limited": 3968,
      "sufficient": 3969,
      "wunsch": 3970,
      "consumer": 3971,
      "week": 3972,
      "sustainable": 3973,
      "theato": 3974,
      "spirit": 3975,
      "unacceptable": 3976,
      "grenzuberschreit": 3977,
      "helsinki": 3978,
      "cent": 3979,
      "dro": 3980,
      "net": 3981,
      "##ead": 3982,
      "##ptem": 3983,
      "##more": 3984,
      "##wise": 3985,
      "##itime": 3986,
      "unbed": 3987,
      "anw": 3988,
      "angeb": 3989,
      "##ctive": 3990,
      "##eind": 3991,
      "septem": 3992,
      "##laß": 3993,
      "##ifically": 3994,
      "ort": 3995,
      "ord": 3996,
      "gemaß": 3997,
      "instead": 3998,
      "indic": 3999,
      "##werk": 4000,
      "rats": 4001,
      "##staaten": 4002,
      "##line": 4003,
      "offer": 4004,
      "offens": 4005,
      "sitzung": 4006,
      "##schlag": 4007,
      "sicherlich": 4008,
      "workers": 4009,
      "eingehen": 4010,
      "regards": 4011,
      "tatigkeit": 4012,
      "angelegenheiten": 4013,
      "sinne": 4014,
      "affected": 4015,
      "selbstverstandlich": 4016,
      "specifically": 4017,
      "menschenrechte": 4018,
      "wishes": 4019,
      "barnier": 4020,
      "increased": 4021,
      "correct": 4022,
      "vorgelegt": 4023,
      "aktiv": 4024,
      "practice": 4025,
      "wesentlichen": 4026,
      "erneuer": 4027,
      "protok": 4028,
      "reached": 4029,
      "arbeitsplatze": 4030,
      "participation": 4031,
      "betroffenen": 4032,
      "diskussion": 4033,
      "verhindern": 4034,
      "planning": 4035,
      "exchange": 4036,
      "honour": 4037,
      "verwaltungs": 4038,
      "monetary": 4039,
      "currency": 4040,
      "reihe": 4041,
      "september": 4042,
      "bure": 4043,
      "chr": 4044,
      "cla": 4045,
      "disch": 4046,
      "eg": 4047,
      "ehr": 4048,
      "kor": 4049,
      "light": 4050,
      "mal": 4051,
      "ol": 4052,
      "ren": 4053,
      "##nect": 4054,
      "##uted": 4055,
      "##fre": 4056,
      "##ians": 4057,
      "##ator": 4058,
      "infl": 4059,
      "anderung": 4060,
      "##igte": 4061,
      "reformen": 4062,
      "refuge": 4063,
      "##rach": 4064,
      "##opho": 4065,
      "verordnung": 4066,
      "happ": 4067,
      "##liches": 4068,
      "erheb": 4069,
      "##laut": 4070,
      "absatz": 4071,
      "move": 4072,
      "alloc": 4073,
      "##istische": 4074,
      "takes": 4075,
      "comment": 4076,
      "face": 4077,
      "concil": 4078,
      "concentr": 4079,
      "arbeitnehmer": 4080,
      "allein": 4081,
      "outside": 4082,
      "basic": 4083,
      "maritime": 4084,
      "implementing": 4085,
      "strategie": 4086,
      "##legung": 4087,
      "everyone": 4088,
      "zahlen": 4089,
      "entsprechend": 4090,
      "value": 4091,
      "benach": 4092,
      "erneut": 4093,
      "existing": 4094,
      "brussels": 4095,
      "dialogue": 4096,
      "katastrophe": 4097,
      "fischere": 4098,
      "schlußfol": 4099,
      "ernst": 4100,
      "potential": 4101,
      "analysis": 4102,
      "criteria": 4103,
      "bureau": 4104,
      "acht": 4105,
      "bank": 4106,
      "date": 4107,
      "hard": 4108,
      "nationen": 4109,
      "poll": 4110,
      "tie": 4111,
      "try": 4112,
      "wog": 4113,
      "##nissen": 4114,
      "##falle": 4115,
      "##iken": 4116,
      "##satze": 4117,
      "##heren": 4118,
      "##gere": 4119,
      "##dict": 4120,
      "##yse": 4121,
      "##wahl": 4122,
      "##erien": 4123,
      "reference": 4124,
      "unz": 4125,
      "ansatz": 4126,
      "stage": 4127,
      "dadurch": 4128,
      "##einen": 4129,
      "connect": 4130,
      "schem": 4131,
      "##aging": 4132,
      "ihn": 4133,
      "applied": 4134,
      "safe": 4135,
      "genug": 4136,
      "##ierenden": 4137,
      "syr": 4138,
      "##teilt": 4139,
      "firm": 4140,
      "entwickeln": 4141,
      "solution": 4142,
      "wiederhol": 4143,
      "##fallen": 4144,
      "geschaft": 4145,
      "effects": 4146,
      "##worten": 4147,
      "flucht": 4148,
      "deter": 4149,
      "sectors": 4150,
      "verstehen": 4151,
      "furthermore": 4152,
      "##strateg": 4153,
      "creation": 4154,
      "revision": 4155,
      "immed": 4156,
      "manufacturer": 4157,
      "allgemeinen": 4158,
      "fahrzeuge": 4159,
      "lebensmittelsicherheit": 4160,
      "lokalen": 4161,
      "##obil": 4162,
      "private": 4163,
      "brussel": 4164,
      "kunftig": 4165,
      "gegenwartig": 4166,
      "bemuhungen": 4167,
      "profess": 4168,
      "tourism": 4169,
      "called": 4170,
      "until": 4171,
      "discharge": 4172,
      "schlußfolger": 4173,
      "wogau": 4174,
      "11": 4175,
      "blo": 4176,
      "card": 4177,
      "fpo": 4178,
      "ga": 4179,
      "kam": 4180,
      "kamp": 4181,
      "nr": 4182,
      "vol": 4183,
      "vict": 4184,
      "##nommen": 4185,
      "##hnen": 4186,
      "##wal": 4187,
      "##ined": 4188,
      "##onse": 4189,
      "beant": 4190,
      "augen": 4191,
      "##elves": 4192,
      "angem": 4193,
      "##terday": 4194,
      "proceed": 4195,
      "forsch": 4196,
      "alter": 4197,
      "gele": 4198,
      "##dex": 4199,
      "mitt": 4200,
      "##vert": 4201,
      "##indest": 4202,
      "except": 4203,
      "##unde": 4204,
      "##ienz": 4205,
      "final": 4206,
      "##prom": 4207,
      "##ourcen": 4208,
      "durchaus": 4209,
      "hinzu": 4210,
      "zumindest": 4211,
      "mitglieder": 4212,
      "response": 4213,
      "laßt": 4214,
      "woche": 4215,
      "minder": 4216,
      "wirtschaftliche": 4217,
      "##gebie": 4218,
      "bereiche": 4219,
      "danke": 4220,
      "##orenz": 4221,
      "##legten": 4222,
      "##acio": 4223,
      "structure": 4224,
      "osterreichischen": 4225,
      "somit": 4226,
      "establishing": 4227,
      "ziehen": 4228,
      "ministers": 4229,
      "gesamte": 4230,
      "moglichst": 4231,
      "difficulties": 4232,
      "accordance": 4233,
      "powers": 4234,
      "repub": 4235,
      "konkreten": 4236,
      "liberal": 4237,
      "medium": 4238,
      "palacio": 4239,
      "schwierigkeiten": 4240,
      "##bedingungen": 4241,
      "rule": 4242,
      "##coming": 4243,
      "##entwick": 4244,
      "plenum": 4245,
      "combat": 4246,
      "ausfuhrungen": 4247,
      "superv": 4248,
      "obviously": 4249,
      "yesterday": 4250,
      "delegation": 4251,
      "congratulate": 4252,
      "schengen": 4253,
      "comprom": 4254,
      "unbedingt": 4255,
      "##ophob": 4256,
      "conciliation": 4257,
      "cause": 4258,
      "dritt": 4259,
      "fishing": 4260,
      "ire": 4261,
      "mand": 4262,
      "ress": 4263,
      "wes": 4264,
      "xen": 4265,
      "##licht": 4266,
      "##ven": 4267,
      "##bt": 4268,
      "##onnen": 4269,
      "##isis": 4270,
      "##urop": 4271,
      "inspect": 4272,
      "##arily": 4273,
      "##rehens": 4274,
      "##omin": 4275,
      "andern": 4276,
      "zudem": 4277,
      "regeln": 4278,
      "commissioners": 4279,
      "entlastung": 4280,
      "beru": 4281,
      "##auß": 4282,
      "hohen": 4283,
      "nachdruck": 4284,
      "amt": 4285,
      "##abel": 4286,
      "finn": 4287,
      "fair": 4288,
      "stated": 4289,
      "appla": 4290,
      "##rated": 4291,
      "content": 4292,
      "freue": 4293,
      "using": 4294,
      "##ikan": 4295,
      "grunden": 4296,
      "grundlegen": 4297,
      "myself": 4298,
      "syri": 4299,
      "##heer": 4300,
      "##heben": 4301,
      "reforms": 4302,
      "sozialdemokrat": 4303,
      "scope": 4304,
      "namely": 4305,
      "possibility": 4306,
      "schaden": 4307,
      "geschlossen": 4308,
      "richtlinien": 4309,
      "##minister": 4310,
      "demokratischen": 4311,
      "achieved": 4312,
      "required": 4313,
      "crisis": 4314,
      "mainst": 4315,
      "eingeb": 4316,
      "jeweil": 4317,
      "administrat": 4318,
      "talking": 4319,
      "beziehungen": 4320,
      "turkey": 4321,
      "officials": 4322,
      "automobil": 4323,
      "purpos": 4324,
      "kommissionsmitglied": 4325,
      "significant": 4326,
      "heutigen": 4327,
      "incorpor": 4328,
      "benachteil": 4329,
      "connection": 4330,
      "ireland": 4331,
      "xenophob": 4332,
      "ble": 4333,
      "gern": 4334,
      "haltung": 4335,
      "jon": 4336,
      "jun": 4337,
      "jung": 4338,
      "living": 4339,
      "run": 4340,
      "sl": 4341,
      "##ake": 4342,
      "##ech": 4343,
      "##liz": 4344,
      "##gu": 4345,
      "##ina": 4346,
      "##ats": 4347,
      "thems": 4348,
      "##aler": 4349,
      "toler": 4350,
      "uni": 4351,
      "##eth": 4352,
      "isol": 4353,
      "verm": 4354,
      "verhalten": 4355,
      "##schein": 4356,
      "gefuhrt": 4357,
      "geograph": 4358,
      "aufbau": 4359,
      "mitarbeit": 4360,
      "design": 4361,
      "entgegen": 4362,
      "parties": 4363,
      "##ertung": 4364,
      "parliamentary": 4365,
      "seinem": 4366,
      "##itionen": 4367,
      "sage": 4368,
      "##ption": 4369,
      "instance": 4370,
      "spezie": 4371,
      "speech": 4372,
      "poor": 4373,
      "##wogen": 4374,
      "##fahrens": 4375,
      "kollege": 4376,
      "beschlossen": 4377,
      "burokrat": 4378,
      "richtung": 4379,
      "dennoch": 4380,
      "##gebung": 4381,
      "expla": 4382,
      "wiederauf": 4383,
      "staatliche": 4384,
      "##licherweise": 4385,
      "farm": 4386,
      "views": 4387,
      "confirm": 4388,
      "vollstand": 4389,
      "etwa": 4390,
      "florenz": 4391,
      "deta": 4392,
      "balance": 4393,
      "budgetary": 4394,
      "komprom": 4395,
      "avo": 4396,
      "prioritaten": 4397,
      "documents": 4398,
      "entsprechenden": 4399,
      "schiffe": 4400,
      "asylum": 4401,
      "subsidiarity": 4402,
      "occas": 4403,
      "bodies": 4404,
      "##luckwun": 4405,
      "##bestand": 4406,
      "vorliegenden": 4407,
      "erwarten": 4408,
      "organisations": 4409,
      "scientific": 4410,
      "staff": 4411,
      "gewahrleisten": 4412,
      "##behorde": 4413,
      "prosecut": 4414,
      "##chanis": 4415,
      "okolog": 4416,
      "offensicht": 4417,
      "angemessen": 4418,
      "mainstream": 4419,
      "themselves": 4420,
      "18": 4421,
      "40": 4422,
      "ban": 4423,
      "fonds": 4424,
      "fulf": 4425,
      "kust": 4426,
      "ppe": 4427,
      "purs": 4428,
      "siz": 4429,
      "trag": 4430,
      "uhr": 4431,
      "##feind": 4432,
      "##cies": 4433,
      "##haupt": 4434,
      "##gungen": 4435,
      "##vember": 4436,
      "##zess": 4437,
      "##bs": 4438,
      "##iell": 4439,
      "##ured": 4440,
      "diejenigen": 4441,
      "##lect": 4442,
      "une": 4443,
      "verurs": 4444,
      "verwendung": 4445,
      "##ilar": 4446,
      "november": 4447,
      "geauß": 4448,
      "##achung": 4449,
      "vorrang": 4450,
      "sea": 4451,
      "schritt": 4452,
      "scheint": 4453,
      "ubernehmen": 4454,
      "##ends": 4455,
      "##cken": 4456,
      "##itious": 4457,
      "interp": 4458,
      "amount": 4459,
      "gesprochen": 4460,
      "gesundheit": 4461,
      "betracht": 4462,
      "betreffen": 4463,
      "##zufuhren": 4464,
      "##ritten": 4465,
      "1994": 4466,
      "##utzt": 4467,
      "politics": 4468,
      "efficien": 4469,
      "##ussel": 4470,
      "damage": 4471,
      "intention": 4472,
      "##rift": 4473,
      "verbunden": 4474,
      "minimum": 4475,
      "recently": 4476,
      "assoc": 4477,
      "score": 4478,
      "rechtsvorschriften": 4479,
      "angelegenheit": 4480,
      "##besch": 4481,
      "##ological": 4482,
      "everything": 4483,
      "beitritts": 4484,
      "fuhrt": 4485,
      "folgt": 4486,
      "risik": 4487,
      "subjects": 4488,
      "similar": 4489,
      "globalisierung": 4490,
      "procedures": 4491,
      "operation": 4492,
      "seriously": 4493,
      "volks": 4494,
      "worth": 4495,
      "gehoren": 4496,
      "tasks": 4497,
      "analyse": 4498,
      "entsprechende": 4499,
      "anstren": 4500,
      "zweifel": 4501,
      "kleinen": 4502,
      "unterschied": 4503,
      "##stitutional": 4504,
      "##zusetzen": 4505,
      "completely": 4506,
      "challenge": 4507,
      "altener": 4508,
      "ethn": 4509,
      "##bringen": 4510,
      "integrated": 4511,
      "##board": 4512,
      "protokoll": 4513,
      "christ": 4514,
      "bleibt": 4515,
      "efficiency": 4516,
      "17": 4517,
      "away": 4518,
      "live": 4519,
      "lot": 4520,
      "log": 4521,
      "mang": 4522,
      "rass": 4523,
      "tim": 4524,
      "##agraph": 4525,
      "##lle": 4526,
      "##gult": 4527,
      "##bet": 4528,
      "thus": 4529,
      "intens": 4530,
      "beam": 4531,
      "beif": 4532,
      "reject": 4533,
      "einsch": 4534,
      "zusatz": 4535,
      "anspruch": 4536,
      "forest": 4537,
      "##ilities": 4538,
      "sour": 4539,
      "along": 4540,
      "paragraph": 4541,
      "regret": 4542,
      "uberpru": 4543,
      "##istic": 4544,
      "##cks": 4545,
      "##ckheer": 4546,
      "orient": 4547,
      "##ranted": 4548,
      "head": 4549,
      "comprehens": 4550,
      "##iode": 4551,
      "durchgefuhrt": 4552,
      "genommen": 4553,
      "sym": 4554,
      "decided": 4555,
      "urge": 4556,
      "unseres": 4557,
      "transparent": 4558,
      "##folge": 4559,
      "overall": 4560,
      "ausschließ": 4561,
      "##ounts": 4562,
      "##mitteln": 4563,
      "held": 4564,
      "author": 4565,
      "fraktionen": 4566,
      "levels": 4567,
      "discussions": 4568,
      "looking": 4569,
      "protect": 4570,
      "qualitat": 4571,
      "globalisation": 4572,
      "elig": 4573,
      "review": 4574,
      "regelungen": 4575,
      "successful": 4576,
      "akzeptieren": 4577,
      "conclusions": 4578,
      "subsidiaritat": 4579,
      "untersuch": 4580,
      "altfahr": 4581,
      "territor": 4582,
      "assessment": 4583,
      "fortschritte": 4584,
      "koordinierung": 4585,
      "audit": 4586,
      "bureauc": 4587,
      "administrative": 4588,
      "jonckheer": 4589,
      "offensichtlich": 4590,
      "beifall": 4591,
      "81": 4592,
      "ap": 4593,
      "cities": 4594,
      "feder": 4595,
      "hor": 4596,
      "mess": 4597,
      "nord": 4598,
      "setting": 4599,
      "voting": 4600,
      "##aust": 4601,
      "##uing": 4602,
      "##kamp": 4603,
      "##plan": 4604,
      "##xis": 4605,
      "##wh": 4606,
      "##ination": 4607,
      "unan": 4608,
      "verhalt": 4609,
      "verfugen": 4610,
      "stur": 4611,
      "prob": 4612,
      "forth": 4613,
      "sound": 4614,
      "constit": 4615,
      "coast": 4616,
      "mag": 4617,
      "##thy": 4618,
      "##weist": 4619,
      "uberhaupt": 4620,
      "shar": 4621,
      "##istent": 4622,
      "stets": 4623,
      "stelle": 4624,
      "parlamentar": 4625,
      "goes": 4626,
      "1995": 4627,
      "genehm": 4628,
      "##reichend": 4629,
      "monti": 4630,
      "jede": 4631,
      "begren": 4632,
      "##riff": 4633,
      "permit": 4634,
      "events": 4635,
      "##regionen": 4636,
      "gericht": 4637,
      "gebracht": 4638,
      "minutes": 4639,
      "koch": 4640,
      "andererseits": 4641,
      "##akter": 4642,
      "provisions": 4643,
      "gleichen": 4644,
      "remember": 4645,
      "##ungsantrag": 4646,
      "affect": 4647,
      "##gemaß": 4648,
      "wichtigsten": 4649,
      "industrie": 4650,
      "reality": 4651,
      "##reiten": 4652,
      "establishment": 4653,
      "instruments": 4654,
      "##sprogramm": 4655,
      "weltweit": 4656,
      "projekt": 4657,
      "else": 4658,
      "broad": 4659,
      "speakers": 4660,
      "disasters": 4661,
      "absolut": 4662,
      "eigent": 4663,
      "beteiligung": 4664,
      "funktionieren": 4665,
      "body": 4666,
      "randlage": 4667,
      "effizient": 4668,
      "ratsprasidentschaft": 4669,
      "manner": 4670,
      "enterpr": 4671,
      "sachverstand": 4672,
      "aufmerksamkeit": 4673,
      "enorm": 4674,
      "recognise": 4675,
      "construction": 4676,
      "renewable": 4677,
      "##organisation": 4678,
      "circum": 4679,
      "geschafts": 4680,
      "##uropa": 4681,
      "kompromiß": 4682,
      "prosecutor": 4683,
      "anstrengungen": 4684,
      "achten": 4685,
      "ahn": 4686,
      "cut": 4687,
      "cos": 4688,
      "gol": 4689,
      "giving": 4690,
      "granted": 4691,
      "jen": 4692,
      "mis": 4693,
      "nimmt": 4694,
      "tar": 4695,
      "zivil": 4696,
      "##flich": 4697,
      "##fragen": 4698,
      "##iately": 4699,
      "##val": 4700,
      "##yond": 4701,
      "##zif": 4702,
      "##just": 4703,
      "##iede": 4704,
      "##uren": 4705,
      "##anced": 4706,
      "beyond": 4707,
      "##teile": 4708,
      "einsatz": 4709,
      "ungleich": 4710,
      "veranderungen": 4711,
      "##gehend": 4712,
      "prosper": 4713,
      "days": 4714,
      "##hren": 4715,
      "sovere": 4716,
      "enfor": 4717,
      "condu": 4718,
      "aufgenommen": 4719,
      "neigh": 4720,
      "exact": 4721,
      "extern": 4722,
      "politiken": 4723,
      "##sens": 4724,
      "##urellen": 4725,
      "##quate": 4726,
      "heard": 4727,
      "disapp": 4728,
      "status": 4729,
      "spek": 4730,
      "grundsatze": 4731,
      "landes": 4732,
      "efficient": 4733,
      "keiner": 4734,
      "raise": 4735,
      "urgent": 4736,
      "gewor": 4737,
      "active": 4738,
      "finanzielle": 4739,
      "##fluß": 4740,
      "organe": 4741,
      "produce": 4742,
      "getroffen": 4743,
      "teilen": 4744,
      "zahlreiche": 4745,
      "normal": 4746,
      "reduce": 4747,
      "close": 4748,
      "borders": 4749,
      "grant": 4750,
      "ergreifen": 4751,
      "created": 4752,
      "referred": 4753,
      "recognis": 4754,
      "demonst": 4755,
      "effizienz": 4756,
      "fremdenfeind": 4757,
      "abschluß": 4758,
      "growth": 4759,
      "niederland": 4760,
      "observ": 4761,
      "sechs": 4762,
      "highl": 4763,
      "kenntnis": 4764,
      "compromise": 4765,
      "fulfil": 4766,
      "scoreboard": 4767,
      "circumst": 4768,
      "sovereign": 4769,
      "neighbour": 4770,
      "35": 4771,
      "bie": 4772,
      "class": 4773,
      "flo": 4774,
      "lab": 4775,
      "mil": 4776,
      "weder": 4777,
      "##frie": 4778,
      "##cceed": 4779,
      "##tung": 4780,
      "##tain": 4781,
      "##treten": 4782,
      "##rary": 4783,
      "##hund": 4784,
      "##gruppen": 4785,
      "##pted": 4786,
      "##xim": 4787,
      "##met": 4788,
      "##ino": 4789,
      "##inking": 4790,
      "##sto": 4791,
      "##stag": 4792,
      "##alition": 4793,
      "##igin": 4794,
      "eindruck": 4795,
      "einwand": 4796,
      "verur": 4797,
      "verme": 4798,
      "hafen": 4799,
      "hauf": 4800,
      "stability": 4801,
      "profit": 4802,
      "south": 4803,
      "##iers": 4804,
      "##veran": 4805,
      "desire": 4806,
      "sud": 4807,
      "suppor": 4808,
      "succeed": 4809,
      "meisten": 4810,
      "beruf": 4811,
      "origin": 4812,
      "darstellt": 4813,
      "besorg": 4814,
      "##ellos": 4815,
      "gestern": 4816,
      "heart": 4817,
      "##anzen": 4818,
      "symp": 4819,
      "jedes": 4820,
      "##arta": 4821,
      "beginnen": 4822,
      "rac": 4823,
      "developing": 4824,
      "##arbeitung": 4825,
      "inso": 4826,
      "agreed": 4827,
      "scale": 4828,
      "##haltung": 4829,
      "self": 4830,
      "geschichte": 4831,
      "bedarf": 4832,
      "employe": 4833,
      "gestimmt": 4834,
      "guter": 4835,
      "contribute": 4836,
      "bessere": 4837,
      "closed": 4838,
      "flexibility": 4839,
      "vorsitzen": 4840,
      "brought": 4841,
      "palest": 4842,
      "talk": 4843,
      "widerspruch": 4844,
      "kontrollen": 4845,
      "steps": 4846,
      "##entwurf": 4847,
      "turkei": 4848,
      "caused": 4849,
      "strafrecht": 4850,
      "relevant": 4851,
      "festgelegt": 4852,
      "foreign": 4853,
      "midd": 4854,
      "verabschied": 4855,
      "refugees": 4856,
      "victims": 4857,
      "sized": 4858,
      "unanim": 4859,
      "external": 4860,
      "##frieden": 4861,
      "sympath": 4862,
      "ara": 4863,
      "dest": 4864,
      "fal": 4865,
      "fell": 4866,
      "lar": 4867,
      "listen": 4868,
      "mcc": 4869,
      "ought": 4870,
      "sort": 4871,
      "sess": 4872,
      "wid": 4873,
      "wach": 4874,
      "##fect": 4875,
      "##hnt": 4876,
      "##gut": 4877,
      "##greif": 4878,
      "##ying": 4879,
      "##will": 4880,
      "##attle": 4881,
      "insp": 4882,
      "##arthy": 4883,
      "befinden": 4884,
      "##omes": 4885,
      "reicht": 4886,
      "einfluß": 4887,
      "unver": 4888,
      "verwirk": 4889,
      "hause": 4890,
      "dauer": 4891,
      "almost": 4892,
      "enable": 4893,
      "vorher": 4894,
      "desc": 4895,
      "##iveau": 4896,
      "##splan": 4897,
      "##istan": 4898,
      "meer": 4899,
      "interv": 4900,
      "intervention": 4901,
      "tack": 4902,
      "hoff": 4903,
      "##angs": 4904,
      "##ienst": 4905,
      "##ibilities": 4906,
      "nachdem": 4907,
      "besten": 4908,
      "besondere": 4909,
      "dispar": 4910,
      "prasidenten": 4911,
      "appear": 4912,
      "gender": 4913,
      "nochmals": 4914,
      "strict": 4915,
      "begluckwun": 4916,
      "##riffen": 4917,
      "internet": 4918,
      "otherwise": 4919,
      "anything": 4920,
      "vielmehr": 4921,
      "socialists": 4922,
      "direction": 4923,
      "competit": 4924,
      "gemeinschaftlichen": 4925,
      "directives": 4926,
      "feststellen": 4927,
      "remark": 4928,
      "milliar": 4929,
      "kontin": 4930,
      "zielen": 4931,
      "formul": 4932,
      "anti": 4933,
      "letzte": 4934,
      "##laufen": 4935,
      "discussed": 4936,
      "auto": 4937,
      "entspricht": 4938,
      "ausgewogen": 4939,
      "bald": 4940,
      "improvement": 4941,
      "elections": 4942,
      "palast": 4943,
      "convention": 4944,
      "ignor": 4945,
      "wahlen": 4946,
      "schiff": 4947,
      "ambitious": 4948,
      "aspekte": 4949,
      "british": 4950,
      "konzentrieren": 4951,
      "februar": 4952,
      "february": 4953,
      "merely": 4954,
      "coordination": 4955,
      "prufung": 4956,
      "grounds": 4957,
      "##luded": 4958,
      "safegu": 4959,
      "schlußfolgerungen": 4960,
      "applause": 4961,
      "comprehensive": 4962,
      "geworden": 4963,
      "circumstances": 4964,
      "supported": 4965,
      "mccarthy": 4966,
      "07": 4967,
      "bau": 4968,
      "cred": 4969,
      "gab": 4970,
      "gree": 4971,
      "har": 4972,
      "malt": 4973,
      "pun": 4974,
      "ten": 4975,
      "times": 4976,
      "vitor": 4977,
      "wast": 4978,
      "##ugen": 4979,
      "##uveran": 4980,
      "##frei": 4981,
      "##kay": 4982,
      "##polit": 4983,
      "##enn": 4984,
      "##att": 4985,
      "##atch": 4986,
      "##ires": 4987,
      "einiger": 4988,
      "##amm": 4989,
      "verehrte": 4990,
      "annahme": 4991,
      "stock": 4992,
      "##dert": 4993,
      "sofort": 4994,
      "souveran": 4995,
      "altern": 4996,
      "diesbe": 4997,
      "condem": 4998,
      "##acher": 4999,
      "register": 5000,
      "##spar": 5001,
      "schle": 5002,
      "existen": 5003,
      "umgesetzt": 5004,
      "attem": 5005,
      "##auft": 5006,
      "##ipl": 5007,
      "betrachte": 5008,
      "facil": 5009,
      "divers": 5010,
      "respekt": 5011,
      "##stellungen": 5012,
      "begrund": 5013,
      "##barer": 5014,
      "perfect": 5015,
      "##arbeitet": 5016,
      "gewahl": 5017,
      "gering": 5018,
      "jahrhund": 5019,
      "handeln": 5020,
      "##ously": 5021,
      "seek": 5022,
      "mensch": 5023,
      "wahrungs": 5024,
      "knowledge": 5025,
      "außerster": 5026,
      "helfen": 5027,
      "ensuring": 5028,
      "thanks": 5029,
      "haushalt": 5030,
      "measure": 5031,
      "equality": 5032,
      "production": 5033,
      "entscheidungs": 5034,
      "discussing": 5035,
      "guten": 5036,
      "bewertung": 5037,
      "extreme": 5038,
      "promot": 5039,
      "projekten": 5040,
      "elected": 5041,
      "schwerwie": 5042,
      "conven": 5043,
      "convin": 5044,
      "verbessern": 5045,
      "distrib": 5046,
      "erfolgreich": 5047,
      "reasonable": 5048,
      "zweifellos": 5049,
      "reading": 5050,
      "starken": 5051,
      "optim": 5052,
      "dienstleistungen": 5053,
      "colleague": 5054,
      "amongst": 5055,
      "dringend": 5056,
      "linie": 5057,
      "aspects": 5058,
      "drittens": 5059,
      "franzosischen": 5060,
      "anerkennung": 5061,
      "vermittlungs": 5062,
      "huge": 5063,
      "fluchtling": 5064,
      "gave": 5065,
      "weshalb": 5066,
      "mainstreaming": 5067,
      "eligible": 5068,
      "probably": 5069,
      "forthcoming": 5070,
      "middle": 5071,
      "vitorino": 5072,
      "diesbezug": 5073,
      "attempt": 5074,
      "16": 5075,
      "ere": 5076,
      "eher": 5077,
      "grie": 5078,
      "jorg": 5079,
      "wr": 5080,
      "##ned": 5081,
      "##ize": 5082,
      "##dom": 5083,
      "##mand": 5084,
      "##ury": 5085,
      "##anze": 5086,
      "##emark": 5087,
      "einschließ": 5088,
      "unions": 5089,
      "zuge": 5090,
      "verk": 5091,
      "##scht": 5092,
      "stop": 5093,
      "impress": 5094,
      "##andert": 5095,
      "const": 5096,
      "##cepted": 5097,
      "##spolit": 5098,
      "schre": 5099,
      "lear": 5100,
      "leist": 5101,
      "herz": 5102,
      "ubert": 5103,
      "konig": 5104,
      "konsequ": 5105,
      "##istisch": 5106,
      "spo": 5107,
      "betonen": 5108,
      "speaking": 5109,
      "mußte": 5110,
      "monate": 5111,
      "##altigen": 5112,
      "sitting": 5113,
      "solch": 5114,
      "##arbeiten": 5115,
      "##landern": 5116,
      "kooper": 5117,
      "science": 5118,
      "publish": 5119,
      "danemark": 5120,
      "bekommen": 5121,
      "effectively": 5122,
      "half": 5123,
      "umweltschutz": 5124,
      "drawn": 5125,
      "nunmehr": 5126,
      "accepted": 5127,
      "kulturellen": 5128,
      "bestimmten": 5129,
      "##achstum": 5130,
      "normen": 5131,
      "grenz": 5132,
      "sorge": 5133,
      "deliver": 5134,
      "eingegangen": 5135,
      "konkrete": 5136,
      "grun": 5137,
      "committed": 5138,
      "pointed": 5139,
      "enthalt": 5140,
      "noneth": 5141,
      "verpflich": 5142,
      "friedens": 5143,
      "properly": 5144,
      "arbeitsplatzen": 5145,
      "unterschiede": 5146,
      "innovative": 5147,
      "consequences": 5148,
      "stabilitat": 5149,
      "agriculture": 5150,
      "substant": 5151,
      "empfehlungen": 5152,
      "verpflichtungen": 5153,
      "infrastru": 5154,
      "repeat": 5155,
      "forschung": 5156,
      "geaußert": 5157,
      "geschaftsordnung": 5158,
      "session": 5159,
      "wrong": 5160,
      "nonetheless": 5161,
      "03": 5162,
      "ade": 5163,
      "bot": 5164,
      "ero": 5165,
      "fig": 5166,
      "il": 5167,
      "langer": 5168,
      "sw": 5169,
      "tre": 5170,
      "test": 5171,
      "ult": 5172,
      "wait": 5173,
      "zut": 5174,
      "##ron": 5175,
      "##rict": 5176,
      "##ikt": 5177,
      "##seit": 5178,
      "##hnung": 5179,
      "##kor": 5180,
      "##punkte": 5181,
      "##chter": 5182,
      "thinking": 5183,
      "##atur": 5184,
      "##ature": 5185,
      "##itar": 5186,
      "##itude": 5187,
      "##unch": 5188,
      "##altet": 5189,
      "beeint": 5190,
      "##elten": 5191,
      "##uter": 5192,
      "ung": 5193,
      "unge": 5194,
      "zufrieden": 5195,
      "verletz": 5196,
      "wealth": 5197,
      "denmark": 5198,
      "##lying": 5199,
      "asking": 5200,
      "auss": 5201,
      "ausges": 5202,
      "auszu": 5203,
      "seattle": 5204,
      "##indet": 5205,
      "extens": 5206,
      "##liegt": 5207,
      "mechanis": 5208,
      "hoffen": 5209,
      "##ipf": 5210,
      "betrie": 5211,
      "##rank": 5212,
      "worte": 5213,
      "save": 5214,
      "##ements": 5215,
      "spezif": 5216,
      "##igkeits": 5217,
      "##ished": 5218,
      "tex": 5219,
      "entschlossen": 5220,
      "impact": 5221,
      "##losen": 5222,
      "##head": 5223,
      "developed": 5224,
      "eval": 5225,
      "gewesen": 5226,
      "endgult": 5227,
      "erwart": 5228,
      "sonder": 5229,
      "natural": 5230,
      "finanzkontrolle": 5231,
      "maße": 5232,
      "related": 5233,
      "zweck": 5234,
      "envis": 5235,
      "wahrschein": 5236,
      "known": 5237,
      "danish": 5238,
      "geschaffen": 5239,
      "millenn": 5240,
      "##programm": 5241,
      "acqu": 5242,
      "attach": 5243,
      "produkt": 5244,
      "conflic": 5245,
      "versich": 5246,
      "ideolog": 5247,
      "seiten": 5248,
      "useful": 5249,
      "erklaren": 5250,
      "##lusse": 5251,
      "irland": 5252,
      "wettbewerbsfahigkeit": 5253,
      "kommenden": 5254,
      "restrict": 5255,
      "investig": 5256,
      "benot": 5257,
      "##ifying": 5258,
      "retur": 5259,
      "##riminalitat": 5260,
      "intended": 5261,
      "##wertung": 5262,
      "gesetzgebung": 5263,
      "fehlen": 5264,
      "##kontro": 5265,
      "suffer": 5266,
      "occur": 5267,
      "erwahnt": 5268,
      "##grenzung": 5269,
      "model": 5270,
      "##burger": 5271,
      "derartige": 5272,
      "ships": 5273,
      "stabil": 5274,
      "vorzulegen": 5275,
      "building": 5276,
      "erfahrungen": 5277,
      "agricultural": 5278,
      "billion": 5279,
      "partnerschaft": 5280,
      "diskutieren": 5281,
      "eingesetzt": 5282,
      "balkan": 5283,
      "submitted": 5284,
      "ferner": 5285,
      "happy": 5286,
      "syrien": 5287,
      "purpose": 5288,
      "avoid": 5289,
      "message": 5290,
      "fellow": 5291,
      "competitiveness": 5292,
      "milliarden": 5293,
      "safeguard": 5294,
      "ereign": 5295,
      "konigreich": 5296,
      "verpflichtet": 5297,
      "beeintracht": 5298,
      "100": 5299,
      "dre": 5300,
      "emer": 5301,
      "gives": 5302,
      "ju": 5303,
      "kaum": 5304,
      "pack": 5305,
      "sus": 5306,
      "samt": 5307,
      "##ages": 5308,
      "##apt": 5309,
      "##fs": 5310,
      "##ften": 5311,
      "##hern": 5312,
      "##lude": 5313,
      "##ps": 5314,
      "##yn": 5315,
      "##erc": 5316,
      "##inens": 5317,
      "##iter": 5318,
      "##enten": 5319,
      "##igungen": 5320,
      "uner": 5321,
      "##ets": 5322,
      "##olid": 5323,
      "##ulative": 5324,
      "anp": 5325,
      "##geiz": 5326,
      "weak": 5327,
      "stip": 5328,
      "forms": 5329,
      "denken": 5330,
      "##bene": 5331,
      "mitte": 5332,
      "dead": 5333,
      "dealt": 5334,
      "vorlegen": 5335,
      "ausreichend": 5336,
      "excess": 5337,
      "exerc": 5338,
      "##ahn": 5339,
      "mochten": 5340,
      "umstand": 5341,
      "##gesellschaft": 5342,
      "##gestell": 5343,
      "applies": 5344,
      "##itional": 5345,
      "contrary": 5346,
      "cho": 5347,
      "politisch": 5348,
      "problemen": 5349,
      "grundrechte": 5350,
      "jedem": 5351,
      "##riere": 5352,
      "accident": 5353,
      "2002": 5354,
      "entwickelt": 5355,
      "rightly": 5356,
      "burden": 5357,
      "anderer": 5358,
      "approval": 5359,
      "maßnahme": 5360,
      "behinder": 5361,
      "governance": 5362,
      "##setzungen": 5363,
      "##steht": 5364,
      "informations": 5365,
      "remote": 5366,
      "##ounced": 5367,
      "##richtungen": 5368,
      "forderungen": 5369,
      "##works": 5370,
      "hauses": 5371,
      "verantwortlich": 5372,
      "versuchen": 5373,
      "demokratische": 5374,
      "positiv": 5375,
      "erklart": 5376,
      "erklarungen": 5377,
      "dienen": 5378,
      "costa": 5379,
      "risks": 5380,
      "##ziehung": 5381,
      "promoting": 5382,
      "representative": 5383,
      "##sprogram": 5384,
      "democrats": 5385,
      "improving": 5386,
      "##zeichnen": 5387,
      "stadte": 5388,
      "befug": 5389,
      "raums": 5390,
      "##moglichkeiten": 5391,
      "niemand": 5392,
      "liberalen": 5393,
      "advis": 5394,
      "aims": 5395,
      "herausforderung": 5396,
      "addressed": 5397,
      "ecological": 5398,
      "activity": 5399,
      "uberwachung": 5400,
      "phase": 5401,
      "carefully": 5402,
      "fremdenverkehr": 5403,
      "viol": 5404,
      "##kodex": 5405,
      "encourage": 5406,
      "terror": 5407,
      "##resp": 5408,
      "flexibilitat": 5409,
      "covered": 5410,
      "exclusion": 5411,
      "bemerkungen": 5412,
      "storms": 5413,
      "erfullen": 5414,
      "ehrgeiz": 5415,
      "immediately": 5416,
      "ressourcen": 5417,
      "jeweiligen": 5418,
      "palastinens": 5419,
      "illeg": 5420,
      "millennium": 5421,
      "air": 5422,
      "bad": 5423,
      "dinge": 5424,
      "dopp": 5425,
      "gain": 5426,
      "gruppen": 5427,
      "ganze": 5428,
      "mass": 5429,
      "nen": 5430,
      "osten": 5431,
      "okon": 5432,
      "rasch": 5433,
      "sk": 5434,
      "vo": 5435,
      "wonder": 5436,
      "##nes": 5437,
      "##iere": 5438,
      "##iff": 5439,
      "##hab": 5440,
      "##hod": 5441,
      "##horen": 5442,
      "##lier": 5443,
      "##katastrop": 5444,
      "##ging": 5445,
      "##dere": 5446,
      "##bung": 5447,
      "##where": 5448,
      "##erve": 5449,
      "##esch": 5450,
      "##atisch": 5451,
      "##rec": 5452,
      "rea": 5453,
      "##rahmen": 5454,
      "unmittel": 5455,
      "##ama": 5456,
      "##amber": 5457,
      "veroff": 5458,
      "anforderungen": 5459,
      "##usse": 5460,
      "ers": 5461,
      "erm": 5462,
      "erlaut": 5463,
      "gegent": 5464,
      "##verty": 5465,
      "deg": 5466,
      "dezentr": 5467,
      "cod": 5468,
      "neben": 5469,
      "deswegen": 5470,
      "ausbildung": 5471,
      "schul": 5472,
      "schritte": 5473,
      "mob": 5474,
      "konfl": 5475,
      "berat": 5476,
      "front": 5477,
      "##gesamt": 5478,
      "##ausweis": 5479,
      "gesetzt": 5480,
      "gesehen": 5481,
      "parts": 5482,
      "dispos": 5483,
      "obtain": 5484,
      "chamber": 5485,
      "tele": 5486,
      "teile": 5487,
      "proposing": 5488,
      "poverty": 5489,
      "##uchner": 5490,
      "decentr": 5491,
      "wochen": 5492,
      "kouchner": 5493,
      "insgesamt": 5494,
      "approve": 5495,
      "ways": 5496,
      "finanzierung": 5497,
      "recover": 5498,
      "considerable": 5499,
      "discip": 5500,
      "directly": 5501,
      "##actions": 5502,
      "rechtssicherheit": 5503,
      "außerord": 5504,
      "danach": 5505,
      "naturally": 5506,
      "##legungen": 5507,
      "##acity": 5508,
      "letztend": 5509,
      "industr": 5510,
      "anderungsantragen": 5511,
      "braucht": 5512,
      "version": 5513,
      "ideas": 5514,
      "personen": 5515,
      "personally": 5516,
      "##sprinzip": 5517,
      "mindest": 5518,
      "flexible": 5519,
      "simple": 5520,
      "thirdly": 5521,
      "prioritat": 5522,
      "charakter": 5523,
      "derzeitigen": 5524,
      "introduce": 5525,
      "receive": 5526,
      "additional": 5527,
      "wissenschaftlichen": 5528,
      "bestehenden": 5529,
      "history": 5530,
      "earlier": 5531,
      "aspekt": 5532,
      "kriterien": 5533,
      "behandelt": 5534,
      "kompliz": 5535,
      "beginning": 5536,
      "green": 5537,
      "voraussetzung": 5538,
      "nahen": 5539,
      "bildung": 5540,
      "duty": 5541,
      "armut": 5542,
      "diskutiert": 5543,
      "januar": 5544,
      "january": 5545,
      "paid": 5546,
      "##andidaten": 5547,
      "americ": 5548,
      "recommendations": 5549,
      "##strategie": 5550,
      "##entwicklung": 5551,
      "detailed": 5552,
      "kusten": 5553,
      "interpret": 5554,
      "mangel": 5555,
      "sovereignty": 5556,
      "waste": 5557,
      "promotion": 5558,
      "einschließlich": 5559,
      "infrastruct": 5560,
      "##korper": 5561,
      "stipul": 5562,
      "gegenteil": 5563,
      "letztendlich": 5564,
      "28": 5565,
      "akte": 5566,
      "dr": 5567,
      "fas": 5568,
      "later": 5569,
      "nied": 5570,
      "naz": 5571,
      "rig": 5572,
      "vess": 5573,
      "wales": 5574,
      "##nungs": 5575,
      "##uble": 5576,
      "##rig": 5577,
      "##ser": 5578,
      "##haus": 5579,
      "##haf": 5580,
      "##haften": 5581,
      "##oy": 5582,
      "##ober": 5583,
      "##oint": 5584,
      "##dra": 5585,
      "##erten": 5586,
      "##erungen": 5587,
      "##erungs": 5588,
      "##ins": 5589,
      "##este": 5590,
      "##anwal": 5591,
      "##repr": 5592,
      "beab": 5593,
      "took": 5594,
      "einstimm": 5595,
      "einverstand": 5596,
      "##uten": 5597,
      "vergleich": 5598,
      "verlei": 5599,
      "verfahrens": 5600,
      "##schw": 5601,
      "weap": 5602,
      "##usion": 5603,
      "##used": 5604,
      "forces": 5605,
      "eror": 5606,
      "aufzu": 5607,
      "aufnahme": 5608,
      "##dell": 5609,
      "dez": 5610,
      "vorbe": 5611,
      "vorhaben": 5612,
      "ausgrenzung": 5613,
      "withdra": 5614,
      "abhang": 5615,
      "willen": 5616,
      "interin": 5617,
      "daraus": 5618,
      "##que": 5619,
      "parliaments": 5620,
      "compens": 5621,
      "chair": 5622,
      "genannten": 5623,
      "##linie": 5624,
      "december": 5625,
      "communities": 5626,
      "##barkeit": 5627,
      "developments": 5628,
      "handlungs": 5629,
      "courts": 5630,
      "factor": 5631,
      "sonst": 5632,
      "providing": 5633,
      "explan": 5634,
      "redner": 5635,
      "falls": 5636,
      "requires": 5637,
      "certainty": 5638,
      "internationale": 5639,
      "letzter": 5640,
      "adopting": 5641,
      "##maßig": 5642,
      "##langen": 5643,
      "sometimes": 5644,
      "morning": 5645,
      "##rechts": 5646,
      "gesamt": 5647,
      "operators": 5648,
      "volker": 5649,
      "konkret": 5650,
      "aktu": 5651,
      "italy": 5652,
      "italian": 5653,
      "langfrist": 5654,
      "introduced": 5655,
      "please": 5656,
      "statements": 5657,
      "gegebenen": 5658,
      "zeigt": 5659,
      "consumers": 5660,
      "ubereinkommen": 5661,
      "##leitet": 5662,
      "spielen": 5663,
      "verstandnis": 5664,
      "materials": 5665,
      "territory": 5666,
      "sensitive": 5667,
      "opposed": 5668,
      "einbeziehung": 5669,
      "germany": 5670,
      "verzog": 5671,
      "bestandteil": 5672,
      "erkennen": 5673,
      "dienstleistungsausweis": 5674,
      "renational": 5675,
      "fischerei": 5676,
      "automobilindustrie": 5677,
      "mitarbeiter": 5678,
      "sources": 5679,
      "federal": 5680,
      "enterprises": 5681,
      "conduct": 5682,
      "highlight": 5683,
      "labour": 5684,
      "vermeiden": 5685,
      "insofern": 5686,
      "employees": 5687,
      "palestin": 5688,
      "disparities": 5689,
      "begluckwunschen": 5690,
      "wahrscheinlich": 5691,
      "okonom": 5692,
      "beabsicht": 5693,
      "24": 5694,
      "37": 5695,
      "ack": 5696,
      "around": 5697,
      "ahead": 5698,
      "blick": 5699,
      "cen": 5700,
      "dipl": 5701,
      "fis": 5702,
      "fift": 5703,
      "glaub": 5704,
      "hence": 5705,
      "les": 5706,
      "pflicht": 5707,
      "rise": 5708,
      "waffen": 5709,
      "##nit": 5710,
      "##nern": 5711,
      "##to": 5712,
      "##tran": 5713,
      "##iated": 5714,
      "##sachen": 5715,
      "##oul": 5716,
      "##klear": 5717,
      "##gruppe": 5718,
      "##bal": 5719,
      "##bol": 5720,
      "##mium": 5721,
      "##itial": 5722,
      "##isieren": 5723,
      "initial": 5724,
      "##anted": 5725,
      "##ancen": 5726,
      "##unsten": 5727,
      "##reben": 5728,
      "beob": 5729,
      "##tei": 5730,
      "einrichtung": 5731,
      "einsetzen": 5732,
      "nos": 5733,
      "sogen": 5734,
      "concept": 5735,
      "gep": 5736,
      "##iment": 5737,
      "defen": 5738,
      "vorhand": 5739,
      "##ktor": 5740,
      "##ffend": 5741,
      "##laus": 5742,
      "##sprechen": 5743,
      "##pped": 5744,
      "schrift": 5745,
      "exem": 5746,
      "konstru": 5747,
      "arrang": 5748,
      "fri": 5749,
      "young": 5750,
      "##undes": 5751,
      "##gesetz": 5752,
      "darstellen": 5753,
      "programmen": 5754,
      "programmp": 5755,
      "complex": 5756,
      "##ourriere": 5757,
      "charta": 5758,
      "##utzen": 5759,
      "moreover": 5760,
      "usa": 5761,
      "laid": 5762,
      "decourriere": 5763,
      "rail": 5764,
      "##regeln": 5765,
      "anyone": 5766,
      "socialist": 5767,
      "competitive": 5768,
      "committees": 5769,
      "eingeh": 5770,
      "standard": 5771,
      "festgestellt": 5772,
      "einzige": 5773,
      "außerhalb": 5774,
      "marg": 5775,
      "internationaler": 5776,
      "mitteln": 5777,
      "##program": 5778,
      "burgerinnen": 5779,
      "##antwortung": 5780,
      "praz": 5781,
      "gebiets": 5782,
      "institutional": 5783,
      "straße": 5784,
      "taxation": 5785,
      "osterreichs": 5786,
      "notwendigen": 5787,
      "klaren": 5788,
      "idee": 5789,
      "vereinten": 5790,
      "transfer": 5791,
      "achieving": 5792,
      "gestalten": 5793,
      "##grunde": 5794,
      "bewahr": 5795,
      "controls": 5796,
      "involving": 5797,
      "bezuglich": 5798,
      "negative": 5799,
      "includes": 5800,
      "moral": 5801,
      "##schließen": 5802,
      "stehenden": 5803,
      "##wirkung": 5804,
      "entschließungsantrag": 5805,
      "capacity": 5806,
      "ausdrucklich": 5807,
      "dealing": 5808,
      "definition": 5809,
      "regelung": 5810,
      "commitments": 5811,
      "applicable": 5812,
      "anfang": 5813,
      "intends": 5814,
      "beteiligt": 5815,
      "kritik": 5816,
      "nuklear": 5817,
      "verkehrs": 5818,
      "annual": 5819,
      "truly": 5820,
      "vorgeschlagenen": 5821,
      "combating": 5822,
      "weeks": 5823,
      "##strukturen": 5824,
      "##burg": 5825,
      "sinnvoll": 5826,
      "causes": 5827,
      "##kommens": 5828,
      "laufen": 5829,
      "##stattung": 5830,
      "defend": 5831,
      "rapkay": 5832,
      "immigr": 5833,
      "verfolgen": 5834,
      "kohasion": 5835,
      "konsult": 5836,
      "rechnung": 5837,
      "uberzeugt": 5838,
      "grenzuberschreitende": 5839,
      "honourable": 5840,
      "influen": 5841,
      "allocated": 5842,
      "determin": 5843,
      "geleistet": 5844,
      "republic": 5845,
      "supervision": 5846,
      "symbol": 5847,
      "##austausch": 5848,
      "enormous": 5849,
      "besorgnis": 5850,
      "souveranitat": 5851,
      "ausgesprochen": 5852,
      "erwartungen": 5853,
      "susp": 5854,
      "weapons": 5855,
      "dezember": 5856,
      "acknow": 5857,
      "diplom": 5858,
      "22": 5859,
      "big": 5860,
      "bundes": 5861,
      "eh": 5862,
      "eisen": 5863,
      "gruppe": 5864,
      "gipf": 5865,
      "jene": 5866,
      "kur": 5867,
      "ov": 5868,
      "pil": 5869,
      "vital": 5870,
      "##na": 5871,
      "##uations": 5872,
      "##uerung": 5873,
      "##ca": 5874,
      "##cement": 5875,
      "##ec": 5876,
      "##ever": 5877,
      "##kop": 5878,
      "##kannt": 5879,
      "##gfalt": 5880,
      "##zehn": 5881,
      "##bel": 5882,
      "##instru": 5883,
      "##oned": 5884,
      "##orted": 5885,
      "##arken": 5886,
      "##reche": 5887,
      "town": 5888,
      "##utze": 5889,
      "unbe": 5890,
      "zugleich": 5891,
      "verlauf": 5892,
      "ansch": 5893,
      "stenz": 5894,
      "forts": 5895,
      "##hrend": 5896,
      "erhalt": 5897,
      "erfordern": 5898,
      "constitutional": 5899,
      "##oss": 5900,
      "gee": 5901,
      "geehrte": 5902,
      "neues": 5903,
      "auswahl": 5904,
      "schussel": 5905,
      "legen": 5906,
      "abst": 5907,
      "abkommen": 5908,
      "##weig": 5909,
      "willing": 5910,
      "spent": 5911,
      "##ado": 5912,
      "##ellschaften": 5913,
      "##tedly": 5914,
      "manch": 5915,
      "##zulegen": 5916,
      "##ots": 5917,
      "disp": 5918,
      "quant": 5919,
      "apprec": 5920,
      "1993": 5921,
      "##fuhl": 5922,
      "instanz": 5923,
      "##werte": 5924,
      "freiz": 5925,
      "hindern": 5926,
      "##asser": 5927,
      "mehrere": 5928,
      "news": 5929,
      "perspect": 5930,
      "sitz": 5931,
      "verbreit": 5932,
      "anderem": 5933,
      "##akte": 5934,
      "regionale": 5935,
      "supporting": 5936,
      "gleichstellung": 5937,
      "gelungen": 5938,
      "effectiveness": 5939,
      "bedro": 5940,
      "extra": 5941,
      "praxis": 5942,
      "##gabe": 5943,
      "industries": 5944,
      "##ighted": 5945,
      "osterreichische": 5946,
      "attitude": 5947,
      "putting": 5948,
      "versucht": 5949,
      "zahlreichen": 5950,
      "technische": 5951,
      "deutsch": 5952,
      "zunehmen": 5953,
      "verstark": 5954,
      "aussprechen": 5955,
      "elect": 5956,
      "elements": 5957,
      "sorgfalt": 5958,
      "berucksichtigung": 5959,
      "##gemeinschaft": 5960,
      "##hold": 5961,
      "zustandig": 5962,
      "zugunsten": 5963,
      "talks": 5964,
      "hervorge": 5965,
      "herausforderungen": 5966,
      "shown": 5967,
      "guarantees": 5968,
      "totally": 5969,
      "binnenmarktes": 5970,
      "accession": 5971,
      "early": 5972,
      "starke": 5973,
      "demands": 5974,
      "krise": 5975,
      "aktionen": 5976,
      "codec": 5977,
      "plenary": 5978,
      "method": 5979,
      "katastrophen": 5980,
      "study": 5981,
      "einheitliche": 5982,
      "emphasis": 5983,
      "befurwor": 5984,
      "relationship": 5985,
      "vereinbarung": 5986,
      "bevorstehen": 5987,
      "juris": 5988,
      "sektor": 5989,
      "demonstrate": 5990,
      "diskriminierung": 5991,
      "monopolies": 5992,
      "century": 5993,
      "wiederholen": 5994,
      "minderheiten": 5995,
      "syria": 5996,
      "xenophobia": 5997,
      "floor": 5998,
      "malta": 5999,
      "betrachtet": 6000,
      "impression": 6001,
      "einverstanden": 6002,
      "ovp": 6003,
      "01": 6004,
      "26": 6005,
      "age": 6006,
      "edu": 6007,
      "hund": 6008,
      "lies": 6009,
      "late": 6010,
      "lay": 6011,
      "mist": 6012,
      "mund": 6013,
      "rate": 6014,
      "sent": 6015,
      "uran": 6016,
      "west": 6017,
      "wanted": 6018,
      "##umen": 6019,
      "##uern": 6020,
      "##cke": 6021,
      "##ii": 6022,
      "##lant": 6023,
      "##mission": 6024,
      "##wenden": 6025,
      "##ones": 6026,
      "##itation": 6027,
      "##anagement": 6028,
      "##stens": 6029,
      "##ala": 6030,
      "##reter": 6031,
      "beweis": 6032,
      "reag": 6033,
      "eink": 6034,
      "einigung": 6035,
      "##rachen": 6036,
      "##uting": 6037,
      "##olitiken": 6038,
      "haft": 6039,
      "sto": 6040,
      "prop": 6041,
      "proport": 6042,
      "former": 6043,
      "formal": 6044,
      "dagegen": 6045,
      "##ders": 6046,
      "alban": 6047,
      "pras": 6048,
      "geist": 6049,
      "gekommen": 6050,
      "##achten": 6051,
      "mitge": 6052,
      "deep": 6053,
      "voran": 6054,
      "vorange": 6055,
      "vorred": 6056,
      "coalition": 6057,
      "separ": 6058,
      "double": 6059,
      "##ums": 6060,
      "berger": 6061,
      "arr": 6062,
      "nachzu": 6063,
      "##ipher": 6064,
      "##zeigt": 6065,
      "wenigen": 6066,
      "worten": 6067,
      "presidents": 6068,
      "quot": 6069,
      "##prasident": 6070,
      "contro": 6071,
      "china": 6072,
      "mußten": 6073,
      "consolid": 6074,
      "damals": 6075,
      "decide": 6076,
      "outcome": 6077,
      "##lose": 6078,
      "nationale": 6079,
      "nationals": 6080,
      "keines": 6081,
      "großere": 6082,
      "economies": 6083,
      "##regel": 6084,
      "wichtiger": 6085,
      "direkt": 6086,
      "##nerstag": 6087,
      "moglicherweise": 6088,
      "standig": 6089,
      "opfer": 6090,
      "director": 6091,
      "lob": 6092,
      "lost": 6093,
      "gleiche": 6094,
      "greatest": 6095,
      "gelder": 6096,
      "march": 6097,
      "##qualitat": 6098,
      "##richten": 6099,
      "geschehen": 6100,
      "employed": 6101,
      "responsibilities": 6102,
      "leaders": 6103,
      "##endence": 6104,
      "resolutions": 6105,
      "across": 6106,
      "structures": 6107,
      "positiven": 6108,
      "personlich": 6109,
      "involvement": 6110,
      "improved": 6111,
      "critical": 6112,
      "letter": 6113,
      "gewahrt": 6114,
      "await": 6115,
      "eigene": 6116,
      "jeg": 6117,
      "schwierig": 6118,
      "wohlstand": 6119,
      "wesentlich": 6120,
      "erinnert": 6121,
      "arguments": 6122,
      "gedanken": 6123,
      "lokale": 6124,
      "modernisierung": 6125,
      "popul": 6126,
      "agrar": 6127,
      "passiert": 6128,
      "ubereinstimmung": 6129,
      "zentral": 6130,
      "innovation": 6131,
      "challenges": 6132,
      "##kommt": 6133,
      "contains": 6134,
      "familien": 6135,
      "recognition": 6136,
      "rapid": 6137,
      "contradict": 6138,
      "radical": 6139,
      "verteidigen": 6140,
      "summit": 6141,
      "donnerstag": 6142,
      "beschranken": 6143,
      "roman": 6144,
      "effektiv": 6145,
      "links": 6146,
      "claim": 6147,
      "concentrate": 6148,
      "tief": 6149,
      "benachteiligten": 6150,
      "##zesses": 6151,
      "rassismus": 6152,
      "golan": 6153,
      "demonstrated": 6154,
      "haufig": 6155,
      "sympathy": 6156,
      "falsch": 6157,
      "schwerwiegen": 6158,
      "adequate": 6159,
      "conflict": 6160,
      "##korperschaften": 6161,
      "verleihen": 6162,
      "programmplan": 6163,
      "gebietskorperschaften": 6164,
      "influence": 6165,
      "##instrument": 6166,
      "stenzel": 6167,
      "codecision": 6168,
      "educ": 6169,
      "camp": 6170,
      "dat": 6171,
      "div": 6172,
      "dub": 6173,
      "hy": 6174,
      "hit": 6175,
      "ill": 6176,
      "jem": 6177,
      "jetz": 6178,
      "ky": 6179,
      "king": 6180,
      "kmu": 6181,
      "lis": 6182,
      "letzt": 6183,
      "mio": 6184,
      "mission": 6185,
      "neit": 6186,
      "nort": 6187,
      "ober": 6188,
      "sagt": 6189,
      "vot": 6190,
      "volle": 6191,
      "wachstum": 6192,
      "##fug": 6193,
      "##frage": 6194,
      "##son": 6195,
      "##hner": 6196,
      "##of": 6197,
      "##war": 6198,
      "##erte": 6199,
      "##eration": 6200,
      "##nden": 6201,
      "##itage": 6202,
      "##ieht": 6203,
      "##union": 6204,
      "rechten": 6205,
      "##icip": 6206,
      "##iders": 6207,
      "zustimmen": 6208,
      "##old": 6209,
      "veran": 6210,
      "verring": 6211,
      "anliegen": 6212,
      "anlaß": 6213,
      "weisen": 6214,
      "##usi": 6215,
      "##ush": 6216,
      "forget": 6217,
      "fordere": 6218,
      "##gence": 6219,
      "sole": 6220,
      "alone": 6221,
      "##osen": 6222,
      "##bend": 6223,
      "mitentscheid": 6224,
      "##verw": 6225,
      "##laßt": 6226,
      "##spart": 6227,
      "ability": 6228,
      "abgeschlossen": 6229,
      "herzen": 6230,
      "heritage": 6231,
      "alli": 6232,
      "entt": 6233,
      "entrepr": 6234,
      "##ume": 6235,
      "uberlegungen": 6236,
      "frag": 6237,
      "sprach": 6238,
      "##etzung": 6239,
      "##auer": 6240,
      "unternehmer": 6241,
      "##ielt": 6242,
      "##ibly": 6243,
      "beseit": 6244,
      "managed": 6245,
      "lik": 6246,
      "adapt": 6247,
      "appe": 6248,
      "appell": 6249,
      "##werten": 6250,
      "warten": 6251,
      "usw": 6252,
      "police": 6253,
      "mehrfach": 6254,
      "##wohn": 6255,
      "##licit": 6256,
      "##ließen": 6257,
      "großte": 6258,
      "großeren": 6259,
      "zusammenhalt": 6260,
      "peripher": 6261,
      "##schlage": 6262,
      "solutions": 6263,
      "gewisse": 6264,
      "beschluß": 6265,
      "gerichte": 6266,
      "richtige": 6267,
      "plant": 6268,
      "welcom": 6269,
      "##gendes": 6270,
      "assure": 6271,
      "considerably": 6272,
      "##hoben": 6273,
      "##ategor": 6274,
      "festlegung": 6275,
      "reden": 6276,
      "gelangen": 6277,
      "##zeitraum": 6278,
      "einzigen": 6279,
      "knows": 6280,
      "board": 6281,
      "marz": 6282,
      "##beihilfen": 6283,
      "fordert": 6284,
      "##proble": 6285,
      "join": 6286,
      "##gangenen": 6287,
      "##ziplin": 6288,
      "transactions": 6289,
      "ausgezeich": 6290,
      "deutschen": 6291,
      "involve": 6292,
      "##gestimmt": 6293,
      "verstarken": 6294,
      "losen": 6295,
      "israeli": 6296,
      "begrußt": 6297,
      "highly": 6298,
      "reduction": 6299,
      "reducing": 6300,
      "zustandigkeit": 6301,
      "depart": 6302,
      "advice": 6303,
      "##bauen": 6304,
      "parteien": 6305,
      "appropriations": 6306,
      "fahrzeug": 6307,
      "geden": 6308,
      "widersp": 6309,
      "##mittag": 6310,
      "##gewicht": 6311,
      "erwahnen": 6312,
      "spielt": 6313,
      "##bestimm": 6314,
      "bekanntlich": 6315,
      "erhohung": 6316,
      "##systems": 6317,
      "consequently": 6318,
      "examination": 6319,
      "##verein": 6320,
      "historic": 6321,
      "welches": 6322,
      "umfassende": 6323,
      "criticism": 6324,
      "kohasions": 6325,
      "aktivitaten": 6326,
      "achtung": 6327,
      "scheme": 6328,
      "kampf": 6329,
      "verhaltens": 6330,
      "farmers": 6331,
      "risiko": 6332,
      "ausschließlich": 6333,
      "begrenz": 6334,
      "exactly": 6335,
      "arab": 6336,
      "##auftrag": 6337,
      "perfectly": 6338,
      "fluchtlinge": 6339,
      "herzlich": 6340,
      "ubertragen": 6341,
      "eroff": 6342,
      "return": 6343,
      "jugend": 6344,
      "außerordentlich": 6345,
      "industrial": 6346,
      "vessels": 6347,
      "##anwaltschaft": 6348,
      "glaubwurd": 6349,
      "pilot": 6350,
      "freizug": 6351,
      "kingdom": 6352,
      "neither": 6353,
      "08": 6354,
      "94": 6355,
      "core": 6356,
      "diss": 6357,
      "halt": 6358,
      "kop": 6359,
      "kriminalitat": 6360,
      "lauf": 6361,
      "liste": 6362,
      "nein": 6363,
      "pen": 6364,
      "rich": 6365,
      "rational": 6366,
      "tw": 6367,
      "ut": 6368,
      "wing": 6369,
      "wide": 6370,
      "##nimmt": 6371,
      "##cis": 6372,
      "##sible": 6373,
      "##gelt": 6374,
      "##dire": 6375,
      "##vier": 6376,
      "##yer": 6377,
      "##zent": 6378,
      "##meld": 6379,
      "thurs": 6380,
      "##onom": 6381,
      "##atively": 6382,
      "##itable": 6383,
      "##itely": 6384,
      "##isiert": 6385,
      "##reb": 6386,
      "##teen": 6387,
      "##llar": 6388,
      "##iget": 6389,
      "reich": 6390,
      "einhaltung": 6391,
      "einrichtungen": 6392,
      "##oph": 6393,
      "unable": 6394,
      "verweisen": 6395,
      "##uls": 6396,
      "anch": 6397,
      "##geber": 6398,
      "weaken": 6399,
      "stimmt": 6400,
      "##uses": 6401,
      "eurod": 6402,
      "erd": 6403,
      "erzeug": 6404,
      "prim": 6405,
      "##ands": 6406,
      "geber": 6407,
      "parado": 6408,
      "##imal": 6409,
      "##ruh": 6410,
      "##verse": 6411,
      "desir": 6412,
      "ausarbeitung": 6413,
      "regular": 6414,
      "##lagt": 6415,
      "leicht": 6416,
      "##bekamp": 6417,
      "sup": 6418,
      "entit": 6419,
      "dollar": 6420,
      "umge": 6421,
      "##annte": 6422,
      "spat": 6423,
      "sprache": 6424,
      "frist": 6425,
      "heav": 6426,
      "goal": 6427,
      "disag": 6428,
      "admit": 6429,
      "facing": 6430,
      "##rates": 6431,
      "chancen": 6432,
      "concrete": 6433,
      "conclude": 6434,
      "gemeinden": 6435,
      "freuen": 6436,
      "preis": 6437,
      "rechtfert": 6438,
      "landliche": 6439,
      "##lines": 6440,
      "syner": 6441,
      "legally": 6442,
      "respond": 6443,
      "mitglieds": 6444,
      "urspr": 6445,
      "urgency": 6446,
      "gewiss": 6447,
      "gewalt": 6448,
      "courage": 6449,
      "##akes": 6450,
      "amended": 6451,
      "record": 6452,
      "overcome": 6453,
      "##fallig": 6454,
      "round": 6455,
      "bezahl": 6456,
      "placed": 6457,
      "requested": 6458,
      "leave": 6459,
      "added": 6460,
      "ganzen": 6461,
      "angekund": 6462,
      "weiterer": 6463,
      "##ribed": 6464,
      "organised": 6465,
      "resolve": 6466,
      "versuch": 6467,
      "beschaftigen": 6468,
      "bringing": 6469,
      "arbeitsmarkt": 6470,
      "interesting": 6471,
      "folge": 6472,
      "##maßen": 6473,
      "generaldire": 6474,
      "starkung": 6475,
      "gefahrgut": 6476,
      "losungen": 6477,
      "befassen": 6478,
      "articles": 6479,
      "glauben": 6480,
      "mainly": 6481,
      "barak": 6482,
      "eurojust": 6483,
      "vertrages": 6484,
      "acceptable": 6485,
      "schwierigen": 6486,
      "pays": 6487,
      "applicant": 6488,
      "hervorheben": 6489,
      "verloren": 6490,
      "liter": 6491,
      "experien": 6492,
      "fehlt": 6493,
      "zeigen": 6494,
      "stadtischen": 6495,
      "reflect": 6496,
      "passed": 6497,
      "aktionsplan": 6498,
      "##leiten": 6499,
      "behandeln": 6500,
      "gerechtigkeit": 6501,
      "##markte": 6502,
      "eastern": 6503,
      "konzentration": 6504,
      "examine": 6505,
      "pressure": 6506,
      "emphasise": 6507,
      "growing": 6508,
      "scientists": 6509,
      "##unternehmen": 6510,
      "immigration": 6511,
      "reinfor": 6512,
      "impossible": 6513,
      "balkans": 6514,
      "kontrolliert": 6515,
      "bemerkung": 6516,
      "functioning": 6517,
      "bilden": 6518,
      "bestatigen": 6519,
      "differences": 6520,
      "consultation": 6521,
      "networks": 6522,
      "anwes": 6523,
      "ordnungs": 6524,
      "designed": 6525,
      "speziell": 6526,
      "burokratie": 6527,
      "ethnic": 6528,
      "fremdenfeindlichkeit": 6529,
      "racism": 6530,
      "##spartei": 6531,
      "published": 6532,
      "ultim": 6533,
      "doppel": 6534,
      "konflikt": 6535,
      "lesung": 6536,
      "defence": 6537,
      "arrangements": 6538,
      "deutschland": 6539,
      "thursday": 6540,
      "eurodac": 6541,
      "paradox": 6542,
      "synerg": 6543,
      "ordnungsgemaß": 6544,
      "abend": 6545,
      "clim": 6546,
      "candid": 6547,
      "drug": 6548,
      "kl": 6549,
      "kre": 6550,
      "klim": 6551,
      "latter": 6552,
      "mem": 6553,
      "pse": 6554,
      "ries": 6555,
      "side": 6556,
      "tenden": 6557,
      "vig": 6558,
      "##aden": 6559,
      "##aign": 6560,
      "##aktionen": 6561,
      "##neten": 6562,
      "##cel": 6563,
      "##certain": 6564,
      "##taus": 6565,
      "##volle": 6566,
      "##pay": 6567,
      "##machen": 6568,
      "thor": 6569,
      "##inden": 6570,
      "##atal": 6571,
      "##iture": 6572,
      "##anten": 6573,
      "##anforderungen": 6574,
      "##stad": 6575,
      "##stelle": 6576,
      "##reffend": 6577,
      "bein": 6578,
      "beforderung": 6579,
      "bezeichnet": 6580,
      "tool": 6581,
      "##eden": 6582,
      "##etter": 6583,
      "zus": 6584,
      "##ters": 6585,
      "##usetzen": 6586,
      "##einand": 6587,
      "erreich": 6588,
      "prime": 6589,
      "##anden": 6590,
      "consens": 6591,
      "##osed": 6592,
      "gehe": 6593,
      "gepru": 6594,
      "##verfol": 6595,
      "##verantwortung": 6596,
      "depr": 6597,
      "vorab": 6598,
      "coll": 6599,
      "coup": 6600,
      "near": 6601,
      "auseinand": 6602,
      "sehe": 6603,
      "werk": 6604,
      "##sprech": 6605,
      "schad": 6606,
      "##indung": 6607,
      "##bele": 6608,
      "umzusetzen": 6609,
      "ubernommen": 6610,
      "shap": 6611,
      "polize": 6612,
      "meant": 6613,
      "berichte": 6614,
      "spricht": 6615,
      "spending": 6616,
      "thereby": 6617,
      "##aup": 6618,
      "nachbar": 6619,
      "amounts": 6620,
      "finance": 6621,
      "betont": 6622,
      "##hersteller": 6623,
      "durfte": 6624,
      "faced": 6625,
      "##ratic": 6626,
      "chann": 6627,
      "##ierende": 6628,
      "landwir": 6629,
      "##wohner": 6630,
      "launch": 6631,
      "##fuhrten": 6632,
      "nationaler": 6633,
      "situations": 6634,
      "beschlusse": 6635,
      "##rieg": 6636,
      "geboten": 6637,
      "##wirkt": 6638,
      "minority": 6639,
      "handel": 6640,
      "peoples": 6641,
      "koh": 6642,
      "serb": 6643,
      "##akis": 6644,
      "competence": 6645,
      "approxim": 6646,
      "##angehor": 6647,
      "behaup": 6648,
      "informed": 6649,
      "financed": 6650,
      "aids": 6651,
      "fallt": 6652,
      "wirklichen": 6653,
      "##struction": 6654,
      "generally": 6655,
      "speculative": 6656,
      "wichtigste": 6657,
      "energien": 6658,
      "##ighten": 6659,
      "taxpay": 6660,
      "confident": 6661,
      "bedeuten": 6662,
      "klare": 6663,
      "realise": 6664,
      "positions": 6665,
      "continuing": 6666,
      "transl": 6667,
      "komme": 6668,
      "gestatten": 6669,
      "ausgehen": 6670,
      "necessarily": 6671,
      "balanced": 6672,
      "kulturelle": 6673,
      "budgets": 6674,
      "versto": 6675,
      "contributions": 6676,
      "loss": 6677,
      "israelis": 6678,
      "follows": 6679,
      "volkspartei": 6680,
      "environmentally": 6681,
      "eingefuhrt": 6682,
      "investment": 6683,
      "investitionen": 6684,
      "zustandigen": 6685,
      "judgement": 6686,
      "plane": 6687,
      "erforderlichen": 6688,
      "##orgung": 6689,
      "engagement": 6690,
      "introduction": 6691,
      "beziehen": 6692,
      "protest": 6693,
      "akzeptiert": 6694,
      "lokaler": 6695,
      "fehl": 6696,
      "holz": 6697,
      "applying": 6698,
      "unabhangiger": 6699,
      "typ": 6700,
      "ready": 6701,
      "wunschen": 6702,
      "multi": 6703,
      "meaning": 6704,
      "behandlung": 6705,
      "planned": 6706,
      "technology": 6707,
      "##kosten": 6708,
      "sixth": 6709,
      "einbezogen": 6710,
      "erarbeitung": 6711,
      "terron": 6712,
      "verfolgt": 6713,
      "infrastruktur": 6714,
      "##entscheidungen": 6715,
      "lux": 6716,
      "vorbereitung": 6717,
      "schlimm": 6718,
      "nachhaltige": 6719,
      "equally": 6720,
      "briefly": 6721,
      "erzielen": 6722,
      "trying": 6723,
      "schemes": 6724,
      "volun": 6725,
      "eingebracht": 6726,
      "jungsten": 6727,
      "explain": 6728,
      "occasion": 6729,
      "apart": 6730,
      "verhaltnis": 6731,
      "prosperity": 6732,
      "recognised": 6733,
      "verabschiedet": 6734,
      "credibility": 6735,
      "greece": 6736,
      "punkten": 6737,
      "condemn": 6738,
      "existence": 6739,
      "versichern": 6740,
      "advisers": 6741,
      "illegal": 6742,
      "margin": 6743,
      "immigrants": 6744,
      "campaign": 6745,
      "enttausch": 6746,
      "kohasionsfonds": 6747,
      "freizugigkeit": 6748,
      "ursprung": 6749,
      "gepruft": 6750,
      "auseinanders": 6751,
      "02": 6752,
      "27": 6753,
      "apr": 6754,
      "druck": 6755,
      "daten": 6756,
      "gd": 6757,
      "gas": 6758,
      "klass": 6759,
      "sar": 6760,
      "send": 6761,
      "ton": 6762,
      "vice": 6763,
      "##tag": 6764,
      "##rungen": 6765,
      "##richen": 6766,
      "##kur": 6767,
      "##viel": 6768,
      "##ximum": 6769,
      "##zut": 6770,
      "##mann": 6771,
      "##atte": 6772,
      "##atischen": 6773,
      "##atik": 6774,
      "##attet": 6775,
      "##itate": 6776,
      "##ief": 6777,
      "einig": 6778,
      "unless": 6779,
      "##ammen": 6780,
      "verwendet": 6781,
      "verlangen": 6782,
      "anzahl": 6783,
      "##lichung": 6784,
      "erf": 6785,
      "ergeben": 6786,
      "erleicht": 6787,
      "##anderung": 6788,
      "gezogen": 6789,
      "aufnehmen": 6790,
      "##dellen": 6791,
      "##achsen": 6792,
      "##vertrag": 6793,
      "vorlage": 6794,
      "ausger": 6795,
      "ausreichen": 6796,
      "ausweit": 6797,
      "maximum": 6798,
      "sele": 6799,
      "##spiel": 6800,
      "schien": 6801,
      "##ateful": 6802,
      "##ivity": 6803,
      "##beauftrag": 6804,
      "sichern": 6805,
      "entail": 6806,
      "##umm": 6807,
      "ubergang": 6808,
      "uberzeugen": 6809,
      "konzept": 6810,
      "##ungsver": 6811,
      "##ungsentwurf": 6812,
      "berend": 6813,
      "berlin": 6814,
      "spreche": 6815,
      "##halte": 6816,
      "reserv": 6817,
      "unternommen": 6818,
      "nachste": 6819,
      "manag": 6820,
      "##ranational": 6821,
      "heim": 6822,
      "compon": 6823,
      "dism": 6824,
      "wurtz": 6825,
      "obst": 6826,
      "berichten": 6827,
      "zwangs": 6828,
      "##ocol": 6829,
      "conserv": 6830,
      "consistent": 6831,
      "implic": 6832,
      "solange": 6833,
      "gewiß": 6834,
      "##regierung": 6835,
      "programming": 6836,
      "hands": 6837,
      "handels": 6838,
      "vielfalt": 6839,
      "insist": 6840,
      "unterstutze": 6841,
      "##vorschlage": 6842,
      "expend": 6843,
      "eingere": 6844,
      "governing": 6845,
      "relates": 6846,
      "scand": 6847,
      "financing": 6848,
      "treatment": 6849,
      "rechtsstaat": 6850,
      "angewand": 6851,
      "presentation": 6852,
      "lastly": 6853,
      "austausch": 6854,
      "afford": 6855,
      "evening": 6856,
      "strategischen": 6857,
      "antworten": 6858,
      "produced": 6859,
      "laws": 6860,
      "afric": 6861,
      "continent": 6862,
      "offentliche": 6863,
      "besonderen": 6864,
      "einzelstaat": 6865,
      "lebensqualitat": 6866,
      "gefahrlicher": 6867,
      "stadten": 6868,
      "helping": 6869,
      "barr": 6870,
      "restru": 6871,
      "signed": 6872,
      "dienststellen": 6873,
      "reply": 6874,
      "brok": 6875,
      "defined": 6876,
      "kleine": 6877,
      "langu": 6878,
      "lebensmittelbehorde": 6879,
      "excluded": 6880,
      "motor": 6881,
      "company": 6882,
      "friedensprozeß": 6883,
      "nutzung": 6884,
      "##bildungs": 6885,
      "krisen": 6886,
      "announced": 6887,
      "remains": 6888,
      "energietrag": 6889,
      "gegenwartigen": 6890,
      "entscheidenden": 6891,
      "entscheidende": 6892,
      "fruher": 6893,
      "fruheren": 6894,
      "bemuht": 6895,
      "198": 6896,
      "diskussionen": 6897,
      "happening": 6898,
      "bearing": 6899,
      "##ricted": 6900,
      "erfahrung": 6901,
      "dutch": 6902,
      "organisationen": 6903,
      "##speriode": 6904,
      "genugend": 6905,
      "trotzdem": 6906,
      "gewahrleistet": 6907,
      "reconstruction": 6908,
      "donors": 6909,
      "angst": 6910,
      "sektoren": 6911,
      "beschrankt": 6912,
      "topical": 6913,
      "easy": 6914,
      "pollution": 6915,
      "unzul": 6916,
      "professional": 6917,
      "block": 6918,
      "exception": 6919,
      "hinzufugen": 6920,
      "vollstandig": 6921,
      "##bestande": 6922,
      "forestry": 6923,
      "altfahrzeuge": 6924,
      "territorial": 6925,
      "bureaucracy": 6926,
      "horiz": 6927,
      "bietet": 6928,
      "vorsitzenden": 6929,
      "alternative": 6930,
      "diversity": 6931,
      "convinced": 6932,
      "diesbezuglich": 6933,
      "grunen": 6934,
      "botschaft": 6935,
      "mittelaus": 6936,
      "excessive": 6937,
      "exercise": 6938,
      "##gestellten": 6939,
      "degree": 6940,
      "infrastructure": 6941,
      "akteure": 6942,
      "vorangegangenen": 6943,
      "jemand": 6944,
      "anchov": 6945,
      "supranational": 6946,
      "anwesend": 6947,
      "thorough": 6948,
      "consensus": 6949,
      "april": 6950,
      "implications": 6951,
      "23": 6952,
      "45": 6953,
      "aver": 6954,
      "bom": 6955,
      "domin": 6956,
      "hop": 6957,
      "lines": 6958,
      "leinen": 6959,
      "miss": 6960,
      "merg": 6961,
      "none": 6962,
      "pin": 6963,
      "pat": 6964,
      "pill": 6965,
      "phil": 6966,
      "russ": 6967,
      "range": 6968,
      "sv": 6969,
      "wal": 6970,
      "wand": 6971,
      "writ": 6972,
      "zerst": 6973,
      "##uff": 6974,
      "##ties": 6975,
      "##eben": 6976,
      "##sh": 6977,
      "##oon": 6978,
      "##komp": 6979,
      "##kandidaten": 6980,
      "##pet": 6981,
      "##brauch": 6982,
      "##mine": 6983,
      "##erous": 6984,
      "##erves": 6985,
      "##ura": 6986,
      "##urance": 6987,
      "##ichert": 6988,
      "##ars": 6989,
      "##asse": 6990,
      "##ingesch": 6991,
      "reaction": 6992,
      "einm": 6993,
      "##elassen": 6994,
      "unf": 6995,
      "island": 6996,
      "zugrunde": 6997,
      "annehmen": 6998,
      "wirken": 6999,
      "wege": 7000,
      "##ischung": 7001,
      "erfahren": 7002,
      "price": 7003,
      "##ande": 7004,
      "enh": 7005,
      "##osoph": 7006,
      "paralle": 7007,
      "auft": 7008,
      "auftrag": 7009,
      "vorstellen": 7010,
      "vorliegt": 7011,
      "neun": 7012,
      "section": 7013,
      "##spe": 7014,
      "schlagen": 7015,
      "aband": 7016,
      "abgesehen": 7017,
      "##ival": 7018,
      "##bew": 7019,
      "sieht": 7020,
      "entstehen": 7021,
      "europeans": 7022,
      "##endes": 7023,
      "##ehe": 7024,
      "spater": 7025,
      "##aumen": 7026,
      "##advant": 7027,
      "##under": 7028,
      "wasser": 7029,
      "steig": 7030,
      "counter": 7031,
      "betrachten": 7032,
      "##ranken": 7033,
      "worst": 7034,
      "disziplin": 7035,
      "disadvant": 7036,
      "appoint": 7037,
      "durchzufuhren": 7038,
      "politic": 7039,
      "politischer": 7040,
      "prem": 7041,
      "prefer": 7042,
      "##ikation": 7043,
      "##merken": 7044,
      "hierzu": 7045,
      "gegensatz": 7046,
      "gegenseit": 7047,
      "issued": 7048,
      "perman": 7049,
      "subsequ": 7050,
      "erwag": 7051,
      "wohn": 7052,
      "gebeten": 7053,
      "feed": 7054,
      "minorities": 7055,
      "insel": 7056,
      "serve": 7057,
      "says": 7058,
      "unterstreichen": 7059,
      "##ired": 7060,
      "außern": 7061,
      "##vors": 7062,
      "explo": 7063,
      "explicit": 7064,
      "einger": 7065,
      "##steuer": 7066,
      "gemeinsamer": 7067,
      "##alisiert": 7068,
      "wirklichkeit": 7069,
      "boost": 7070,
      "tatig": 7071,
      "interregion": 7072,
      "##etenz": 7073,
      "halb": 7074,
      "wants": 7075,
      "strategies": 7076,
      "dram": 7077,
      "speculation": 7078,
      "resolved": 7079,
      "foder": 7080,
      "wichtiges": 7081,
      "attack": 7082,
      "notwendige": 7083,
      "##jected": 7084,
      "debatt": 7085,
      "gestaltet": 7086,
      "valid": 7087,
      "secure": 7088,
      "irre": 7089,
      "qualified": 7090,
      "smes": 7091,
      "elimin": 7092,
      "entschließungsentwurf": 7093,
      "##moglich": 7094,
      "kurzfrist": 7095,
      "instrumente": 7096,
      "signal": 7097,
      "besseren": 7098,
      "reduz": 7099,
      "closely": 7100,
      "zustandigkeiten": 7101,
      "depth": 7102,
      "judges": 7103,
      "vorgehen": 7104,
      "grateful": 7105,
      "schwerpunkt": 7106,
      "speaker": 7107,
      "paying": 7108,
      "understanding": 7109,
      "starting": 7110,
      "offenheit": 7111,
      "wesentliche": 7112,
      "allgemeine": 7113,
      "##ausschusses": 7114,
      "built": 7115,
      "retro": 7116,
      "protocol": 7117,
      "anstatt": 7118,
      "belong": 7119,
      "fehler": 7120,
      "modernisation": 7121,
      "vorgeschlagene": 7122,
      "kunftigen": 7123,
      "vorgesehenen": 7124,
      "bevolkerungs": 7125,
      "vorliegende": 7126,
      "##grenzen": 7127,
      "expectations": 7128,
      "devisen": 7129,
      "drawing": 7130,
      "surely": 7131,
      "sensible": 7132,
      "fortschritt": 7133,
      "genuine": 7134,
      "##bourg": 7135,
      "failure": 7136,
      "##behorden": 7137,
      "verpflichtung": 7138,
      "welcher": 7139,
      "radik": 7140,
      "##jahres": 7141,
      "details": 7142,
      "gefunden": 7143,
      "declared": 7144,
      "stahlindustrie": 7145,
      "easier": 7146,
      "verbindung": 7147,
      "gesprache": 7148,
      "check": 7149,
      "bestatigt": 7150,
      "bedauern": 7151,
      "rechnungs": 7152,
      "grenzuberschreitenden": 7153,
      "drogen": 7154,
      "beantragt": 7155,
      "mittl": 7156,
      "##gebiete": 7157,
      "mandate": 7158,
      "inspection": 7159,
      "grundlegende": 7160,
      "sozialdemokratischen": 7161,
      "juni": 7162,
      "geographical": 7163,
      "speziellen": 7164,
      "occasions": 7165,
      "uneingesch": 7166,
      "verursacher": 7167,
      "timet": 7168,
      "beamten": 7169,
      "sturme": 7170,
      "shared": 7171,
      "##organisationen": 7172,
      "target": 7173,
      "einwanderung": 7174,
      "original": 7175,
      "tackle": 7176,
      "constant": 7177,
      "mechanisms": 7178,
      "befugnisse": 7179,
      "nennen": 7180,
      "recovery": 7181,
      "chairman": 7182,
      "gegebenenfalls": 7183,
      "palestinian": 7184,
      "fifth": 7185,
      "##nitt": 7186,
      "vorhanden": 7187,
      "konstrukt": 7188,
      "manchmal": 7189,
      "vorredner": 7190,
      "##verwaltung": 7191,
      "##spartner": 7192,
      "entreprene": 7193,
      "##bekampfung": 7194,
      "entitled": 7195,
      "candidate": 7196,
      "##belebung": 7197,
      "obstac": 7198,
      "expenditure": 7199,
      "africa": 7200,
      "restruct": 7201,
      "mittelausstattung": 7202,
      "philosoph": 7203,
      "uneingeschran": 7204,
      "31": 7205,
      "34": 7206,
      "33": 7207,
      "82": 7208,
      "bind": 7209,
      "bolk": 7210,
      "cle": 7211,
      "du": 7212,
      "ed": 7213,
      "fle": 7214,
      "ging": 7215,
      "jap": 7216,
      "mach": 7217,
      "nation": 7218,
      "niel": 7219,
      "niveau": 7220,
      "pf": 7221,
      "swo": 7222,
      "tor": 7223,
      "vir": 7224,
      "vision": 7225,
      "widen": 7226,
      "zer": 7227,
      "zehn": 7228,
      "##avour": 7229,
      "##uben": 7230,
      "##fft": 7231,
      "##sehen": 7232,
      "##lore": 7233,
      "##lik": 7234,
      "##oin": 7235,
      "##ound": 7236,
      "##ding": 7237,
      "##pre": 7238,
      "##bon": 7239,
      "##ernen": 7240,
      "##chsel": 7241,
      "thous": 7242,
      "##inter": 7243,
      "##athol": 7244,
      "##itra": 7245,
      "##ison": 7246,
      "##orgt": 7247,
      "##orous": 7248,
      "##arch": 7249,
      "##stim": 7250,
      "beide": 7251,
      "behrend": 7252,
      "beiget": 7253,
      "##oming": 7254,
      "rejected": 7255,
      "einf": 7256,
      "einw": 7257,
      "einerseits": 7258,
      "##ract": 7259,
      "unw": 7260,
      "uncertain": 7261,
      "zuges": 7262,
      "##oler": 7263,
      "anze": 7264,
      "angest": 7265,
      "stunden": 7266,
      "stunde": 7267,
      "whate": 7268,
      "##hrt": 7269,
      "##bericht": 7270,
      "##ille": 7271,
      "##ereien": 7272,
      "ones": 7273,
      "##ierter": 7274,
      "gezeigt": 7275,
      "mitteilen": 7276,
      "notification": 7277,
      "ausgest": 7278,
      "ausgaben": 7279,
      "auswirken": 7280,
      "schlage": 7281,
      "schlagt": 7282,
      "exter": 7283,
      "##behalten": 7284,
      "##ungsverfahren": 7285,
      "##sence": 7286,
      "fran": 7287,
      "resum": 7288,
      "##sebene": 7289,
      "nachmittag": 7290,
      "##auso": 7291,
      "##ables": 7292,
      "##abkommen": 7293,
      "besitz": 7294,
      "##kennt": 7295,
      "##agne": 7296,
      "worse": 7297,
      "##oto": 7298,
      "comply": 7299,
      "compla": 7300,
      "goals": 7301,
      "quote": 7302,
      "ratifiz": 7303,
      "genauso": 7304,
      "speed": 7305,
      "hinweis": 7306,
      "hinweg": 7307,
      "justified": 7308,
      "rechtsprech": 7309,
      "incident": 7310,
      "##staats": 7311,
      "stren": 7312,
      "##tsein": 7313,
      "##lined": 7314,
      "poetter": 7315,
      "intentions": 7316,
      "intoler": 7317,
      "debated": 7318,
      "becomes": 7319,
      "decis": 7320,
      "##periode": 7321,
      "accomp": 7322,
      "accounts": 7323,
      "evans": 7324,
      "gerichtet": 7325,
      "jahrtaus": 7326,
      "##aufgaben": 7327,
      "minute": 7328,
      "sicherzustellen": 7329,
      "series": 7330,
      "bereitschaft": 7331,
      "##pected": 7332,
      "actual": 7333,
      "##hlen": 7334,
      "##vorschlag": 7335,
      "provides": 7336,
      "finanziert": 7337,
      "wiederver": 7338,
      "wiederbelebung": 7339,
      "politically": 7340,
      "scra": 7341,
      "informieren": 7342,
      "yourself": 7343,
      "name": 7344,
      "festhalten": 7345,
      "roth": 7346,
      "reding": 7347,
      "##actory": 7348,
      "loy": 7349,
      "gelingen": 7350,
      "abgele": 7351,
      "bound": 7352,
      "##mittelt": 7353,
      "forderfah": 7354,
      "sinc": 7355,
      "##worfen": 7356,
      "etc": 7357,
      "citizen": 7358,
      "straft": 7359,
      "prevention": 7360,
      "afr": 7361,
      "aftern": 7362,
      "bringt": 7363,
      "##gleichheit": 7364,
      "strukturen": 7365,
      "bestimmter": 7366,
      "ministerrat": 7367,
      "starksten": 7368,
      "kollegin": 7369,
      "freedoms": 7370,
      "steuerzahl": 7371,
      "operational": 7372,
      "befaßt": 7373,
      "papier": 7374,
      "capable": 7375,
      "restor": 7376,
      "smaller": 7377,
      "vorgelegten": 7378,
      "simpl": 7379,
      "planung": 7380,
      "distort": 7381,
      "innere": 7382,
      "inneren": 7383,
      "opening": 7384,
      "verlangt": 7385,
      "haushaltslinie": 7386,
      "shows": 7387,
      "retain": 7388,
      "bezieht": 7389,
      "feeling": 7390,
      "preventing": 7391,
      "gedacht": 7392,
      "##zielle": 7393,
      "dimitra": 7394,
      "calls": 7395,
      "##tragung": 7396,
      "binnenmarkts": 7397,
      "unabhangig": 7398,
      "funktioniert": 7399,
      "wunsche": 7400,
      "option": 7401,
      "fourth": 7402,
      "ambition": 7403,
      "participate": 7404,
      "erwahn": 7405,
      "aufgefordert": 7406,
      "phare": 7407,
      "greens": 7408,
      "fischler": 7409,
      "##laufig": 7410,
      "happened": 7411,
      "wirksame": 7412,
      "obligation": 7413,
      "obligations": 7414,
      "sagten": 7415,
      "encouraging": 7416,
      "families": 7417,
      "familiar": 7418,
      "karas": 7419,
      "kartell": 7420,
      "extending": 7421,
      "contract": 7422,
      "postp": 7423,
      "undertaking": 7424,
      "undertaken": 7425,
      "##nehmern": 7426,
      "##nehmbar": 7427,
      "##boda": 7428,
      "higher": 7429,
      "tanker": 7430,
      "verdient": 7431,
      "clarity": 7432,
      "nachhaltigen": 7433,
      "tradition": 7434,
      "sicherheitsber": 7435,
      "diskriminierungen": 7436,
      "unterbreit": 7437,
      "unterbreiten": 7438,
      "checks": 7439,
      "inequal": 7440,
      "spanish": 7441,
      "ordnung": 7442,
      "erneuerbarer": 7443,
      "##gerecht": 7444,
      "nachdrucklich": 7445,
      "incorporated": 7446,
      "june": 7447,
      "uniform": 7448,
      "wiederaufbau": 7449,
      "okologischen": 7450,
      "betreffenden": 7451,
      "beitrittskandidaten": 7452,
      "untersuchung": 7453,
      "##while": 7454,
      "sachverstandiger": 7455,
      "keinerlei": 7456,
      "meeres": 7457,
      "interventions": 7458,
      "distributed": 7459,
      "griechen": 7460,
      "learn": 7461,
      "solcher": 7462,
      "ungluck": 7463,
      "extension": 7464,
      "texts": 7465,
      "evaluation": 7466,
      "##kontroll": 7467,
      "samtliche": 7468,
      "anpassung": 7469,
      "niedrig": 7470,
      "##estein": 7471,
      "explanation": 7472,
      "##transp": 7473,
      "##oulos": 7474,
      "##bald": 7475,
      "friend": 7476,
      "##kopoulos": 7477,
      "perspective": 7478,
      "einklang": 7479,
      "lobby": 7480,
      "education": 7481,
      "dublin": 7482,
      "kyoto": 7483,
      "votes": 7484,
      "glaubwurdigkeit": 7485,
      "##viertel": 7486,
      "gewisser": 7487,
      "climate": 7488,
      "luxem": 7489,
      "sardellen": 7490,
      "##beauftragten": 7491,
      "dismant": 7492,
      "energietrager": 7493,
      "average": 7494,
      "mergers": 7495,
      "permanent": 7496,
      "bolkestein": 7497,
      "japan": 7498,
      "swoboda": 7499,
      "##ointed": 7500,
      "behrendt": 7501,
      "beigetragen": 7502,
      "whatever": 7503,
      "poettering": 7504,
      "dimitrakopoulos": 7505,
      "bse": 7506,
      "bip": 7507,
      "biß": 7508,
      "base": 7509,
      "bret": 7510,
      "eag": 7511,
      "gult": 7512,
      "gap": 7513,
      "kinder": 7514,
      "liss": 7515,
      "om": 7516,
      "path": 7517,
      "sides": 7518,
      "wit": 7519,
      "wann": 7520,
      "written": 7521,
      "zoll": 7522,
      "##netz": 7523,
      "##niveau": 7524,
      "##ete": 7525,
      "##iating": 7526,
      "##hm": 7527,
      "##hib": 7528,
      "##hase": 7529,
      "##oben": 7530,
      "##gung": 7531,
      "##bie": 7532,
      "##bahn": 7533,
      "##mutz": 7534,
      "##wagen": 7535,
      "##ering": 7536,
      "##erved": 7537,
      "##esten": 7538,
      "##atoren": 7539,
      "##iele": 7540,
      "inzw": 7541,
      "##alter": 7542,
      "##rep": 7543,
      "##rebt": 7544,
      "tod": 7545,
      "##ash": 7546,
      "##ller": 7547,
      "rechen": 7548,
      "react": 7549,
      "reichen": 7550,
      "reiter": 7551,
      "##rafte": 7552,
      "unn": 7553,
      "unm": 7554,
      "verh": 7555,
      "##schreiben": 7556,
      "##vey": 7557,
      "stol": 7558,
      "whom": 7559,
      "sobald": 7560,
      "erlau": 7561,
      "erfre": 7562,
      "diesel": 7563,
      "gek": 7564,
      "auftreten": 7565,
      "vorsicht": 7566,
      "vorhin": 7567,
      "ausweis": 7568,
      "ausnahme": 7569,
      "ausbildungs": 7570,
      "regime": 7571,
      "##thand": 7572,
      "seien": 7573,
      "seix": 7574,
      "##spekt": 7575,
      "##spolitiken": 7576,
      "demont": 7577,
      "abstimm": 7578,
      "abbau": 7579,
      "europaisches": 7580,
      "moving": 7581,
      "suchen": 7582,
      "allzu": 7583,
      "umstruktur": 7584,
      "##ump": 7585,
      "uberall": 7586,
      "##ifun": 7587,
      "meps": 7588,
      "presence": 7589,
      "tagen": 7590,
      "oral": 7591,
      "commer": 7592,
      "hours": 7593,
      "##ureich": 7594,
      "##abon": 7595,
      "darge": 7596,
      "##ipt": 7597,
      "##zeprasident": 7598,
      "finde": 7599,
      "wenige": 7600,
      "worry": 7601,
      "##otti": 7602,
      "complement": 7603,
      "qua": 7604,
      "genutzt": 7605,
      "rechtlichen": 7606,
      "proposes": 7607,
      "vertie": 7608,
      "debating": 7609,
      "begonnen": 7610,
      "weitgehend": 7611,
      "##cedent": 7612,
      "underlying": 7613,
      "feas": 7614,
      "wirtschaftlich": 7615,
      "##akzept": 7616,
      "facts": 7617,
      "mogliche": 7618,
      "welchen": 7619,
      "welthand": 7620,
      "markte": 7621,
      "wiederher": 7622,
      "gemeinschaftliche": 7623,
      "##hood": 7624,
      "possibly": 7625,
      "basically": 7626,
      "kommissare": 7627,
      "interregional": 7628,
      "danischen": 7629,
      "bekraft": 7630,
      "schafft": 7631,
      "mittelstand": 7632,
      "geschieht": 7633,
      "angewendet": 7634,
      "anticip": 7635,
      "##acter": 7636,
      "regierungsbildung": 7637,
      "entscheidend": 7638,
      "realitat": 7639,
      "numerous": 7640,
      "respects": 7641,
      "gutes": 7642,
      "##grundlage": 7643,
      "dienste": 7644,
      "folgendes": 7645,
      "turk": 7646,
      "bewaltigen": 7647,
      "politiker": 7648,
      "promised": 7649,
      "enlarged": 7650,
      "verstehe": 7651,
      "erfolgen": 7652,
      "norm": 7653,
      "sets": 7654,
      "umfass": 7655,
      "##zeichen": 7656,
      "befind": 7657,
      "raumes": 7658,
      "##strom": 7659,
      "kurzem": 7660,
      "kurzlich": 7661,
      "restricted": 7662,
      "corresp": 7663,
      "highest": 7664,
      "investments": 7665,
      "reduced": 7666,
      "closer": 7667,
      "vorsitz": 7668,
      "zugelassen": 7669,
      "advoc": 7670,
      "media": 7671,
      "schwierige": 7672,
      "wahler": 7673,
      "character": 7674,
      "ergriffen": 7675,
      "openness": 7676,
      "marktwirtschaft": 7677,
      "referring": 7678,
      "anfragen": 7679,
      "introducing": 7680,
      "##zahlt": 7681,
      "assistants": 7682,
      "bekampfen": 7683,
      "calling": 7684,
      "privat": 7685,
      "beteiligten": 7686,
      "unabhangigkeit": 7687,
      "kennen": 7688,
      "##ehrten": 7689,
      "multifun": 7690,
      "changing": 7691,
      "ubrigens": 7692,
      "entscheidender": 7693,
      "increasingly": 7694,
      "##bereiche": 7695,
      "independence": 7696,
      "erhohen": 7697,
      "jedenfalls": 7698,
      "einzufuhren": 7699,
      "voraussetzungen": 7700,
      "individuals": 7701,
      "vizeprasident": 7702,
      "verhindert": 7703,
      "obliged": 7704,
      "nahe": 7705,
      "bildet": 7706,
      "lautet": 7707,
      "contained": 7708,
      "potent": 7709,
      "erarbeitet": 7710,
      "carrying": 7711,
      "empfehlung": 7712,
      "staatsanwaltschaft": 7713,
      "festgelegten": 7714,
      "##body": 7715,
      "impose": 7716,
      "entirely": 7717,
      "##verbind": 7718,
      "garantie": 7719,
      "bilater": 7720,
      "erkennt": 7721,
      "irgendein": 7722,
      "linked": 7723,
      "inev": 7724,
      "uberzeugung": 7725,
      "erneuerbaren": 7726,
      "concentration": 7727,
      "firmly": 7728,
      "proceedings": 7729,
      "xenophobic": 7730,
      "pursu": 7731,
      "associated": 7732,
      "christian": 7733,
      "christdemokrat": 7734,
      "auditors": 7735,
      "bureaucratic": 7736,
      "constitute": 7737,
      "spekul": 7738,
      "granting": 7739,
      "militar": 7740,
      "verurteilen": 7741,
      "described": 7742,
      "remarks": 7743,
      "##freiheit": 7744,
      "##politischen": 7745,
      "jahrhundert": 7746,
      "convenience": 7747,
      "substantial": 7748,
      "envisaged": 7749,
      "acquis": 7750,
      "ereignisse": 7751,
      "package": 7752,
      "reaktion": 7753,
      "veroffent": 7754,
      "langfristig": 7755,
      "beabsichtigt": 7756,
      "fisher": 7757,
      "gipfel": 7758,
      "fortsetzen": 7759,
      "jetzigen": 7760,
      "lisbon": 7761,
      "gedenkt": 7762,
      "chancengleichheit": 7763,
      "gefahrguttransp": 7764,
      "polizei": 7765,
      "gdp": 7766,
      "ausweitung": 7767,
      "angewandt": 7768,
      "language": 7769,
      "horizont": 7770,
      "anchovy": 7771,
      "parallel": 7772,
      "debattieren": 7773,
      "rechnungshof": 7774,
      "timetable": 7775,
      "einwander": 7776,
      "abgelehnt": 7777,
      "afternoon": 7778,
      "bißchen": 7779,
      "lissabon": 7780,
      "inzwischen": 7781,
      "seixas": 7782,
      "38": 7783,
      "48": 7784,
      "700": 7785,
      "85": 7786,
      "96": 7787,
      "ahern": 7788,
      "cad": 7789,
      "came": 7790,
      "catastrop": 7791,
      "cusi": 7792,
      "dict": 7793,
      "dyn": 7794,
      "fro": 7795,
      "fah": 7796,
      "funkt": 7797,
      "fix": 7798,
      "grat": 7799,
      "kan": 7800,
      "lives": 7801,
      "lama": 7802,
      "mun": 7803,
      "mism": 7804,
      "nine": 7805,
      "nether": 7806,
      "pak": 7807,
      "tem": 7808,
      "tut": 7809,
      "treten": 7810,
      "tragt": 7811,
      "uk": 7812,
      "vast": 7813,
      "wat": 7814,
      "wto": 7815,
      "##affung": 7816,
      "##uv": 7817,
      "##flag": 7818,
      "##ton": 7819,
      "##ris": 7820,
      "##rut": 7821,
      "##riment": 7822,
      "##iber": 7823,
      "##iable": 7824,
      "##sc": 7825,
      "##hort": 7826,
      "##lern": 7827,
      "##lings": 7828,
      "##krit": 7829,
      "##yc": 7830,
      "##zul": 7831,
      "##mo": 7832,
      "##macht": 7833,
      "##67": 7834,
      "##atische": 7835,
      "##ita": 7836,
      "##orte": 7837,
      "##orient": 7838,
      "innen": 7839,
      "inade": 7840,
      "##stoff": 7841,
      "##ente": 7842,
      "bewer": 7843,
      "told": 7844,
      "##tete": 7845,
      "anders": 7846,
      "##igend": 7847,
      "regen": 7848,
      "einfuhren": 7849,
      "##icate": 7850,
      "unit": 7851,
      "##iday": 7852,
      "zufolge": 7853,
      "verhe": 7854,
      "##ulich": 7855,
      "ante": 7856,
      "anzunehmen": 7857,
      "weight": 7858,
      "##tert": 7859,
      "stich": 7860,
      "##using": 7861,
      "forg": 7862,
      "forst": 7863,
      "soeben": 7864,
      "conver": 7865,
      "gewerk": 7866,
      "geandert": 7867,
      "aufzunehmen": 7868,
      "##achtet": 7869,
      "co2": 7870,
      "auseinander": 7871,
      "##theit": 7872,
      "##lager": 7873,
      "werten": 7874,
      "abander": 7875,
      "moura": 7876,
      "##bewertung": 7877,
      "uberaus": 7878,
      "unsicherheit": 7879,
      "konstitution": 7880,
      "##ungszeitraum": 7881,
      "##endet": 7882,
      "internen": 7883,
      "unterzeichnet": 7884,
      "##iens": 7885,
      "##ußtsein": 7886,
      "nachvoll": 7887,
      "geste": 7888,
      "fine": 7889,
      "betreffend": 7890,
      "parlamente": 7891,
      "##ott": 7892,
      "compuls": 7893,
      "liable": 7894,
      "adri": 7895,
      "fakt": 7896,
      "sake": 7897,
      "##iour": 7898,
      "##icks": 7899,
      "indik": 7900,
      "indire": 7901,
      "chin": 7902,
      "child": 7903,
      "##werks": 7904,
      "conclud": 7905,
      "warm": 7906,
      "spezielle": 7907,
      "grundlich": 7908,
      "considers": 7909,
      "##assern": 7910,
      "offiz": 7911,
      "##stellungs": 7912,
      "entweder": 7913,
      "uphold": 7914,
      "begunst": 7915,
      "##ferences": 7916,
      "großem": 7917,
      "großten": 7918,
      "2001": 7919,
      "ursachen": 7920,
      "termin": 7921,
      "richter": 7922,
      "verbrech": 7923,
      "anderungs": 7924,
      "worked": 7925,
      "wirtschaftlicher": 7926,
      "somewh": 7927,
      "##gebaut": 7928,
      "sozialisten": 7929,
      "sozialfonds": 7930,
      "proved": 7931,
      "supports": 7932,
      "berecht": 7933,
      "behav": 7934,
      "##steuropa": 7935,
      "considerations": 7936,
      "ports": 7937,
      "remo": 7938,
      "##ungsantrage": 7939,
      "##feil": 7940,
      "##proje": 7941,
      "bedurf": 7942,
      "selbstand": 7943,
      "wollte": 7944,
      "ziels": 7945,
      "##reize": 7946,
      "drast": 7947,
      "verantwortungs": 7948,
      "verantwortlichen": 7949,
      "beitrage": 7950,
      "demokratisch": 7951,
      "examples": 7952,
      "valent": 7953,
      "detriment": 7954,
      "starkere": 7955,
      "qualifiz": 7956,
      "freiwill": 7957,
      "procedural": 7958,
      "precise": 7959,
      "operate": 7960,
      "regierungsche": 7961,
      "##zwungen": 7962,
      "allowing": 7963,
      "allowed": 7964,
      "advant": 7965,
      "medien": 7966,
      "definitely": 7967,
      "wahlperiode": 7968,
      "008": 7969,
      "centres": 7970,
      "offenbar": 7971,
      "##leistung": 7972,
      "erganz": 7973,
      "marktes": 7974,
      "##fachung": 7975,
      "verlang": 7976,
      "##gehende": 7977,
      "stattfinden": 7978,
      "akzeptabel": 7979,
      "gesetze": 7980,
      "wissenschaftler": 7981,
      "158": 7982,
      "privile": 7983,
      "hochst": 7984,
      "reaching": 7985,
      "stadtviertel": 7986,
      "unabhangigen": 7987,
      "earth": 7988,
      "multip": 7989,
      "changed": 7990,
      "aspekten": 7991,
      "bemuhen": 7992,
      "erscheinen": 7993,
      "metho": 7994,
      "britischen": 7995,
      "zentrale": 7996,
      "gremium": 7997,
      "##front": 7998,
      "harmonisierung": 7999,
      "mannern": 8000,
      "erwartet": 8001,
      "gemeinschaftsinitiativen": 8002,
      "emb": 8003,
      "eventu": 8004,
      "opposition": 8005,
      "opposite": 8006,
      "hintergrund": 8007,
      "praktisch": 8008,
      "karl": 8009,
      "vereinbarungen": 8010,
      "adoption": 8011,
      "franzosische": 8012,
      "undertake": 8013,
      "strengthened": 8014,
      "repeated": 8015,
      "products": 8016,
      "mutual": 8017,
      "argumente": 8018,
      "tankers": 8019,
      "betrugs": 8020,
      "betrugereien": 8021,
      "exclusively": 8022,
      "belgium": 8023,
      "amerikan": 8024,
      "partnerships": 8025,
      "clarify": 8026,
      "roma": 8027,
      "vermittlung": 8028,
      "bedauer": 8029,
      "vernunftig": 8030,
      "vernunftige": 8031,
      "anzuwenden": 8032,
      "konserv": 8033,
      "italienischen": 8034,
      "satisfaction": 8035,
      "erzielt": 8036,
      "angebracht": 8037,
      "sitzungsperiode": 8038,
      "ernsthaft": 8039,
      "unzureich": 8040,
      "professor": 8041,
      "finnish": 8042,
      "gerne": 8043,
      "running": 8044,
      "univers": 8045,
      "isolation": 8046,
      "gesundheits": 8047,
      "einschrank": 8048,
      "protecting": 8049,
      "parlamentarischen": 8050,
      "genehmigung": 8051,
      "sachverstandigen": 8052,
      "ahnlich": 8053,
      "enforcement": 8054,
      "disappear": 8055,
      "observations": 8056,
      "bieten": 8057,
      "reichtum": 8058,
      "appears": 8059,
      "vermittlungsausschuß": 8060,
      "figure": 8061,
      "figures": 8062,
      "betriebs": 8063,
      "endgultigen": 8064,
      "benotigen": 8065,
      "umstanden": 8066,
      "accidents": 8067,
      "##katastrophen": 8068,
      "decentralised": 8069,
      "##hafte": 8070,
      "sogenannten": 8071,
      "exemption": 8072,
      "determination": 8073,
      "acknowled": 8074,
      "kurze": 8075,
      "towns": 8076,
      "verbreitung": 8077,
      "reagieren": 8078,
      "haftung": 8079,
      "nachzudenken": 8080,
      "directorate": 8081,
      "hitler": 8082,
      "appeal": 8083,
      "##vereinbar": 8084,
      "kopf": 8085,
      "heavy": 8086,
      "disagre": 8087,
      "ultimately": 8088,
      "klima": 8089,
      "couple": 8090,
      "landwirte": 8091,
      "zwangslaufig": 8092,
      "pinoch": 8093,
      "obstacles": 8094,
      "restructuring": 8095,
      "nielson": 8096,
      "thousands": 8097,
      "accompan": 8098,
      "steuerzahler": 8099,
      "commercial": 8100,
      "umfassend": 8101,
      "dynam": 8102,
      "funktions": 8103,
      "netherlands": 8104,
      "waters": 8105,
      "compulsory": 8106,
      "somewhat": 8107,
      "behaviour": 8108,
      "400": 8109,
      "90": 8110,
      "dala": 8111,
      "fus": 8112,
      "fil": 8113,
      "fach": 8114,
      "gl": 8115,
      "hur": 8116,
      "jul": 8117,
      "july": 8118,
      "match": 8119,
      "nahr": 8120,
      "pact": 8121,
      "sal": 8122,
      "slick": 8123,
      "trifft": 8124,
      "via": 8125,
      "zone": 8126,
      "##nel": 8127,
      "##uens": 8128,
      "##fang": 8129,
      "##cas": 8130,
      "##rate": 8131,
      "##ef": 8132,
      "##ean": 8133,
      "##ior": 8134,
      "##ike": 8135,
      "##iary": 8136,
      "##sman": 8137,
      "##saktionen": 8138,
      "##hem": 8139,
      "##kre": 8140,
      "##kult": 8141,
      "##griffen": 8142,
      "##dauer": 8143,
      "##pest": 8144,
      "##pflicht": 8145,
      "##bank": 8146,
      "##bart": 8147,
      "##bruch": 8148,
      "##jud": 8149,
      "##itten": 8150,
      "##itative": 8151,
      "##itably": 8152,
      "##isite": 8153,
      "##urfen": 8154,
      "##unruh": 8155,
      "##reck": 8156,
      "##reib": 8157,
      "beur": 8158,
      "beacht": 8159,
      "beunruh": 8160,
      "##temp": 8161,
      "##ingu": 8162,
      "reass": 8163,
      "eint": 8164,
      "##raucht": 8165,
      "##utung": 8166,
      "unklar": 8167,
      "islands": 8168,
      "zukommen": 8169,
      "zulass": 8170,
      "zuletz": 8171,
      "verweig": 8172,
      "anhang": 8173,
      "anhalten": 8174,
      "anhand": 8175,
      "ansprechen": 8176,
      "anreize": 8177,
      "##gegeben": 8178,
      "##geordnete": 8179,
      "proof": 8180,
      "##lichem": 8181,
      "formen": 8182,
      "##beruf": 8183,
      "##issions": 8184,
      "noted": 8185,
      "##derung": 8186,
      "##dergrund": 8187,
      "sofern": 8188,
      "ernen": 8189,
      "erweisen": 8190,
      "erteilen": 8191,
      "##osp": 8192,
      "gefall": 8193,
      "vorzunehmen": 8194,
      "vordergrund": 8195,
      "nichtreg": 8196,
      "##ktiv": 8197,
      "ausmaß": 8198,
      "ausgel": 8199,
      "auslaufen": 8200,
      "##spunkt": 8201,
      "##sphase": 8202,
      "schuld": 8203,
      "demag": 8204,
      "leiden": 8205,
      "exists": 8206,
      "expected": 8207,
      "##ahme": 8208,
      "abstimmen": 8209,
      "abgestimmt": 8210,
      "modell": 8211,
      "##beben": 8212,
      "##beweg": 8213,
      "uberlegen": 8214,
      "shift": 8215,
      "##ungsaustausch": 8216,
      "##endung": 8217,
      "interf": 8218,
      "interim": 8219,
      "beraten": 8220,
      "tage": 8221,
      "spur": 8222,
      "spend": 8223,
      "##aufen": 8224,
      "hoher": 8225,
      "resign": 8226,
      "unterlagen": 8227,
      "##gested": 8228,
      "##gesellschaften": 8229,
      "stell": 8230,
      "betrieben": 8231,
      "##enswert": 8232,
      "##herent": 8233,
      "##ques": 8234,
      "##agand": 8235,
      "beihilfe": 8236,
      "compar": 8237,
      "seines": 8238,
      "##ptions": 8239,
      "##abled": 8240,
      "chap": 8241,
      "concluded": 8242,
      "##standing": 8243,
      "durchsch": 8244,
      "durchsetzung": 8245,
      "genere": 8246,
      "genannt": 8247,
      "##apital": 8248,
      "freien": 8249,
      "frequ": 8250,
      "whatso": 8251,
      "incent": 8252,
      "income": 8253,
      "incomp": 8254,
      "##linary": 8255,
      "##uche": 8256,
      "##assungs": 8257,
      "entschuld": 8258,
      "entschad": 8259,
      "mehreren": 8260,
      "##woch": 8261,
      "becoming": 8262,
      "hierfur": 8263,
      "großes": 8264,
      "zusammenh": 8265,
      "zusammenhalts": 8266,
      "firms": 8267,
      "perspekt": 8268,
      "entwicklungen": 8269,
      "urteil": 8270,
      "evident": 8271,
      "evidence": 8272,
      "gewun": 8273,
      "gewinn": 8274,
      "verbot": 8275,
      "gebill": 8276,
      "minuten": 8277,
      "sicherstellen": 8278,
      "insurance": 8279,
      "competences": 8280,
      "acting": 8281,
      "traff": 8282,
      "marked": 8283,
      "expert": 8284,
      "zeitplan": 8285,
      "wiederum": 8286,
      "seeing": 8287,
      "staates": 8288,
      "relate": 8289,
      "relatively": 8290,
      "feststellung": 8291,
      "festzulegen": 8292,
      "room": 8293,
      "##active": 8294,
      "remit": 8295,
      "lieber": 8296,
      "abgegeben": 8297,
      "mittelpunkt": 8298,
      "millions": 8299,
      "angeht": 8300,
      "legislativen": 8301,
      "ablehnung": 8302,
      "##legte": 8303,
      "formation": 8304,
      "##arenz": 8305,
      "##reift": 8306,
      "energies": 8307,
      "verschw": 8308,
      "##handeln": 8309,
      "##handlungen": 8310,
      "owners": 8311,
      "schwachen": 8312,
      "klarheit": 8313,
      "versicher": 8314,
      "teilweise": 8315,
      "erweitert": 8316,
      "zahlt": 8317,
      "##selbe": 8318,
      "cooperate": 8319,
      "verwenden": 8320,
      "gestarkt": 8321,
      "ziem": 8322,
      "turning": 8323,
      "zusammenarbeiten": 8324,
      "##zieht": 8325,
      "located": 8326,
      "countryside": 8327,
      "represents": 8328,
      "guidance": 8329,
      "requirement": 8330,
      "contributed": 8331,
      "volkes": 8332,
      "collective": 8333,
      "niemals": 8334,
      "eingeleitet": 8335,
      "advance": 8336,
      "aktive": 8337,
      "interessiert": 8338,
      "essentially": 8339,
      "subsidies": 8340,
      "rufen": 8341,
      "wesentlicher": 8342,
      "##orgungs": 8343,
      "dankbar": 8344,
      "erinnerung": 8345,
      "engag": 8346,
      "stattf": 8347,
      "##berecht": 8348,
      "endeavour": 8349,
      "lacking": 8350,
      "privaten": 8351,
      "zweifels": 8352,
      "benef": 8353,
      "leading": 8354,
      "previously": 8355,
      "truth": 8356,
      "infring": 8357,
      "##wegs": 8358,
      "monitored": 8359,
      "kritischen": 8360,
      "vertretern": 8361,
      "bisherigen": 8362,
      "folgende": 8363,
      "phys": 8364,
      "##grenze": 8365,
      "erhoht": 8366,
      "stressed": 8367,
      "randz": 8368,
      "harmonisation": 8369,
      "identitat": 8370,
      "presse": 8371,
      "dritten": 8372,
      "suggested": 8373,
      "armsten": 8374,
      "praktiken": 8375,
      "break": 8376,
      "##fertigt": 8377,
      "erarbeiten": 8378,
      "substance": 8379,
      "constructive": 8380,
      "extended": 8381,
      "staatsangehor": 8382,
      "enthaltenen": 8383,
      "verteidigung": 8384,
      "legitimate": 8385,
      "vorsorgeprinzips": 8386,
      "paar": 8387,
      "demonstration": 8388,
      "verabschieden": 8389,
      "umfassenden": 8390,
      "garantien": 8391,
      "garantieren": 8392,
      "visible": 8393,
      "effektive": 8394,
      "bedauere": 8395,
      "irgendw": 8396,
      "supply": 8397,
      "flags": 8398,
      "korre": 8399,
      "immediate": 8400,
      "geleiste": 8401,
      "##vertreter": 8402,
      "minderheit": 8403,
      "sozialdemokraten": 8404,
      "incorporate": 8405,
      "slow": 8406,
      "slight": 8407,
      "confirmed": 8408,
      "verbundenen": 8409,
      "subsidiaritatsprinzip": 8410,
      "untersuchungen": 8411,
      "elsewhere": 8412,
      "jenen": 8413,
      "tarif": 8414,
      "berufs": 8415,
      "unanimously": 8416,
      "wachsam": 8417,
      "kontinent": 8418,
      "stocks": 8419,
      "respektieren": 8420,
      "wahrungsunion": 8421,
      "distribution": 8422,
      "##spolitischen": 8423,
      "waiting": 8424,
      "spezifischen": 8425,
      "emergency": 8426,
      "weakness": 8427,
      "deadline": 8428,
      "massive": 8429,
      "unmittelbar": 8430,
      "disciplinary": 8431,
      "interinstitution": 8432,
      "appreciate": 8433,
      "hindernisse": 8434,
      "hervorgehoben": 8435,
      "bevorstehenden": 8436,
      "propagand": 8437,
      "quota": 8438,
      "northern": 8439,
      "alliance": 8440,
      "likely": 8441,
      "welcomed": 8442,
      "departments": 8443,
      "dissem": 8444,
      "erdbeben": 8445,
      "confidential": 8446,
      "selection": 8447,
      "abandoned": 8448,
      "virt": 8449,
      "decisive": 8450,
      "afrika": 8451,
      "witness": 8452,
      "rechenschaft": 8453,
      "stolz": 8454,
      "correspond": 8455,
      "mismanagement": 8456,
      "##kriterien": 8457,
      "verbrechens": 8458,
      "einschrankung": 8459,
      "pinochet": 8460,
      "dalai": 8461,
      "juli": 8462,
      "zuletzt": 8463,
      "nichtregierungs": 8464,
      "whatsoever": 8465,
      "29": 8466,
      "42": 8467,
      "500": 8468,
      "86": 8469,
      "95": 8470,
      "agen": 8471,
      "agency": 8472,
      "bb": 8473,
      "bour": 8474,
      "c4": 8475,
      "cam": 8476,
      "col": 8477,
      "cust": 8478,
      "cert": 8479,
      "dingen": 8480,
      "ey": 8481,
      "ech": 8482,
      "echte": 8483,
      "fit": 8484,
      "felt": 8485,
      "gig": 8486,
      "getting": 8487,
      "ham": 8488,
      "jac": 8489,
      "kunst": 8490,
      "lose": 8491,
      "lesen": 8492,
      "mu": 8493,
      "pad": 8494,
      "rot": 8495,
      "went": 8496,
      "wed": 8497,
      "ziff": 8498,
      "##aure": 8499,
      "##nungen": 8500,
      "##nore": 8501,
      "##ript": 8502,
      "##sider": 8503,
      "##hme": 8504,
      "##ground": 8505,
      "##dring": 8506,
      "##dienst": 8507,
      "##pus": 8508,
      "##pot": 8509,
      "##bit": 8510,
      "##miss": 8511,
      "##wesen": 8512,
      "##joy": 8513,
      "##ermaßen": 8514,
      "##iny": 8515,
      "##inational": 8516,
      "##ather": 8517,
      "##itel": 8518,
      "##isms": 8519,
      "##oral": 8520,
      "##orse": 8521,
      "insec": 8522,
      "inkraft": 8523,
      "inakzept": 8524,
      "##ana": 8525,
      "beweg": 8526,
      "beweist": 8527,
      "##leun": 8528,
      "derer": 8529,
      "##lling": 8530,
      "##igu": 8531,
      "einwohner": 8532,
      "##rad": 8533,
      "##rain": 8534,
      "unne": 8535,
      "##ette": 8536,
      "zuvor": 8537,
      "verank": 8538,
      "anx": 8539,
      "anhor": 8540,
      "angaben": 8541,
      "anschließen": 8542,
      "##gef": 8543,
      "##geordn": 8544,
      "stream": 8545,
      "whil": 8546,
      "prove": 8547,
      "proud": 8548,
      "forum": 8549,
      "davor": 8550,
      "##ilater": 8551,
      "denjenigen": 8552,
      "##ischem": 8553,
      "erle": 8554,
      "erleben": 8555,
      "alte": 8556,
      "imag": 8557,
      "enjoy": 8558,
      "gehalten": 8559,
      "gefahren": 8560,
      "gefallen": 8561,
      "dasselbe": 8562,
      "##imer": 8563,
      "death": 8564,
      "vorstellung": 8565,
      "voraussch": 8566,
      "esf": 8567,
      "nehme": 8568,
      "notig": 8569,
      "ausgeschlossen": 8570,
      "mad": 8571,
      "maast": 8572,
      "sek": 8573,
      "seven": 8574,
      "##spru": 8575,
      "schreiben": 8576,
      "lehren": 8577,
      "abol": 8578,
      "##ivitat": 8579,
      "herzustellen": 8580,
      "moder": 8581,
      "willens": 8582,
      "##behand": 8583,
      "##befug": 8584,
      "entry": 8585,
      "entsteht": 8586,
      "##lieben": 8587,
      "uberlassen": 8588,
      "fragest": 8589,
      "konne": 8590,
      "##ifest": 8591,
      "interne": 8592,
      "taus": 8593,
      "tacis": 8594,
      "sprachen": 8595,
      "atlant": 8596,
      "fried": 8597,
      "##auen": 8598,
      "resident": 8599,
      "##abling": 8600,
      "##ordan": 8601,
      "steu": 8602,
      "manage": 8603,
      "manifest": 8604,
      "##ranten": 8605,
      "disabled": 8606,
      "quoten": 8607,
      "faith": 8608,
      "failed": 8609,
      "obgleich": 8610,
      "durchge": 8611,
      "politisches": 8612,
      "arbeitnehmern": 8613,
      "offers": 8614,
      "##fuhrungs": 8615,
      "##licken": 8616,
      "hierbei": 8617,
      "gegenstand": 8618,
      "perpet": 8619,
      "subvention": 8620,
      "##schlagen": 8621,
      "##arbeits": 8622,
      "endorse": 8623,
      "beschl": 8624,
      "beschleun": 8625,
      "jahrlich": 8626,
      "richten": 8627,
      "reformpro": 8628,
      "gebu": 8629,
      "##ißen": 8630,
      "plath": 8631,
      "kost": 8632,
      "anderes": 8633,
      "sozio": 8634,
      "moglichen": 8635,
      "##gebracht": 8636,
      "finanzmittel": 8637,
      "stands": 8638,
      "governmental": 8639,
      "##setzungs": 8640,
      "##getragen": 8641,
      "ausschussen": 8642,
      "relativ": 8643,
      "scrut": 8644,
      "considering": 8645,
      "entwicklungspartner": 8646,
      "gleichstellungs": 8647,
      "gelingt": 8648,
      "abgeben": 8649,
      "believes": 8650,
      "einzur": 8651,
      "einzusetzen": 8652,
      "marin": 8653,
      "leaving": 8654,
      "angewiesen": 8655,
      "bedienst": 8656,
      "bedaure": 8657,
      "persu": 8658,
      "persons": 8659,
      "strategien": 8660,
      "strategische": 8661,
      "weiteres": 8662,
      "forming": 8663,
      "##finanz": 8664,
      "verschle": 8665,
      "bedeutsam": 8666,
      "beschaftigt": 8667,
      "ideen": 8668,
      "##lauft": 8669,
      "##parte": 8670,
      "autor": 8671,
      "regulate": 8672,
      "transit": 8673,
      "opinions": 8674,
      "debates": 8675,
      "achievement": 8676,
      "arbeitsweise": 8677,
      "flug": 8678,
      "ausgehend": 8679,
      "risiken": 8680,
      "deutliche": 8681,
      "negativen": 8682,
      "wettbewerbsrecht": 8683,
      "bestimmt": 8684,
      "represented": 8685,
      "##sprozesses": 8686,
      "offentlich": 8687,
      "looked": 8688,
      "##going": 8689,
      "berichterstatters": 8690,
      "democratically": 8691,
      "favoured": 8692,
      "borne": 8693,
      "verstarkt": 8694,
      "erfolgt": 8695,
      "gefahrlich": 8696,
      "contributing": 8697,
      "umfaßt": 8698,
      "umfeld": 8699,
      "followed": 8700,
      "baron": 8701,
      "periodic": 8702,
      "corru": 8703,
      "corpus": 8704,
      "deplore": 8705,
      "repla": 8706,
      "##fahig": 8707,
      "vorgehens": 8708,
      "##ulationen": 8709,
      "schließen": 8710,
      "amsterdamer": 8711,
      "hilfs": 8712,
      "practices": 8713,
      "geregelt": 8714,
      "##bedarf": 8715,
      "manufacturing": 8716,
      "ignore": 8717,
      "aimed": 8718,
      "peaceful": 8719,
      "001": 8720,
      "007": 8721,
      "002": 8722,
      "offences": 8723,
      "ergibt": 8724,
      "erganzen": 8725,
      "hervorragen": 8726,
      "successfully": 8727,
      "referend": 8728,
      "verlust": 8729,
      "engl": 8730,
      "english": 8731,
      "rucknahme": 8732,
      "verschiedene": 8733,
      "excuse": 8734,
      "anstehen": 8735,
      "grundsatzen": 8736,
      "grundsatzlich": 8737,
      "##zustimmen": 8738,
      "schiffen": 8739,
      "started": 8740,
      "multinational": 8741,
      "trust": 8742,
      "aspir": 8743,
      "##zusammen": 8744,
      "drafting": 8745,
      "1967": 8746,
      "##markten": 8747,
      "anerkannt": 8748,
      "verstanden": 8749,
      "graca": 8750,
      "careful": 8751,
      "##ifizierungs": 8752,
      "identify": 8753,
      "einheitlichen": 8754,
      "benefits": 8755,
      "merit": 8756,
      "##langes": 8757,
      "angenommenen": 8758,
      "surround": 8759,
      "strafverfol": 8760,
      "stake": 8761,
      "prinzipien": 8762,
      "define": 8763,
      "sheik": 8764,
      "fighting": 8765,
      "kernkraft": 8766,
      "mißbrauch": 8767,
      "212": 8768,
      "exchang": 8769,
      "posting": 8770,
      "reconcil": 8771,
[...]
