[PAD]
[UNK]
[CLS]
[SEP]
[MASK]
!
"
%
'
(
)
+
,
-
.
/
0
1
2
3
4
5
6
7
8
9
:
;
?
[
]
a
b
c
d
e
f
g
h
i
j
k
l
m
n
o
p
q
r
s
t
u
v
w
x
y
z
£
º
¾
ß
ø
##a
##n
##u
##f
##c
##t
##r
##e
##i
##s
##h
##l
##o
##k
##g
##d
##v
##p
##y
##x
##z
##b
##m
##w
##j
##ß
##1
##9
##4
##5
##q
##7
##6
##8
##0
##º
##2
##3
##¾
##ø
##en
##er
##ch
th
##in
##on
##es
##nd
##at
##it
the
##ie
##is
##or
##ur
##ion
in
##ich
##an
##ar
##st
##un
##al
##ent
##re
die
be
of
##om
to
##ung
##te
##le
der
##as
##ing
and
##ll
##ro
au
##ed
und
##ig
##em
##ir
re
ein
##ra
##ic
##op
##el
##omm
##ut
##eit
un
##et
##am
##icht
##id
is
zu
##ol
##ies
ver
##ul
an
##ge
##sch
##ve
wir
##ation
we
##ter
ha
that
st
##us
wh
##ten
pro
##lich
for
da
##ct
##hr
eur
##gen
##ber
##iss
##il
europ
no
##ere
den
##den
##isch
##ein
on
##ommiss
##der
##ly
this
so
er
it
al
dies
pr
im
##ommission
##and
en
##ier
con
##ort
##os
ge
par
auf
##de
das
daß
##ach
##im
ich
as
##ce
##ben
##ru
fur
##ment
mit
##ess
##ft
##ver
##men
von
are
de
##est
vor
co
##ill
ist
es
ne
nicht
##kt
des
not
##ff
##ith
aus
##uld
with
##ble
reg
which
##ischen
ma
##ust
##th
se
##la
##ive
europe
wer
##ould
##sp
##pp
have
als
##ke
eine
##ident
sch
dem
##ate
##ungen
##ament
##for
le
##ind
ex
##ah
ab
##ial
##we
##ity
europa
##iv
##ant
her
parl
commission
mo
will
##be
su
werden
sie
all
sich
##nen
ent
##aft
do
um
auch
##lie
##um
uber
sh
##ht
fra
uns
kon
##ann
##ern
##ahr
##ay
kommission
##ions
##ug
european
pol
##ungs
##end
##ist
##if
union
##ck
me
##iti
inter
##igen
ber
##ect
wie
##sen
##eh
by
pres
##schaft
ta
mr
sp
there
ar
or
at
##cht
##etz
##me
comm
fr
##hal
has
herr
com
##au
yo
ho
##ad
##gra
res
unter
##ure
##ang
##und
hat
##ers
##99
##iel
##ien
##eren
wird
##uß
##port
##keit
was
##ib
##ges
##gram
##all
would
also
sind
##se
nach
##aus
am
##heit
##ain
##ab
##ord
dar
bes
##ell
##beit
ges
##ische
ste
zur
##ken
##ip
haben
##ze
fin
##ult
##ted
mein
##asident
##lichen
coun
gro
##ard
program
bet
man
##ow
part
##ert
##ast
##00
but
##sam
##ens
##chte
##her
wen
##qu
diese
should
##ran
europaischen
##ag
bei
he
our
wor
parlament
##aat
##ational
you
dur
##zu
must
##iament
##ot
parliament
##cial
comp
president
li
einer
go
ih
##ise
ag
dis
##ember
##ige
qu
##ore
sein
prasident
##anz
##ue
##hen
ad
fa
stat
app
##ese
##ition
gem
sa
##rund
##rit
wur
##chen
##ical
##form
##io
##fen
199
##oll
##olle
##ement
##pr
##pt
##rat
region
been
from
##ations
di
##fu
ob
cont
##reat
member
##our
##ight
##ick
##og
wenn
soll
##con
inst
##pos
pos
##ussen
##able
ind
aber
##vel
ch
##ative
##wer
its
conc
##ome
##ok
rat
can
##ud
##itte
##stand
##cy
##ther
bericht
##cc
##lar
durch
##rag
these
##ute
##ark
mussen
mochte
##ely
##utz
zw
##ance
gen
polit
##dern
##ution
like
more
dieser
gemein
##lo
##ap
##reich
fre
war
spe
##igkeit
##elt
us
muß
##ommen
##ction
##out
##od
##ish
##ject
##oc
proble
hin
##ms
ihr
zum
##liche
##glie
##ieren
nur
need
just
pre
what
##ne
einen
##ider
recht
tran
##nah
te
##ik
##ally
noch
one
frau
##ary
##sten
inc
arbeit
if
polic
##staat
propos
##imm
##ments
##fore
alle
grund
str
konnen
land
report
##ts
##lin
my
sy
diesem
eff
kann
mon
##ank
##uss
po
##uch
##ierung
cons
dam
##ime
##cil
##mer
who
mitglie
##tschaft
##ktion
##ub
##itat
##ahl
they
import
int
##ass
leg
##ger
##ffen
vert
entsch
##ear
off
resp
jed
mehr
their
##che
##itik
##sicht
##stell
wurde
pe
##wo
##king
la
entw
deb
states
##gan
very
up
##ible
imp
##iden
initi
bec
##art
##pport
council
##erung
dec
##fahr
##mp
##fuhr
##teil
##lic
mitglied
##per
beg
out
commun
##stem
##neh
##los
##iert
##ond
##ster
##ice
hier
national
##feren
##ließ
oder
new
##he
gegen
kein
##int
zusam
##iven
groß
ra
##bar
##ry
zusammen
kolle
##uck
##gt
##alt
##leich
##ri
iss
count
##ities
sehr
fir
per
programme
##velop
acc
##amp
200
sit
mitgliedstaat
##iz
policy
weit
develop
ihre
intern
eu
##cess
sub
##ugh
entwick
only
##ordn
##ren
##schla
##vern
ur
partic
ev
other
##ility
sol
##ious
##conom
dieses
econom
them
##up
##arbeit
gew
end
##wend
##ural
einem
##reg
##ause
besch
concern
ter
##ced
##lung
##rie
car
##wn
under
##atter
fund
##ett
therefore
erw
ger
right
about
emp
##ention
##ular
prod
wo
##lichkeit
important
jahr
##land
time
1999
bur
europaische
programm
richt
##lear
any
reform
##auf
verb
##ose
unser
##ces
stru
geb
wicht
first
fe
##wir
transp
##ring
##iß
##ase
min
instit
pl
##etzt
best
##atz
hand
sicher
viel
##ives
peop
ko
art
##ong
social
because
ander
system
ins
when
ser
##assen
soz
work
vie
wirtschaft
cour
dire
##age
##ons
##llen
mitgliedstaaten
##igt
bereit
some
##pe
say
make
##forder
##halb
again
eben
##ak
group
##unkt
compet
frage
##ehen
take
unterst
fact
act
son
people
year
now
##mend
##ibt
quest
regional
particular
##dam
##ire
##lement
damit
##ner
##entr
denn
vorschla
mog
fu
##ated
proposal
##hl
auß
##geb
##ink
sozial
committe
tra
wel
into
initiative
amend
##uf
##iger
##nehmen
##ite
appro
##loy
mark
##inn
##ange
##uation
##gend
way
##vor
nat
##ign
##aß
prov
exp
support
##fol
##tet
finanz
community
##och
maß
zeit
##fur
##wever
however
##mal
##ision
bere
eing
##ues
##rol
stand
wieder
##nahmen
##legen
##ous
##day
beh
prin
##bewer
##one
##olitik
##xt
##wie
##innen
inv
rec
committee
##ide
op
gemeinschaft
govern
over
commissioner
##ific
clear
agre
##schen
see
meine
wett
##uer
##setz
##kon
##get
made
such
##bewerb
##ans
##tel
ass
wettbewerb
##ste
staat
##ween
between
eines
aussch
regard
bereich
##ism
political
##igung
##ries
rel
state
sc
unterstutz
within
##halt
heute
dann
##rage
consider
development
##ho
##wort
inform
##ateg
your
sondern
men
##now
ihnen
##ban
being
situation
##ures
##uber
disc
nam
##fall
##ient
direct
fest
##uen
##mit
ro
sel
poss
bas
mich
##ile
bez
port
red
##act
##deut
##okrat
lo
diff
debate
2000
finan
aid
zwe
those
env
entwicklung
gleich
rem
##ote
##ertain
great
##unft
##ings
##ommissar
gemeinsam
pla
were
gel
##alis
##achen
point
pub
##acht
economic
market
lie
##rif
##satz
##hang
##zeit
kommissar
##dem
abge
##ving
areas
zwischen
fall
wahr
##gr
wirk
##use
entsche
gibt
treat
##kte
##ved
belie
gu
requ
##ors
##essen
countries
question
einz
unsere
know
herrn
problem
##fl
##issen
##weis
rechts
außer
bo
##nis
##oun
##esent
jedoch
mar
where
sowie
lea
issue
than
##ieden
##cip
##chn
##ied
##ierungs
princip
tat
regions
##les
##isten
##mitte
weil
##mental
add
kollegen
certain
##hil
##ority
interreg
international
dan
##ine
##read
##eten
##ame
##weise
doch
##mittel
habe
##zen
bek
##bei
##ungsant
how
##qual
urban
bis
##ild
diesen
scha
competition
mittel
##halten
beste
fun
ganz
mir
##richt
portug
##ister
gesch
effect
hel
mill
##fe
##iron
##ragen
##eln
darauf
natur
environ
auth
ange
present
##ordnung
hal
##bes
##erg
forder
implement
##pro
##ward
bed
financial
sin
##chten
employ
##ld
##ough
##welt
##cept
ext
burger
public
last
dafur
selb
##imin
does
order
many
believe
##wor
##antwort
keine
ever
pra
##isl
geht
##ktur
wurden
bereits
maßnahmen
##rechen
##ruck
kont
##ibility
incl
legisl
respons
here
want
pers
anderen
ens
regionen
object
##ov
aust
##licher
dazu
##ahmen
fraktion
good
aff
far
matter
##ater
##stru
##led
##utions
umwelt
ihrer
today
madam
gener
##nahme
even
level
rahmen
inte
deshalb
democ
leben
strateg
weiter
##rib
##ating
most
##hing
think
##oren
selbst
able
##ga
##olk
alread
leader
already
woll
ziel
##lish
sagen
possible
two
##enden
prasidentin
##ferenz
denen
richtlin
##klar
##leg
could
view
##min
form
organ
##aren
##rei
sollten
##ference
dra
et
fut
##fin
##llt
##olog
well
area
spec
ant
process
resol
fo
##ondere
##ac
##gem
then
thank
##oper
haus
unserer
gebie
citi
nun
##ene
immer
wichtig
##geben
energ
meas
parlaments
##fer
##rimin
##are
institution
menschen
jo
letz
versch
may
indust
ac
oster
##ope
had
struct
##hand
##erst
pri
same
vom
##igh
sollte
inde
incre
own
##druck
verantwort
stra
sicherheit
future
##tend
tax
mrs
course
osterreich
too
ask
schw
att
austri
equal
notwend
produ
##kommen
##stimm
##els
conf
said
position
##af
regierungs
anderungsant
cann
much
som
##zens
cannot
cult
wissen
bedeut
##press
##gangen
##setzung
wollen
##ack
why
meiner
entscheid
citizens
##punkt
##isation
##ory
prodi
information
every
put
voll
##ling
##zip
##isse
##cond
prev
klar
##isp
##reten
real
##lage
common
years
get
his
still
second
konn
against
amendments
bra
cur
##je
##stab
beit
vers
legal
law
beschaft
vorschlag
ide
##nt
##onder
##icult
##ischer
##lau
directive
jetzt
demokrat
adop
posit
programmes
discuss
##ty
project
members
teil
ensure
etw
kult
##par
aut
regul
person
af
given
##du
einige
disk
contin
erweit
verein
trans
allem
insbes
particularly
insbesondere
bring
seit
##ful
##ia
##hin
##chie
beisp
##tern
##ffe
##gesch
principle
richtlinie
action
num
##ument
##ised
##ale
##reit
unternehmen
treaty
zahl
##sel
cooper
respect
fuhr
government
agend
bin
komm
##ichts
verw
examp
entsp
ihren
opin
case
estab
##ks
techn
##ount
establish
##ves
thro
debat
agenda
achie
gest
use
val
##air
##hne
##ict
##spr
measures
zweit
arbeits
rights
gut
##ium
##grund
erklar
##ppor
fragen
fl
aller
dien
##cted
##vour
cost
neue
ausge
maj
interest
##ual
##red
##kehr
##reichen
agreement
tun
##way
##lex
saf
instru
justice
##hilfen
naturlich
##lus
##ines
##ited
##ential
##ety
##ether
##lagen
ware
problems
##onds
million
integr
zie
##orities
##ree
repr
necess
neuen
since
beispiel
fol
ris
##racht
taken
##fahren
institutions
opinion
give
tur
house
zusammenarbeit
through
find
##ail
##gleich
##ently
bew
erst
deut
sec
control
invol
bezug
##rifft
example
safety
hope
wish
zun
##zie
##ital
##urs
neg
politik
##ritt
vertrag
##lossen
terms
transparen
extre
number
ir
loc
ohne
##maß
##aten
##rache
schon
issues
wettbewerbs
machen
vote
##uchen
##icher
anges
conference
shall
result
seine
funds
struktur
daher
express
presiden
world
##stellen
country
transport
bestimm
##konferenz
subject
cooperation
det
prom
##achst
##spolitik
##rolle
employment
represent
presidency
sim
##kunft
before
##spro
##etzen
offent
concerned
moglichkeit
look
guid
general
lassen
mention
opport
##gest
##politik
besonder
minister
##erstatter
regierungskonferenz
opportun
bud
##lan
##go
##ately
reas
##ability
serv
includ
bal
##ler
##arkt
##tellt
berichterstatter
freed
artik
abgeordn
somet
long
##nung
##luß
stark
prote
##ander
both
mor
##urz
enlar
sect
kolleg
require
democrat
freedom
##ey
dabei
favour
zwar
##stimmung
kultur
budget
##ucht
##atives
##ents
##schließ
without
##ppen
probleme
einzel
bor
kommen
##ade
##tem
verst
##wohl
viele
place
lebens
##gement
##alen
##recht
steuer
##agt
##ically
##wendung
bedeutung
etwas
leit
welt
##ret
proje
##ellen
betrifft
qual
glo
ja
kom
##igten
whether
##weisen
resolution
necessary
##ian
frei
##ys
##legt
aussp
##heiten
##altung
##wirtschaft
glob
erfol
##anger
gesam
stehen
##immt
impro
decision
artikel
nor
sm
set
##lungen
einmal
isra
proced
##unden
##fuhrt
ii
##tz
weiß
gefahr
daruber
contrib
prec
rappor
zwei
wirklich
##aften
erweiterung
rapporte
rul
##ude
##come
##ativen
##genommen
##verstand
umf
tages
##zeich
##wirk
moglich
##falls
los
##arge
zukunft
stad
##ught
beihilfen
##cyc
##merk
proposals
gemeinschafts
ausschuß
gren
oper
##cing
further
allen
debatte
guidel
el
bef
next
##ordin
entschließ
raum
zusammenhang
few
forderung
av
ele
punkt
dav
##ache
##ruß
meinung
account
artic
israel
pap
recyc
##zept
##linien
internal
unterstutzung
projects
local
guidelines
sor
##iar
##mog
##itions
##rop
##ices
politischen
##ucksicht
full
curr
cap
foll
deren
##elle
##tens
begruß
thema
serious
gemeinsamen
follow
geben
##assung
difficult
besteht
verantwortung
tagesordnung
del
done
kos
##nisse
##lick
##urity
##str
##reif
making
berucksicht
##halts
come
##gemein
structural
kolleginnen
kosov
rural
##fung
##fonds
andere
ausdruck
resour
party
##stellung
accord
help
rapporteur
rules
back
cr
##isions
##raum
aufga
regierung
environmental
##sprasident
cre
glau
kurz
##hol
##arm
main
down
##wards
institutionen
something
##has
##hip
##lungs
once
deal
worden
##iod
hinsicht
ebene
namlich
basis
enlargement
bar
crit
##ace
##len
##vement
##man
##uman
jahren
role
instrument
rest
sign
volk
wort
euro
europas
responsibility
industry
increas
colle
##angen
##ird
stellen
period
extrem
kosovo
bess
cor
let
nie
word
rev
##sche
having
ergeb
##ahre
daran
steht
zuruck
##zeu
##usses
importance
nationalen
affair
indeed
dienst
leitlinien
high
human
rolle
##ting
##markt
##omen
##icial
##immen
abs
##annt
##ife
rates
rather
##fuhrung
tats
environment
austria
after
davon
mind
pow
##ress
##ph
##bin
##stit
##alle
##ilt
geh
gewahr
einge
specific
aw
br
##ost
means
darf
##zeug
##agement
going
proposed
solid
clearly
letzten
yet
##iate
##zw
##reffen
##rachten
##vers
allow
##sequ
waren
welche
invest
redu
##prochen
legislation
objectives
security
zunachst
besonders
resources
clos
eigen
flex
jahre
##itor
##alten
##roffen
zustand
dep
vors
intergo
quite
gegenuber
jud
##atast
rep
zug
behor
aussprache
small
##atastrop
gar
##fah
##so
##atze
##isen
vorge
ess
konk
##ists
vertra
konnte
border
intergovern
gr
je
life
var
##ende
##ichte
##schaften
schwer
##ively
liber
adv
unterstutzen
article
intergovernmental
med
##ually
##ss
towards
##raft
##ulation
fort
hatte
##zeß
manuf
lander
sozialen
staaten
##riften
food
culture
simp
affairs
manufact
akt
bro
bus
pal
##fort
##bau
third
##ont
imm
conv
schließ
herren
amster
speak
##teilung
term
gerade
##ismus
accept
schwier
amsterdam
hil
##lei
##ided
ansicht
##schriften
defin
##liegen
interess
finally
fundament
plan
pract
job
brauchen
solidar
essential
gere
less
pay
##weit
##llung
##eder
regel
subs
verbess
fuhren
ak
dist
tas
##iations
##bed
##iness
inn
cond
commit
policies
poin
economy
court
wahrend
##flicht
protection
manufactur
ben
ig
##ekt
three
##ante
##rauch
parte
##ffung
meet
hatten
prasidentschaft
admin
##ccess
##igkeiten
concerns
vielen
funf
prior
##icherheit
abgeordneten
each
kle
wahl
##kten
##mu
##ierten
applic
sollen
effort
großen
understand
wohl
kosten
anderungsantrage
erfolg
glaube
administ
000
aim
ub
##hor
##grat
##inzip
##urf
##entlich
##iesen
start
erforder
umsetzung
##ience
seiner
whole
liegt
authority
reason
subsid
binnen
women
##ates
vergangen
never
nichts
char
landlichen
month
peace
namen
differ
authorities
adopted
continue
##ways
integration
ziele
00
centr
ru
tal
##hes
##ock
##zentr
offen
##leist
anal
fordern
erg
hervor
doc
gesagt
amendment
positive
negot
sector
business
creat
wesent
##uese
##fit
##ix
##hn
##org
##eless
ans
haider
success
disast
appropr
schaffen
portuguese
fundamental
dank
drei
##eng
erne
allgemein
##ify
##aussch
##ably
darum
meines
##ards
lage
groups
open
markt
paper
a5
bu
##fach
##other
##erv
##als
refer
##ication
##elf
verl
another
ital
enth
##ruch
heraus
unseren
during
change
vorschlage
greater
implementation
notwendig
lim
lang
mom
non
##tle
##ration
##ogen
##ystem
##zug
##leicht
##rodu
unab
verp
anf
erinn
große
agree
certainly
haushalts
kommt
extremely
absol
fahr
tobin
verf
weise
forward
##ierungen
##iving
hoffe
##cially
##nete
cars
##gress
portugies
##work
energy
entsprechen
freiheit
recycling
various
##ep
##iation
##hmen
##ence
##rech
##emp
eng
show
darin
itself
politische
frauen
damen
firstly
ausschusses
objective
achieve
major
different
lad
ruck
van
##ness
##kes
##ining
##ath
behal
derzeit
##inge
ret
##graph
##gesehen
stellung
introdu
solche
bezie
verschieden
democratic
lebensmittel
eig
lit
veh
##ha
##icient
anwendung
##gehen
prot
exc
mot
statt
welcome
recog
##richtung
halte
opportunity
moment
12
kind
ple
##ged
##zahl
anst
weg
##bere
espe
##spl
arg
compan
1997
genau
wirtschaftlichen
standpunkt
assist
guar
##riminal
angesichts
behalf
gent
##hungen
##lass
intend
bel
##lemen
##ingungen
rece
united
exper
##ension
comple
statement
##fuhren
ende
feel
ebenso
prevent
especially
guarante
gentlemen
ged
##sweise
##dings
##ziel
##blick
##ises
tot
toget
alth
always
nachsten
working
prepar
##ika
landern
##fordert
effective
kontrolle
akzept
together
although
dim
danger
gilt
lok
macht
##affen
##zung
##wert
##ising
##racy
progress
erreichen
seem
exist
frieden
gesetz
text
grundsatz
lack
##idence
provide
##zeitig
address
bekamp
schaffung
interests
call
did
ec
feh
harm
nutz
wider
##trag
##ob
##zust
##atten
proper
##ily
##denken
schutz
modern
1998
needs
ihrem
außerdem
addition
danken
kontro
wissenschaft
allerdings
vertrags
mentioned
procedure
binnenmarkt
ladies
15
five
hol
sen
sing
##oted
priv
gegeben
least
##ified
taking
hoch
weniger
used
approach
##kont
zweif
bestehen
ze
##isierung
inner
beteil
reach
verhand
day
##ellschaft
apply
arbeitspl
access
empf
##legenheit
entscheidung
stadt
ubr
dort
hist
pop
vier
##wand
##wart
##unkte
##ross
really
vorgesch
demon
suff
alles
frame
agr
money
decisions
beschaftigung
hinsichtlich
bruss
unabhang
vehic
single
dial
ken
##yl
themen
ref
einigen
##eter
while
cohes
##lag
werde
schi
special
communication
activ
regarding
kommissarin
responsible
attention
beispielsweise
involved
transparency
einzelnen
ear
led
ty
##voll
##bild
##rechte
read
star
demand
##ivil
##gestellt
conclus
##steller
become
wichtige
questions
funktion
bringen
risk
deutlich
services
conditions
months
dialog
cohesion
erachten
kr
pass
wun
##com
##ehr
##buch
##alth
##igungs
##ilitat
ersten
sei
##ivid
gemacht
consum
wirtschafts
increase
avail
mult
nu
opt
##fassung
beim
vern
verkehr
##eint
sowohl
##ierte
##ehmen
step
better
chang
##itaten
regulations
dienstleist
klein
framework
bene
four
tru
##sicherheit
##onger
ann
denke
asyl
##ceed
##last
mean
finden
##aps
tragen
##mitt
words
hilfe
erachtens
fam
mater
opp
past
##ufen
##ionen
##entw
##schutz
##ationen
soc
aufgrund
##laf
##spect
lead
uberein
##aged
durfen
##ritte
individ
jeder
remain
##alisation
previous
konnten
idea
transparenz
##reifen
create
colleag
14
99
aktion
ke
tr
##ners
##rang
##volk
inf
eindeut
##gew
force
##spruch
untersch
amb
hinaus
##forderungen
halten
energie
cultural
strukturfonds
including
projekte
##stitution
subsidiar
ubrigen
vorgeschlagen
kunft
large
##po
##ßt
##initi
##eits
##imes
asp
aspe
vorgesehen
code
nothing
abstimmung
##weg
##ived
meinen
##prinzip
##utet
monitor
office
initiatives
gegenwart
vielleicht
gemeinsame
entscheiden
millionen
weißbuch
power
aware
schließlich
points
available
bzw
fru
krit
might
occ
##ning
bemu
##text
##leit
white
kommissions
##oting
hinblick
grundlage
streng
vertre
##losigkeit
particip
erwah
verbrauch
##alisierung
bisher
majority
##employ
bod
olaf
##fern
##luck
##over
##zus
things
bevolk
unemploy
ersch
aufge
schn
##ants
spiel
betroffen
2006
##ißt
plen
ebenfalls
actually
behand
gleichzeitig
draft
values
komp
##wirkungen
current
increasing
partei
vehicles
hul
tro
##best
##10
##iellen
beiden
##rug
vorliegen
##ragt
##ried
bekannt
matters
austrian
folgen
turke
efforts
##bereich
companies
19
dessen
met
##cen
##gern
##zogen
##ases
##iges
##olit
sehen
uberw
table
comb
##gesetzt
beginn
training
##mals
standards
##hof
legislative
indep
gerecht
innerhalb
10
brit
katastrop
ph
zentr
##gren
##mark
often
##ingen
aner
erho
leider
abschließ
##ordnete
stress
##forderung
##ification
based
entschließung
aufgabe
innov
negotiations
complete
socie
gre
rand
##net
##fr
##side
##vention
##esen
##itz
verstand
wee
stud
ausfuhr
auswirkungen
##thing
doub
##erseits
among
frem
effiz
jeden
mehrheit
##teilen
concerning
gerichts
democracy
joint
demokratie
diskuss
##selves
according
##fortun
13
fisch
gra
longer
##dent
##urch
##ingt
unfortun
enough
schluß
mod
##gramm
seinen
obl
##nehmer
care
trade
expect
##struktur
morgen
dimension
dangerous
bekampfung
##uments
##gang
##bur
##ances
einzu
voraus
##lauf
wenig
ourselves
ratsprasident
jahres
wettbewerbspolitik
principles
include
anderungsantrag
erklarung
service
besser
task
harmon
material
individual
fremden
bit
chal
vi
##iver
##hung
##haps
##less
##gar
derart
rechte
##ics
erster
neu
werte
##ifiz
comes
unters
free
perhaps
##aßt
gebiete
regulation
erforderlich
verschiedenen
verbraucher
hulten
challen
20
bitte
east
ident
mann
sinn
##app
##system
##gent
##bru
##reicht
bede
einheit
happen
enter
dev
nehmen
absch
ship
konzentr
##ausch
ihm
großer
erwar
soziale
play
organis
draw
secondly
expressed
gemeinschaftsiniti
##zeuge
jobs
verfug
benefit
50
caus
dring
em
gute
lin
sicht
sach
tib
##ckt
##here
##itive
##urd
bear
##amt
verhin
verfahren
##gegen
prof
alt
consequ
##imum
exam
short
##mehr
obv
indem
upon
febru
wirksam
request
internationalen
beitrag
##fahigkeit
little
##zustellen
unemployment
oblig
25
kap
mer
nah
sust
tamp
##agen
##cour
##lang
##oten
##gel
##ench
tour
angenommen
stab
ern
erste
press
gehen
##ruppen
mitteilung
vorzu
##thers
left
##indust
super
doing
interessen
franz
france
programms
partners
##erts
justiz
grunde
keinen
emphas
plann
##mitglie
strategy
beschaftigungs
technolog
zweitens
sorgen
following
simply
central
disaster
appropriate
aspect
obvious
sustain
tampere
key
others
sur
sag
##upt
##ove
##ko
##wiesen
though
##ased
##ctions
erika
auffassung
sprechen
french
##ield
grow
management
territ
##gaben
gebiet
straf
fully
build
strength
##industrie
cross
drit
lange
sens
setzen
six
yes
##ric
##komm
befur
##utes
haupt
stim
##isches
erhalten
encour
context
aufmerk
dok
##annten
##itiken
##sec
official
##bare
event
burgern
handelt
actions
governments
assess
scient
geld
confidence
##self
offentlichkeit
administration
abschließend
unfortunately
aufmerksam
bild
criminal
cases
lau
tell
##iste
##isely
oft
##lly
rele
sta
erfahr
enor
gefordert
##verfahren
contain
prinzip
bereichen
relations
goods
autom
##ziehen
eigenen
vertrauen
fortsch
igc
document
total
verhandlungen
famil
oppos
society
dut
hinge
pot
##aum
##jen
##ators
##orge
##uring
##stat
##bereit
europol
##verkehr
def
hersteller
sug
##endent
arm
gestellt
hinter
wichtigen
liegen
##hilfe
prakt
organisation
antrag
requirements
quality
capital
ergebnis
##ausschuß
stellungnahme
agricult
bedeutet
tibet
bill
c5
oil
old
##akt
##aking
##ift
##lt
##vere
##pru
##schreit
ermog
##achlich
deleg
vorschriften
coordin
##sper
schro
she
konferenz
partner
heißt
##fugen
genu
richtig
regionalen
liebe
treaties
results
precisely
analys
absolute
recogn
eindeutig
schnell
trotz
bre
cal
cru
element
fight
kar
kern
miß
##az
##fert
##clear
##bour
##atis
##ional
##row
einbe
##eld
##uth
erarbeit
alten
sever
share
gesellschaft
fail
propose
strong
weitere
subst
solchen
carry
##etting
staatlichen
remind
abgeordnete
##finden
gebieten
diskut
vereinbar
offentlichen
iii
currently
##scheid
gewahrle
behorde
interesse
seems
sense
##kontrolle
empfeh
histor
type
dokument
21
jan
rap
##aution
##hens
##ßen
##itim
##unter
prufen
exch
##behor
tag
##ielle
##fully
berichts
warum
vertreten
terr
funding
##setzen
implemented
erstens
moglichkeiten
berucksichtigt
tatsache
gehort
behorden
immig
verpflicht
eigentlich
assistance
guarantee
blei
eth
hon
langen
treffen
##av
##ected
##lim
##vant
##itzen
##ichen
##ream
bevor
##tell
unt
verte
verfol
constru
##theless
seen
extend
##ußt
quick
contra
##reiche
post
##iveness
weiteren
german
koordin
welch
approved
provided
staats
consideration
##iled
##alised
##demokrat
adopt
losung
aufgaben
nieder
nevertheless
##bildung
##ehrte
true
infra
bevolkerung
independent
doubt
franzos
##atisf
foc
field
pur
rad
sure
tom
##res
##jahr
##ativ
##istet
##arent
##unehmen
undert
recon
verg
verz
##ulf
pruf
##rupp
##formen
movement
kommissionsprasident
frank
##absch
meinem
ground
obs
arbeiten
##heb
##rieben
wobei
systems
##legenheiten
discrimin
festge
markets
außerst
weiterhin
vollig
detail
promote
representatives
gesamten
precaution
flexib
vorsorge
enthalten
strengthen
##jenigen
janu
verteid
precautionary
80
kinn
rene
voted
##ait
##aut
##ichtet
##arf
##stehen
##rete
##leben
repe
erreicht
congrat
sech
##laub
europaischer
sum
##lied
##ehm
comments
##ishing
monop
##ktionen
##nehm
regionalpolitik
vorschlagen
einges
relation
rede
found
asked
product
entscheidungen
getan
discussion
##verstandlich
begruße
pleased
population
activities
kommissionsmitglie
stimme
kinnock
renew
congratul
him
mut
##lud
##off
##por
##bod
##orrow
##entions
##iglich
fore
gef
cover
above
fraud
health
obwohl
hinweisen
legitim
entwicklungs
##lands
unserem
provision
recent
relating
priority
notwendigkeit
vereinigten
technical
findet
opportunities
ergebnisse
manufacturers
meeting
answer
argument
lediglich
keep
bleiben
tomorrow
vorsorgeprinzip
don
hig
item
jur
pa
tank
##ti
##ograph
##zunehmen
thing
threat
theat
##unst
##entscheid
##letz
##edter
rein
einfach
##opp
ang
stimmen
prozeß
soon
impos
##ims
sekt
schen
absicht
##weil
##istischen
resear
needed
declar
##baren
beschran
bestand
zeitraum
verwalt
costs
included
balk
improve
##zeichnet
delay
signific
##zeugen
solidarity
erinnern
##haben
prepared
kennt
##lastung
vertreter
gerichtshof
gemeinschaftsinitiative
schroedter
research
eith
falle
lu
mid
patten
##nor
##lies
##kund
##bring
##most
##inder
##atic
inhalt
##rect
##round
##irm
##ichten
verd
##gefuhrt
stahl
whose
ausrichtung
regierungen
exce
entire
steel
betrug
liability
##stellt
begin
submit
finanziellen
zeitpunkt
road
bedingungen
##reiben
antwort
strand
verwaltung
reasons
grenzen
limit
anfrage
exclus
belg
experience
kontroll
demonstr
changes
anerken
##frist
focus
frankreich
either
nations
san
##eil
##hend
##by
##atory
bemerk
top
##asch
einfuhrung
##ommend
verabsch
stor
prosec
##einander
sogar
erfu
##andid
##verb
vorbereit
schl
amer
heut
durchfuhrung
entschieden
entwurf
##lichkeiten
experts
recommend
fallen
integrat
arbeitslosigkeit
contribution
umfassen
begrußen
critic
tatsachlich
garant
creating
nuclear
partnership
quickly
##ruppe
clar
civil
eas
fern
low
rom
vis
##national
##ued
##fte
##chan
##anken
bedenken
##omp
##iding
vermitt
wegen
desp
makes
##fordern
nachhalt
effekt
monet
vertrage
verbind
trad
##vorschriften
unterstutzt
considered
wahrung
function
presented
sicherheits
personal
diskrimin
agreements
turn
##maßnahmen
##sprozeß
verbesserung
application
vergangenheit
businesses
portugiesischen
##rechend
nutzen
verfugung
hingewiesen
crucial
bl
bil
brie
due
equ
fast
fear
kraft
punkte
##nier
##falt
##ought
##durch
thought
##llent
aud
##icien
unac
##gency
##ission
erken
leisten
##ending
spir
unterb
gesp
compr
##ritts
che
landwirtschaft
initiativen
raised
endlich
##wendet
carried
##lander
##wirken
bestat
kohas
anderungen
portugal
bedau
strategic
informationen
curren
irgend
angesprochen
bestimmte
berichterstatterin
umfang
berucksichtigen
crime
vergangenen
charter
motion
received
vernunft
colleagues
tabled
bitten
kapital
ermoglichen
absolutely
several
excellent
unaccept
010
30
cir
hu
link
line
sache
water
##aken
##lassen
##kraft
##wurd
##ences
##iew
##organ
rei
##ides
anzu
neuer
maint
##wegen
supp
ents
kons
##ehn
coming
##angt
stellt
hear
##zuber
ago
1996
##fuge
chance
reports
saying
außen
differen
gelten
##ledge
priorities
beitragen
autos
transnational
seite
##geschlossen
kommun
zweite
zweiten
bestimmungen
starker
##anderungen
global
grenzuber
criter
judicial
practical
commitment
italien
portugiesische
hold
conclusion
dienstleistungs
monitoring
sagte
suggest
vergessen
discrimination
monopol
despite
brief
circ
maintain
flag
home
list
ok
satisf
##action
##sink
##haft
##bo
##wun
##ße
##enz
##onen
##ested
ine
##stimmen
##ales
rechn
##rachte
zustimmung
##uly
note
erziel
gelegenheit
wert
abzu
uberzeug
span
##aupt
hohe
##undheit
ihres
incor
monaten
consult
plans
##atzen
nature
behind
helsink
extent
established
throughout
bewußt
abgeordneter
zugang
solidaritat
limited
sufficient
wunsch
consumer
week
sustainable
theato
spirit
unacceptable
grenzuberschreit
helsinki
cent
dro
net
##ead
##ptem
##more
##wise
##itime
unbed
anw
angeb
##ctive
##eind
septem
##laß
##ifically
ort
ord
gemaß
instead
indic
##werk
rats
##staaten
##line
offer
offens
sitzung
##schlag
sicherlich
workers
eingehen
regards
tatigkeit
angelegenheiten
sinne
affected
selbstverstandlich
specifically
menschenrechte
wishes
barnier
increased
correct
vorgelegt
aktiv
practice
wesentlichen
erneuer
protok
reached
arbeitsplatze
participation
betroffenen
diskussion
verhindern
planning
exchange
honour
verwaltungs
monetary
currency
reihe
september
bure
chr
cla
disch
eg
ehr
kor
light
mal
ol
ren
##nect
##uted
##fre
##ians
##ator
infl
anderung
##igte
reformen
refuge
##rach
##opho
verordnung
happ
##liches
erheb
##laut
absatz
move
alloc
##istische
takes
comment
face
concil
concentr
arbeitnehmer
allein
outside
basic
maritime
implementing
strategie
##legung
everyone
zahlen
entsprechend
value
benach
erneut
existing
brussels
dialogue
katastrophe
fischere
schlußfol
ernst
potential
analysis
criteria
bureau
acht
bank
date
hard
nationen
poll
tie
try
wog
##nissen
##falle
##iken
##satze
##heren
##gere
##dict
##yse
##wahl
##erien
reference
unz
ansatz
stage
dadurch
##einen
connect
schem
##aging
ihn
applied
safe
genug
##ierenden
syr
##teilt
firm
entwickeln
solution
wiederhol
##fallen
geschaft
effects
##worten
flucht
deter
sectors
verstehen
furthermore
##strateg
creation
revision
immed
manufacturer
allgemeinen
fahrzeuge
lebensmittelsicherheit
lokalen
##obil
private
brussel
kunftig
gegenwartig
bemuhungen
profess
tourism
called
until
discharge
schlußfolger
wogau
11
blo
card
fpo
ga
kam
kamp
nr
vol
vict
##nommen
##hnen
##wal
##ined
##onse
beant
augen
##elves
angem
##terday
proceed
forsch
alter
gele
##dex
mitt
##vert
##indest
except
##unde
##ienz
final
##prom
##ourcen
durchaus
hinzu
zumindest
mitglieder
response
laßt
woche
minder
wirtschaftliche
##gebie
bereiche
danke
##orenz
##legten
##acio
structure
osterreichischen
somit
establishing
ziehen
ministers
gesamte
moglichst
difficulties
accordance
powers
repub
konkreten
liberal
medium
palacio
schwierigkeiten
##bedingungen
rule
##coming
##entwick
plenum
combat
ausfuhrungen
superv
obviously
yesterday
delegation
congratulate
schengen
comprom
unbedingt
##ophob
conciliation
cause
dritt
fishing
ire
mand
ress
wes
xen
##licht
##ven
##bt
##onnen
##isis
##urop
inspect
##arily
##rehens
##omin
andern
zudem
regeln
commissioners
entlastung
beru
##auß
hohen
nachdruck
amt
##abel
finn
fair
stated
appla
##rated
content
freue
using
##ikan
grunden
grundlegen
myself
syri
##heer
##heben
reforms
sozialdemokrat
scope
namely
possibility
schaden
geschlossen
richtlinien
##minister
demokratischen
achieved
required
crisis
mainst
eingeb
jeweil
administrat
talking
beziehungen
turkey
officials
automobil
purpos
kommissionsmitglied
significant
heutigen
incorpor
benachteil
connection
ireland
xenophob
ble
gern
haltung
jon
jun
jung
living
run
sl
##ake
##ech
##liz
##gu
##ina
##ats
thems
##aler
toler
uni
##eth
isol
verm
verhalten
##schein
gefuhrt
geograph
aufbau
mitarbeit
design
entgegen
parties
##ertung
parliamentary
seinem
##itionen
sage
##ption
instance
spezie
speech
poor
##wogen
##fahrens
kollege
beschlossen
burokrat
richtung
dennoch
##gebung
expla
wiederauf
staatliche
##licherweise
farm
views
confirm
vollstand
etwa
florenz
deta
balance
budgetary
komprom
avo
prioritaten
documents
entsprechenden
schiffe
asylum
subsidiarity
occas
bodies
##luckwun
##bestand
vorliegenden
erwarten
organisations
scientific
staff
gewahrleisten
##behorde
prosecut
##chanis
okolog
offensicht
angemessen
mainstream
themselves
18
40
ban
fonds
fulf
kust
ppe
purs
siz
trag
uhr
##feind
##cies
##haupt
##gungen
##vember
##zess
##bs
##iell
##ured
diejenigen
##lect
une
verurs
verwendung
##ilar
november
geauß
##achung
vorrang
sea
schritt
scheint
ubernehmen
##ends
##cken
##itious
interp
amount
gesprochen
gesundheit
betracht
betreffen
##zufuhren
##ritten
1994
##utzt
politics
efficien
##ussel
damage
intention
##rift
verbunden
minimum
recently
assoc
score
rechtsvorschriften
angelegenheit
##besch
##ological
everything
beitritts
fuhrt
folgt
risik
subjects
similar
globalisierung
procedures
operation
seriously
volks
worth
gehoren
tasks
analyse
entsprechende
anstren
zweifel
kleinen
unterschied
##stitutional
##zusetzen
completely
challenge
altener
ethn
##bringen
integrated
##board
protokoll
christ
bleibt
efficiency
17
away
live
lot
log
mang
rass
tim
##agraph
##lle
##gult
##bet
thus
intens
beam
beif
reject
einsch
zusatz
anspruch
forest
##ilities
sour
along
paragraph
regret
uberpru
##istic
##cks
##ckheer
orient
##ranted
head
comprehens
##iode
durchgefuhrt
genommen
sym
decided
urge
unseres
transparent
##folge
overall
ausschließ
##ounts
##mitteln
held
author
fraktionen
levels
discussions
looking
protect
qualitat
globalisation
elig
review
regelungen
successful
akzeptieren
conclusions
subsidiaritat
untersuch
altfahr
territor
assessment
fortschritte
koordinierung
audit
bureauc
administrative
jonckheer
offensichtlich
beifall
81
ap
cities
feder
hor
mess
nord
setting
voting
##aust
##uing
##kamp
##plan
##xis
##wh
##ination
unan
verhalt
verfugen
stur
prob
forth
sound
constit
coast
mag
##thy
##weist
uberhaupt
shar
##istent
stets
stelle
parlamentar
goes
1995
genehm
##reichend
monti
jede
begren
##riff
permit
events
##regionen
gericht
gebracht
minutes
koch
andererseits
##akter
provisions
gleichen
remember
##ungsantrag
affect
##gemaß
wichtigsten
industrie
reality
##reiten
establishment
instruments
##sprogramm
weltweit
projekt
else
broad
speakers
disasters
absolut
eigent
beteiligung
funktionieren
body
randlage
effizient
ratsprasidentschaft
manner
enterpr
sachverstand
aufmerksamkeit
enorm
recognise
construction
renewable
##organisation
circum
geschafts
##uropa
kompromiß
prosecutor
anstrengungen
achten
ahn
cut
cos
gol
giving
granted
jen
mis
nimmt
tar
zivil
##flich
##fragen
##iately
##val
##yond
##zif
##just
##iede
##uren
##anced
beyond
##teile
einsatz
ungleich
veranderungen
##gehend
prosper
days
##hren
sovere
enfor
condu
aufgenommen
neigh
exact
extern
politiken
##sens
##urellen
##quate
heard
disapp
status
spek
grundsatze
landes
efficient
keiner
raise
urgent
gewor
active
finanzielle
##fluß
organe
produce
getroffen
teilen
zahlreiche
normal
reduce
close
borders
grant
ergreifen
created
referred
recognis
demonst
effizienz
fremdenfeind
abschluß
growth
niederland
observ
sechs
highl
kenntnis
compromise
fulfil
scoreboard
circumst
sovereign
neighbour
35
bie
class
flo
lab
mil
weder
##frie
##cceed
##tung
##tain
##treten
##rary
##hund
##gruppen
##pted
##xim
##met
##ino
##inking
##sto
##stag
##alition
##igin
eindruck
einwand
verur
verme
hafen
hauf
stability
profit
south
##iers
##veran
desire
sud
suppor
succeed
meisten
beruf
origin
darstellt
besorg
##ellos
gestern
heart
##anzen
symp
jedes
##arta
beginnen
rac
developing
##arbeitung
inso
agreed
scale
##haltung
self
geschichte
bedarf
employe
gestimmt
guter
contribute
bessere
closed
flexibility
vorsitzen
brought
palest
talk
widerspruch
kontrollen
steps
##entwurf
turkei
caused
strafrecht
relevant
festgelegt
foreign
midd
verabschied
refugees
victims
sized
unanim
external
##frieden
sympath
ara
dest
fal
fell
lar
listen
mcc
ought
sort
sess
wid
wach
##fect
##hnt
##gut
##greif
##ying
##will
##attle
insp
##arthy
befinden
##omes
reicht
einfluß
unver
verwirk
hause
dauer
almost
enable
vorher
desc
##iveau
##splan
##istan
meer
interv
intervention
tack
hoff
##angs
##ienst
##ibilities
nachdem
besten
besondere
dispar
prasidenten
appear
gender
nochmals
strict
begluckwun
##riffen
internet
otherwise
anything
vielmehr
socialists
direction
competit
gemeinschaftlichen
directives
feststellen
remark
milliar
kontin
zielen
formul
anti
letzte
##laufen
discussed
auto
entspricht
ausgewogen
bald
improvement
elections
palast
convention
ignor
wahlen
schiff
ambitious
aspekte
british
konzentrieren
februar
february
merely
coordination
prufung
grounds
##luded
safegu
schlußfolgerungen
applause
comprehensive
geworden
circumstances
supported
mccarthy
07
bau
cred
gab
gree
har
malt
pun
ten
times
vitor
wast
##ugen
##uveran
##frei
##kay
##polit
##enn
##att
##atch
##ires
einiger
##amm
verehrte
annahme
stock
##dert
sofort
souveran
altern
diesbe
condem
##acher
register
##spar
schle
existen
umgesetzt
attem
##auft
##ipl
betrachte
facil
divers
respekt
##stellungen
begrund
##barer
perfect
##arbeitet
gewahl
gering
jahrhund
handeln
##ously
seek
mensch
wahrungs
knowledge
außerster
helfen
ensuring
thanks
haushalt
measure
equality
production
entscheidungs
discussing
guten
bewertung
extreme
promot
projekten
elected
schwerwie
conven
convin
verbessern
distrib
erfolgreich
reasonable
zweifellos
reading
starken
optim
dienstleistungen
colleague
amongst
dringend
linie
aspects
drittens
franzosischen
anerkennung
vermittlungs
huge
fluchtling
gave
weshalb
mainstreaming
eligible
probably
forthcoming
middle
vitorino
diesbezug
attempt
16
ere
eher
grie
jorg
wr
##ned
##ize
##dom
##mand
##ury
##anze
##emark
einschließ
unions
zuge
verk
##scht
stop
impress
##andert
const
##cepted
##spolit
schre
lear
leist
herz
ubert
konig
konsequ
##istisch
spo
betonen
speaking
mußte
monate
##altigen
sitting
solch
##arbeiten
##landern
kooper
science
publish
danemark
bekommen
effectively
half
umweltschutz
drawn
nunmehr
accepted
kulturellen
bestimmten
##achstum
normen
grenz
sorge
deliver
eingegangen
konkrete
grun
committed
pointed
enthalt
noneth
verpflich
friedens
properly
arbeitsplatzen
unterschiede
innovative
consequences
stabilitat
agriculture
substant
empfehlungen
verpflichtungen
infrastru
repeat
forschung
geaußert
geschaftsordnung
session
wrong
nonetheless
03
ade
bot
ero
fig
il
langer
sw
tre
test
ult
wait
zut
##ron
##rict
##ikt
##seit
##hnung
##kor
##punkte
##chter
thinking
##atur
##ature
##itar
##itude
##unch
##altet
beeint
##elten
##uter
ung
unge
zufrieden
verletz
wealth
denmark
##lying
asking
auss
ausges
auszu
seattle
##indet
extens
##liegt
mechanis
hoffen
##ipf
betrie
##rank
worte
save
##ements
spezif
##igkeits
##ished
tex
entschlossen
impact
##losen
##head
developed
eval
gewesen
endgult
erwart
sonder
natural
finanzkontrolle
maße
related
zweck
envis
wahrschein
known
danish
geschaffen
millenn
##programm
acqu
attach
produkt
conflic
versich
ideolog
seiten
useful
erklaren
##lusse
irland
wettbewerbsfahigkeit
kommenden
restrict
investig
benot
##ifying
retur
##riminalitat
intended
##wertung
gesetzgebung
fehlen
##kontro
suffer
occur
erwahnt
##grenzung
model
##burger
derartige
ships
stabil
vorzulegen
building
erfahrungen
agricultural
billion
partnerschaft
diskutieren
eingesetzt
balkan
submitted
ferner
happy
syrien
purpose
avoid
message
fellow
competitiveness
milliarden
safeguard
ereign
konigreich
verpflichtet
beeintracht
100
dre
emer
gives
ju
kaum
pack
sus
samt
##ages
##apt
##fs
##ften
##hern
##lude
##ps
##yn
##erc
##inens
##iter
##enten
##igungen
uner
##ets
##olid
##ulative
anp
##geiz
weak
stip
forms
denken
##bene
mitte
dead
dealt
vorlegen
ausreichend
excess
exerc
##ahn
mochten
umstand
##gesellschaft
##gestell
applies
##itional
contrary
cho
politisch
problemen
grundrechte
jedem
##riere
accident
2002
entwickelt
rightly
burden
anderer
approval
maßnahme
behinder
governance
##setzungen
##steht
informations
remote
##ounced
##richtungen
forderungen
##works
hauses
verantwortlich
versuchen
demokratische
positiv
erklart
erklarungen
dienen
costa
risks
##ziehung
promoting
representative
##sprogram
democrats
improving
##zeichnen
stadte
befug
raums
##moglichkeiten
niemand
liberalen
advis
aims
herausforderung
addressed
ecological
activity
uberwachung
phase
carefully
fremdenverkehr
viol
##kodex
encourage
terror
##resp
flexibilitat
covered
exclusion
bemerkungen
storms
erfullen
ehrgeiz
immediately
ressourcen
jeweiligen
palastinens
illeg
millennium
air
bad
dinge
dopp
gain
gruppen
ganze
mass
nen
osten
okon
rasch
sk
vo
wonder
##nes
##iere
##iff
##hab
##hod
##horen
##lier
##katastrop
##ging
##dere
##bung
##where
##erve
##esch
##atisch
##rec
rea
##rahmen
unmittel
##ama
##amber
veroff
anforderungen
##usse
ers
erm
erlaut
gegent
##verty
deg
dezentr
cod
neben
deswegen
ausbildung
schul
schritte
mob
konfl
berat
front
##gesamt
##ausweis
gesetzt
gesehen
parts
dispos
obtain
chamber
tele
teile
proposing
poverty
##uchner
decentr
wochen
kouchner
insgesamt
approve
ways
finanzierung
recover
considerable
discip
directly
##actions
rechtssicherheit
außerord
danach
naturally
##legungen
##acity
letztend
industr
anderungsantragen
braucht
version
ideas
personen
personally
##sprinzip
mindest
flexible
simple
thirdly
prioritat
charakter
derzeitigen
introduce
receive
additional
wissenschaftlichen
bestehenden
history
earlier
aspekt
kriterien
behandelt
kompliz
beginning
green
voraussetzung
nahen
bildung
duty
armut
diskutiert
januar
january
paid
##andidaten
americ
recommendations
##strategie
##entwicklung
detailed
kusten
interpret
mangel
sovereignty
waste
promotion
einschließlich
infrastruct
##korper
stipul
gegenteil
letztendlich
28
akte
dr
fas
later
nied
naz
rig
vess
wales
##nungs
##uble
##rig
##ser
##haus
##haf
##haften
##oy
##ober
##oint
##dra
##erten
##erungen
##erungs
##ins
##este
##anwal
##repr
beab
took
einstimm
einverstand
##uten
vergleich
verlei
verfahrens
##schw
weap
##usion
##used
forces
eror
aufzu
aufnahme
##dell
dez
vorbe
vorhaben
ausgrenzung
withdra
abhang
willen
interin
daraus
##que
parliaments
compens
chair
genannten
##linie
december
communities
##barkeit
developments
handlungs
courts
factor
sonst
providing
explan
redner
falls
requires
certainty
internationale
letzter
adopting
##maßig
##langen
sometimes
morning
##rechts
gesamt
operators
volker
konkret
aktu
italy
italian
langfrist
introduced
please
statements
gegebenen
zeigt
consumers
ubereinkommen
##leitet
spielen
verstandnis
materials
territory
sensitive
opposed
einbeziehung
germany
verzog
bestandteil
erkennen
dienstleistungsausweis
renational
fischerei
automobilindustrie
mitarbeiter
sources
federal
enterprises
conduct
highlight
labour
vermeiden
insofern
employees
palestin
disparities
begluckwunschen
wahrscheinlich
okonom
beabsicht
24
37
ack
around
ahead
blick
cen
dipl
fis
fift
glaub
hence
les
pflicht
rise
waffen
##nit
##nern
##to
##tran
##iated
##sachen
##oul
##klear
##gruppe
##bal
##bol
##mium
##itial
##isieren
initial
##anted
##ancen
##unsten
##reben
beob
##tei
einrichtung
einsetzen
nos
sogen
concept
gep
##iment
defen
vorhand
##ktor
##ffend
##laus
##sprechen
##pped
schrift
exem
konstru
arrang
fri
young
##undes
##gesetz
darstellen
programmen
programmp
complex
##ourriere
charta
##utzen
moreover
usa
laid
decourriere
rail
##regeln
anyone
socialist
competitive
committees
eingeh
standard
festgestellt
einzige
außerhalb
marg
internationaler
mitteln
##program
burgerinnen
##antwortung
praz
gebiets
institutional
straße
taxation
osterreichs
notwendigen
klaren
idee
vereinten
transfer
achieving
gestalten
##grunde
bewahr
controls
involving
bezuglich
negative
includes
moral
##schließen
stehenden
##wirkung
entschließungsantrag
capacity
ausdrucklich
dealing
definition
regelung
commitments
applicable
anfang
intends
beteiligt
kritik
nuklear
verkehrs
annual
truly
vorgeschlagenen
combating
weeks
##strukturen
##burg
sinnvoll
causes
##kommens
laufen
##stattung
defend
rapkay
immigr
verfolgen
kohasion
konsult
rechnung
uberzeugt
grenzuberschreitende
honourable
influen
allocated
determin
geleistet
republic
supervision
symbol
##austausch
enormous
besorgnis
souveranitat
ausgesprochen
erwartungen
susp
weapons
dezember
acknow
diplom
22
big
bundes
eh
eisen
gruppe
gipf
jene
kur
ov
pil
vital
##na
##uations
##uerung
##ca
##cement
##ec
##ever
##kop
##kannt
##gfalt
##zehn
##bel
##instru
##oned
##orted
##arken
##reche
town
##utze
unbe
zugleich
verlauf
ansch
stenz
forts
##hrend
erhalt
erfordern
constitutional
##oss
gee
geehrte
neues
auswahl
schussel
legen
abst
abkommen
##weig
willing
spent
##ado
##ellschaften
##tedly
manch
##zulegen
##ots
disp
quant
apprec
1993
##fuhl
instanz
##werte
freiz
hindern
##asser
mehrere
news
perspect
sitz
verbreit
anderem
##akte
regionale
supporting
gleichstellung
gelungen
effectiveness
bedro
extra
praxis
##gabe
industries
##ighted
osterreichische
attitude
putting
versucht
zahlreichen
technische
deutsch
zunehmen
verstark
aussprechen
elect
elements
sorgfalt
berucksichtigung
##gemeinschaft
##hold
zustandig
zugunsten
talks
hervorge
herausforderungen
shown
guarantees
totally
binnenmarktes
accession
early
starke
demands
krise
aktionen
codec
plenary
method
katastrophen
study
einheitliche
emphasis
befurwor
relationship
vereinbarung
bevorstehen
juris
sektor
demonstrate
diskriminierung
monopolies
century
wiederholen
minderheiten
syria
xenophobia
floor
malta
betrachtet
impression
einverstanden
ovp
01
26
age
edu
hund
lies
late
lay
mist
mund
rate
sent
uran
west
wanted
##umen
##uern
##cke
##ii
##lant
##mission
##wenden
##ones
##itation
##anagement
##stens
##ala
##reter
beweis
reag
eink
einigung
##rachen
##uting
##olitiken
haft
sto
prop
proport
former
formal
dagegen
##ders
alban
pras
geist
gekommen
##achten
mitge
deep
voran
vorange
vorred
coalition
separ
double
##ums
berger
arr
nachzu
##ipher
##zeigt
wenigen
worten
presidents
quot
##prasident
contro
china
mußten
consolid
damals
decide
outcome
##lose
nationale
nationals
keines
großere
economies
##regel
wichtiger
direkt
##nerstag
moglicherweise
standig
opfer
director
lob
lost
gleiche
greatest
gelder
march
##qualitat
##richten
geschehen
employed
responsibilities
leaders
##endence
resolutions
across
structures
positiven
personlich
involvement
improved
critical
letter
gewahrt
await
eigene
jeg
schwierig
wohlstand
wesentlich
erinnert
arguments
gedanken
lokale
modernisierung
popul
agrar
passiert
ubereinstimmung
zentral
innovation
challenges
##kommt
contains
familien
recognition
rapid
contradict
radical
verteidigen
summit
donnerstag
beschranken
roman
effektiv
links
claim
concentrate
tief
benachteiligten
##zesses
rassismus
golan
demonstrated
haufig
sympathy
falsch
schwerwiegen
adequate
conflict
##korperschaften
verleihen
programmplan
gebietskorperschaften
influence
##instrument
stenzel
codecision
educ
camp
dat
div
dub
hy
hit
ill
jem
jetz
ky
king
kmu
lis
letzt
mio
mission
neit
nort
ober
sagt
vot
volle
wachstum
##fug
##frage
##son
##hner
##of
##war
##erte
##eration
##nden
##itage
##ieht
##union
rechten
##icip
##iders
zustimmen
##old
veran
verring
anliegen
anlaß
weisen
##usi
##ush
forget
fordere
##gence
sole
alone
##osen
##bend
mitentscheid
##verw
##laßt
##spart
ability
abgeschlossen
herzen
heritage
alli
entt
entrepr
##ume
uberlegungen
frag
sprach
##etzung
##auer
unternehmer
##ielt
##ibly
beseit
managed
lik
adapt
appe
appell
##werten
warten
usw
police
mehrfach
##wohn
##licit
##ließen
großte
großeren
zusammenhalt
peripher
##schlage
solutions
gewisse
beschluß
gerichte
richtige
plant
welcom
##gendes
assure
considerably
##hoben
##ategor
festlegung
reden
gelangen
##zeitraum
einzigen
knows
board
marz
##beihilfen
fordert
##proble
join
##gangenen
##ziplin
transactions
ausgezeich
deutschen
involve
##gestimmt
verstarken
losen
israeli
begrußt
highly
reduction
reducing
zustandigkeit
depart
advice
##bauen
parteien
appropriations
fahrzeug
geden
widersp
##mittag
##gewicht
erwahnen
spielt
##bestimm
bekanntlich
erhohung
##systems
consequently
examination
##verein
historic
welches
umfassende
criticism
kohasions
aktivitaten
achtung
scheme
kampf
verhaltens
farmers
risiko
ausschließlich
begrenz
exactly
arab
##auftrag
perfectly
fluchtlinge
herzlich
ubertragen
eroff
return
jugend
außerordentlich
industrial
vessels
##anwaltschaft
glaubwurd
pilot
freizug
kingdom
neither
08
94
core
diss
halt
kop
kriminalitat
lauf
liste
nein
pen
rich
rational
tw
ut
wing
wide
##nimmt
##cis
##sible
##gelt
##dire
##vier
##yer
##zent
##meld
thurs
##onom
##atively
##itable
##itely
##isiert
##reb
##teen
##llar
##iget
reich
einhaltung
einrichtungen
##oph
unable
verweisen
##uls
anch
##geber
weaken
stimmt
##uses
eurod
erd
erzeug
prim
##ands
geber
parado
##imal
##ruh
##verse
desir
ausarbeitung
regular
##lagt
leicht
##bekamp
sup
entit
dollar
umge
##annte
spat
sprache
frist
heav
goal
disag
admit
facing
##rates
chancen
concrete
conclude
gemeinden
freuen
preis
rechtfert
landliche
##lines
syner
legally
respond
mitglieds
urspr
urgency
gewiss
gewalt
courage
##akes
amended
record
overcome
##fallig
round
bezahl
placed
requested
leave
added
ganzen
angekund
weiterer
##ribed
organised
resolve
versuch
beschaftigen
bringing
arbeitsmarkt
interesting
folge
##maßen
generaldire
starkung
gefahrgut
losungen
befassen
articles
glauben
mainly
barak
eurojust
vertrages
acceptable
schwierigen
pays
applicant
hervorheben
verloren
liter
experien
fehlt
zeigen
stadtischen
reflect
passed
aktionsplan
##leiten
behandeln
gerechtigkeit
##markte
eastern
konzentration
examine
pressure
emphasise
growing
scientists
##unternehmen
immigration
reinfor
impossible
balkans
kontrolliert
bemerkung
functioning
bilden
bestatigen
differences
consultation
networks
anwes
ordnungs
designed
speziell
burokratie
ethnic
fremdenfeindlichkeit
racism
##spartei
published
ultim
doppel
konflikt
lesung
defence
arrangements
deutschland
thursday
eurodac
paradox
synerg
ordnungsgemaß
abend
clim
candid
drug
kl
kre
klim
latter
mem
pse
ries
side
tenden
vig
##aden
##aign
##aktionen
##neten
##cel
##certain
##taus
##volle
##pay
##machen
thor
##inden
##atal
##iture
##anten
##anforderungen
##stad
##stelle
##reffend
bein
beforderung
bezeichnet
tool
##eden
##etter
zus
##ters
##usetzen
##einand
erreich
prime
##anden
consens
##osed
gehe
gepru
##verfol
##verantwortung
depr
vorab
coll
coup
near
auseinand
sehe
werk
##sprech
schad
##indung
##bele
umzusetzen
ubernommen
shap
polize
meant
berichte
spricht
spending
thereby
##aup
nachbar
amounts
finance
betont
##hersteller
durfte
faced
##ratic
chann
##ierende
landwir
##wohner
launch
##fuhrten
nationaler
situations
beschlusse
##rieg
geboten
##wirkt
minority
handel
peoples
koh
serb
##akis
competence
approxim
##angehor
behaup
informed
financed
aids
fallt
wirklichen
##struction
generally
speculative
wichtigste
energien
##ighten
taxpay
confident
bedeuten
klare
realise
positions
continuing
transl
komme
gestatten
ausgehen
necessarily
balanced
kulturelle
budgets
versto
contributions
loss
israelis
follows
volkspartei
environmentally
eingefuhrt
investment
investitionen
zustandigen
judgement
plane
erforderlichen
##orgung
engagement
introduction
beziehen
protest
akzeptiert
lokaler
fehl
holz
applying
unabhangiger
typ
ready
wunschen
multi
meaning
behandlung
planned
technology
##kosten
sixth
einbezogen
erarbeitung
terron
verfolgt
infrastruktur
##entscheidungen
lux
vorbereitung
schlimm
nachhaltige
equally
briefly
erzielen
trying
schemes
volun
eingebracht
jungsten
explain
occasion
apart
verhaltnis
prosperity
recognised
verabschiedet
credibility
greece
punkten
condemn
existence
versichern
advisers
illegal
margin
immigrants
campaign
enttausch
kohasionsfonds
freizugigkeit
ursprung
gepruft
auseinanders
02
27
apr
druck
daten
gd
gas
klass
sar
send
ton
vice
##tag
##rungen
##richen
##kur
##viel
##ximum
##zut
##mann
##atte
##atischen
##atik
##attet
##itate
##ief
einig
unless
##ammen
verwendet
verlangen
anzahl
##lichung
erf
ergeben
erleicht
##anderung
gezogen
aufnehmen
##dellen
##achsen
##vertrag
vorlage
ausger
ausreichen
ausweit
maximum
sele
##spiel
schien
##ateful
##ivity
##beauftrag
sichern
entail
##umm
ubergang
uberzeugen
konzept
##ungsver
##ungsentwurf
berend
berlin
spreche
##halte
reserv
unternommen
nachste
manag
##ranational
heim
compon
dism
wurtz
obst
berichten
zwangs
##ocol
conserv
consistent
implic
solange
gewiß
##regierung
programming
hands
handels
vielfalt
insist
unterstutze
##vorschlage
expend
eingere
governing
relates
scand
financing
treatment
rechtsstaat
angewand
presentation
lastly
austausch
afford
evening
strategischen
antworten
produced
laws
afric
continent
offentliche
besonderen
einzelstaat
lebensqualitat
gefahrlicher
stadten
helping
barr
restru
signed
dienststellen
reply
brok
defined
kleine
langu
lebensmittelbehorde
excluded
motor
company
friedensprozeß
nutzung
##bildungs
krisen
announced
remains
energietrag
gegenwartigen
entscheidenden
entscheidende
fruher
fruheren
bemuht
198
diskussionen
happening
bearing
##ricted
erfahrung
dutch
organisationen
##speriode
genugend
trotzdem
gewahrleistet
reconstruction
donors
angst
sektoren
beschrankt
topical
easy
pollution
unzul
professional
block
exception
hinzufugen
vollstandig
##bestande
forestry
altfahrzeuge
territorial
bureaucracy
horiz
bietet
vorsitzenden
alternative
diversity
convinced
diesbezuglich
grunen
botschaft
mittelaus
excessive
exercise
##gestellten
degree
infrastructure
akteure
vorangegangenen
jemand
anchov
supranational
anwesend
thorough
consensus
april
implications
23
45
aver
bom
domin
hop
lines
leinen
miss
merg
none
pin
pat
pill
phil
russ
range
sv
wal
wand
writ
zerst
##uff
##ties
##eben
##sh
##oon
##komp
##kandidaten
##pet
##brauch
##mine
##erous
##erves
##ura
##urance
##ichert
##ars
##asse
##ingesch
reaction
einm
##elassen
unf
island
zugrunde
annehmen
wirken
wege
##ischung
erfahren
price
##ande
enh
##osoph
paralle
auft
auftrag
vorstellen
vorliegt
neun
section
##spe
schlagen
aband
abgesehen
##ival
##bew
sieht
entstehen
europeans
##endes
##ehe
spater
##aumen
##advant
##under
wasser
steig
counter
betrachten
##ranken
worst
disziplin
disadvant
appoint
durchzufuhren
politic
politischer
prem
prefer
##ikation
##merken
hierzu
gegensatz
gegenseit
issued
perman
subsequ
erwag
wohn
gebeten
feed
minorities
insel
serve
says
unterstreichen
##ired
außern
##vors
explo
explicit
einger
##steuer
gemeinsamer
##alisiert
wirklichkeit
boost
tatig
interregion
##etenz
halb
wants
strategies
dram
speculation
resolved
foder
wichtiges
attack
notwendige
##jected
debatt
gestaltet
valid
secure
irre
qualified
smes
elimin
entschließungsentwurf
##moglich
kurzfrist
instrumente
signal
besseren
reduz
closely
zustandigkeiten
depth
judges
vorgehen
grateful
schwerpunkt
speaker
paying
understanding
starting
offenheit
wesentliche
allgemeine
##ausschusses
built
retro
protocol
anstatt
belong
fehler
modernisation
vorgeschlagene
kunftigen
vorgesehenen
bevolkerungs
vorliegende
##grenzen
expectations
devisen
drawing
surely
sensible
fortschritt
genuine
##bourg
failure
##behorden
verpflichtung
welcher
radik
##jahres
details
gefunden
declared
stahlindustrie
easier
verbindung
gesprache
check
bestatigt
bedauern
rechnungs
grenzuberschreitenden
drogen
beantragt
mittl
##gebiete
mandate
inspection
grundlegende
sozialdemokratischen
juni
geographical
speziellen
occasions
uneingesch
verursacher
timet
beamten
sturme
shared
##organisationen
target
einwanderung
original
tackle
constant
mechanisms
befugnisse
nennen
recovery
chairman
gegebenenfalls
palestinian
fifth
##nitt
vorhanden
konstrukt
manchmal
vorredner
##verwaltung
##spartner
entreprene
##bekampfung
entitled
candidate
##belebung
obstac
expenditure
africa
restruct
mittelausstattung
philosoph
uneingeschran
31
34
33
82
bind
bolk
cle
du
ed
fle
ging
jap
mach
nation
niel
niveau
pf
swo
tor
vir
vision
widen
zer
zehn
##avour
##uben
##fft
##sehen
##lore
##lik
##oin
##ound
##ding
##pre
##bon
##ernen
##chsel
thous
##inter
##athol
##itra
##ison
##orgt
##orous
##arch
##stim
beide
behrend
beiget
##oming
rejected
einf
einw
einerseits
##ract
unw
uncertain
zuges
##oler
anze
angest
stunden
stunde
whate
##hrt
##bericht
##ille
##ereien
ones
##ierter
gezeigt
mitteilen
notification
ausgest
ausgaben
auswirken
schlage
schlagt
exter
##behalten
##ungsverfahren
##sence
fran
resum
##sebene
nachmittag
##auso
##ables
##abkommen
besitz
##kennt
##agne
worse
##oto
comply
compla
goals
quote
ratifiz
genauso
speed
hinweis
hinweg
justified
rechtsprech
incident
##staats
stren
##tsein
##lined
poetter
intentions
intoler
debated
becomes
decis
##periode
accomp
accounts
evans
gerichtet
jahrtaus
##aufgaben
minute
sicherzustellen
series
bereitschaft
##pected
actual
##hlen
##vorschlag
provides
finanziert
wiederver
wiederbelebung
politically
scra
informieren
yourself
name
festhalten
roth
reding
##actory
loy
gelingen
abgele
bound
##mittelt
forderfah
sinc
##worfen
etc
citizen
straft
prevention
afr
aftern
bringt
##gleichheit
strukturen
bestimmter
ministerrat
starksten
kollegin
freedoms
steuerzahl
operational
befaßt
papier
capable
restor
smaller
vorgelegten
simpl
planung
distort
innere
inneren
opening
verlangt
haushaltslinie
shows
retain
bezieht
feeling
preventing
gedacht
##zielle
dimitra
calls
##tragung
binnenmarkts
unabhangig
funktioniert
wunsche
option
fourth
ambition
participate
erwahn
aufgefordert
phare
greens
fischler
##laufig
happened
wirksame
obligation
obligations
sagten
encouraging
families
familiar
karas
kartell
extending
contract
postp
undertaking
undertaken
##nehmern
##nehmbar
##boda
higher
tanker
verdient
clarity
nachhaltigen
tradition
sicherheitsber
diskriminierungen
unterbreit
unterbreiten
checks
inequal
spanish
ordnung
erneuerbarer
##gerecht
nachdrucklich
incorporated
june
uniform
wiederaufbau
okologischen
betreffenden
beitrittskandidaten
untersuchung
##while
sachverstandiger
keinerlei
meeres
interventions
distributed
griechen
learn
solcher
ungluck
extension
texts
evaluation
##kontroll
samtliche
anpassung
niedrig
##estein
explanation
##transp
##oulos
##bald
friend
##kopoulos
perspective
einklang
lobby
education
dublin
kyoto
votes
glaubwurdigkeit
##viertel
gewisser
climate
luxem
sardellen
##beauftragten
dismant
energietrager
average
mergers
permanent
bolkestein
japan
swoboda
##ointed
behrendt
beigetragen
whatever
poettering
dimitrakopoulos
bse
bip
biß
base
bret
eag
gult
gap
kinder
liss
om
path
sides
wit
wann
written
zoll
##netz
##niveau
##ete
##iating
##hm
##hib
##hase
##oben
##gung
##bie
##bahn
##mutz
##wagen
##ering
##erved
##esten
##atoren
##iele
inzw
##alter
##rep
##rebt
tod
##ash
##ller
rechen
react
reichen
reiter
##rafte
unn
unm
verh
##schreiben
##vey
stol
whom
sobald
erlau
erfre
diesel
gek
auftreten
vorsicht
vorhin
ausweis
ausnahme
ausbildungs
regime
##thand
seien
seix
##spekt
##spolitiken
demont
abstimm
abbau
europaisches
moving
suchen
allzu
umstruktur
##ump
uberall
##ifun
meps
presence
tagen
oral
commer
hours
##ureich
##abon
darge
##ipt
##zeprasident
finde
wenige
worry
##otti
complement
qua
genutzt
rechtlichen
proposes
vertie
debating
begonnen
weitgehend
##cedent
underlying
feas
wirtschaftlich
##akzept
facts
mogliche
welchen
welthand
markte
wiederher
gemeinschaftliche
##hood
possibly
basically
kommissare
interregional
danischen
bekraft
schafft
mittelstand
geschieht
angewendet
anticip
##acter
regierungsbildung
entscheidend
realitat
numerous
respects
gutes
##grundlage
dienste
folgendes
turk
bewaltigen
politiker
promised
enlarged
verstehe
erfolgen
norm
sets
umfass
##zeichen
befind
raumes
##strom
kurzem
kurzlich
restricted
corresp
highest
investments
reduced
closer
vorsitz
zugelassen
advoc
media
schwierige
wahler
character
ergriffen
openness
marktwirtschaft
referring
anfragen
introducing
##zahlt
assistants
bekampfen
calling
privat
beteiligten
unabhangigkeit
kennen
##ehrten
multifun
changing
ubrigens
entscheidender
increasingly
##bereiche
independence
erhohen
jedenfalls
einzufuhren
voraussetzungen
individuals
vizeprasident
verhindert
obliged
nahe
bildet
lautet
contained
potent
erarbeitet
carrying
empfehlung
staatsanwaltschaft
festgelegten
##body
impose
entirely
##verbind
garantie
bilater
erkennt
irgendein
linked
inev
uberzeugung
erneuerbaren
concentration
firmly
proceedings
xenophobic
pursu
associated
christian
christdemokrat
auditors
bureaucratic
constitute
spekul
granting
militar
verurteilen
described
remarks
##freiheit
##politischen
jahrhundert
convenience
substantial
envisaged
acquis
ereignisse
package
reaktion
veroffent
langfristig
beabsichtigt
fisher
gipfel
fortsetzen
jetzigen
lisbon
gedenkt
chancengleichheit
gefahrguttransp
polizei
gdp
ausweitung
angewandt
language
horizont
anchovy
parallel
debattieren
rechnungshof
timetable
einwander
abgelehnt
afternoon
bißchen
lissabon
inzwischen
seixas
38
48
700
85
96
ahern
cad
came
catastrop
cusi
dict
dyn
fro
fah
funkt
fix
grat
kan
lives
lama
mun
mism
nine
nether
pak
tem
tut
treten
tragt
uk
vast
wat
wto
##affung
##uv
##flag
##ton
##ris
##rut
##riment
##iber
##iable
##sc
##hort
##lern
##lings
##krit
##yc
##zul
##mo
##macht
##67
##atische
##ita
##orte
##orient
innen
inade
##stoff
##ente
bewer
told
##tete
anders
##igend
regen
einfuhren
##icate
unit
##iday
zufolge
verhe
##ulich
ante
anzunehmen
weight
##tert
stich
##using
forg
forst
soeben
conver
gewerk
geandert
aufzunehmen
##achtet
co2
auseinander
##theit
##lager
werten
abander
moura
##bewertung
uberaus
unsicherheit
konstitution
##ungszeitraum
##endet
internen
unterzeichnet
##iens
##ußtsein
nachvoll
geste
fine
betreffend
parlamente
##ott
compuls
liable
adri
fakt
sake
##iour
##icks
indik
indire
chin
child
##werks
conclud
warm
spezielle
grundlich
considers
##assern
offiz
##stellungs
entweder
uphold
begunst
##ferences
großem
großten
2001
ursachen
termin
richter
verbrech
anderungs
worked
wirtschaftlicher
somewh
##gebaut
sozialisten
sozialfonds
proved
supports
berecht
behav
##steuropa
considerations
ports
remo
##ungsantrage
##feil
##proje
bedurf
selbstand
wollte
ziels
##reize
drast
verantwortungs
verantwortlichen
beitrage
demokratisch
examples
valent
detriment
starkere
qualifiz
freiwill
procedural
precise
operate
regierungsche
##zwungen
allowing
allowed
advant
medien
definitely
wahlperiode
008
centres
offenbar
##leistung
erganz
marktes
##fachung
verlang
##gehende
stattfinden
akzeptabel
gesetze
wissenschaftler
158
privile
hochst
reaching
stadtviertel
unabhangigen
earth
multip
changed
aspekten
bemuhen
erscheinen
metho
britischen
zentrale
gremium
##front
harmonisierung
mannern
erwartet
gemeinschaftsinitiativen
emb
eventu
opposition
opposite
hintergrund
praktisch
karl
vereinbarungen
adoption
franzosische
undertake
strengthened
repeated
products
mutual
argumente
tankers
betrugs
betrugereien
exclusively
belgium
amerikan
partnerships
clarify
roma
vermittlung
bedauer
vernunftig
vernunftige
anzuwenden
konserv
italienischen
satisfaction
erzielt
angebracht
sitzungsperiode
ernsthaft
unzureich
professor
finnish
gerne
running
univers
isolation
gesundheits
einschrank
protecting
parlamentarischen
genehmigung
sachverstandigen
ahnlich
enforcement
disappear
observations
bieten
reichtum
appears
vermittlungsausschuß
figure
figures
betriebs
endgultigen
benotigen
umstanden
accidents
##katastrophen
decentralised
##hafte
sogenannten
exemption
determination
acknowled
kurze
towns
verbreitung
reagieren
haftung
nachzudenken
directorate
hitler
appeal
##vereinbar
kopf
heavy
disagre
ultimately
klima
couple
landwirte
zwangslaufig
pinoch
obstacles
restructuring
nielson
thousands
accompan
steuerzahler
commercial
umfassend
dynam
funktions
netherlands
waters
compulsory
somewhat
behaviour
400
90
dala
fus
fil
fach
gl
hur
jul
july
match
nahr
pact
sal
slick
trifft
via
zone
##nel
##uens
##fang
##cas
##rate
##ef
##ean
##ior
##ike
##iary
##sman
##saktionen
##hem
##kre
##kult
##griffen
##dauer
##pest
##pflicht
##bank
##bart
##bruch
##jud
##itten
##itative
##itably
##isite
##urfen
##unruh
##reck
##reib
beur
beacht
beunruh
##temp
##ingu
reass
eint
##raucht
##utung
unklar
islands
zukommen
zulass
zuletz
verweig
anhang
anhalten
anhand
ansprechen
anreize
##gegeben
##geordnete
proof
##lichem
formen
##beruf
##issions
noted
##derung
##dergrund
sofern
ernen
erweisen
erteilen
##osp
gefall
vorzunehmen
vordergrund
nichtreg
##ktiv
ausmaß
ausgel
auslaufen
##spunkt
##sphase
schuld
demag
leiden
exists
expected
##ahme
abstimmen
abgestimmt
modell
##beben
##beweg
uberlegen
shift
##ungsaustausch
##endung
interf
interim
beraten
tage
spur
spend
##aufen
hoher
resign
unterlagen
##gested
##gesellschaften
stell
betrieben
##enswert
##herent
##ques
##agand
beihilfe
compar
seines
##ptions
##abled
chap
concluded
##standing
durchsch
durchsetzung
genere
genannt
##apital
freien
frequ
whatso
incent
income
incomp
##linary
##uche
##assungs
entschuld
entschad
mehreren
##woch
becoming
hierfur
großes
zusammenh
zusammenhalts
firms
perspekt
entwicklungen
urteil
evident
evidence
gewun
gewinn
verbot
gebill
minuten
sicherstellen
insurance
competences
acting
traff
marked
expert
zeitplan
wiederum
seeing
staates
relate
relatively
feststellung
festzulegen
room
##active
remit
lieber
abgegeben
mittelpunkt
millions
angeht
legislativen
ablehnung
##legte
formation
##arenz
##reift
energies
verschw
##handeln
##handlungen
owners
schwachen
klarheit
versicher
teilweise
erweitert
zahlt
##selbe
cooperate
verwenden
gestarkt
ziem
turning
zusammenarbeiten
##zieht
located
countryside
represents
guidance
requirement
contributed
volkes
collective
niemals
eingeleitet
advance
aktive
interessiert
essentially
subsidies
rufen
wesentlicher
##orgungs
dankbar
erinnerung
engag
stattf
##berecht
endeavour
lacking
privaten
zweifels
benef
leading
previously
truth
infring
##wegs
monitored
kritischen
vertretern
bisherigen
folgende
phys
##grenze
erhoht
stressed
randz
harmonisation
identitat
presse
dritten
suggested
armsten
praktiken
break
##fertigt
erarbeiten
substance
constructive
extended
staatsangehor
enthaltenen
verteidigung
legitimate
vorsorgeprinzips
paar
demonstration
verabschieden
umfassenden
garantien
garantieren
visible
effektive
bedauere
irgendw
supply
flags
korre
immediate
geleiste
##vertreter
minderheit
sozialdemokraten
incorporate
slow
slight
confirmed
verbundenen
subsidiaritatsprinzip
untersuchungen
elsewhere
jenen
tarif
berufs
unanimously
wachsam
kontinent
stocks
respektieren
wahrungsunion
distribution
##spolitischen
waiting
spezifischen
emergency
weakness
deadline
massive
unmittelbar
disciplinary
interinstitution
appreciate
hindernisse
hervorgehoben
bevorstehenden
propagand
quota
northern
alliance
likely
welcomed
departments
dissem
erdbeben
confidential
selection
abandoned
virt
decisive
afrika
witness
rechenschaft
stolz
correspond
mismanagement
##kriterien
verbrechens
einschrankung
pinochet
dalai
juli
zuletzt
nichtregierungs
whatsoever
29
42
500
86
95
agen
agency
bb
bour
c4
cam
col
cust
cert
dingen
ey
ech
echte
fit
felt
gig
getting
ham
jac
kunst
lose
lesen
mu
pad
rot
went
wed
ziff
##aure
##nungen
##nore
##ript
##sider
##hme
##ground
##dring
##dienst
##pus
##pot
##bit
##miss
##wesen
##joy
##ermaßen
##iny
##inational
##ather
##itel
##isms
##oral
##orse
insec
inkraft
inakzept
##ana
beweg
beweist
##leun
derer
##lling
##igu
einwohner
##rad
##rain
unne
##ette
zuvor
verank
anx
anhor
angaben
anschließen
##gef
##geordn
stream
whil
prove
proud
forum
davor
##ilater
denjenigen
##ischem
erle
erleben
alte
imag
enjoy
gehalten
gefahren
gefallen
dasselbe
##imer
death
vorstellung
voraussch
esf
nehme
notig
ausgeschlossen
mad
maast
sek
seven
##spru
schreiben
lehren
abol
##ivitat
herzustellen
moder
willens
##behand
##befug
entry
entsteht
##lieben
uberlassen
fragest
konne
##ifest
interne
taus
tacis
sprachen
atlant
fried
##auen
resident
##abling
##ordan
steu
manage
manifest
##ranten
disabled
quoten
faith
failed
obgleich
durchge
politisches
arbeitnehmern
offers
##fuhrungs
##licken
hierbei
gegenstand
perpet
subvention
##schlagen
##arbeits
endorse
beschl
beschleun
jahrlich
richten
reformpro
gebu
##ißen
plath
kost
anderes
sozio
moglichen
##gebracht
finanzmittel
stands
governmental
##setzungs
##getragen
ausschussen
relativ
scrut
considering
entwicklungspartner
gleichstellungs
gelingt
abgeben
believes
einzur
einzusetzen
marin
leaving
angewiesen
bedienst
bedaure
persu
persons
strategien
strategische
weiteres
forming
##finanz
verschle
bedeutsam
beschaftigt
ideen
##lauft
##parte
autor
regulate
transit
opinions
debates
achievement
arbeitsweise
flug
ausgehend
risiken
deutliche
negativen
wettbewerbsrecht
bestimmt
represented
##sprozesses
offentlich
looked
##going
berichterstatters
democratically
favoured
borne
verstarkt
erfolgt
gefahrlich
contributing
umfaßt
umfeld
followed
baron
periodic
corru
corpus
deplore
repla
##fahig
vorgehens
##ulationen
schließen
amsterdamer
hilfs
practices
geregelt
##bedarf
manufacturing
ignore
aimed
peaceful
001
007
002
offences
ergibt
erganzen
hervorragen
successfully
referend
verlust
engl
english
rucknahme
verschiedene
excuse
anstehen
grundsatzen
grundsatzlich
##zustimmen
schiffen
started
multinational
trust
aspir
##zusammen
drafting
1967
##markten
anerkannt
verstanden
graca
careful
##ifizierungs
identify
einheitlichen
benefits
merit
##langes
angenommenen
surround
strafverfol
stake
prinzipien
define
sheik
fighting
kernkraft
mißbrauch
212
exchang
posting
reconcil
reconsider
kommissionsmitglieder
declaration
##normen
inhaltlich
stahlbeihilfen
roads
kontrollieren
sanctions
sanktionen
erfullt
lower
visit
supposed
entsorgung
differenz
geltenden
maintained
satisfactory
network
anwenden
correctly
korru
olpest
##freund
inflation
polluter
genugt
mittwoch
worthwhile
intensiv
beamte
uberprufung
sturm
affects
ungleichheiten
neighbouring
classification
destro
listening
widmen
wachsen
##greifende
verwirklichung
078
facilitate
convening
griech
leistungen
konsequent
spoke
kooperation
zutief
ideology
##kontrollen
occurred
konigreichs
unerlaß
##nesday
##katastrophe
american
stipulates
fasc
einstimmigkeit
erortern
abhangigkeit
interinstitutional
compensation
schriftlich
eingehalten
jurisdict
012
hundred
proportion
jegliche
data
verringerung
mitentscheidung
ausgezeichneten
##bestimmungen
begrenzt
twent
##rebungen
primarily
riesige
erreichung
shaping
launched
approximately
taxpayers
types
tonnes
##zutragen
schiene
components
eingereicht
rechtsstaatlichkeit
unzulang
politicians
mittleren
binding
uncertainty
rechtsprechung
forderfahigen
erwahnten
griechenland
demontage
umstrukturierung
feasible
welthandels
pursuant
fisheries
##modell
regeneration
convergence
konservativen
##kultur
durchschnitt
ziemlich
randzio
propaganda
nichtregierungsorganisationen
agencies
bbc
bourlanges
wednesday
inkrafttreten
unnecess
whilst
maastricht
fragestunde
zutiefst
55
bon
breit
cl
dran
dritte
doss
fassung
gang
gelt
gaz
gunst
gama
len
lat
mig
mere
oct
phas
push
pfeil
rang
sett
tritt
targe
won
wise
wod
##acy
##ns
##ux
##uft
##fare
##rige
##eg
##sit
##seh
##svoll
##liste
##greifen
##vent
##vest
##pte
##bud
##batte
##wing
##waffen
##enar
##ening
##erweise
##ony
##estens
##espo
##atern
##atically
##iegen
##oration
inhab
##icherung
##any
##reibt
bewirken
bewegen
tough
##teten
##lles
undo
##ignete
einkommen
einberuf
##raumen
##iced
##ications
unann
unpre
##olib
##olution
verteilung
veranderung
##ulted
annah
anmerk
weist
streit
##usal
##usagen
dahin
euros
##ilen
##erequ
denied
ongoing
soweit
erlassen
prices
prerequ
immen
image
gebe
gelegt
geziel
##debatte
aside
asia
mitwirkung
##verhalten
##verhandlungen
vorg
vornehmen
vorgenommen
vorstellungen
ausde
ausnahmen
ausgleich
ausstellung
ausgang
mai
mak
maxim
seg
##spra
schlag
exec
abfalle
abgere
abkommens
##weif
europaer
herange
willkommen
##beziehen
sums
sieben
entfern
##umer
uberdenken
ubermitteln
sharm
konsens
##annual
interference
tagt
attend
##haltet
combin
##ades
##grad
##sektor
amts
darlegen
darunter
gesichert
partly
##herr
wenden
##quote
beibehalten
quar
quast
appar
##runde
1990
contact
wenngleich
chem
chosen
concent
ratified
freie
freund
prejud
rechtzeitig
grundlagen
string
mitgliedern
offices
begun
##losung
großt
##ordnungen
economically
themas
gewicht
beschließen
importantly
richtigen
gebraucht
kodex
sozusagen
competent
unterstrichen
##hlt
##igerweise
approving
##ignet
explos
finanzierungs
finanziell
finanzmarkte
wiederho
##bewerber
##xtre
recall
gemeinschaftsebene
overlo
seeking
scenar
entwicklungspolitik
gelost
wirkliche
einziges
internationally
bislang
##ildet
besteuerung
naturkatastrophen
presents
##produ
lasten
##ribute
ablehnen
##areness
##ologie
institutionellen
##handel
##handels
owner
taxes
beitritt
vorschlags
demokratischer
autonom
continued
seitens
beispiele
unternehmens
technischen
zweiter
integriert
finding
##ziele
negativ
irish
irresp
einzelne
stehende
rapporteurs
zukunftigen
gemeinschaftsrecht
operating
befindet
accountable
israelischen
##mogliche
capita
delighted
crespo
restore
collection
zuruckzu
zuruckzufuhren
gewahrleistung
awareness
judge
zugute
vertrauens
mediter
hilf
definiert
verbessert
condition
meetings
funfjahres
erfolgreiche
centralised
verlieren
verlassen
haushaltskontrolle
fahrzeugen
freiheitlichen
motions
completed
preparing
verhandlung
unabhangige
refle
refers
demanding
options
asylbewerber
family
remaining
hinausgehen
kunftige
gegenwartige
erschein
erscheint
komplex
##bereichen
zentralis
studies
untersucht
##systeme
devast
shipow
linken
consequence
obligator
tourismus
technological
encouraged
eventually
oftmals
enormen
duties
##aumt
praktische
oldt
mißverstand
strongly
fields
strengthening
eingesch
tanks
angriff
declare
delays
significance
limits
belgien
focused
recommendation
criticisms
turned
blind
transnationalen
kommunikation
sufficiently
happens
erhebliche
##herence
volume
beantworten
augenblick
drittstaaten
drittlandern
inspections
finnischen
grundlegender
toleranz
tolerance
geographischen
poorest
explained
wiederaufnahme
detaill
vorrangig
timber
##betrie
uberpruft
altfahrzeugen
apolog
eigentlichen
jener
zivilgesellschaft
niederlanden
racist
vorsitzende
strafrechtlichen
unanimity
destru
##greifenden
verwirklicht
hoffnung
bauen
gewahlten
geringer
jahrhunderts
seekers
schreyer
spoken
kooperations
delivered
verletzt
verletzung
mechanismen
suffered
beeintrachtigen
choice
##sprogrammen
##sprogramme
palastinensischen
veroffentlich
disposal
decentralisation
kompliziert
interpretation
rigorous
einstimmig
erortert
withdraw
dienstleistungsausweises
##programms
verlaufe
geeignete
abstain
extraordin
sorgfaltig
uranium
prasent
mitgefuhl
arrived
controvers
consolidate
keineswegs
contradiction
schwerwiegende
solely
beseitigung
peripheral
##problem
laufe
generaldirektion
vigil
beinhaltet
collab
koharenz
behaupten
volunt
ursprunglich
pillar
unfair
kurzfristigen
constantly
entrepreneurs
jahrtausend
sincer
sicherheitsberater
unterbreitet
friendly
dismantling
##bieten
erlauben
ausweises
worrying
quaest
befindlichen
##lagerung
chinese
disagreement
demagog
resignation
custom
gigant
insecurity
entwicklungspartnerschaften
surrounding
sheikh
october
targeted
wodurch
unannehm
wiederhole
mediterran
47
60
75
98
b5
bir
buch
britt
bird
ce
categor
cns
ded
elles
fate
fasch
hom
ite
kn
kurs
kategor
kranken
lib
lag
lond
mus
musse
ng
netz
nomin
okt
pie
pension
roll
ster
tren
temp
wind
wille
zent
zones
##aug
##nup
##ule
##fassen
##rich
##rid
##ex
##ij
##iat
##ipped
##hous
##oz
##kr
##kan
##krieg
##kapital
##gely
##det
##dien
##dok
##vis
##pla
##poc
##pak
##pare
##yp
##yed
##zid
##ba
##bl
##brit
##ming
##69
##25
##ense
##enue
##enzen
##chnen
thys
##atible
##atures
##itag
##itary
##urate
ing
##anon
##ancy
##alist
##alitions
beweisen
touch
##leted
##asent
##asche
##aspe
##rochen
##igent
rechnen
##raften
##opard
##opfer
##uts
##uttel
unre
unmoglich
##oles
verteilt
verandert
angleich
anschließ
##schad
weig
wechsel
hav
stance
stopp
prohib
forced
##isses
soul
sought
erk
erwer
erlaub
enabling
##osition
##osystem
gewer
gearbeitet
paris
param
aufer
aufricht
auffordern
##decess
miteinander
##verfahrens
vorgaben
vorgetragen
cox
deserve
deserves
notice
##thal
##think
##lad
##spflicht
##pping
sched
schein
schicks
leban
absence
moge
sicherung
entf
umsetzen
umgehend
ubertragung
##ungswurd
##ungsstelle
##ifik
interested
##ehnt
sphere
arten
##etzten
fristen
friday
youth
hour
hohere
hoheren
residence
unterzeich
hatzid
##ienen
##ibungs
##sextre
nachdenken
gesicht
geschen
gesellschaften
##aglich
complic
statist
1992
##stande
zwingen
freude
usd
hinnehmbar
prepare
predecess
rechtlich
rechtsextre
tranche
##ikistan
arbeitsprogramm
grundwerte
strik
monat
damaging
##ubtedly
##sichtlich
laan
##gani
initiate
communit
großteil
großbrit
raising
perform
2005
entwickelten
gewinnen
understo
geraten
gerichten
feels
minim
plus
##atzung
koalitions
insuff
bereitstellung
someone
##akten
track
welfare
##vorhaben
nato
expand
##fold
standpunkte
agrees
seeverkehr
assum
relig
relative
informiert
menge
bases
loben
gleichgewicht
remove
geltend
außerungen
book
taten
tatigkeiten
##etenzen
geschle
geschad
presenting
inclusion
persistent
umweltkatastrophe
generate
wollten
zielsetzung
##klart
organen
futter
antrage
processes
verschar
verschoben
straight
straßen
schwere
schweren
attent
attra
austrians
confusion
ideal
membership
vereinbart
transition
fuhrung
komment
gestaltung
flow
integrierten
numbers
##maßigen
##maßigkeit
transportation
looks
einzelheiten
gesamtheit
entschließungen
raumordnung
accountability
recycled
background
crimes
##management
mindestens
##ressourcen
gewahren
allows
deploy
depleted
gargani
jeopard
meda
schließe
acceptance
ansichten
interessant
lessons
payments
erfordert
negotiating
langsam
haushaltsjahr
retire
beziehe
verschiedener
kinds
experten
guaranteed
harmful
schutzen
wissenschaftliche
vehicle
##comings
oppose
keen
trend
##gewiesen
powerful
##zusehen
erschop
kompetenzen
gerechtfertigt
britische
zentralen
##grenz
societies
##itzer
verstandlich
studien
ausfuhrlich
doubts
mehrheits
accordingly
einzubeziehen
bitter
derartigen
untersuchen
identity
identified
entered
devoted
abschaffung
erwarte
played
organisierten
dringlichkeit
emissions
examining
shortcomings
requests
survey
sensib
##ricts
befurcht
befurchten
haupts
bildungs
relev
##statigkeit
ermoglicht
coordinate
schneller
breite
elemente
severely
substances
dokumenten
immigranten
honest
doubtless
movements
observed
sechsten
founding
delayed
lucas
belgian
topic
##verbot
schlussel
easily
traditional
blow
0104
0105
0107
hull
holds
holding
suggests
suggestions
zuganglich
wunschenswert
ratsvors
banks
wiederholt
kampfen
exceptions
beruht
grundlegenden
syrian
eingebrachten
purposes
vollstandige
angemessene
banotti
kuste
pursue
verursachen
worthy
unterschiedlichen
alongside
sympt
authorised
parlamentarier
genehmigt
effiziente
disappointed
recognises
neighbourhood
largely
strictly
079
greek
##politische
existenz
gewahlte
attempts
leistung
testing
evalu
attached
investigation
benotigt
safeguarding
beeintrachtigt
behinderten
gained
voice
ermut
erlautert
beratung
frontiers
discipline
stipulated
280
verzogerungen
renationalisation
renationalisierung
beobacht
laufenden
acknowledge
diplomatic
zunehmende
befurwortet
romano
programmplanung
hypoc
illust
##meldungen
bezahlen
##atalog
deprived
werksto
channels
translation
multiannual
auseinandersetzen
gasolib
manager
einzelstaatlichen
barriers
missing
##kompetenz
steigerung
disadvantaged
appointment
explicitly
validity
verursacherprinzip
vorhandenen
philosophy
besitzstand
straftat
ombud
##mutzung
dargelegt
##cedented
christdemokraten
cadiz
gratul
temper
##orientierte
inadequate
gewerkschaften
konstitutionelle
nachvollziehen
children
anderungsvorschlage
removed
regierungschefs
advantage
earthqu
unzureichend
beachtung
ernennung
chapter
perspektive
interinstitutionellen
confidentiality
echo
##missible
##behandlung
##arbeitslosigkeit
reformprozeß
marinho
bediensteten
autoritat
exchanges
stahlbeihilfenkodex
jurisdiction
unnecessary
undoubtedly
einberufung
unprecedented
tagtaglich
quastoren
scenario
shipowners
oldtimer
sincerely
quaestors
mediterranean
brittany
categories
items
london
oktober
hatzidakis
großbritann
understood
insufficient
gasoliba
ombudsman
32
bi
bann
bay
bran
breiten
cop
cast
ceil
dun
drop
estim
fand
fert
gulf
hide
horen
hangt
hosp
ku
kauf
kandidaten
kna
leng
lyn
mur
messen
math
oh
osteuropa
pet
rh
raft
ruf
sj
sem
sau
sad
setzt
size
tisch
vint
wom
wro
wiss
wall
##abe
##uable
##fun
##fle
##co
##cal
##cent
##rent
##sk
##ses
##swert
##hear
##lers
##ole
##oth
##overs
##glich
##vision
##vii
##yers
##zicht
##zial
##ma
##mar
##wass
##enig
##ery
##erzeug
##ches
##inely
##indern
##esh
##atin
##atigkeit
##iting
theor
##ieg
##iety
inland
inwie
##ane
##anw
##anke
##alous
##regen
##reted
bege
beein
bezeichnen
beef
##omanagement
##legend
dereg
##asbourg
##ingung
##edt
##edy
##emal
##ira
reibungs
einraumen
##raid
ungen
unrecht
unfalle
unregel
##idge
zusch
zuver
zufall
zuzustimmen
versteht
verehrten
##ulated
##ulicher
ank
anne
anteil
angel
##geht
##geist
##schi
##schrift
stable
stutzt
whist
prospect
proactive
##illed
denk
erh
errichtung
erteilt
erweist
errungen
diesmal
enl
enrich
geforder
geplan
gezwungen
auff
##achlichen
##rum
mitzu
##verk
departe
vorn
vorank
coherent
coherence
##ills
nepot
##kture
##ktron
desper
##ffiz
ausub
ausgesetzt
auslegung
sex
##spap
##spakt
##kept
schwe
leute
export
abges
abfall
europaweit
##ivation
##aftigung
doct
konze
##ungsmittel
spar
spread
armen
arise
arising
##meer
##mechanis
commend
herrschen
herrscht
hohes
##gesp
nachteil
amoc
##abin
besitzen
steuern
finland
betrag
##quellen
##quoten
##range
worum
##zufolge
1991
##raten
dient
dikt
##ights
##cont
##standen
durchgesetzt
durchsetzen
likewise
freitag
zumal
justit
##neiden
##nahm
grundlegend
stronger
strasbourg
##assungen
vertret
councils
decade
begriff
outs
outer
##nehin
hierarch
##heil
zusammenleben
##ribe
thematic
gewonnen
gewaltigen
##regular
undermin
erwiesen
geringen
buros
reformierung
verbrechen
wichtigkeit
platz
bestrebungen
handed
handlungen
systeme
wirtschaftspolitik
factors
actively
regionaler
sozialer
sozialpolitik
sozialistischen
invite
##getreten
assume
##ients
festlegen
festzustellen
roots
possibilities
redist
redund
lock
gleichwohl
gleichermaßen
gelangt
##alisten
wahren
wahrheit
wirkung
problematik
rechtsgrundlage
whereas
##chnet
##istence
danische
beklagen
mittelmeer
functions
forderungswurd
bedanken
bedurfen
burgerbeauftragten
lasting
legislativ
umweltfragen
rahmenbedingungen
formed
formally
verschmutzung
structured
##erstra
straß
schwach
schwache
schweden
confine
citizenship
getreten
brand
afraid
erweitern
##selben
verwert
valle
arbeitszeit
##iums
integral
folglich
erstes
deutsche
secret
involves
zunahme
irregular
##maßige
resulting
expressly
artikels
starkeren
##schließung
freiheiten
gefahrdet
zukunfts
elektron
israelische
recycle
##moglichen
difficulty
resource
##raums
corpor
gehor
##ostedt
zustande
repair
grants
schwerpunkte
liberale
##ssicherheit
aktions
definitive
regelmaßig
districts
priorit
ruckt
hervorra
creates
ansehen
ansatze
opened
erinnere
haushaltsordnung
fahren
engaged
derzeitige
stellungnahmen
below
receiving
preparation
akzeptanz
grundsatzliche
ecsc
senior
hochste
arbeitsplatz
accessible
viertens
vierzehn
refuse
refused
verkehrssicherheit
kleineren
140
kept
energieein
fruh
vertrete
unemployed
aufgeworfen
##zogenen
##ingenommen
stressing
gradu
career
einzugehen
ratsprasidenten
derartiger
embar
wirksamer
ernste
justizminister
##mitglieder
technologien
erfahrungsaustausch
enorme
automatisch
totalitar
hingegen
##aktoren
genuinely
breach
breaking
mißwirtschaft
einbeziehen
historische
welchem
purely
reconc
foundation
gefragt
keeping
juristischen
##weilen
gerichtshofs
strands
limitations
belgischen
anerkennen
vorbereitet
entwurfs
integrating
verbindungen
trading
thoughts
supplement
entsendung
hearing
transnationale
monopoly
centre
angeblich
claims
egks
erheblich
determine
##strategien
schlußfolgerung
forschungs
mittler
##gebiet
##gebieten
republ
amtierenden
finnland
farming
okologische
##zesse
interpreted
associations
association
##beschaftigung
risikomanagement
protokolls
rejection
source
reviewed
magn
eigentliche
effizienter
##uropaischen
ahnliche
prosperous
enforce
niederlandischen
neighbours
military
##metho
einwande
hafenstaaten
southern
succeeded
verabschiedung
largest
unverzug
unverzicht
dauerhaften
vorherigen
kontinu
ausgewogenen
##ammt
schlecht
begrunden
gewahlt
menschlichen
diesbezuglichen
konsequenzen
sweden
aussage
aussagen
envisage
ideologie
restrictive
deadlines
umstande
skand
erlautern
schulung
mobilitat
komplizierten
america
vorbehalt
vorbehalte
aktuellen
aktuelle
okonomische
geplant
eingehend
determined
ehemal
displa
bedroht
verstarkte
methods
befurworte
bevorstehende
mistakes
mundlichen
albanians
separate
populations
rapidly
effektivitat
schwerwiegenden
letztlich
vollem
appelliere
util
utmost
umgekehr
ordnungsgemaße
channel
enttauscht
klassifizierungs
erfaßt
ausgerichtet
heimat
exceptionally
bomb
writing
subsequent
inselregionen
interregionalen
konstruktiven
clean
einfachen
anzeige
inequalities
breton
unnot
abstimmungen
mittelstandischen
inevitably
veroffentlicht
dictators
##flaggen
forstwirtschaft
abanderungsantrag
offiziell
fusionen
##reibung
gefalligkeits
generell
expertise
stattfindet
corresponding
certific
eyes
ziffer
anhorung
##geordneten
tausende
subventionen
beschlussen
scrutiny
englischen
aspirations
reconciliation
twenty
welthandelsorganisation
drangen
pfeiler
##situation
inhabit
prerequisite
vorganger
stringent
overlook
irrespons
hilfreich
veroffentlichung
extraordinary
collaboration
voluntary
##house
##place
thyssen
angleichung
complicated
geschadigten
futtermittel
beobachtungsstelle
ceiling
knappen
lynne
ohnehin
sjostedt
vintage
inwieweit
beeinfl
annex
whistle
vorankommen
nepotism
##mechanismen
amoco
210
39
41
44
5b
52
62
87
800
900
bos
banken
city
cards
cathol
echten
eld
fassen
gone
gluck
han
hith
hurd
ices
km
krieg
kumm
kathol
krafte
lank
lernen
mc
os
owe
olt
pu
pt
pain
pled
pending
rent
rid
rund
ruß
rout
roles
sri
scept
tang
tried
tonnen
tighten
vat
vent
vog
win
watch
xx
##aff
##nally
##noten
##uung
##uct
##ube
##uellen
##cay
##rung
##ek
##sitz
##oßen
##gibt
##griff
##ds
##pun
##put
##prechen
##zer
##zwe
##zern
##zieren
##mien
##wahr
##wers
##wachstum
##44
##ender
##ched
##inc
##ona
##oni
##ites
##ieben
##iegelt
##orn
inapp
##anen
##anlagen
##aries
##ariat
##alitat
##rees
bele
beden
bewe
began
bemerken
beendet
##teers
##lem
##asen
##asing
##llor
##igsten
##emessen
realised
reverse
rethink
einher
einschlag
einseit
##iciary
##ommun
##ommod
unl
unclear
##idung
##idmet
zuzu
zuerst
zukommt
##olf
versp
verzeichnen
vergemeinschaft
##ulierung
anlage
anbel
##scha
##schuld
wei
stre
stay
stuck
prol
prozesses
prozent
forcing
daily
##bergen
denoun
erb
erled
erstellen
erstellung
erfassung
ermitt
alarm
pron
conne
confin
constitution
geken
gefuhl
gewohn
gezahlt
aufent
##rust
mitburger
##verteilung
##menge
vorteil
coinc
neo
##ktions
##ktors
aussicht
ausbau
ausuben
select
##law
scho
demograph
abb
abw
abziel
##weiger
suitable
sieb
alltag
shell
konfront
##ungsbereich
##ended
mechan
##igenden
wieland
presc
tab
spl
sport
spain
spite
arms
host
##adow
resist
##undi
##ußte
nachfol
nachkommen
##abhang
##abilitat
besorgt
##ips
betone
betreiben
##own
##erto
##chtet
wende
beizutragen
heißen
parlamenten
##zubringen
##otz
computer
compete
liikan
##anzler
sav
sail
##ourn
##ogether
instability
chines
##werke
##okonom
cancel
gemeinschaften
##ocaust
hinfallig
##ierender
justif
rechtliche
alleg
grundet
grundprinzip
legt
vertritt
##stellern
laut
imper
initiativ
##artige
decades
##teilten
##teiligung
outstanding
keinem
großzug
raises
##rium
##riffe
perce
accommod
mitgliedstaats
weitem
internally
solve
solana
gewidmet
underp
undermine
gerufen
jahrzehn
feet
transported
plotz
socially
anderthal
systematisch
inseln
works
courses
bereiten
bereitgestellt
bereitgestellten
ebens
acts
fuhlen
soziales
markten
##aßten
provin
expense
finanztran
##ideut
seele
##konzept
assent
assets
##stechn
ausschusse
regardless
bereichs
situationen
root
gleichgew
gleichberecht
plain
places
plays
##alising
liefern
treated
guard
##weisung
rechtsrahmen
biscay
angefuhrt
halfte
##wortet
legislature
madame
zielsetzungen
footing
immerhin
verantwortlichkeit
osterreicher
confeder
regierungshandeln
klarstellen
realistic
verso
demokraten
continu
continues
erweiterten
vereinfachung
transitional
##geschaf
respective
verwiesen
valuable
arbeitslosen
arbeitsgruppe
gutern
erklarte
ausgeht
reprasent
##gleichen
bewill
extremen
irr
location
wettbewerbsregeln
##ichertem
strukturpolitik
expression
expressing
##sproble
##sprozesse
##gestaltung
##anderten
morgan
moratin
born
borsen
globale
erfolge
gefahrden
gefahrlichen
gefahrliche
ruling
befrach
entschließungsantrage
davies
delors
crises
barcel
collect
periodischen
revenue
zuruckge
tatsachlichen
zustandige
depend
reput
zugig
konkreter
vertraulich
##ichteten
liberalisierung
fortun
aktiven
defining
interessanten
##weite
regelwerk
verbesserungen
distin
distur
0004
wholehear
binnenwass
negotiation
##elessness
answers
allgemeinverbind
openly
herausstellen
haushaltsausschuß
verfassung
verfasser
showing
##hagen
##gede
anstreben
genaue
preparatory
gesetzgeber
addressing
widerstand
wissenschaftlern
holocaust
zeichen
beteiligen
verhandlungs
popular
beschaftigungspolitik
kenn
passing
optimum
vernommen
fourteen
##lastet
ubereinstimmen
aktionsprogramm
##gewichte
ambigu
##point
vorgesehene
kritisch
aufgegriffen
folgenden
metals
uberwachen
uberwunden
uberwindung
britain
anerk
innovativen
rande
studie
ausfuhrliche
grand
models
harmonious
viii
einheitliches
großerer
emot
linke
profound
altogether
examined
wirksamkeit
255
technologies
surpr
drittel
assessing
telling
release
praktischen
billig
partnerschaften
kernwaffen
##eldet
gesellschaftlichen
historischen
dokumente
terrible
guaranteeing
##tellten
verzer
flexibler
verteidigt
founded
productivity
##bodia
threaten
##entscheidung
imposed
schenken
zeitraums
luft
anerkennt
santer
erfullung
heutige
umfassender
fernseh
verbindliche
gespielt
entsorgt
chancellor
geltende
flagge
satisfied
spanien
droht
angebot
indicative
indicators
offered
refugee
allocation
tiefe
fluchtlings
kambod
ressort
amtierende
jeweils
automobilhersteller
isolate
isolieren
aufbauen
volkswirtschaft
unterschiedliche
ethnischen
logical
mangelt
zusatzliche
anspruchsvoll
forests
uberprufen
heads
nordic
constitutes
coastal
shares
parlamentarische
golf
ungleichgewichte
disappoint
demonstrates
highlighted
haufiger
desired
sudden
unanimous
listened
inspe
inspekt
verwirklichen
descript
hoffentlich
ausgewogene
ignorieren
condemned
facilitat
unionsburger
schreck
solches
substantive
035
swift
treib
extensive
betrieb
spezifische
texte
endgultige
finanzkontrolleur
produktivitat
suffering
stabilisierung
choose
ersetzt
mobil
mobility
television
greenhouse
kustenregionen
driving
nazism
compensate
palestinians
sogenannte
gepragt
exemptions
friends
nukleare
konsultationen
ehre
sitzungen
electron
electoral
laying
mistake
mundliche
reagiert
stoffe
quotas
controller
consolidation
keinesfalls
##regelung
awaiting
agrarpolitik
zentralbank
programmplanungszeitraum
division
north
veranlaßt
liked
welcomes
##probleme
ausgezeichnete
verhaltenskodex
080
penalt
##zentren
rechtfertigen
mitgliedslander
angekundigt
experiencing
drugs
klug
memor
memory
##stadt
meantime
nachbarn
koharent
judgements
volunteers
enttauschung
erleichtern
ausreichende
ubergangs
reservations
managers
conservative
scandals
1986
hopes
russia
wandel
einmischung
enhance
##spek
disziplinar
premier
preferred
subsequently
erwagungen
wohnsitz
interregionale
reduzierung
uneingeschrankte
resumed
##kenntnis
complaint
ratifiziert
strenge
restoring
luxembourg
zollen
##netze
reiterate
dieselben
multifunktion
gefahrguttransport
pakistan
bewertet
indirect
warmly
##projekte
methoden
betrugsbekampfung
universally
funktionsweise
nahrungsmittel
gebilligt
traffic
versicherungs
physical
dissemination
cambodia
hamper
jacques
inakzeptabel
##raints
anxious
erlebt
manifesto
0018
hervorragende
unerlaßlich
unzulanglichkeiten
bonde
gaza
migration
##onym
annaherung
gezielt
##spraxis
funfjahresprogramm
##betriebe
destruction
vigilant
birds
##krise
##dokument
##paket
anschließend
auferlegt
lebanon
communitisation
ratsvorsitz
neighbourhoods
großbritannien
fertig
wissens
wallstrom
##lersundi
theoret
geplanten
auffassungen
departements
outermost
vallelersundi
reconcile
magnific
unverzuglich
eldr
hitherto
mcnally
oltank
xxvii
##punkten
anbelangt
connected
gekenn
liikanen
anderthalb
finanztransaktionen
gleichgewichts
moratinos
barcelona
binnenwasserstra
ast
bul
bla
bib
bio
ca
cf
cs
cy
dign
ew
eight
ehe
fif
fuß
fire
gott
gather
glad
hes
hem
huter
journ
kir
kund
kore
licht
luck
od
owing
pan
pertain
rome
sil
swe
sight
sending
tier
tiger
vet
vul
veter
wage
wulf
zit
ziti
zert
zog
##aun
##afen
##aire
##uhren
##far
##fra
##fangen
##findung
##cap
##tt
##tre
##tom
##tings
##tschaften
##ral
##rigen
##euv
##iop
##iben
##ivers
##sse
##swer
##setzt
##hion
##hte
##limin
##lassung
##oeuv
##kl
##katalog
##gf
##gro
##gue
##ventions
##pl
##part
##politiken
##zum
##zehnt
##bil
##brechen
##mod
##wicht
##wid
##wink
##wacht
##jun
##ency
##erving
##inary
##instag
##invest
##ativer
##ieß
##iefert
##ießen
##iebehorde
##isc
##isal
##isted
##isory
##orben
##orary
inqu
incon
input
##anteil
##state
##stuck
##ality
##enteil
##rea
##reform
begangen
belastung
##let
##leute
##asi
##ason
##ropr
##emb
rela
revers
rehab
references
einver
einnahmen
einleit
einiges
##raisal
unang
unfall
ungerecht
##etor
##etus
##ammer
zugestimmt
verun
verarbeit
verste
verdeut
verhang
verweise
verspro
vermitteln
verweist
vermittelt
verbergen
##ulous
anwend
animal
##gefahr
##gekommen
##schaffen
stick
stutzen
proc
forese
dawn
dahing
##genden
##erei
##dering
##derly
errichten
albeit
imstande
##andt
##oses
##osph
gear
geklart
aufsch
##achungs
mitunter
##esse
##verhalt
##verletz
vonnoten
vorgestellt
vorruh
neon
neug
notably
aussetzung
auskunft
##bleiben
regist
reglement
regimes
##spot
##spunkte
sche
scheit
demzufolge
leid
leistet
lehnt
expos
abuses
abgebaut
##weckt
europawahl
herstellung
hergestellt
mogen
##bezogenen
sicheren
door
uberwie
uberarbeitet
ubernimmt
shame
shred
fragt
fraktions
konzip
konvention
##ungsvoll
##ungsinstrument
mep
##senden
##ehend
spring
spuren
arbit
fresh
##aude
hot
housing
hohem
##ading
untermin
##gesundheit
##alling
##see
##heits
##ablen
darzulegen
besuch
besche
stehe
##kennen
##ipolitik
fina
finished
manoeuv
##owenig
##quately
##agung
heil
woran
durften
agieren
adm
adher
adjust
fakten
faktor
stating
statute
apparent
wurd
##rats
indisp
indication
cha
##werfen
##standards
durchfuhren
##utete
zwingt
genuß
##reicher
warning
hinnehmen
hinweise
ihrerseits
prelimin
##ikations
grundung
grundfrei
syn
monday
montag
consist
consisten
consists
##ublik
offnung
mehrwert
##gange
impul
impetus
decre
##fahrt
##fuhrte
##teilte
##teilungen
hiermit
nationalstaaten
newspap
zusammenzu
zusammensetzung
issuing
perfe
permission
sittings
mitgliedstaates
##renzen
evp
ending
endors
beschreibung
cargo
funded
wozu
wofur
jahrzehnt
##aufer
struck
geblieben
feature
features
minor
minimal
hande
sichergestellt
vielzahl
koalition
serben
serbs
ebenen
fuel
außeng
travel
amending
##itete
##inning
finanzhilfe
finanzrahmen
finanzmarkten
maßgeb
zeiten
eingreifen
behaupt
gemeinschaftspolitiken
overr
relativen
beings
rooted
rednern
zwecke
gleichgult
greatly
plast
gelassen
gelesen
##alisieren
pointing
wahrnehmen
rechtsakte
bohm
danube
bekannten
mittels
geschrieben
angehen
angehoren
##besitzer
bedingung
employers
employability
publicly
dafurhalten
##working
kontakte
objections
umweltfreund
umweltschad
generation
weiterentwick
weiterentwicklung
##minent
organise
organising
processing
thanking
verschaffen
acted
schwar
attain
produkte
positionen
entscheidet
everywhere
vollkommen
vollbeschaftigung
realen
getren
getragen
brachte
beitreten
beitragt
lawyers
positives
positively
teilnahme
regulatory
personlichen
personliche
continuation
vereinigte
##ternwirtschaft
##ffekt
##geschrieben
fuhrte
verwass
verwertung
throw
gestattet
flugh
costly
ausgefuhrt
ausgearbeitet
##kehren
integrate
bewiesen
bewußtsein
erstre
erstaun
wished
iron
##maßigkeiten
wettbewerbsbesch
wettbewerbsbehorden
promoted
generalstaats
mentioning
besonderer
ministerprasident
##lane
##urzt
sections
weltkrieg
globalen
contributes
losungs
gemeinschaftsrechts
grenze
operations
befried
##strome
accorded
##raume
volkern
extremism
ergebnissen
absurd
##ressing
depends
dependence
##fahiger
jean
schwermet
immun
schließt
schwieriger
interessieren
conditional
benutzen
parteip
offenen
negotiate
erneuerung
enthusi
langzeit
##ysteme
unabding
haushaltsmittel
haushaltskontroll
##eping
##haut
stattgef
momentan
experiment
complet
prevented
workings
preparations
existiert
gesetzes
lacks
empfangs
stadtentwicklung
ubrig
viertel
refusal
##ehrter
beimessen
vernetzung
kleinere
anna
announ
##schutzes
jederzeit
eindeutige
ambitions
strukturfondsmittel
weißbuchs
fruit
kritische
occup
betroffene
plenars
kompetenz
erhoben
diskussions
unfortunate
##burgern
wenigstens
harmonising
neuwagen
wertegemeinschaft
##ifizierung
verbraucherpolitik
playing
sichtbar
bears
profile
requesting
kapitel
nahm
vorzuschlagen
leftovers
emphasised
emphasises
beschaftigungsfahigkeit
beschaftigungsstrategie
sustained
surv
dritter
befurchte
befurworten
deficien
praktik
##schreiten
coordinated
genugen
calc
kernaufgaben
empfehlen
verfolgung
contrast
koordiniert
franzosen
##jahrigen
prufungs
flexibel
verteidigungs
monopole
redebeit
productive
renewables
gefaßt
covering
legitimacy
argumenten
donau
juristisch
threats
threatens
##unstig
sektors
verwaltungen
submitting
verwaltungspraxis
exclusive
storm
prosecution
vorbereitungs
civilisation
lowest
nachhaltig
equip
faster
fears
audio
gesprach
umfangreiche
charterer
kapitalsteuer
waterways
außenminister
außenhaut
difference
kommunen
wertvolle
abzuschließen
abzubauen
spanischen
indicated
indicates
erneuerbare
korper
fischereipolitik
brusseler
beantwortet
alteren
##vertrage
supervise
drittstaats
mandatory
mandats
andernfalls
beruhen
beruhrt
fairly
applaud
##ikanischen
sozialdemokratische
eingebunden
incorporation
benachteiligt
junge
unique
burokratische
vollstandigen
tragweite
logic
einschatzung
zusatzlich
paragraphs
orientierung
orientated
territories
begrenzen
permits
affecting
enterprise
cutting
normalerweise
fremdenfeindliche
observation
observatory
insofar
employee
palestine
inspir
intervene
interview
tackling
hoffnungen
kontinents
formuliert
improvements
begrundet
entscheidungsstrukturen
schwerwiegend
convince
vermittlungsverfahren
verknup
constraints
##spolitischer
schreibt
stabilitatspakt
bottom
tremend
acquire
restrictions
occurring
ereignis
drew
samtlichen
informationsgesellschaft
violence
ehrgeizig
palastinenser
skills
voters
unmittelbare
ersuchen
dezentralisierung
beratungen
mindestanforderungen
mindestnormen
fashion
niedrige
nazi
withdrawn
withdrawal
abhangig
explanations
okonomischen
blickwink
fiscal
initially
##programme
prazise
transferred
bewahrt
bewahren
kohasionspolitik
kurzen
anschluß
geeignet
auswahlkriterien
willingness
appreciation
perspectives
hervorgeht
proportional
albaner
obergrenze
allianz
unternehmergeist
adapting
appellieren
widerspricht
eroffnung
##meldung
bezahlt
angekundigten
literature
experienced
aktionsplane
reinforce
doppelwand
tendency
##stadte
deprivation
shape
verstoßen
##vertrags
entails
enhanced
##bewußtsein
erwagung
##vorsitzen
exploit
eingerichtet
bevolkerungsgruppen
targets
uneingeschrankt
angestreb
ausgestattet
externen
francis
resumption
strenger
scrap
distortions
gedachtnis
fourthly
contracts
postponed
inequality
luxemburg
eagfl
eaggf
##republik
reactors
unmik
erfreulicher
dieselbe
vorsichtig
##umping
vertiefung
bekraftigt
advocate
multifunction
potentielle
bilateral
horizontal
einwanderer
catastrophe
froh
frost
fixed
##ycle
verheeren
adriatic
faktoren
indikatoren
concludes
concluding
selbstandigen
valentine
freiwilligen
verlangerung
privilege
embra
eventuelle
repeatedly
amerikanischen
acknowledged
accompanied
dynamic
hurden
beurteilung
beunruhigt
reassure
##bewegungen
interfere
incentives
entschadigung
gewunscht
verschwinden
infringement
irgendwel
korrekt
geleistete
rechenschaftspflicht
##dringlich
imagine
modernen
residents
durchgefuhrten
gebuhrend
einzurichten
corruption
vorgehensweisen
referendum
##zusammenarbeit
genugtuung
dossiers
geltungsbereich
latest
anmerkungen
immense
schlagkraft
abgereichertem
herangezogen
reflected
eingeschran
detaillierten
entrepreneurship
libanon
##aspekt
parameter
schicksal
retirement
mehrheitsentscheidungen
hauptsachlich
straftatbestande
gratulieren
hospital
mathies
rhetor
begeg
unregelmaßigkeiten
geforderten
ausubung
konzepte
redistrib
straßburg
irregularities
aktionsgruppen
hafenstaatenkontrolle
unverzichtbar
klassifizierungsgesellschaften
dictatorship
beeinflussen
lanka
rußland
bewegt
unlike
weihn
school
chinesischen
imperative
plotzlich
ebensowenig
confederal
vertraulichkeit
wholeheartedly
threatened
kambodscha
suddenly
electronic
memorand
premierminister
magnificent
gekennzeichnet
dignity
lucken
pertaining
vetternwirtschaft
vulner
zitiere
##junction
rehabil
versprochen
dahingehend
vorruhest
##spotential
manoeuvre
preliminary
grundfreiheiten
consistency
stattgefunden
deficiencies
05
36
43
70
88
97
92
az
bru
bern
cry
categ
ceder
cold
dil
dio
dying
ep
era
emu
fließ
foss
gal
gue
greifen
gluckwun
gomes
hort
hart
hingenommen
iv
jungen
jordan
kg
kne
krimin
kling
kale
kette
lor
laps
lingu
mos
mant
male
mix
mißt
na
ost
omission
pv
phen
pfl
pict
ri
rina
rush
sah
selt
samm
skept
ts
tribute
ve
vien
vag
wy
ww
wien
wides
zonen
##ader
##nach
##nugen
##nisses
##uy
##uckt
##fo
##fat
##fel
##fted
##fakt
##cro
##cers
##cuss
##ras
##richtet
##effiz
##iaten
##san
##sst
##swerte
##sdebatte
##hre
##hom
##hle
##hel
##hell
##held
##li
##lor
##lio
##lene
##ou
##ooth
##kun
##kung
##kommissar
##kret
##kriminalitat
##krafte
##kanzler
##gy
##gre
##dst
##dies
##dach
##va
##pa
##pread
##yon
##xon
##zur
##bu
##bett
##mon
##mas
##machung
##ws
##wasser
##wasche
##12
##94
##41
##40
##43
##57
##66
##60
##erin
##inner
##onsten
##ndering
##itze
##iet
##ieb
##isierungs
##isierte
##ora
##ores
##urally
intel
##anal
##anos
##arg
##arat
##archie
##arakter
##stan
##stra
##stuff
##sthom
##alan
##alien
##entschließung
##rey
##rede
##reise
beider
behalt
beweise
bewerten
bewirkt
beherr
##tegr
##techn
##asp
##asm
##asien
##rot
##rog
auge
##eding
##emost
##iry
reun
reise
reper
reeder
realisierung
reunion
reaktoren
einst
einnehmen
einsetzung
einstellung
einleiten
##raint
##racies
##ickt
unbest
unlang
unjust
unweiger
##amb
##amer
##ichtung
##idos
ispa
zuer
zulassen
zulaßt
zugewiesen
zuweilen
##ola
verwir
verteilen
verkund
versprechen
verordnungen
verlagerung
##ulden
##ulating
anreg
ankund
anschein
anmerken
anonym
##schung
##schte
##schieden
haiders
stal
stil
stret
strange
whe
fortz
foremost
##genz
##genehm
##berg
##ilde
##eregel
##ischt
erde
erteilung
erbring
erheben
alp
alav
alsthom
imo
imben
contemp
conjunction
geg
gehand
geehrten
geanderten
aufs
aufst
aufgeb
aufkommen
aufwand
aufhoren
aufschw
aufgreifen
##dez
##deck
##achts
##achlass
##rufen
##ruckt
##verordnung
##vergenz
deed
vorur
vorsch
vorgeb
vorzug
vorfalle
vorwar
vorgange
coex
essence
escap
##ktik
##ktiven
noticed
ausland
auswirkt
ausmacht
master
sevent
##laden
scheinen
schritten
schande
leb
lege
lehnen
exxon
##ahnung
abuse
abgest
##weich
##well
##wege
##weile
europaern
heran
herunter
moun
moved
willkur
##beteiligung
suden
entnehmen
entziehen
entzieht
doors
##umb
ubersch
ubernahmen
ubergeben
uberlegung
uberarbeitung
ubermittelt
shed
shop
shock
shoul
shadow
fragestell
konvergenz
##ungsbehorde
##iferation
##itiver
interims
interaction
##igende
##igence
bernd
##ehmend
preserving
tau
tape
spann
spot
spitze
arch
arme
arian
arlene
orte
orkan
attemp
##aded
##graben
reserve
reserves
resulted
unterhalten
unterrichtung
unterscheid
untereinander
##undern
##sektors
nachged
nachfrage
##ausnahme
##ordnen
daring
gestellten
steckt
steering
##zei
##zeigen
finish
grosse
##ardo
manche
managing
partial
##erty
##ensions
##agn
##agon
##agger
beihil
heik
heights
ours
complim
compatible
compli
god
disreg
quoted
adj
adhere
appointed
appraisal
dilem
obliegt
##ourse
posed
positiver
chain
charge
canyon
gene
warn
##eltreffen
justify
justification
predict
rechtste
tech
team
##iker
stric
##lining
##ubt
vertragen
offs
##stellend
peat
##wood
upheld
deciding
##fuhrbar
begleit
outline
outlines
outlined
communications
##ondo
hierher
##ferenzen
racial
zusammenfassen
percent
2004
2003
weitest
subordin
subventions
##arbeiter
gewachsen
##region
wood
reforming
reformed
verbund
strukture
gebunden
gebaut
gebildet
feier
fewer
bestimmen
sicherer
vieler
systematic
systematically
whenever
serves
direkten
bereitet
traur
##voraus
##igned
provan
finanzieren
maßstab
standen
standing
behindern
opfern
overt
##ifications
assemb
##steigen
reluct
##hohen
mengen
##ubertragung
##fallt
##falligkeit
##ienten
basque
loire
zweideut
gleichbehandlung
economics
lieben
liefert
belief
##flucht
##weisungen
rechtsordnung
rechtsausschuß
rechtsakt
boden
##chnitten
adding
bekund
bekunden
##beihilfe
biskay
mittelzu
ganzes
angehor
angehort
financially
sinken
orders
praise
persec
enshr
farce
generations
generationen
rahmenprogramm
intell
democracies
lebenden
twofold
##endency
##klarung
##klarungen
##finitely
##ology
resolving
foster
menschenrechts
verantwortlichkeiten
asks
producing
confused
bedeutenden
bedeutende
everyday
puts
versorgungs
legalausnahme
demokratien
personnel
continually
brings
zahlreicher
respecting
binden
verwassern
technischer
debatten
valdez
##grunden
erklare
flut
ausgegrenz
##redit
tune
tunnel
integrieren
findings
bewalt
erstmals
wishing
zunehmend
irischen
wettbewerbsbedingungen
promises
representation
berichterstattern
starkes
lebensbedingungen
leiten
smooth
israels
elderly
befr
avalan
david
delicate
##stration
##reife
helped
##raumt
##holz
##holm
##holen
instrumenten
instrumentar
signs
wortlaut
wortmeldung
college
stellenwert
corbett
revised
revolution
zuruckkommen
minds
gewahrung
bridge
zustandigkeits
dependency
judiciary
##fahige
##isenberg
konkur
vertraut
liberalisation
advise
broader
convict
gerechter
payment
distant
benen
meets
wahlkre
applications
kostenlos
erfolgte
0006
charges
0069
##leistungen
ansonsten
appropriaten
verliert
langst
langem
##zugs
##zugreifen
fahrt
differentiation
rucksch
ruckgang
ruckwirken
beziehung
lebensmitteln
vehement
##haven
protagon
motiv
1244
##zahlen
##zahlung
argued
genauer
##lassungen
belange
gedanke
existieren
friedensprozesses
gesetzgeb
grundsatzlichen
nutzlich
schutzes
moderne
wissenschaftlicher
vertragsanderungen
hochster
hochstens
approaches
zeich
inneres
empfangen
stadtische
stadtpolitik
vorgeschrieben
unabhangiges
kenne
funktionier
dialogs
passieren
multipl
multilater
beimißt
vernachlass
kleiner
truppen
annimmt
##rangt
##initiative
kritisieren
participated
erwahnung
schnellen
schnelle
194
uberwinden
uberwachungs
gremien
jointly
grad
grav
einzuhalten
einzubringen
wenigsten
verbraucherschutz
2010
entering
verfugt
causing
linking
sichtver
merk
##kommun
burgernah
geldwasche
lauft
laundering
##statigkeiten
liegenden
tibetan
analysieren
gesellschaftliche
failing
vereinbarten
217
tagung
taglich
vertretenen
verpflichten
staatsanw
verzichten
repeating
summen
summer
##nehmbare
entwicklungsstrategien
provisional
einfacher
##opping
absichten
absichtser
kenntnisse
verdacht
verdanken
stahlbeihilfe
##verbrauch
amerika
clarification
visa
traditions
turnout
kraftfahr
kraftstoff
unterbrochen
cheap
bestatigung
umfangreich
kapitalverkehr
0106
0108
##wurdig
anzugehen
entsorgungs
italienische
dienstleistungsfreiheit
suggestion
flaggen
ineff
networking
ratsbesch
protokolle
korrig
kamen
augenmerk
exceptional
republik
mandat
inspectors
beruhm
amtierender
##atsos
vermag
vermogen
speeches
beschlossenen
wiederaufgenommen
avoided
angemessener
tragic
tragedy
verursacht
geaußerten
schrittweise
volksgesundheit
christmas
logik
rassistische
##betroffen
intensive
beamter
orientierungen
heading
headway
altfahrzeug
nordlichen
verhaltnisse
constituen
begrenzung
gerichtliche
weltweiten
projekts
effizienten
kompromißentschließung
ahnlichen
misunder
zivilisation
zivilschutz
enforced
conducted
spekulation
spekulative
spekulationen
efficiently
getroffenen
fulfilled
flood
##stoß
verurteilt
profits
originally
strafrechts
arafat
widely
##willigen
describe
interventionen
remarkable
formulierung
autoindustrie
ausgewogenheit
ignoriert
credit
harder
stockholm
schlechte
schlechter
facilities
entscheidungsfindung
167
leistungs
ubertrieben
danemarks
grenzregionen
grenzkontrollen
adequately
unglaub
ungehe
zufriedenstellend
wealthy
aussehen
betriebe
##rankungen
##igkeitsdauer
endgultig
sonderbeauftragten
attaches
conflicts
versichere
investigations
anpassungs
terrorist
ehrgeizigen
palastinensische
airport
badly
reaktionen
degrees
codes
konflik
disposed
charakters
mangelnden
drive
rigid
gesamtfang
verzogert
highlights
beobachten
##gesetzte
##gesetzgebung
##programmen
sinnvoller
rechnungspru
republicans
suspended
bundeskanzler
gipfeltreffen
##belast
fortsetzung
erfordernisse
quantitative
hindernis
bedrohung
verstarkung
verstarkten
hundert
beweislast
property
prasid
deeply
leadership
jeglicher
wohlstands
contradictions
golanhohen
datum
jetzige
listed
letztbesitzer
verringern
periphery
department
gedenken
widerspiegelt
##bestimmung
begrenzte
arabischen
eroffnen
industrialised
081
dissatisf
laufbahn
rationale
reichsten
erzeuger
regularly
leichter
disagree
rechtfertigt
mitgliedsland
gewaltige
literatur
reinforced
doppelte
konflikts
synergy
ordnungsgemaßen
tendenzen
beinhalten
nearly
taxpayer
losses
holzmann
schlimmer
auseinandersetzung
020
reservation
component
conservatives
krisenbetroffen
1989
unzulass
territorialen
dominant
walder
write
steigern
gegenseitigen
gegenseitige
exploitation
eingeraumt
halbzeit
foderal
irrepar
eliminate
radikalen
entrepreneur
duisenberg
edd
fleiß
machine
torf
torrey
widened
##stimme
zugesagt
externe
ratifizierung
intolerable
undertakings
unglucks
sardellenbestande
gultigkeitsdauer
unmiß
erfreut
turkischen
privatwirtschaft
nahezu
potentiellen
erkenntnisse
inevitable
gefahrguttransporte
fahigkeit
municip
##risy
verheugen
forgot
adria
faktisch
begunstigt
berechtigt
bedurfnisse
valentinstag
qualifizierte
freiwillige
0087
erganzung
methode
eventuell
bedauerlich
acknowledges
##vereinbarungen
accompanying
glas
zulassigen
verweigert
ausgelost
frequently
entschuldigen
zusammenhange
zusammenhangen
beneficial
staatsangehorigkeit
verteidigungspolitik
irgendwann
virtue
padan
madrid
friedlichen
steuers
quotenubertragung
perpetrated
beschleunigen
persuas
achievements
replaced
0078
0073
strafverfolg
strafverfolgung
destroyed
griechische
hundreds
wonach
ausdehnung
combined
quarters
apparently
chemical
zentralisierten
controversy
unannehmbar
birgt
kategorien
krankenhaus
ngos
piece
temporary
ingred
erlaubt
gewerbe
unterzeichnung
geschenkt
predecessor
rechtsextremen
koalitionsregierung
seeverkehrs
religious
verscharfen
kommentieren
dringlichkeitsdebatte
befurchtungen
symptom
hypocrisy
managerial
earthquakes
length
sadly
wrote
##schiold
desperately
schweigen
justitiellen
rucktritt
hervorragend
energieeinspar
totalitarian
mittlerweile
anzeigepflicht
inhabitants
irresponsible
hansch
hurdles
oslo
pledges
venture
##zerne
inappropr
vergemeinschaftung
proliferation
erledigt
pronounced
confined
aufenthalts
##abhangigkeit
savings
##okonomischen
cancelled
allegations
jahrzehnten
guardian
irrational
befrachter
verzerren
description
swiftly
##spekulationen
binnenwasserstraßen
biblio
csu
fifteen
huterin
sweeping
##investitionen
##gefahrd
foresee
neonaz
registr
scheitern
europawahlen
bescheiden
impulse
außengrenzen
flughafen
generalstaatsanwaltschaft
haushaltskontrollausschuß
completion
audiovis
tremendous
blickwinkel
erfreulicherweise
weihnachts
vulnerable
rehabilitation
category
cederschiold
diox
knew
kaleidos
linguistic
mantra
pvc
phenomen
pflanzen
seltsam
tsatsos
vienna
wye
wwu
widespread
##uyu
##foder
##faktor
##cussions
##dstown
##stuffs
##tegration
repercussions
unlangst
unweigerlich
fortzusetzen
alavanos
imbeni
coexistence
seventh
ariane
attempted
nachgedacht
grossetete
beihilf
dilemma
biskaya
appropriateness
entsorgungskosten
46
600
bol
blie
bow
bog
bahn
bold
cro
cau
crop
caut
catch
cabin
dom
dup
dread
dumping
ef
ela
epp
epo
erachte
fel
ful
fill
fish
festen
gi
g7
got
gaps
grupp
greift
hun
ix
kal
kill
kasse
kraften
killed
lord
lod
lacher
mas
mic
mart
massen
nl
nament
ostens
py
pest
pity
pure
paßt
rust
rind
rum
somm
squ
sine
tone
tuv
titel
wa
wunder
wußte
##aktion
##aces
##nam
##nsystem
##nutzen
##upp
##uum
##uell
##uert
##uchte
##uled
##uelle
##uondo
##fungen
##commun
##table
##right
##rors
##rgy
##ei
##eing
##ekte
##effe
##ebene
##iques
##hy
##hed
##haß
##lament
##oid
##ofin
##osteuropa
##klus
##gis
##gien
##glichen
##gone
##gently
##des
##dis
##dsch
##dated
##von
##vol
##pra
##pol
##pap
##passen
##yt
##yards
##zard
##zeln
##zstan
##bi
##bies
##baus
##bran
##bles
##blicken
##mn
##mung
##mah
##mogen
##mosph
##wes
##wel
##weren
##wachsen
##jordan
##jikistan
##ena
##enst
##erium
##chs
##chtern
thir
thres
##inst
##inate
##inations
##inne
##oning
##onial
##onio
##esp
##nde
##atom
##itzung
##itivity
theory
##orgen
##orate
##uro
infolge
##ano
##anspruch
##arten
##stu
##stes
##strag
##unken
##unsicherheit
##alists
##alitaten
##reiz
##reitete
died
bezeich
beauft
beantwortung
bewohner
belastet
bekennen
##lein
##lements
##roc
undurch
##emed
##irms
reve
repress
reactions
eindam
einhalten
einbringen
eintreten
einhell
##icable
##icated
##iculous
##ople
##opft
##eland
##eliegen
##utive
##eitert
unr
unaus
unauf
unvereinbar
unilater
unheil
##etreten
zuw
zulie
zugeben
zugest
zugefuhrt
zuwenden
zuviel
##olved
verse
verweis
verwor
vergeben
vervoll
##ulators
anom
anlagen
angeschlossen
anbet
anlaufen
annehmbar
anregen
##gefug
##gefalligkeit
##schten
##scharta
weckt
##terung
hazard
store
streben
stammen
stammt
##ctory
##hrende
##bert
##ilian
nobody
denkt
denomin
onto
##dered
soviel
erbe
erlaß
erlangen
erkannt
erinner
pranger
imminent
##ando
engen
enact
convey
conferences
geo
gelegenheiten
geteilt
geehrter
park
aufgeschlossen
aufzeigen
##decken
asien
asian
##ruhe
##verh
##versch
##verzer
##mengen
dear
dete
vorh
vorlegt
vorlauf
vorzustellen
vormittag
covers
##illi
ausb
ausgesch
ausgenommen
auszug
ausmachen
ausnahm
##uldigungen
regieren
macro
##thar
##laim
schand
schatzen
schott
schule
##atell
##ford
exemp
exha
exceed
exhib
exek
exagger
##ahnt
abtrag
abwand
abweg
abgesetzt
ablauf
abbruch
abzusehen
##weichen
##wechsel
europaisch
europaab
##ivoc
##antab
##antrage
herbe
herum
##beugen
sieg
allmah
dog
umzu
##liehen
##umischen
ubernahme
uberleben
ubersetzungs
shep
unsu
konform
kontext
##annakis
##ahrts
##ayannakis
##ugt
##ungssystem
##istischer
##ckten
bereng
##ective
##ehow
preserv
preserve
##schafts
tac
taos
tadsch
tajikistan
spont
sprung
thereof
arz
arisen
arrog
arena
atmosph
##etze
##meister
##auk
##aux
hoc
##ada
resur
resort
unterpunkt
unterziehen
##ielen
##ielten
washing
##gesucht
##sekret
nachden
nachweis
##abstimmung
dargestellt
steigt
stepped
finalised
meinte
meinungsver
grown
gross
betrage
##asten
##ensable
##ensystem
##herstellern
##herdstown
##quivoc
##ransaktionen
beizu
worauf
worried
duration
##zukommen
##zuheben
##otland
compound
composition
lia
agent
aggress
discont
que
quo
quasi
statut
gemeldet
wurzeln
##rators
diver
obdach
contam
contents
##ours
##icklung
instin
install
instanzen
instabilitat
india
indones
champ
chose
##standard
durchsetz
durchzusetzen
durchfuhrungs
##lock
##apse
##reichung
freig
freier
spekt
spezial
users
usually
hinreichend
needless
pred
preise
preced
precedent
transe
##iks
##ikalien
incomes
arbeitgeber
allev
allemal
grundrecht
grundvoraus
strom
effekte
monies
consc
damal
damaged
##gerufen
vertik
respected
mehrzahl
mehrmals
mehrjahr
##stellte
##stellten
impract
##artigen
decent
##fahrts
##fuhrend
##fuhrenden
##lication
mitgliedschaft
begreifen
begleiten
begnugen
communist
hierarchie
nationality
nationalismus
##heim
counting
permissible
sitzen
##ordnet
urteile
urgently
solide
thematik
gewar
gewasser
gewassern
gewinne
ends
ended
endet
endless
beschrieben
beschreibt
erwagen
geruckt
reformieren
reformstrategie
unsererseits
gebrauch
plants
bestreben
vielfach
workplace
bereitzustellen
##people
##aked
unterstreicht
vorschlagt
außert
##gebnis
##gebildet
sozialvers
##angelegenheiten
##vorbe
exped
finanzminister
finanzverwaltung
zeitalter
eingest
eingetreten
standort
invited
invitation
recital
recourse
seegrenzen
##konzentr
##konferenzen
##ansing
assa
assured
wettbewerbspolitischen
ausschluß
bereicherung
reliable
scar
scotland
informing
##banken
discover
##falligen
##mitted
route
selber
lothar
envoy
gemeinsames
plad
ließen
##zeitigen
kommissars
kommissaren
zwischenstaat
falling
wahrnehm
einzig
einzul
einziger
einzumischen
außerte
wherever
whereby
mittelb
##richtlinie
geschatz
angefangen
halbe
fordermittel
burgermeister
lasted
pravention
kontakt
legislate
anderenfalls
objection
umweltpolitik
umweltanforderungen
rahmens
selbstverstand
selbstgefalligkeit
drafted
antonio
fool
measured
institutionelle
menschenleben
verschrot
maybe
indefinitely
sicherheitspolitik
attac
attract
notwendigerweise
produz
##stimmt
somehow
informationstechn
vollzogen
klargestellt
klarmachen
secondary
brave
versaum
legality
teilung
teilnehmen
teilgenommen
teilhaben
autob
regulierung
erweiterungs
erweiterte
vereinigung
transform
transaktionen
respectable
technik
gesture
gestalt
gestrichen
gestiegen
gestoßen
arbeitslose
guthe
##grundet
ausgegeben
ausgegangen
ausgelegt
ausgezeichnet
ausgewahl
integrierte
ziehe
bewert
deutlicher
hopefully
##zieh
##maßiger
wettbewerbsrechts
wettbewerbsbericht
wettbewerbsfahig
wettbewerbskultur
angesied
bestimmung
generalsekret
besonderheiten
enlarge
kulturpolitik
leitung
##weisende
freihandels
##wirtschaftlichen
iiia
##wirkend
zukunftig
ausschußmitglieder
election
papers
papayannakis
recycelt
sorry
deliber
backs
backing
kurzer
wording
##scheiden
humanity
humanressourcen
##binden
jahrelang
judged
replies
vorgegeben
grass
grips
liberty
liberals
foodstuffs
broaden
conventions
termed
accepts
accepting
##liegenden
interessante
fundamentally
practically
solidarisch
lesson
##weiterung
regelungs
regelmaßigen
distance
distingu
funften
priori
wahlt
understandable
wohlhaben
wohlfahrts
kostenlosigkeit
erfolgreichen
0003
erforderliche
seinerzeit
subsidy
vergangene
centralisation
ruled
offenkund
ergreift
hervorzuheben
businesspeople
creative
appropriately
allgemeiner
verpack
anfangen
showed
rucken
ruckstand
ruckforderung
ruckgriff
ruckwirkend
retten
introductory
##hael
pleas
anstelle
argue
geduld
progressive
existierenden
gesetzlichen
grundsatzes
addresses
ecosystem
ecofin
modernise
entscheidungsprozeß
entscheidungstrag
stadtischer
beschaftigungspolitischen
funktionierenden
consumption
wirtschaftsz
kleinst
annually
asylverfahren
##schutzmittel
socio
energieeffiz
kunftiger
##poth
frucht
kritisiert
##leiteten
verbrauchern
##zusprechen
erschut
erschweren
aufgefuhrt
aufgehoben
spielregeln
behandelten
hulled
193
##cency
uberwaltigen
beginnt
random
studied
grave
modest
expectation
viable
##garant
identical
sinnvolle
einheits
einheitlicher
konzentriert
dringen
dringliche
empt
tibeter
verhinderung
altaut
wirksames
kapaz
naher
##gelassen
##gelost
vorzugehen
vorzubeugen
beschaftigungsforderung
beschaftigungsmoglichkeiten
technologischen
technologische
sensitivity
geldgeber
released
containing
prinzipiell
automatically
##jenige
##status
##bereiten
billions
billigt
delegates
schrott
kernstuck
mißmanagement
erarbeiteten
raphael
##aval
bevorzug
construct
contravention
posted
infrastrukturen
doubtful
kommissionsprasidenten
erreichten
eingestellt
redezeit
himself
gefaßten
legitimation
answered
reinen
angere
angste
imposing
declarations
bestande
bestandteile
lucke
verdienen
stahlunternehmen
entirety
steelworks
focusing
storungen
##verbanden
vorbereiten
vorbereitungen
schluss
criticise
criticised
garantiert
clarified
effektiver
verbindlich
blame
umfangs
umfangreichen
vernunftigen
vernunftiger
kapitalbewegungen
außenpolitik
differenzen
kommunal
kommunikations
maintaining
okosystem
abzugeben
incorrect
consultations
consultative
dropped
ortlichen
ortuondo
indicate
indications
verwaltungsverfahren
clause
clauses
ehren
ehrlich
older
renov
erheblichen
commenting
entsprechendes
ernsthafte
hardly
polluting
blocks
gabe
kampagne
proceeding
hinzuweisen
liberalism
supervisory
drittlander
amtes
syrians
significantly
##lizit
mitarbeitern
burokratischen
okologischer
angemessenen
pursued
pursuing
unease
unequivoc
vorrangige
betrachtlich
betrachtlichen
betrachtliche
beitrittsverhandlungen
beitrittswilligen
risikok
unterschiedlich
logisch
intensify
intensiver
rejecting
zusatzlichen
regrettable
orientieren
ausschließen
eligibility
untersuchungs
territorium
##kampft
##planung
sounding
constitu
genehmigen
permitted
weltweite
absoluten
eigentums
eigentumer
cuts
jenem
einsatzes
fremdenfeindlichen
classic
labor
profitable
sudosteuropa
besorgnisse
guterres
talked
larger
larrea
sorts
widers
##greifend
enabled
vorherr
appeared
autohersteller
ausgewogenes
schiffs
tender
soforthilfe
registers
menschliche
entscheidungsbefug
convincing
optimistisch
fluchtlingen
zugehort
##spolitische
learning
learned
konsequenz
grune
friedensgesp
treffend
tests
ultra
ungefahr
auszuarbeiten
##ipfel
entschlossene
entschlossenheit
zweckmaßigkeit
investigate
fehlende
stabilise
##olidierung
choices
behinderte
positivliste
##sprogramms
befugt
befugnissen
violation
ehrgeizige
ehrgeiziger
voiced
wondering
unmittelbaren
ersuche
ermord
schulz
obtained
telekommun
telecommun
recovering
außerordent
additionality
americans
interpretiert
akteuren
##hausg
##haushalt
##hafter
vergleichbaren
aufzubauen
sonstige
langfristige
verzogerung
fifty
pflichten
beobach
konstruktion
##gesetzten
railways
standardisation
morality
moralische
konsultieren
symbolic
besorgniser
suspic
diplomatischen
eisenbahn
anschuldigungen
erfordernissen
quantitat
verbreitet
zunehmenden
westjordan
stoßen
prasenz
mitgewirkt
deepening
vorrednern
##regelungen
tiefgreifende
tiefgreifenden
divide
divided
dubious
kyrgy
veranst
solemn
fragte
beseitigen
beseitigt
appeals
##wohnern
##vereinfachung
verhaltensweisen
verhaltensregeln
eroffnet
jugendliche
weakening
erzeugung
desirable
heavily
admittedly
angekundigte
versuchung
experiences
paradoxical
synergie
kreis
kreise
riesigen
vigorous
zusage
zusagen
erreichte
geheim
collapse
approximation
behauptet
verstoß
verstoße
occasionally
ursprunglichen
##kurse
erleichterung
heimgesucht
insisting
eingereichten
scandalous
einzelstaatliche
bomben
dominated
hoping
wald
zerstor
zerstort
zerstoren
##komplex
auftau
##spezif
##ivalent
##bewußt
disadvantage
dramatic
attacking
eliminating
reduzieren
retrospect
mittlere
einwanderungspolitik
konstruktive
cleansing
##interessen
einfache
angestrebt
franco
complacency
intoleranz
intolerance
loyalisten
boundaries
sincere
straftaten
simplify
postpone
sicherheitsberatern
lobbying
bretagne
gultigkeit
todes
verhutung
ausbildungsmaßnahmen
vertiefen
wiederherstellung
bekraftigen
anticipate
anticipated
vizeprasidentin
irgendeiner
irgendeinem
spekulations
rechnungshofes
fahigkeiten
bewerber
stichhalt
abanderungsantrage
begunstigten
drastic
erganzt
embark
bedauerlicherweise
##reckung
eintritt
verweigern
anhaltenden
##bewegung
shifting
spurbar
stellte
comparison
frequent
gebilligten
traffick
versicherungen
engagieren
geleisteten
slightly
slightest
subsidiaritatsprinzips
tarifvertrage
berufsgruppen
weaknesses
erdbebengefahrd
witnessing
witnessed
kunststoff
muhe
bewegung
verankerten
vorausschau
vorausschauen
abolish
atlantic
gebuhrende
einzuraumen
flugzeug
corrupt
anstehenden
differenzierung
griechischen
lenken
ranging
dahinter
makro
makers
execution
entfernt
amtszeit
contacts
chemikalien
prejudice
explosions
asylbewerbern
devastated
devastating
obligatorische
mißverstandnis
abstained
controversial
customs
faschismus
sterben
zentren
zentrum
##utteln
havens
stopped
prohibited
aufrichtig
scheduled
statistics
performance
geschlecht
geschlechter
attentive
raumordnungspolitik
deployed
jeopardise
relevance
werkstoffen
werkstoffe
banning
branche
kandidatenlander
osteuropaischen
sauber
##erzeugung
deregulation
prospects
erhielt
europaweiten
diktatur
outset
hierarchy
redundant
forderungswurdigen
corporations
gradually
embargo
republikan
##methode
kontinuier
gefalligkeitsflaggen
certificates
catholic
kummern
katholiken
routine
vogel
erbracht
abzielen
konfrontiert
split
großzugig
##geschafte
reprasentativ
fortunately
disturb
ambiguity
surprised
anspruchsvollen
disappointment
inspektionen
inspektoren
facilitating
treibhausg
penalties
disziplinarverfahren
multifunktionalitat
gathering
kirgis
odds
veterin
zertifik
##swerter
##zumachen
##bilden
einvernehmen
unangemessen
verarbeitenden
anwendbar
proclaim
##verletzungen
konzipiert
arbitrary
unterminieren
heiligen
indispensable
decrease
newspaper
overriding
plastic
erstrecken
wettbewerbsbeschrankungen
conditionality
enthusiasm
langzeitarbeitslosigkeit
survival
vorbereitungsgruppe
##vorsitzenden
multifunctionality
eingeschrankt
rhetoric
begegnen
vorruhestands
gluckwunsch
klingen
lapses
##build
zuerkannt
anscheinend
stalin
erbringung
contempl
gegner
aufstock
mountain
willkurlich
compliance
disregard
geneva
rechtstex
stricter
weitestgehend
subordinate
assembly
enshrined
bewaltigung
benennen
staatsanwalt
constituency
gesamtfangmenge
halbzeitbewertung
unmißverstandlich
municipal
strafverfolgungsbehorde
energieeinsparung
inappropriate
dioxin
phenomenon
cautious
epoche
fulle
##volumen
threshold
eindammung
verworren
hazardous
denominator
##verzerrungen
ausnahmeregel
exhaust
exhibitions
allmahlich
shepherdstown
berenguer
preservation
tadschikistan
washington
meinungsverschieden
beizubehalten
grundrechtscharta
impracticable
wahrnehmung
energieeffizienz
friedensgesprache
kyrgyzstan
erdbebengefahrdeten
kirgisistan
04
110
299
56
67
68
71
77
73
89
83
93
aro
apt
alex
achtet
bid
blin
buck
bread
bruch
baum
blicken
cas
cip
cens
clin
crimin
cux
cycle
dor
dig
drag
duly
drangt
eis
este
efre
erad
ff
fan
fte
flaut
flying
fished
fatal
fanden
gn
gh
gil
gors
game
gingen
gift
hi
hore
iw
ira
jø
jer
jack
josp
kfor
kum
kreat
krie
kings
kame
klage
kunden
kopp
kabin
kantab
lut
lein
liv
lann
lome
lichte
mat
mel
masse
nin
nro
nir
nut
nap
nik
oz
oben
ohren
pas
pir
plo
pett
page
rau
rank
rub
rare
richer
ruman
river
runde
raumen
rutteln
ss
sis
sain
sab
slo
sachen
szen
sided
sales
satell
tit
tend
tight
tome
tree
trium
uc
uen
uben
vit
vel
vang
vary
vested
wis
wies
wachen
wild
wachst
wake
wolf
winning
yield
zyp
##nbar
##nachst
##uge
##uard
##fend
##fachen
##fache
##ficial
##fried
##faßt
##feld
##cast
##tes
##taat
##rgen
##rischen
##rations
##rne
##rine
##ront
##eper
##ios
##iose
##ixt
##iority
##iates
##ihood
##shal
##sinn
##sistent
##sicherung
##sruhe
##hic
##hlung
##hangen
##lø
##lust
##lichten
##ook
##ohne
##oij
##ki
##kter
##klich
##kommission
##kischen
##kust
##kind
##kolle
##kistan
##gs
##gg
##gos
##giv
##gigen
##gers
##gow
##grit
##gap
##gieb
##gipfel
##ded
##dingt
##pard
##yal
##yle
##zig
##zell
##zog
##zonen
##bst
##ball
##bitat
##burs
##mel
##mau
##mlung
##miß
##mak
##mater
##wur
##wies
##wier
##with
##wind
##wide
##wissen
##96
##28
##34
##enster
##enhagen
##erated
##erlaub
##chair
##chmark
##charakter
##ini
##inken
##inqu
##integration
##onents
##onardo
##ester
##esystem
##nder
##aton
##atigen
##atibility
##atischer
##aturen
##itin
##itant
##itations
##itulation
##itologie
##itology
##ieur
##ieth
##ieck
##iegel
##iebung
##isent
##isem
##isierten
##ored
##orously
##urt
##uries
##urft
##urfe
##urances
inject
inhalts
inhaft
inherent
inaug
inanspruch
##annen
##anlage
##anwendung
##ancing
##anspru
##arder
##arien
##arians
##stal
##stritten
##sthem
##una
##aled
##alise
##alteten
##entiell
##rel
##regend
##reformen
diejenige
befordert
beforderungen
beaut
befordern
beheben
bekennt
##leb
##lege
##levant
##lewood
derjenigen
##asc
##aschen
##ingly
##ingend
##rov
##roß
##ede
##edenz
##edammt
unden
##igere
##igers
##igner
##emy
##emm
##iring
##iries
realis
reine
realisation
reorganisation
eins
einigkeit
einkommens
einrichten
einreise
einwohnern
##raf
##ram
##rand
##rauen
##raine
##icken
##opfung
##ophol
##ela
##elte
##elled
##elhaft
##elming
##elihood
##ommt
##uters
unp
unity
unum
unqu
unvor
unav
unverstandlich
unamb
##etten
##etisch
##amen
##idem
isabel
zume
zugrund
zuhoren
zufallig
zuzul
zuwege
zustimme
zustimmt
##oliber
verwer
verwend
verfe
verander
verify
verlet
verbleiben
verzei
verliehen
anz
anim
ansp
anger
anzust
ankommt
anzeichen
anbieten
anreiz
##gewohn
##schl
##schungen
##schaf
##schancen
##schaden
##velling
wirkt
wirtschaften
web
##terdam
##terlø
haut
haste
habitat
haarder
stutz
stimm
story
stagn
streichung
style
##usive
##ushing
wholl
##tenance
proca
dauern
euratom
##berichten
##iling
##ilation
denselben
##eins
##derten
##derman
soderman
erstellt
erbringen
ermitteln
alb
alib
alert
pruft
imf
imbal
##andi
##andern
enger
conce
##osing
gegrundet
aufru
aufsicht
aufhalten
aufgeben
aufgesch
auflagen
aufstellung
aufgestellt
aufforderung
aufbringen
aufweist
aufwertung
aufgetreten
aufzugreifen
##deckt
##deuropa
##iments
##rud
##rup
##ruit
furchte
mitschuld
mitteilungen
mitburgern
##verur
##verme
##menistan
voneinander
deutet
decken
degrad
##estion
vorant
vorigen
vorges
voruber
vorfall
vorgeben
vorkommen
vorbild
vorgang
vorteile
vorgebracht
vordringlich
vorverur
esse
neoliber
##ktar
##kturellen
notion
ausp
ausst
ausso
ausfuhren
auslander
ausgabe
ausgebaut
regain
seiz
seism
seesch
##lap
##lable
##lasten
##iveaus
##sprechend
##ppt
##ppich
schatz
schatten
demnachst
##forschungen
lehr
leonardo
##indungen
exert
abgesch
abzeichnen
abwar
abbauen
abgibt
abgede
abhangen
##antly
##antast
herab
mode
##beg
##bekistan
suit
suited
sied
sichere
entg
entlast
entstanden
entsenden
ums
umgeben
umgangen
umsetzungs
umstritten
uberf
ubersicht
uberarbeit
ubersetzung
ubertrag
uberschw
ubermaßig
uberlaßt
ubergeordnete
ubersee
uberdies
shopping
unsicher
unsatisf
konige
##annter
##ernt
##ays
##ugung
##ugos
##ungsmeldungen
##endem
##endium
##iful
mex
meß
meere
meister
interven
intergro
berg
bergen
berater
berufen
wiedere
##ehung
byrne
presupp
tail
taught
spect
spher
spons
spends
arres
atom
atomen
atatur
commens
frass
comart
comitology
##auschen
hof
houses
hoheits
##adian
##adakis
##adays
##grace
unternehm
unterliegt
unterrichten
untergraben
unterscheiden
untermau
##angst
##angert
##allen
##seas
nachger
nachricht
nachweisen
nachgang
nachrichten
nachforschungen
##ausstattung
##abt
##abl
dare
dark
darstellung
besprochen
gesonder
stem
meinungen
meinungs
meinungsaustausch
##ardants
betragt
manchen
partnern
##ertrag
##sammlung
##quin
##quem
##agten
heed
heaton
hektar
##zuhalten
##zufrieden
compare
compiled
complying
compatibility
##isektor
disgrace
quelle
adr
adap
admissible
adolf
faces
fauna
gemisch
gemessen
sao
saving
sapard
##prus
##prangert
##rating
diam
diverse
obje
##ourned
##oglich
instances
indiff
chances
ratsam
ratify
canadian
##cci
durchfuhrbar
zwang
zwanz
zwingend
gemeinder
##loß
freut
usual
##odie
hinein
justifying
preference
pretext
rechtlicher
rechtsetzung
teuer
##iko
incumb
arbeitenden
arbeitsplan
##immte
grundliche
grundwerten
strikt
strike
lande
landen
landlicher
mons
monst
monats
montre
##uchung
##uchten
##merkt
intran
##asses
##assion
##assing
vertical
offic
offnen
mehrjahres
peking
peij
##fahrzeuge
begleitet
communaut
##iertes
nationales
nationalso
zusamment
race
rack
zusammenkunft
zusammengef
##altungen
##riot
perverse
accused
accurate
sitze
##izin
##izes
urged
urging
solving
solbes
##arbeitern
gewissen
beschneiden
beschwicht
carpet
underway
undergo
underline
underlined
##ettos
erwachsen
erworben
geringe
wohnen
wovon
jahrlichen
jahrliche
##landes
timefra
anyway
verbie
verbren
verbinden
strugg
gebot
geboren
gebaude
gebilde
feira
transposed
transposition
mine
plat
bestrebt
bestmogliche
bestmoglichen
handover
handhab
handzeichen
kofinanz
artific
systematische
insult
worker
wirtschaftstatigkeiten
directed
facto
nowadays
fullen
##geblieben
##gebuhren
sozialpolitischen
sozialmodell
sozialpolitische
sozialpart
train
welcoming
##ufe
marks
##vorstellungen
##vorschrift
proven
provis
expens
explizit
##folgt
finanzierten
finanzausstattung
##ochten
zeitungsmeldungen
##malen
eingedammt
standigen
wiederer
wiedergew
invested
invitations
recruit
gemeinschaftlicher
gemeinschaftsprogrammen
governo
overs
overcoming
overwh
overseas
seefahrt
##getan
asset
assad
assert
assoz
wettbewerbsprinzip
##stete
##steil
staatlicher
ausschreib
regarded
scene
##hohlt
##worthy
festigen
feststellungen
festgeschrieben
rover
rough
royal
selben
seldom
baskischen
portion
##actively
loud
loophol
differs
zweier
zweimal
entwicklungspotential
gleichk
gleiches
gleichheit
placing
geldern
gelitten
geliefert
wahrzunehmen
wirkungsvoll
belieb
requisite
problematisch
##fluss
##weisenden
rechtssystem
rechtshilfe
rechtssachen
rechtssystems
rechtsausschusses
rechtsverbind
rechtskultur
rechtssysteme
rechtsunsicherheit
außergewohn
box
bowe
marine
maria
marpol
##chnung
principally
##lesen
additions
bekommt
mittelfrist
ganzer
ganzem
geschickt
gescheitert
naturgemaß
angehalten
angelegt
halben
##beste
##ergie
forderfahigkeit
##proben
bedacht
bedingt
publication
publicity
publicised
##woren
maßnahmenpaket
##rucken
responses
wanting
ensures
umweltbereich
umweltpolit
generated
generous
rahmenprogramms
integrit
weiterzu
weiterbildung
thinks
selbstverwaltung
viewpoint
formelle
organismus
etabl
##ologischen
##ologien
species
antisem
processed
foot
parlamentsab
joined
verschlossen
verschwendung
osterweiterung
##handlern
attrib
produktion
producers
confron
confirms
##afel
regierungskonferenzen
cultures
everybody
voller
vollst
vollwert
vollendung
vollzieht
klarer
klarung
reale
brake
branden
brauche
##jekte
versaumen
beschaftigten
teilt
kulture
##partei
##parlament
regulated
diskrep
vereinheit
transc
##hindert
##reitung
zahlungen
fuhrten
technisch
technically
arbeitsbedingungen
arbeitsdokument
arbeitskrafte
erklarten
flu
flame
flamm
flora
diensten
ausgep
ausgeglichen
ausgehohlt
zieht
turen
secured
neglect
politikern
politikfel
irische
irlands
wettbewerbsfahige
wettbewerbsverzerrungen
angesetzt
angestellt
strukturelle
worldwide
prompt
representing
offentlicher
besonderem
ministern
ministerial
protektion
morgigen
enlarging
kollegium
favourable
kulturen
kulturer
##rechtlichen
steuerpolitik
qualitative
komite
komitologie
##wirtschaftung
gesamts
norden
norway
norwegen
precision
wirkliches
erweiterungsprozeß
zukunftige
stadium
operativen
operandi
befreit
recyclable
##moglichkeit
delight
delinqu
##reifens
accords
backed
backward
backwards
##raumes
##holfen
##holders
##armace
downfall
barely
barbar
increases
periodische
cork
corner
zuruckkehren
tatsachen
gehore
gehorte
gehabt
eingefuhrte
brun
brom
bromin
##versorgung
investieren
investiert
investitions
closing
eigener
eigenschaft
eigenmittel
eigeninitiative
vorsehen
reported
##fahigen
vorgelegte
essentiell
grasp
vari
variety
##ichtete
schwerlich
advanced
medina
fortfuhrung
aktiver
broke
busquin
interesses
planungszeitraum
gerechten
gerechnet
subsc
distressing
benutzt
benchmark
funftens
funfzehn
kleines
understands
kosteng
0007
ubel
ublich
ublichen
0066
centrally
ruh
ruin
ruiz
hervorgehen
hervorrufen
sectoral
successive
##ausschusse
buy
buyer
langwier
moments
verfassungs
entsprechender
ladung
ruckwirkung
retardants
##gehender
exclud
exclude
motive
123
1260
anstieg
genauen
standpunktes
receives
grundsatzliches
ecu
ecolog
modernisiert
150
holder
holiday
sender
gegebenheiten
hochstem
hochrang
approaching
bestehende
zeilen
verhandelt
empfunden
suffice
suffolk
reflex
earn
earned
demanded
kritiken
passion
consuming
wirtschaftsstruktur
wirtschaftswachstum
availability
optionen
kleinunternehmen
famous
##entwurfe
leads
ubereinkunft
ubereinkommens
remained
148
aktionsprogramms
eindeutigen
hinauslauft
powerless
fruhere
frustration
kriterium
kommissionsvorschlag
kommissionsdokument
participating
erschwert
aufgegeben
aufgefuhrten
spielraum
kompon
komplement
troop
folgender
197
1957
##olitano
combine
105
pharmace
zentralisierung
stresses
verstandliche
verstandlicherweise
ausfuhrte
gravier
modus
modelle
modified
modification
expecting
dimensionen
##gangs
einzuleiten
einzubinden
voraussichtlich
##laufe
jahresbericht
besseres
harmonische
harmonised
materialien
viability
##ifiziert
##ifizierte
untersagt
2025
identifying
##apparat
bedeutete
devise
devote
devisent
abschaffen
abschnitt
organisieren
organisierte
verfugbaren
sachkenntnis
##herein
shortly
wirksamen
beitrags
250
merger
##langt
##gelaufen
tourist
angenommene
ernahr
pressing
vorzubereiten
superstate
superficial
emphasising
crossing
##ricity
hauptziel
hauptverantwortung
hauptstadt
encourages
dokuments
officially
assessed
geldes
##istell
staunch
enormer
prinzips
defiz
herstellerverantwortung
armed
tibetischen
tibetans
coordinating
##sperr
genuge
elementen
elementaren
karte
fails
failures
reminds
reminded
vereinbarkeit
historisch
historical
218
2110
taglichen
ethical
ethiop
posts
staatsanwal
niederschlag
undertook
verzichtet
prufdienst
##hebung
discriminated
##lebens
sechste
summe
eingesetzten
congratulations
congratulating
forefront
legitimitat
entwicklungszusammenarbeit
juristen
lugen
midlands
##kundigen
verdienst
begins
demonstriert
frankreichs
sanierung
stories
criticising
fernando
romischen
personalpolitik
bilanz
bilba
equation
equipped
unterbreitete
gesprachen
irgendwie
angesprochenen
charterers
kapitalstrome
watered
waterway
##wurdigen
anzubieten
supplies
konsolidierung
hearts
dienstleistungsverkehr
satisfy
##haftigkeit
erzielten
wertvoll
abzuschaffen
spanische
consulting
zugangs
centuries
angebots
ordinary
ratsverordnung
eingehender
verwaltungsvorschriften
chrom
erhebt
erhebung
strategiepap
fischereisektor
tiefen
tiefer
##gerechte
deterrent
professions
bloß
bloße
kammer
volat
victory
altere
##vertragen
##gebiets
liberalismus
schengener
##uropas
beruh
finnische
schadens
richtlinienvorschlag
richtlinienentwurfe
kommissionsmitglieds
tolerate
vermieden
geographischer
aufbauwerks
entgegengesetzte
poorer
explains
confirmation
staffing
okologisch
180
##lectual
unequal
vorrangigen
betrachtungen
similarly
volksvertreter
unterschiedlicher
##betrag
einschranken
zusatzlichkeit
regretted
comprehensible
transparenter
ausschließliche
authorise
authorisation
authorising
qualitats
qualitativen
territoriums
horse
nordir
nordamer
##kampfen
sounds
coastline
sharing
remembered
broadest
funktionierende
jenes
misery
recognising
niederlande
observance
350
verurteilten
vermeid
profitieren
sudlichen
sudost
berufung
beruflichen
berufliche
verabschiedeten
sympathie
widest
##willig
reichtums
einflußnahme
unverantwort
dauerhafte
tackled
begluckwunsche
palastina
ignoranz
ignorance
schiffse
credible
harsh
harris
tenets
alternativen
alternatively
schlechten
facility
diversifizierung
begrundung
geringeren
optimal
optimale
optimalen
optimistic
vermittlungsverfahrens
attempting
verkauf
verkunden
verkaufen
##spolitisch
eingegangenen
grunes
friedensabkommen
037
0341
ungunstig
zufriedenheit
verletzungen
auszuuben
texas
zweckmaßig
acquired
returned
stabilisation
stabilising
partnerschafts
beeintrachtigung
emerge
emerges
packaging
samtlicher
##apture
##entenverantwortung
weakest
exercised
exercising
behinderung
stadteentwicklung
niemandem
violate
violated
terrorists
terrorismus
doppelten
nennt
##iffahrts
reaff
ersucht
erlauterungen
dezentrale
schulden
beratungs
frontier
komplizierte
infrastructural
infrastructures
drinking
faslane
nazis
nazismus
vessel
##oye
##schwank
##schwachen
handlungsfahigkeit
handlungsspiel
konkretisieren
langfristigen
federalist
beabsichtige
2496
370
##nitts
vorhandene
standardised
margins
prazedenz
bewahrten
entschließungsantrags
immigrant
konsultation
konsultations
suspension
diplomatische
bundeslander
bundesregierung
bundesrepublik
ehud
unbek
disputes
quantities
sitzungs
verbreiteten
##akteure
industriestaat
electricity
sorgfaltigen
relationships
stoffen
mitgeteilt
voranzubringen
voranschreiten
voranzukommen
separated
arrive
directorates
lobbies
awaits
populism
populismus
contradictory
radicals
educational
hypoth
letztes
votum
wachstums
##warnsystem
mitentscheidungsverfahren
##spartnern
entreprises
fragility
adaptation
adaptability
peripherie
fahrzeugbestand
##gewichtung
risikobewertung
ubertragenen
pilotprojekte
0825
twice
##igetafel
erdf
erzeugt
erzeugnisse
rechtfertigung
responded
records
recorded
generaldirektionen
reinforcing
spezielles
ultimate
synergien
tendenz
##stadten
zusicherung
vorabkontrolle
schadholz
gebotenen
serbischen
fehlenden
fehlverhalten
meaningful
schlimmsten
condemnation
marginalisation
marginalised
gasp
tonight
##zutreten
erfassen
erleichtert
ausgerichteten
uberzeugende
conservation
scandal
austauschs
afforded
barrier
barrieren
fruherer
1982
patience
patriot
pillars
russischen
russian
##shire
einmischen
auftrage
premise
gegenseitig
boosting
halbjahr
dramatischen
attacks
irrelevant
eliminated
entschließungsentwurfs
reduziert
retroactive
retroactively
belongs
devisenmarkte
radikal
checking
drogenabhangigkeit
fleet
machbar
pfund
##intervention
zugeste
anzeigetafel
franc
besitzt
jahrtausends
wiederverwendung
wiederverwertung
scrapped
scrapping
loyola
loyalists
forderfahig
restored
restoration
simplification
retaining
erwahnte
kartellamt
traditionellen
unterbreiteten
niedrigeren
##netzes
##mutzungen
reiterated
erlaube
abstimmungs
##umped
dargelegten
wiederherstellen
wiederherzustellen
turkish
turkmenistan
normally
zugelassenen
advocating
characterised
bilaterale
acquisitions
veroffentlichten
horizontalen
einwanderern
cadmium
catastrophic
kanale
munich
paket
##flagge
innenminister
weighting
forgetting
gewerkschafts
nachvollzieh
removing
selbstandige
drastisch
drastically
detrimental
regierungschef
advantages
0083
verlangern
stadtvierteln
multiple
gremiums
karlsruhe
amerikaner
fusions
filled
hurric
eintreffen
zulassig
anhaltende
ausmaßes
stellten
generellen
incentive
incompatible
entschuldigung
gewunschten
gewinnt
ownership
zweifelsfrei
zweifelsohne
staatsangehorige
slowly
virtually
colour
fitting
jacob
paddingt
rotterdam
verankert
streams
enjoyed
deaths
abolished
atlantik
perpetrators
beschleunigung
kostet
kostspiel
soziookonomischen
gleichstellungsfragen
verschlechter
bedeutsamen
replacing
vorgehensweise
hilfsmittel
0026
0028
anstehende
multinationals
multinationalen
stakeholders
2124
2127
2123
differenzierte
korruption
korruptions
wachsenden
wachsende
fascism
einstimmigkeitsprinzip
0121
0120
0122
clash
dossier
phasen
phasing
settlement
anmerkung
##usalem
ausdehnen
ausgangspunkt
maximal
executive
entfernungen
concentrated
concentrates
großtmogliche
explosion
autonomy
autonomiebehorde
reflection
erscheinungen
mißverstandnissen
apologise
prasentieren
demagogie
cease
dedicated
knapp
music
ngl
pieces
trennung
##dienste
inglewood
touches
##igentumer
unreal
unreason
weighing
souladakis
erkki
erwerbs
vorgetragenen
schedule
scheinheil
entfalten
predecessors
strikten
minimis
assuming
assumed
lobenswerte
erschopfen
befurchtung
blowers
hulls
symptome
evaluate
evaluierung
ermutigend
hypocrit
illustrate
earthquake
copy
dunn
petition
semit
womoglich
##funktion
##fleisch
##aneously
reibungslose
zuverlass
angelilli
errungenschaften
enlist
enlighten
enriching
vornherein
doctors
doctrine
herrschenden
legislativvorschlag
schwachsten
verwertungs
secretary
prioritise
14094
gradual
##methoden
kontinuitat
skandal
vorbehaltlos
umgekehrt
unnotig
unnotige
certificate
2107
2108
520
bosn
sceptical
tangible
vatanen
##affungs
##zweck
bedenkt
bemerkenswert
einschlagige
einseitige
verspat
ermittlungen
ermittlungs
gewohnlich
prescribed
tabling
resistance
justifiable
perceive
perceived
accommodate
versohnung
continuity
bewilligen
##sproblem
zuruckgegangen
reputation
reputable
kennzeichnen
anerkannten
billigflaggen
schrecklichen
0352
mobilisierung
koharenten
indirectly
oltanker
xxviii
xxviiith
aston
bulgar
cyprus
fußen
korea
silence
##platze
inconsistent
##enteilung
relaunch
reversed
einleitung
verdeutlicht
verhangt
geared
aufschub
##verhaltnisse
exposed
admir
adhered
consistently
perfekt
endorsement
behauptungen
gleichgultig
weiterentwickeln
getrennt
verwasserung
schwermetalle
parteipolit
unabdingbar
experimental
empfangsstaat
occupied
plenarsitzung
diskussionsgrundlage
equipment
geeignetes
doppelwandige
angestrebten
verheerenden
embrace
irgendwelche
memorandum
bruder
bernard
fossil
picture
skeptisch
vague
##kunfte
##gremium
intellectual
##analyse
##argon
beherrscht
##technologie
unbestreit
unjustified
verkundet
stretched
wheel
##genehmigungen
gehandelt
aufschwung
##deckung
deeds
vorwarts
abgestimmte
fragesteller
ortega
unterscheidet
partially
adjourned
strukturell
vielerlei
zweideutigkeit
bekundet
intelligent
befriste
avalanche
instrumentarium
zustandigkeitsbereich
wahlkreis
ruckwirkenden
protagonists
motiviert
funktionierens
absichtserklarungen
stahlbeihilfekodex
kraftstoffverbrauch
ratsbeschluß
anpassungsfahigkeit
rechnungsprufung
##belastung
0208
krisenbetroffenen
irreparable
entrepreneurial
forgotten
glasgow
chemicals
symptoms
bibliograph
beihilfensystem
bowis
cabinets
efterlø
elab
gruppierungen
kalte
lodged
pyren
rindfleisch
sommer
##branche
beauftragt
##eliegenden
zuliefer
zugestand
vervollkomm
anbetracht
erinnerungen
geostrateg
##verhutung
##verschmutzungen
schottland
##fordshire
exekut
exaggerated
abtraglich
unsuccess
resurgence
aggressive
discontin
freigabe
grundvoraussetzung
eingestuft
einzuladen
mittelbindungen
produzentenverantwortung
versaumnis
ausgewahlten
offenkundig
entscheidungstrager
wirtschaftszweig
##garantien
telecommunications
quantitativen
retrospective
trafficking
geschlechts
veterinar
zertifikat
vorruhestandsregelung
aufstockung
ausnahmeregelungen
047
alexander
clinton
cuxhaven
flautre
ghettos
gorsel
iwf
jørgen
jerusalem
jackson
jospin
kantabrischen
leinster
livelihood
lannoye
nirgend
napolitano
nikitin
plooij
petty
rumanien
saint
triumph
uclaf
vitally
velzen
vanguard
wisdom
zypern
##mißbrauch
##material
inanspruchnahme
unquestion
unambigu
zumeist
zuzulassen
verletzen
wholly
procacci
alibi
##vermeidung
vorgestern
essex
seeschiffahrts
uberschwemm
uberseeischen
unsatisfactory
meistern
intergroup
presupposes
spheres
arrested
ataturk
commensurate
frassoni
nachgerade
##zufriedenheit
adapted
incumbent
montreal
peijs
communautaire
nationalsozial
zusammengefaßt
timeframe
handhabung
artificial
overwhelming
assozi
ausschreibungen
loopholes
mittelfristig
umweltpolitisch
integritat
antisemit
verschlossenen
brandenburg
delinquency
brominated
pharmaceut
gravierend
staunchly
ethiopia
bilbao
strategiepapier
prazedenzfall
industriestaaten
paddington
unreasonable
efterløn
jørgensen
seeschiffahrtsorganisation
300
ah
aer
ath
award
bat
bsp
bab
bub
bren
biod
bats
battle
brucken
cra
cand
cum
cec
catal
cash
dd
dal
dise
dutz
dimin
dream
dumm
dulden
dschung
eb
eil
ease
eigh
ego
eef
ekl
fung
fem
fein
fang
fab
folk
fischer
feind
flicken
flaw
gf
gau
galten
gases
gieß
greife
hen
hung
hum
hug
himm
huten
hieß
icel
jum
jargon
kro
kol
kil
koll
kod
kalt
klagen
kehr
klassen
krank
kindern
kauk
lion
lic
lam
lest
lif
lived
lending
mild
mache
meld
mamm
mischung
nar
nom
night
nuch
nerv
nutze
nannte
nuts
oly
oce
ohn
ps
pon
pul
phr
prag
passen
purch
pomes
porn
rie
ran
rassen
rous
raged
rasche
raschen
rushing
sic
sam
sid
sand
sme
slic
satz
sighted
tv
tens
tide
trib
tiny
ure
voc
vage
vater
vac
wre
wol
wil
wahre
walten
wendet
wette
wundern
zah
zag
##ave
##aited
##ailed
##nten
##nisch
##nitte
##nels
##nack
##niveaus
##ull
##uhen
##ullen
##uous
##feh
##fers
##felt
##fish
##ferung
##fragt
##cer
##city
##cow
##cope
##cury
##cements
##tin
##tum
##treffen
##rin
##ror
##rins
##ez
##eut
##eckt
##iaren
##iological
##ique
##sity
##saß
##sorge
##shod
##swerten
##sregierung
##srunde
##hro
##hten
##hist
##hause
##hange
##hension
##lib
##life
##litten
##oir
##oge
##oke
##otet
##oys
##kal
##kungen
##kau
##know
##kurs
##kurz
##klaus
##kraften
##kaufer
##kuyu
##gte
##gain
##gbarkeit
##dann
##due
##dable
##vot
##vore
##vable
##vene
##vals
##viele
##viet
##pten
##pert
##prit
##ych
##yst
##ypt
##yzentr
##yklus
##xp
##zt
##zert
##ziger
##bb
##bre
##bem
##bul
##band
##bill
##bted
##bstand
##brech
##born
##med
##mein
##mud
##mary
##mount
##mismus
##mutzen
##machten
##wj
##wach
##west
##wuch
##water
##wache
##wurf
##jo
##ºc
##enkt
##enommen
##erb
##erer
##erischen
##erog
##erhalten
##ergebnis
##cher
##chest
##chth
##chant
##charta
thr
thess
thrust
##inen
##inform
##inute
##inated
##inating
##institution
##inelessness
##onik
##esa
##esir
##atig
##atant
##atore
##itt
##itum
##itect
##itaren
##ießt
##ievable
##isations
##isites
##orter
##orischen
##orated
##urn
##urer
##urmount
inj
inund
inert
inne
inneh
inkon
infe
infin
inability
ingang
inhalte
inkompetenz
##anst
##anische
##ancial
##ancies
##ara
##arr
##ares
##arie
##arke
##aritat
##arious
##streit
##stift
##streben
##strad
##stabe
##stehung
##une
##alistische
##alonik
##enth
##enthalten
##entsprechend
##reut
##reden
##rets
##rechten
##rehension
beig
befor
beforder
beleg
begeben
befahren
belegt
beeind
beachtet
bekenntnis
beangst
bewirtschaftung
##omet
##leum
##lehnen
##leading
derog
derselben
##asus
##rob
##rohr
##edies
undesir
##igter
##igate
##emein
##emble
##eminute
##irbt
rek
rew
refor
relie
recept
reisen
relying
realisiert
reprodu
rebuild
einb
einsicht
einhalt
einhol
eindring
einlad
einsetzt
eindringlich
einraumt
##raktion
##racted
##racks
##icit
##icide
##iciar
##icycle
##opfern
##oplane
##elter
##elfen
##eline
##utable
##eite
uno
unent
unus
unten
unfor
unite
unuber
uncom
unfahigkeit
unlaut
unfallen
unwill
unbel
unkontroll
unakzept
unrent
uncont
unlaw
unertrag
unzufriedenheit
unknow
unvore
##etent
##eting
##eties
##eters
##ams
##ames
##idis
##idal
##idation
##idern
##idieren
##idiert
zuhilfen
zugenommen
zugehen
zueinander
zulassung
##olt
##olve
##olving
##oluted
##olders
verge
verant
verod
vernehmen
verzug
vergew
verlaub
verheer
verhaf
veralteten
verandern
##ula
##uling
##ulate
##ulations
anb
anstand
anstellen
anmeld
angrenzen
anbie
anzul
ansteigen
anfalligen
anmel
##gegangen
##gegent
##gehoren
##gefuhl
##geheim
##scher
##schul
##schwer
##schnitts
wirft
wehr
weichen
wehren
haß
haften
habit
stif
streichen
streicht
stoff
strebt
##lichsten
##cts
##cture
##genmerk
##bern
##berat
##issionen
##ilber
##ilien
##erein
denun
##einigt
##einrichtungen
soft
sodann
soviet
sowj
ergangen
erlegt
erteile
ermittelt
erschließung
erweckt
erteilte
erlangt
erlitten
alia
prone
prison
prerog
impr
ente
enables
enemy
##ierend
##ierbar
##ierbarkeit
conform
convers
gefuhrten
geteilte
gekampft
gefolgt
geomet
geeinigt
aufwend
aufrecht
aufweisen
aufrech
aufeinander
aufarbeitung
auflosung
aufnahm
aufpassen
##aches
##achgieb
ascertain
##ceability
##ruche
furcht
mitle
mitein
mitmachen
mitverantwortung
##essions
##verf
##vering
##vermogen
##verlust
##versammlung
devour
deemed
deeper
##estic
##estone
##estaltung
##estricted
vorstell
vorbei
vorerst
vorreit
vorlagen
vorschreiben
vorzeichen
vorschrift
vorfeld
cofin
##illt
##illes
##illing
##illage
neut
##ktiver
desk
desinter
desgleichen
notigen
notige
notify
ausbe
ausnah
ausho
ausfuhrung
ausgestellt
auszufuhren
ausstellungen
auswertung
ausrichtungen
auswirkung
ausstattung
ausgibt
aussenden
ausnutzen
auszusprechen
auswuch
withhold
##bleib
map
mail
mahnen
##ustet
##them
sell
seet
seats
search
selling
werter
werfen
##spfle
##spannen
alsace
##keep
schar
scharf
schweig
dementsprechend
##forward
leug
leap
leichten
lekture
lehre
exile
exac
exakt
exakten
exzell
##ahig
##ahnen
abm
abide
abhilfe
abzusetzen
abgabe
abzustimmen
abgeschaf
abgelaufen
##ivitaten
##antic
herstell
herhalten
herbst
##bean
##beam
##behin
##bezie
##bevolk
suche
suitably
sudeuropa
allay
##nenprinzip
entstand
entfer
entlassen
entlassungen
entstehung
entgegent
umver
umhin
umgehen
umlauf
umgebung
umverteilung
umgestaltung
##liefern
##liederung
##umn
##umme
uberb
uberst
uberzeu
uberschreit
uberarbeiten
ubersetzungen
ubergabe
ubersehen
uberalter
uberbieten
ubermaßigen
uberlastet
frachte
framing
unsel
konzerne
konfoder
##ayment
polyc
polyzentr
##ungsrecht
##ungsarbeiten
##ungsmoglichkeiten
##ungsquoten
##endid
##ifen
##ifies
##ifiable
##ifuhren
meag
interfer
berau
bertin
##ects
wiegt
wieviel
wieviele
##ehand
##ehnisse
##eholders
tact
taktik
sper
spok
space
spitzen
spots
spinelessness
spillage
ordent
orchest
##etzungen
##meid
commons
fratern
comfort
##augenmerk
##adem
##grade
reserved
untert
unterzogen
unterstellt
unterentwick
unterhaus
unternimmt
unterworfen
unterrichtet
##unds
hatred
##erson
##ußen
##ußten
wass
##ibbean
##geste
nachgeben
nachtrag
nachkommt
nachgeordnete
nachgekommen
amos
amoun
##abil
##abler
##abilities
##abkommens
besied
besonnen
besetzten
besprechen
##beitrag
gesicher
gesunken
steer
stead
stems
stecken
finishing
##ultures
##ulturen
##ultaneously
meinerseits
betragen
betreibt
betraf
mankind
##owers
##astet
##ensing
##enswerte
##herren
##agnen
heb
heft
heiß
hebt
heighten
worries
parlamentsprasident
##zusch
##zugen
##zugeben
##zuwirken
##zuwach
muster
##otte
parliamentarians
complied
complies
composed
compassion
agyp
disability
disgu
disburs
disintegration
quer
quad
##anzut
advers
advert
adverse
fac
fault
statistischen
appalling
saw
saal
sack
saves
##ptation
beenden
##ource
##ourish
##icket
pose
indes
indul
indien
chile
charm
chief
##werden
##werken
concessions
##okulturen
rating
ratsebene
durchzu
durchgang
durchbruch
durchgreifende
##ragte
##utely
##utzung
genfer
genannte
genießen
gemeinplatze
##loc
##load
##ape
##reichenden
freige
freiges
freistell
warnen
wartet
warnung
warned
##ocratic
##ocultures
hinaussch
hindering
hinnehmbare
##mslos
needy
pretend
preisen
##iderlaufen
rechtsetz
rechtmaßig
rechtmaßigkeit
rechtzeitigen
##nahe
teu
teeth
teppich
teurer
##ikatore
nochmal
incin
arbeitet
##staatlichkeit
grundungs
grundlinien
grundkonzept
strive
strip
stripped
landschaft
landsc
reporting
effected
monika
monocultures
##anker
pool
pounds
consulted
##ahlten
imports
intent
intim
intrins
##assem
legte
debt
ups
upd
uphe
imply
implies
imported
impuls
initiated
became
decline
##teils
##teilungs
begann
begriffen
begriffe
outrage
outcom
outlining
outdated
communicate
##losure
hierauf
nationally
nationalist
nationalstaat
nationalitat
nationalism
nationalistic
newly
newton
gegenzug
gegengewicht
großter
##bares
zusammenspiel
zusammenbruch
kollektiv
##leichen
counties
firmen
accura
##ampen
##izehn
weite
weiten
develops
substit
submission
##renz
##schlagt
urteilen
evil
evolution
sold
solved
##iously
##iousness
##conomic
themes
##arbeitungs
##arbeiteten
gewutet
gewandt
gewillt
endure
endlos
endstatus
##regierungen
bescham
beschert
beschließ
beschaffen
beschloß
terrib
carries
caribbean
undergone
fundierten
fundierte
erwies
erwidern
geraum
empor
prodis
woch
buro
burgers
anywhere
reformprogramm
reformvorschlage
reformpaket
##aufnahme
##auflage
##aufwand
##aufgabe
verbr
verboten
verbreiten
verbots
verbande
gebrachte
feuer
##wirtschaften
minus
minire
plight
plural
bestra
##atzungen
handen
handled
systemwechsel
insurmount
workload
direkte
##igtes
bereitstellen
somewhere
somebody
##aks
##entric
moglicher
fuels
fuhlt
fuhre
##gebnisse
##gebaude
##inkwasser
sozialwirtschaft
sozialschutz
sozialistische
traum
travelling
traceability
welle
approvals
markiert
##gendem
##vorlage
proving
provider
provoz
expans
expires
exported
expired
explore
expiry
expelled
##folg
##folgen
finanzkontroll
finanzkapital
finanzinteressen
finanzinstitution
zeitliche
eingem
eingang
eingriff
eingreifens
eingenommen
##rolled
standige
wiedererst
wiederfinden
wiedergut
invent
recur
governed
overha
overlap
overdue
clearer
##schende
seegrenze
##uery
##konzerne
madeira
##ansatz
assim
assass
assurance
assigned
assurances
##steuern
staatlich
relies
scor
scales
unterstutzenden
##ubergreifende
##ubergreifenden
discour
discret
discrep
disclosure
names
festung
festigung
feststellte
roo
selten
basiert
bezogen
bezweif
redep
redisc
redressing
love
lohn
lohnt
finances
entwicklungsprogramme
gleicher
gleichwert
gleichgesetzt
remed
remedy
plague
gelob
##alisierte
##achtung
##achtigt
ließe
##zeitplan
abgeandert
abgefaßt
zwischenzeit
wahrungen
wahrhaft
wahrnimmt
believing
believed
guil
guide
einzunehmen
knowing
problematic
##flikt
##weisend
rechtsvorschrift
boat
##esentlich
maritim
marshal
##chnungen
##ierungsmaßnahmen
principe
principal
internationales
##inez
##inees
##etence
##mittelten
bisweilen
bestehe
ganzlich
geschah
geschwacht
geschehnisse
naturliche
angek
angezeigt
angefuhrten
presently
halbin
##ergiebehorde
##ergemein
fordermitteln
fordernden
bedurft
sinkt
employer
##worte
maßnahmenbezogenen
kontra
kontam
kontakten
legislatur
persist
objectively
austragen
affare
affirm
farms
farmer
umweltminister
umweltbew
umweltorganisationen
umweltpolitischen
umweltproblem
umweltpolitische
umweltsan
generates
generalised
lebend
strategisch
strategischer
strategisches
weitergeben
weitergefuhrt
weiterverfol
weitergehende
selbstbestimmung
selbstzweck
ablegen
##lished
##financial
specify
specified
speculators
institutionell
menschenverstand
menschenwur
joining
letztens
verschl
verschont
verschwendet
verschließen
verschieben
verschiebung
mayor
structuring
structurally
prize
index
indebted
strafe
strahlen
schwelle
schwacher
attribute
notwendigkeiten
produzieren
confusing
confront
##afr
##afft
regierungsko
regierungsbeteiligung
culturally
bedeutend
vollen
vollziehen
vollendet
prevail
##ispla
realistische
realistisch
commonplace
gets
getotet
braz
brauchten
curb
versetzt
versagt
versagen
lawine
lawyer
beschaftigte
##ischerweise
demokratisches
adopts
teils
teilnimmt
autumn
regulating
vereinigungen
transaction
transfers
bringe
seitdem
##fulness
beispiell
##geschritten
zahlungs
cooperative
cooperating
respectability
fuhrenden
verwurz
verwaltet
establishes
debatable
gestar
gestort
gestanden
gestrigen
zweites
arbeitserlaub
##grundsatz
flies
flight
flank
flourish
ausgeubt
##kehrt
tunnels
safest
instrumental
instructions
integrity
integrations
integraler
integrierter
finds
erstatten
deutlichen
deutlichkeit
securing
controlled
zunimmt
politikbereiche
politikbereichen
vertraglich
##maßnahme
wettbewerbsschutz
wettbewerbsbehorde
angesehen
strukturpolitiken
expresses
transporting
transportieren
promin
promise
simultaneously
##sprojekte
guiding
guided
besonderes
opportune
protected
##urzten
favours
favourably
kulturgut
einzelfall
kommende
lebensraume
lebensstandard
##rechtliche
steuerfragen
steuerabkommen
steuerflucht
leiter
leitenden
weltwirtschaft
weltmarkt
freihandel
improper
improves
contribut
preclude
precarious
losing
gemeinschaftsorgan
gemeinschaftsrahmen
gemeinschaftsintervention
operative
guideline
elf
elend
elite
elmar
elsaß
raume
zusammenhangt
eleven
punkts
accounting
papieren
recyceln
sorgt
tagesordnungspunkt
##reifbar
kosovar
ausdrucken
regierungsprogramm
kurzt
kurzung
kurzum
kurzsicht
mainland
maintenance
deals
bargain
critics
rests
restraint
signing
signals
volkergemein
wortlich
wortmeldungen
worded
wordings
revive
zurucknehmen
zuruckgenommen
zuruckgew
zuruckgetreten
leitlinienentwurf
absent
abseh
absatze
minded
awaited
bras
brut
##ostet
solidly
##zwingen
investing
investors
closest
closure
dependent
deplor
vorsieht
repud
repayment
vorgegangen
grip
schwerfallig
medical
medizin
##sson
##ssysteme
fortfahren
fortgesetzt
fortgefuhrt
fortbestand
fortgeschritten
brother
##forth
thirds
convoluted
speaks
hilfen
defines
definit
definieren
definite
definitions
gereicht
gerechte
##weiten
regelwerks
regelwerke
verbesserte
akuyu
akkuyu
distanz
distances
protectionism
funftel
funfjahr
wahlrecht
kostenlose
erfolgs
administrations
ubung
##horlich
##horigkeit
reasoned
subsidiary
binnengrenzen
charged
differing
differently
integrationsprozeß
integrationsprozesses
ruined
analyt
ergreife
hervorgerufen
ansass
appropriation
schaffenden
marktmechanismen
bull
changeover
fahrenden
recyclingkosten
engage
ruckkehr
ruckzug
ruckgabe
ruckverfol
rettung
lebensmittelrecht
motto
pleasing
##zahlungen
anstrebt
wegfall
##splans
standpunkts
assistenten
intending
receipt
gedient
gedeckt
akzeptierten
akzeptiere
dimensions
seemed
gesetzliche
textes
bekampft
nutzt
widersprechen
widerwillig
##obby
schutzniveau
modernisierungs
senate
senken
hochsten
hochqual
approached
bestehender
zeigte
zeugen
empfindet
entscheidungsprozesse
vierte
##wartige
beschaftigungsp
beschaftigungspolitischer
beschaftigungschancen
themenbereiche
##lagern
specialised
earlies
reads
readily
funktionen
krassem
erstenmal
wirtschaftsgemeinschaft
wirtschaftssektor
null
verkehrspolitik
dienstleistung
annull
asylrecht
meanwhile
tragende
materie
materielle
individually
trial
trip
trick
trends
trinkwasser
infilt
eindeutiger
##gewassern
##gewahlten
forcefully
unterschieden
ambitionen
energiepolitik
energiequellen
energieerzeugung
##initiativen
##leiter
##leitlinien
kommissionsbed
participants
##lucken
##overed
erschreck
erschienen
aufgezwungen
schnitt
drafts
draftsman
kompens
komplim
trocken
trouble
##bestrebungen
meticulous
katastrophal
zentrales
erhoffen
erhobene
abschließen
abschließenden
innovativer
##esenheit
verstandlicher
mehrheitlich
gerichtsverfahren
gerichtsbarkeit
138
grade
einzuholen
vorausgesetzt
jahresgesetzgebung
anderungsantrags
materialise
fremdenhaß
##lessly
##lessness
derartiges
neufahr
neuauflage
##ifizieren
freeing
challenged
challenging
identification
mannes
##apped
einheitlich
einheitlichkeit
deviate
shipyards
großeres
players
organisational
organisator
draws
verfugbarkeit
dringlich
dringlichkeiten
sichtweise
sichtbare
profil
profite
wirksamere
wirksameren
mercury
nahost
##gelder
stabile
ernsten
superstaat
superiority
beschaftigungsbedingungen
beschaftigungswachstum
centralist
sustainability
strafgesetz
buildings
strengths
hauptproblem
hauptaugenmerk
stimulate
assessments
laudable
tells
stages
containers
prinzipiellen
fortschritts
fortschritten
totalitaren
familie
defending
army
hinterlassen
antrags
capitals
##akthro
##aktivitaten
delegations
delegating
delegationen
analysed
analysiert
schnellwarnsystem
breeding
breakthro
calm
crucially
karib
##fertigte
gesellschaftlicher
failings
substanz
empfehle
dokumentation
21st
##unterlagen
berichtszeitraum
vertretene
ethics
untaug
untatigkeit
staatsburger
niedergang
radio
radically
radiation
vergroß
verzicht
verzahnung
frankly
obsc
observe
##heblich
discriminatory
flexibil
flexiblen
summary
foundations
renewed
mutige
##offs
forever
forecast
entwicklungsstand
entwicklungshilfe
entwicklungsfragen
entwicklungsniveau
paved
tankschi
threatening
theatos
stimmengewichtung
sooner
declaring
beschrankte
beschrankungen
kenntnissen
##kundigt
##bringt
inhaltlichen
inhaltliche
stahlwerk
excellen
limiting
demonstrations
demonstrieren
topics
##aschisten
storage
##verbande
clarifying
visual
effektiven
verbindlicher
functionalist
sicherheitsgarantien
blam
blatant
equivalent
erkennbar
comprise
landwirtschafts
landwirtschaftlichen
currencies
irgendwo
kapitalmarkt
kapitalmarkte
watering
anzuhoren
anzukampfen
neuerungen
entsend
hearings
außenhilfe
außenhandel
kommuniz
kommunalen
kommunistische
globalzusch
criterion
suggesting
circle
satisfying
##boden
ineffiz
erzielte
wertsch
abzulehnen
spanischer
spiritual
drohungen
anwachsen
anwesenheit
angeboten
offering
offensive
aktivitat
honoured
verwaltungsreform
verwaltungszusammenarbeit
verwaltungsvereinfachung
verwaltungsgremium
verwaltungsaufwand
egypt
olgesellschaften
render
##freien
##atories
##atorium
erheblicher
erheblichem
allocate
allocations
concentric
ernsthaften
banker
##gerechten
##geregel
ansatzes
syrer
syrern
syrische
wiederholte
wiederholten
bloßen
blocken
volumen
victim
beantragen
plenums
compromises
ressource
western
beruft
fairen
fairer
richtlinienentwurf
jeweilige
automobilherstellern
benachteiligen
benachteiligte
jungster
tolerable
tolerated
isolating
vermo
geographische
mitarbeiten
mitarbeiterst
entgegensehen
entgegenzuwirken
beschlossene
burokraten
explaining
avoiding
##bestanden
prosecutors
fulfilling
tragedies
vorrangiges
betrachtliches
betreffende
intentioned
##beschaffung
##beschaffungs
beitrittslander
beitrittslandern
volksrepublik
volkswirtschaften
zweifelhaft
ethnische
logischerweise
rassistischen
timing
timely
zusatzlicher
anspruchs
##cksilber
oriented
orientiert
genommenen
transparente
transparenteren
ausschließlichen
authoritative
qualitativ
federation
horrors
messages
##plane
verhaltnissen
sturmen
soundly
coasts
coastgu
shareholders
permitting
industriellen
projektmanagement
broadly
effizientere
misgiv
misleading
ungleichbehandlung
enforcing
normale
niederlandisch
niederlandische
classified
milestone
##stoffen
##stoffe
eindrucksvoll
verurteilung
vermeidung
sudlib
heartily
heartfelt
vorsitzender
widerspruchlichen
desto
false
falsche
widmet
wachs
inspected
inspired
unvermeid
vorherige
hoffahig
remarked
milliarde
formulieren
formulating
formulierte
baldige
baldmoglich
ignoring
ignored
schiffbau
safeguards
bauteile
harten
harbour
maltes
maltese
punish
punishing
##atchiks
alternatives
condemning
registering
schlechth
diversification
respektiert
respektiere
begrundungen
begrundeten
begrundete
geringem
geringsten
jahrhunderte
menschheit
wahrungsfonds
entscheidungsverfahren
promotes
optimism
optimaler
fluchtlingspolitik
diesbezugliche
unionshaushalt
zugeleitet
zugehorigkeit
stopgap
impressed
constraint
schrecken
learnt
publishing
halfway
umweltschutzes
delivery
delivering
eingegangene
enthaltungen
friedensverhandlungen
friedenslosung
wrongly
langerer
swit
switzer
ultral
zutage
zutreffend
ungezug
ungeachtet
ungehindert
zufriedenstellen
auszubauen
spezifischer
entschlossener
sonderfinanz
sondergipfel
produktions
versichert
investigative
investigated
returning
stabiler
syriens
beeintrachtigungen
dreizehn
emerged
emergence
juden
suspected
unerheblich
weaker
excesses
excessively
##ahnsinn
##gestellte
behindert
behinderter
informationsaustausch
advisors
advisory
violations
terroristen
terroristischen
ehrgeiziges
illegale
gruppenfre
massiv
ermachtigt
dezentral
dezentralisiert
beratenden
dispose
disposing
dispositionen
obtaining
mindestmaß
interpreting
rigor
rigour
##haftem
vergleichbar
verleiht
verfahrensregeln
vorbeugen
abhangt
chairmen
handlungsbedarf
sonstigen
rednerin
letzteres
konkretes
aktuell
verzogern
federalism
federalists
highlighting
okonomie
okonomischer
henceforth
##balam
beobachtet
defender
vorhandens
schriftliche
##gesetze
complexity
prazisen
bewahrung
nuklearen
laufende
defended
republics
bigger
biggest
bundesstaaten
unbefried
anschauen
auswahlverfahren
abstra
abstentions
abstract
dispute
quantity
sorgfaltige
befurworter
liest
lays
layoffs
mistaken
sentence
einkauf
einigungsprozeß
stoßt
proportions
voranschreit
vorangekommen
separation
separately
nachzukommen
nachzuweisen
consolidating
jeglichen
agrarregionen
zentralistische
zentralasien
familienzusammen
romany
romania
falscher
programmplanungen
##instrumente
##instrumenten
hygien
verringert
anlaßlich
##verwaltungen
sprachrohr
##ziplinaren
fahrzeugindustrie
fahrzeughersteller
widerspieg
widerspruche
arabische
jugendlichen
jugendarbeitslosigkeit
glaubwurdig
pilotproje
penins
penalise
richest
primary
gebern
entitlement
umgeht
umgegangen
spateren
versuche
reflects
doppelfinanz
konfliktverhutung
paradoxon
synergies
kluft
vigorously
tools
vorabkontrollen
schadlichen
schadliche
schadlicher
ubernommenen
nachbarlander
nachbarlandern
landwirten
launching
serbische
serbian
##angehorigen
bedeutender
translated
erforderlichenfalls
protestieren
condemns
marginalisiert
campaigns
auseinandersetzungen
##vielfalt
##attete
ergebenden
ausweiten
selected
schienen
heimlich
gewißheit
handelsaustausch
affords
continental
languages
motorra
motorcyc
territoriale
horizon
anchovies
supranationalen
thoroughly
pinpoint
patients
waldern
wandlung
wandels
##ichertes
unfavour
auftritt
auftraten
abandon
entstehenden
politician
preferable
wohnungs
feeding
inselgebiete
dramatisch
foderalisten
kurzfristig
protocols
belonging
devisenspekulationen
radikale
beamtenapparat
fifthly
konstruktiv
obstacle
philosophie
edf
pflegen
pflege
widening
zero
unwield
unwesentlich
zugeschnitten
ausgestaltung
speedy
incidents
incidentally
decisively
wiederverwert
afrikanischen
ministerrats
simplified
simplifying
distortion
retained
kartellrecht
kartellverbot
postponing
griechenlands
niedrigsten
gewissermaßen
dismantle
japanischen
gultig
kindersch
omissions
##ashed
unnachgieb
verharm
verhelfen
gekurzt
gekostet
demontiert
vertieft
begonnenen
feasibility
welthandel
normung
normativ
befindliche
vorsitzes
advocates
characterise
privatisation
vizeprasidenten
garantiefonds
pursuit
spekulativen
militarischen
substantially
fishermen
horizontale
einwanderungs
catastrophes
fahig
fixiert
gratitude
kanad
munchen
temptation
innenpolitik
inadequ
anderswo
units
auseinanderzusetzen
konstitutionellen
gestehen
gesteckt
indikative
indirekt
offizielle
upholding
berechtigung
bedurfte
bedurfnissen
selbstandiger
verantwortungslosigkeit
verantwortungsbewußt
qualifizierten
privileg
hochstmoglichen
multiplication
karlsson
unzureichende
universal
gesundheitsschutz
gesundheitswesen
sachverstandigenausschuß
betriebswirtschaftlichen
##vereinbarung
dynamisch
film
files
matched
nahrboden
slicks
##casus
beurteilen
beurteilt
beunruhigende
reassured
unklarheiten
zulassige
anhanger
anhaltender
gefallt
ausmaße
schuldig
leidenschaft
interface
spurbare
stellvert
beihilfepolitik
comparable
incomprehens
incompetence
entschadigungen
perspektiven
abgegebenen
verschwunden
engagiert
engagierten
##berechtigt
endeavours
endeavoured
beneficiar
infringements
physische
staatsangehorigen
korrektur
minderheitsregierung
tarifvertrag
wachsamkeit
interinstitutionelle
disseminating
verbrechensbekampfung
certification
eye
hamburg
ziffern
##riptive
##potential
bewegungen
anxiety
anhorungen
##befugnisse
friedliche
steuert
##fuhrungsstrategie
beschlusses
scrutin
gleichstellungsaspekt
verschlechtern
verschleppt
hervorragenden
aspiration
merits
kernkraftwerk
kernkraftwerks
kernkraftvorhaben
reconciling
supposedly
##freundliche
intensivieren
intensivierung
kooperationsprojekte
unerlaßlichen
fascist
fascists
twentieth
durchschnittliche
breitest
geltung
gazast
gunstiger
pushed
euroscept
euroskept
gezielte
maximale
seguro
abgereichertes
herangehens
attending
combining
amtsbl
quarrel
apparatchiks
concentrating
prejudices
großtenteil
##produktion
verhandlungspartnern
erscheinenden
komplexe
komplexen
zentralisierte
obligatorisch
obligatorischen
##betrieb
apology
apologies
destructive
vigilance
demagoguery
customary
gigantic
gigantischen
unannehmbaren
birth
dedication
homogen
homelessness
kursschwank
kategorie
musik
netzwerke
nominate
rollstu
trennen
##kannenprinzip
##blowers
##aspekten
##uttelt
weigerung
havarie
prohibition
erwerb
erwerben
erlaubnis
gewertet
parameters
aufrichtigen
schicksals
artenvielfalt
gesichtspunkt
gesichtspunkte
geschenke
expanding
books
straightforward
attractive
flows
erschopfend
sensibler
sensibilitat
relevante
illustration
besitzstandes
temperatures
temperaturen
branch
casting
dunk
estimate
estimated
estimates
lengthy
murders
womit
wrought
##funktionen
deregulierung
reibungslos
ungenau
ungenugen
zuschussen
zuschusse
zuversichtlich
denkbar
erhielten
enrichment
mitzuarbeiten
##verkaufer
desperate
sexual
schweiz
abfallvermeidung
nachteilig
justitielle
vertretung
vertretbar
hierarchical
zusammenlebens
gewonnenen
undermines
undermining
undermined
redundancies
locked
arbeitszeitgestaltung
secretariat
elektronischen
corporate
repairing
hervorragendes
energieeinfuhren
fruhjahr
embargos
totalitarismus
egksvertrags
republiken
risikomanagements
enforceable
skandale
ehemaligen
ehemalige
ehemaliger
displaying
displayed
utilise
umgekehrte
cleaning
bretonischen
bretonische
##situationen
inhabitant
irresponsibility
whistleblowers
catholics
glucklicherweise
kriegs
kummert
pulling
tightening
watching
##affaren
##wahrung
beleid
einhergehen
einschlagigen
verspreche
street
prozentsatz
denounce
denouncing
alarming
coincidence
selecting
demographic
demographischen
abwagung
abwicklung
abzielt
siebenten
shellfish
mechanism
prescriptive
splendid
nachfolgenden
wendepunkt
sailing
justifies
grundprinzipien
initiativrecht
province
provinces
gleichberechtigung
plainly
versohnen
continuous
bewilligt
distinct
allgemeinverbindlich
allgemeinverbindliche
gesetzgeberischen
emotions
emotional
profoundly
kernwaffensperr
umfassenderen
golfstrom
inspektion
treibhause
produktivitats
penalty
koharente
versicherungsnach
hampered
ratsvorsitzes
theoretisch
oltankers
black
ewig
gottes
hesitate
hemm
hemicycle
journal
korean
zitieren
##iopien
##iversity
##modalitaten
inquiry
inquiries
ungerechtfertigt
versteckt
verdeutlichen
##gekommenen
neugestaltung
reglementiert
scheich
shameful
shredding
fraktionsvorsitzenden
adjustments
chaos
mehrwertsteuer
zusammenzuarbeiten
endorsed
behauptung
umweltfreundlichen
verwassert
schwermetallen
immunity
immunitat
parteipro
gesetzeskatalog
fruitful
plenarsa
neuwagenkaufer
praktikabel
redebeitrage
drittstaatsburger
beruhenden
inspiriert
verknupfen
verknupfung
angestrebte
verheerende
irgendwelchen
redistribution
memorandums
azoren
azores
crystal
dilution
fließt
fließband
hartnack
moscow
moskau
naiv
riis
sammler
veu
##helfen
reuniting
zugewiesenen
verwirrung
anregung
anregungen
ankundigung
alpen
vorurteilen
vorgebrachten
vorgebrachte
escape
heranfuhrungsstrategie
heruntergekommenen
sudens
shopkeep
shoulders
tauschen
spannungen
architect
heiklen
compliment
compliments
percentage
percentages
woodland
traurige
reluctantly
mittelzuweisungen
angehorige
persecution
menschenrechtsverletzungen
konkurr
konkurrenz
conviction
convictions
ruckschritt
gesetzgebungen
zeichnen
multiplier
multiplikatore
multilateral
uberwachungsausschuß
sichtvermerk
burgernahe
kraftfahrzeug
kraftfahrzeugen
unterbrochene
inefficient
ineffective
korrigieren
korrigiert
misunderstand
misunderstanding
floods
leistungsfahigkeit
ungeheure
konflikte
konflikten
hunderttaus
prasidium
prasidiums
dissatisfied
dissatisfaction
unglucksfalle
zusammenhangenden
steuersatz
persuasive
ingredient
ingredients
foreseeable
bescheidenen
audiovisual
audiovisuellen
weihnachtsmann
kaleidoskop
kaleidoscope
seltsame
bolster
blieb
bogged
croat
caucasus
catches
domestic
dreadful
erachtet
micro
martinez
namentliche
rumour
wunderbare
##nambalam
##effekte
##disk
##wesens
##chseln
##instanzen
undurchsicht
repression
unrestricted
unausge
unaufhorlich
unilaterally
zuwiderlaufen
verseuchung
##gefugt
enacting
detected
vorhers
ausgeschopft
auszugleichen
macrofinancial
exempted
abwandern
abwegigkeit
herbeifuhren
arrogance
atmosphere
compounded
liaison
agentur
quecksilber
diversen
obdachlosigkeit
instinkt
installations
indonesien
champion
spezialisierte
precedence
transeuropaischen
consciousness
damalige
vertikalen
mehrjahrige
gewarnt
sozialversicherung
##vorbehalt
##konzentration
assault
geschatzten
selbstverstandlichkeit
verschrottung
informationstechnologien
transformation
bewertungs
angesiedelt
distinguished
wohlhabenden
ecosystems
erschuttert
einheitswahrung
empty
kapazitaten
bevorzugt
okosysteme
unequivocally
risikokapital
constituents
schiffskorper
telekommunikation
besorgniserregend
suspicion
westjordanland
synergieeffekte
verstoßes
auftauchen
bewerberstaaten
explosionsartigen
sauberung
disturbing
treibhausgasen
##swerterweise
proclaimed
contemplating
rechtstexte
municipalities
verworrenen
exhaustive
meinungsverschiedenheit
aptly
breadth
criminals
eradicate
gnp
szenarien
titels
wieso
wildlife
##ixture
##chairs
inhaftierung
##anspruche
##sthemen
unumgang
unvorstell
unavoid
zugrundeliegenden
angerichtet
anzustreben
hautala
vorantreiben
vorverurteilung
auspices
aussohnung
seismic
abwarten
abgedeckt
uberfischung
unsicherheiten
meßl
atomic
atomenergiebehorde
unternehmert
untermauern
disgraceful
gemeinderaten
monstro
intrans
mehrjahresprogramm
zusammentreffen
verbieten
expensive
seefahrtbehorden
roughshod
zweierlei
gleichkame
außergewohnlich
##besteuerung
confronted
vollstreckung
kultureller
vereinheitlichung
flammschutzmittel
ausgeglichene
politikfelder
gesamtsumme
cornerst
bromierten
kostengunstig
excluding
ecologically
hochrangigen
reflexion
komponente
komplementaritat
troops
devisentransaktionen
ernahrungs
defizite
staatsanwalts
volatility
beruhigen
nordirland
nordamerikanischen
reaffirm
handlungsspielraum
francs
hurricane
korruptionsaffaren
erschopfende
parteipolitische
unbestreitbar
befristete
exekutiv
unsuccessful
discontinued
veterinaramt
nirgendwo
unambiguous
uberschwemmungen
nationalsozialismus
aeroplane
athiopien
biodiversity
candu
ddr
ebnen
eklat
female
fabric
gießkannenprinzip
hugely
iceland
kaukasus
meldungen
olymp
ocean
ohnmacht
psych
ponnambalam
pornograph
slice
ureigen
##votum
thessalonik
inundated
inertia
inkonsequ
infinitum
ingangsetzung
beigemessen
beforehand
beeindruckt
undesirable
unusual
unbelievable
uncontrolled
unlawful
unertraglich
unknown
unvoreingenommen
zuhilfenahme
verantworten
verodung
verheerend
verhaftet
anmeldesystem
anzulasten
anmelde
conversion
geometrie
aufrechter
aufnahmeland
vorreiter
desinteresse
ausbeutung
ausnahmslos
##spflege
schweigeminute
exacerb
abgeschafft
##beziehungen
##bevolkerung
entfernen
entgegentreten
polycentric
meagre
interfering
bertinotti
spokesp
amounted
##zuwachs
agypten
advertising
chiefly
rechtsetzungsverfahren
outcomes
accuracy
substitute
terribly
geraumer
minireform
insurmountable
expansion
finanzinstitutionen
overhaul
discrepancy
redeploy
gelobt
halbinsel
umweltsanierung
menschenwurde
regierungskoalition
volkergemeinschaft
medizinische
ruckverfolgbarkeit
earliest
annulliert
strafgesetzbuch
breakthrough
vergroßern
misgivings
sudlibanon
baldmoglichst
schlechthin
switzerland
ultraliber
sonderfinanzhilfe
familienzusammenfuhrung
widerspiegeln
beneficiaries
euroskeptiker
amtsblatt
großtenteils
rollstuhl
treibhauseffekt
versicherungsnachweis
shopkeepers
multiplikatoreffekt
thessaloniki
06
066
367
410
51
54
57
53
512
540
65
79
74
76
743
728
91
ax
ach
ave
aden
axis
bp
b1
b2
bun
bug
bain
biz
bose
bolog
bless
baut
baust
batt
baug
cer
cun
cern
celt
cub
cart
colog
cope
cey
craft
crow
caution
cyc
clock
caval
capture
dir
dicht
dess
dang
dry
dri
dans
divid
dgs
ee
eve
eau
eib
elo
emin
earm
ehes
elly
elicit
eilen
eminent
eieck
fi
fv
fed
fly
fangen
font
fath
feld
fußt
fließen
fernen
father
fbi
fielen
fenster
fester
gb
gon
gul
glie
gib
gall
glos
galt
gho
ghil
gale
gruß
glass
gino
gangs
grud
greifbar
hie
hed
hut
hid
hein
hind
hall
hilt
hicks
hetze
hielten
iz
ion
ile
iber
ice
ilo
jim
jeh
jens
jub
jett
jugos
james
kh
kun
kid
kad
kelt
kriminal
knor
klaus
katal
kernen
katalog
kanzler
kredit
lt
lap
luf
lloy
letting
lorenz
lasse
lille
ment
mul
mister
mutet
mentions
mature
moss
mixture
nic
nice
ngo
nichte
nana
oy
ois
omen
oze
oste
ouv
owes
omitted
pit
pion
pier
pess
piv
pau
pip
pfen
pick
plung
patter
pac
ponder
peter
pausch
pledge
penn
pumped
qm
rk
ral
ring
ric
ration
rain
rab
rio
rose
ride
rings
richtet
rinder
riding
renten
rasse
rente
richteten
sn
sier
sant
sien
sank
surf
sledge
sends
satur
soph
sande
setzten
setze
tan
tid
tand
tort
tant
tieren
tong
tons
tues
tread
tension
treiben
trift
tiere
toned
tended
tensions
tigers
tesa
ul
ug
uz
uck
vand
vort
vla
viv
vend
vran
vod
vak
vous
vene
vende
vierten
vidal
wah
wip
wag
wolle
wine
wiesen
wesen
wagen
wisely
wats
wyn
wahnsinn
yen
yarm
yugos
zens
zitat
zimer
ºc
##aen
##ais
##aving
##avering
##ailles
##ni
##nh
##nw
##nig
##not
##nutz
##nov
##netzen
##uc
##uffen
##uper
##uvern
##uated
##uhungen
##fi
##fon
##fir
##feit
##fus
##fest
##find
##fungs
##fast
##four
##flo
##fond
##fiz
##funft
##facht
##fschaften
##feder
##fishing
##cr
##cm
##cul
##coun
##care
##culation
##cending
##tragen
##tty
##treiben
##tschaf
##tfordshire
##turn
##rt
##rs
##rann
##rend
##ralt
##riger
##rants
##rarily
##raries
##runken
##ee
##ees
##eid
##eau
##eken
##eot
##eko
##eering
##ebb
##economic
##iw
##ias
##ipp
##iqu
##iably
##iators
##ipping
##iola
##sa
##sar
##sed
##ship
##sverfahren
##slosen
##srahmen
##sanforderungen
##han
##hun
##ham
##hungs
##hlichen
##hielt
##haufen
##hammer
##hullen
##ls
##lam
##lord
##light
##log
##long
##lated
##lange
##ligence
##oß
##oqu
##occ
##ood
##offen
##ohlen
##oasen
##kn
##ky
##kar
##kungs
##kour
##kod
##kbar
##krie
##kward
##kling
##klagen
##kala
##kredit
##karten
##gust
##gau
##gne
##greg
##gna
##gado
##gones
##do
##don
##dim
##dichte
##dbour
##dron
##doz
##down
##dumping
##displa
##vin
##vet
##vation
##vater
##via
##vates
##view
##viment
##vette
##vada
##ple
##pow
##plex
##paßt
##pfeil
##passes
##yk
##ysen
##yard
##yph
##zz
##zb
##zun
##zungen
##zau
##zank
##zierung
##zone
##zale
##zernen
##zyklus
##bay
##bast
##bish
##bone
##beln
##back
##baum
##bahnung
##mis
##mang
##mord
##melt
##massen
##mix
##meter
##matic
##mutzt
##mstadt
##wich
##woll
##wett
##wende
##wurfen
##wreck
##ja
##ßte
##15
##17
##18
##13
##95
##98
##90
##45
##42
##58
##50
##52
##78
##62
##80
##05
##29
##27
##23
##33
##enken
##encer
##eral
##erent
##ered
##erisch
##erver
##erkt
##erted
##erwer
##erlegen
##erating
##erfordern
##erzielle
##ermo
##erklarung
##erklarungen
##erfolg
##chsch
##chers
##chard
##child
##chron
##cherei
##chini
thin
thors
thread
##inis
##inct
##inde
##ints
##inland
##inhalb
##intens
##inav
##inburg
##onic
##onden
##onien
##onitz
##onstration
##onflikt
##esis
##eserv
##ndung
##ndet
##atie
##atem
##atum
##atien
##atical
##atri
##atogen
##iten
##itas
##itud
##itts
##itives
##ituation
##itors
##itare
##itrea
##itterung
theme
theater
##ieinhalb
##iser
##isan
##isive
##isab
##isible
##isons
##isierungen
##isator
##orb
##orten
##orisch
##orling
##oritaten
##orification
##oritas
##uru
##urts
##ionale
ina
ingen
infor
inad
infer
inko
inklus
##iche
##ichern
##anc
##aner
##ankt
##anliegen
##anschlag
##ancement
##anuts
##anbul
##arity
##arely
##arren
##stung
##stisch
##stein
##stable
##staltung
##stily
##staking
##stransaktionen
##stufe
##starke
##unas
##untern
##unfalle
##aling
##aland
##alban
##enthal
##reht
##redu
##reißen
##reening
##rechnet
##reaktoren
##rechnung
diez
bean
bever
bebe
beend
beip
beher
beige
bewir
belegen
beine
belast
beleben
bezeugen
befallen
beets
beauftrag
belauft
belasten
bequem
bemerkt
##ombe
##omitant
tox
toten
toug
toba
##ungluck
##teien
##teckt
##teenth
##lete
##lekt
##leug
##lecht
##leeren
##lelement
##leuten
##leuropas
##leashed
deriving
derzufolge
dergleichen
derisory
##asie
##asury
##asiens
##ingness
##ingliederung
andert
##lls
##llers
##llous
##llnisch
##ros
##road
##roux
##rohte
##roleum
auct
auver
auschw
##eded
##edischen
##edish
unde
undp
undem
unduly
##ignen
##igger
##igerung
##igste
##igating
##emis
##embar
##emenz
##iress
##irkt
##irac
##iraum
reed
reop
rege
rely
reim
reck
refu
reap
reint
repar
reapp
reloc
einund
einsetz
einnahme
einheiten
einblick
einfordert
einigungs
einbahn
einfuhrungs
##raß
##raut
##rable
##rages
##raining
##ico
##icent
##icts
##icious
##icism
##icia
##icante
##icapped
##opol
##oppt
##opulation
##opolit
##opfert
##opoul
##elen
##eler
##elung
##elben
##elzu
##elong
##elho
##elque
##elux
##elerated
##utig
##utter
##utten
##utigen
##utary
##utage
##utreten
##utably
##utreffend
unc
unein
unif
uncon
unlo
unlos
unstimm
unfalls
ungemein
unged
unzahl
unbere
ungew
unhof
unification
univer
unwise
unbesch
unatt
unwar
unbestimm
unverbind
unthink
ungelost
unstable
unleashed
##etic
##etland
##etically
##etunion
##etastet
##amter
##amour
##amount
##idity
iso
zugen
zuteil
zuarbeit
zuwand
zugew
zusatze
zuweisung
##oline
##olmet
##olobby
##iest
verder
verab
verrat
vergeb
verfall
vermin
vergemein
vergegen
verziehen
verlaß
verlaufen
veritable
verleiten
verviel
veruben
verweiger
verteilten
veranderten
verehrter
verarg
vermerkt
verteilungs
vereid
verleug
##ulat
##ulary
##ulatoren
anc
anland
anged
anzus
anlauf
anzustellen
ansetzen
anwendet
anfallen
anzusetzen
anhoren
anfallig
anspiel
anspru
anvis
anmeldungen
angede
anzur
anweisungen
annehmbare
anzusprechen
anprangert
anhebung
anhange
##gehalten
##gefuge
##gefallen
##gearbeitet
##gegangenen
##sches
##schland
##schlusse
##schiff
##schranken
##schweif
##scharakter
##schelzu
##vellous
wear
weigh
webs
wecken
weather
wechseln
##tere
##tered
##terten
##terungen
##terrand
haf
hader
hasten
haven
hague
hapert
hastily
stro
stir
station
stau
stub
stamp
stone
stritt
starkt
streifen
streiten
stille
##usable
##uskour
##tenzieren
proz
proph
proxim
prolet
prosa
##lichere
forc
ford
forme
forty
forwards
forged
foresh
dachte
dachten
dastehen
dauert
##cto
##cting
##hright
##hrkop
##gende
##genutzt
##bers
##berucksicht
##berichte
##beratern
##issl
##issy
##issal
##issern
##iles
##ilib
##ilia
##ilassung
##iliate
##ildert
europarat
noon
noble
novel
noire
noirm
nobel
nogue
##erecht
##ereign
deny
denies
denying
denounced
density
##denkt
##dennes
##ischerei
##einschlag
##einamer
onest
onwards
onerous
##derer
##derischen
##derweise
##derwerk
sogleich
soares
ert
erfor
ersatz
erbes
ersetzung
erhol
ertrag
erzeugen
erwogen
erhaltung
erschließen
erhalte
erzwungen
ersichtlich
errichtet
errors
erstellten
erproben
error
ermittelten
erzwingen
eritrea
alch
alger
alerts
alps
aliens
alike
alba
albert
alicante
pride
##ommissioning
##andten
##andelt
##andeln
enge
enri
envelop
encom
eneko
##iertem
##ierdo
##iereserv
conak
confer
contend
constab
##ortame
##oso
##ossen
##osse
geach
geah
gefu
geub
geordn
geiß
gefur
gelegen
geleg
gegangen
geiste
geoff
gefolge
geweig
gegriffen
geweckt
gefuhrte
geordnet
geholfen
parking
parks
parcour
pardon
aufb
aufreg
aufhalt
aufklar
aufstellen
aufgest
aufraum
aufteilung
auffordert
aufzustellen
aufleben
aufkommt
aufnimmt
aufhort
aufgebaut
aufgede
aufwerfen
aufweich
aufzahlen
aufzahlung
aufgerufen
aufdeckung
##dep
##deal
##dehnen
##deaux
##defiz
daseins
##achte
##aching
##achliche
##achgemaß
##achteiligung
##imon
##imeter
##imony
##ceiv
##benga
##benachteiligung
##ruft
##rupt
##rums
##rufung
##rupted
##rucke
furchten
mitsp
mithalten
mithin
mitgest
mitwirken
mitbestimmung
mitrov
mitreden
mitterrand
##ession
##essens
##very
##verantwort
##verwertung
##verwerten
##verlagerung
##verarbeitungs
dell
deem
deck
defl
defe
deklar
deaf
##ests
##estation
##estand
##estaat
##estalten
vorla
vorkehr
vorrecht
vorweisen
vorbed
vorlag
vorweg
vorkomm
vorziehen
vorgabe
vorkommt
vormachen
vorgestellten
vorlaufig
vorstadte
vorstoß
voranzut
coute
coca
cows
##illy
##illus
istanbul
esprit
neigung
neuse
neof
neulich
nevada
nichtf
nichtwirtschaft
##kts
##ktive
##ktuation
##ktoren
##ktrin
desast
notes
notor
notable
##ffin
##ffte
auslo
ausgeb
ausfl
ausgem
ausfuhrt
ausged
auszust
ausreicht
auslands
ausschlag
ausgere
ausfallen
ausarbeiten
auslosen
ausrichten
ausbauen
auszul
auslauft
auszur
ausrede
ausstoß
ausbilden
auskunfte
auswartige
auszun
ausgenutzt
##uldig
##bled
##bleibt
regis
regelt
regiert
regrets
maiden
mahn
##usta
##uster
##thu
##then
##thaft
##thaus
##theits
##thalter
##thora
##theken
sees
seat
segen
sepp
severe
season
seifen
sebast
seelen
##lain
##lauber
##lavia
werften
werbung
werbekamp
##spat
##spol
##spri
##sprache
##spielt
##ppe
##ppland
schmer
schone
schred
schlossen
scharm
schatze
schriften
schock
schirm
schichten
schuren
schlusse
schief
schauen
schopfer
schießen
schorling
demol
demselben
demnach
demutigen
##ateboard
##amente
##force
##forum
leere
lever
leag
leichts
leichte
lebt
leuten
leoni
leaked
exon
exil
exod
existed
exuper
abc
abg
abort
abstand
abkehr
abgestellt
abfassung
abgaben
abnor
ablaufen
abgrenzung
abgestellten
abwesen
abstanden
abweich
abweichen
abusive
abdeckt
ablesen
abliefern
##weigen
##weight
##wehren
##weideut
##ivier
##ivise
##ivile
##antgar
##antasie
##antopoul
herang
herauf
herstellen
herkunft
herstellt
hergestellten
herstellern
hertfordshire
commissioned
moel
mother
modellen
moviment
mouskour
##beeren
##bekommen
##beforderung
##bewohner
##beherr
##begriff
suanz
succ
sunde
werdenden
ally
allot
allian
allenthal
sichrov
entity
entneh
entlegen
entled
entzogen
entfallen
entnommen
entrust
entwerfen
entfallt
entailed
dozens
dovet
doktrin
umsch
umsp
umform
umstellung
umgang
umwal
umgehende
umwel
umgesetzten
##ummen
##umwelt
##umably
##umsatze
uberreg
uberfuhrt
uberhol
ubersetzen
uberheb
ubernational
uberbewertung
ubergreifenden
ubermaßige
uberzogenen
ubergeordneten
uberschreiten
uberras
uberfluss
uberbleib
shot
shore
shaken
shorter
shipping
shetland
fraga
unsinn
unsachgemaß
konf
konstit
konrad
konzern
konzert
##anntheits
##erne
##ernzu
##ernob
##ahrt
##uges
##ugnis
polder
##ungsrechte
##ungslose
##ungsbeihilfen
##ungsbestimmungen
##ungsziele
##ungskompetenz
##istry
##istans
##iften
##ifted
##ifragen
##iftend
##ifiques
##ifaschisten
unionspolitik
##ckte
mete
meij
##itio
##itiare
inters
interact
berichtet
berthu
wiebenga
##sening
##sender
##sense
##ehlen
##ehbare
bygones
preserved
presumably
##schaftlichen
tauern
taiw
mrd
spark
spren
spare
spade
spruch
sprech
spitz
spatzen
spaces
spencer
thereaf
ari
armer
ardu
ardennes
orwell
ordeal
atroc
##etzte
##meate
command
commence
fres
fressen
frighten
##halter
##aute
##auff
hob
hole
holly
##adet
##adies
##adier
##grafschaften
##gravates
reson
resid
reside
residing
resorted
resemble
unterhalb
unterdruck
unterstellen
unterliegen
untergang
unterrepr
unternehmern
untergeordnete
untergeordn
untergeordneten
unterfangen
unterlassung
unterordnen
unterlassungen
unterkunfte
untergegangen
##ureichen
##undary
##underung
##ersatz
##erskala
##ielte
##ienne
##ienstete
##erence
##sell
##seus
nachge
nachten
nachsicht
nachahmen
nachgesch
nachgehen
nacheinander
nachsehen
nachzul
nachgewiesen
##ausgeben
##ausgleich
##auswirkungen
##ausbildung
amaz
amtsein
ample
##aine
##abes
##abund
##abase
##ablan
##aburu
dargestellten
darstellten
darmstadt
besuchen
besagt
besque
besold
##elli
gesinn
gesucht
gesunden
stein
steigen
stewart
steuerung
stepping
##kennung
##zeigten
##zepte
finesse
meinten
counted
counts
groben
grobe
##ardotti
beton
betru
betrei
betty
manko
##oweit
##owracks
partisan
##erta
##samt
##same
##samen
##samkeit
##enswerten
##quiola
##quierdo
##rance
##ransp
##ranca
##ags
##agh
##agte
##agerungs
##agna
beibe
beizulegen
beizum
hege
hegen
heutz
heuche
hektik
worter
worship
worsening
##zugehen
##zufugen
##zuhaben
##zuschreiben
##zuela
##zuerhalten
##zuverwerten
##otal
computers
compendium
goebb
gollnisch
agri
agents
aggreg
agusta
aggravates
dish
disass
disgust
quak
quellen
quiet
quelque
prasidentschaften
##anza
adige
adject
adje
admission
adana
adherence
fax
faden
favel
faire
faßt
statistische
gemelli
sages
safer
sapar
saunas
##iograph
##priesen
##ationslager
divert
diagn
##fullen
obstru
obliegen
obnov
contested
##ourge
##concil
instand
instigate
##position
indis
indischen
indessen
indian
indiens
indisc
abermals
chart
chipped
chasing
chiqu
chirac
##werp
concomitant
##oko
##oking
##okonflikt
ratification
ratifying
ratschlage
##standig
##standort
##cco
##lary
durchle
durchfuhrt
durchleben
durchlaufen
durchzubringen
##raged
##ragten
##uteten
##arked
genf
geno
genetisch
genetically
gemeinwohl
gemeinnutz
##lohn
##apest
##reichte
freely
freunden
freunde
freiraum
freilassung
wars
warte
wartung
specially
##eltes
usbekistan
mußig
##outs
##outh
##outier
##odien
##ishness
##ocation
##ockt
hint
hinsehen
hineing
##mshaven
needing
justitiare
preuss
preferences
pretty
preocc
##neid
rechtes
rechtstrad
rechtspflege
##nahen
teuren
teacher
##ikas
##ikamente
inclin
inciden
incoming
inclined
incisive
arbeitende
arbeitsteil
##staatlichen
##immer
##imming
##immern
alleanza
grundlichkeit
grundide
grundged
grundproblem
grundansatz
strang
stranger
lands
landis
landschaften
landflucht
landlock
landaburu
myller
mono
monster
monnet
monokulturen
##ankung
poul
poos
poison
potenzieren
consent
consigned
dams
whoever
##ktionieren
legten
legalisierung
legalised
##gericht
##gerichts
##geraumt
vertan
vertrieben
vertagung
entschluß
jedw
mehrerer
theirs
##stellenden
peake
peanuts
##woben
lagen
laden
laure
laugh
lappland
entwurfen
upward
updated
impover
impoten
##idende
##idenschaft
##idenced
initiieren
##artig
##erungluck
decides
decommissioning
##fahrer
##mpiert
##fuhrer
##fuhrende
##teilnehmer
##teilungsinstrument
##licity
##licable
begrud
outlying
outraged
communal
communism
communists
nationalversammlung
##heber
gegeneinander
gegenmaßnahmen
großart
großartige
großstadte
großartigen
großstadten
raderwerk
##barten
zusammenkommen
zusammensetzen
zusammenwirken
zusammenzufuhren
zusammenzutragen
zusammenwachsen
zusammengetan
##rix
##riage
perv
perplex
permeate
##velopment
accum
accuse
acceding
accelerated
2007
site
sitten
##izen
weitaus
weiterg
weithin
weitreichend
weitgehende
weitschweif
interner
##rence
##rendering
##vernichtung
urba
urlauber
urquiola
urheber
evas
evok
evaded
evolving
evidenced
solas
soliden
economical
thematischen
##ups
##upflo
gewirkt
endogen
endergebnis
endverkaufer
##wendungen
##wendungs
##register
beschlag
beschreiben
beschnit
beschafft
terrain
teratogen
##cedo
##rieb
carlo
carpe
carelessness
caroline
underlies
underval
underrepr
underlines
underground
##etti
##etticher
geruttelt
emporen
empfinden
woher
jahrfunft
burn
burgen
burner
programmierung
richtern
richtungs
richtigerweise
richterskala
anybody
reformer
reformierten
reformmaßnahmen
reformziele
##aufe
##aufkommen
verbal
verbracht
verbanden
strukturellen
gebote
gebild
geburt
geburts
##wirft
transpire
transporte
transposing
##ringen
##iße
mineral
ministry
institute
platt
bestarkt
besturz
bestmoglich
besturzt
handle
handling
handful
handler
handvoll
handwerk
handicapped
handouts
sicherte
sicherste
vieles
koex
kostete
kofi
arta
sociale
socialism
systemen
insular
inside
insured
insights
insoweit
seri
served
workable
wirtschaftliches
wirtschaftsteil
wirtschaftssysteme
direktion
##peist
makeup
##fordernden
ebendies
##akel
competing
competitor
unterstreiche
factory
factortame
actors
nowhere
regionalentwicklung
regionalpolitischen
##damms
fuhl
fuhle
##gebot
##gebesch
##gebrochen
##geburt
sozialbereich
sozialmaßnahmen
sozialistisch
sozialgerecht
sozialdumping
traf
trail
traitor
trained
traders
trailing
##ufung
##itektur
approves
marker
##inned
##innig
##innov
##igneten
##aßte
proves
provoke
expire
expound
explor
##folk
finanzm
finanzvor
finanzwelt
finanzhilfen
finanzierte
finanzierenden
finanzmitteln
finanzsystems
finanzbedarf
finanzzentren
maßigen
zeitlich
zeitungen
zeitigen
zeitlichen
zeitgleich
zeitweil
zeitrahmen
##fursorge
berechnungen
eingangs
eingreift
##uesa
wiederverein
wiedergegeben
wiederzuverwerten
behave
beharren
inval
invites
recapture
##ideweg
opted
opens
opacity
gemeinschaftspolitik
overval
overhead
overarch
overamb
overfishing
overview
cleared
clearest
##uerlichen
##konstru
##getic
assign
assisted
wettbewerbspolitischer
wettbewerbspolitisch
##stext
##steigerung
ausschaltung
bereichern
bereichert
reli
scatter
scores
scrup
screening
scourge
unterstutzungs
informal
informanten
yours
yourselves
##bances
##ubernahme
##uberlastung
##ubergreif
##ubergreifend
discard
named
festive
festlegt
festgesetzt
festlands
festzusetzen
festlegungen
feststelle
festschreiben
festzuhalten
roten
rohol
robles
robert
rojo
roissy
basar
basken
michiel
bezweckt
redra
##deutschland
##okratische
loow
loose
loans
lovers
loopho
zwecks
envoys
entwicklungsphase
gleichzeit
reminder
reminis
gemeinsamem
gelenkt
gelinde
##alisations
##alisierten
pubs
publiz
publik
marketing
##demean
##demonstration
abgewahl
abgeleiteten
zwischenfall
fallenden
wirklicher
guilt
guatem
requiring
questioning
questioned
questionable
einzug
einzeln
einzutreten
problemlos
problemstellungen
problemkre
##fler
##flut
##flotte
rechtsraum
rechtsvoll
rechtsschutz
rechtskraft
rechtsordnungen
rechtsakten
rechtsanwendung
rechtsstreit
rechtsanspruche
rechtsberatern
bosch
boast
boot
bought
boats
boyc
boyk
boetticher
##esented
marie
marse
marken
margar
maree
marvellous
wherewith
leaves
##iedlung
##iedeln
##ierungslinien
##ierungsabkommen
tater
tatigen
tatkraft
##istenz
weilt
adds
dankt
##ineer
##mittelte
bekannter
bekanntheits
##beiro
##ungsantragen
howitts
##qualifizierung
urbane
urbanen
schade
mittelver
mittelalter
mittelgro
besteuern
##richtlinien
portugals
portuguesa
##isterung
geschichten
geschutzt
geschwind
helm
##ragender
natura
naturlichen
naturkatastrophe
authors
angekommen
angehoben
angegriffen
angewachsen
angeprangert
angepaßt
halber
forderte
fordergebiete
fordergebieten
implementierung
##prob
beding
bedienen
bedanke
bedfordshire
sinking
extingu
burgerrechte
praised
pravent
##ruckstand
konto
inclusive
legislators
herein
hereby
persistence
ensured
ensuing
##ovielen
austauschen
austernzu
goodwill
affil
affaren
farbe
umweltbel
umweltwerte
umweltvertrag
umweltkatastrophen
umweltstandards
umweltbewegung
umweltschaden
umweltbelastung
umweltauswirkungen
generelle
generalisations
rahmenabkommens
strategically
weiterkommen
weitergehen
weitermachen
weiterbildungs
weitergegeben
weitergeht
weiterzumachen
##ribes
##ribing
selbstbewußtsein
ablehn
ablehnt
ableiten
zielt
zielstellung
zielgruppen
zielgruppe
##klarten
##klarlichen
viewing
viewed
formlich
organises
drains
draußen
etapp
##finde
antie
antidem
antworte
antifaschisten
antwerp
resolutely
fought
##aca
##acies
##ackt
##gemerkt
##operationen
hauser
hausaufgaben
nunez
##enez
wichtigere
##gebend
energisch
energiereserv
parlamentsausschusse
menschenhandels
menschenrechten
letzthalter
verschred
verscharf
verschmutzen
verschweigen
mayors
acp
acute
##handlung
##handler
##ighter
incred
straw
strafen
straffung
strahlung
schwacht
schwachung
schwinden
schwedischen
attitud
produces
produkten
##stimmungen
confisc
positioniert
##afone
##afranca
regierungsverhandlungen
bedeutendes
##acken
entscheidendes
vollige
##linge
prevents
klares
klartext
klarzustellen
klarstellungen
realite
realitaten
getrieben
stillstand
seconds
braer
brach
brachten
bradbour
bravery
curie
curiously
versehen
versaumt
versinken
versailles
legale
legalen
lawful
ideale
ideological
teilh
##paradies
auton
autok
autolobby
autowracks
personellen
personelle
personals
personliches
diskurs
erweiter
vereinfacht
transmit
transbo
transmission
seither
##ffektiv
##geschra
##geschlagen
##geschuttel
nummer
##aleuropaischen
##reitet
zahlung
zahlungsver
fuhrer
fuhrern
fuhrungsinstrument
agendas
kommerzielle
verwust
verwund
verwende
verwundern
entsprach
entsprochen
techniken
thrown
achieves
gestutzt
gestoppt
arbeitsschutz
arbeitsgruppen
arbeitsbeg
arbeitslebens
arbeitsmethoden
arbeitsverhaltnisse
arbeitsbeschaffungs
arbeitsuberlastung
flat
flor
flur
flir
fluß
fluct
ausgeweit
ausgewiesen
ausgearbeiteten
##redited
safely
##lagenen
beispielhaften
beispielhafter
folgendem
rising
##ailing
beware
bewunder
bewunderung
erstattet
secur
secular
bezugsrahmen
zunichte
##italise
negation
negligence
politikbereich
locations
locally
wettbewerbsvor
wettbewerbskriterien
wettbewerbsbestimmungen
wettbewerbswid
wettbewerbsgefug
wettbewerbsbenachteiligung
##icherungs
##icherungssystem
angeschnitten
resultaten
resultierenden
strukturiert
strukturhilfen
strukturwand
strukturmaßnahmen
strukturreformen
strukturschwachen
strukturfond
presidencies
transportiert
transportkosten
detention
detract
promising
simulators
simulatoren
##sprodu
ministerpo
budd
budapest
servants
balfe
ballast
balances
balancing
balfour
starkem
morde
morbi
moratorium
##urzte
kulturraum
kulturausschusses
budgetierung
##entsorgung
##schließungen
einzelner
einzelmaßnahmen
einzelfragen
einzelentscheidungen
borras
bordeaux
verstumm
lebensraum
lebensdauer
lebenswicht
lebenszyklus
##rechtlich
steuerlichen
steuerliche
steuervorschriften
steuermaßnahmen
steueroasen
steueraufkommen
steuerparadies
weltoffen
##retariat
qualities
qualify
qualification
qualifications
jawohl
javette
kombin
resolutionen
##iano
##iante
freizugeben
##ysator
##ysseus
aussprachen
globally
globalised
gesammelt
gesamthaus
normand
norfolk
##verstandnis
tagesordnungen
##zeichnung
##zeichneten
losgelost
zukunftst
beihilfenbericht
beihilfenniveau
gemeinschaftsmittel
gemeinschaftsdurch
gemeinschaftsstrategie
gemeinschaftshaushalt
gemeinschaftsmethode
gemeinschaftsgewassern
ausschußsit
ausschußvorsitzen
ausschußvorsitzenden
grenzw
operated
operates
operierenden
furthering
elst
elites
eluc
elisab
befah
befunden
befaßten
entschließungsantragen
avantgar
aviano
elev
punktes
papiere
recycelten
##moglicher
capability
capitulation
capabilities
begrußenswert
begrußenswerte
delik
delivers
delgado
##stromen
##striche
##reifenden
kosovan
kosovokonflikt
ausdruckliche
ausdrucklicher
backbone
crush
crash
cricket
environmentalists
crew
kurzest
kurzungen
downward
downturn
dealers
dealings
barbare
barnh
critically
##acete
signalisiert
signifik
signatories
eurofoder
eurofeder
collected
extremist
extremists
extremismus
corre
corrie
cornw
reven
revisions
revidiert
revitalise
zuruckhalten
zuruckliegen
zuruckgehen
zuruckgegeben
zuruckgewiesen
zuruckblicken
zuruckgelassen
zuruckbekommen
dienstes
dienstag
dienststelle
dienstalter
humane
humanistischen
rolled
absorb
afterwards
mindful
mindeste
mindesten
##ression
##phy
##phab
##phase
gewahrte
eingeht
eingefordert
eingeleiteten
specifics
awkward
brid
brush
##zwanz
##versagen
investition
investoren
investiture
reduktion
closures
eigenverantwortung
##itorial
depse
depopulation
vorsatze
intergouvern
gegenubersehen
judas
judging
reps
replied
zugriff
smallest
garden
vorgezogen
vorgeworfen
vertraue
vertraulicher
gronitz
jew
jews
varela
variante
schwerer
schwerpunkten
liberalised
liberalisieren
advised
advances
mediation
medikamente
fortress
fortwahr
fortgesetzten
simpson
manufacture
manufactures
bush
palermo
schließungsbeihilfen
termine
geradezu
hilft
definierten
planen
planungs
planeten
planungsinstrument
lesser
regelmaßiger
verbesserten
akp
akten
akzent
distress
conditio
protectionist
benannt
benches
benelux
##ektors
threefold
funfte
funfjahrigen
wahlern
wahlbeteiligung
applicability
applicants
großenordnung
wohldurch
wohlbewußt
wohlkling
wohlgemerkt
kostenverteilung
kosteneffe
erfolgsst
0001
0009
0005
0002
aiming
ubliche
subsidised
subsidiaren
0010
0041
0040
0034
0090
0045
centralising
ruft
rudern
ruhe
ruhmen
ruhrt
talent
offene
offener
offenes
offenders
offenbart
ergreifenden
hervorruft
docups
negotiated
negotiators
wesentliches
ansinnen
ansieht
successes
erneuert
openings
marktbeherr
marktteilnehmer
marktversagen
buyers
verlange
verlanger
enthielt
herauszu
herausnehmen
herausbildung
herausgreifen
herausgebildet
limb
langeren
nonsense
##ystems
##roduce
verpaßt
verpuffen
haushaltsfrage
haushaltsausschusses
absolv
verfaßt
recyclingquoten
recyclingraten
recyclingfreundliche
##rechung
england
engineer
frauenanteil
differentiated
ruckhalt
ruckstellungen
ruckzugs
ruckverlagerung
##athy
behalter
rett
reticent
lebensmittelkodex
lebensmittelkontroll
lebensmittelkrise
lebensmittelgesetzgebung
litre
litig
vehemenz
##gehenden
proteste
protracted
exciting
motives
stattgegeben
120
1257
kindes
plethora
##zahlbar
anstoß
wegweisenden
weggefallen
##splitterung
argern
genaueren
genauigkeit
##lassifizierungs
belang
experiments
feelings
preventive
gedrange
gedei
totale
totalling
prepares
kontrolleur
akzeptables
machtig
machtmißbrauch
machtkonzentration
progressiven
existent
existierende
gesetzten
ecke
ecemis
nutzer
nutzens
nutzbar
##obile
##zustand
schutzmaßnahmen
moderner
modernsten
modernised
modernising
dankenswerterweise
vertragsver
vertragsbestand
vertragsanderung
vertragsbestimmungen
vertragsverletz
159
155
holen
senat
senkung
singap
hochwert
hochkommissar
hochgeste
zweifeln
zeigten
zeugt
zeuge
zealand
zeugnis
innerer
innerstaatlichen
arbeitsplans
empfanger
empfohlen
stadtplanung
stadtverwaltungen
dortigen
dorthin
viermal
vierzig
suffers
frameworks
beschaftigungspolitiken
refuses
refusing
specialist
ears
tying
tyrann
##vollen
##bildungen
readmission
starr
starten
starben
deutliches
[...]
