#version: 0.2
e n
e r
i n
Ġ t
Ġ d
c h
Ġ a
o n
Ġt h
e s
i s
Ġ w
u n
i t
Ġ s
a t
i e
Ġth e
r e
o r
i ch
a n
i on
Ġ b
Ġ o
Ġ in
Ġ m
a l
r o
a r
Ġ f
Ġ e
en t
s t
l e
Ġ p
Ġa n
Ġ n
Ġ c
Ġ h
Ġ un
g e
Ã ¼
un g
Ġo f
Ġt o
t e
Ã ¤
Ġd ie
Ġd er
o m
Ġ v
Ġb e
u r
a s
l l
in g
Ġan d
Ġ E
Ġun d
Ġ is
u s
i r
Ġ I
e d
Ġ P
Ã Ł
i g
Ġ z
r a
Ġ A
e m
Ġe in
Ġ S
Ġ g
i c
Ġ M
i m
e it
om m
u t
v e
i d
Ġ re
ich t
i es
a m
o l
Ġ B
ro p
u l
t en
Ġ T
s ch
at ion
t er
d er
e l
l ich
Ġth at
Ġ K
e t
c t
h r
Ġz u
g en
Ġw h
b er
d en
Ã ¶
Ġ R
is s
Ġ F
Ġ l
i l
Ġa u
u rop
Ġd a
Ã¼ r
Ġ C
er e
is ch
Ġ k
Ġf or
Ġw ir
Ġd en
Ġh a
Ġ W
l y
Ġn o
e in
omm iss
Ġ on
Ġ V
r es
Ġw e
ĠE urop
Ġ G
u m
ommiss ion
d e
Ġ ge
i er
or t
Ġ U
Ġ im
Ġa l
Ġs o
ĠT h
Ġd ies
Ġth is
Ġ H
f f
o s
Ġda ÃŁ
Ġc on
b en
c e
Ġ it
Ġs t
v er
Ġv er
m ent
Ġp ro
Ġv on
f t
Ġa re
Ġf Ã¼r
es t
m en
a ch
Ġ er
Ġa s
i ll
u st
Ġau f
Ġis t
an d
k t
it h
Ġn icht
ul d
Ġ D
Ġd as
es s
ĠU n
Ġno t
o uld
b le
Ġn e
i ve
Ġwh ich
Ġw ith
Ġd es
isch en
Ġd e
ĠR e
ĠV er
s p
p p
ĠEurop e
id ent
Ġ L
Ġha ve
k e
ĠI n
Ġ j
ĠP ar
at e
ung en
am ent
Ġal s
in d
Ġein e
t h
Ġw er
i al
o p
w e
ĠS t
it y
a y
an t
Ġ -
ĠC ommission
en d
Ġe x
r Ã¤
Ġs e
b e
Ġd em
Ġ ich
Ġ es
Ġw ill
i f
Ġ Z
l a
Ġwer den
i v
n en
Ġ le
ĠPar l
Ã¼ ber
Ġm it
Ã¤ n
Ġ y
l ie
h t
Ġa ll
Ġs u
a h
Ġs h
Ġau ch
q u
sch a
an n
o re
Ġ r
Ġv or
e h
ion s
ĠK ommission
o ur
er r
ung s
ĠEurope an
is t
Ġs ich
Ġd o
Ġun s
ĠTh e
c k
s en
it i
e ct
ig en
r i
un d
ĠUn ion
u g
a us
u ÃŁ
Ġ 1
ĠP ro
er n
scha ft
ch t
Ġb y
r u
a d
m e
u f
Ġ Ã¼ber
ĠM r
Ġ res
Ġ N
en s
ĠA n
o w
Ġh as
ar t
Ġm a
o un
9 9
u re
Ġm e
ĠW e
g ra
f or
Ġp ol
g es
h al
Ġc om
Ġa us
Ġa t
ie l
it te
Ġre g
Ġw ie
0 0
er en
Ġ um
er s
Ġa b
k eit
Ġwir d
p ort
ĠE n
i en
gra m
ĠF ra
Ġs p
Ġw ould
Ġals o
a in
or d
Ġs ind
ĠA us
h eit
et z
r an
u p
a b
a hr
Ġh at
ll en
al l
o t
Ġ i
Ġth ere
Ġ or
b eit
en n
t z
isch e
rÃ¤ s
Ġt a
Ġs ch
ĠP res
Ġha ben
Ġz ur
rÃ¤s ident
lich en
o u
Ġw as
ar d
ĠA r
Ġd ar
D ie
Ġ en
i p
er t
I ch
ul t
ĠB e
ter n
o us
Ġ J
Ġ ent
ch te
st e
Ã¤ ischen
ĠE r
h en
te d
Ġ Ã
Ġsh ould
Ġm an
k en
n e
Ġm Ã¶
a at
ation al
ĠV or
ĠS ch
i ament
i b
Ġm ust
c ial
a st
Ġ O
es e
ĠParl ament
i ge
u e
z e
Ġs ie
Ġein er
o d
ĠPres ident
is e
ro m
ĠEn t
ĠRe g
Ġa m
em ber
Ã¼ s
Ã¶ r
Ġcom p
g r
Ġo ur
Ġp art
der n
ĠB er
ĠP rÃ¤sident
s e
Ġs ein
Ġs a
Ġw or
it ion
Ã¶ n
Ġbe t
ch en
Ġb ut
Ġy ou
ĠH err
ĠParl iament
h er
g t
Ġl i
at es
th er
Ġh e
ic al
Ġdies e
Ġf a
Ġn ach
Ġa pp
Ġg o
es ch
at ive
Ġa d
ol le
Ġ us
for m
Ġ 2
ur ch
g er
Ġbe en
ĠI t
ation s
an z
c on
i re
o st
Ġa g
Ġc omm
Ã¼ n
Ã¤ r
Ġf rom
ig ht
ic k
u d
Ã¤ t
m s
re at
Ã¼ hr
a ble
Ġp rop
Ġk Ã¶n
o k
Ġm ein
Ġcon t
Ã¼s sen
Ġ qu
ve l
u te
w er
W ir
Ġd is
a ge
c y
oun t
m p
Ġit s
ion en
z u
Ġun ter
om e
Ġbe i
Ġcon c
ĠM it
Ġm Ã¼ssen
o ut
ĠM ember
Ġs te
ĠmÃ¶ chte
Ġp os
Ġc an
Ġpol it
Ġo b
c c
re ich
l o
Ġg ro
Ġf in
ig keit
Ġli ke
o c
ĠA b
omm en
ĠG e
r it
a p
f en
is h
ct ion
ĠBer icht
j ect
Ġm ore
ĠTh is
ĠS ie
lich e
g lie
ier en
u ch
Ġdies er
t s
Ġne ed
an ce
Ġm uÃŁ
Ġsp e
Ġein en
ĠG r
l in
u b
id er
Ġso ll
el t
al ly
r at
ar y
Ġno ch
ĠEurop Ã¤ischen
n ah
f ore
st aat
Ġex p
Ġd urch
im m
Ġin c
Ġim p
Ġth ese
Ġprop os
Ġn ur
Ġz w
Ġ1 99
Ġc o
Ġa ber
Ġzu m
p t
ĠkÃ¶n nen
Ġdies em
c il
g an
ra g
D as
Ġp re
h e
ch e
Ã¤n d
o in
ol iti
ier ung
ff en
ĠE U
ĠE in
im e
Ġal le
m er
Ġe urop
Ġk ann
t schaft
res s
ĠC omm
Ġon e
Ġw enn
Ġwh o
Ġ "
Ġpol ic
ĠMit glie
g lich
Ġim port
a u
ion al
Ġre port
Ġpro gram
o g
Ġb er
Ġi h
k ing
ĠAr beit
Ġin t
Ġw ur
Ã¼ ck
Ġthe ir
a ÃŁ
s icht
on t
Ġcon s
r ie
st it
Ġres p
i ble
o ll
ment s
id en
Ġver y
d u
e ar
Ġb es
Ġg en
os e
Ġj ed
w o
el y
Ġ ch
oun cil
pp ort
Ġ (
Ġe ff
E s
l ic
an k
an g
Ġp r
oliti k
y st
as s
w ick
Ġg es
itte l
i k
Ġwh at
ĠC ouncil
Ġm y
Ġh in
Ġbe c
ier t
ic e
ĠMitglie d
o ch
st en
us am
Ġw o
ar k
yst em
Ġj ust
Ġin ter
usam men
Ġ up
Ġo ut
stit ut
f eren
s am
l ung
st er
lie ÃŁ
Ġle g
Ġo der
un kt
iv en
a g
Ġp e
id e
er v
r y
le ich
us s
h l
Ġk ein
Ġne w
aus e
it ies
Ġis s
em ent
Ã¤ hr
ra u
ĠK olle
ĠSt ates
Ġi hr
vel op
on s
H err
i z
um ent
ver n
a re
Ġse hr
Ġthe y
Ġc ount
c ess
on der
Ġst r
ug h
ĠMitglied staat
E R
ĠRe cht
at ed
il ity
i ous
un ity
eh men
Ġpart ic
con om
Ġt ran
f Ã¼hr
ar beit
Ġn ational
Ġde c
it Ã¤t
ur al
Ġo ther
Ġ if
Ġein em
c ed
Ġo p
a uf
w end
Ġde velop
Ġconc ern
ah l
m ein
er st
eit er
Ġme hr
on e
te il
Ġt e
w n
Ġon ly
res ent
Ġge gen
Ġab out
Ġa cc
at ter
l os
t re
ul ar
sch e
Ã¤ ische
Ġimport ant
ich er
iti ative
f ahr
l ar
en z
et t
Ġpolic y
Ġin d
00 0
o b
Ġ ra
b ar
l Ã¤
Ġw ar
ĠPro gram
w ir
n ung
Ġe conom
ĠR at
Ġp er
ĠD e
i ff
ir st
Ġdies es
Ġt ime
Ġp oin
i ÃŁ
le ar
ge b
as e
c es
o v
Ã¼ tz
Ġh ier
ĠVor sch
a k
ent ion
iv es
Ġd am
Ġan y
ig n
on g
l an
Ġe v
as sen
ĠJ ahr
ĠG em
Ġthere fore
ig t
etz t
in n
ĠEurop a
Ġwor k
Ġw icht
st r
hal b
Ġl a
op le
Ġma ke
ĠFra u
e k
it u
Ġs ay
ĠZ usammen
Ġr ight
ĠGem ein
Ġg r
ĠMitgliedstaat en
re i
al t
ent r
Ġag ain
Ġbec ause
ut ion
Ġde b
Ġuns er
Ġin tern
Ġv ie
ig er
Ġfa ct
z ial
an ge
Ġsu b
ib t
on feren
Ġta ke
le ment
men d
Ġpartic ular
r ing
in k
it e
Ġs ol
ĠEnt wick
Ġa ct
ĠL e
D ies
al s
Ġge w
ste ll
Ġf e
ĠAr t
Ġint o
ro l
l t
Ġh o
Ġy ear
ĠGr und
Ġwur de
n der
ĠFra ge
gen d
ĠÃ Ħ
lo y
Ġber eit
Ġs ome
Ã¤ ch
Ġno w
f Ã¼r
Ġih re
Ġw ay
Ġwh en
we ver
Ġsu pport
u es
Ġpe ople
I n
Ġc ar
nah men
in e
Ġs on
Ġin s
Ġf re
le gen
te t
ĠW ir
be wer
ĠPro ble
Ġeurop Ã¤ischen
am p
ĠF or
f ol
st Ã¼tz
ĠU m
kt ion
w ie
Ġt ra
te ll
u er
ĠI h
Ġpro v
itte e
is ion
Ġd ire
Ġprogram me
n er
ĠA uf
hal ten
icher heit
in nen
sch lieÃŁ
eh en
Ġqu est
Ġe mp
ĠCommission er
if ic
x t
ĠM aÃŁ
al is
la g
ĠF in
ett bewer
ettbewer b
Ġ end
ĠS o
ĠZ eit
Ġre p
we en
itu ation
Ġre c
d ay
ĠB ere
vern ment
r ies
Ġma de
ig ung
Ġcomp et
Ġpolit ical
sch en
Ġbet ween
s el
w ort
Ġein es
ĠVer t
n ow
ate g
Ġsu ch
ĠÃĦ nder
Ġson dern
i le
Ġo ver
Ġc lear
ĠS e
ut z
in c
ur es
ĠB Ã¼r
Ġreg ard
a ct
Ġag re
ĠBere ich
Ġbe ing
Ġwith in
Ġcons ider
Ġgro ÃŁ
Ġdam it
ľ ber
Ġm ark
ĠB ed
ĠComm unity
st Ã¤nd
Ġden n
Ġpos s
sch ie
Ġpro ble
i ent
Ġin v
Ġund er
am e
Ġf irst
Ġre l
Ġdeb ate
o te
Ġof f
Ġas s
Ġy our
Ġw el
or s
Ã¤n der
ert ain
ĠEntwick lung
Ġm ich
Ġv iel
ĠR icht
ru ct
Ġw ere
ing s
for der
Ġdis c
ĠA s
Ġre m
ĠUn ter
Ġdevelop ment
is m
ut h
Ġk on
ĠÃ ĸ
Ġpoin t
z eit
Ġso cial
Ġc our
Ġg reat
h a
en den
Ġd iff
Ġth ose
Ġare as
Ġthe m
ĠK ommiss
Ġge mein
ben s
Ġd ann
ĠW h
ess en
Ġs c
l and
Ġbe lie
ĠW ettbewerb
Ġth an
ĠÃ ľber
d s
d em
Ġre qu
Ġen v
Ġcount ries
Ġa mend
we is
l es
Ġ ro
iss en
Ġfin an
ub lic
n is
Ġ 3
Ġhe ute
esch Ã¤
t y
ge l
Ã¤ h
Ġso wie
ach en
ĠHerr n
Ġiss ue
Ġf und
Ġg ibt
ĠIn ter
Ġzw ischen
Ġl ie
ier ungs
ĠAus sch
inc ip
is ten
ru kt
Ġjed och
Ġmark et
f l
p r
re ad
Ġg u
ĠRecht s
ĠKommiss ar
Ġa r
Ġpr incip
ĠGemein schaft
or ity
Ġb est
ĠKolle gen
h il
m ittel
z ie
an s
ĠEurop Ã¤ische
we ise
k l
er ation
Ġb as
Ġm on
Ġk now
Ġha be
Ġreg ions
sche id
D er
Ġa id
at ing
ir on
be i
ungs ant
ĠH a
Ġtran sp
Ġs ystem
Ġmein e
ĠTh ere
ach t
p ro
r icht
Ġwh ere
ort ug
Ġdire ct
R E
v ing
is l
Ġc ertain
Ġreg ional
ord nung
Ġad d
ok rat
is k
Ġein z
il d
Ġwe il
iron ment
m it
m al
at z
Ġp resent
ĠM en
el s
Ġdies en
Ġeconom ic
w or
w ard
Ġwie der
eschÃ¤ ft
o ugh
Ġh er
el b
Ġimp lement
h and
Ġdar auf
Ġeff ect
f e
h Ã¶r
p e
er g
ch ten
ĠH o
Ġbelie ve
h in
ge ord
ĠM ad
r im
v ed
is ter
ra gen
ant wort
Ġor der
l d
w elt
Ġge ht
Ġquest ion
b ie
re chen
Ġwir k
ib ility
Ġh and
ce pt
Ġinc l
Ġresp ons
ĠBÃ¼r ger
geord ne
m in
u en
Ġf est
le d
Ġse e
Ġuns ere
Ġkein e
Ġenv ironment
Ġ ens
Ġd an
ch n
Ġa uth
Ġw ant
ĠM in
Ġapp ro
Ġw Ã¼r
Ġn at
Ġand eren
ĠTh em
Ġst at
ah men
Ġ2 000
Ġ199 9
ĠMaÃŁ nahmen
Ġcompet ition
Ġm atter
ent lich
Ġg anz
Ã¶r der
nah me
Ġbereit s
k ommen
hal t
te gr
Ġre form
g a
Ġgo od
rukt ur
N T
Ġin stitut
ge ben
Ġda fÃ¼r
ĠVer b
Ġman y
Ġbes te
Ġfinan cial
elb st
d i
Ġm ir
Ġal read
ri b
onferen z
Ġalread y
l ish
Ġth ink
Ġb o
ĠA ust
ĠReg ionen
loy ment
Ġt er
ar kt
Ġe ver
ĠR ahmen
ĠPrÃ¤sident in
Ġposs ible
NT ER
le g
Ġden en
rÃ¤ ge
Ġsa gen
Ġleg isl
RE G
ĠMad am
NTER REG
f all
s etz
Ġso zial
Ġle vel
Ġvie w
U n
Ġbe g
Ġdo es
Ġ ur
Ġf ar
Ġp l
ol og
ĠT e
et h
Ã¶ glich
f in
er al
Ġh al
ĠI NTERREG
Ġpro cess
Ġare a
ĠComm ittee
Ġt wo
onder e
ĠIh nen
u ll
Ġ Ã¶
Ġm ost
Ġc ould
ĠZ iel
Ġle tz
ĠRicht lin
Ġgemein sam
Ġh ere
iti z
Ġspe c
Ġsoll ten
Ġintern ational
F rau
Ġd ra
Ġb is
ĠS te
Ġre f
ĠParlament s
Ġa ble
ig h
ere in
Ġim mer
Ġgro up
Ġev en
ĠT reat
Ġe t
Ġha d
ĠAb geordne
rim in
am en
op e
ri ff
Ġme as
v or
it z
Ġs ame
Ġan ge
Ġh ow
Ġto day
Ġpropos al
S ie
a c
Ġf ut
Ġwe ll
Ġunser er
b es
en e
Ġw eiter
Ġo wn
ĠS icherheit
ĠM ittel
la gen
ĠMr s
Ġta x
Ġinc re
Ġprogram m
ster reich
Ġcour se
Ġfut ure
Ġa c
Ġw eit
Ġv om
ĠH aus
Ġas k
ĠG es
ĠMen schen
ĠAust ri
p iel
Ġer w
tern ehmen
Ġsa id
ĠGe bie
Ġc itiz
Ġto o
Ã¤ ÃŁ
Ġwicht ig
ĠFin anz
Ġth en
Ġc ann
Ġh el
Ġg er
Ġl o
form ation
Ġcann ot
a ck
Ġp la
Ġp ublic
ĠTh at
Ġdo ch
ĠReg ierungs
Ġz we
Ġl ast
ult ure
Ġsoll te
gan gen
Ġwo llen
kl Ã¤r
b at
l ing
Ġm uch
Ġda zu
ĠL and
ĠWir tschaft
f Ã¼
p unkt
or y
ur r
la ge
ĠPro di
ĠÃĦnder ungsant
z ip
is ation
Ġw en
iss e
ĠG ro
ĠEr w
1 99
Ġyear s
e kt
s atz
Ġp ut
ĠSt aat
Ġres ol
Ġat t
con d
ud ge
ĠHo wever
ĠG er
Ġge t
Ġcon f
Ġagain st
Ġh is
isch er
Ġcomm on
Ġpre v
ĠUm welt
Ã¶glich keit
Ġs om
Ġob ject
Ã¤r k
str ument
s s
Ġm ay
Ġst ill
ĠVorsch lag
Ġla w
Ġdisc uss
Ġens ure
at er
icht s
Ġad op
Ġs ituation
Ġin itiative
Ġp ar
Ã¤ re
ĠK ont
E A
ch ie
Ġbe gr
Ġet w
Ġprogramm es
Ġcitiz ens
D ER
u al
re d
Ġalle m
Ġparticular ly
Ġever y
bes ondere
EA DER
z ug
Ġ 4
or te
ĠH in
Ġpro ject
Ġprincip le
f ul
Ġ 8
is ed
re it
ges ch
Ġcont in
Ġunter stÃ¼tz
Ġihr er
f ten
Ġdem oc
Ġresp ect
Ġ est
Ġb in
Ġb ring
Ġg leich
ul ation
ten d
Ġst ate
Ġex amp
Ġpos it
Ġco op
Ġop in
o vernment
in ce
ab lish
f ra
Ġs er
ie d
Ġn um
Ġc ase
Ġc urr
ge hen
Ġg iven
ĠL EADER
ru ck
Ġent sp
Ã¼hr en
Ġwur den
gend a
h ne
Ġa chie
ic t
ĠC h
ĠRichtlin ie
a ges
a ffen
in es
Ġa ction
Ġre al
Ã¼r lich
ous e
Ġins besondere
i o
i um
w ay
om p
Ġs elbst
Ã¼ ÃŁ
lich er
Ġwh y
Ġma j
ĠO r
c ted
Ġth ro
Ġf o
ur ing
Ġwir tschaft
reich en
Ġmeas ures
i a
o f
u ge
re e
ar ge
Ã¤ m
ĠI s
ke hr
ĠArbeit s
a ir
a um
at en
le x
Ã¤ tz
ben e
Ġne ue
ĠFra ktion
Ġdirect ive
Ġest ablish
A N
e hr
on ds
is piel
it ed
ent ial
Ġn un
ĠH er
Ġsich er
Ġus e
Ġstr ateg
a il
a ff
or ities
ĠEnt scheid
Ġinter est
schie den
Ġamend ments
hil fen
ĠwÃ¼r de
ĠTreat y
r Ã¼
Ġp ers
ĠD em
Ġne cess
Ġne uen
ĠVer antwort
Ġta ken
Ġleg al
fahr en
199 9
Ġopin ion
B AN
R BAN
W enn
f et
k onferenz
in zip
Ġp ra
ĠA m
Ġg ive
ĠK o
Ã¤n g
ent ly
Ã¤ lt
Ġpos ition
ĠProgram m
riff t
Ġexamp le
fet y
l ungen
Ġf ra
ĠB eh
el n
ĠRe form
ĠmÃ¶ glich
Ġmein er
rit t
Ġtran s
los sen
Ġind ust
Ġinv ol
Ġinstitut ions
Ġter ms
Ġnum ber
Ġw ish
Ġh ope
Ġj etzt
ste llen
imm ung
f ung
l le
es halb
Ġw Ã¤re
Ġf ind
ĠM ein
Ġl oc
ff e
ĠBe i
Ġiss ues
Ġ 5
er ung
ĠP olitik
ic ult
et her
ĠU RBAN
Ġexp ress
imm t
Ġthro ugh
g leich
t ing
Ġs erv
at s
Ġin tegr
Ġm achen
Ġver b
Ġsh all
Ġma in
iden cy
Ġproble ms
ĠRegierungs konferenz
w eit
Ġt un
Ġpro du
sp olitik
if e
rol le
Ġcoop eration
Ġein ige
ĠM Ã¶glichkeit
sp ro
Ġex tre
Ã¤n dern
Ġres ult
Ġconcern ed
a de
p olitik
Ġ Y
er k
Ġth ank
Ã¤ uÃŁ
Ġv ote
l uÃŁ
v our
at ely
Ġin de
Ġre as
ĠK on
Ã¶ s
ab ility
Ġsein e
tell t
Ġm ention
ĠT ran
Ġfor m
Ġte chn
Ġincl ud
D a
e ut
k s
al e
Ġbe fore
ĠH ouse
Ġne g
ĠIn stitut
iti at
ĠAn t
Ġaus ge
Ġagre ement
Ġgu id
v es
re g
Ġb esch
Ġo hne
ĠI f
ed om
ĠP ortug
pp en
Ġr at
ĠBericht erst
ĠKolle g
Ġrequ ire
it al
re cht
Ġg est
Ġl ong
Ġsa fety
Ġacc ount
Ġlo ok
E in
g est
ent s
ĠF und
Ġsch on
ĠZusammen arbeit
Ġrep resent
ĠBed eut
Ġo pport
ur s
ĠM on
ĠF ran
Ġen lar
Ġpla ce
bat te
ĠGro up
Ġs im
Ġst and
Ġse ct
la u
Ġall er
ical ly
lo b
wo hl
wend ung
ĠProble me
Ġetw as
ĠBedeut ung
k un
w alt
Ġw issen
ĠA ut
Ã¶ ÃŁ
Ġk ommen
Ġpro m
Ġnot wend
etz en
Ġbo th
w ert
ig ten
ĠV erein
ĠSt ruktur
Ã¼n ft
Ġcount ry
eiter ung
ĠVert rag
weis en
Ġnecess ary
ĠBerichterst atter
ie der
ĠI hr
ĠF all
ult ur
wir tschaft
en cy
le gt
ĠA u
Ġpro te
ik el
ĠLe bens
Ġenlar ge
Ġp ri
Ġv al
ĠB ut
Ġse c
Ġwor ld
Ġcont rol
k te
u ro
Ġs et
ĠB eschÃ¤ft
ĠUn ternehmen
ĠFra gen
Ġste hen
fÃ¼hr t
legen heit
Ġwirk lich
h ang
m Ã¤ÃŁ
Ġ Q
Ġm in
Ġc re
Ġein mal
Ġre cht
Ġk omm
de ut
Ġwith out
pp orte
ĠSt and
qu al
ord in
Ġcont rib
cy c
ĠMember s
c ome
l er
Ġ ide
en de
it or
or gen
gen ommen
Ġwh ether
ien st
ze ich
Ġpre c
fol g
fall s
I m
Ġc ost
ra che
Ġg esch
ĠF re
ug ht
Ġfa vour
Ġimp ro
Ġzw ar
ĠProble m
en g
Ġb rau
ur ther
ĠT ages
Ġk lar
Ġst ruct
Ġall en
Ġpropos als
Ġeurop Ã¤ische
Ġbes onder
Ġra pporte
ĠDe batte
Ġright s
Ġsub ject
ĠUnter stÃ¼tz
ĠWettbewerb s
i an
l us
al y
Ġbe k
ĠI I
Ġdec ision
Ġvie le
Ġfe w
Ġho wever
Ġemp loyment
ĠErw eiterung
Ġguid el
f ter
Ġ %
ge mein
Ġbe d
ra el
lich keit
Ġk e
Ġver st
Ġde ut
ĠEnt schlieÃŁ
lin ien
Dies e
ĠÃĸ sterreich
ĠMin ister
ĠMein ung
kun ft
p ar
Ġs ince
ie le
re t
gr und
Ã¼n d
W ie
i ver
it ions
Ã¤ d
ic es
el f
Ġge f
Ġse cond
ĠPro j
Ã¼ck sicht
oll ow
ek te
ĠZusammen hang
ĠArt ikel
Ġloc al
ĠBei hilfen
ĠUnterstÃ¼tz ung
Ġguidel ines
B e
b an
c ing
Ġf ull
st and
Ġder en
ĠI ch
ĠP unkt
ĠB et
ul es
Ġver s
ze pt
Ġpolit ischen
Ġihr en
ĠAussch uÃŁ
ĠGemeinschaft s
ĠThem a
i ar
l ick
n ehmen
ar m
Ġe le
Ã¤ mp
ten s
Ġcomm un
ass ung
Ġdiff icult
Ġnat Ã¼rlich
Ġzwe i
Ġbegr Ã¼ÃŁ
Ġser ious
ĠVerantwort ung
h ol
n isse
Ġd one
Ġa v
Ġa genda
al en
Ġan ges
ur ity
ĠA l
ĠR aum
Ġl Ã¤nd
ĠC onferen
Ġge ben
os ov
Ġne xt
ĠL eit
ĠIn itiative
Ġj a
ĠZ u
hal ts
Ġcom e
rei heit
Ġproble m
Ã¶rder ung
Ġbeste ht
udge t
ĠTran sp
ĠKolleg innen
A ber
f onds
m an
ge w
Ġg ut
Ġge b
rÃ¤ n
Ġres our
ĠN e
Ġgo vernment
Ġhel p
Ġproject s
ĠTages ordnung
ĠConferen ce
h ip
v on
is ions
Ġe ben
ĠS p
ĠK osov
sp rÃ¤sident
ĠJ ust
ĠkÃ¶n n
wir k
stell ung
a gt
k es
Ġ 7
un den
Ġm ill
Ġand ere
ach e
ĠPres idency
ĠReg ierung
Ã¤ch st
Ġfre edom
ĠAuf ga
ward s
eth ing
ĠInstitut ionen
D eshalb
g overnment
i od
l ungs
Ġf ollow
Ġn Ã¤m
Ġc ap
ĠB eit
Ġwor den
Ġfin anz
ĠVorsch lÃ¤
Ġsom ething
Ġrapporte ur
ĠnÃ¤m lich
h Ã¤ng
Ġm o
el d
Ã¶ l
Ġbet rifft
ĠJahr en
Ġro le
Ġenvironment al
government al
a ce
Ġb ack
Ġc rit
ĠE bene
ic le
il t
ĠEurop as
ĠH and
Ġ- ,
rie den
Ġresol ution
or der
Ġbe zug
Ġr ural
Ġdar Ã¼ber
Ġrespons ibility
Ġenlarge ment
A L
Ġs m
Ã¼ b
Ġg lau
ĠF l
ff air
Ġpro ced
Ġde al
Ġdo wn
ost en
Ġimport ance
uss es
ĠSo zial
ĠTe il
Ġincre as
ĠKosov o
' s
g re
m arkt
o ver
p h
Ġin formation
ic ial
im men
ĠB est
Ġau ÃŁ
um an
ĠD isk
ah re
ann t
ist r
Ġste ht
Ġjust ice
Ġnational en
ĠProgram me
ĠAustri a
M ein
d ruck
Ġw ord
an der
Ġb ess
ent lichen
ed ing
em p
ĠS ystem
ĠSt ra
Ġor gan
Ġzur Ã¼ck
fÃ¼hr ung
Ġgr Ã¶ÃŁ
ĠLeit linien
Ġa w
ur z
Ġein ge
ĠM ill
ĠR olle
Ġda her
ĠW o
ĠSt ate
Ġme ans
ĠAus sp
ĠEr geb
ze ug
Ġpropos ed
Ġtransp ar
Q U
f Ã¤h
u de
Ġ 9
Ġd el
un Ã¤chst
om en
etz ung
Ġsch w
se qu
Ġgo ing
Ġgo vern
ĠWh at
pro chen
Ġlegisl ation
Ġspec ific
Ġindust ry
Ġresour ces
QU AL
d am
z w
Ġ Ã¤uÃŁ
is en
or ge
ro ffen
Ġund erst
ra chten
Ġon ce
Ġer st
ĠO n
cc ess
Ġextre m
er ien
at ast
if ten
Ġab s
Ġdar f
rat ic
Ġgegen Ã¼ber
Ġintern al
Ġeffect ive
Ġletz ten
Ġrat her
Ã¶l k
ĠAussp rache
atast rop
at t
Ġe l
Ġc olle
ĠE QUAL
ist s
age ment
Ġsm all
e llen
h n
Ġs ens
ich te
Ġp ow
ĠF r
scha ften
Ġres t
Ġdar an
Ġch ange
Ġbas is
Ġtransp ort
r iften
u ally
z entr
Ġto wards
ra cht
ĠS ituation
Ġda von
Ġr isk
uf act
iel en
Ġman ufact
ze ÃŁ
Ġper iod
Ġsozial en
Un d
ĠunterstÃ¼tz en
ĠBeh Ã¶r
ffair s
W as
f ort
Ġ ess
Ġs ign
Ġf ol
el le
Ġda y
ier te
ĠHerr en
Ġqu al
ster dam
ĠauÃŁ er
le i
Ġv oll
ir d
id ed
ĠR ates
ĠU ms
ĠD ienst
Ġj ob
lie gen
ĠAn sicht
ĠJ ahre
Ġad v
Ġspe ak
ĠEU R
Ġobject ives
Ġposit ive
Ġpra ct
Ġbrau chen
z us
re ffen
an te
Ġn Ã¤ch
ĠE uro
ra um
ra uch
rop ri
ĠK ultur
ver stÃ¤nd
Ġr ules
ĠN o
ĠIs rael
Ġsec urity
ĠZu kunft
b au
f er
f Ã¤
Ġ '
in ess
Ġe ing
Ġc r
Ġh igh
Ġbe w
id ar
Ġcon d
eh m
Ġreg ul
ĠVor s
Ġqu ite
Ġzw eit
Ġpolic ies
Ã¤hr end
Ġeconom y
fl icht
Ġeinz el
ĠAm sterdam
Ġsim p
E r
f r
Ġf urther
ĠP ap
Ġre du
Ġl assen
kt ionen
ĠD ie
ĠEn erg
Ġen erg
igkeit en
Ġconcern s
Ġclear ly
ĠSte uer
Ġbesonder s
Ġess ential
o ck
Ġf Ã¼hren
st immung
Ġp ay
Ã¤ hl
Ġl ess
ĠW elt
ĠG en
ier ten
ĠZ ust
Ġme et
ĠPrÃ¤sident schaft
Ġber Ã¼cksicht
ĠAbgeordne ten
ĠÃĦnderungsant rÃ¤ge
Ġglau be
Ġunderst and
l en
s id
st an
ĠF reiheit
Ġge hÃ¶r
ĠL Ã¤nder
Ġall ow
enn t
ĠReg ional
Ġwho le
Ġeff ort
setz ung
Ġreas on
ĠUms etzung
A n
l iament
Ġa im
Ġth ree
Ġb us
Ġh uman
Ġv ar
ĠB innen
ere cht
Ġso llen
Ġst aat
Ġer forder
ĠZ iele
ĠN amen
Ġsein er
Ġapp lic
oin t
ĠIh re
Ġkon k
Ġdiff er
Ġlie gt
Ġauth orities
Ġac cept
ĠStaat en
Ġadop ted
Ġcontin ue
way s
ĠlÃ¤nd lichen
f it
g lichen
h es
p er
Ġ ir
Ġd et
Ġd Ã¼r
ar n
Ġe ach
ies en
Ġst art
ĠPar te
ot i
Ġad min
Ġges agt
ĠArt icle
i x
s Ã¤tz
u ese
Ġw es
Ġb udget
ro du
le ist
Ġc or
Ġh erv
ĠA t
ĠS y
Ġha ving
ament al
if y
Ġsu ccess
Ġr icht
Ġapp ropri
Ã¼n f
Ġdis ast
ĠgroÃŁ en
ĠInter governmental
ĠHa ider
ĠPortug uese
Ġbus iness
c ument
Ġh Ã¤t
ur n
ll t
ĠF irst
ĠTh ese
ff entlich
Ġde p
ĠL age
Ġdo cument
ab ly
ard s
Ġcomm ittee
Ġges am
ĠOr gan
Ġneg oti
Ġprote ction
o ther
v en
Ġt al
Ġw Ã¤hrend
un de
or g
or en
ge ther
ic ation
ĠB r
el ess
Ġdes halb
ĠVer walt
Ġpe ace
Ġacc ord
tre ten
Ġmon th
Ġadmin istr
f ach
h Ã¤lt
k Ã¤mp
m acht
s icherheit
Ġ Ã¼b
re ch
Ġin n
le icht
Ġbe f
Ġg lob
Ġj e
Ġuns eren
Ġum f
Ġsch affen
iÃŁ b
tell ung
Ġagre e
Ġimplement ation
pe cial
Ġfo od
Ġsect or
Ġnotwend ig
ĠQ u
Ġkomm t
cyc ling
g ress
Ġs eit
Ġc l
ĠM arkt
ĠT ob
ĠR ed
Ġl im
Ġk urz
Ġfor ward
ier ungen
Ġnicht s
iv ing
Ġy et
Ġall gemein
sicht lich
Ġho ffe
ism us
Ġgreat er
wor k
Ġentsp rechen
ĠVorschlÃ¤ ge
Ġextrem ely
ĠTob in
N ach
a king
t ain
Ġ .
Ġ 6
Ġt as
Ġd ist
Ġp ortug
ur f
ic les
ĠM itte
Ġda bei
ĠD amen
Ġsh ow
ĠEr klÃ¤r
Ġits elf
Ġpolit ische
Ġop er
ĠSo cial
ĠAussch usses
ĠHaus halts
Ġachie ve
Ġmaj or
Ġabs ol
Ġdiffer ent
Ġportug ies
in ing
Ġa fter
at h
Ġb en
Ġe igen
ĠS tellung
ĠB em
ĠH il
Ġde fin
Ġdem okrat
Ġvor ge
Ġma king
gra ph
ges ehen
hal f
gram m
ĠAus druck
Ġint rodu
Ġcar s
Ġwel che
Ġger ade
Ġmanufact ur
m aÃŁ
Ġw omen
it t
Ġb u
om ent
ĠP al
ic ient
ĠF Ã¶rderung
Ġver schieden
ust rie
ru ch
ĠAn wendung
ab hÃ¤ng
all en
Ġste llen
Ġrec og
ĠgroÃŁ e
Ġbest imm
richt ung
Ġhal te
Ġgroup s
Ġopport unity
Ġvar ious
h men
o de
z ahl
Ġd rei
re ten
Ġp res
Ġbe half
ir m
ĠB es
ĠC on
ĠC our
Ġk le
Ġim m
ĠIn tern
Ġex c
Ġes pecial
up t
Ġ2 00
mer k
Ġwel come
rimin al
aff ung
ĠDem okrat
ĠY ou
ĠLebens mittel
ĠStand punkt
Ġenerg y
e ich
h Ã¶
h ungen
is ing
Ġb ro
ar ante
ent le
ĠM ehr
Ġre ce
Ġ1 2
Ġcomp le
enz en
ĠFrau en
Ġfe el
bens o
Ġcertain ly
Ġstat ement
Ġprev ent
Ġwirtschaft lichen
Ġespecial ly
entle men
b lick
c our
d ings
e p
k zept
m Ã¶
s weise
is es
Ġb al
Ġand er
Ġg entlemen
Ġal ways
Ġer ne
ĠRe gel
ĠL i
th ough
ĠThe y
ri k
ad ies
feren ce
entr al
Ġauth ority
Ġstat t
Ġmill ion
k ont
z uf
on d
at ten
Ġp lan
Ġv eh
ra cy
Ġg ilt
Ġse em
ĠSch affung
Ġcomp an
iden ce
are d
Ġla ck
zeit ig
ĠCour t
z ust
Ġto gether
il y
Ġk ind
ĠL Ã¤ndern
ĠN ach
ĠAn ge
Ġprop er
ute t
Ġneed s
ĠArbeit sp
Ġsol che
Ġgew Ã¤hr
Ġprov ide
Ġgu arante
Ġadd ress
Ġdan ger
ĠnÃ¤ch sten
ĠBinnen markt
h o
o ted
v ention
or m
Ġn on
Ġder zeit
Ġz usammen
Ġl ok
Ġex ist
if ied
Ġle ast
Ġ199 7
Ġgen eral
Ġinv est
Ġadd ition
Ġappro ach
kÃ¤mp fung
o gen
w Ã¤r
z Ã¼
Ġd id
Ġd uring
Ġin strument
Ġan other
Ã¤ ten
Ġv an
ll schaft
ĠF rieden
Ġl arge
Ġst Ã¤rk
aus sch
ĠN ot
ens ion
Ġdar in
ĠSch w
Ġwor king
Ġapp ly
Ġus ed
rie d
one y
Ġwar en
Ġass ist
Ġfund s
vor sch
ĠKont rolle
Ġdemoc ratic
Ġinterest s
Ġmention ed
M it
b eding
w urf
un ehmen
un kte
Ġm ind
Ġm oney
ro ss
Ġf lex
Ġc all
Ġbe ispiel
ing le
Ġz ahl
Ġre ally
Ġpro gress
ĠUn ited
Ġvor gesch
ĠWe ise
Ġta king
Ġdar um
Ġdan ken
Ġgemeinsam en
ĠEntscheid ung
ĠÃ¼b r
0 1
g ern
h ing
Ġt r
is ierung
at iven
Ġc reat
ra ft
Ġein igen
Ġre v
ĠK osten
Ġge l
Ġer reichen
Ġwer de
Ġ1 5
Ġent wick
Ġact iv
ĠKommissar in
Ġrespons ible
Ġwen iger
Ġinvol ved
y l
Ġt err
Ġs ingle
re chte
Ġf ive
Ġp le
us e
ĠP r
eit s
Ġcon st
Ġer inn
ĠL Ã¶s
ial og
Ġdem and
iv il
ges tellt
ab il
Ġmein es
Ġconc lus
Ġbec ome
Ġdec isions
Ġop en
sche iden
stell er
Ã¤h n
ild ung
ĠThem en
Ġbeste hen
Ġatt ention
Ġbring en
Ġserv ices
Ġdeut lich
gre if
Ġcond itions
hes ion
Ġmonth s
A F
H ier
it Ã¤ten
an gen
al th
Ġh ist
ĠE mp
ig ungs
Ġl adies
Ġge geben
Ġge macht
ĠH e
iv id
Ġle d
Ġall es
Ã¼s sel
Ġincre ase
Ġfra me
Ġav ail
Ġtranspar ency
ĠAnge legenheit
Ġa kzept
Ġm ot
Ġc los
Ġc ulture
ll ig
ĠW er
Ġer sten
ĠD urch
Ġste p
Ġspe cial
Ġhin aus
unkt ion
Ġwicht ige
Ġfund amental
zie hen
Ġinde ed
ĠVertrag s
ĠkÃ¶nn te
on ger
ar enz
Ġp ass
Ġc ult
Ġof fen
ĠE rachten
ed er
ĠM y
Ġre ach
ol it
Ġden ke
ĠW ort
ĠW ieder
ein t
Ġso wohl
ĠVer hand
Ġse i
la uf
Ġsu pp
Ġfin den
ap s
Ġih nen
lÃ¤ tz
alis ation
mit t
Ġur ban
ĠÃ¶ ff
Ġcommun ication
ĠErachten s
L AF
a kt
i ation
n et
r itte
Ġth ird
Ġs y
ro ll
Ġe ig
Ġan s
ĠB esch
ĠW ahl
ĠV ol
Ġauf ge
ĠVer kehr
sp ect
Ġle ad
Ġsu ff
ĠAn d
ĠWe g
itte d
Ġsch lieÃŁ
ĠBe ispiel
Ġbet ter
ĠFin ally
Ġrem ain
Ġcre ate
Ġide a
Ġword s
ĠdÃ¼r fen
rik a
Ġbeispiel sweise
Ġframe work
c om
h as
v Ã¶lk
en ce
Ġd ort
Ġin itiat
Ġm ov
Ġp op
Ġp ast
Ġan n
ĠR Ã¼ck
ĠF ort
ĠG leich
Ġdem on
Ġhin sichtlich
Ġgr und
alis ierung
Un s
ĠWirtschaft s
Ġprev ious
Ġcolle ag
Ġregul ations
ĠEnerg ie
ĠHil fe
wÃ¤r t
Ġvorgesch lagen
ĠÃ¼br igen
Ġt y
Ġe qual
ĠE x
ĠA ll
ĠA sp
ĠS ub
Ġre ad
sch utz
ĠF ahr
Ġas p
ĠIn strument
iv ed
Ġme an
ĠWe iÃŁb
Ġreg ion
Ġent scheiden
Ġcomm it
ĠAb stimmung
Ġacc ess
Ġpoin ts
pr inzip
Ġinclud ing
ĠTransp arenz
Ġaw are
Ġeinzel nen
sid iar
Ġavail able
Ġinitiat ives
A uch
g ument
l s
n ess
n ers
z en
z ogen
Ġb zw
Ġo cc
Ġin ner
Ġm ar
te xt
Ġbe im
ĠF e
ĠEn de
ot ing
age d
Ġstr eng
Ġpartic ip
los igkeit
ĠGrund lage
Ġquest ions
ruct ural
Ġhal ten
Ġpar liament
ĠHin blick
Ġmaj ority
ĠStruktur fonds
ĠBeschÃ¤ft igung
ĠMill ionen
ĠPap er
A us
C O
a gen
b est
l Ã¼ck
Ġth ings
at ur
Ġm ight
der t
Ġl ife
ess e
ĠIn formation
ant s
ĠZ we
Ġvor gesehen
Ġmein en
Ġwo hl
iÃŁ t
alt ung
Ġtra gen
Ġemp loy
ĠWh ite
Ġpl ay
Ġref er
fra ge
Ġpers on
ĠFund s
ĠAu ff
wirk ungen
ĠParte i
Ġherv or
ĠArbeitsp lÃ¤tz
ĠWeiÃŁb uch
f ang
g ung
u gen
v oll
ie llen
Ġb od
Ġo pp
Ġe ar
Ġun emp
ge d
ge gen
Ġto t
Ġbe iden
ig es
Ġein deut
ber eich
Ġk Ã¼nft
Ġso c
ce ed
ĠD ank
Ġnot hing
th ing
Ġvor liegen
ĠKommission s
iel le
Ġsch wer
ĠBe vÃ¶lk
ĠSch utz
ĠO LAF
Ġ199 8
Ġind ivid
Ġact ually
Ġdra ft
gangen en
Ġval ues
Ġincreas ing
Ġcompan ies
Ġcult ural
m als
at ives
Ġf Ã¼nf
as es
ĠA ffairs
Ġg ar
il ung
ĠIn d
ĠPar ty
Ġex t
Ġse hen
Ġ1 9
ges etzt
Ġta ble
ĠGe fahr
ific ation
Ġregard ing
forder ungen
Ġmatter s
ĠGes etz
ĠAustri an
ater ial
Ġcurr ent
Ġeben falls
Ġeffort s
Ġveh icles
Ġd essen
on en
Ġf our
Ġc are
Ġh Ã¶
Ġl ang
Ġst ress
sp ruch
ĠSt r
ĠSt ructural
la st
Ġle t
ĠSch iff
ok ument
Ġpr iv
Ġlegisl ative
ĠDienst leist
Ġcomple te
h of
l ess
p end
p flicht
w ing
le it
Ġh arm
Ġof ten
as ed
ĠA mend
ĠM e
Ġre t
Ġwe ek
Ġer klÃ¤r
Ġauf grund
ĠVer tre
ru ppen
ers eits
ĠAus wirkungen
Ġexp erien
imm ungen
Ġjed er
Ġtra ining
schlieÃŁ end
sel ves
ateg ie
Ġbis her
ĠEntschlieÃŁ ung
ĠProj ekte
ĠAufga be
ĠDisk uss
Ġpow er
fort un
Ġnegoti ations
a pp
g ent
s ide
v ement
ie ty
Ġb order
Ġin form
Ġe benso
st ruktur
Ġwh ile
Ġl onger
ĠW Ã¤hr
Ġle a
eh mer
Ġdo ub
Ġ1 3
Ġ1 4
Ġen ough
ĠBe kÃ¤mpfung
Ġsein en
Ġexp ect
Ġgen au
ĠVerb rauch
ĠGer ichts
ĠGemeinschafts in
Ġkle in
ĠDemokrat ie
m den
Ġt im
Ġm ult
Ġan aly
ic s
ĠK atastrop
ĠF isch
Ġfor ce
ein ander
ĠH ul
os ition
Ġver n
Ġver sch
Ġj ud
Ġj oint
ind est
ri or
ĠSch luÃŁ
Ġour selves
Ġob l
ĠGr Ã¼n
Ġconcern ing
Ġgegen wÃ¤rt
Ġprincip les
Ġincl ude
Ġwen ig
wert ung
Be i
Ġproced ure
Ġschw ier
ĠSy ri
ĠErklÃ¤r ung
Ġdanger ous
Ġinner halb
c en
h ung
h aps
Ġw a
it ive
st ehen
Ġv ier
ĠS itz
ation en
os s
if iz
Ġcom es
heit en
ib il
Ġam b
Ġam ong
aÃŁ t
Ġjed en
rau en
ĠRat sprÃ¤sident
ĠJahr es
ĠWettbewerb spolitik
setz en
Ġverschieden en
ĠHul ten
S o
f te
g ar
h end
Ġa kt
re icht
Ġo pt
Ġin tend
al le
Ġbe de
ĠP rior
Ġz unÃ¤chst
im ension
Ġha ppen
ze uge
ĠReg ion
Ġeurop Ã¤
Ġih m
Ġcons um
ĠFor m
schie d
Ġerw ar
Ġdemoc racy
Ġexpress ed
Ġbess er
Ġjob s
ĠMehr heit
ĠLi ber
P ro
b ru
c kt
k on
v ious
en ch
it ten
Ġm ed
Ġm orgen
Ġm oment
Ġc aus
Ġbe it
ĠS eit
im um
ut ions
os ed
Ġne ver
ĠRe chte
Ġsh ort
Ġ1 0
ru ction
me hr
ĠO b
teil en
ĠGemein sam
ĠFor der
Ġrequ est
Ġbas ed
Ġsozial e
itiat iven
Ġaller dings
Ġgef Ã¤hr
Ġorgan is
fÃ¤h igkeit
Ġerforder lich
itt le
zust ellen
E ine
f eh
o ve
s ystem
v ent
Ġ 000
Ġb ene
st ens
Ġan genommen
Ġder art
ĠP ers
ĠT amp
sch ein
Ġl ittle
Ġal though
ust ain
th ers
Ġsu p
Ġsu re
Ġsh ip
uÃŁ er
schaft lichen
Ġent er
ĠO ur
Ġpart ners
Ã¤t igkeit
Ġch allen
Ġup on
ĠInter essen
mit glie
Ġpl ann
ĠGebie te
Ġserv ice
Ġbek annt
ĠBeit rag
Ġsimp ly
Ġappropri ate
Ġdisast er
Ġasp ect
ĠFe bru
Ġunemp loyment
ĠTamp ere
2 00
D ar
r Ã¼ck
s uch
u c
w h
z el
en ken
un ction
Ġan t
Ġn or
Ã¼ fen
Ġbe ar
ĠP ol
Ġz ie
Ġg ute
Ġwe iÃŁ
Ġge hen
Ġne hmen
ind ustrie
we g
Ġex am
ĠZ ahl
iel t
Ã¶r dern
Ġsa g
Ġdis k
ĠGe w
Ġkein en
Ġemp has
sel f
Ġmon itor
ga ben
ĠÃĦnderungsant rag
Ġstand ards
Ġfull y
ĠJust iz
ĠMitte ilung
Ġstreng th
ĠVerbrauch er
A b
a v
b are
u cht
es en
Ġw ahr
an u
an ges
ĠS ol
ter m
isch es
Ġcon text
Ġer ste
Ġer halten
Ã¤n de
ann ten
ad t
Ġsp rechen
Ġen cour
ĠBe g
se c
Ġpre p
utz en
forder t
ĠÃĸ ffentlich
ĠÃ¶ sterreich
Ġobject ive
Ġstrateg y
ĠFran ce
Ġgovern ments
Ġinn ov
merk sam
ĠAuff assung
fortun ately
ĠÃĸffentlich keit
E N
E urop
G C
k omm
o ten
w Ã¼r
Ġt reat
Ġa ff
is ely
an den
Ġo thers
Ġc ases
Ġh ol
ĠE rika
ĠI GC
am it
am il
ĠB el
ct ions
ĠW ith
ĠG eld
Ġit em
ver fahren
Ġver l
ĠD okument
Ġsh are
Ġsch ne
Ġbet roffen
Ġco hesion
arbeit en
Ġind em
Ġev ent
Ġact ions
ĠBereich en
Ġrel ations
Ġass ess
Ġviel leicht
Ġhand elt
ĠII I
Ġke y
Ġanges ichts
ĠFr ench
Ġeigen en
j en
Ã ©
Ġth ough
Ġs etzen
Ġs ix
Ġs ustain
Ġm od
ro k
ro tz
st re
Ġv Ã¶
ĠM ar
im me
Ġre le
ĠB al
ĠT ats
ort h
ver kehr
Ġver hin
op h
Ġsu g
Ġdo ing
Ġab ge
Ġges tellt
Ġte il
ob il
Ġsol idar
Ġviel en
Ġkon n
Ġsc ient
Ġlie gen
Ġgood s
Ġgemeinsam e
Ġconf idence
ĠHer steller
Ġ5 0
ĠAnt rag
Ġrequire ments
ĠBeschÃ¤ft igungs
ĠStellung nahme
kont rolle
aussch uÃŁ
ĠVerhand lungen
Ġbede utet
a z
e il
f ert
g Ã¤n
i ft
Â Ń
at ors
le is
Ġc riminal
Ġc ross
te m
sch reit
ĠK ap
ĠK onferenz
ber eit
Ã¶ t
ĠG re
ĠPar t
ib et
Ġhe iÃŁt
Ġcont ain
Ġco ordin
Ġte ll
Ġwicht igen
Ġihre m
Ġregional en
ats Ã¤ch
Ġresult s
Ġprec isely
gew iesen
Ġadministr ation
Ġrecog n
Ġanaly s
. )
b our
v ant
Ã ĸ
un ities
at is
or ted
Ġm er
Ġm ember
ro w
Ġf ight
Ġof t
ig r
Ġz e
ĠF est
Ġver t
Ġer mÃ¶
ĠIn st
ĠIn tegr
Ġhat te
Ġhat ten
ĠEr fahr
ese llschaft
Ġam ount
Ġfa il
Ġ2 5
Ġpropos e
oliti ken
ĠProgram ms
ĠVorsch riften
Ġsol chen
Ġcar ry
ĠSe cond
Ġoff icial
Ġrem ind
ĠÃľber ein
Ġamend ment
ĠInter esse
ĠwÃ¼r den
ĠAbgeordne te
ĠKo h
Ġstruct ural
Ġfollow ing
Ġsens e
Ġstaat lichen
Ġtas k
Ġabsol ute
Ġbu ild
Ġseem s
ĠÃ¶ff entlichen
a ution
f ull
h ens
m ost
p rÃ¤
r ug
Ġt ru
it im
ar ter
Ġc ent
am t
ĠR and
ĠF ol
Ġver treten
Ġse ver
be hÃ¶r
ru pp
Ġman agement
Ã¼s se
zu legen
Ġob vious
Ġco de
Ġco ver
ĠArbeit n
Ġgen er
Ġstr ong
Ġte xt
Ġtra de
ĠBed ing
Ġimplement ed
ĠVerb ess
fin den
ĠGebie t
ĠGebie ten
Ġcurr ently
ĠMÃ¶glichkeit en
Mein e
ĠErgeb nis
ĠBehÃ¶r de
Ġqual ity
ĠberÃ¼cksicht igt
ĠgehÃ¶r t
Ġricht ig
Ġhist or
Ġeig entlich
ĠFort sch
Ġty pe
Ġeindeut ig
Ġsoc iety
pend ent
Ġdisk ut
full y
) )
2 000
A uf
D enn
D amit
b ildung
d rÃ¼ck
m iss
w ach
Ġt atsÃ¤ch
or gan
Ġf Ã¶rdern
le tz
Ġc ru
ĠE ff
ĠP rÃ¼
ut es
Ġre cycling
ĠK r
ĠK ern
ct ive
Ġer n
Ġer folg
Ġde f
th eless
Ġex ch
eh n
ĠPro t
ure d
Ġqu ick
reich e
ĠBericht s
gan g
iven ess
ek ten
alis ed
ĠVert rauen
ile d
ĠBÃ¼r gern
dem okrat
Ġwirk sam
Ġappro ved
Ġter m
Ġweit ere
Ġweit eren
ĠGer man
ĠAufga ben
ĠVors orge
ĠNot wend
ĠLÃ¶s ung
ĠBevÃ¶lk erung
ĠvÃ¶ llig
ĠTats ache
atis f
Ġtru e
. .
A ls
B er
a ut
b y
m or
t ragen
Ġ ident
ch es
or men
Ġb itte
ar ak
Ġf iel
Ġf all
Ġp ot
Ġun abhÃ¤ng
te id
Ġbe hand
ing en
Ġund ert
ĠS icht
ul f
sp er
Ġex tend
rÃ¤ cht
ĠKommission sprÃ¤sident
uÃŁ t
for men
ran g
Ġen g
ĠJ anu
Ġent halten
ĠSch ro
gr at
Ġpart y
Ġ2 0
ight s
Ġcont ra
Ġgro und
ish ing
he b
Ġpr Ã¼fen
Ġwo bei
Ġconsider ation
Ġfund ing
Ġmarket s
hil fe
Ġfest ge
Ġprom ote
Ġprec aution
Ġcap ital
ĠÃ¤uÃŁ erst
ĠBehÃ¶r den
Ġassist ance
Ġmov ement
Ġdoub t
Ġstrength en
jen igen
Ġprecaution ary
M an
l ies
m essen
n ing
u le
ich tet
Ġf oc
Ã¼ lt
Ġv oted
Ġbe h
ll er
ÃŁ en
ĠA ktion
icht en
ĠK ar
ĠK inn
ĠK omp
Ġer reicht
ĠVer fahren
ĠSt adt
Ġse en
la ub
lie d
ien ce
Ġmein em
arbeit ung
Ġprov ided
Ġrel ation
Ġar beit
Ġask ed
ĠStaat s
Ġget an
Ġdiscuss ion
Ġadop t
ĠHer aus
Ġintegr ation
ĠFre mden
iver s
ĠbegrÃ¼ÃŁ e
Ġmo dern
verstÃ¤nd lich
Ġgesam ten
Ġguarante e
Ġactiv ities
Ġple ased
Ġpop ulation
uÃŁer dem
grat ul
ĠKinn ock
F Ã¼r
l ud
m b
Ġt urn
re te
ro und
Ġf Ã¼hr
Ġh on
ig lich
den ken
ĠG esch
ĠG overnment
ĠU r
Ġcon gratul
Ġst ar
Ġver w
ĠD ire
ĠVer fÃ¼
ĠIn de
Ġr ene
Ġcomm ents
Ġob s
au er
Ġunser em
Ġfre e
Ġrep e
land s
Ġfind et
Ġtechn olog
Ġrepresent atives
ĠVerein igten
Ġpri ority
ĠErgeb nisse
lei ben
ĠRegional politik
sÃ¤tz e
Ġmanufactur ers
zÃ¼ glich
Ġans wer
Ġdemon str
ĠGerichts hof
200 6
ĠVorsorge prinzip
ĠNotwend igkeit
a ke
e ll
g liche
k reich
o graph
p or
z unehmen
in ge
Ġd ring
Ġth ing
Ġth reat
Ġb leiben
al ien
ent liche
ent scheid
Ġh ig
Ġun t
Ġto mor
Ã¤ l
ĠI r
ĠI de
ed ter
ĠP er
Ġein heit
im s
ĠT ibet
Ġzu stÃ¤nd
ĠR is
Ġk ulture
ĠW issen
Ġso on
ĠTh ank
Ġst ates
we il
ist ischen
ert s
ĠVor aus
ze ugen
Ã¤r en
rit ten
Ġhin weisen
bar en
ĠEntwick lungs
Ġrec ent
pr Ã¼
Ġgleich zeitig
ĠEntscheid ungen
Ġinclud ed
zeich net
Ġcost s
Ġimpro ve
Ġke ep
Ġsign ific
Ġmeet ing
ĠhÃ¤t te
Ġumf assen
Ġled iglich
ĠKommissions mitglie
Ġharm on
ĠVertre ter
Ġprep ared
ĠBal k
Ġsolidar ity
rupp e
ĠSchro edter
Ġrene w
Ġtomor row
A uÃŁerdem
u chen
in ne
at ic
Ġh im
ge fÃ¼hrt
te uer
Ã¤ ss
as ch
ll ent
ĠP e
ĠP len
ĠP atten
Ġein fach
Ġg erecht
ĠT ur
ith er
ĠBe f
Ġent ire
Ġli ability
ĠAb sicht
ĠGe gen
ĠGe legenheit
Ġneed ed
staat en
stell t
fol gen
ĠZeit punkt
ĠZeit raum
Ġdisc rimin
gel n
Ġfo und
Ġverb ess
Ġreas ons
Ġtechn ical
ĠAnt wort
ĠFran kreich
fr ist
ĠFirst ly
Ġlim it
01 0
ĠPr inzip
Ġindivid ual
ĠeuropÃ¤ ischer
Ġbene fit
Ġcru cial
b o
f ragen
n ational
ch an
at iv
at ory
re ct
Ġb ill
Ġo il
al ten
Ġf ore
Ġe ither
Ġp a
Ġp ost
Ġp ress
Ġn ie
Ġbe deut
ĠE s
ĠS ach
omm end
Ġre in
ĠT at
sch luÃŁ
Ġfor dern
ver b
ver s
Ġver fÃ¼
and id
sp rechen
ĠL in
Ġex ce
ĠThe at
ĠPro zeÃŁ
Ġreg ulation
Ġab ove
ĠBe teil
ĠEnt wurf
ĠReg ierungen
Ġhe ut
Ġdis p
ĠEin fÃ¼hrung
rie ben
Ġper haps
lan gen
ĠLe g
schlieÃŁ lich
ha ben
Ġbeg in
Ġinternational en
Ġweiter hin
Ġ8 0
ĠArbeits losigkeit
ĠIhr er
Ġcontrib ution
ĠbegrÃ¼ÃŁ en
ĠJust ice
Ġdel ay
ĠVors itz
ĠBem erk
maÃŁ nahmen
Ġexc lus
Ġerinn ern
Ġexperien ce
ĠGemeinschaftsin itiative
Ġpartners hip
uc lear
ĠIntegr ation
ĠBeding ungen
Ġquick ly
Ġfoc us
D och
S E
V or
Z um
b od
l ow
u ed
w and
z Ã¶s
Ġa gr
Ġw Ã¼n
Ġb eschÃ¤ft
Ġe as
Ġp o
Ġn am
Ġc lar
Ġc ivil
Ã¤ uf
id ing
Ġre con
der s
Ġwh ose
Ġso gar
ff ice
Ġcon sequ
ĠVer gangen
ĠVer mitt
ĠVer pflicht
sp r
op ol
ĠSt ahl
la in
uÃŁ en
Ġres ear
Ġma kes
Ġent schieden
ĠEr folg
gr enz
Ġch anges
Ġhin gewiesen
Ġstr and
arbeit et
Ġro ad
Ġlie be
Ġpresent ed
ac cept
spro zeÃŁ
Da bei
Ġcrit ic
ĠhÃ¤t ten
ĠVerwalt ung
rech end
ĠRed e
Ġportugies ischen
ĠDurch fÃ¼hrung
ĠschlieÃŁ lich
Ġobl ig
ĠSecond ly
ĠVerbess erung
ĠVerfÃ¼ gung
ĠVergangen heit
Ġresear ch
L assen
P Ãĸ
Z weit
e ten
f ern
m itted
o ught
Ġth ought
ich en
Ġm or
Ġm acht
ar f
Ġf ran
Ġf rÃ¼
Ġf unction
le ben
Ġun accept
Ã¼ gen
Ã¤ s
Ġbe vor
ra chte
ĠA lt
ĠA genda
Ġein zu
ic y
ic ien
gen cy
ĠR es
ĠU S
Ġver gangenen
Ġer ster
ive ly
ĠL et
ĠSt Ã¤d
rÃ¤ gen
ĠZ ug
Ġle ider
Ġle isten
Ġsp ir
ĠAus richtung
Ġconc entr
rit ts
ĠGr enzen
pt ion
rie f
wend et
Ġra ised
wir ken
geb racht
Ġcar ried
Ġrel ating
led ge
Ġdra w
ĠSicherheit s
Ã¤ÃŁ t
Ġopport unities
ĠBerichterstatter in
Ġanges prochen
ĠTransp ort
Ġfinanz iellen
ĠZust Ã¤nd
ĠberÃ¼cksicht igen
stan ces
Ġapplic ation
Ġbusiness es
Ġrece ived
Ġcreat ing
greif en
Ġmot ion
ĠWer te
Ġtable d
ĠSol idar
wÃ¼r d
ĠPart ner
Ġmember s
ĠermÃ¶ glichen
Ġexce llent
) :
b ring
i ze
p ite
Ġt rotz
Ġw ider
an ish
Ġb re
Ġin st
Ġm en
Ġm aterial
ro llen
st o
Ġc ir
Ã¼ cht
Ġto p
te mp
Ġv ol
Ġbe fÃ¼r
ĠE ast
ĠP unkte
ĠA d
ĠM ont
id es
ĠB arn
Ġl ow
Ġl ine
Ã¼r z
ĠW or
Ġwe gen
Ġst ud
Ġver g
Ġer sch
ĠD o
ĠD as
ĠRe i
we gen
ĠN atur
ĠBe zie
ĠO f
Ġag o
Ġste llt
lin e
Ġ199 6
Ġreport s
teil ung
enz Ã¼ber
rei ben
Ġprov ision
Ġend lich
Ġrec ommend
ĠVert rÃ¤ge
Ġerw Ã¤hn
gesch lossen
ĠunterstÃ¼tz t
Ġstrateg ic
ĠDem oc
Ġmain tain
Ġagreement s
Ġbesch rÃ¤n
ĠAut os
Ġpri orities
ĠkÃ¶nn ten
Ġcrit er
ĠBest immungen
Ġrest r
Ġpract ical
Ġcr ime
Ġir gend
Ġportugies ische
Ġbestimm te
vorsch riften
Ġgel ten
Ġconclus ion
ĠEmp feh
Ġcolleag ues
Ġcommit ment
ĠInformation en
ĠSeit e
ĠGemeinsam en
Ġsag te
Ġmonitor ing
Ġsug gest
ĠKoh Ã¤s
Ġabsolute ly
Ġsever al
ĠtatsÃ¤ch lich
Zweit ens
Ġcir c
G en
a ken
a ction
g ere
l Ã¤nder
o y
w ise
Ġd ue
es ted
un der
Ġs ett
ie w
an y
an ken
Ġb itten
Ġo ld
Ġin e
al led
Ġf eh
Ġf ast
Ġf ear
st immen
st att
Ġn uclear
Ġc entral
ge hend
Ã¤ st
ĠS ache
ul y
Ġl ist
Ġl ink
Ġk ont
ĠG ed
um s
ĠH els
Ġpro f
ĠVer Ã¤nder
end ing
und heit
aus ch
Ġnach halt
Ġunter b
Ġinc or
Ġinter ess
Ġsay ing
ink i
ĠÃĦnder ungen
Ġconsider ed
Ġfirst ly
ha ft
ĠHa upt
Ġnat ure
ĠAbgeordne ter
Ã¤rk te
Ġpra kt
Ġprodu ct
ĠPortug al
ĠMon aten
Ġfol gen
Ġbew uÃŁt
Ġzweit e
ĠZust immung
ennt nis
ĠBem Ã¼
ĠstÃ¤rk er
Ġext ent
Ab schlieÃŁend
ĠTheat o
Ġunaccept able
ĠSolidar itÃ¤t
enzÃ¼ber schreit
ĠHels inki
b order
k ten
m ore
o th
p tem
en gen
Ġa ffe
Ġw ater
it ime
Ġs orgen
Ġs atisf
Ġe th
Ġe qu
ĠA uÃŁen
Ġein gehen
ĠS inne
omm un
ĠT Ã¼r
ĠT Ã¤tigkeit
et ary
ĠF Ã¤
Ġk rit
ein d
Ġst ark
Ġer z
ĠL angen
ĠIn itiativen
Ġse ch
if ically
Ġle ft
Ã¤n ger
Ġy es
ah er
ect ion
Ġ1 1
ĠPro du
Ġcom ing
ien z
ste ad
Ġli ber
ger ungen
wer k
Ġind ic
Ġsub st
ĠSe e
ĠSe ptem
Ġregard s
ĠgroÃŁ er
Ġoff er
Ġher aus
Ġspec ifically
Ġcurr ency
Ġestablish ed
Ġfra ud
Ġwish es
Ġinde pendent
ĠIhr en
Ġpract ice
Ġwes entlichen
Ġlim ited
Ġvorge legt
Ġimm igr
ĠAngelegenheit en
Ġreach ed
Ġsuff icient
Ġparticip ation
ĠArbeitsplÃ¤tz e
last ung
ĠAmend ment
ĠDiskuss ion
Ġvern Ã¼nft
ĠSitz ung
ĠOb ject
Ġplann ing
Ġverhin dern
leis tet
ĠKap ital
Ġexch ange
Ber icht
ĠWissen schaft
Ġfran zÃ¶s
ĠBarn ier
ĠRei he
Ġaffe cted
ĠSeptem ber
I I
R e
V ielen
d ing
d ict
e an
e cted
g o
h ase
i ans
m ut
u ted
Ġ che
en nen
Ġd isch
Ġd ialog
ch er
at or
Ġc la
te l
ed i
ĠP re
ĠP lan
ig te
ĠA kt
ĠK l
ere hr
ĠW hen
Ġcon n
Ġde v
ĠRe formen
Ġle ben
Ġall oc
ist ische
ure au
Ġcom b
ĠAus fÃ¼hr
Ġta kes
ken nen
Ġhe alth
Ġfa ce
Ġcomm ent
Ġspe z
Ġcons ult
Ġout side
Ġleg itim
uss els
ĠRat s
Ġwork ers
ĠGrund satz
ĠÃĦnder ung
Ġ3 0
Ġbas ic
Ġimplement ing
ĠTreat ies
Ġsicher lich
ĠKo ordin
Ġthrough out
ĠVerein bar
Ġmo ve
Ġincreas ed
ĠDisk rimin
ĠStra f
Ġcor rect
ĠVerwalt ungs
Ġerne ut
Ġtot al
ĠStr ategie
ĠKatastrop he
Ġjud icial
Ġbeit ragen
ĠPol icy
Ġschne ll
Ġsustain able
Ġanalys is
ĠArbeitn ehmer
Ġfiel d
Ġbeh ind
Ġobs erv
Ġdiscrimin ation
Ġverg essen
Ġcriter ia
Ġdisch arge
Ġdialog ue
d urch
h eren
i ken
n issen
in king
Ġt ry
on nen
Ġs ur
ie f
Ġh ard
ĠI m
ĠP ublic
ĠT our
ĠT ag
ĠK raft
Ã¶ ff
ĠF eh
Ġl ight
Ġk omp
ĠW ill
ĠW ider
ĠW og
Ġno te
res p
ĠEurop ol
ĠG lob
ier igkeiten
Ġst age
Ġver ab
ach teil
Ġer fÃ¼
Ġne uer
ĠL ast
Ġj ur
Ġsh e
ĠN ational
ĠN ationen
ien en
ot t
Ġsch em
Ġapp lied
Ġgro w
ieren den
Ġih n
ag ing
teil t
Ġsol ution
ĠSe kt
ĠAs yl
Ġkon zentr
wor ten
Ġwieder hol
Ġeffect s
leg ung
Ġtrans national
Ġsect ors
ĠAut om
Ġcre ation
ĠFl or
fÃ¤ lle
Ġeing es
ĠGen eral
Ġdet ail
ĠOrgan isation
Ġglob al
Ġallgemein en
Ġmanufactur er
Ġimm edi
Ġplan s
Ġlok alen
beding ungen
Ġentwick eln
ĠFahr zeuge
Ġpriv ate
ĠFisch ere
ĠSchluÃŁ fol
drÃ¼ck lich
Ġspir it
ĠBemÃ¼ hungen
ĠWog au
N un
v est
x en
Ġ ign
in ation
in der
Ġt reffen
on se
is te
al es
ent wick
Ġun beding
Ã¤ um
Ġv is
Ġv ict
Ġbe ant
ur p
ÃŁ e
ĠM c
ut or
Ġre ference
ĠB Ã¼
ĠB rit
ter day
el ves
hr en
ĠR om
ĠF PÃĸ
Ġl ive
Ġl Ã¤ÃŁt
ĠG eschÃ¤ft
Ġcon v
ĠVer ordnung
Ġex tern
if el
our cen
ĠN r
Ġcom bat
enn ung
Ġsa fe
Ġhe ar
Ġfin al
ĠAb satz
rit erien
Ġdurch aus
Ġzum indest
he ben
ĠEin w
Ġalle in
Ġhin ter
Ġgr enzÃ¼berschreit
ĠFor sch
ĠBereich e
Ġoff ens
Ġbest Ã¤t
ungsant rag
ĠThere fore
leg ten
leg ation
Ġref uge
ac io
ĠLand wirtschaft
Ġentsp rechend
Ġwirtschaft liche
ĠmÃ¶glich st
Ġval ue
Ġstruct ure
Ġverst ehen
Ġdifficult ies
ĠWo che
Ġpow ers
Ġkonk reten
Ġgesam te
ĠBr ussels
Ġaccord ing
Ġaccord ance
ĠQu est
ĠPal acio
ĠIntern ational
ĠLebensmittel sicherheit
Ġerne uer
Ġexist ing
ĠSchw ierigkeiten
com ing
Ġmed ium
Ġsup erv
ĠÃ¶sterreich ischen
oph ob
ĠProt ok
Ġcongratul ate
ĠAusfÃ¼hr ungen
Ġunbeding t
2 1
S ch
f re
g u
l assen
l ife
n ern
p f
u ft
v al
Ġ xen
on n
is c
is is
re land
re hens
ar ily
Ġf irm
Ġf unktion
Ġc ause
ĠI reland
ĠT err
lich es
ĠK Ã¼
Ġha pp
Ġst ated
Ġver antwort
ft rag
ĠD ialog
Ġdes pite
ĠVer s
ke y
ĠSt abil
ĠCommission ers
Ġex cept
ĠEn g
ab el
ĠO ne
Ġcomp rom
Ġus ing
rat ed
he er
ĠMitglie der
Ġresp onse
Ġmy self
iz ient
iz ienz
geb ie
Dies er
Ġfre ue
ĠWir k
Ġposs ibility
Ġsc ope
Ġreform s
ĠMenschen rechte
ĠHin sicht
Ġachie ved
Ġpers Ã¶n
Ġrequire d
Ġpri or
Ġgesch lossen
Ġcr isis
Ġzweit en
Ġtal king
Ġje weil
Ġgrund legen
ĠPrior itÃ¤ten
Ġzie hen
ĠBeg inn
ĠBel g
rok rat
Ġern st
ĠInde ed
Ġunt il
Ġsignific ant
ĠTur key
bo ard
Ġheut igen
Ġnam ely
ĠBezie hungen
Ġincor por
Ġconn ection
ĠAutom obil
Ġxen ophob
P E
b t
h nen
j ahr
k olog
l iz
m ark
w Ã¼n
Ġd ate
ch ter
Ġa ffairs
Ġw elt
it ing
at Ã¼rlich
Ġthe ms
Ġb ureau
Ġf ishing
le isten
Ġan zu
Ġn et
Ġc ard
Ã¼ t
Ġz entr
Ġg ern
ĠT o
Ġl ange
ere ign
Ġge fÃ¼hrt
Ġge ograph
ĠH altung
Ġst immen
Ġer heb
ĠRe cycling
Ġvor sch
ist ent
ĠAn satz
ĠJ on
ĠSch wer
ĠSch engen
ĠEnt lastung
Ġpart ies
Ġsein em
Ġfa ir
Ã¼n st
Ã¤r ken
Ġcont ent
Ġste el
Ġspe e
Ġspe zie
rat s
Ġpre par
wo gen
stitut ional
fahr ens
geb ung
Ġsub sidiar
fol gt
Ġar gument
min ister
ĠMin der
Ġview s
ĠRichtlin ien
Ġconf irm
Ġestablish ing
Ġverb unden
Ġbesch lossen
ĠAu gen
Ġav o
ĠBest and
Ġdocument s
Ġentsprechen den
zuf Ã¼hren
ĠgewÃ¤hr leisten
Ġocc as
Ġmar itime
Ġbod ies
ĠkÃ¼nft ig
Ġvorliegen den
ĠhÃ¶ ch
ĠSchiff e
ĠGrÃ¼n den
Ġerwar ten
ĠForder ung
stre am
Ġofficial s
behÃ¶r de
chan is
Ġpo or
ĠFlor enz
Ġthems elves
0 7
D A
D aher
S t
b s
c ies
f eind
s o
Ġd ut
Ġw orth
it er
or den
Ġin fl
Ġin spect
le ibt
Ġp ort
Ġp urp
Ġun e
Ġun ternehmen
ge lung
Ġv erehr
Ġbe ha
ll os
ĠA mer
Ġre d
Ã¶ st
ĠR ess
ĠR ights
ĠF onds
Ġl iving
il ar
ĠC o
ĠG esellschaft
Ġge Ã¤uÃŁ
ce p
ĠD en
ĠD imension
Ġdes ign
ĠRe p
ĠRe port
ĠVer wendung
ind ung
end s
ck s
ck en
sen s
iti ous
ri ft
ĠÃ¼ber nehmen
ĠN ov
Ġat temp
Ġsch eint
Ġsa ge
Ġbet reffen
Ġpolit ics
ĠEin zel
Ġges prochen
ĠKolle ge
Ġdam age
str eng
schie de
ĠRicht ung
ha upt
Ġinstitut ion
olog ical
Ġange messen
ĠGro ÃŁ
Ġsubject s
Ġserious ly
ĠFl Ã¼cht
Ġproced ures
ĠÃ¤uÃŁ er
Ġfol gt
Ġvoll stÃ¤nd
zus etzen
Ġdet a
Ġwes entlich
ĠBr Ã¼ssel
Ġentsprechen de
Ġtas ks
ĠSub sidiar
Ġcomplete ly
Ġklein en
ĠgegenwÃ¤rt ig
Ġorganis ations
Ġchallen ge
Ġscient ific
Ġpot ential
Ġarbeit en
ĠfÃ¼hr t
Ġhon our
ĠRis ik
ĠPlen um
icien cy
Ġsubsidiar ity
ĠNov ember
N ur
N atÃ¼rlich
Z u
Z unÃ¤chst
a ve
a graph
g Ã¼lt
k Ã¼nd
w al
Ġa way
it ting
Ġb rief
Ġb leibt
Ġf ulf
Ġe c
Ġp urs
Ġh ome
Ġh och
Ġbe teil
ĠP ra
ĠP osition
ĠM acht
Ġre ject
icht lich
ĠT od
hr ist
ĠC hin
Ġfor t
ĠV Ã¶lk
ĠG ar
Ġge fordert
ĠU N
ĠU hr
Ġso ur
ĠH ow
Ġver d
Ġas yl
ĠD ritt
ess ion
Ġne u
Ġj udge
we ist
rÃ¤ um
if all
ĠZ us
ist ic
ck heer
Ġ1 7
Ġ1 8
ĠAn streng
Ġreg ret
ien ste
ĠFra ktionen
ran ted
Ġcomm unity
Ġdurch gefÃ¼hrt
Ġ199 4
Ġgen ommen
Ġeff iciency
stitut ion
Ġdec ided
Ġop eration
ĠDe c
Ġunser es
ĠUnter such
ĠRechts vorschriften
mittel n
Ġdan ke
Ġauth or
Ġlevel s
Ġur ge
Ġhel d
Ġetw a
Ġevery one
io de
ĠOr t
Ġintegr ated
reg ional
Ġprote ct
Ġel ig
Ġstaat liche
Ġsuccess ful
Ġadministr ative
Ġdemokrat ischen
Ġconclus ions
Ġakzept ieren
ĠDienstleist ungs
Ġconsum er
ĠPers on
organ isation
ĠKomp rom
Ġyes terday
ĠObject ive
Ġbureau c
ĠJon ckheer
ĠSubsidiar itÃ¤t
Ġasyl um
a ust
b ur
b et
d ition
h Ã¤n
k raft
u ing
w enden
x is
³ n
Ã ³n
Ġ ,
un sch
re if
an ced
Ġb il
Ġf amil
Ġc ities
Ġun an
Ġun fortunately
Ã¼ ter
Ġv i
Ġv oting
ĠE ind
ĠP PE
ĠA gr
ĠK Ã¶n
ĠK och
Ġzu g
ĠF unktion
Ġfor th
Ġge ehr
Ġge mÃ¤ÃŁ
Ġal ong
Ġst ra
Ġst aff
Ġpro b
Ġpro ceed
sp ar
th y
la ÃŁ
ah n
Ġr un
uf en
ĠÃ¼ber haupt
ĠAr gument
Ġen orm
ĠBe am
Ġent gegen
Ġcomp rehens
Ġhe art
Ġgo es
Ġste ts
Ġob wohl
ĠGr unde
Ġexp lain
Ġeff ekt
Ġeff izient
ass er
ik an
iz ed
conom ic
ĠLe ben
Dies es
fol ge
Ġprov isions
ĠAuf merksam
Ġover all
ĠBed enken
Ġass oc
Ġdiff eren
Ġmon opol
Ġfar m
ĠÃ¶ kolog
Ġac cep
Ġwichtig sten
Ġdiscuss ions
Ġevery thing
Ġ8 1
reit en
Ġgleich en
Ġreal ity
Ġestablish ment
spro gramm
reg ionen
aly se
Ġgeb racht
ĠNe ver
Ġtranspar ent
Ġel se
Ġspeak ers
ĠgehÃ¶r en
Ġdisast ers
Ġabsol ut
Ġbro ad
Ġbal ance
ĠRegel ungen
Ġrev iew
lauf en
Ġsy mp
Uns ere
ĠWÃ¤hr ung
sec utor
Ġaff ect
Ġassess ment
Ġrecogn ise
ĠRand lage
ĠFortsch ritte
ĠverfÃ¼ gen
ĠBeteil igung
grenz ung
ĠMont i
Ġcirc um
ĠKoordin ierung
ĠGlob alisierung
Ġwelt weit
ĠAnstreng ungen
ĠAufmerksam keit
C ar
H e
d le
h ere
m Ã¼
m aking
p art
v ereign
y ond
Ġ Ã¤hn
er c
er weise
Ġa ut
un ter
Ġm Ã¼ÃŁ
al er
Ġf r
Ġe hr
st imm
Ġn immt
Ġh uge
ge mÃ¤ÃŁ
Ã¤ us
om in
Ġv erein
ĠS elbst
Ġg ere
ĠM E
im es
Ġre cyc
ĠK enntnis
ct or
Ġl ot
Ġso vereign
Ġst or
ver t
Ġpro t
Ġer g
Ġer greifen
Ġauf genommen
ĠD a
Ġne igh
Ġj en
Ġex act
Ã¤n den
qu ate
ore board
Ġma g
ord n
Ġen for
ĠJ un
Ã¶r per
Ġhe ard
esch rÃ¤n
Ġdis app
ĠMit arbeit
reich end
ĠAb schluÃŁ
ĠEin satz
Ġinter p
Ġra ise
Ġper f
inn ing
ĠGrund sÃ¤tze
Ġrec ently
forder ung
fl uÃŁ
ĠLand es
Ġget roffen
Ġsom it
Ġpar agraph
Ġprodu ce
Ġsim ilar
ĠBet rug
ĠSozial demokrat
hn t
Ġday s
ĠauÃŁer dem
Ġredu ce
ĠOrgan e
Ġcl ose
Ġben achteil
Ġrecog nis
Ġcreat ed
ĠVol k
Ġparliament ary
Ġrefer red
Ġbod y
Ġborder s
ĠRatsprÃ¤sident schaft
kon om
Ġenter pr
Ġbetroffen en
ĠEff izienz
Ġhig hl
Ġrenew able
ĠAlt fahr
ĠZug ang
Ġsech s
Ġgrow th
ĠGeschÃ¤ft s
ĠNever theless
Ġneigh bour
b Ã¼r
i kt
l Ã¤n
r ary
s k
s ehen
s ized
w es
x im
en der
in o
Ġb ie
Ġm is
Ġm ess
al ition
ent wurf
le ct
Ġun z
ĠS ince
Ġg iving
Ġg ranted
ĠM ed
ĠM id
ĠM Ã¤n
ĠM iÃŁ
ol z
ĠK ommun
Ġda durch
ĠC ost
ĠG ol
ier s
Ġver teid
Ġpro sper
Ġdes ire
ĠVer halten
ke i
la re
Ġsu c
art a
Ġme isten
Ġum welt
Ġdar stellt
Ġent sch
Ġcomp eten
Ġexp erts
Ġco ast
Ġjed e
Ġinter regional
Ġdevelop ing
Ġgr ant
Ġagre ed
ĠÃľber wach
Ġsystem s
halt ung
Ġbeg lÃ¼ck
ĠGes undheit
Ġgest immt
Ġcontrib ute
Ġbess ere
ĠEUR O
Ġtal k
Ġglob alisation
ĠPal est
Ġbro ught
Ġclos ed
Ġstep s
CO S
Ġemploy e
Ġcaus ed
Ġrele vant
Ġobvious ly
arak ter
Ġfestge legt
ĠGesch ichte
ĠKommissionsmitglie d
bring en
Ġsett ing
Ġkont roll
ĠVerÃ¤nder ungen
ĠTÃ¼r kei
Ġvict ims
Ġoffens ichtlich
ĠQuest ion
ĠProtok oll
Ġcomprom ise
Ġfulf il
ĠKomprom iÃŁ
Ġunan im
G e
O ffice
S teuer
U m
g ruppen
m Ã¶glichkeit
p lan
p olit
w ill
w ahl
en ces
Ġa chten
Ġth us
Ġw id
Ġw ettbewerb
Ġs inn
Ġs elf
Ġo ught
Ġm iss
Ġf l
Ġf ragen
Ġf Ã¶rder
Ġp ub
Ġun ver
ge lt
Ġbe finden
Ġbe yond
ur y
ed eral
ig in
ĠS an
ĠS ome
ĠS inn
ut er
el ten
ĠK ons
Ã¶ sen
ĠC hrist
Ġk l
ĠH ause
Ġcon du
Ġcon ference
Ġst ability
Ġst Ã¤d
Ġer hÃ¶
ive au
Ġdes c
la use
ist an
ri ffen
ĠN icht
ord ing
Ġta ck
Ġen able
ĠVor bereit
ĠO p
ĠPrÃ¤sident en
lin ie
Ġnoch mals
ĠEin fluÃŁ
Ġbes ten
Ġbes ondere
ank er
Ġkein er
Ġstr ict
fÃ¼hr en
Ġwar um
lan gt
Ġev ents
Ġgew orden
Ġfe ll
Ġdire ction
Ġcompet it
utz ung
Ã¤nder t
Ġrem ember
Ġrem ark
Ġfest stellen
Ġbeg innen
Ġur gent
ĠTe xt
Ġdiscuss ed
ĠKont rollen
Ġentsp richt
erk ennung
Ġmin imum
Ġimpro vement
ĠProj ekt
Ġele ctions
Mein er
ĠMill iar
att le
zus ch
stan den
ĠIntern et
Ġbal d
Ġflex ibility
Ġzahl reiche
Ġconst ruction
Ġsupp orted
ĠBesch l
ĠAsp ekte
ĠMe er
ibil ities
Ġamb itious
ĠFebru ar
Ġcoordin ation
Ġmer ely
ĠPrÃ¼ fung
Ġground s
lud ed
ĠSach verstÃ¤nd
Ã¤st in
Ġeth n
Ġkonzentr ieren
ĠSchluÃŁfol gerungen
ĠMc Car
Ġrefuge es
Ġspee ch
Ġcircum stances
Ġsuc ceed
ĠbeglÃ¼ck wÃ¼n
ĠstÃ¤d t
ĠMcCar thy
0 8
V P
a den
f el
l icht
u x
z Ã¶
z ehn
Ã ¨
Ġw eder
at ure
ar r
Ġf lo
Ġc ut
Ġc red
Ġh Ã¤uf
Ã¼ g
Ġdie jenigen
om pe
ir es
ĠP olitiken
Ġein iger
Ġg ra
Ġg ab
Ġg ave
ol ution
ĠF alle
Ġl isten
Ġfor est
ĠV itor
ĠG el
Ġal most
Ġcon dem
Ġst Ã¤nd
ĠD er
ĠD Ã¤n
ĠVer hÃ¤lt
ĠIn halt
be zie
ĠAn nahme
ĠAn erkennung
ges ichts
Ġum gesetzt
ran ge
Ġor igin
ip l
ous ly
ĠEnt s
ition en
Ġbet rachte
Ġhe ad
Ġfa cil
form ations
Ġ2 1
rit tens
Ġ199 5
Ġ" ,
Ġint ention
Ġjed es
Ġra d
bar er
Ġany thing
Ġact ive
Ġgew Ã¤hl
stell ungen
Ġknow ledge
Ġdirect ives
Ġens uring
fall en
setz ungen
Ġmeas ure
Ġhel fen
Ġdiscuss ing
Ġ4 0
Ġselbst verstÃ¤ndlich
Ġprodu ction
ife llos
Ġextre me
ĠQ ual
ĠMinister s
Ġgut en
ĠBeit ritts
Ġfinanz ielle
Ġreason able
An gesichts
Ġdist rib
Ġpres idency
Ġcolleag ue
Ġschwer wie
ĠDienstleist ungen
Ġtim es
ibil itÃ¤t
Ġaspect s
ĠFebru ary
Ġkonn te
Ġdring end
prÃ¼ ft
Ġverbess ern
ĠLin ie
ĠVermitt lungs
ĠBrit ish
Ġextern al
Ġsafe gu
ĠEinw ander
stream ing
ĠÃ¤uÃŁer ster
Ġelig ible
Ġforth coming
Ġprob ably
Ġcomprehens ive
He ute
lÃ¤n e
ompe ten
ĠVitor ino
F R
L e
W er
l Ã¤ndern
n a
r ong
y p
y s
Ġ Ã¤ndern
in ed
Ġd est
Ġs ort
Ġs itting
Ġb ur
Ġb lo
Ġin fra
Ġm et
Ġe lement
ent en
Ġan erk
Ġun c
te ile
Ã¤ cht
om es
Ġv o
Ġbe l
Ġbe kommen
Ġbe mÃ¼
ĠE C
Ġis ol
Ġz unehmen
ĠA cc
em ark
ĠS er
ĠS orge
ic ulture
ol er
sch t
et s
Ã¶ der
ĠR ap
ĠF urther
Ġk o
Ġso und
Ġcon ven
Ġver me
Ġver pf
Ġpro fit
ess es
Ġde ter
sp olit
ident s
ind et
rÃ¤ gt
ĠZ ivil
Ġle arn
ah en
qu is
Ġvor h
ist isch
Ġ1 6
ĠN ormen
Ġaus ges
ĠBe wertung
ĠJ Ã¶r
ĠSch ritt
Ġbet onen
Ġcomm itted
Ã¤r kt
Ġconc il
Ġfin ally
ap er
ĠGr enz
Ġimp ress
Ġeff icient
Ġpoin ted
ĠJahr h
Ġviel mehr
ĠUnter schiede
Ġgemein schaftlichen
pro gramm
eth eless
Ġletz te
Ġdra wn
ĠEntscheid ungs
Ġthank s
Da zu
recht s
Ġlook ing
ĠMon ate
Ġprom ot
zeich ne
Ġele cted
ĠWo hl
Ġdel iver
Ġeffective ly
bau en
Er stens
Ġkonk rete
ify ing
Ġcl ass
Ġbestimm ten
Ġproper ly
ho ben
ĠFrieden s
ĠZwe ifel
ĠArbeitsplÃ¤tz en
ĠInd ustrie
ĠWÃ¤hr ungs
Ġant i
Ġinnov ative
Ġerfolg reich
Ġrepe at
Ġkulture llen
ĠPe ople
Ġconsequ ences
ĠVerpflicht ungen
ĠEmpfeh lungen
Ġsubst ant
ĠForsch ung
ĠStabil itÃ¤t
ĠgeÃ¤uÃŁ ert
ĠEind ruck
ĠKÃ¶n ig
Ġaccep ted
Ġperf ect
ĠGeschÃ¤fts ordnung
Ġpub lish
ĠDÃ¤n emark
Ġinfra st
Ġverpf lich
ĠJÃ¶r g
0 3
F ra
L T
T he
b ung
h nung
j ust
l ament
o ber
o od
p unkte
s eit
u k
v ision
Ġt arge
Ġa de
Ġw rong
Ġb l
Ġin tens
al tet
Ġf al
Ġf ig
Ġf lag
Ġe her
Ġp oll
ge t
Ġz us
Ġein be
ĠM al
ĠB as
ul ative
ĠW orte
ĠW unsch
ly ing
ein en
Ġwe alth
Ġge be
ĠH Ã¶
ver Ã¤n
Ġas king
sp ekt
ĠIn vest
Ġj oin
Ġex tens
Ġse a
lie gt
ann er
Ġvor zulegen
ern er
schaft liche
ĠÃ¼ber w
ĠN ations
ĠAn g
ges e
gram me
Ġsch le
ou ch
ger ung
Ġunter s
Ġunter schied
ish ed
Ġimp act
Ġgen ug
Ġges tern
Ġra c
Ġper mit
ĠDe ut
itu de
Ġsub mitted
Ġgew esen
ĠMaÃŁ e
Ġend gÃ¼lt
ĠSe attle
ĠÃĸ l
Ġenv is
isten ce
ild ungs
ĠGes prÃ¤
ĠFinanz kontrolle
Ġconf lic
Ġuse ful
icult ural
Ġkommen den
Ġgesch affen
ĠWettbewerbs fÃ¤higkeit
Ġbed arf
Ġvers ich
zeug t
ĠIhre m
Ġ. ..
Ġben Ã¶t
riminal itÃ¤t
ĠRegel n
Ġinvest ig
Ġinstrument s
eint rÃ¤cht
Ġequal ity
ĠGesetz gebung
Ġret urn
ĠerklÃ¤r en
Ġamong st
Ġintend ed
vent ions
Ġmod el
ĠInst anz
ĠErfahr ungen
Ġdiskut ieren
ĠIr land
ĠBalk an
Ġbill ion
ĠerwÃ¤hn t
Ġrestr ict
ĠTour ism
Ġeinges etzt
Ġavo id
ĠDen mark
ĠVÃ¶lk er
reif en
Ġsymp ath
Ġmess age
Ġfell ow
Ġcompetit iveness
ĠMilliar den
ĠAcc ording
ĠKÃ¶nig reich
Ġverpflich tet
M U
V on
W el
g ut
l ude
m eld
o dern
r on
y n
Ġd ienen
Ġth inking
Ġw ach
un ch
un kten
an ze
Ġb rit
Ġin stead
Ġe uro
Ġh or
Ġun er
ge iz
Ġbe zie
us ed
ig ungen
Ġz ul
ra ch
Ġg ives
ic a
ol id
ĠB udget
sch w
ĠK amp
ĠF lex
Ġl og
Ġl Ã¤nger
ĠC omp
ĠW ahr
ĠW ert
ĠTh ird
Ġver ur
Ġer k
and s
ĠD anish
ĠUn gleich
ĠUn abhÃ¤ng
Ġde alt
ĠVer stÃ¤nd
ĠSt imme
Ġex erc
rÃ¤ ft
Ġmit tel
Ġr ule
Ġvor legen
Ġ1 00
ĠPro secutor
ĠAn frage
oun ced
ges tell
Ġaus reichend
Ġab zu
enn ium
ip ul
ste ht
ĠmÃ¶ chten
Ã¶r t
Ġapp lies
Ġcont rary
Ġdis par
Ġjed em
Ġch o
lieÃŁ en
lieÃŁ lich
Ġright ly
Ġgr Ã¼nd
Ġho ffen
ĠGrund rechte
ĠProble men
ĠAuf bau
schlieÃŁ en
ĠMaÃŁ nahme
Ġoff ice
Ġrem ote
richt ungen
wor ks
Ġhal f
ĠSte llen
ĠHaus es
Ġatt ach
of ern
Ã¤m t
ĠAut o
Ġimpro ving
ĠProj ekten
ĠRaum s
ĠVorschlÃ¤ gen
Ġrisk s
Ġaim s
ĠSocial ists
ode x
Ġ200 2
Ġander er
Ġaddress ed
Ġentwick elt
Ġactiv ity
ĠWieder auf
ĠVol ks
Ġsuff er
Ġgrund sÃ¤tz
Ġread ing
Ġocc ur
Ġcare fully
ĠerklÃ¤r t
ĠGrÃ¼n de
Ġnor mal
Ġencour age
Ġkonn ten
ĠFol gen
ĠKr iti
ĠFremden verkehr
ĠBemerk ungen
Ġexclus ion
ĠStÃ¤d te
ĠZustÃ¤nd igkeit
ĠfranzÃ¶s ischen
Ġspez if
ĠWider spruch
ĠerfÃ¼ llen
Ġimmedi ately
Sch lieÃŁlich
Ġverantwort lich
Ġjeweil igen
ĠRess ourcen
ĠCost a
mÃ¶glichkeit en
Ã¤stin ens
Ġcondem n
ĠQual itÃ¤t
Ġsafegu ard
ĠFurther more
Ġconcil iation
Fra ktion
gese llschaft
) .
A nder
B et
G leich
P ar
a i
c ement
f alt
l ier
o ul
r en
t rÃ¤
t ran
er ve
Ġd ank
Ġd imension
Ġd ivers
ch nung
is p
Ġw onder
it ory
Ġs l
Ġs us
Ġs Ã¤mt
at isch
re ign
Ġm ass
Ġm anner
al ity
ar en
Ġe mer
Ġn ieder
Ġun mittel
ĠE lement
ra hmen
Ġein schlieÃŁlich
ĠS h
ĠS um
Ġg ain
ĠM indest
ĠM odern
im al
am a
am m
am ber
ten ds
ĠK ouch
Ġl ab
il it
Ġk aum
Ġfor ms
ĠV iel
Ġwe ak
ĠEurop Ã¤
Ġge ling
Ġcon stit
Ġst op
Ġst ipul
ĠD inge
Ġde ad
ĠL ange
ĠIn formations
Ġex cess
Ġmit t
ore d
Ġr asch
Ġvor her
ri Ã¨
aus weis
ĠÃ¼ber n
ĠN ieder
ĠAn forderungen
for dern
ges amt
Ġaus zu
Ġaus fÃ¼hr
ĠAus bildung
Ġent hÃ¤lt
ĠSch ritte
ib ly
ĠO sten
Ġpart s
Ġapp e
Ġapp ear
Ã¼n den
Ã¼n de
Ġob tain
Ġpropos ing
ĠEin sch
Ġges etzt
Ġges ehen
Ġdec entr
icher ung
lÃ¤ uf
str ategie
ĠLe ist
Ġway s
ĠUm fang
ĠVert ra
act ions
Ġconsider able
Ġsc ience
gel mÃ¤ÃŁ
ĠRechts sicherheit
Ġdirect ly
ild et
Ġappro ve
Ġnat ural
ga be
leg ungen
Ġbeg inning
ĠZiel en
ac ity
ĠFinanz ierung
ĠÃĦnderungsant rÃ¤gen
ĠErw art
ĠGer icht
ĠUmwelt schutz
Ã¤rk ung
tend lich
ĠCh ance
Ġwissen schaftlichen
Ġide as
Ġbrau cht
Ġvers uchen
over ty
ĠWo chen
Ġgovern ance
ĠauÃŁer ord
ĠErklÃ¤r ungen
Ġdemokrat ische
Ġintrodu ce
ĠBes org
Ġrece ive
Ġderzeit igen
Ġflex ible
Ġbestehen den
Uns er
ĠAsp ekt
Ġear lier
gent eil
Ġwa ste
schein lich
Ġship s
wh ere
Ġcover ed
Ġbehand elt
ĠJanu ar
ĠJanu ary
ĠHeraus forderung
andid aten
spr inzip
Gen eral
entwick lung
Ġpurp ose
Ġverehr te
Ġdeta iled
Ġvi ol
Ġassoc i
Ġehr geiz
Ġsovereign ty
Ġstor ms
ĠMid dle
ĠÃľberwach ung
Ġbur den
ĠFlex ibilitÃ¤t
ĠKouch ner
riÃ¨ re
A pp
D E
W ar
a ktionen
c ke
d om
d ra
e c
f s
f assung
k atastrop
m and
u ation
u ff
u ble
in den
Ġt est
Ġd Ã¤n
Ġw eshalb
at ch
ie ll
re c
Ġb an
Ġb ad
Ġm and
al ian
ar s
st elle
Ġp overty
Ġc alled
Ġun tern
Ġto ok
te i
Ã¤ ter
Ġv ess
ĠE G
ĠE reign
us ion
ĠA kte
ĠS Ã¼
ĠS ou
ĠM oment
im in
ĠB ildung
et imes
Ġzu dem
Ġl ater
Ġfor ces
ĠW ales
Ġdies be
Ġver lei
Ġer kennen
Ġauf merksam
ĠUn fortunately
Ġwith dra
ĠVer sch
ĠIn sel
Ġj Ã¼n
Ġse ek
qu e
Ġr ig
cht ung
Ġres erv
Ġsp ielen
ĠAus grenzung
ab sicht
ĠAr mut
Ġdar stellen
Ġ2 8
ĠIt aly
out h
Ġpolit isch
ĠGe b
ĠGe genteil
Ġspe aking
he ad
ĠEin bezie
Ġgen annten
Ġihr es
Ġdevelop ments
bar keit
Ġfact or
ĠAuf nahme
alis m
Ġrec over
utz t
ha ften
Ġsc ale
Ġrequ ires
Ġcertain ty
hÃ¶r en
Ġappro val
Ġstat us
Ã¶rder t
Ġletz tendlich
ĠHaus halt
Ġger ing
Ġzwe ifellos
Ã¤rk ten
Ġadop ting
fra struktur
ĠKo op
ĠKon fl
Ġausge wogen
Ein ige
Ġprom oting
gemein schaft
Be ifall
Ã¤mp fen
ĠAl though
Ġaw a
Ġeinge gangen
zeug ung
Ġadv is
Ġsimp le
Ã¤hl en
ĠRed ner
Ġoper ators
Ġintrodu ced
ode ll
Ġstatement s
Ġterr itor
Ġterr itory
Ġgegeben en
Ġparliament s
Ġopp osed
leit et
ĠSyri en
ĠPrior itÃ¤t
ĠForder ungen
Ġderart ige
Ġze igt
Ġdiskut iert
ĠGerman y
ĠStaats an
Ġpa id
Ġagr icultural
Ġmor ning
Ġmaterial s
Ġstud y
ĠAkt iv
Ġkomp liz
Ġhapp y
ĠAutomobil industrie
ĠBestand teil
Ġdut y
Ġec ological
ĠGar ant
Ġsour ces
ĠMitarbeit er
ĠPalest in
Ġemploye es
ĠbeglÃ¼ckwÃ¼n schen
Ġverme iden
Ġpromot ion
Ġdispar ities
Par liament
App lause
ĠSou verÃ¤n
ĠjÃ¼n g
ĠEinbezie hung
) ,
A ller
E n
O L
T O
b al
b el
e ver
f rieden
g in
i ere
k ay
l ant
m ium
o ung
u gend
z lich
z ember
z io
Ġ il
Ġ ult
Ġd r
Ġd re
Ġa ck
Ġa round
Ġw oll
un sten
it ial
Ġs um
at eral
re ff
re geln
an cen
Ġin tends
Ġin itial
Ġm ut
al b
Ġf allen
st um
ge f
Ġto ler
Ã¤ den
as h
ĠE conomic
ĠP flicht
ĠA fter
Ġein setzen
ĠS onder
ĠM alt
ĠB ar
ĠB lick
der e
ĠK riterien
et ition
Ġzu frieden
ĠF amil
ĠC ont
Ġfor get
ĠW ach
ĠW affen
Ġwe ap
ĠG ruppen
ĠG Ã¼ter
Ġge leistet
Ġso gen
Ġso fort
Ġst imme
ver standen
Ġver m
Ġver stÃ¤nd
Ġver folgen
ach ten
Ġer Ã¶r
ĠD ies
ĠUn tern
ĠRe chnung
ĠVer fahrens
pp ed
ĠIn frastruktur
rÃ¤ z
la us
Ġr ise
ri ge
und es
ĠÃ¼ber zeugt
ĠN os
ĠN ahen
ĠAn spruch
ges etz
Ġaus drÃ¼cklich
itte es
Ġsch l
Ġcomp lex
ĠBer eit
Ġ2 4
ieren de
ub l
Ġexp lan
ĠEin richtung
au ern
Ġgen u
Ġgen Ã¼
ank s
Ġra p
Ġra il
ĠProgram mp
ĠDe cour
ĠDe zember
Ġla id
Ġins gesamt
Ġcour ts
ĠWh y
Ġ3 7
Ġeinz ige
antwort ung
Ġfest gestellt
Ġletz ter
Ġinternational er
ĠSte lle
Ġtax ation
Ġerw eit
Ġachie ving
ĠCh arta
Ġnun mehr
Ã¤lt igen
Ġinvol ving
Ġinclud es
Ġgest alten
Ġnotwend igen
Ġcontrol s
Ġstehen den
zeich nen
ĠFre edom
ĠEntschlieÃŁ ungsantrag
ĠÃĸsterreich s
wirk ung
Ġcap acity
ĠStra ÃŁe
sequ ently
ĠauÃŁer halb
Ġapplic able
Ġhist ory
ĠWahl en
ĠVerkehr s
Ġdemon st
Ġvorgeschlagen en
Ġcommit ments
Ġperson al
Ġlang frist
ĠAmend ments
Ġweek s
Ġcaus es
ĠPers onen
Ġhol d
ĠÃľberein kommen
Ġbuild ing
miss ion
letz t
Ġdef end
mb ol
ĠIde e
ĠVoraus setzung
ĠLeg al
ĠUS A
ĠPartner schaft
Ġrecommend ations
ĠKohÃ¤s ion
statt ung
Ġalloc ated
Ġcomb ating
ĠFischere i
Ġign or
Ġsuperv ision
ĠKÃ¼ sten
Ġvorsch lagen
Ġinfl uen
Ġbeteil igt
ĠDec ember
bur g
Ġenorm ous
Ġenterpr ises
bÃ¼r ger
Ġsinn voll
ipl om
ĠRap kay
Ġausges prochen
lament ar
ĠVerstÃ¤nd nis
ĠErwart ungen
ĠSouverÃ¤n itÃ¤t
Ġack now
reff end
ĠDecour riÃ¨re
D es
D ann
J etzt
c ision
g ruppe
h ab
k Ã¶rper
l Ã¤nd
m et
r ig
s on
s achen
t o
en ational
en ary
on ed
Ġw Ã¤ren
un dert
re che
an ted
an agement
Ġf Ã¼
Ġp aper
Ġn ied
Ġto wn
Ġv ital
Ġbe absicht
ĠE isen
us h
ed en
Ġz ut
ĠA ktionen
ĠS ten
ĠS piel
ĠM ore
im ate
eit her
ĠB undes
ĠT A
sch n
den kt
ĠF inn
Ġl auf
Ġau ft
ĠC ons
ĠW el
ĠG ra
ĠG ip
Ġge e
Ġge k
Ġge lungen
Ġcon cept
ĠRe gelung
ĠVer lauf
Ġj ene
ĠSt ud
Ġex em
Ġwill ing
Ġle gen
Ġy oung
Ġvor aus
Ġvor zu
ungs k
ĠAn fang
Ġaus sprechen
gram ms
Ġsp o
Ġsp ent
tern ative
ĠVor haben
ĠSch ul
ĠSch Ã¼ssel
Ġam t
Ġcomp ens
ĠBer at
Ġapp rec
ĠIt alian
Ġcomm ittees
wer te
Ġunter st
lin ge
Ġ" .
Ġch arter
ang s
Ġinter in
Ġinter vention
Ġnew s
Ġother wise
Ġdevelop ed
los en
lÃ¤ ÃŁ
ĠProgram men
ak te
Ġev al
Ġsub sid
loy ed
In itiative
Ġson st
ĠUm st
Ġtra dition
Ġprov iding
ĠÃĸ VP
Ġsc oreboard
Ġ3 5
Ġar range
Ġnat ur
Ġinstitut ional
Ġpl enary
eth od
igh ted
ĠGebie ts
fÃ¼ hl
Ġatt itude
Ġpar lamentar
ĠKont in
ĠCh arakter
ĠCh amber
ĠKon zentr
Ġform ul
Ã¼cksicht igung
Ġvers ucht
Ġele ments
Ġdeal ing
sequ ent
ĠOn ly
Ġherv orge
Ġshow n
Ġander em
Ġguarante es
ĠBinnenmarkt es
Ġnon etheless
Ġzahl reichen
Ġtr uly
Ġdemand s
Ġear ly
Ġtot ally
ĠKatastrop hen
stehen den
alle l
Ġconsum ers
Pro gramm
Ġwahr scheinlich
EN ER
komm ens
Ġrelations hip
laub wÃ¼rd
ĠHeraus forderungen
Ġdemonstr ate
Ġeinheit liche
ĠzustÃ¤nd ig
Ġfore ign
ĠProdu kt
ĠVereinbar ung
ĠDiskrimin ierung
Ġwiederhol en
Ġxenophob ia
aust ausch
ĠAgr ar
Ġzug unsten
Ġgeehr te
Ġmonopol ies
Ġentsch lossen
Ġcondu ct
Ġflo or
Ġbetrachte t
Ġimpress ion
ĠKriti k
Ġlab our
ĠauÃŁerord entlich
War um
Ġil leg
Ġweap ons
A P
A r
D em
O b
f reiheit
h em
i ate
l ose
n ehm
p rÃ¤sident
r ial
z ul
z esses
Ġt en
Ġt ief
Ġa ge
on es
is ieren
Ġw anted
it ation
Ġs ent
or ient
an de
Ġm ethod
al itÃ¤t
ent ions
st ruction
Ġc entr
Ġh our
Ã¤ llt
Ġbe zÃ¼glich
ra b
ĠA LT
Ġein verstanden
Ġg anze
ĠM ut
ĠM ay
ut ing
Ġre ag
ĠB y
sch land
Ġzu k
Ã¶ p
ĠR ass
ĠF Ã¶rder
Ġl ate
Ġl ay
Ġl Ã¶sen
ĠC ulture
Ġk am
Ġden ken
ĠV al
ĠG ruppe
Ġge kommen
ben d
Ġit alien
Ġst ock
Ġver k
ach er
and lung
kt or
ĠD onn
Ġde ep
ĠL a
ĠL es
Ġj Ã¤hr
Ġse par
Ġvor ange
Ġdo uble
ug nisse
ad o
ĠAn p
Ġaus einander
ĠAus wahl
ip her
ĠBe weis
ĠVor red
ze igt
ĠBer ger
ĠBer Ã¼cksichtigung
Ġbet rÃ¤cht
Ġ2 2
Ġ2 6
Ã¤r z
ud it
Ġqu ant
Ġco alition
ĠEin igung
Ġber u
Ġcons olid
du c
Ġgen der
Ġch ar
Ġout come
Ġkein es
Ġnational s
Ġdec ide
erst ag
Ġmehr ere
lÃ¤ ge
lÃ¤ gt
Ġeconom ies
Ġwicht iger
Ġrel ative
Ġgreat est
enden ce
pro ble
richt en
Ġregional e
Ġeffect iveness
pe kt
Ġrespons ibilities
Un ter
olog ie
Ġinternational e
ĠMittel n
Ġac ross
ĠGes amt
Ġwen igen
Ġput ting
Ġsom etimes
Ġgleich e
Ġposit iv
Ġposit iven
ĠCh arter
Ġfra ge
Ġtrans fer
Ġinvol vement
Ġneg ative
ĠVerein ten
qual itÃ¤t
ĠFre iz
Ġstruct ures
ĠBet rie
Ġvers ion
Ġcrit ical
ĠgrÃ¶ÃŁ ere
Ġsens itive
fÃ¤ ll
Ġtal ks
ĠSocial ist
Ġeigen e
Ġ200 6
hÃ¶ hung
Ġlok ale
Ġerinn ert
Ġpass iert
Ġann ual
ĠGleich stellung
Ġmar gin
Ġlet ter
Ġlea ders
Ġschwier ig
ĠSyri a
Ġopt im
ĠLiber al
Ġchallen ges
ĠGew Ã¤hr
Ġemphas is
Europ a
komm t
Ġcontain s
Ġrecogn ition
ĠÃľberein stimmung
Ġcontra dict
ĠAktion sp
Ġconcentr ate
Ġwider sp
ĠWor ten
ĠDemoc rats
ĠbeschrÃ¤n ken
Ġprof ess
Re g
Ġcla im
ĠBÃ¼ rokrat
Ġargument s
ĠPra xis
ĠTod ay
ĠME P
ordn ungs
ĠGol an
Ġverteid igen
Ġwettbewerb s
ĠOp fer
ĠGel der
ĠstÃ¤nd ig
Ġschwerwie gen
Ġdeter min
ĠWohl stand
Ġinfrast ruct
Ġade quate
Ġzus Ã¤tz
Ġconflic t
Ġsympath y
ĠModern isierung
Ġverlei hen
Aller dings
ĠProgrammp lan
Ġdemonst rated
Ġinfluen ce
kÃ¶rper schaften
ĠSten zel
ĠGebiets kÃ¶rperschaften
ĠALT ENER
ĠRass ismus
ĠDonn erstag
E C
I P
K O
M ir
V ert
g ing
h ner
l i
m m
o ured
t es
t Ã¤us
u ern
u elle
v erein
z we
en ze
in t
in strument
Ġd iv
Ġd iplom
Ġa head
un ion
it age
ie ht
re y
re pr
or n
Ġb r
Ġb ig
Ġm ist
Ġm Ã¼nd
Ġf rag
Ġf ift
Ġc amp
Ġun ion
Ġto ur
Ġv olle
Ġbe ige
Ġbe eintrÃ¤cht
ing dom
ig ent
ra gt
ĠA chtung
ĠA udit
ic ip
ĠM io
ĠM Ã¤rz
ut en
id ers
ĠB ank
sch Ã¤d
ĠK y
ĠK MU
ĠK ingdom
Ġzu stimmen
gen ce
ĠF Ã¼nf
il ot
Ġfor mer
Ġfor dere
um e
Ġge langen
Ġal one
Ġso le
Ġer lÃ¤
Ġauf zu
ĠD ro
ĠD ut
sp art
pp el
ĠL auf
Ġj em
Ġj etz
iv itÃ¤t
Ġr ate
Ġvor rang
eh e
ĠÃ¼ber tragen
ĠN ow
ĠAn alyse
Ġaus schlieÃŁlich
Ġab ility
Ġab geschlossen
Ġsp ielt
Ġsp Ã¤ter
ot s
rÃ¤s ent
ĠEr hÃ¶hung
Ġman aged
gr enzen
ĠBer uf
Ġsa gt
Ġli k
Ġnach zu
Ġad ap
Ġus w
ĠIt alien
Ġprop ort
Ġqu ot
wer ten
Ġ199 3
cil iation
Ġpolic e
au ftrag
lic it
Ġnational e
Ġwar ten
wir kt
Ġper spect
ĠDe v
ĠDe legation
Ã¼tz en
ak es
ĠZusammen halt
Ġsol utions
Ġgew isse
Ġsupport ing
Ġcompet itive
ateg or
ateg ien
Ġconsider ably
Ġass ure
Ġwel com
ĠÃľber legungen
gel assen
Ã¤h nen
Ġmon etary
Ġknow n
Ġknow s
bei hilfen
Ġeinz igen
Ġher zlich
Ġher itage
ĠMin utes
olog y
ĠTe chn
zip lin
Ġbegr enz
ĠHer zen
Ġtrans actions
Ġtechn ische
ĠInstitut ion
Ġausge zeichne
gest immt
Ġrepresent ative
ĠMon etary
Ġgesch ehen
Ġimpro ved
Ġverst Ã¤rken
Ġgef Ã¶rdert
ĠbegrÃ¼ÃŁ t
ĠHand lungs
ĠgrÃ¶ÃŁ er
ĠgrÃ¶ÃŁ te
ĠgrÃ¶ÃŁ eren
Ġadv ice
fÃ¤ llig
Ġhigh ly
Ġredu ction
Ġredu cing
An frage
erecht igkeit
Ġkonk ret
ĠParte ien
Ġappropri ations
zuf Ã¼gen
mitt ag
ĠBesch luÃŁ
ĠSub ject
Ġperson ally
oss ible
Ġexam ination
ĠMar ch
ĠFest legung
Ġcent ury
Ġhistor ic
Ġfall s
ĠDire ctor
Ġumfassen de
Ġagr iculture
Ġlink s
ĠGed anken
ĠFÃ¤ llen
Ġschem e
ĠpersÃ¶n lich
ĠMinder heiten
ĠCo hesion
Ġhonour able
wal tschaft
Ġfarm ers
Ġfr ont
Ġexact ly
ĠhÃ¤uf ig
Ã¼g igkeit
Ġvorh anden
Ġperfect ly
ĠKamp f
Bet rifft
Ġvess els
ĠAktiv itÃ¤ten
ĠMalt a
Ġrap id
Ġzuk Ã¼nft
ĠFreiz Ã¼gigkeit
D en
D rittens
E benso
a ktion
b ed
d ire
e ben
h aus
k op
m Ã¶glich
m Ã¤rkte
o und
o llen
p ay
s be
t aus
w ar
Ġ ut
Ġ ordnungs
Ġt Ã¤t
Ġd on
Ġd iss
ch sel
Ġa f
is her
is iert
un ternehmen
it ure
it able
it ely
Ġs itu
re b
re p
re ib
an cial
an ces
Ġf ri
Ġf rei
Ġe duc
Ġp h
Ġp ack
Ġan ch
Ġn utzen
Ġc oun
Ġh err
Ġun g
Ġun able
ge ber
te en
te te
ĠE v
ĠE igen
ĠA id
Ġg re
ĠM ark
ĠB ot
ĠB arak
ul s
ul ations
sch lag
ĠK riminalitÃ¤t
Ġl ies
Ġda gegen
ĠC EN
Ġk Ã¼rz
Ġfor mal
ĠW est
ĠG erechtigkeit
ĠTh urs
ĠH ere
os en
Ġst re
Ġst immt
ver walt
Ġver weisen
Ġer s
ĠD is
ĠD im
Ġne ues
Ġde g
Ġde fen
ĠRe vision
ĠL iste
ĠSt Ã¤rkung
ann te
ions fonds
ru h
ĠAn liegen
Ġreg ular
Ġum ge
Ġab st
ĠAus s
ĠAus arbeitung
Ġent it
Ġent scheid
ue llen
Ġfa cing
Ġnach dem
Ġgo al
Ġdis ag
Ġconc rete
Ġconc lude
ĠMit entscheid
Ġgro wing
ĠAb kommen
ĠGr Ã¼
lin es
Ġimp ossible
ĠEin haltung
ĠEin richtungen
Ġresp ond
Ġpr im
ĠMitglied s
velop ment
ob by
Ġdam als
Ġsub mit
gend es
Ġfre uen
ner g
Ġover come
Ġrel ated
Ġkon st
zeit raum
Ġrequ ested
Ġar r
ĠHa ft
ĠBÃ¼rger innen
Ġganz en
rib ed
Ġur gency
Ġref lect
Ġange kÃ¼nd
Ġweiter er
Ġerw Ã¤hnen
Ġpla ced
Ġresol ve
Ġresol utions
udge ts
ĠGer ichte
Ġbring ing
Ġcoop er
ĠCh ancen
ĠArbeits markt
aff t
Ġinterest ing
ĠmÃ¶glich erweise
Ġindust rial
Ġinvol ve
Ġmain ly
Ġcommun ities
ĠlÃ¤nd liche
gew icht
ĠSp ek
ĠSp rache
ierte l
Ġaccept able
Ġbudget ary
Ġbef assen
maÃŁ en
ĠCon vention
Ġaddition al
Ġflex ib
ĠLÃ¶s ungen
Ġpass ed
ĠFahr zeug
ĠZwe ck
Ġhervor heben
Ġlea ve
Ġschwier igen
ĠLiber alen
Ġnever theless
Ġexam ine
Ġemphas ise
Europ ean
Ġze igen
ĠFol ge
Ġcode cision
Ġbehand eln
ĠFremden feind
ĠBalk ans
Ġpress ure
Ġrein for
ĠBemerk ung
ĠbeschÃ¤ft igen
Ġcritic ism
Ġfunction ing
Ġfeh lt
Ġconsult ation
ĠGeneral dire
ĠgrenzÃ¼berschreit ende
ĠbestÃ¤t igen
chanis men
Ġdesign ed
ĠFlÃ¼cht linge
ĠChin a
Ġbil den
ĠFunktion ieren
spar tei
Ġdifferen ces
Ġinterp ret
Ġkontroll iert
ĠstÃ¤dt ischen
Ġfacil it
Le ider
Ġpublish ed
ĠHÃ¶ he
ĠDeut schland
ĠThird ly
Ander erseits
Ġarrange ments
ĠKonzentr ation
ĠLes ung
ado x
Ġordnungs gemÃ¤ÃŁ
ĠThurs day
ĠFremdenfeind lichkeit
B es
D urch
I S
P OL
V er
a ign
c el
j ekte
k ung
m achen
o den
t rag
v i
v olle
w el
w uÃŁ
Ã ľber
Ġ ill
in st
re ibt
or gt
ich ert
an ten
an forderungen
ar ch
Ġf Ã¤llt
Ġe m
Ġp en
Ġan wes
Ġn ah
Ġn ations
Ġc andid
Ġun ge
Ġun be
Ġto ol
Ġv ig
Ġbe ziehen
Ġbe zeichnet
us etzen
ĠP o
ĠP unkten
Ġein geb
Ġein gebracht
ĠM aterial
Ġre den
ul ierung
sch uld
ter ing
ĠR ules
Ġl and
Ġl atter
Ġl oss
ĠC ode
Ġk or
Ġk lare
ĠW erk
ĠV oll
Ġwe aken
ĠG ree
Ġge prÃ¼ft
Ġso uth
ĠH olz
Ġcon sens
ver antwortung
Ġver folgt
Ġer f
ĠUn ions
Ġde pr
ĠVer teid
sp rech
op les
ĠSt Ã¼r
Ġex istence
Ġse he
be le
Ġr ies
ĠPro ced
ĠÃ¼ber ein
ure ly
Ġme ant
Ġaus gehen
Ġum zusetzen
Ġsp richt
Ġsp ending
Ġthere by
Ġsch rift
Ġdar aus
ĠJ ugend
Ġent repr
ĠEr arbeitung
ĠSch l
ĠSch Ã¤den
Ã¶r en
Ġbet ont
her steller
Ġhe av
Ġco ll
rie g
Ġresp ekt
wo hner
Ġch ann
ang ing
Ġleg ally
Ġpe oples
fÃ¼hr ten
Ġnational er
Ġdec lar
ak is
Ġla unch
ĠGemein den
Ġgew iss
Ġho hen
In s
Ġrec ord
Ġdisc ip
Ġamend ed
kl ang
ĠHa fen
ĠHa ving
Ġwirk lichen
Ġenvironment ally
Ġpl ant
igh ten
Ġtax pay
ĠLand wir
Ġconf ident
ĠHin dern
reit ung
Ġcontin uing
Ġposit ions
Ġreal ise
ĠBeh andlung
Ġtrans l
Ġindust ries
ĠY et
recht lichen
ĠFund amental
Ġkomm e
Ġcontrib utions
Ġdeut schen
Ġgeb oten
Ġfollow s
ĠSystem s
Ġorgan ised
Ġeinge fÃ¼hrt
ĠIsrael is
ĠEnerg ien
Ã¤hl t
Ġerforder lichen
Ġapplic ant
Ġdep art
org ung
Ġumf ang
Ġintrodu ction
ĠNach druck
Ġlok aler
Ġapply ing
Ġrev ision
Ġakzept iert
Ġsy mbol
ĠEx p
Ġread y
CO M
Ġext ra
leit en
schied et
system s
Ġplann ed
ĠÃ¶sterreich ische
Ġteil en
Ġscient ists
fert igt
ĠInst ance
Ġamount s
ĠPrÃ¼ f
ĠDire ctive
Ġtechnolog y
entscheid ungen
ĠBef Ã¶rderung
spr Ã¼n
Ġvol un
ĠbefÃ¼r wor
ĠDo es
Ġerz ielen
Ġimmigr ation
Ġimmigr ants
II I
Ġtry ing
Ġverab schiedet
Ġjur is
Ġschem es
ĠTerr Ã³n
ĠEng agement
Ġnet works
Ġspezie ll
Ġoccas ion
Ġbeha up
ĠRisik o
ĠmÃ¼ÃŁ te
Ġbenachteil igten
Ġrecognis ed
ĠVolk spartei
Ġhighl ight
Ġprosper ity
Ġcompeten ce
ĠVorbereit ung
ĠBeschl Ã¼sse
Ġcred ibility
Ġfal sch
Ġeinbe zogen
ĠInvest itionen
Ġversich ern
ĠÃ¼bern ommen
ĠBesorg nis
ĠKonfl ikt
Ġadvis ers
ĠjÃ¼ng sten
ĠCont rol
ĠBÃ¼rokrat ie
KO M
Ġcamp aign
ĠerlÃ¤ ut
Ġsitu ations
ĠGree ce
ĠProced ure
0 2
A G
A ll
A lle
F erner
H A
S V
S elbst
V iel
b esch
b ildungs
e ff
f angen
l atz
m ann
r ise
s c
s aktionen
x imum
z ut
in ced
Ġt w
Ġa ir
Ġa cht
Ġth or
it s
Ġs org
at ischen
at ik
at tet
Ġb it
Ġin halt
Ġm ilit
ent e
Ġc le
Ã¼ ben
om ing
Ġbe in
Ġbe zahl
ur tz
as se
ĠE ven
ir ms
Ġz eit
ĠA fr
Ġein ig
Ġein sch
ĠS ar
Ġg esellschaft
ic ted
ĠB rok
ĠT ra
lich ung
ĠK re
ĠK lar
Ġzu gleich
Ġl ost
ĠC an
ĠW eiter
ĠW urtz
ĠG D
um p
Ġge d
Ġge zogen
Ġal ten
ff nung
os es
os ing
Ġst abil
Ġver urs
Ġver wendet
Ġer geben
Ġer gÃ¤n
Ġauf nehmen
ĠD ruck
Ġne ar
Ġne ben
Ġde legation
ĠRe icht
ĠRe chn
ĠVer l
ĠVer such
ate ful
ĠSt at
Ġse le
be halten
be auftrag
ĠZ w
iv ity
Ġle icht
Ġr ich
Ġr ational
err ing
ungs ver
Ġsich ern
ĠPro f
ĠÃ¼ber zeugen
ĠN or
ĠN utzen
ĠN utzung
ĠAn y
ĠAn zahl
ĠAn laÃŁ
Ġaus ger
Ġaus reichen
gram men
Ġsp reche
ran ational
Ġent ail
ĠEr ster
ted ly
ĠVor lage
ĠO ffen
Ġcomp on
ĠBer end
ĠBer lin
ĠBer ichte
Ã¤r m
Ġob st
igkeit s
oc ol
ĠGe ber
Ġdurch zufÃ¼hren
Ġimp lic
rag s
Ġcons istent
Ġch ance
Ġch air
ank ers
Ġmehr fach
Ġte ile
ĠDe velopment
iger ung
Ġho he
Ġins ist
Ġrep ly
Ġrel ates
Ġcour age
ĠÃľber gang
Ġfinan ced
Ġfinan cing
pr il
Ġeinz uf
Ġpresent ation
Ġhand s
Ġhand eln
Ġappro xim
ĠAust ausch
Ġur sprÃ¼n
Ġeven ing
Ġange wand
Ġprogramm ing
ĠGes am
Ġwichtig ste
Ġlaw s
ĠHin ter
reit et
ĠunterstÃ¼tz e
Ġstrateg ischen
Ġnecess arily
Ã¤ng st
ĠBeh inder
Ġverb ind
Ġmain streaming
weit en
Ġprodu ced
reg ierung
urs acher
Ġstand ard
ĠIhr es
ĠLebens qualitÃ¤t
Ġmin ority
hol d
ĠAl ban
Ġhelp ing
Ġcap it
Ġmo der
Ġ9 4
Ġsign ed
ĠDienst stellen
ĠnÃ¤ch ste
ĠIsrael i
Ġeing ere
Ġcond ition
Ġeinzel staat
Ġpay s
Ġricht ige
ĠMitte laus
ĠIntern al
Ġexc luded
ĠLebensmittel behÃ¶rde
ĠgewÃ¤hr leistet
Ġinvest ment
vorsch lÃ¤ge
Ġconst ruct
ĠEmp loyment
Ġremain s
Ġann ounced
ĠEnergie trÃ¤
Ġmean ing
Ġentscheiden den
Ġentscheiden de
CO D
best Ã¤nde
Ġgar ant
Ġ19 8
ĠGefahr gut
Ġlang u
ĠDiskuss ionen
struktur en
ĠgegenwÃ¤rt igen
Ġhappen ing
ĠgefÃ¤hr licher
vent ionen
Ġsup ranational
Ġtreat ment
Ã© s
Ġabge le
ĠErfahr ung
Ġgener ally
Denn och
sper iode
Ã¤l ter
ĠzustÃ¤nd igen
ĠVorsitz enden
ĠwÃ¼n schen
Ġeas y
ĠfrÃ¼ her
ĠfrÃ¼ heren
ĠRes olution
ĠStÃ¤d ten
Ġinst ance
ĠbeschrÃ¤n kt
ĠKohÃ¤s ionsfonds
Ġnachhalt ige
ĠFÃ¤ lle
ĠWill en
ĠOrganisation en
Ġconv inced
Ġexcept ion
ĠvollstÃ¤nd ig
Ġbrief ly
Ġbureauc racy
Ġstra f
Ġaut om
Ġbie tet
ĠVerhÃ¤lt nis
ĠbemÃ¼ ht
Ġrac ism
Wel che
ĠComp etition
Ġexerc ise
gestell ten
Gleich zeitig
Ġdivers ity
ĠVertra ges
Ġuntern ommen
ĠAkte ure
Ġterritor ial
ĠFamil ien
ĠUntern ehmer
ĠgenÃ¼ gend
Ġnatur ally
Ġvorange gangenen
Ġinfrastruct ure
ĠDut ch
Ġjem and
Ġdon ors
Ġanch ov
ĠMark et
ĠBot schaft
Ġdeg ree
Ġanwes end
Ġconsens us
Ġthor ough
Ġsorg f
Ġimplic ations
- ,
M Es
S eit
h re
j ected
m isch
p re
p et
p endence
t on
t ies
v ors
x ts
y ing
y ear
Ã Ń
er ungs
er ous
Ġd omin
ch mal
Ġa ver
Ġw rit
Ġs end
Ġs ide
Ġs ession
re ck
Ġin iti
ro s
ro ht
Ġf ederal
Ġan nehmen
Ġn Ã¶t
Ġn ennen
Ġh ence
te in
te ten
Ã¤ glich
Ġv ot
ur ance
as c
ing eschrÃ¤n
Ġis rael
us es
ra ct
ĠA gre
ĠA pril
ĠS orgen
ĠS MEs
ic an
ĠM or
Ġre action
Ġre gelmÃ¤ÃŁ
ol d
ĠB ol
ter s
ĠK ompeten
Ġzu gr
ber e
ĠF Ã¼hr
Ġl ines
Ġau d
Ġda uer
Ġda hin
ĠC O
ĠC or
ĠC entral
Ġk r
Ġfor ts
ĠW asser
ein e
ĠV ice
ĠG est
ĠG laubwÃ¼rd
os oph
Ġst ri
Ġver an
Ġver langen
ach tet
Ġer fahren
Ġer schein
ust r
ĠD aten
ĠUn sicherheit
ĠVer ursacher
sp e
Ġwer te
ĠSt o
end es
la red
iv al
Ġsh ared
Ġvor stellen
Ġvor liegt
ungs entwurf
ĠEuropean s
ad vant
ens wert
Ġma ximum
Ġme chanis
ĠWe ge
hal te
Ġreg ister
Ġab and
Ġsp Ã¼r
heit s
ot al
Ġsch lagen
Ġen h
ste uer
ĠEr inn
ĠSch aden
Ġsie ht
ĠPresident s
Ġwor st
Ġfa ced
Ġapp ar
Ġapp ell
Ġ2 3
ire d
Ġdis advant
Ġpolit ic
Ġpolit ischer
reich ung
ĠGe ist
Ġexp licit
Ġco up
pt ions
Ġpr ice
ik ation
Ġiss ued
Ã¤hr t
Ġdec lared
Ġte le
Ġgegen seit
ak ten
Ġany one
str Ã¶
Ġsay s
Ġgr ateful
Ġdeb att
ĠLe ft
Ġdire kt
alis iert
ĠAs s
ha fte
Ġsc and
Ġar t
hil osoph
Ġdan ach
Ġwant s
ĠVerb indung
Ġbo ost
ĠÃ¶ ffentlich
Ġspec ulation
Ġspec ulative
ĠErw Ã¤
Ġresol ved
Ġatt ack
Ġpar adox
Ġser ve
Ġstrateg ies
Ġgest altet
Ġnotwend ige
ĠAu ftrag
Ġval id
Ġsec ure
Ġmin orities
Ġbesonder en
ĠEntschlieÃŁ ungsentwurf
Ġgef unden
Ġsecond ly
ĠNe u
Ġmill ennium
ĠHand els
Ġbess eren
ĠÃ¤uÃŁ ern
Ġsens ible
ĠFr ist
Ġrest ruct
Ġspeak er
Ġeing er
Ġpay ing
Ġunderstand ing
Ġstart ing
Ġkurz frist
Ġbu ilt
Ġkle ine
ĠNach bar
ĠFrieden sprozeÃŁ
aussch usses
Ġterr or
Ġconst ant
Ġclos ely
ĠÃ¶ff entliche
Ġvorgeschlagen e
ĠAll i
ĠInstrument e
Ġvorgesehen en
ĠkÃ¼nft igen
Ġvorliegen de
Ġinform ed
Ġexpect ations
Ġtim et
Ġmult i
Ġakt iv
Ġverl oren
Ġsix th
bour g
Ġfail ure
behÃ¶r den
ĠPer haps
ĠGegen satz
Ġeas ier
ĠVerpflicht ung
ĠStahl industrie
ĠZustÃ¤nd igkeiten
Ġtop ical
Ġche ck
ĠPre is
ĠSekt oren
Ġbeant ragt
ĠRom an
ĠgrenzÃ¼berschreit enden
ĠbestÃ¤t igt
Ġgrundlegen de
jahr es
Ġgeograph ical
Ġspezie llen
Ġoccas ions
Ġinspect ion
Ġune ingeschrÃ¤n
ĠDienstleistungs ausweis
ĠPerson al
organisation en
ĠBeam ten
Ġtack le
Ġethn ic
Ġrad ical
ĠBeitritts k
oler anz
Ġgebe ten
ĠGesprÃ¤ che
ĠBudget ary
tran sp
Ġnieder lÃ¤nd
ĠViel falt
Ġexcess ive
Ġmitt l
Ġmand ate
ĠSÃ¼ d
Ġrecover y
Ġgegebenen falls
ĠPalestin ian
En t
ĠWach stum
ĠMore over
ĠTA C
ĠVorred ner
Ġprofess ional
ĠDro gen
spart ner
ĠDev isen
ĠtÃ¤t ig
verwalt ung
Ġentit led
ĠGrÃ¼ nen
Ġkonst rukt
Ġcandid ate
bele bung
Ġentrepr ene
ĠAfr ica
ĠRechn ungs
ĠOffen heit
ĠMittelaus stattung
vors itz
ĠAgre ement
Ġzugr unde
ĠGlaubwÃ¼rd igkeit
Ġmechanis ms
4 0
A V
B ehr
I st
P res
Z ur
b ahn
c ause
d ienst
f eld
m ant
o on
v an
Ã §
er nen
in s
in ter
Ġa part
Ġth ous
is on
is ive
Ġw iden
it ra
Ġs k
Ġs inc
at hol
re ite
or ous
or dern
Ġb ir
Ġm id
Ġm erg
al Ã¤stinens
Ġf am
Ġe mb
Ġp rÃ¤z
Ġp alÃ¤stinens
Ġan gest
Ġc ore
Ġh ar
Ġun f
Ã¼ rokrat
ur en
ĠE ing
ĠI mp
ĠP SE
ĠP lÃ¤ne
ĠP HA
Ġein f
ĠS a
ĠS wo
Ġg ing
Ġre tain
Ġre jected
ĠT er
et tering
Ġzu ges
ber icht
Ã¶ konom
ĠR eding
ĠR oth
ĠF rom
ĠF rei
il le
ĠW icht
Ġon es
de llen
Ġge zeigt
ier ter
ĠH arm
ver se
ver tre
Ġver langt
ĠD es
ĠD al
ĠD ub
ĠUn g
Ġnot ification
Ġde zentr
ĠRe chten
ĠVer st
ĠVer letz
sp iel
sp rÃ¼
pp ing
ĠL ux
ate ver
ind ing
op f
end t
be f
if orm
Ġmit teilen
Ġr ange
Ġvor bereit
ungs verfahren
ug t
aus o
ĠN iel
ĠN iveau
Ġaus wirken
Ġab schlieÃŁend
Ġsp an
Ġsp rach
ĠAus gaben
ab les
ab kommen
ab ling
ot o
enn ess
Ġsch lage
Ġsch lÃ¤gt
ĠBe zug
ĠBe cause
ste urop
ĠVor be
ĠVor gÃ¤n
Ġcomp ly
se bene
Ġwor se
Ġapp oint
Ġgo als
Ġ2 7
con t
Ã¤t igkeiten
Ġdis mant
ap e
ap an
ĠBericht en
ts ein
ĠGr ie
lin ed
staat s
Ġexp end
Ġexp lo
oin ted
ĠEin klang
ĠArbeit en
Ġint entions
Ġgen ehm
Ġgen auso
Ġges etz
Ġhin weg
Ġhin zufÃ¼gen
Ġbec omes
Ġjust ified
ag ne
hl en
ĠRecht sprech
auf gaben
Ġacc omp
Ġper man
Ġdeb ated
Ġsol cher
Ġact ual
Ġgew alt
ĠArt icles
Ġprov ides
ĠFin ancial
Ġpolitical ly
act ive
act ory
Ġdenn och
Ġyour self
Ġwel ches
Ġcour t
Ġsc ra
Ġro und
Ġ3 1
Ġ3 3
mittel t
Ġadd ed
wor fen
Ġdra m
Ġdra wing
Ġet c
itz en
Ġcitiz en
Ġger ichtet
ĠKont roll
Ġ4 5
ĠHin weis
Ġ8 2
Ġcontin ent
Ġbring t
Ġser ies
Ġsicher zustellen
Ġtrans ition
gleich heit
ĠKolleg in
Ġaccount s
ĠStruktur en
mÃ¤ÃŁ ig
Ġmin ister
Ġklar en
ĠSp anish
kes tein
Ġcap able
Ġfinanz iert
ĠHand el
ĠStra ft
Ġorgan isation
ĠWo hn
fÃ¤h igen
zw ischen
Ġsmall er
Ġqual ified
ehm igung
Ġzweit ens
ĠPap ier
ĠSteuer zahl
per iode
Ġir re
Ġbef aÃŁt
Ġcl imate
Ġallgemein e
Ġdist ort
Ġshow s
Ġoper ational
ĠHaushalts linie
Ġdefin ed
Ġvorge legten
Ġbestimm ter
ĠCon sequently
Ġfeel ing
Ġprevent ing
Ġbal anced
kont roll
ĠgewÃ¤hr t
ĠBinnenmarkt s
ĠstÃ¤rk sten
Ġzahl en
Ġple ase
Ġopen ing
ĠWieder belebung
akt oren
Ġaufge fordert
Ġparticip ate
ĠBevÃ¶lk erungs
Ġinform ieren
ĠFisch ler
Ġjud ges
Ġobl ige
Ġhappen ed
ĠSeit en
Dar Ã¼ber
wh ile
Ġbear ing
Ġsag ten
Ġencour aging
Ġaff ord
ĠGre ens
ĠKr ise
Ġwirksam e
Ġundert aking
Ġundert aken
ĠKar as
Ġmodern isation
Ġstar ke
Ġhig her
Ġkulture lle
ĠBef ugnisse
Ġpost p
Ġnie mand
Ġbedeut en
bod a
Ġclar ity
Ġoblig ation
Ġoblig ations
ize i
ĠWor ld
Ġine qual
Ġnachhalt igen
Ġunterb reiten
Ġche cks
ĠPlan ung
ĠDiskrimin ierungen
ĠIm m
ĠFeh ler
ĠSekt or
Ġerneuer barer
Ġfunktion iert
gebie te
ĠWirk lichkeit
Ġincorpor ated
Ġattemp t
Ġbetreffen den
Ġverd ient
ĠUntersuch ung
Ġfamil ies
Ġfamil iar
ĠJun e
ĠJun i
ĠAltfahr zeuge
ĠEURO POL
ĠKons ult
Ġkeiner lei
ĠMeer es
ĠSachverstÃ¤nd iger
Ġforest ry
Ġorigin al
Ġdistrib uted
Ġunc ertain
Ġbel ong
uk lear
Ġextens ion
Ġhor iz
Ġbezie ht
ĠWiederauf bau
oul os
ĠSum mit
lÃ¤uf ig
Ġschl imm
Ġexplan ation
schn itt
ĠWel th
Ġunterst reichen
Ar t
Ġbeige tragen
ĠKy oto
kop oulos
Ġaf tern
Ġcoun ter
ĠEv ans
ĠDim itra
Ġdefen ce
trag ung
ĠPo ettering
ĠStÃ¼r me
Ġgewiss er
ĠSar dellen
beauftrag ten
Ġobst ac
ĠEnergietrÃ¤ ger
Ġaver age
Ġvot es
ĠBol kestein
ĠBeitrittsk andidaten
AV E
Behr endt
Ġmerg ers
ĠPHA RE
ĠSwo boda
ĠHarm on
ĠDub lin
ĠLux em
ĠDimitra kopoulos
2 5
A m
D R
E G
E U
G er
H in
a der
b on
c alled
e x
f rika
h m
h ib
j Ã¤hr
l ore
m lich
o ÃŁen
s er
s ider
u als
v iel
w eder
w esen
z ierung
er ikan
Ġd at
Ġd rop
Ġd rug
Ġa bend
is bon
Ġw it
Ġw ritten
Ġs an
Ġs ides
at al
or ation
Ġb iÃŁ
Ġb ildet
Ġb Ã¼rokrat
Ġin sp
Ġm ach
Ġn ame
Ġn either
Ġh op
Ġh Ã¤lt
Ġun iform
Ã¼ ckt
Ã¤ chen
om it
Ġv ir
ur m
ra chen
ĠS AVE
ĠM a
im a
im ent
im ately
ve y
Ġre act
Ġre iter
am bod
ĠB SE
ĠT otal
ter t
ĠK or
ĠK inder
Ġzu ge
Ġzu gelassen
Ġwh om
iss ab
ĠF ern
ĠF lag
Ġl ar
Ġk ennen
Ġfor dert
ĠV ize
Ġge he
Ġge denkt
Ġal ternative
ver folg
Ġver z
Ġver Ã¶ff
Ġer hÃ¤lt
Ġer folgen
Ġer arbeitet
and els
ĠD ienste
ĠD Ã©s
Ġne un
ĠRe alitÃ¤t
ĠRe aktion
ĠVer gleich
sp olitiken
ĠL isbon
ĠL issab
ĠIn stead
ind ungen
rÃ¤ fte
ĠZ entr
ĠZ entral
Ġsu chen
scha ffen
Ġr u
Ġvor hin
ri ent
ĠN az
ure ich
Ġsp Ã¤t
ĠAus weis
ĠAus nahme
ĠAus weit
ĠAus bildungs
etz e
ot ential
Ġor al
Ġsch afft
Ġdar ge
ĠEr k
ĠmÃ¶ gliche
ĠO ffice
ue ll
ĠReg ulation
Ġcomp lement
gr Ã¼nd
Ġwor ry
Ġbet rachten
Ġnach drÃ¼cklich
Ġcomm er
Ġfin n
Ġfin de
Ġfin ance
ĠAb Ã¤nder
ĠAb bau
staat lichkeit
Ġimp ose
Ġpropos es
Ġpre fer
au en
Ġgen utzt
Ġch anging
ass ungen
Ġhin zu
sam keit
ced ent
Ġop enness
Ġte xts
Ġper ipher
ak zept
ĠJahr taus
Ġla utet
Ġdeb ating
Ġfact s
Ġfe as
ĠGrund sÃ¤tz
Ġins ofern
ĠUm struktur
ĠSe ix
Ġposs ibly
Ġunder lying
Ġwel cher
ĠKommiss are
Ġgemein schaftliche
ĠÃľber zeugung
ĠMen sch
ĠHo hen
bie ten
Ġbo und
Ġbo ard
Ġbeg onnen
Ġref erring
Ġange wendet
ac ter
Ġac quis
Ġweit gehend
Ġwen ige
Ġdemoc rat
Ġrespect s
licher weise
Ġwirtschaft lich
rÃ¼ gere
ĠPolitik er
Ġinde pendence
ĠFran z
lau ben
Ġprom ised
Ġenlarge d
Ġset s
zeich en
Ġgesch ieht
Ġbek rÃ¤ft
Ġbek Ã¤mpfen
Ġverst ehe
grund lage
ĠRaum es
rÃ¤n kung
Ġglau ben
Mein es
fÃ¤h ig
Ġgovern ing
Ġerst ens
Ġel imin
Ġfol gendes
Ġadv oc
Ġhigh est
Ġbew Ã¤ltigen
Ġsimp l
Ġredu ced
ĠdÃ¼r fte
Ġwes entliche
Ġcor resp
Ġinn eren
Ġbef ind
Ġkurz em
Ġintrodu cing
Ġpres ence
ĠLi ke
Ġcompan y
ho od
Ġinvest ments
vorsch lag
Ġcall s
Ġcall ing
ĠPr iv
Ġclos er
Ġmov ing
ĠÃ¼brigen s
Ġty p
Ġentscheiden der
bereich e
Ġindivid uals
Ġincreasing ly
Ġret ro
Ġschwier ige
Ġwa it
Ġant icip
Ġinnov ation
Ġtreat ies
Ġverhin dert
Ġcarry ing
Ġpot ent
ĠunabhÃ¤ng ig
Ġextend ing
Ġcontra ct
Ġfestge legten
ĠKar tell
Ġstar ken
ĠVoraus setzungen
Ġentire ly
Ġrecon struction
Ġconcentr ation
ĠSicherheits ber
Ġrestr icted
Ġine v
Ġlink ed
Ġequ ally
ĠLast ly
ott i
Ã¤um en
ĠInternational en
Ġerneuer baren
Ġfirm ly
Ġxenophob ic
ĠSchwer punkt
Ġbureauc ratic
Ġproceed ings
Ġprot est
Ġerg riffen
polit ischen
ĠerhÃ¶ hen
Ġdesc ribed
Ġremark s
ĠJahrh undert
Ġsubstant ial
Ġenvis aged
Ġverur teilen
ĠsÃ¤mt liche
Ġconstit ute
ĠNieder lan
Ġassoci ated
ĠdÃ¤n ischen
ĠStaatsan waltschaft
ĠBereit schaft
ubl ik
Ġgenu ine
ĠGip fel
Ġeval uation
Ob wohl
Ġhour s
ĠAnp assung
Ġchar acter
ĠMEP s
Ġfift h
ĠAudit ors
Ġjetz igen
Ġpack age
Ġgre en
ĠDis ziplin
ĠChancen gleichheit
ĠExp erts
ĠGD P
Ġeinzuf Ã¼hren
Ġangewand t
Ġlangu age
Ġabgele hnt
Ġanchov y
Ġforts etzen
Ġdebatt ieren
Ġtimet able
ĠRechnungs hof
Pres ident
ĠGrie chen
Ġexpend iture
Ġperman ent
Ġoblige d
Ġhoriz ont
Ġaftern oon
ĠbiÃŁ chen
ĠVize prÃ¤sident
ĠDÃ©s ir
ĠLissab on
ĠAusweit ung
ĠSeix as
rÃ¼gere ien
6 7
B C
a cy
b it
d nung
d auer
f le
f lag
h ern
i ber
i able
k odex
l ern
n es
o ben
p s
v iertel
w iesen
w agen
z ieren
Ġ [
Ġ u
Ġ Ã¤rm
Ġ Ã¤lter
in a
in och
Ġt reten
Ġt rÃ¤gt
Ġd ict
es ten
Ġw at
it ler
Ġs el
Ġs ach
at ische
at oren
re l
Ġb ase
Ġb arr
Ġin ade
Ġm ism
Ġf ru
Ġf ix
Ġp at
Ġp ath
Ġp hilosoph
Ġan geb
Ġan zunehmen
Ġan gebracht
Ġn ation
Ġn one
Ġn ine
Ġc ame
Ġc atastrop
Ġun k
ge fÃ¼hl
Ġto ld
Ã¤ fen
Ġv ast
ĠE AG
Ġis land
us ÃŃ
ĠP ak
ig end
Ġz erst
Ġz ehn
Ġz Ã¤hlen
ĠA re
ĠA hern
Ġein fÃ¼hren
ĠS c
ĠS w
ĠS uch
ĠS he
Ġg rat
Ġg eschÃ¤
ic ate
ĠM our
ĠM eth
ĠM Ã¤rkte
id ay
Ġre gen
icht bar
ĠB udgets
ul ich
ĠT reffen
ĠT agen
Ġzu folge
Ã¶ hn
ĠR ad
ĠR uss
Ġl ives
Ġau ff
ĠC usÃŃ
Ġk ost
ĠW TO
Ġge z
Ġge Ã¤ndert
Ġso eben
ĠTh en
ĠH itler
os al
os ite
Ġcon ver
ver y
Ġver tre
Ġver wir
Ġauf zunehmen
kt iken
ĠD av
ess or
Ġde leg
ĠRe chen
ĠVer zÃ¶
ĠL einen
ĠL ama
th e
th eit
Ġwer t
end ung
end et
Ġse ction
be wertung
ĠZ uge
la ut
Ġall zu
ungs zeitraum
ĠÃ¼ber aus
ĠÃ¼ber all
ĠN ord
ĠN ether
ĠAn fragen
00 1
00 2
00 8
ien e
ahr en
ard ing
ĠBe fÃ¼r
Ġent s
ĠVor rang
ĠO rient
ĠParlament e
Ġcomp uls
gr enze
se x
Ġsa ke
Ġbet reffend
Ġli able
anz en
ick s
wer ks
ount ry
Ġunter zeichnet
lo ok
Ġfin e
Ġzw angs
Ġcons iders
oll ar
Ġch ild
ass ungs
Ġinter nen
unkt ions
Ġstr en
Ġacc idents
Ġind ire
geb aut
Ã¼tz t
ĠJahr zehn
Ġwork ed
rei ze
Ġsome wh
Ġsupport s
Ġfre mden
Ġprov ed
ĠÃĦnder ungs
ĠSe c
Ġconsider ations
ĠgroÃŁ em
Ġoff iz
Ġwel ch
ĠRicht er
Ġrem ov
Ġkon stitution
ĠWh ile
ĠÃľber prÃ¼
Ġ3 4
rukt ure
Ġmon it
ungsant rÃ¤ge
elb stÃ¤nd
hand lungen
hand eln
fe il
rim ent
ĠVerb rech
ĠVerb reitung
ĠÃ¶ konom
ĠZiel s
Ġgemeinsam er
Ġdra st
ĠRegierungs bildung
199 8
Ġpar allel
Ġ8 5
Ġexamp les
gehen de
ĠOr dnung
Ġwirtschaft licher
ĠVerantwort lichkeit
ĠY es
ĠKon zept
ĠKon sequ
Ġbed au
ĠBet racht
ĠBet rÃ¼gereien
Ġele ct
Ġ7 00
ĠRegierung sche
ĠBeit rÃ¤ge
Ġproced ural
ĠSozial isten
ĠSozial fonds
ĠTeil en
ĠgrÃ¶ÃŁ ten
zw ungen
Ġchange d
Ġadv ant
ĠEuro just
ehm ern
fr ont
Ġallow ing
Ġallow ed
ennt nisse
Ġdet riment
leist ung
fach ung
Ġinn ere
ĠMarkt es
ĠMarkt wirtschaft
Ġoper ate
Ġdefin ition
Ġdefin itely
Ġdemokrat isch
Ġpres erv
Ġ200 1
Ġander erseits
Ġstatt finden
ĠstÃ¤rk ere
Ġassist ants
Ġ15 8
Ġakzept abel
Ġoffen bar
ĠWahl periode
ĠAsp ekten
Ġaccess ion
Ġopp osite
Ġear th
ĠGesetz e
ĠGemeinschaftsin itiativen
Ġmult ip
Ġerwar tet
ĠGemeinsam e
ĠGre mium
Ġcontain ed
Ġcent res
ĠFortsch ritt
Ġundert ake
Ġstrengthen ed
ĠUr sachen
Ġrepe ated
teuer ung
Ã¤ss ern
verb ind
Ġexclus ively
Ġpartnership s
ĠwÃ¼n sche
Ġclar ify
ĠVermitt lung
Ġtrotz dem
Ġmen sch
sto ff
ĠAd ri
ĠEmpfeh lung
Ġproduct s
Ġerz ielt
ĠvernÃ¼nft ig
ĠvernÃ¼nft ige
ĠSitzung speriode
ĠWissenschaft ler
ĠKl ima
Ġspez ielle
ĠVereinbar ungen
Ġobserv ations
Ġdetail s
ĠRom a
21 2
ĠBelg ium
Ġernst haft
Ġanzu wenden
Ġzentr ale
Ġgern e
ĠhÃ¶ch st
Ġport s
Ġbeha vi
Ġpurs u
Ġprotect ing
ĠÃ¶kolog ischen
ĠÃ¤hn lich
Ġenfor cement
Ġbie ten
Ġunz ureich
ĠMed ien
ĠMÃ¤n nern
Ġgrant ing
Ġmiss ion
Ġdesc ri
ĠVermittlungs ausschuÃŁ
ĠEinwander ung
Ġconven ience
ĠJahrh under
Ġfig ure
Ġfig ures
ĠAng st
ĠendgÃ¼lt igen
ĠbenÃ¶t igen
yn am
Ġbrit ischen
ĠUnabhÃ¤ng igkeit
ĠgrÃ¼nd lich
Ġsus p
Ġgeling en
Ġappe al
Ġappear s
Ġdecentr alised
ĠEreign isse
ĠKoop eration
Ġwoll te
Ġsogen annten
Ġlangfrist ig
Ġtown s
ĠFinn ish
Ġexem ption
ĠUmst Ã¤nden
Ġparlamentar ischen
Ġilleg al
Ġreag ieren
ĠVal ent
Ġitalien ischen
verein bar
Ġnachzu denken
Ġperspect ive
Ġeduc ation
Ġdisag re
ĠHaft ung
wuÃŁ tsein
Ġheav y
ĠLandwir te
Viel leicht
ĠHinter grund
ĠGefahrgut transp
Ġsorgf Ã¤lt
Ġcoup le
Ġrestruct uring
Ġthous ands
ĠNiel son
ĠSteuerzahl er
ĠHarmon isierung
Ger ade
Ġcommer cial
Ġwat ers
ĠMour a
ĠNether lands
Ġcompuls ory
Ġzwangs lÃ¤ufig
Ġsomewh at
Ġbehavi our
6 0
A R
E S
P T
S F
S P
S oll
a ger
a vour
b art
b ruch
d et
d be
f indet
g riffen
i or
i ens
i ary
i ffen
k ultur
l ib
l ings
n Ã¤
n el
n iveau
p est
r ut
s man
t wo
v ironment
er ungen
Ġt ut
Ġt emp
Ġd rÃ¤n
Ġd ynam
ch tern
Ġa p
is ted
un ruh
it ative
it ably
Ġs w
Ġs lick
an ke
Ġm al
al ter
ar i
ar es
ar if
Ġf u
Ġp ill
Ġp hase
Ġan te
Ġh il
Ġun n
Ġun less
Ġun ivers
ge geben
Ġbe hin
Ġbe unruh
ur d
ur teilung
ĠE l
ĠP hase
ig ern
ig ne
ra in
ĠA ble
ĠA uth
ĠA frika
ĠM and
ĠM obil
ĠM any
ĠM odell
Ġre ich
Ġre icht
Ġre ass
ul i
ten er
ĠT r
ĠT age
der ung
ĠK ran
Ġzu kommen
Ġzu letzt
ber uf
ĠF us
il led
Ġk ons
ĠW as
Ġno ted
Ġwe g
Ġge leis
Ġdies el
ĠH alb
ff ung
os p
Ġst Ã¤rken
Ġver we
Ġpro sec
Ġer weisen
Ġer teilen
Ġer arbeiten
Ġer Ã¶ff
Ġer fre
ĠD et
ĠD auer
ĠUn d
Ġdes wegen
sp unkt
sp hase
ĠIn spekt
ĠSt unden
Ġex ists
if els
ĠZ unÃ¤chst
ah me
Ġsh ift
qu es
Ġr Ã¼ck
Ġr enational
Ġvor an
Ġvor zunehmen
Ġres um
Ġres ign
ĠAn geb
ĠAn reize
ow n
ges ted
ges ell
Ġaus gest
Ġab stimmen
Ġab zusch
Ġab gestimmt
Ġsp end
ĠAus maÃŁ
etz ten
ĠPres se
Ġen de
ĠJ uly
ĠJ apan
ĠJ uli
ĠEr fordern
Ġman chmal
ne cess
ĠO ber
ze p
ze ige
ĠReg ister
Ġsein es
her ent
Ġnach voll
Ġnach mittag
Ġad mit
ud em
able d
wer tet
Ġconc lud
Ġconc luded
ap ing
ap ital
Ġspe k
Ġspe ed
lin ary
Ġexp ert
Ġexp ected
Ġinc ent
ĠEin stimm
mer ken
Ġber aten
Ġgen annt
ass ifiz
Ġwhat so
Ġhin nehm
Ġbec oming
feren ces
ag and
rau cht
Ġdec isive
Ġmehr eren
Ġacc ident
iff er
iff eren
Ġev idence
ĠZusammen halts
rei ft
ange hÃ¶r
ring lichkeit
ĠEntwick lungen
Ġact ing
Ġgew Ã¼n
Ġins urance
Ġfre ien
ĠFor st
ĠFor men
Ġtra ff
ĠZeit plan
ĠgroÃŁ es
Ġmark ed
ĠBed ienste
Ġrel ate
Ġrem it
ĠUnter lagen
Ġkon sequent
enden cy
ĠWh ere
Ġro om
acht ung
Ġwieder um
hÃ¶r t
geordne te
Ġfest halten
Ġfest zulegen
ĠMin uten
ĠVerb ot
leg te
Ġlegisl ativen
olog ien
Ġange ht
Ġown ers
ĠMittel punkt
Ġerw eiter
ĠStaat es
Ġprev ention
Ġ4 8
fra gt
Ġnum erous
Ã¤tz en
Ġsicher stellen
ĠReform pro
Ġloc ated
ĠBei hilfe
ĠY our
Ġform ation
reg ierungs
Ġrequire ment
Ġgest Ã¤rkt
Ġrepresent s
ĠFran c
Ġcountry side
Ġmin utes
ordin ary
Ġcontrib uted
Ġprec ise
ĠMinister rat
stand ing
ĠBet roffen
Ġgeb ill
Ġmill ions
Ġeinge leitet
Ġqual ifiz
Ġadv ance
zus agen
Ġfurther more
stan de
Ġumf ass
iÃŁb rauch
Ġlack ing
ho le
Ġzusammen arbeiten
Ġtr uth
greif enden
ĠDurch setzung
Ġsupp ly
akt or
ĠVol kes
Ġlead ing
Ġprevious ly
best and
Ġemploy ed
Ġstress ed
Ġpriv aten
ĠVertre tern
Ġbisher igen
Ġwa iting
stehen de
ifiz ierung
Ġakt ive
Ġopt ion
Ġbene f
Ġbekannt lich
Dar um
weg s
Ġtreat y
orth ern
Ġsug gested
Ġabge geben
Ġteil weise
gÃ¤n glich
ĠFest stellung
miss ions
Ġextend ed
Ġeng ag
Ġenthalten en
ĠUr teil
Ġverw enden
ĠVorsorgeprinzip s
ĠPer spekt
Ġumfassen den
Ġharmon isation
Ġpa ar
bod y
Ġmor al
Ġbevor stehenden
Ġbre ak
ĠEast ern
Ġirgend ein
Ġinteress iert
Ġprakt isch
Ġfolgen de
Ġsatisf action
Ġkrit ischen
Ġsubst ance
ĠfranzÃ¶s ische
Ġlegitim ate
Ġverab schieden
Ġimmedi ate
Ġvis ible
Ġincorpor ate
Ġconfirm ed
Ġverbunden en
ĠRep ublic
Ġwesentlich er
ĠPra ktiken
rÃ¤um en
ĠUntersuch ungen
ĠSubsidiaritÃ¤t sprinzip
Ġbil ateral
ĠArgument e
Ġeffekt ive
Ġeffekt iv
Ġelse where
Ġverein bar
Ġjen en
Ġinterp re
ĠSozialdemokrat en
Ġcompeten ces
ĠGesundheit s
Ġunanim ously
will igen
ĠChrist ian
ĠerhÃ¶ ht
ĠNicht regierungs
ĠSachverstÃ¤nd igen
Ġdistrib ution
spolit ischen
ĠWÃ¤hrungs union
Ġpoll ution
ĠAng riff
Ġzul Ã¤ss
Ġspezif ischen
Ġdank bar
Ġsl ight
Ġmass ive
Ġemer gency
Ġunmittel bar
Ġweak ness
Ġdead line
ĠEinsch rÃ¤nkung
katastrop hen
Ġdiesbe zÃ¼glich
alism us
bal d
Ġmut ual
Ġerweit ert
Ġacknow led
Ġbeabsicht igt
ĠGra Ã§
Ġgee igne
Ġapprec iate
Ġhervorge hoben
Ġstock s
ĠAktionsp lan
rey er
Ġlik ely
Ġquot a
Ġwelcom ed
ĠDirector ate
Ġdiss em
Ġph ys
ĠkÃ¼rz lich
Ġcooper ate
ĠVerteid igung
Ġrespekt ieren
Ġconfident ial
ĠHindern isse
Ġsele ction
ĠProf essor
Ġchair man
Ġconstruct ive
Ġgarant ieren
bere cht
Ġaband oned
ĠErinn erung
vertre ter
ĠDal ai
ĠUng lÃ¼ck
Ġobstac les
Ġwit ness
Ġvir t
ĠverÃ¶ff ent
Ġcorresp ond
inoch et
Ġmism anagement
Ġfremden feind
Ġmonit ored
ĠVerbrech ens
Ġbedau ere
ĠAble hnung
ĠAuth ority
gesell schaften
Ġwhatso ever
A T
D aÃŁ
G em
H a
I D
K Ã¶n
K ultur
L ie
N ie
P l
S ol
T rotz
Z war
a ug
a ure
b ank
c omp
c ountry
d ent
d ring
g round
h me
h ouse
j ekt
j oy
k re
m odell
n ormen
p us
r is
s h
s ession
t im
v is
w Ã¤
x te
Ġ X
Ġ ÂŃ
er ations
er maÃŁen
in y
in ational
Ġt rag
Ġt rifft
Ġt onn
Ġa gen
on om
is ms
Ġw ent
Ġw ide
it el
at in
at her
or ne
or se
an a
Ġin fr
Ġin sec
Ġin akzept
Ġm em
al a
ro vers
Ġf elt
Ġf ried
Ġf Ã¶der
Ġf irms
Ġe y
le un
Ġan x
Ġan hand
Ġan sprechen
Ġan statt
Ġan wenden
Ġan schlieÃŁen
Ġc ert
Ġh und
Ġh ous
Ġh yp
Ġun ab
ge hens
Ã¼ mm
te hen
Ġv ia
Ġbe ob
Ġbe weist
as k
ĠE ll
ĠE very
ĠE SF
Ġis lands
ed nes
ig u
Ġein stimm
ĠS ign
ĠS outh
ic ts
ĠM ult
ĠM ost
Ġre ichen
ĠB o
ĠB an
ĠB our
ĠB ern
ĠB BC
ĠT or
ĠT rag
ĠT oleranz
der grund
lich em
Ġzu vor
ĠR u
ĠR ule
Ġl ose
il en
il st
ĠC ad
ĠC lear
isch em
Ġk osten
Ġden jenigen
ĠW ie
ĠW enn
ĠW Ã¤hl
ĠW ednes
Ġwe ight
de p
de x
Ġge halten
ĠU K
Ġim ag
Ġal te
Ġso bald
ĠH uman
ĠH Ã¤fen
ff ekt
Ġst ake
Ġpro ve
Ġpro ud
Ġpro of
Ġer le
Ġer leicht
Ġer leben
ust om
ĠD uring
ĠD ingen
ĠD ollar
ĠD ringlichkeit
Ġne hme
Ġde ath
ĠVer n
ĠVer ring
ĠVer wirk
ĠIn kraft
ĠSt unde
ĠSt urm
end ly
Ġse ien
be hand
if est
Ġmit ge
Ã¤n glich
lie ben
Ġsu per
Ġr ass
our n
ungs austausch
Ġdo ppel
ĠÃ¼ber legen
ĠÃ¼ber lassen
ĠN uklear
ĠAn hÃ¶r
ĠAn other
ĠAn gaben
Ġma ÃŁ
Ġreg ime
00 7
Ġab ol
Ġab geben
Ġab gesehen
ain streaming
ord an
ran ten
Ġor ient
Ġen or
Ġen joy
ĠBe ob
Ġent ry
Ġent stehen
Ġent steht
ĠEr nen
ĠEr reichung
Ġman age
Ġman ifest
aat en
ĠVor stellung
ĠVor gehens
ĠVor dergrund
ĠSch iene
ast richt
Ġfa ith
Ġfa iled
Ġ2 9
Ã¤r enz
ĠkÃ¶n ne
ĠMit two
Ġste ll
Ġpolit isches
lo ck
ĠAb hÃ¤ng
ĠGe walt
ĠGe werk
Ġexp ens
Ġdurch ge
ĠEin wohner
ont age
lic ken
Ġinter v
Ġinter im
erv ativen
rau ens
arbeit s
Ġwar m
ĠDe fin
iÃŁ en
lan ges
str ichen
Ġdeb ates
Ġintern e
stell ungs
Ġfe ed
Ġfre qu
ĠUm feld
Ġend orse
Ġrep la
sel be
ĠBed Ã¼r
Ġrel ativ
Ġoff ers
Ġwel chen
ĠEntwicklung spartner
Ġsc rut
Ġbelie ves
Ġ3 8
ĠAussch Ã¼ssen
isten z
ĠRechts staatlichkeit
Ġar g
Ġar m
Ġbest immt
hil f
Ġbas ically
Ġeinz ur
Ġeinz usetzen
Ġher zustellen
Ġsee ing
Ġbeg Ã¼nst
fin anz
itiz ens
ĠSte u
Ġange wiesen
Ġweiter es
Ġac qu
Ġwichtig es
ĠFinanz mittel
Ġget ting
ulation en
Ġopin ions
Ġachie vement
ĠArbeits weise
Ġpers u
Ġpers ons
ĠDem ontage
gleich en
spro zesses
ĠTran s
Ġform ing
Ġneg ativen
Ġlook ed
Ġrepresent ed
Ġstand s
ĠBerichterstatter s
Ġrecht s
Ġrecht lichen
Ġkomm un
Ġcontrib uting
Ġide ology
Ġbed auer
Ġbed aure
Ġverst anden
Ġverst Ã¤rkt
Ġdeut liche
ĠAl tener
Ġgut es
ĠNe w
Ġfollow ed
ĠHand eln
ĠFl ug
Ġeinge halten
Ġ9 0
Ġcolle ctive
Ġmanufact uring
Ġpract ices
Ġregul ate
ĠAmsterdam er
Ġaim ed
Ġcor ru
Ġsuccess fully
Ġdep lore
Ġpeace ful
Ġje gliche
Ġumf aÃŁt
Ġseit en
Ġverschieden e
ĠCon ciliation
Ġexc use
Ġander es
kont rollen
zust immen
Ġtr ust
ĠPr ime
greif ende
Ġoffen ces
Ġsupp osed
ĠschlieÃŁ en
ĠRÃ¼ck nahme
ĠEx per
ĠAll ow
Ġasp ir
best immungen
Ġhervor ragen
ĠInd ust
Ġ19 67
Ġcare ful
ĠStr ategien
Ġamb ition
Ġjeden falls
Ġmed ia
Ġangenommen en
Ġzie mlich
ĠBeg riff
Europ e
ĠMar in
Ġfight ing
ĠRand zio
ĠArbeitn ehmern
)) .
ĠKern kraft
Ġdef ine
Ġident ify
ĠunabhÃ¤ng igen
ĠStadt viertel
Ġadopt ion
Ġstar ted
ĠIde en
ĠRis iken
ĠKommissionsmitglie der
ĠPrinzip ien
Ġbenefit s
Ġpost ing
Ġbedeut sam
ĠBeteil igten
ĠLeg isl
ĠwÃ¼n sch
ĠbeschÃ¤ft igt
Ġrecon sider
Ġroad s
sto ÃŁ
ĠerwÃ¤hn ten
ĠDemoc rat
Ġmaintain ed
Ġgelten den
Ġsatisf actory
go ing
ĠStraf verfolg
Ġcorrect ly
Ġsur round
ief st
ĠFeh len
ĠerfÃ¼ llt
Ġign ore
fre und
ĠVers icher
ĠEng lish
07 8
Ġworth while
ĠAmer ican
hÃ¤n gen
Ġrun ning
Ġaffect s
Ġgere gelt
Ġerg ibt
Ġdisapp ear
ĠSozialdemokrat ischen
Ġneighbour ing
Ġkontroll ieren
Ġwid men
ĠfÃ¶rder fÃ¤higen
ĠChrist demokrat
ĠEnts orgung
Ġdest ro
Ġanerk annt
ĠSer b
Ġconven ing
Ġclass ification
Ġflag s
ĠBas is
ĠKÃ¶nigreich s
Ġuner lÃ¤ÃŁ
ĠUngleich heiten
Ġoccur red
Ġgeling t
Ġstipul ates
ĠLeist ungen
katastrop he
Ġdiesbe zÃ¼
ĠGarant ie
ĠGarant ien
Ġult imately
gef Ã¤hr
ĠBar Ã³n
ĠerÃ¶r tern
Ġnied rig
Ġzut iefst
Ġspo ke
Ġinterin stitution
ĠjÃ¤hr lich
Ġrelative ly
proble m
Ġdetermin ation
Ġtour ism
ĠBeruf s
Ġbegrenz t
Ġausgezeichne ten
isher ies
reb ungen
Ġprim arily
Ġfacilit ate
Bes onder
Ġries ige
Ġschrift lich
ĠSchl Ã¼ssel
Ġlaunch ed
Ġtaxpay ers
Ġdepart ments
Ġjuris dict
zut ragen
Ġinhalt lich
Ġbein hal
ĠKlar heit
ĠergÃ¤n zen
ĠReicht um
Ġcompon ents
Ġeingere icht
Ġerschein en
Ġpolitic ians
Ġmittl eren
ĠTAC IS
ĠTer min
ĠRechtsprech ung
Ġuncertain ty
ĠWelth andels
Ġdat a
ĠMa astricht
Ġfeas ible
ĠGrundsÃ¤tz en
ĠUmstruktur ierung
Ġdemocrat ically
Ġtyp es
ĠÃ¤rm sten
Ġregen eration
Ġconver gence
ĠRechen schaft
ĠÃľberprÃ¼ fung
Ġdisagre ement
dbe ben
ĠDet ail
ĠEinstimm igkeit
agand a
Ġumfass end
ĠNichtregierungs organisationen
ĠGraÃ§ a
Pl ath
Ġtonn es
Ġagen cies
ĠBour langes
ĠWednes day
ĠVerring erung
ĠVerwirk lichung
ĠMittwo ch
ĠAbhÃ¤ng igkeit
2 0
2 2
9 8
G anz
N S
O s
S he
Z we
Z udem
a est
b a
b rit
d lichen
e te
f are
g ert
i j
k osten
k riterien
l ay
l Ã¶s
l iste
m Ã¤rkten
n Ã¼
n ungen
r ungen
w affen
en ing
er ing
er kennen
in ken
Ġt ie
Ġt anker
Ġd iver
Ġd ritten
es tens
Ġw on
Ġw od
Ġw enden
un st
it ar
it err
Ġs low
Ġs ums
at ically
ie gen
ie ties
an on
an ium
Ġb reit
Ġb erecht
Ġb inding
Ġb orne
Ġin hab
Ġm ere
Ġm atch
ro h
Ġe chte
st at
st ra
st ab
st Ã¤d
st immungen
le in
Ġp un
Ġan halten
Ġan spruch
Ġan stre
Ġn orm
Ġc al
Ġun necess
Ã¼ mer
Ġto ugh
Ġder er
om b
Ġbe wirken
Ġbe wegen
ing t
ing u
Ġand ers
ĠE igent
us al
ĠI dent
ĠP rop
ĠP rÃ¤
ĠP ilot
ig ant
ig ranten
ra f
ĠA rab
ĠS en
Ġg rie
Ġg igant
ic ed
ic ations
ĠM ann
ĠM ai
im at
eit igung
ut ter
ĠB au
ĠB IP
ul ing
ul ted
ĠT aus
ĠT arif
ct ober
Ġwh atever
Ġwh ilst
Ã¶ ffentlich
ĠF Ã¤h
ĠF assung
Ġl angen
Ġl obby
il ateral
Ã¼r k
ĠC resp
ere quis
Ġk enn
Ġwir ken
Ġden ied
Ġon going
Ġwe ise
Ġwe isen
ĠG as
ĠG elt
ĠG az
ĠG Ã¼lt
ĠG ama
de batte
de ckt
Ġge legt
Ġge prÃ¤
ĠU ran
Ġim men
Ġal ter
Ġso fern
Ġso zio
Ġso zusagen
ĠH igh
Ġcon vention
Ġcon stitutional
Ġst rukture
ver halten
ver handlungen
Ġver letzt
Ġer folgt
Ġas ide
and el
ĠD ar
Ġdes erv
ĠVer teilung
ĠL o
ĠIn n
Ġj un
Ġex ec
Ġse ven
be ziehen
Ġwill kommen
if ik
ĠZ uf
Ġle it
Ġle iden
qu ote
scha ffung
ann ual
ann ehm
Ġr ufen
Ġvor genommen
Ġvor nehmen
sen den
ect ive
ad es
ĠÃ¼ber denken
ĠÃ¼ber mitteln
ĠÃ¼ber prÃ¼ft
ĠAn merk
ow er
art ige
Ġma xim
ĠWe ll
gra d
Ġat tend
Ġab gere
ĠEn d
ĠEn vironment
ĠAus stellung
ĠAus einander
Ġsch Ã¤d
Ġdar legen
Ġen ormen
ĠBe w
ĠBe isp
ĠJ ac
ĠEr zeug
ĠmÃ¶ glichen
ĠVor gehen
ĠVor stellungen
ĠSch iffen
ĠSch reyer
ast ung
ĠO ctober
ĠParlament ar
ĠEnt schÃ¤d
ĠReg arding
Ġpart ner
se ktor
con s
Ã¼hr t
Ġcont act
Ġcont rovers
Ġunter strichen
Ġbei behalten
ĠMit wirkung
ĠMit gefÃ¼hl
ĠAb fÃ¤lle
ĠmuÃŁ ten
ĠGr Ã¼nd
Ġinc ident
Ġinc ome
Ġ199 0
Ġpre j
ĠEin beruf
ĠMitglie dern
Ġber uf
Ġint oler
Ã¼ck en
Ġgen ere
Ġch osen
Ġpr ices
Ġpr erequis
Ġges ichert
ik a
ik h
Ġinter f
Ġinter governmental
Ġup hold
unkt ional
ag og
Ġstr ing
Ġdec lare
Ġimportant ly
lÃ¤ uft
Ġeconom ically
Ġper pet
Ġhier zu
Ġhier bei
ign et
iger weise
Ġsol ange
ĠLe hren
ĠGrund lagen
bewer ber
Ġrec all
Ġcompet ent
ĠEntwicklung spolitik
ĠAs ia
Ġsc en
les en
gel Ã¶st
ĠGemeinschaft sebene
zie ht
kl icht
pro gramms
isl ang
Ġeinz iges
Ġpresent s
Ġwieder hole
hand el
hand els
ĠHo ffnung
ld tim
Ġwirk liche
Ġappro ving
ĠThem as
rib ute
Ġbeg un
Ġur anium
Ġinternational ly
Ġref le
Ġref ers
itz er
itz stand
Ġown er
Ġtax es
ĠFinanz ierungs
ĠFinanz mÃ¤rkte
Ġ4 00
Ġcontin ued
Ġstrateg ische
ĠAm ts
ĠKo dex
Ġintegr iert
spro gramme
spro grammen
ĠKon sens
ĠKon zep
Ġtechn ischen
Ġbesch lieÃŁen
Ġrat ified
Ġaccount able
gest altung
wirtschaft lichen
ĠUnternehmen s
Ġrecht zeitig
Ġrapporte urs
Ġbed Ã¼r
par te
ĠGemeinschafts recht
man agement
ĠSp an
ĠBeit ritt
over s
ĠzurÃ¼ck ge
ĠzurÃ¼ck zufÃ¼hren
Ġaw aren
Ġdel ighted
Ġcolle ction
Ġrest ore
Ġperiod ic
Ġenerg ies
Ġessential ly
Ġmeet ings
Ġricht en
Ġdep end
Ġbef indet
ĠQu oten
ĠQu Ã¤st
Ġseit ens
Ġoper ating
ĠHaushalts kontrolle
ĠHil fs
Ġdefin iert
Ġdefin itive
Ġdemokrat ischer
ĠPal Ã¤stinens
ĠBes teuerung
ĠBes eitigung
Ġcomple ted
mÃ¶ gen
mÃ¶ gliche
Ġgel Ã¶st
Ġdemand ing
Ġmot ions
ĠWer ten
Ġhinaus gehen
ĠWieder ver
ĠVerhand lung
Ġsy nerg
Ġeig entlichen
Ġremain ing
bereich en
ĠkÃ¼nft ige
Ġdraft ing
Ġpriv ile
ĠMe chanismen
Ġtim ber
Ġmult inational
Ġversch w
ĠgegenwÃ¤rt ige
ifiz iert
ĠgefÃ¤hr lich
system e
Ġship ow
ĠPol izei
av oured
Ġencour aged
Ġverl ieren
Ġverl assen
Ġevent ually
ĠGre ek
Ġvert ra
ĠKoh Ã¤renz
Ġstrong ly
ĠEff ekt
Ġerfolg reiche
Ġfiel ds
ĠunabhÃ¤ng ige
Ġstrengthen ing
Ġturn ed
ĠInde pendent
Ġtechnolog ical
Ġsignific ance
ĠGegen stand
Ġverbess ert
Ġlimit s
Ġnie mals
Ġdisp osal
ĠVorsitz ende
Ġconsequ ence
Ġcritic isms
Ġoblig ator
ĠRes pekt
Ġvol ume
Ġstud ies
Ġersch eint
Gen au
Ġfeh l
Ġfeh len
ĠVerÃ¤nder ung
Ġunterb reitet
Ġprakt ische
Ġsufficient ly
Re cht
Ġdev ast
heren ce
ĠTour ismus
ĠFeh l
ĠLast en
ĠAsyl bewerber
Ġtransnational en
Ã¤um t
Ġbeant worten
Ġhapp ens
Ġgrundlegen der
ĠBelg ien
Ġzentr alis
Ġgeograph ischen
Ġerheb liche
Ġprepar ing
ĠMinder heit
Ġpoor est
DA C
Ġdut ies
Ġinstitution ellen
ĠChin ese
ĠDritt staaten
ĠDritt lÃ¤ndern
Ġjudge ment
bet rie
hÃ¤n gt
Ġzug ute
ĠBeam te
Ġexplain ed
ĠmÃ¼ÃŁ ten
Ġprot ocol
Ġjen er
ordn ungen
ĠAltfahr zeugen
ĠKommun ikation
Ġunanim ity
Ge bie
Ġlisten ing
ĠgewÃ¤hl ten
Ġblo ck
ĠbemÃ¼ hen
Ġko ordin
ĠZivil gesellschaft
Ġdeliver ed
Ġtarge ted
Ġunters ucht
ĠÃĸl pest
ĠWahr ung
ĠUnabhÃ¤ng iger
Ġmittel stÃ¤nd
Ġcho ice
Ġsuffer ed
ĠgrundsÃ¤tz lich
ĠSh arm
ĠEuropÃ¤ er
Ġdecentr alisation
uff icient
Ġwithdra w
Ġrig orous
ĠKoop erations
Ġkompliz iert
Ġtoler ance
ĠerÃ¶r tert
Ġerweit ern
Ġacknow ledge
Des wegen
Ġauft reten
ĠVerlauf e
Ġspo ken
Ġinterin stitutional
Ġcentr alised
Ġconsolid ate
Ġkeines wegs
ĠGewÃ¤hr leistung
Ġcontradict ion
Ġschwerwiegen de
ĠbeeintrÃ¤cht igen
ĠFÃ¼nf jahres
Ġsole ly
ĠLauf e
Ġproport ion
ĠzukÃ¼nft igen
bed arf
sbe kÃ¤mpfung
Ġabst ain
Ġentscheid end
ĠMitentscheid ung
Ġarr ived
ĠGeneraldire ktion
Ġvig il
Ġcoll ab
Ġdeclar ation
Ġvolun t
Ġbehaup ten
Selbst verstÃ¤ndlich
Ġtw ent
ĠVerl ust
Ġapproxim ately
ĠursprÃ¼n glich
Ġcapit a
Ġstraf rechtlichen
misch ung
ĠnÃ¶t ig
Ġaud it
Ġkurzfrist igen
Ġconstant ly
Ġentreprene urs
Ġsinc er
Ġunf air
ĠSa fety
ĠVerletz ung
Ġdismant ling
Ġsan ctions
ĠAusweis es
Ġworry ing
Ġfinn ischen
Ġbefind lichen
ĠPriv at
ĠNiederlan den
ĠGriechen land
rel ated
Ġverwir klicht
feil er
Ġpursu ant
ĠJahrhunder ts
ĠsorgfÃ¤lt ig
Ġresign ation
assifiz ierungs
Ġgeeigne te
Ha ben
Ġinfr inge
Ġinsec urity
Ġeinstimm ig
ĠClear ly
ĠBedÃ¼r f
ĠEntwicklungspartner schaften
Ġsurround ing
Ġbeinhal tet
Ġwod urch
iterr an
Ġanspruch s
ĠIdent itÃ¤t
Ġgrie ch
ĠCresp o
ĠBeisp iele
Ġawaren ess
0 5
1 0
4 4
6 9
9 6
A TO
C NS
I hr
K opf
M ittel
M ehr
N icht
N ein
R icht
S C
S ehr
V iele
a un
b u
b tedly
d okument
e f
f Ã¶rderung
g riff
g licht
i que
k an
k ungen
k rÃ¤ft
k rieg
l it
m on
m ine
m utzung
n immt
p la
p ak
r id
r ight
s eh
s itz
u ert
w ide
² lib
Ã ²lib
Ġ rol
er ten
er legt
in itiative
Ġt re
Ġt ro
Ġt ankers
Ġd ed
Ġd rittens
ch nen
Ġa rab
on y
is tern
is tet
it ze
Ġs en
at ible
at ures
re ben
re kt
or ing
an cy
Ġb ra
Ġb anks
Ġb auen
Ġo hn
Ġin zwischen
Ġm Ã¼sse
al itions
ro chen
ar ing
ar io
Ġf un
Ġf res
Ġf ate
Ġf low
Ġe ast
st Ã¤tigkeit
le ted
Ġp act
Ġp ush
Ġp ilot
Ġc rim
Ġc ategor
Ġc ustom
Ġh om
Ġh Ã¤n
Ġh ull
Ġun it
Ġun mÃ¶glich
Ġun pre
Ġun annehm
Ã¼ tern
Ġto uch
Ġbe ide
ur b
ur ate
ll ung
ll schaften
ir a
ĠI M
ĠP inochet
Ġz one
Ġz entral
Ġz ones
ĠA pp
Ġein erseits
ĠS icherung
ĠM ot
id akis
Ġre ven
Ġre geln
Ġre chnen
ĠB l
ĠB Ã¶
ĠB ran
ĠB ritt
ĠB ildungs
ul ated
ĠT enden
ĠT Ã¤tigkeiten
ĠT ask
sch l
ĠK an
ĠK urs
Ġzu gÃ¤nglich
den k
ĠR enational
iss es
ĠF ood
ĠF unktions
ĠF utter
Ġl iter
Ġda vor
ĠC ar
ĠC itizens
Ġk Ã¤mpfen
Ġfor g
Ġfor ced
ĠW ar
ĠW ille
Ġwe ist
ĠG u
ĠG ese
de ten
de cess
Ġge p
Ġge arbeitet
Ġso weit
Ġso ught
ĠH ier
ĠH atz
os ystem
Ġst ance
Ġst olz
ver fahrens
Ġver f
Ġver fahren
Ġver gleich
Ġver teilt
Ġver Ã¤ndert
Ġver zÃ¶
Ġpro hib
ach sen
Ġer mut
Ġer lassen
Ġer fordern
kt ober
ĠD el
ĠD ifferen
ĠUn zul
Ġnot ice
Ġdes erve
ĠRe c
ĠVer f
ĠVer z
sp flicht
ĠL ond
ĠL uc
ĠIn nen
ĠPar is
th ink
op ard
we gung
ĠSt reit
la den
la gerung
Ġr ates
Ġvor anz
ungs bereich
ungs wÃ¼rd
ungs stelle
sen ce
schaft s
schaft licher
ad ing
me id
Ġres idence
ĠN ATO
ĠAn zeige
ĠWe isen
ĠWe chsel
Ġaus geschlossen
iel te
Ġum setzen
Ġum gehend
Ġab hÃ¤ng
Ġab sence
ĠFra gest
Ġsp here
ĠAus nahmen
ĠAus gang
up ts
ahr t
ot ism
Ġsch ed
Ġsch Ã¼tzen
ou btedly
ĠAr ten
Ġen abling
ĠBe ifall
ĠBe achtung
Ġent tÃ¤us
Ġent weder
ĠEr stens
ne uer
ĠVor ab
ĠVor gaben
ib ungs
ĠO ldtim
ĠO ktober
Ġcomp lic
Ġcomp lain
Ġpart ly
Ġsa ve
Ã¼n ften
ud sman
Ġdis abled
Ġste lle
ĠAb schaffung
ap ter
nah m
Ġexp los
Ġzw eiter
Ġzw ingen
Ġ199 2
gan i
Ġpre decess
Ġeurop a
ress ourcen
ĠComm un
Ġwenn gleich
ĠArbeit sprogramm
Ġbes eit
ik alen
ik istan
Ġinter ference
Ġinter ested
Ġinter ventions
erv ative
hl t
fÃ¼hr ungs
Ġra ising
lÃ¤ ss
ĠDe zentr
Ġdam aging
Ġev ident
inn t
Ġsub stances
ĠLe ban
Ġgew innen
Ġfe els
ĠArt ik
ĠGrund werte
ĠÃĦ uÃŁer
Ġins ufficient
Ġtra ck
Ġprov is
schlieÃŁ ung
Ġemp feh
Ġrep ublic
now n
Ġagre es
Ġconsider ing
Ġoff ices
Ġass um
Ġwel fare
Ã¤nder ungen
Ġrem ove
ĠÃľber tragung
gel ungen
Ġlie ber
Ġbas es
ĠHa ve
Ġpresent ing
ĠMen ge
wor king
Ġwieder her
Ġincl usion
geordne ten
Ġsee king
chn et
Ġbo ok
Ġprocess es
ĠZiel setzung
ĠSte igerung
Ġable hnen
vor haben
ĠGes icht
ĠAustri ans
Ġger aten
klÃ¤r t
ling en
Ġatt ra
ĠGer ichten
Ġconf usion
ĠVorschlag s
Ġlaw y
Ġ4 7
Ġ8 6
Ã¤tz e
bene fit
Ġpers istent
ĠAm b
ĠAm t
ĠKo alitions
Ġnumber s
Ġ5 00
Ġintegr ierten
ĠAnt rÃ¤ge
ĠAnt worten
Ġguid ance
Ġgest atten
Ġaccount ability
Ġlook s
ĠMon opol
Ġstehen de
Ġrecht lich
ĠStand punkte
zeich nung
ĠFre ude
Ġbed auern
ĠEntschlieÃŁ ungen
ĠRaum ordnung
Ġfinanz iell
Ġback ground
ĠStra ÃŁ
Ġ9 5
Ġ9 6
Ġschw ere
Ġschw eren
Ġunderst ood
ichte ten
ĠFr isten
ĠFr iday
Ġtransport ation
ĠAnsicht en
zus ehen
verstÃ¤nd nis
fÃ¤ llen
Ġpay ments
Ġless ons
ĠGen ehmigung
ĠFreiheit lichen
Ġallow s
An alyse
Ġerforder t
Ġir resp
ĠAt lant
Ġricht igen
ĠOrgan en
Ġnegoti ating
Ġje opard
Nach dem
ĠHaushalts jahr
Ġvorge tragen
Ġbu y
Ġverschieden er
ĠCon stitutional
hÃ¶ rige
Ġveh icle
Ġkind s
ĠgewÃ¤hr en
Ġguarante ed
Ġlarge ly
Mit glie
Ġmind estens
Ġgel tend
Ġentwick elten
ĠschlieÃŁ e
com ings
ĠGleich gewicht
ĠGleich stellungs
ĠEx istenz
ĠFahr zeugen
Ġplay ed
Ġopp ose
Ġopp osition
Ġsoc ieties
ĠhÃ¶ heren
Ġharm ful
Ġret ire
Ġpower ful
Ġinform iert
Ġlea ving
Ġdoub ts
Ġmult if
Ġversch Ã¤r
Ġversch oben
ĠSyri an
Ġerwar te
Pro gramme
Ġshort comings
Ġrequest s
Ġorganis ierten
Ġderart igen
Ġenter ed
weg ungen
Ġexam ining
ĠZahl en
ĠGew icht
Ġprep are
Ġhol ds
Ġhol ding
ĠDokument en
Ġschne ller
verkehr s
Ġcoordin ate
Ġoft mals
ĠermÃ¶ glicht
Ġsever ely
Ġgener ate
miss ible
Ġexch anges
Ġident ity
Ġident ified
Ġeng l
Ġmovement s
ĠKar l
mb udsman
Ġhon est
ĠIr ish
ĠPer iod
Ġeinheit lichen
010 4
010 5
010 7
verb ot
Ġdelay ed
Ġfocus ed
Ġeas ily
ĠStahl beihilfen
Ġeinzu beziehen
ĠUS D
Ġmembers hip
Ġtop ic
ĠbefÃ¼r chten
Ġlow er
Ġrecommend ation
Ġsuggest s
Ġsuggest ions
Ġdev oted
ĠRats vorsitz
Ġobserv ed
Ġsur vey
Ġwiederhol t
ĠTerr or
ĠKÃ¼ ste
Ġexcept ions
Ġprior it
Ġgrundlegen den
ĠBelg ian
Ġzentr alen
ĠAugen blick
Ġworth y
Ġinspect ions
Ġpurp oses
ĠCo x
Ġattemp ts
ĠEinzel heiten
Ġangemessen e
ĠGroÃŁ teil
ĠGroÃŁ brit
ĠvollstÃ¤nd ige
Ġdeta ill
Ġpurs ue
ĠGar gani
Ġauthor ised
Ġeffizient e
Ġverein bart
ĠME DA
Ġrecyc led
Ġdisapp ointed
Ġrecognis es
Ġneighbour hood
ĠVerhalten s
ĠVerhalten sk
ĠEURO DAC
polit ische
Ġmiss ing
ĠSan ktionen
Ġstrict ly
Ġgra v
ĠgewÃ¤hl te
ompeten z
Ġvo ice
Ġbel g
Ġzunehmen de
Ġtarge t
Ġunters uchen
Ġunterschied lichen
ĠbenÃ¶t igt
Ġinvestig ation
meld ungen
Ġwach sam
Ġbrit ische
Ġbezie he
ĠElement e
Ġgain ed
Ġstipul ated
ĠausfÃ¼hr lich
Ġtest ing
Ġ28 0
Ġgering er
Ġawa it
Ġwoll ten
ĠDies e
Ġlauf enden
ĠCons um
ĠStud ien
Ġcompens ation
ĠBerat ung
Ġsubsid ies
Ġtradition al
ĠKontin ent
orient ierte
ĠLa an
Ġauseinander setzen
Ġberu ht
ĠProgrammplan ung
Vert rags
Ġdiplom atic
ĠbeeintrÃ¤cht igt
Ġvorrang ig
Ġadap t
Ġfront iers
Ġvorhanden en
Ġnah e
Ġeingeb rachten
ĠWerk sto
Ġdepr ived
Ġchann els
Ins ofern
Ġdiscip line
Ġtransl ation
ĠbefÃ¼rwor tet
ĠerlÃ¤ut ert
Ġbit ter
Ġbezahl en
ĠTra de
Ġverurs achen
ĠGesam theit
Ġeinzelstaat lichen
Ġiniti ate
ĠKompeten zen
ĠFÃ¼hr ung
ĠGest altung
ĠVerursacher prinzip
Ġdisadvant aged
Ġexplicit ly
ĠErwÃ¤ g
Ġvalid ity
Ġmulti annual
ĠRoman o
Ġfam ily
ĠpalÃ¤stinens ischen
Ġgenehm igt
ĠStraft at
ĠImm igranten
erikan ischen
atal og
Ġdarge legt
cedent ed
ĠJahrtaus end
ĠSicherheitsber ater
Ġbarr iers
Ġinade quate
Ġphilosoph y
Ġgrat ul
Ġauff ordern
sex tre
Ġchild ren
ĠÃĦnderungs vorschlÃ¤ge
Ġremov ed
Ġkonstitution elle
ĠRegierungsche fs
Ġadvant age
Ġearth qu
Ġunzureich end
ĠKran ken
ĠAngeb ot
Ġende avour
Ġnachvoll ziehen
Ġhinnehm bar
ĠBedienste ten
ĠReformpro zeÃŁ
ĠPerspekt ive
Ġconfidential ity
ID S
ĠEll es
ĠSign al
ĠBan otti
ĠCad iz
ĠWÃ¤hl er
ĠInkraft treten
behand lung
ĠBeob acht
ĠErnen nung
ĠGewerk schaften
arbeits losigkeit
ĠDefin ition
ĠExper ten
ĠMarin ho
Ġinterinstitution ellen
Ġjurisdict ion
She ikh
aest ors
ĠGas Ã²lib
Ġdeserv es
ĠParlamentar ier
ĠEinberuf ung
Ġscen ario
ĠQuÃ¤st oren
Ġshipow ners
Ġsincer ely
iterran ean
Ġcrim es
Ġcategor ies
Ġunpre cedented
ĠBritt any
ĠRenational isierung
ĠGese llschaften
ĠHatz idakis
ĠLond on
ĠLuc as
ĠFragest unde
ĠÃĦuÃŁer ungen
ĠGroÃŁbrit ann
ĠGasÃ²lib a
" .
) ]
3 5
5 0
D ienst
I N
K S
O hne
S ind
U S
V III
W eil
b eschÃ¤ft
b low
d o
d ed
d ac
d igten
d isc
e u
e ter
e conomic
f reich
f elt
f ederal
g y
g ro
g ibt
g Ã¤ng
g erecht
h el
h et
h Ã¤r
h ielt
h Ã¼t
i Ã¶
i ben
j Ã¶st
k o
k und
k ret
m t
m ar
m ier
m ischen
m eth
n ach
o ff
p en
p ut
p rechen
p otism
r ich
r ent
r ic
r unde
s es
u able
v ollen
w ass
w eiterung
y c
z ent
z usammen
z esse
en ig
er y
in ely
Ġt ri
Ġt ritt
Ġd ient
Ġa fra
Ġa ffair
Ġw ro
un ahme
it ativen
Ġs ter
Ġs etzt
ie ÃŁ
re gen
re bt
re cken
re gelmÃ¤ÃŁ
or itÃ¤t
an e
an ach
Ġb Ã¼r
Ġb reiten
Ġin f
Ġm essen
al d
al ous
ro t
Ġf le
Ġf and
Ġf erner
Ġe arn
Ġe hem
Ġe missions
le ase
le gend
Ġp ie
Ġp ension
Ġp rÃ¤sent
Ġp urely
Ġan erkennen
Ġc ouncil
Ġc eil
Ġh ide
Ġh ouse
Ġun ions
ge ht
ge ist
Ġv int
Ġbe ein
Ġbe weisen
Ġbe denken
Ġbe low
Ġbe ef
as p
as ing
as bourg
ll ing
ĠE D
Ġund oubtedly
us sen
ed t
ĠP os
ĠP latz
ĠP lease
ig ert
Ġz Ã¼g
ra xis
ĠA kzept
ĠA IDS
Ġein rÃ¤umen
ĠS Ã¤
ĠS urely
ĠS jÃ¶st
Ġg Ã¼nst
ĠM iÃŁbrauch
id ge
Ġre ibungs
ol ge
ol ation
ĠB en
ĠB on
ĠB ra
ĠB il
ĠB ill
ĠB ay
ĠB rief
ul icher
ĠT isch
ĠK andidaten
ĠK ategor
ĠK unst
et te
Ġzu zustimmen
Ã¶ d
Ã¶ ten
ĠR o
iss ens
ĠF ach
ĠF ore
ĠF reit
Ġl eng
urop Ã¤ischen
Ġk na
ĠW ise
ĠW Ã¤l
ĠG lÃ¼ck
Ġge treten
Ġge plan
Ġge langt
Ġge zwungen
Ġge fragt
ĠTh ose
ĠTh ys
Ġst o
Ġst able
Ġst Ã¼tzt
ver k
Ġver ring
Ġver steht
Ġpro spect
Ġpro active
Ġer m
Ġer stellen
Ġer ho
Ġer teilt
Ġer weist
Ġer lauben
ill s
Ġauf richt
kt ors
kt ron
ĠUn der
ĠUn fÃ¤lle
ĠUn regelmÃ¤ÃŁ
Ġne potism
Ġdes per
Ġde term
ĠVer ab
ĠVer folg
sp akt
ĠL ang
ĠL oy
ĠL yn
ke pt
ĠIn di
ĠIn itiat
ĠSt ich
ay s
rÃ¤ ften
ĠZ iffer
ĠZ unahme
la d
iv ation
Ġmit einander
qu ellen
qu oten
Ġr en
Ġvor sicht
Ġvor ank
eh in
err en
ungs mittel
ist le
ĠPro te
me er
me chanismen
ĠN ahr
ĠAn teil
ĠAn lage
ĠAn gleich
ĠAn sÃ¤tze
Ġaus schlieÃŁ
Ġaus gesetzt
iel ten
ĠAus gleich
ĠAus legung
ab in
Ġta gt
Ġdar unter
Ġen l
Ġen rich
ĠEr richtung
ĠEr neuer
ne x
ĠSch reiben
ĠSch icks
ĠO ver
ĠO ther
ĠO mbudsman
Ġsie ben
od es
ĠEnt tÃ¤us
Ġcomp ar
Ġhe im
Ġnach denken
Ġcomm end
Wir d
mp t
Ġob gleich
oc o
ĠAb fall
ĠAb kommens
ĠGe fahren
ĠGe fÃ¤ll
ĠmuÃŁ te
rat en
Ġexp and
Ġdurch gesetzt
Ġdurch setzen
Ġinc omp
Ġ199 1
Ġco herent
Ġco herence
Ġzum al
Ġpre m
he ar
he il
Ġbes itzen
wo hn
Ġch arge
Ġjust it
Ġout er
ag ung
ag ers
Ġstr onger
arbeit eten
Ġdec ade
erst ra
Ġra ft
Ġwar n
Ġper form
ĠDe parte
ov ation
Ġhier fÃ¼r
Ġhier arch
str ategien
Ġgr ants
Ġfact ors
ange l
Ġsub sequent
Ġact ively
ĠLe ute
ĠLe ader
Ġgew iÃŁ
Ġgew onnen
Ġho hes
Ġsome one
Ã¤ch er
ĠProble ms
ĠFor ce
fol d
wie weit
Ġtra ged
alis ten
ĠFin land
Ġrep air
sel ben
ĠVert rauens
Ġover look
ient s
Ġinv ite
Ġunder min
Ġass ume
ertain ing
Ġthem atic
ĠWh o
Ġ3 2
ĠRechts grundlage
Ġar ise
Ġar ising
zie le
pro du
Ġwhere as
Ġregional er
Ġher ange
hand elt
ĠBÃ¼rger beauftragten
Ġfest legen
Ġfest zustellen
ĠVerb rechen
ĠVerb indungen
Ġsozial er
ĠTe le
fin ed
Ġletz t
ĠSte el
Ġref used
piel t
Ġerw iesen
Ġger ingen
ĠWirtschaft spolitik
fÃ¼ llung
Ġconf ine
ĠUmwelt fragen
ss icherheit
Ġbegr Ã¼nden
Ġcitizens hip
ium s
ĠArbeits zeit
ĠVerantwort lichen
ĠAm oco
ĠReform ierung
Ġinvol ves
Ġexpress ly
weit e
Ġresult ing
Ġform ed
Ġform ally
Ġausge hend
reg ular
Ġwissen schaftliche
ĠAut oritÃ¤t
ĠAu ft
Ġmin ute
Ġcre ates
ĠStand ards
ĠProblem atik
ĠWettbewerbs recht
Ġbek lagen
Ġbed anken
Ġbed roht
Ġke en
Ġke pt
Ġverst Ã¤rkte
ret on
Ġele ctor
Ġdifficult y
ĠAl s
ĠAl ter
Ġresour ce
ĠHand lungen
Ã¼b ung
ĠSozial politik
ĠBest rebungen
ĠauÃŁ en
istr icts
emp loyed
ĠSystem e
ĠStra ÃŁen
ĠzurÃ¼ck zu
Ġeinge hend
Ġerst es
ĠOn ce
ccess ion
ĠEuro dac
raum s
Ġeinzel ne
Ã¤hl ten
ĠGen eration
ĠFreiheit en
Ġaccept ance
Ġir regular
leist ungs
Ġcor por
ĠSy nerg
Ġdep th
Ġdep leted
ĠRed u
ĠHaushalts ordnung
ĠStellung nahmen
zahl t
Ġrece iving
mÃ¶ glichen
Ġstatt findet
zuf olge
Ġderzeit ige
ĠSchw eden
ĠSchw Ã¤chen
Ġerinn ere
abil itÃ¤t
Ġopen ed
ĠHe alth
ĠHe imat
Ġmot or
Ġsupp lement
Ġeig entliche
Ġaufge worfen
ĠVerkehr ssicherheit
Ġpop ulations
Ġgrund legend
ĠEnergie ein
Ġaccess ible
zogen en
Ġhervor ra
Ġunemp loyed
ĠInd ik
Ġfour th
Ġcare er
ĠhÃ¶ here
Ġstress ing
ĠStr asbourg
last et
pflicht en
Ġlea der
Ġklein eren
Ġversch le
Ġvier zehn
ĠRatsprÃ¤sident en
Ġakt uelle
Ġakt uellen
schied ung
ĠMehrheit s
ĠgefÃ¤hr det
Ġderart iger
mitglie der
Dar in
ĠJustiz minister
Ġwahr en
Ġitem s
Ġrele v
igr ation
Ġcent re
Ġhistor ische
ĠKr isen
Ġern ste
Ġwirksam er
ingen ommen
Ġdoubt less
ĠStaats angehÃ¶r
ĠGesch le
Ġdemonstr ation
ĠGerichtshof s
entscheid ung
ĠIde ologie
weil en
ĠVoraus scha
Ġkeep ing
Ġgerecht fertigt
Ġfound ing
Ġfound ation
Ġlimit ations
ĠLin ken
ĠEntwurf s
Ġdisp lay
ĠLeg itim
Ġdelay s
ĠbeschÃ¤ft igung
Ġrecon c
Ġstrand s
Ġthought s
Ġbevor stehende
Ġeinzu gehen
Ġbre ach
ĠNatur katastrophen
Ġine ff
Ġcla ims
ĠAkt ions
ĠKl assifizierungs
ĠStraf recht
Ġjur istischen
ĠSchluÃŁfol gerung
Ġvis it
ĠBÃ¼ ros
Ġhear ing
ĠEinw Ã¤nde
ĠForsch ungs
isc al
Ġfunktion ieren
ĠTerr itor
gebie t
gebie ten
ĠWirk ung
Ġnet work
Ġerheb lich
ĠSchwer punkte
Ġprepar ation
Ġverehr ten
ĠAmer ica
Ġred ist
ĠRisik om
Ġreject ion
Ġsour ce
rÃ¤um e
hÃ¤n ge
Ġalong side
Ġstra ight
Ġeffizient er
ĠÃ¶kolog ische
Ġreview ed
ĠÃ¤hn liche
Ġrecyc le
Ġmag n
Ġenfor ce
Ġneighbour s
ĠMed iterranean
ĠMÃ¤n gel
ĠMiÃŁ wirtschaft
Ġprosper ous
Ġinterregional en
ĠProtokoll s
Ġunver z
ĠKons ervativen
ĠBeschl Ã¼ssen
Ġsucceed ed
Ġgra du
ĠEnts endung
Ġrad ik
ĠgewÃ¤hl t
Ġbl ind
Ġintens iv
Ġeinbe ziehen
Ġschle cht
Ġrac ist
Ġenvis age
Ġrestrict ive
Ġattach ed
ĠgrundsÃ¤tz liche
Ġsafeguard ing
Ġsus pend
Ġdead lines
Ġvorher igen
ĠLeist ung
ĠVersch mutzung
ĠInsel regionen
Ġausgewogen en
Ġkompliz ierten
ĠverstÃ¤nd lich
ĠBereit stellung
Ġgenu inely
Ġnied rige
ĠFinn land
Ġlauf en
ĠSchul ung
Ġamt ierenden
ĠUmst Ã¤nde
Ġmethod s
Ġsepar ate
ĠBetrie bs
Ġwidersp ie
Reg ionen
Ġschwerwiegen den
Ġdetermin ed
Ġmist akes
ĠmÃ¼nd lichen
Ġvolle m
ĠTechn ologien
Ġrapid ly
Ġut il
Ġut most
Ġherr schen
Ġherr scht
Ġstre am
Ġumge kehr
ĠAuss agen
Ġinterpret ation
ĠordnungsgemÃ¤ÃŁ e
Ġerf aÃŁt
Ġchann el
ĠHafen staaten
ĠbefÃ¼rwor te
ĠerlÃ¤ut ern
Ġmilit ary
Ġcle an
Ġausger ichtet
ĠAlban ians
Ġexception ally
Ġautom atisch
Ġwrit ing
Ġisrael ischen
ĠregelmÃ¤ÃŁ ig
Ġdauer haften
Ġkr isen
Ġveran laÃŁ
Ġappell iere
ĠAlli ance
ĠDienstleistungsausweis es
ĠniederlÃ¤nd ischen
Ġkonstrukt iven
Ġeinf achen
ĠWicht igkeit
ĠVerst Ã¶ÃŁ
Ġvorbereit et
ĠVorbe halte
ĠVorgÃ¤n ger
Ġappoint ment
Ġgewalt igen
Ġminister s
Ġinequal ities
Art ikel
Ġlar gest
ĠAbÃ¤nder ungsantrag
Ġperipher al
Ġinev itably
flag gen
Ġdict ators
ĠSw eden
Ã¶hn lich
Ġvertre te
ĠVerzÃ¶ gerungen
Ġwelch em
ĠKonsequ enzen
Ġmensch lichen
ĠdrÃ¤n gen
ari at
Ġhil freich
ĠMobil itÃ¤t
ĠFus ionen
Ġrenational isation
Ġexpert ise
ĠBetroffen en
Ġinterpre ted
ĠverÃ¶ffent licht
Ġcorrespond ing
Nie mand
Ġey es
Ġcert ific
Ġhyp oc
Ã¤nglich keit
ĠAnhÃ¶r ung
Ġscrut iny
Ġaspir ations
ĠLegisl ativ
ĠwÃ¼nsch enswert
ĠdiesbezÃ¼ glichen
Besonder s
ĠWelthandels organisation
lÃ¶s ung
nÃ¼ p
Ġinhab it
Ġunnecess ary
ĠTaus ende
ĠTarif vert
Ã¶ffentlich ung
Ġprerequis ite
Ġstring ent
ĠbedÃ¼r fen
ĠEffekt ivitÃ¤t
ĠmittelstÃ¤nd ischen
Ġcollab oration
Ġvolunt ary
bu ild
pla ce
Ġsen ior
Ġohn ehin
Ġfun ctions
ĠhÃ¤n gt
ĠMot or
ĠFutter mittel
ĠUnzul Ã¤nglichkeit
ĠOldtim er
Ġcomplic ated
ĠArtik els
Ġirresp ons
Mitglie d
Ġbelg ischen
ĠBeobacht ungsstelle
beschÃ¤ft igung
hÃ¼t ung
Ġafra id
Ġehem al
Ġceil ing
Ġvint age
Ġbeein fl
ĠPos it
ĠAkzept anz
ĠSjÃ¶st edt
ĠFore ign
ĠFreit ag
Ġkna ppen
ĠThys sen
Ġdeterm ine
ĠVerab schiedung
ĠLyn ne
Ġvorank ommen
ĠAngleich ung
ĠEnttÃ¤us ch
ĠGefÃ¤ll igkeits
% .
+ -
4 3
9 4
C ES
F ina
G r
G ibt
J a
J ed
K ommission
K ann
L DR
M I
N ally
N och
W icht
W Ã¤hrend
X VIII
a ue
b eschrÃ¤n
c a
c o
c ent
d den
e g
e ast
f tet
f avoured
g n
g ige
h ow
i op
k enntnis
k ompetenz
l im
m ing
m ien
m od
m ak
n Ã¶ten
o le
o ol
p oint
p unkten
r ittel
s ituation
t ion
u ung
u ct
w id
w icht
w ers
w Ã¤l
w indung
z t
z um
z ern
z iert
Ã ¸
Ġ +
er ative
in tegr
Ġt ried
Ġt ighten
Ġd roht
Ġd istricts
ch ed
on a
on i
on str
Ġw atch
it isation
Ġs cept
Ġs ize
at iver
ie fung
ie ller
re al
re ter
re form
re ds
re gelung
an gt
an lagen
Ġb ar
Ġb rom
Ġb omb
Ġb islang
Ġo ber
Ġo we
Ġin land
Ġin app
Ġin put
Ġm ob
al ist
ro st
ro ugh
ar ies
Ġf it
Ġf ert
Ġf assen
Ġf ahren
Ġf isheries
Ġe chten
st ate
st adt
le are
Ġp ain
Ġp led
Ġp ending
Ġan bel
Ġn Ã¼tz
Ġn uk
Ġc e
Ġc ol
Ġc ity
Ġc ards
Ġh ith
Ġh ost
Ġh amp
Ġh Ã¶ren
Ġh osp
Ġun ange
ge kommen
ge wogen
Ã¼ st
Ã¼ cke
te ers
om Ã©
Ġv ision
Ġbe we
Ġbe gan
Ġbe kun
Ġbe endet
Ġbe wertet
as en
ll or
Ġand ern
ĠE th
ĠE hre
ĠE LDR
us ing
ir able
ĠI CES
ĠP f
ĠP ad
ĠP rÃ¤z
ig sten
Ġz er
Ġz ollen
Ġz Ã¤hlt
ĠA g
ĠA k
ĠA ir
ĠA uch
em b
em it
Ġein her
Ġein seit
ĠS ri
Ġg ri
Ġg ap
Ġg one
ic iary
ĠM an
ĠM us
ĠM od
ĠM organ
ĠM Ã¤rkten
omm od
ut s
id met
Ġre alised
Ġre verse
Ġre think
am mer
ol a
ol f
ĠB Ã¶r
ĠB isc
ul den
ĠT un
ĠT ank
ĠT aten
ĠT onnen
ĠT reib
ter nen
ĠK auf
ĠK rieg
ĠK rÃ¤fte
Ġzu st
Ġzu kommt
Ġwh istle
ber gen
Ã¶ tz
ĠR uÃŁ
ĠR ande
ĠF ar
ĠF ree
Ġl esen
Ġda ily
Ã¼r den
Ã¼r ze
ĠC ertain
ĠC ha
ĠC AP
Ġk m
Ġk Ã¼mm
Ġfor cing
Ġha upts
ĠW iel
ĠW all
ĠW andel
ĠV allel
ĠV III
ĠG l
ĠG ang
ĠG Ã¼tern
Ġge fallen
Ġim age
Ġal arm
Ġal to
Ġdies mal
ĠH ome
ĠH Ã¤l
Ġcon ne
Ġcon stitut
Ġst ruktur
ver teilung
Ġver he
Ġver wirk
Ġver zeichnen
men ge
ach ing
Ġer led
Ġauf bauen
Ġauf erlegt
and t
kt ions
ĠD u
ĠD och
ĠD ikt
ĠD rittel
Ġne o
ĠVer fassung
ĠVer Ã¶ffentlichung
sp ek
sp raxis
ĠL ank
ĠL iter
th alb
we igen
ĠSt immen
ĠSt ock
Ġex port
Ġse x
Ġse lect
Ġdem ograph
ĠZ e
ĠZ eich
la w
Ġle gt
lie fert
Ġsu itable
Ġsu dden
Ġsh ares
ore t
Ġr id
Ġr uling
Ġvor n
Ġvor ab
Ġvor zusch
ungs voll
Ġdo ct
igen den
und i
ug nissen
ad ow
ad urch
ĠÃ¼ber t
ĠÃ¼ber pr
ĠN G
ĠN on
ĠAn nÃ¤
ĠWe i
Ġaus Ã¼ben
iel d
ers undi
Ġab z
Ġab ges
Ġsp ite
Ġsp read
ĠAus bau
ĠAus laufen
Ġsch enken
ert o
ĠBe fra
ĠJ ur
ĠJ ud
Ġent f
chte t
ste chn
ĠEr halt
ĠEr stellung
ĠEr mitt
ĠEr schein
ĠEr Ã¶ff
ĠEr folge
ĠEr fassung
ĠEr fÃ¼llung
Ġman gelt
Ġman ager
Ġman agers
ne iden
ĠmÃ¶ ge
ĠParlament en
Ã¼s s
Ġcomp ete
se e
Ġsa il
Ġwor um
Ġbet one
Ġbet rieben
Ġbet reiben
her ung
Ġhe iÃŁen
Ġnach kommen
anz ler
Ã¤r ke
Ġcont roll
Ġqu ote
Ġqu arter
ute te
wer ke
Ġbei zutragen
ĠMit bÃ¼rger
Ġcan cel
oc aust
ieren der
Ġimp osed
Ġco inc
ĠEin heit
ĠEin kommen
ĠEin mischung
Ġalle g
ress ing
au ft
aÃŁ ten
Ġbes orgt
Ġgen aue
Ġpr on
Ġpr inzip
Ġges pielt
Ġhin gegen
Ġhin fÃ¤llig
Ġjust if
Ġout s
Ġout standing
ag ue
ide ut
Ġkein em
ĠMitgliedstaat s
arbeit enden
Ġdec re
teil ten
Ġacc ommod
tre ffen
icher tem
000 4
Ġra di
Ġra ises
Ġper ce
geb nis
ĠGemein schaften
Ġgr and
Ġintern ally
Ġsub sequently
Ġsol ve
Ġsol id
Ġsol ches
Ġact s
Ġgew idmet
stell ern
Ġfe et
ĠGrund prinzip
ĠÃĦ r
Ġbereit en
Ġbereit gestellt
Ġbereit gestellten
tell ten
Ġemp f
alis ing
alis ieren
Ġrep ut
ĠSe a
ĠSe ch
Ġregard less
Ġposs ibilities
Ġunder p
Ġunder mine
Ġrel ig
Ġass ent
Ġass ets
Ã¤nder ten
ĠÃĸ lt
Ġsocial ly
Ġcour ses
ha gen
ĠÃľber windung
weis ung
Ġro ot
Ġro ots
Ġ3 9
Ġlie fern
ĠAussch Ã¼sse
Ġgu ard
ĠRechts rahmen
Ġar ms
Ġtransp orted
Ġsystem atisch
pro jekte
wor tet
ĠMad ame
Ġstat ist
ĠRahmen bedingungen
Ġlegisl ature
Ġpl Ã¶tz
ĠTe ile
ĠTe xte
ĠZiel setzungen
Ġange fÃ¼hrt
ĠMittel meer
Ġweit em
ĠFinanz tran
Ġger ufen
Ġlo bens
Ġpla in
Ġpla ces
ĠRegierungs handeln
Ġzwe ck
Ġzwe ifels
Ġlast ing
Ġatt ent
Ġget r
ĠUmwelt katastrophe
Ġ4 1
Ġ4 2
Ġ4 4
Ġ8 00
Ġcontin u
Ġcontin ues
Ġrespect ive
Ġgleich ermaÃŁen
Ġreal istic
Ġfo oting
ĠArbeits gruppe
Ã¤tz ung
Ġfind ing
Ġloc ation
ĠBei hilf
Ġexpress ion
Ġexpress ing
Ġintegr al
Ġintegr ating
spro ble
spro zesse
Ġextre men
Da von
Ġausge ht
Ġbesch leun
Ġrat ifiziert
Ġgest r
ĠMon at
wert ungs
ĠVerein fachung
ĠStruktur politik
mÃ¤ÃŁ ige
mÃ¤ÃŁ igkeit
Ġmin im
Ġrecht liche
Ġrecht fert
Ġide al
Ġklar stellen
Ġstruct ured
ĠWettbewerbs regeln
Ġdeut sche
ĠEntschlieÃŁ ungsantrÃ¤ge
ĠÃĸsterreich er
gew ichts
gew ichte
ĠSp ain
Ġ7 5
Ġfreedom s
rieden heit
annt lich
ĠgrÃ¶ÃŁ t
ĠMill ennium
Ġrest oring
zentr en
ĠSituation en
Ġeing eschrÃ¤n
Ġcr ises
Ġbew ill
Ġwhole hear
ĠBinnen wass
Ġkonk reter
Ġglob ale
ĠQu ite
ĠQu ote
Ġallgemein verbind
Ġshow ing
ĠHaushalts ausschuÃŁ
Ġdefin ing
Ġpres c
ĠDemokrat en
Ġander thalb
ĠRegel werk
ĠLi ikan
ĠArbeitsp latz
ĠstÃ¤rk eren
Ġterr ible
Ġopen ly
ĠEmp fang
Ġreach ing
ĠVerhand lungs
Ġaufge griffen
ĠGleich gewichts
ĠBeschÃ¤ftigung spolitik
Ġvorgesehen e
Ġplay s
ĠAuff assungen
ĠGesetz es
Ġfour teen
Ġlang sam
ĠerklÃ¤r te
Ġexperien cing
Ġvern ommen
ĠSitz ungen
Ġamb igu
Ġopt ions
Ġopt imum
ĠeuropÃ¤ isches
ĠLiber alisierung
kon zept
ĠgefÃ¤hr den
ĠgefÃ¤hr lichen
ĠgefÃ¤hr liche
Ġsure ly
ĠSol ana
Ġinnov ativen
ĠWith out
ĠDokument e
Ġassess ing
Ġmod els
Ġrele ase
ĠGre en
Ġtell ing
Ãĸ sterreich
Ġmer it
Ġvert ie
Ġvert ritt
ĠErfahr ungsaustausch
Ġ25 5
Ġhistor ischen
wach sen
ĠtatsÃ¤ch lichen
ĠunabhÃ¤ng iger
Ġeng aged
heb ung
ĠAktion sprogramm
Ġguarantee ing
Ġverw iesen
Ġtechnolog ies
Ġdemonstr ates
Ġthreat en
Ġeinheit liches
ĠzustÃ¤nd ige
Ġumfassen der
Ġharmon ious
ĠTur k
ĠZeitraum s
Ġheut ige
Ã¤uf er
ĠPartner schaften
Ġinst ability
Ġvol ks
ĠNatur ally
Ġgelten de
Ġkont in
ĠGed Ã¤cht
Ġprof ound
Ġunterb reite
Ġinteress ant
Ġinteress anten
Ġprakt ischen
Ġproduct ivity
Ġfolgen den
Ġsatisf ied
Ġkrit isch
Ã¤nger ung
Ġindic ative
Ġindic ators
ĠSee le
Ġoffer ed
Ġheraus stellen
ĠWissenschaft lern
ĠPre mier
Ġalloc ation
Ġsur pr
Ġkomp lex
ĠWider stand
Ġtransnational e
ĠMc Nally
ĠBrit ain
ĠStabil isierung
ĠWirk samkeit
Ġjeweil s
ĠAutomobil hersteller
Ġprepar atory
ĠhÃ¶ch ste
St aaten
Ġinfl ation
ĠRep resent
Ġbeteil igen
ĠUN MI
Ġjudge ments
ĠZus ch
ĠAgr iculture
Ġassoc iation
Ġfarm ing
ĠBetrug sbekÃ¤mpfung
Ġhighl ighted
Ġunz ul
ĠMÃ¤n ner
ĠGol f
Ġverteid igt
Ġdesire d
Ġcoast al
Ġinterregional e
Ġunanim ous
ĠfÃ¶rder ungswÃ¼rd
Ġunver zÃ¼glich
ĠSan ter
Ġkl Ã¤ren
Ġethn ischen
ĠhÃ¤uf iger
Ġlisten ed
Ġforest s
Ġdest ruction
Ġmet als
Ġanerk ennt
Ġunc lear
Ġisol ation
Ġisol ate
Ġisol ieren
Ġko hÃ¤r
Ġsubstant ive
Ġextens ive
ĠÃ¼berw achen
ĠÃ¼berw unden
Ġunterschied liche
ĠendgÃ¼lt ige
ĠFinanzkontrolle ur
Ġlog ical
ĠWahr heit
ĠUngleich gewichte
Ġcho ose
ĠgrÃ¼nd et
ĠWiederauf nahme
Ġspezif ische
Ġcondemn ed
Ġmitt ler
ĠausfÃ¼hr liche
ĠChance llor
Ġassoci ations
ĠdÃ¤n ische
ĠInsel n
Ġreserv ations
Ġausgewogen e
Ġawa iting
ĠPalestin ians
Ġdr iving
ĠBar cel
Ġsogen annte
ĠFreedom s
Ġignor ieren
ĠKÃ¼sten regionen
Ġgek enn
ĠStud ie
Ġamt ierende
Ġcompens ate
Ġeval u
Ġparlamentar ische
ĠProdukt ivitÃ¤t
ĠAgrar politik
Ġreag iert
Ġlay ing
Ġconsolid ation
Ġkeines falls
proble me
ĠzusÃ¤tz liche
ĠProgrammplan ungszeitraum
li ke
Ġdiv ision
Ġmist ake
ĠmÃ¼nd liche
Ġlik ed
Ġwelcom es
Ġausgezeichne te
ĠgrÃ¶ÃŁer er
reib ung
Ġfri ends
Ġers etzt
ĠMitglieds lÃ¤nder
ĠangekÃ¼nd igt
Ġflexib ler
Ġill ustr
Ġpen alt
ĠÃ¼berein stimmen
Ġmeant ime
Ġvolun teers
Ġeinsch lÃ¤
Ġgesellschaft lichen
Ġged acht
ĠStat us
ĠZw ischen
Ġausreichen de
ĠÃľbergang s
Ġverbind liche
Ġ198 6
Ġisrael ische
ĠMor atin
ĠSto ffe
Ġenh ance
Ġtele vision
strÃ¶ m
Ġscand als
ĠuneingeschrÃ¤n kte
Ent scheid
steurop a
ĠWohn sitz
ĠKonsult ationen
ĠLuxem bourg
Ġreiter ate
ambod ia
ĠKor ru
ĠFern seh
ĠFlag ge
ĠZentral bank
Ġprefer red
Ġgreen house
ĠDisziplin ar
Ġangeb lich
Ġunk lar
ĠPak istan
ĠMeth oden
ĠRuss ia
Ġgez ielt
ĠDav ies
001 8
Ġents orgt
Ġindire ct
ĠSec urity
Ġelect ron
Soll te
Ġap olog
Ġsw ift
Ġunn Ã¶t
Ġunivers ally
rain ts
Ġkons ult
Ġdiesel ben
Ġresum ed
ĠForst wirtschaft
Ġtraff ic
Ġerweiter ten
Ġgebill igt
Ġdissem ination
Ġphys ical
Lie be
ĠX XVIII
Ġinakzept abel
Ġmem ory
Ġanx ious
dep th
Ġerle bt
Ġerleicht ern
Ġenor me
Ġmanifest o
Ġexpens e
Ġwarm ly
Ġhervorragen de
ĠChristdemokrat en
Ġdestro y
ĠunerlÃ¤ÃŁ lich
itar ian
Ġanstre ben
ĠGaz a
ĠgeprÃ¤ gt
Ġprej ud
ĠSpan ien
betrie be
ĠFÃ¼nfjahres programm
Ġvigil ant
Ġtwent y
pak et
Ġrol es
ony m
Ġreven ue
ĠFunktions weise
Ġgep lant
ĠDel ors
ĠVerf asser
Ġcomplain t
ĠLeban on
Ġengl ischen
ĠStahlbeihilfen kodex
Ġneighbourhood s
ĠVerhaltensk odex
ĠConsum er
ĠErwÃ¤g ungen
ĠGroÃŁbritann ien
Dienst leistungs
ĠzÃ¼g ig
ĠBon de
Ġgeplan ten
ĠInitiat iv
ĠNahr ungsmittel
Ġtagt Ã¤glich
ĠOther wise
Ġouter most
ĠDeparte ments
Ġelector al
ĠRedu zierung
Ġreconc ile
Ġmagn ific
ĠveranlaÃŁ t
ĠUnzulÃ¤nglichkeit en
ĠEnttÃ¤usch ung
Ġmob ility
Ġanbel angt
Ġnuk leare
Ġhith erto
ĠBÃ¶r sen
ĠBisc ay
Ġhaupts Ã¤ch
ĠWiel and
ĠWall strÃ¶m
ĠVallel ersundi
Ġalto gether
ĠHÃ¤l fte
Ġconne cted
Ġconstitut es
Ġverwirk lichen
ĠZeich en
ĠÃ¼berpr Ã¼fen
ĠAnnÃ¤ herung
ĠFinanztran saktionen
Ġrechtfert igen
ĠBinnenwass erstra
ĠLiikan en
ĠBarcel ona
ĠMoratin os
Dienstleistungs ausweis
5 5
6 2
A l
B ek
D adurch
E ines
F L
G F
G est
I T
J eder
K urz
K rise
M ath
N ord
N utzen
T E
W ieder
a ire
a ute
a upt
a ccession
b il
b aus
b rechen
b racht
c ommun
d own
e iden
f assen
f rei
f indung
h abil
i as
i be
i ated
i pped
j unction
j ekten
k auf
k rise
k apital
k nown
l ass
l imin
n g
n etz
n etze
o eu
p ed
p oll
p ack
p olitiken
r ate
s etzt
t ra
t schaften
v re
w art
w ink
w ander
w asser
z ung
Ã Ħ
Ġ essen
Ġ Ã¶rt
er ed
in ct
in ated
Ġt endency
Ġt Ã¼rk
Ġd ur
Ġd rit
Ġd ign
Ġd ritte
Ġd oss
Ġa gency
on au
Ġth ir
es te
is al
is ory
Ġw in
Ġw ind
Ġw ann
Ġw age
Ġw Ã¤hlen
un dern
it als
Ġs or
Ġs Ã¼
Ġs we
Ġs ad
Ġs ight
Ġs ending
at est
at ern
ie ÃŁen
ie behÃ¶rde
re a
re ise
re aching
or and
or ary
an st
an ied
Ġb i
Ġb rachte
Ġb orn
Ġb reton
Ġin wieweit
Ġm ur
al itÃ¤ten
ro g
ar at
Ġf il
Ġf ire
Ġf ost
Ġf iscal
Ġe ight
Ġe bens
ent halts
st ru
st Ã¼ck
le ute
le bens
Ġp f
Ġp has
Ġp ertaining
Ġan imal
Ġn ein
Ġn Ã¶r
Ġn omin
Ġn orthern
Ġc a
Ġc ommission
Ġc ast
Ġh es
Ġh it
Ġh ot
Ġun l
Ġun gen
Ġun fortun
Ġun ique
ge g
ge fÃ¼
te ht
te ls
Ã¤ me
Ã¤ he
Ã¤ ude
Ã¤ uft
Ġv ent
Ġbe gangen
ur ze
ur se
as i
as on
as pekt
ĠE P
ĠE ben
ĠE VP
ĠP op
ĠP ack
ĠP feiler
Ġz iti
ra isal
ĠA llt
Ġein iges
ĠS k
ĠS im
ĠS up
ĠS elbstÃ¤nd
Ġg ather
Ġg lad
ĠM Ã¼
ĠM iss
ĠM angel
Ġre la
Ġre ferences
ĠB ild
ĠB lock
ul ous
ul ner
ĠT ie
ĠT ime
ĠT emp
ĠT urn
sch uÃŁ
sch ritt
sch reiben
der ten
ĠK Ã¼rze
et us
et tern
Ġzu kunft
Ġzu gestimmt
Ã¶ hnung
ĠR el
ĠR uf
ĠR ot
ĠR ome
ĠR Ã¼ckt
ĠF Ã¼
ĠF our
ĠF asch
ĠF akten
ĠF aktoren
ĠF aktor
Ġl in
Ġl atest
Ġau st
Ġau di
Ġda wn
ĠC athol
ĠC ambodia
ere i
Ġk n
Ġk ne
Ġk ennt
Ġk urze
Ġfor um
Ġfor tz
Ġfor ese
Ġden oun
ĠW ould
ĠW ulf
ĠW issens
ommiss ar
ĠV ision
ĠV ettern
ĠG ott
ĠG AP
um m
um en
de ck
Ġge forder
Ġge lesen
Ġge klÃ¤rt
Ġge zahlt
ier end
Ġim stande
Ġal beit
ĠH Ã¤n
ĠH och
ĠH ence
ĠH Ã¼ter
ĠH Ã¼rden
os ph
Ġst im
Ġst ay
Ġst ick
Ġst ating
Ġst ruck
Ġst orm
Ġst Ã¼tzen
ver hÃ¤lt
ver letz
Ġver sp
Ġver ste
Ġver gangen
Ġver spro
Ġver deut
Ġver weist
Ġver mitteln
Ġver mittelt
Ġver schaffen
Ġver bergen
Ġpro c
Ġpro secutor
Ġvon nÃ¶ten
est ablish
Ġer laub
Ġer hoben
Ġer richten
kt isch
kt iven
uld igen
ĠD anu
ĠD onau
Ġdas selbe
ĠUn fall
ĠUn ser
Ġnot ably
ble iben
ĠVer d
ĠVer w
ĠVer wertung
ĠVer gemeinschaft
sp unkte
sp otential
ĠL icht
ĠL ib
ĠL og
ĠL uft
ĠIn t
op fer
op ole
we chsel
ĠSt Ã¼ck
ĠSt Ã¤rke
end um
Ġex ternen
Ġse vent
be teil
be halt
be ugen
be wuÃŁtsein
Ġdem agog
Ġwill en
ĠZ ul
ĠZ ert
la ud
Ġle hnt
Ġmit zu
ah lung
Ġsh ape
qu ir
qu ately
Ġvor gestellt
err ungen
ungs instrument
Ġsich eren
Ġdo or
aus setzung
ru p
ad s
ĠÃ¼ber wie
ĠÃ¼ber arbeitet
Ġres ist
Ġres idents
ĠN etz
ĠN orm
ens ystem
ĠAn hang
ĠAn schluÃŁ
ĠAn na
ow enig
ges prÃ¤
ges undheit
Ġaus drÃ¼ck
Ġab gesch
Ġab uses
Ġab gebaut
ien sten
ĠAus kunft
ĠAus setzung
ĠAus Ã¼bung
ran ger
ab len
all ing
ot um
Ġsch ritt
Ġsch reibt
Ġsch reck
Ġsch ool
Ġdar zulegen
ip olitik
ip linary
ĠBe fore
ĠBe grÃ¼nd
ĠBe wuÃŁtsein
ĠBe urteilung
ĠJ ean
Ġent h
ste igen
ĠEr n
ĠEr wer
ĠEr gÃ¤n
ĠEr dbeben
Ġman geln
Ġman oeu
ĠmÃ¶ gen
ĠVor ruh
ĠO pport
ze igen
Ã¶r ungen
gr Ã¼nde
se ktors
Ġbet rie
her es
ical s
Ġapp laud
Ġad m
Ġad just
ĠIt s
Ã¤t igung
Ã¼hr end
Ġprop aganda
wer fen
Ġunter min
Ġste he
Ġste uer
reich er
reich te
Ġlike wise
ĠGe fÃ¼hl
Ġmore over
ĠGr enze
Ġexp er
Ġdurch fÃ¼hren
Ġdurch schnitt
Ġimp erative
Ġimp etus
Ġzw ingt
Ġpre limin
ĠEin e
ĠEin nahmen
glich er
Ġber Ã¼hrt
Ġcons ist
Ġcons isten
Ġcons ists
Ġgen Ã¼gen
ik ations
Ġhin nehmen
Ġwo zu
Ġwo fÃ¼r
uss ions
Ġnew sp
Ġiss uing
ĠMitgliedstaat es
fÃ¼hr te
Ġdec ades
teil te
tre m
Ġind ication
Ġind isp
Ġwar ning
Ġper mission
lan e
ĠEuropa wahl
ĠZusammen setzung
ring en
Ġfe ature
Ġfe atures
Ġho hem
ĠGrund freiheit
ĠÃĦ ng
fÃ¼r halten
Ġcar go
Ġins of
Ġfre ie
amp agne
ĠUm wel
Ġtra d
Ġtra vel
Ġtra ding
Ġend ing
Ġend ors
ĠZeit en
ĠVert iefung
Ġover r
Ġbeing s
ĠgroÃŁ zÃ¼
ĠBed ro
ĠBed auern
ame ter
Ġrel ativen
Ã¤nder ung
ĠUnter schied
Ġkon front
ĠÃĸ ffnung
Ġpoint ing
Ġgreat ly
ha ut
Ġthan king
Ġamend ing
Ġro oted
Ġfund ed
ĠRechts akte
Ġar men
Ġar bit
ĠGemeinschaft spolitiken
Der zeit
pro gramme
Ġwieder auf
Ġher gestellt
ĠHo ff
Ġhand ed
Ġstat ute
setz ungs
Ġsozial es
Ġpl us
Ġprocess ing
ĠSte uern
Ġref use
Ġref usal
Ġimmer hin
Ġange hen
Ġange hÃ¶ren
bes itzer
Ġweiter entwick
Ġac ted
ĠFinanz rahmen
ĠFinanz mÃ¤rkten
Ġger icht
Ġger inge
Ġlo y
Ġlo ck
Ġpla st
Ġpublic ly
Ġzwe ifel
klÃ¤r ungen
ĠGro ss
Ġatt ain
Ġget ragen
Ġobject ions
ĠKont akte
Ġbegr Ã¼nd
Ġbegr enzen
Ġbegr Ã¼nde
Ġevery where
ĠHin weise
gesch Ã¤
Ġgleich wohl
Ġser b
ines ischen
Ġreal en
Ġthro w
kehr en
ĠHer z
ĠHer stellung
Ġsicher gestellt
ĠVerantwort ungs
ĠKo alition
Ġfra gt
ĠBeh aupt
Ġwish ed
Ġintegr ate
Ġmention ing
Ġneg ativ
Ġausge fÃ¼hrt
Ġausge arbeitet
Ġgest attet
Ġopport un
ĠMon day
ĠMon opole
Ġsect ions
Ġprom oted
Ġval uable
Ġmin or
Ġmin imal
Ġcontrib utes
Ġcost ly
Ġgesch rieben
ĠFre und
ĠWettbewerbs behÃ¶rden
Ġbek annten
Ġ% ,
ĠMinister prÃ¤sident
Ġgef aÃŁt
stand ards
ĠBet rag
ĠGemeinschafts rechts
Ġele ktron
hol ders
ĠAl ternative
Ġgeb raucht
Ġgeb lieben
Ġgeb Ã¼hrend
ĠNe g
ĠFl ugh
ĠSozial istischen
ĠTeil nahme
Ġorgan ise
Ġorgan ising
ĠErgeb nissen
fÃ¤h ige
fÃ¤h iger
Ġextrem ism
Ġabs urd
Ġcolle ct
Ġsens ib
Ġsign al
Ġpositive ly
Ġbew Ã¤hr
Ġbew iesen
Ġregul atory
ĠWelt krieg
ĠGen uÃŁ
ĠGen ugt
Ġcor pus
Ġdep ends
Ġnegoti ation
Ġnegoti ate
org ungs
ĠVerwalt ungen
Ġaccord ed
Ġglob alen
ĠQu aestors
ĠRed nern
Ġkurz en
Ġoper ations
ĠHaushalts kontroll
Ġben utzen
itt ings
abhÃ¤ng igkeit
ĠBes uch
ĠCon federal
ĠMehr wert
Ġprevent ed
ep ing
Ġstatt gef
Ġlack s
Ġaddress ing
Ġexist iert
Ġworking s
ĠÃ¼br ig
Ġtr end
Ġconst raints
Ġpass ing
Ġoffen en
Ġans wers
ĠBesch reibung
ĠschlieÃŁ t
Ġpop ul
Ġann oun
Ġann ehm
ĠSub ventionen
schutz es
Ġocc up
Ġbeim essen
ĠStrukturfonds mittel
ĠZwe cke
Ġemploy ers
Ġplay ing
ĠWeiÃŁbuch s
ged acht
Ġeindeut ige
leit ung
Ġexperien ced
Ġjeder zeit
ĠDiskuss ions
Ġklein ere
Ġwenig stens
Ġschwier iger
Ġamb itions
Ġakt iven
ĠLiber ale
Pro jekte
vious ly
Ġbeit reten
Ġbeit rÃ¤gt
ĠOb viously
Ġrequest ing
Dar an
Ġant worten
Ġbear s
Ġemphas ised
Ġemphas ises
ĠVerbraucher politik
Ġwahr nehmen
Ġtreat ed
ĠBel astung
ĠWith in
Ġevent uelle
ĠBeschÃ¤ftigungs strategie
schreit en
ĠKap itel
Ġcoordin ated
Ġcover ing
ĠBeding ung
ĠVerbess erungen
Auf grund
wach stum
ĠKern waffen
Ġdef icien
.. .
Ġcontra st
ĠStadt entwicklung
ĠfÃ¼hr te
Ġthreat s
Ġthreat ens
Ġharmon ising
Ġrenew ables
ĠPlen ars
Ġfound ed
ĠverfÃ¼ g
Ġcivil isation
ĠVerwaltung spraxis
ĠRede beit
ĠWerte gemeinschaft
Ġbre ite
Ġbre aking
ĠbefÃ¼r chte
ĠbefÃ¼r worten
Ġlow est
Ã¼rz t
ĠDo ppel
ĠDemoc ratic
Ġirgend wel
Ġfast er
Ġfear s
Ġnachhalt ig
Ġinteress ieren
Ġprakt ik
Ġwater ways
Ġequ ip
ĠAuÃŁen minister
ĠAuÃŁen haut
Ġkrit ische
ĠProdu kte
Ġliber al
Ġliber alen
Ġindic ates
Ġindic ated
ĠObject ives
Ġlegitim acy
Ġobserv ation
Ġsur v
ĠWill ens
Ġjur istisch
ĠNational staaten
ott om
ĠSekt ors
ĠGeneral staats
ĠFischere ipolitik
Ġbeant wortet
Ġconv ince
Ġrefuge e
ĠQuest ions
Ġerneuer bare
Ġsuperv ise
ĠpersÃ¶n lichen
ĠpersÃ¶n liche
Ġincorpor ation
Ã¼t tel
ĠSchwer met
Ġfair ly
Ã¼nst ig
Ġprepar ations
Ġred und
ĠEinzel nen
ĠFlÃ¼cht lings
ĠvollstÃ¤nd igen
ĠBrÃ¼ssel er
ĠPosition en
Ġfort un
ĠVÃ¶lk ern
rÃ¤um t
ĠArgument en
Ġdifferen ce
Ġmonopol y
Ġaffect ing
ĠDa fÃ¼rhalten
Ġparagraph s
ĠSozialdemokrat ische
Ġbenachteil igt
Ġenterpr ise
bÃ¼r gern
Ġmis under
ĠKommun en
Ġumwelt schÃ¤d
Ġumwelt freund
ĠPalest ine
Ġemploye e
will ige
Ġkl ass
Ġtack ling
ĠVorbereit ungs
Ġimprovement s
Ġschwerwie gend
ĠVermittlungs verfahren
ĠEinwander er
Ġvo ters
ĠEC SC
ĠSer ben
ĠSer bs
spolit ischer
ĠStabilitÃ¤t spakt
Ġtarge ts
Ġpermit s
ĠGesprÃ¤ ch
Ġrestrict ions
meld ung
meld et
Ġwach sen
Ġlog ic
Ġabzu bauen
Ġsuffer ing
Ġoccur ring
Ġnormal erweise
ĠsÃ¤mt lichen
Ġunmittel bare
ĠSh ould
ĠMindest anforderungen
ĠMindest normen
ĠViel zahl
ĠInformations gesellschaft
ĠÃ¼bern immt
ĠEinsch Ã¤tzung
ĠVertra ulich
Unser er
Ġviol ence
Ġehrgeiz ig
Ġmand atory
ĠEG KS
ĠEreign is
Ġwithdra wn
Ġwithdra wal
Ġterritor ies
Ġdre w
Ġinitial ly
ash ion
ĠBlick wink
ĠDies er
ĠKohÃ¤sion spolitik
ĠfÃ¼ hlen
Ġgee ignet
Ġexem ptions
Ġwilling ness
ungsk osten
ĠBerat ungen
Ġapprec iation
lÃ¤ÃŁ t
ĠKontin ents
Ġformul iert
Ġhervorge ht
Ã¶p fen
ĠAuswahl kriterien
Ġberu hen
Ġtransfer red
ĠBetrie b
ĠAktionsp lÃ¤ne
Ġwidersp richt
zwe if
Ġadap ting
Ġproport ional
Ġquot as
Ġperspect ives
rep ublik
Ġfri endly
ĠAuss age
Ġentscheid et
Ġsubmit ting
ĠangekÃ¼nd igten
Ġflexib el
Ġreinfor ce
inst ag
Ġem ot
Ġem bar
Ġnah m
Ġeingeb unden
ĠVoll beschÃ¤ftigung
ĠUnions bÃ¼rger
Ġdepr ivation
Ġumfang reiche
Ġextra ordinary
ĠPrÃ¼f ungs
sc ale
Ġbezahl t
ĠWeiter entwicklung
ump ing
ĠVerl Ã¤ngerung
ĠAny one
Ġentail s
ĠBehinder ten
Ġmoder nen
ĠUnternehmer geist
ĠKompeten z
Ġdahin gehend
ĠspÃ¼r en
Ġenh anced
Ġappar ent
Ġappell ieren
strÃ¶ me
ĠErwÃ¤ gung
ĠNeu wagen
Ġeinger ichtet
ĠNachbar n
ĠAlli anz
ĠuneingeschrÃ¤n kt
Ġsk ills
Ġemb ra
ĠprÃ¤z ise
Ġangest reb
ĠImp ul
Ã¶konom ische
Ġexplo it
Ġaccomp any
Ġaccomp anied
Ġscra p
Ġdistort ions
ĠBevÃ¶lkerungs gruppen
Ġpostp oned
Ġinequal ity
ĠLuxem burg
jÃ¤hr igen
Ġdrug s
ĠbÃ¼rokrat ische
Ġinsp ir
Ġhop es
Ġreact ors
ambod scha
ĠFranz osen
ĠbekrÃ¤ft igt
Ġadvoc ate
Ġpotent ielle
Ġcontract s
Ġhorizont al
Ġfix ed
Ġcatastrop he
ĠEAG FL
ĠEAG GF
ĠgeschÃ¤ digten
ĠOrient ierung
Ġstren ge
Ġstren ger
ĠJahrzehn t
Ġoffiz iell
ĠÃ¶konom ischen
Ġrepeated ly
ĠAdri atic
ĠValent ine
ĠGefahrguttransp ort
Ġdynam ic
Ġfu el
Ġpill ar
Ġbeunruh igt
ĠMand ats
Ġreass ure
Ġgeleis tete
Ġprosec ution
Ġausgest attet
Ġabzusch lieÃŁen
ĠOber grenze
Ġconclud es
Ġspek ul
Ġincent ives
ĠgewÃ¼n scht
ĠFranc is
Ġqualifiz ierte
Ġacknowled ged
Ġfremdenfeind liche
KÃ¶n nen
Sol ange
dring lich
Ġhous ing
Ġunab ding
ĠTrag weite
Ġimag ine
ĠVern etzung
Ġdoppel wand
ĠVorgehens weisen
Ġdurchge fÃ¼hrten
Ġinterv ene
Ġeinzur ichten
Ġcorru ption
ĠVersicher ungs
Zwe i
stÃ¤d te
Ġcal c
ĠGelt ungsbereich
Ġimmen se
Ġjun ge
ĠAnmerk ungen
Ġabgere ichertem
ĠJac ques
ĠEntschÃ¤d igung
Ġgenere ll
Ġinterf ere
Ġrefle cted
ĠKonzep te
ĠPalÃ¤stinens er
Ġprivile ge
Ġkoordin iert
Ġentrepreneurs hip
Ġinfringe ment
Ġtre mend
Ġfres h
ĠBÃ¶ hm
meid ung
ĠabhÃ¤ng ig
ĠenttÃ¤us cht
ĠDezentr alisierung
Ġempfeh len
Ġlawy ers
ĠStraÃŁ burg
Ġretire ment
Ġmultif unction
ĠPeriod ischen
Ġdetaill ierten
ĠStraftat bestÃ¤nde
Ġgratul ieren
blow ers
eter in
het or
zusammen arbeit
Ġcouncil s
ĠBill ig
ĠUnregelmÃ¤ÃŁ igkeiten
ĠVerfolg ung
ĠLang zeit
ĠProte ction
ĠErneuer ung
ĠSchicks al
Ġherange zogen
Ġletzt lich
Ġirregular ities
ĠIndik atoren
ĠMehrheits entscheidungen
ĠAktions gruppen
ĠKlassifizierungs gesellschaften
Ġredist rib
Ġunverz ichtbar
ĠHafenstaaten kontrolle
Ġdictators hip
build ing
Mitglied staaten
Ġbeeinfl ussen
Ġfert ig
gewogen heit
Ġbewe gt
ĠRuÃŁ land
ĠCha ir
Ġverhe eren
ĠLank a
Ġsudden ly
Ġvorzusch lagen
ĠWei hn
ĠBefra chter
ĠErÃ¶ff nung
ĠplÃ¶tz lich
Ġwholehear tedly
ĠEmpfang s
Ġthreaten ed
ĠGedÃ¤cht nis
ĠPremier minister
ĠUNMI K
Ġgekenn zeichnet
Ġelectron ic
Ġmagnific ent
ĠhauptsÃ¤ch lich
Bek anntlich
Gest atten
Math ies
poll uter
wander ung
ÃĦ nder
Ġdign ity
stru ktion
Ġunfortun ate
ĠEben en
Ġziti ere
ĠAllt ag
ĠMiss ion
ĠTurn ing
ĠFour th
ĠVettern wirtschaft
Ġverspro chen
ĠDanu be
Ġmanoeu vre
ĠVorruh est
Ġprelimin ary
Ġconsisten cy
ĠGrundfreiheit en
Ġinsof ar
ĠbegrÃ¼nd et
ĠGenugt uung
Ġstattgef unden
Ġdeficien cies
ĠGeneralstaats an
ĠVertraulich keit
% ,
) ;
+ ,
. "
4 1
5 2
5 7
7 1
8 0
9 5
B B
B r
B is
B Ã¼r
C ulture
D anach
H O
I s
I hre
K on
L EADER
M en
M Ã¶
N az
R O
R at
S U
S omit
U E
U LT
V C
V ier
W U
W eiter
a f
a j
a be
a fen
b l
b ig
b uch
b ett
b ild
c ers
d is
d ie
d st
d ies
d ach
f iz
f ree
f Ã¶der
f aktor
g le
g red
h le
h om
h ed
h err
h Ã¤nd
h eld
k Ã¼
k omp
k rÃ¤fte
k anzler
l ang
l ene
l io
l assungen
m as
m el
m ach
m iÃŁ
n elle
n isses
o oth
p o
p read
r al
r ational
r ates
r ichtet
s ein
s hal
s lo
s ats
s debatte
t ung
t ure
t urn
u y
u ber
v a
v ol
v ings
w an
w ind
w ann
w iÃŁ
w issen
w unsch
w Ã¤hlten
x in
x on
y e
z ur
ª te
Â º
Ã ł
Ã ªte
Ġ 0
Ġ iron
er es
er te
in kt
in vest
Ġt Ã¤
Ġt end
Ġt ang
Ġt anks
Ġt ribute
Ġd ro
Ġd il
Ġd ying
on ing
on az
Ġth r
is ierungs
is ierte
Ġw om
Ġw ides
un ken
un icip
it es
it ts
Ġs al
Ġs il
Ġs ichtbar
at um
at ri
at tern
ie g
ie t
Ġthe oret
re f
re ie
re de
or es
an en
an teil
Ġb ere
Ġb ann
Ġb ottom
Ġo l
Ġo wing
Ġo mission
Ġo steurop
Ġin te
Ġin quir
Ġin gred
Ġm iÃŁ
Ġm ater
Ġm ix
Ġm unicip
al in
al an
ar ious
ar chie
Ġf eder
Ġf Ã¤hrt
Ġf roh
Ġf ashion
ent ieren
ent schlieÃŁung
st rom
st uff
st Ã¤tigkeiten
st hom
st ieg
Ġp an
Ġp hen
Ġp ict
Ġan schlieÃŁend
Ġan merken
Ġn a
Ġn ord
Ġc op
Ġc old
Ġh Ã¶rt
Ġh urd
Ġh ingenommen
Ġun p
Ġun w
Ġun we
Ġun ited
Ġun best
Ġun just
Ġun miÃŁ
Ã¼ ge
Ã¼ hm
Ã¤ be
Ã¤ che
Ġder eg
Ġv ulner
Ġbe ur
Ġbe ider
Ġbe fr
Ġbe hÃ¤lt
Ġbe zeichnen
Ġbe werten
Ġbe wirkt
Ġbe geg
as us
as ien
ĠE m
ĠE MU
us ive
ir g
ĠI V
ĠP rÃ¤s
ĠP fl
ĠP ower
ĠP VC
ÃŁ t
Ġz un
Ġz it
Ġz eich
ra els
ra cies
ĠA z
ĠA la
ĠA ri
ĠA ction
ĠA uge
ĠA raf
ĠA BB
em m
Ġein t
Ġein he
Ġein nehmen
Ġein leiten
ĠS port
ĠS pr
ĠS PÃĸ
Ġg reifen
ic kt
ĠM em
ĠM os
ĠM ainstreaming
eit ern
Ġre un
Ġre vers
am b
ĠB om
ĠB os
ĠB itte
ĠB uch
ĠB isk
ĠB ret
ĠB oth
ĠB oden
ul ating
ul led
ĠT wo
ĠT ibe
ĠT sats
sch te
sch lossen
sch iÃ¶
der ly
ĠK now
ĠK enntnisse
ĠK lein
ĠK ette
et Ãªte
Ġzu ver
Ġzu gewiesen
Ġzu stande
Ġzu weilen
gen z
gen der
Ġwh e
ber g
ĠR i
ĠR ent
ĠR est
ĠR ural
ĠF le
ĠF rÃ¼
ĠF ollow
Ġl os
Ġl aps
Ġl inking
Ġl Ã¤ngst
Ġl ernen
Ġl isted
Ġl ingu
Ġl Ã¤uft
il de
urop Ã¤
ĠC F
ĠC ould
ĠC olle
ĠC eder
ĠC any
ĠC SU
isch ung
Ġk g
Ġha v
ĠW es
ĠW ien
ĠW aren
ĠW WU
ĠW ye
ĠV Ã¶
ĠV ien
ĠV iertel
Ġwe igh
ĠG reat
ĠG iven
ĠG uter
ĠG omes
ĠG UE
um b
de z
de hnen
de hnung
Ġge Ã¤nderten
ĠU C
Ġal t
Ġso ul
ĠH ol
ĠH ekt
ĠH Ã¤nde
Ġcon temp
Ġcon fined
Ġcon junction
ben i
ce eding
Ġst ret
Ġst anden
Ġst range
ver ordnung
ver genz
Ġver weise
Ġver teilen
Ġver anker
Ġver pflichten
est s
ach ts
ach lÃ¤ss
Ġer a
Ġer heben
Ġauf s
Ġauf geb
Ġauf greifen
Ġauf hÃ¶ren
kt iv
uld ig
ĠD atum
Ġnot iced
Ġde ed
Ġde gre
ĠRe ich
ĠRe con
ĠRe eder
ĠRe alisierung
ĠRe aktionen
ĠVer he
ĠVer ordnungen
ĠVer lagerung
sp lan
sp rechend
pp t
ĠL ar
ĠL etzt
ĠL adies
ĠL Ã¼cken
ĠIn ner
Ġj ungen
op en
we ich
we ge
we ile
ĠSt re
ĠSt il
ay a
ant ra
rÃ¤ ger
be k
be w
be kÃ¤mpfung
be wegungen
Ġdem zufolge
Ġes c
Ġwill k
if eration
if teen
ĠZ weiten
la gt
Ġle ge
Ġle hnen
Ġle istet
Ã¼ber tragung
Ġmit unter
Ġmit tels
ah e
ah nen
ah nung
Ġsh ed
Ġsh ame
Ġsh ock
Ġsh oul
Ġsh aping
Ġsh adow
Ġr as
Ġr und
Ġr hetor
Ġvor geb
Ġvor gehen
ungs ausschuÃŁ
ungs behÃ¶rde
Ġdo ll
Ġdo pp
Ġdo ors
iti ver
ect or
igen de
igen ce
aus nahme
ĠPro zesses
ĠPro van
ĠPro zent
cht ungen
ru fen
ad ed
ĠÃ¼ber geben
ĠÃ¼ber mittelt
Ġres ulted
ĠN either
ĠN orthern
ens ions
ĠAn reg
ĠAn sehen
Ġma ster
Ġme chan
Ġaus s
Ġaus macht
Ġaus sehen
Ġaus wirkt
Ġaus gelÃ¶st
00 69
Ġab schlieÃŁ
Ġab gest
Ġab use
ĠEn th
ĠFra gestell
ĠFra ktions
ord nen
ĠAus sicht
ĠAus gewogenheit
ran s
Ġsch einen
ĠAr lene
Ġdar ing
ert y
ĠBe weise
ĠBe grenzung
ĠBe eintrÃ¤cht
ĠJ ordan
Ġent nehmen
Ġent ziehen
Ġent standen
Ġent zieht
ĠEr de
ĠEr leicht
ĠEr teilung
ĠEr rungen
ĠÃ ľ
Ġman aging
ne ll
ĠVor teil
ĠVor fÃ¤lle
ĠSch ein
ĠSch we
ĠSch ad
ĠSch lag
ĠSch ritten
ĠSch ande
ib lio
ĠO pt
ĠO slo
ze i
ĠEnt fern
ĠReg ions
Ġam erikanischen
Ġcomp la
Ġcomp atible
gr Ã¼nden
Ġour s
Ġpart ial
se ek
Ġsa vings
chen kt
her stellung
Ġfa ktisch
Ġnach gedacht
Ġapp lause
Ġapp ointed
Ġapp raisal
Ġad here
Ġ2 010
anz es
Ġag ieren
Ġprop erty
Ġqu oted
wer be
Ġdis reg
Ġunter halten
Ġunter einander
Ġconc ent
Ġste ckt
Ġste igern
Ġpos ed
Ġpos itiver
Ġob liegt
Ġfin ish
Ġfin ished
ĠAb stimm
ĠAb stimmungen
ĠGe werbe
ap ier
ject s
uch e
ĠGr Ã¶ÃŁ
lin ing
imm te
Ġco ex
pt ive
Ġpre dict
ĠEin stellung
ĠEin setzung
mer kt
Ġbes org
wo od
Ġch a
Ġch em
Ġch ain
Ġch inesischen
lic ation
Ġpr ime
wick lung
Ġges tellten
Ġges chenkt
ik er
Ġhin ein
Ġwo od
ystem e
Ġjust ify
Ġjust ification
Ġinter action
Ġup held
Ġout line
Ġout lines
Ġout lined
unkt ionen
ag n
ag on
ag ger
erv atives
Ġihr erseits
velop ed
Ġstr ic
ĠRecht ste
ĠRecht fert
fÃ¼hr bar
arbeit er
auf nahme
ett y
000 6
Ġra cial
lÃ¤ re
ĠRat ifizierung
Ġper cent
ĠDe bat
ov is
Ġhier her
ign ed
lan ge
Ġwork s
Ġla ut
ĠZusammen leben
ĠZusammen hÃ¤nge
iger lich
ange hÃ¶rige
Ġsub ordin
Dies en
Ġgew achsen
Ġgew ahrt
stell end
Ġfe ier
Ġfe wer
Ġbereit et
Ã¤ch sten
Ġwhen ever
Ġdire kten
ĠAuf wand
Ġemp fangen
ific ations
ĠMaÃŁ stab
ĠSo fort
Ġrep erc
ateg ory
ile mm
schie ben
Ġrel uct
Ġviel er
Ġrem ed
ĠUnter richtung
ĠUnter zeichnung
Ġkon zip
ha ven
ĠWh ether
Ġbelie f
ĠÃľber nahmen
ĠÃľber arbeitung
ĠÃľber legung
weis ungen
Ġ3 6
Ã¤h ig
Ã¤h nung
ĠInter ims
ĠInter ventions
Ġlie ben
Ġlie fert
fl ation
ĠRechts akt
ĠRechts ausschuÃŁ
Ġbest immen
ĠHa iders
Ġsystem atic
Ġsystem atically
pro grammen
Ġadd ing
ĠMen gen
Ġher unter
pe ople
ĠMad rid
min ent
Ġens hr
chn itten
ĠwÃ¼r d
Ġreform ing
Ġreform ed
Ġfinancial ly
olog ischen
fin itely
Ġhal b
Ġtwo fold
itz t
Ġange hÃ¶rt
ĠMittel zu
Ġweit est
Ġask s
Ġlo op
klÃ¤r ung
ĠErw Ã¤hnung
Ġput s
Ġresol ving
Ġconf used
Ġevery day
zug s
zug reifen
Ġ8 7
Ġ8 8
gesch rieben
Ġcontin ually
Ġcontin uation
Ġdemoc racies
Ġrespect ing
Ġest im
Ġbin den
Ġbring s
io xin
ĠOr te
ĠIs olation
ĠIs raels
aten ess
Ġsicher er
Ġpers ec
ĠDem onstr
Ġpra ise
Ġtrans it
Ġfind ings
Ġserv es
Ġintegr ieren
Ġverb rauch
Ġmain stream
Ġtun e
Ġprodu cing
Ġprodu ctive
ĠKon k
ĠKon vention
ĠKon vergenz
ĠTran che
Ġtechn ischer
Da fÃ¼r
ĠBerichterst attern
recht liche
Ein er
Ġrepresent ation
ĠGroup s
Ġstand ing
Ġwissen schaftlicher
ĠAut onom
Ġprom ises
ĠVerein igte
wirtschaft liche
ĠLebens bedingungen
Ġrecht fertigt
Ġrecht sextre
Ġkomm entieren
Ġbesonder er
ĠWettbewerbs bedingungen
ĠWettbewerbs kultur
Ġverst Ã¤rkten
Be ide
stand ard
ĠBet ween
Ġcommun ications
Ġcommun itisation
hol m
hol z
hol en
Ġav alan
ĠAl so
Ġgeb unden
Ġgeb aut
Ġgeb ildet
rÃ¤n ken
ĠNe ug
ĠNe uf
ĠNe xt
Ġhelp ed
ĠSp ann
ĠSp rachen
ĠSp itze
Ġfinanz ieren
Ġsm ooth
Ã¼b t
ĠFl ut
over ed
ĠBest Ã¤tigung
ĠzurÃ¼ck kommen
urz eln
Ġdel icate
isen berg
Ġerst mals
Ġel derly
Ġsign s
Ġfol glich
Ġvoll kommen
Ġadv ise
ĠEuro s
fÃ¤ llt
Ġbew ahren
ehm igungen
Ġpay ment
ĠZust and
Ġmeet s
Ġapplic ations
oint ment
ĠdÃ¼r ften
ĠAt t
ĠSy r
Ġappropri ateness
Ġdep endency
org ungskosten
eless ness
Ġje glicher
Ġ6 2
Ġdist ant
urf te
ĠHaushalts mittel
Ġdifferent iation
ĠBes onder
ĠBes itzstand
Ġ200 3
ĠDemokrat ien
ĠLebensmittel n
hÃ¶ hen
Ġbro ader
Ġ12 44
Ġcomple tion
ond o
Ġveh ement
Ġzusammen hÃ¤ngen
Ġzusammen fassen
Ġexist ieren
Ġapproach es
wÃ¤r ts
ĠFrieden sprozesses
ĠSchw Ã¤che
Ġmind s
Ġzahl reicher
Ġrev ised
Ġgel assen
ĠLÃ¶s ungs
ĠHe il
ĠHe ights
Ġmot iv
ĠVertrags Ã¤nderungen
Ġpass ieren
ĠWort laut
ĠWort meldung
Ġthird ly
Ġsy r
ĠWahl kre
spect ive
Ġmov ed
Ġpop ular
Ġann immt
ĠGleich behandlung
ĠEx trem
ĠEx xon
ĠInstrument s
ĠInstrument en
ĠInstrument ar
Ġbeim iÃŁt
Ġparticip ated
Aus schuÃŁ
best immung
Ġemploy ability
Ġperson nel
ĠKommissions dokument
ĠSchutz es
Ġ19 4
ĠGesetz geb
ĠhÃ¶ her
ĠSchiff s
less ness
Ġgenau er
Ġmult ilateral
Ġanaly se
Ġjud iciary
Ġjoint ly
Ġwenig sten
gar ant
ĠForm ulierung
Pro gramms
Ġcaus ing
Ġenter ing
200 5
Dar aus
Ġexam ined
ĠGew inn
ĠVerbraucher schutz
komm un
ĠBel ange
ĠGeld wÃ¤
Ġverl iert
Ġverl Ã¤ng
Ġschne llen
Ġliegen den
ĠGre mien
Ġanalys ieren
Ġfail ing
Ġvertreten en
Ġgener ations
ĠKern aufgaben
Ġerfolg te
ĠProt ocol
demokrat ischen
Ber eits
ĠunabhÃ¤ng iges
ĠSicht ver
Ġbeh err
ĠStadt politik
Ġturn ing
Ġturn out
Ġverw Ã¤ssern
ĠTibet an
ĠEntwicklungs strategien
Ġeinfach er
ĠAbsicht en
ĠAbsicht ser
010 6
010 8
Ġfore most
Ġbedeut enden
Ġbedeut ende
verb rauch
ĠverfÃ¼ gt
Ġdisp osed
Ġexclus ive
SE K
Ġclar ification
Ġrecon ciliation
ĠStahl bei
Ġeinzu halten
Ġeinzu bringen
ĠMont ag
Ã¼rz ung
ĠBezie hung
Ġirgend wann
Ġsuggest ion
under ing
ĠGed anke
Ġprof ile
Ġunterb rochen
ĠAuÃŁen grenzen
Ġkrit isieren
Ġstark es
Ġleft overs
Ġliber alisation
ĠSee verkehrs
ĠKapital steuer
Ġleben den
Ġcomb ined
ĠRats besch
ĠStraf rechts
Ġtotal itarian
ĠIm beni
ĠKraft fahr
ĠKraft stoff
Ġverab schiede
Ġconv ict
Ġextern e
ĠProtok olle
ĠDialog s
ĠVers orgungs
Ġanzu gehen
Ġnet working
Ġlange m
Ġspee ches
Ġbeschlossen en
ĠAugen merk
Ġavo ided
ĠhÃ¶ch ster
ĠhÃ¶ch stens
so zial
Ġinspect ors
ĠRess ort
ĠgeÃ¤uÃŁ erten
ĠRep ublik
Ġattemp ted
Ġangemessen er
Ġverd anken
ĠDritt staats
ĠDienstleistungs freiheit
bet roffen
Ġgeehr ten
ĠBeam ter
Ġeffizient en
ikan er
Ġdifferen z
Ġweltweit en
ĠÃ¤hn lichen
vert rag
ĠDa bei
Ġenfor ced
Ġgetroffen en
Ġhighl ights
ĠAltfahr zeug
Ġfulfil led
ĠKompromiÃŁ entschlieÃŁung
Ge gen
Ge wiÃŁ
Ġwid ely
ĠfÃ¶rder t
ĠChrist mas
Ġcondu cted
ĠOp fern
Ġremark able
ĠstÃ¤dt ische
08 1
Ġflo od
Ġcred it
Ġgra ve
ĠVerhÃ¤lt nisse
Ġorigin ally
ĠEnts orgungskosten
Ġhead ing
Ġhead way
Ġfacil ities
Wer den
Ġprofit s
ĠZivil isation
ĠZivil schutz
Ġ16 7
ĠGrenz regionen
ĠGrenz kontrollen
Ġefficient ly
ĠEntscheidungs strukturen
ĠEntscheidungs findung
ĠDÃ¤nemark s
Ġade quately
ĠBas que
Ġwealth y
ĠÃ¼berw inden
Ġschle chte
Ġschle chter
ĠendgÃ¼lt ig
Ġconflic ts
Ġversich ere
Ġinvestig ations
Ġhor r
Ġzul assen
Ġzul Ã¤ÃŁt
Ġverur teilt
Ġerk lÃ¤re
ĠStellen wert
Ġattach es
ĠAuto industrie
ĠVolks gesundheit
ĠgrundsÃ¤tz lichen
ĠZustÃ¤ndigkeit s
ĠSum men
ĠEuropÃ¤ ern
ĠEuropÃ¤ isches
Ġconstit uen
Ġehrgeiz igen
Ġbad ly
ĠSÃ¼ den
Ġrig id
Ġreserv es
Ġreserv ation
ĠKonfl ik
Ġdr ive
Ġsum mer
Ġsum mit
Ġzufrieden stellend
Ġverm ag
ĠRechnung sprÃ¼
gesetz te
gesetz gebung
Ġexplan ations
ĠLegal ausnahme
Ġignor iert
Ġsinnvoll er
hab t
ĠBundes kanzler
ĠGra d
ĠGip felt
Ġamt ierender
Ġcharter er
ĠCharakter s
orient ated
Ã¶p ft
ĠVal dez
Ġitalien ische
Ġdeep ly
ĠAnp assungs
ĠBeweis last
Ġquant itative
ĠGesamt fang
ĠBetrie be
fÃ¤ll igkeit
Ġleaders hip
ĠGewÃ¤hr ung
Ġcontradict ions
ĠGolan hÃ¶hen
ĠWohlstand s
Ġbr idge
Ġfrag wÃ¼rd
ĠLauf bahn
Ġjetz ige
Ġbegrenz te
Ġdiss atisf
Ġung erecht
Ġers uchen
Ġregular ly
Ġdisag ree
ĠMitglieds land
Ġindustrial ised
ĠSpek ulation
ĠSpek ulationen
Ġreinfor ced
ĠordnungsgemÃ¤ÃŁ en
Ġunge he
schuld igungen
Ġloss es
Ġkor rig
ĠHolz mann
ĠVerteid igungs
Ins besondere
Ġdiscip linary
Ġtaxpay er
ĠHindern is
Ġdepart ment
Ġumfang reich
Ġair port
Ġmilit Ã¤r
Ġbein halten
Ġgesellschaft liche
ĠStat ut
Ġleicht er
Ġrational e
Ġcompon ent
igkeits dauer
ĠAlban er
Ġmoder ne
Ġ198 9
Ġterritorial en
Ġdomin ant
Ġwrit e
Ġdauer hafte
ĠCor bett
Ġappar ently
Ġgegenseit igen
Ġgegenseit ige
Ġeinger Ã¤umt
Ġterror ist
Ġentreprene ur
van os
Ġwiden ed
Ġbir gt
Ġbir ds
Ġhar der
Ġzuges agt
Ã¶konom ischen
ĠDes pite
ĠVerst Ã¤rkung
sprÃ¼ che
Ġspan ischen
ĠVorgÃ¤n ge
cont in
Ġexplo itation
Ġgewalt ige
Ġtransition al
Ġundertaking s
ĠSardellen bestÃ¤nde
Hin zu
Hin sichtlich
Ġmach ine
ĠFlag gen
Ġverz erren
ĠErk enntnisse
Ġperipher y
Ġelimin ate
Ġpotent iellen
Ġinev itable
fle ge
ĠÃ¤lter en
ĠMeth ode
ĠDav id
Ġwert volle
008 7
ĠBefÃ¼r chtungen
ĠOrient ierungen
ĠJahrzehn ten
ĠVerantwortlichkeit en
Ġpreserv ing
ĠAdri a
Ġdescri be
Ġdescri ption
ĠValent instag
vereinbar ungen
ĠGefahrguttransp orte
Ġtemp orary
Ġbehin dern
ĠMand at
ĠHalb zeit
Ġverwe igert
ĠerÃ¶ff nen
Ġerfre ut
ĠErfordern isse
Ġconclud ing
Ġspek ulative
Ġbenef icial
Ġvereinbar ten
ĠzulÃ¤ss igen
Ġacknowled ges
ĠVerteidigung spolitik
ĠUnglÃ¼ck s
Ġvirt ue
Gem ein
Gem Ã¤ÃŁ
ris y
Ġtrag ic
Ġfried lichen
Ġhund red
Ġhund reds
Ġbeob achten
ĠEvery one
ĠBern d
ĠTor rey
Ġkosten los
Ġrass istische
ĠmaÃŁ geb
007 3
007 8
Ġfrequ ently
Ġrepla ced
ĠbegÃ¼nst igt
ĠSteu ers
Ġacqu ire
Ġachievement s
Ġpersu as
ĠTrans it
Ġbedauer lich
ĠIndust ry
ĠStrafverfolg ung
ĠRechenschaft spflicht
Ġwon ach
Ġberecht igt
ĠFÃ¤h igkeit
Ġkenn e
ĠGÃ¼lt igkeitsdauer
ĠInn ovation
ĠZuf all
Ġleit en
ĠAuseinander setzung
Ġcontrovers y
ĠGrÃ¼nd ung
Ġintoler able
Ġperpet rated
ĠQuoten Ã¼bertragung
Ġsynerg y
Ġzentralis ierten
Gebie t
ĠPrivat wirtschaft
ĠBedÃ¼rf nisse
Ġgriech ische
Richt linie
Ġarab ischen
Ġunannehm bar
ĠIM O
ĠTenden zen
Ġliter ature
Ġforg ot
ĠverzÃ¶ gert
Ġpredecess or
Ġprovis ional
Ġrepublic ans
ĠKoalitions regierung
ĠverschÃ¤r fen
Ġnahe zu
Ġearthqu akes
gro up
off s
Ġwro te
ĠED D
ulicher weise
ĠKategor ien
Ġleng th
ĠWÃ¤l der
Ġverring ern
Ġdesper ately
Ġjustit iellen
Ġtraged y
ĠGeneration en
ĠEnergieein spar
Ġhervorra gend
ĠStaatsangehÃ¶r igkeit
ĠRisikom anagement
Ġsuspend ed
Ġwiderspie gelt
Ġkrisen betroffen
Ġinhabit ants
Ġirrespons ible
Wicht ig
mak ers
zern e
Ġinapp ropri
Ġpled ges
ĠnÃ¼tz lich
Ġbekun den
Ġandern falls
emb ly
ĠCertain ly
Ġerled igt
ĠDu isenberg
ĠDikt atur
spek ulationen
ĠLiter atur
ĠStock holm
ĠNG Os
ĠNon etheless
Ġmanager ial
Ġquarter s
Ġcancel led
Ġalleg ations
Ġpron ounced
Ġrelig ious
Ġguard ian
Ġbeschleun igen
ĠRepresent ative
Ġswift ly
Ġdestroy ed
ĠBinnenwasserstra ÃŁen
Nord ic
habil itation
Ġessen ce
ĠtÃ¼rk ischen
Ġdrit ter
Ġswe eping
Ġebens owenig
ĠnÃ¶r dlichen
Ġhes it
Ġunl Ã¤ngst
Ġvent ure
ĠSup er
ĠTie fe
Ġzukunft s
ĠRÃ¼ckt ritt
Ġaudi ovis
Ġkne w
Ġfortz usetzen
Ġforese e
Ġgeforder ten
ĠHÃ¤n sch
ĠHÃ¼ter in
Ġerlaub t
ĠLib anon
ĠLog ik
Ġsevent h
beteil igung
Ġschritt weise
Ġenth us
ĠErgÃ¤n zung
Ġmangeln den
ĠEuropawahl en
Ġtrad itions
ĠBedro hung
Ġwiederauf genommen
ĠHoff nungen
Ġgericht liche
ĠGross etÃªte
ĠHaushaltskontroll ausschuÃŁ
ĠBlickwink el
ĠImpul se
Ġaccompany ing
Ġtremend ous
ĠWeihn achts
ĠGeneralstaatsan waltschaft
ULT U
dst own
mach ung
uy u
Ġwides pread
Ġinte lle
stuff s
Ġphen omen
Ġhurd les
Ġunwe igerlich
ĠPrÃ¤s id
ĠPfl anzen
ĠAla vanos
ĠAraf at
ĠBos n
ĠBisk aya
ĠTsats os
schiÃ¶ ld
ĠFollow ing
Ġlingu istic
ĠCeder schiÃ¶ld
ĠCany on
ĠVien na
Ġdegre es
ĠVerhe ugen
ĠLetzt besitzer
ĠInner es
seek ers
Ġcoex istence
ĠDebat ten
Ġreperc ussions
ilemm a
ĠGeldwÃ¤ sche
ĠGipfelt reffen
' .
. ,
1 5
7 5
7 7
A C
B ed
B eh
B itte
B ene
B isher
C omm
E L
F Ã¶rder
H Ã¶
I NTERREG
J US
M ich
N L
N ichts
P s
P rÃ¤sident
R ahmen
S e
S ov
U RBAN
V erehr
W ettbewerb
W Ã¤re
W eshalb
Z usammen
a ces
b re
b st
b Ã¼
b ies
b ran
b ack
b rech
b ased
b licken
c ro
c ency
d ate
d ated
d ds
e z
e ing
e bene
f est
f ungen
f ran
f ted
f lex
g te
g ig
g one
g uer
g ner
g ently
g barkeit
h te
h aÃŁ
h ulled
i ations
i ques
j ourn
j ordan
k ar
k ap
k lar
k bar
k osystem
k atalog
k ommissar
l or
l iment
m n
m ung
m utz
m Ã¤h
m aterial
m osph
n ie
n ten
n Ã¼gen
o id
o steuropa
p her
p assen
p aÃŁt
r ateg
r gy
s st
s erv
s ett
s inn
s ector
t r
t om
t able
u um
u ier
u led
u ondo
v iew
w s
w ith
w eren
w Ã¤hr
w arn
w Ã¤cht
y ards
z i
z if
z iel
z ard
z stan
z onen
z ahlung
z errungen
Ã ľ
Ġ ?
Ġ ord
en a
er ium
er zeugung
in ate
in ations
Ġt one
Ġt iger
Ġt ibet
Ġt ender
Ġt reffend
Ġt Ã¤glich
Ġd u
Ġd om
Ġd ub
Ġd read
Ġa st
on ial
Ġth res
is istan
Ġw ing
Ġw uÃŁ
Ġw under
un sicherheit
it ivity
Ġs qu
Ġs ine
Ġs elbstÃ¤nd
Ġs kept
Ġs ittings
at om
at ischer
at ches
ie den
Ġthe ory
re iz
re gelungen
or ate
an o
an ischen
an spruch
Ġb lie
Ġb og
Ġb rauch
Ġb udgets
Ġb old
Ġo dds
Ġin tell
Ġin folge
Ġm ic
Ġm ith
Ġm iÃŁb
Ġm igration
al ists
ro c
ro at
ar g
Ġf ill
Ġf ish
Ġf oss
Ġf esten
Ġf ifteen
Ġe he
ent wÃ¼r
st ock
st ums
le hr
le vel
le ments
le inst
Ġp ity
Ġp ure
Ġp ull
Ġp aÃŁt
Ġan k
Ġan scha
Ġan wend
Ġan schein
Ġan geschlossen
Ġan gere
Ġan stelle
Ġan stehenden
Ġan fangen
Ġan regen
Ġan nex
Ġan onym
Ġn ut
Ġn ament
Ġc rop
Ġc aut
Ġc odes
Ġc ategory
Ġh art
Ġun auf
Ġun gleich
Ġun recht
Ġun vereinbar
Ġun like
ge fÃ¤lligkeit
te ch
te chn
te ckt
Ã¤ le
Ã¤ gen
Ġdie d
Ġbe kennen
Ġbe lastet
Ġbe auft
ur ious
as ures
ll ige
ĠE t
ĠE qual
ir men
ĠI X
ĠI st
ĠI SP
ĠP l
ĠP est
ĠP ost
ĠP oll
ĠP otential
ĠP ranger
ig ere
Ġz Ã¶
Ġz ielen
ra int
ĠA ct
ĠA gency
em ed
em ik
Ġein halten
Ġein treten
Ġein bringen
ĠS omm
ĠS oc
ĠS ek
ĠS pe
ĠS org
ĠS pecial
ĠS AP
Ġg ot
Ġg aps
Ġg lÃ¼ck
Ġg ulf
Ġg reift
Ġg Ã¤be
ic able
ic ated
ic ans
ic ulous
ĠM art
ĠM ilit
eit ert
ut t
ut ive
Ġre ve
Ġre de
Ġre chten
Ġre actions
icht ung
am men
ol ved
ĠB or
ĠB eren
ĠB anken
ĠB AT
ĠB aute
ul ators
ĠT ad
ĠT ragen
ĠT ruppen
ĠT anks
ĠT itel
ĠT aj
ĠT Ãľ
sch ten
sch ungen
sch we
sch riften
sch arta
sch ikistan
el and
el iegen
ĠK omm
ĠK ore
ĠK asse
ĠK athol
ĠK rÃ¤ften
ĠK ambodscha
ĠK irg
ĠK ULTU
ĠK leinst
ct ory
Ġzu w
Ġzu zu
Ġzu erst
Ġzu geben
Ġzu erk
Ġzu gefÃ¼hrt
Ġzu wenden
Ġzu fÃ¤llig
Ġzu viel
ĠR Ã¶
ĠR ind
ĠR Ã©
ĠR IN
ĠF as
ĠF el
ĠF Ã¼r
ĠF ederal
ĠF Ã¶der
ĠF asc
Ġl od
Ġl ag
Ġl enken
il ian
urop Ã¤ische
Ġda uern
Ġk amen
Ġk Ã¼nd
Ġk illed
Ġk lingen
Ġden kt
Ġden omin
Ġha bit
Ġha zard
ĠW ende
ĠW ald
ĠW urzeln
Ġon to
ĠV eterin
Ġwe ckt
ĠG al
ĠG ene
um ischen
de cken
de veloped
Ġge ist
Ġge denken
Ġge teilt
Ġge meldet
Ġim minent
Ġso u
ĠTh rough
Ġcon vey
Ġst ich
Ġst ore
Ġst rik
Ġst amm
Ġst oÃŁen
Ġst ammen
ver sch
ver stand
ver zerrungen
Ġver wor
Ġver geben
Ġver voll
Ġver letz
Ġver arbeitenden
Ġpro l
Ġpro ceeding
est Ã¤nd
men gen
Ġer we
Ġer such
Ġer langen
Ġer dbeben
Ġer hielt
Ġer arbeiteten
Ġer bracht
ill i
Ġauf kommen
Ġauf geschlossen
Ġauf zeigen
and o
and al
and om
ĠD enn
ĠD amit
ess ions
ĠUn t
ĠUn less
Ġdes irable
Ġde ar
Ġde te
ĠRe ise
ĠVer un
ĠVer weis
ĠVer hin
ĠVer stoÃŁ
ĠVer hÃ¼tung
ĠVer pack
ĠL or
ĠL ord
ĠL ab
ĠL Ã¼cke
ĠIn tens
Ġj ahre
ate ll
ament ally
op er
ĠSt ill
ĠSt Ã¶rungen
ay ann
ant ab
ant rÃ¤ge
Ġex ha
Ġex emp
Ġex ceed
Ġex hib
Ġex agger
rÃ¤ glich
Ġse ktor
be zÃ¼glich
be wegung
be zogenen
Ġwill ens
if en
if unktional
ĠZ ut
ĠZ oll
ĠZ onen
la im
iv oc
iv liste
Ġy outh
lie hen
Ġall mÃ¤h
Ġsh o
Ġsh red
qu ivoc
Ġr um
Ġr ender
Ġr andom
Ġvor legt
Ġvor zustellen
Ġvor mittag
eh ow
our s
our se
ungs fÃ¤higkeit
ungs system
ungs maÃŁnahmen
ist ischer
Ġuns u
sen z
ri endly
ug nis
ĠPro v
ru he
ad a
ad mium
uf e
Ġres ur
Ġres ort
Ġres ident
ĠN et
ĠN utz
ĠN Ã¤he
ens able
ĠAn gel
ĠAn lagen
ĠAn kÃ¼nd
ĠAn schuldigungen
art igen
Ġma cro
gra ben
ges ucht
Ġaus zug
Ġaus genommen
Ġaus laufen
Ġaus schlieÃŁen
Ġaus machen
Ġreg lement
Ġreg istr
Ġum zu
Ġab gesetzt
Ġab trÃ¤
Ġab zusehen
Ġsp l
Ġsp ot
Ġsp ont
Ġsp ring
Ġsp rachen
ĠAus nahm
ĠAus dehnung
etz ungs
ran saktionen
up tz
ab stimmung
ahr ts
ot land
Ġthere of
Ġta pe
Ġsch Ã¶n
Ġsch lag
Ġsch Ã¤tzen
ĠAr me
Ġdar gestellt
Ġen act
ip fel
ĠBe wer
ĠBe antwortung
ĠBe wohner
ĠBe wegung
ĠJ a
ĠJ ourn
Ġent fern
ĠEr m
ĠEr be
ĠEr lÃ¤
ĠEr reichen
ĠEr bring
ĠEr laÃŁ
ĠEr zeugung
Ġman che
ĠVor ur
ĠVor sicht
ĠSch uld
ĠSch ule
ĠSch rift
ast en
ĠO st
ĠO il
ĠO ff
ĠO pp
Ġsie b
ĠEnt schlossen
Ġcomp osition
Ġcomp ound
gr Ã¶ÃŁ
se kret
Ġwor auf
Ġwor ried
her stellern
Ġli a
Ġhe ik
Ġnach teil
Ġad her
Ġus ually
ger ufen
Ġmein te
Ġcont am
Ġcont ents
Ġqu asi
wer ter
ount ain
zu heben
zu behalten
Ġunter ziehen
Ġbei zubehalten
Ġste igt
Ġste pped
Ġste ering
lo ad
Ġfin alised
ĠAb bruch
ĠGe geben
rit erium
ap ers
ap se
ap olit
ĠSie g
ub b
rat ors
staat liche
Ġexp ed
Ġdurch zusetzen
Ġinc omes
Ġimp osing
Ġimp ract
Das selbe
Ġpre ced
Ġpre cedent
ĠEin heits
Ġalle mal
ress ion
ĠComm unities
au c
au x
Ġber Ã¼hm
ĠArbeit geber
stit ute
Ġresp ected
Ġch ose
Ġch apter
ass ing
ik s
Ġhin reichend
ĠMitglied schaft
Ġout ra
lieÃŁ t
erv en
erv or
vern ehmen
are ly
Ġcount ing
Ġtran se
fÃ¼hr end
Ġnational ity
Ġdec ent
Ġdec iding
auf en
Ġmehr mals
Ġte am
fahr t
fahr ts
Ġind ik
000 3
ob bies
lÃ¤ nen
ĠRat her
Ġper mitted
Ġper missible
geb ildet
Ġhier mit
ak ed
Ġdam al
Ġdam aged
ign er
Ġwork place
Ġgr Ã¼n
Ġgr ass
alt ungen
Ġunser erseits
ange legenheit
ite ten
Ġsol ch
Ġsol ide
Dies bezÃ¼glich
stell te
stell ten
Ġho ff
Ġho her
Ġho ffentlich
ĠGrund vor
ĠGrund recht
Ġbereit zustellen
In ter
In zwischen
Ġfre ier
ĠWir d
ĠFor um
Ġtra ur
Ġprov o
ĠAuf schw
Ġend et
Ġend less
ĠZeit alter
Ġrep lies
Ġrep rÃ¤sent
ĠBere icherung
ĠVert rÃ¤gen
ĠSe g
inc ing
ĠBereich s
Ġinv ited
Ġinv itation
Ġrel iable
Ġass a
ĠAs ien
ĠAs ian
ĠUnter punkt
ĠÃĸ kosystem
zeit igen
ha fter
ĠWh atever
ĠÃľber nahme
ĠÃľber setzungs
Ġenv oy
Ġro t
Ġro ut
Ġro ute
nis er
Ġfund amentally
Ġlie ÃŁen
ĠAussch luÃŁ
fl ucht
ĠRechts ordnung
ĠKommissar s
ĠKommissar en
Ġar res
Ġar isen
Ġar ena
Ġbest and
zie h
ans ing
Ġmon ies
richt linie
Ġwhere ver
Ġwhere by
Ġeinz ig
Ġeinz ul
Ġeinz iger
Ġeinz umischen
Ġeconomic s
Ġwieder ver
Ġher um
Ġher be
fe kt
ĠHo he
Ġorder s
ĠBÃ¼rger me
min ute
ĠMin ute
ĠMin imum
ĠThem atik
Ã¶rder ungen
Ġreform ieren
ĠRahmen s
ĠRahmen programm
Ġlegisl ate
Ġsozial demokratischen
Ġbeg reifen
Ġbeg innt
Ġbeg nÃ¼gen
Ġur gently
Ġpl ants
Ġhal be
Ġdra fted
Ġmeas ured
itz ung
Ġange fangen
ĠSicherheit spolitik
ĠMittel b
ĠMenschen leben
Ġerw Ã¤gen
ĠFinanz hilfe
ĠFinanz verwaltung
Ġger Ã¼ckt
Ġlast ed
ĠErw eiter
199 7
Ġatt ract
ĠUmwelt sch
ĠUmwelt politik
ĠUmwelt bel
ĠUmwelt anforderungen
Ġsom ehow
Ġobject ion
ĠKont akt
red it
Ġdemoc rats
Ġrespect able
Ġgleich gÃ¼lt
Ġgleich berecht
fra me
fra ud
Ã¼hren de
ĠCh apter
ĠCh emik
ĠOr kan
Ã¤m mung
ĠArbeits losen
ĠArbeits lose
Ġlegal ity
ĠAm tes
Ã¤lt igung
ĠReform strategie
Ġindust rie
Ġwish ing
ĠMein ungsver
Ġverb reitet
Ġverb reite
spro gramms
ĠY outh
Ġinde finitely
ĠKon text
ĠKon struktion
ĠTran saktionen
Ġausge geben
Ġausge gangen
Ġausge legt
Ġausge zeichnet
Ġausge grenz
reg ion
Ġbesch rieben
Ġbesch reibt
Ġgest ure
Ġgest oÃŁen
Ġgest iegen
Ein erseits
Ã¶ÃŁ t
Ġnotwend igerweise
ĠVerein igung
weisen de
wirtschaft licher
mÃ¤ÃŁ igen
ĠQ ue
Ġcre ative
ĠStand ort
ĠStand ard
Ġklar gestellt
Ġklar machen
ĠWettbewerbs rechts
ĠWettbewerbs bericht
ĠWettbewerbs beschrÃ¤n
Ġ% .
Ġdeut licher
par tei
ret ariat
Ġgef aÃŁten
Ġsecond ary
Be im
Be vor
ban ken
ĠBet rÃ¤ge
ĠAusschuÃŁ mitglieder
Ġele ction
Ġanges ied
ĠLeit ung
Ġgut he
Ġgeb Ã¼hrende
ĠNe onaz
ĠSp rach
wirk end
Ġ7 0
Ġback ing
ĠSozial vers
ĠTeil ung
ĠBest immung
ĠBest reben
Ġword ing
Ġeinge treten
Ġ9 7
Ġ9 00
Ġdel iber
ĠÃ¤uÃŁ ert
Ġerst aun
Ġerst recken
Ġsens itivity
ĠFr ont
Ġvoll zogen
liegen den
Ġpract ically
zus prechen
ĠKultur politik
ĠPap ayann
Ġredu zieren
Ġless on
ĠGen der
Ġunderstand able
ennt nissen
Ġhuman ity
Ġerforder liche
Ġseiner zeit
Ġir ischen
Ġir rational
leist ungen
ĠSy mbol
ĠSy mpt
Ġappropri ately
Ġbusiness people
Ġdep loyed
Ġdep endence
ĠBr and
Ġbef ried
Ġbef ugt
Ġkurz er
Ġallgemein er
Ġ6 0
Ġdist ance
Ġdist ingu
Ġdist urb
Ġshow ed
Ġben ennen
Ġvorge geben
Ġintrodu ctory
Ġpres erve
hÃ¶ re
Ġbro aden
ĠMehr zahl
zuf ordern
Ġaddress es
Ġexist ierenden
Ġaddition ality
Ġzahl t
Ġprogress ive
Ġvorgesch rieben
ĠEntscheidung st
ĠEntscheidung sprozeÃŁ
hing ton
ĠKosten losigkeit
Ġple as
greif end
Hier zu
ĠHe ads
ĠWer den
ĠDurch schnitt
ĠDurch fÃ¼hrungs
ĠWieder herstellung
lÃ¤tz e
ĠWahl er
Ġaufge fÃ¼hrt
Ġaufge hoben
has en
Ġann ually
ĠRÃ¼ck stand
ĠRÃ¼ck gang
ĠRÃ¼ck forderung
ĠFort setzung
ĠWirtschafts zwe
ĠEnergie eff
schutz mittel
ĠInformation stechn
ĠZwe ifels
Ġwohl haben
Ġrefer endum
ĠkÃ¼nft iger
Ġsoc io
ĠInd ivid
ĠInd ones
Ġ19 3
Ġret ten
Ġexperien ces
Ġ14 0
Ġexpect ation
Ġklein er
Ġvern achlÃ¤ss
ĠSyri ans
ĠeuropÃ¤ isch
kon zentr
Ġmoment an
Ġbeit ritts
ĠOb dach
Ġzie he
Ġdisk rimin
ĠGew inne
ĠGew Ã¤ss
ĠGew Ã¤ssern
Ab gesehen
av al
ĠGeld geber
Ġbetroffen e
Ġevent uell
ĠIII A
jen ige
Ġsustain ed
Ġmod est
Ġrele ased
Ġteil genommen
Ġteil nehmen
Ġteil haben
Ġsolidar isch
ĠBeschÃ¤ftigungs fÃ¤higkeit
ĠBeschÃ¤ftigungs mÃ¶glichkeiten
ĠBeschÃ¤ftigungs fÃ¶rderung
eil en
bereit en
Ġcontain ing
Ġvert rauen
ĠInst abilitÃ¤t
Ġcover s
ĠEff ekte
ĠKern stÃ¼ck
Ġerfolg reichen
Ġwirksam es
Ġterm ed
Ġident ical
Ġfall ing
Ġbehand elten
ĠKommissionsprÃ¤sident en
Ġcontra vention
Ġdoubt ful
Ġerreicht en
laub nis
Ġarbeit s
Ġmodern ise
lud ing
ĠUr teile
Ġverw ende
Ġrepe ating
Ġtechnolog ischen
Ġtechnolog ische
Ġanswer ed
Ġdring en
Ġdring liche
Ġeinheit licher
Ġhim self
Ġentire ty
ĠGelegenheit en
frist ig
Ġbill ions
Ġbill igt
Ġpost ed
Ġrein en
verb Ã¤nden
ĠLin ke
Ġfocus ing
Ġclar ified
Ġconsequ ently
ĠStahl unternehmen
Ġcritic ise
Ġcritic ised
ĠRede zeit
mitted ly
Ġmor ality
ĠfrÃ¼ h
Ġbevor zug
ĠAlt aut
Ġinst all
Ġinst ruct
Ġstud ied
Ġersch weren
Ġmaintain ing
Ġincor rect
Ġinteress ante
oth ar
ĠAuÃŁen politik
Ġkrit isiert
Ġsech sten
Ġliber ty
Ġindic ate
Ġindic ations
ĠSee grenzen
ĠvernÃ¼nft igen
ĠvernÃ¼nft iger
ĠKapital verkehr
ĠKapital bewegungen
Ġche ap
Ġcla use
Ġcla uses
ĠPre ise
Ġcomment ing
Ġconsult ative
Ġconsult ations
ĠGrundsatz es
ĠVerwaltungs verfahren
Ġobserv atory
Ġhard ly
ĠTag ung
ĠNational ismus
ĠAsyl verfahren
Ġkonzentr iert
Ġeinges tellt
Nun mehr
Ã¤um e
Ġvis a
Ġconv incing
Ġentsprechend es
Ġaccording ly
Ġsuperv isory
Ġfunktion ierenden
Ġverantwort ungs
Ġverantwort lichen
ĠVers Ã¤um
Ġexcept ional
Ġprior i
Ġsignificant ly
liz it
Ġerheb lichen
Ġvorsch lÃ¤gt
Ġsteel works
ĠBestand teile
Ġune ase
Ġune quivoc
ĠAmer ika
ĠAmer icans
ĠDen k
ĠRep ubl
Ġinstitution elle
Ġangemessen en
ĠFlÃ¼cht lingen
ĠÃ¤uÃŁer te
ĠRisik ok
Ġec osystem
Ġpurs ued
Ġpurs uing
Ġreject ing
ĠTod es
Ġverd ienen
ĠDritt lÃ¤nder
Ġjudge d
ĠZus age
ĠZus agen
Ġregret table
ĠDec ision
ĠOrt uondo
Ġelig ibility
ĠPerson ally
ĠEind Ã¤mmung
Ġgeehr ter
Ġeffekt iver
ĠÃ¶kolog ischer
Ġaccep ts
Ġabsolut en
Ġsymp tom
Ġweltweit e
Ġaut onom
Ã¤us er
ĠSelbst gefÃ¤lligkeit
Ġgere chter
Ġrecyc elt
Ġerg reift
ĠDa zu
Ġjen em
Ġdisapp ointment
ĠMitarbeit ern
ĠEinsatz es
ĠBetrug s
ĠMiÃŁ verstÃ¤nd
ĠMiÃŁ management
ĠMiÃŁ verstÃ¤ndnis
ĠKommun ikations
Ġentsch uldigen
Ġtalk ed
plan ung
will ig
Ġwid ers
Ġwettbewerb spolitischen
Ġsinn volle
Ġkl ug
Ġenable d
ĠVorbereit ungen
ĠProjekt s
ĠstÃ¤dt ischer
Ġcut ting
ĠBeitritts verhandlungen
Ġsort s
Ġblo cks
Ġvo iced
ĠEC HO
Ġzunehmen d
Ġzunehmen den
Ġprofit able
spolit ische
Ġlearn ing
Ġlearn ed
ĠEntscheidungs bef
zeichne ten
ĠWohl fahrts
Ġclass ic
ĠFriedens gesprÃ¤
Ġbl ame
Ġintens iver
Ġintens ify
Ġpoll uter
Ġpoll uting
ĠÃ¼berw Ã¤ltigen
Ġunterschied lich
Ġinvestig ate
ĠInstanz en
ĠAccording ly
Wel ches
Ġeuro s
olid ierung
Ġlog isch
ĠWahr nehm
Ġerk enn
Ġerk annt
Ġerk ennt
Ġabzu geben
Ġcho ices
ĠAuto hersteller
Ġwonder ing
Ġunmittel baren
Ġconstit u
Ġauszu arbeiten
Ġappe als
Ġappe ared
Ġobtain ed
lÃ¤uf e
ĠUmfang s
ĠBesorg nisse
Ġehrgeiz ige
Ġehrgeiz iger
ĠAkte uren
Ġseek ers
ĠGeb rauch
Ġausgewogen es
ĠStaatsan walt
Ġult ra
ĠPflicht en
ĠSonder beauftragten
ĠInfrastruktur en
gesetz ten
ĠgenÃ¼ gt
Ġrail ways
Ġlangfrist ige
ĠEisen bahn
ĠSpiel regeln
ĠTA Os
Ġauft au
ĠCons ervative
ĠCons ervatives
Ġvorzu gehen
Ġvorzu beugen
ĠSchul z
Ġunterst reicht
Ġsubsid y
Ġsonst ige
laubwÃ¼rd ig
Ġentschlossen e
Ġtief greifenden
Ġtief greifende
Ã¶p fung
Ġdeep ening
ĠVorred nern
ĠbetrÃ¤cht lich
ĠbetrÃ¤cht lichen
ĠbetrÃ¤cht liche
Ġchar ges
fÃ¤ll igen
Ġoptim istisch
Ġwettbewerbs fÃ¤hig
ĠzusÃ¤tz lichen
Vert rag
li ance
verein fachung
Ġdiv ide
Ġdiv ided
Ġdiplom atischen
Ġfrag te
ĠKy rgy
Ġsole mn
Ġaufzu bauen
Ġvorrang ige
ĠTechn ik
ĠzukÃ¼nft ig
haus g
haus halt
Ġfri end
ĠWest jordan
ĠangekÃ¼nd igte
ĠSpek ulations
ĠZweck mÃ¤ÃŁigkeit
Ġinterpret iert
Ġfacilit ating
Ġvig orous
Ġkor rekt
Ġweaken ing
Ġsouth ern
Ġries igen
ĠJugend liche
Ġheav ily
Ġcoll apse
Ġumfang reichen
Ġsymbol ic
Ġoccasion ally
Ġbehaup tet
ĠKonflikt s
Ġcle ansing
ĠTra dition
ĠKre ise
Ġstabil ise
Ġverurs acht
Ġnear ly
ĠVersuch ung
Ġinsist ing
Ġapproxim ation
ĠursprÃ¼n glichen
Ġverbind lich
Ġeingere ichten
Ġcondition ality
Ġeinzelstaat liche
Ġgarant iert
Ġautom atically
Ġdomin ated
ĠregelmÃ¤ÃŁ igen
ĠCor pus
ĠGest alt
spe zif
ival ent
ĠspÃ¼r bar
Ġdisadvant age
Ġtele commun
Ġscand alous
Ġart icle
Ġattack ing
Ġparadox ical
Ġmittl ere
ĠSÃ¼d osteuropa
Ġkonstrukt ive
vorsitz enden
inter essen
Ġsinc ere
ĠpalÃ¤stinens ische
Ġangest rebt
Ġeinf ache
ĠFrei willigen
ĠFrei handels
ĠWicht iges
Ġvorbereit en
ĠVorbe halt
cont rol
Ġgenehm igen
Ġgesetz lichen
Ġdram atic
ĠStraft aten
Ġirre par
Ġpostp one
Art icle
jÃ¤hr ige
wesen heit
Ġdrop ped
ĠbÃ¼rokrat ischen
Ġhop ing
ĠKor rekt
Ġzuge hÃ¶rt
Ġlar ger
Ġverz ichten
ĠZentr en
ĠZentr um
Ġru led
ĠAusbildungs maÃŁnahmen
grÃ¼nd et
ĠAbÃ¤nder ungsantrÃ¤ge
Ġhinzu weisen
Ġbound aries
ĠbekrÃ¤ft igen
Ġelimin ating
Ġsimpl ify
Ġanticip ate
Ġanticip ated
ĠSicherheitsber atern
ĠRechnungshof es
ĠVizeprÃ¤sident in
Ġsel ber
Ġsel ts
Ġfru it
Ġfru cht
Ġzerst Ã¶rt
Ġzerst Ã¶ren
ĠSc otland
ĠShe pher
ĠgeschÃ¤ tz
ĠRad ikalen
Ġvertre t
Ġdeleg ates
ĠVerzÃ¶ gerung
Ġdrast ic
ĠKonsequ enz
Ġpreserv ation
Ġmensch liche
ĠEinwanderung spolitik
Ġsusp ic
AR D
Soll ten
Ġtemp er
Ġreich sten
ĠWas hington
Ġgeleis teten
Ġdiesel be
Ġverwe igern
ĠerÃ¶ff net
ĠInspekt ionen
ĠInspekt oren
Ġshift ing
ĠrÃ¼ck wirken
ĠrÃ¼ck wirkend
ĠErfordern issen
Ġtraff ick
Ġerweiter te
Ġgebill igten
Ġengag ieren
Ġmoral ische
Ġirgendein er
Ġirgendein em
ĠSubsidiaritÃ¤tsprinzip s
Ġslight ly
Ġslight est
Ġweakness es
Ġwitness ing
Ġwitness ed
Ġfremdenfeind lichen
Sol che
ĠfÃ¶der al
ĠMult ifunktional
ĠHuman ressourcen
ĠDringlichkeit sdebatte
Ġmitge wirkt
Ġdoppel te
Ġabol ish
Ġorient ieren
Ġstell te
Ġarg ue
Ġarg ued
Ġeinzur Ã¤umen
ĠFlug zeug
Ġcorru pt
ĠStrafverfolg ungsbehÃ¶rde
ĠVersicher ungen
gefÃ¤hr deten
ĠBerufs gruppen
ij s
stat us
Ġanhalten den
ĠEigent ums
ĠEigent Ã¼mer
ĠProp aganda
ĠPrÃ¤ senz
ĠFÃ¤h igkeiten
Ġlobby ing
ĠGÃ¼lt igkeit
ĠLo ire
Ġexec ution
ĠBew Ã¤ltigung
ĠErzeug er
cons um
Ġcontact s
Ġcontrovers ial
Ġintoler ance
ĠAmts zeit
Ġverschw inden
Ġvertra ut
Ġobligator ische
Ġdevast ated
Ġdevast ating
ĠAsylbewerber n
Ġabstain ed
Ġanspruchs vollen
Ġgriech ischen
Ġbra ve
ĠBran che
ĠHier archie
Ġvergleich baren
Ġprohib ited
ĠDifferen zen
ĠDifferen zierung
Ġsched uled
Ġexplos ions
Ġeuropa weiten
Ġbeseit igen
Ġbeseit igt
ĠRaumordnung spolitik
ĠAtlant ic
Ġjeopard ise
ĠVerhaltens weisen
ĠWerksto ffen
ĠWerksto ffe
)] .
disc iplinary
hel fen
meth ode
Ġster ben
ĠbÃ¼r gern
Ġpie ce
ĠBen achteil
ĠKandidaten lÃ¤nder
ĠKunst stoff
ĠGlÃ¼ck wunsch
Ġsto pped
Ġprospect s
Ġaufricht ig
ĠLoy alisten
ĠIndi a
Ġvorsicht ig
Ġcompar ison
Ġheim gesucht
wohn ern
Ġhierarch y
ĠTele kommun
Ġcorpor ations
ĠSynerg ie
Ġrelev ance
ĠGeschle cht
ĠVorausscha u
ĠLegitim ation
ĠbeschÃ¤ftigung spolitischen
Ġgradu ally
ĠVerstÃ¶ÃŁ e
Ġcertific ates
Ġhypoc risy
ĠTarifvert rÃ¤ge
ĠPosit ivliste
ĠGefÃ¤lligkeits flaggen
zum achen
Ġhosp ital
Ġunange messen
Ġgri ps
ĠTun nel
ĠTreib hausg
ĠkÃ¼mm ern
ĠGl as
Ġabz ielen
Ġcontroll er
Ġouts et
Ġdecre ase
ĠSech sten
Ġstatist ics
Ġattent ive
Ġgestr ichen
ĠeingeschrÃ¤n kt
Ġambigu ity
Ġvertie fen
Ġkontin uier
Ġsurpr ised
Ġunzul Ã¤ss
ĠfÃ¶rderungswÃ¼rd igen
Ġmittler weile
Ġpenalt ies
ĠDisziplinar verfahren
Ġkonsult ieren
Ġprejud ice
ias m
ĠÃ¶rt lichen
Ġdur ation
Ġsor ry
ĠEP P
ĠPop ul
Ġgather ing
ĠFÃ¼ lle
ĠFasch ismus
verletz ungen
Ġvergangen e
Ġproc laim
ĠVergemeinschaft ung
ĠInt oleranz
ĠZert ifik
ĠOpport unities
Ġbetrie bs
Ġuntermin ieren
Ġexper iment
Ġnewsp aper
Ġindisp ensable
ĠÃĦng ste
Ġoverr iding
ĠgroÃŁzÃ¼ gig
Ġkonfront iert
Ġarbit rary
Ġweiterentwick eln
Ġplast ic
geschÃ¤ fte
ĠFlugh afen
Ġannehm bar
Ġsurv ival
Ã¼ttel n
ĠVorbereitungs gruppe
Ġembar go
Ġmultifunction ality
ĠLangzeit arbeitslosigkeit
ÃĦnder ungsantrag
ĠFourth ly
ĠVorruhest ands
BÃ¼r ger
Is rael
Men schen
MÃ¶ chte
Vier tens
Weiter hin
komp lex
po che
Âº C
invest itionen
Ġbann ing
Ġol der
Ġosteurop Ã¤ischen
Ġmunicip al
ĠunmiÃŁ verstÃ¤ndlich
Ġdereg ulation
Ġvulner able
Ġbegeg nen
ĠBom ben
ĠBret agne
ĠTibe ter
Ġlaps es
ĠColle ge
Ġhav ens
ĠGuter res
ĠHol ocaust
Ġcontemp l
Ġveranker ten
ĠLar rea
bew uÃŁt
Ġwillk Ã¼rlich
Ġrhetor ic
ĠErleicht erung
Ġcompla cency
Ġbesorg niser
Ġstric ter
Ġsubordin ate
ĠSofort hilfe
Ġkonzip iert
Ġenshr ined
Ġweitest gehend
ĠKonk urr
ĠBesonder heiten
ĠHeil igen
garant ien
Ġconstituen cy
ĠGesamtfang menge
ĠHalbzeit bewertung
ĠEnergieeinspar ung
Ġinappropri ate
Ġphenomen on
Bene fit
JUS T
Sov iel
sett ing
warn system
Ġdub ious
Ġthres hold
Ġanwend bar
Ġanschein end
Ġcaut ious
ĠISP A
ĠPoll ution
ĠSorg falt
ĠBeren guer
ĠTad schikistan
ĠTaj ikistan
ĠTÃľ V
ĠKathol iken
ĠKirg isistan
ĠKULTU R
Ġzuerk annt
ĠRÃ© union
ĠRIN A
Ġdenomin ator
Ġhazard ous
ĠGene va
Ġstamm t
Ġverwor ren
Ġersuch e
Ġerdbeben gefÃ¤hrdeten
ĠVerhin derung
Ġexha ust
Ġexhib itions
ĠallmÃ¤h lich
ĠAusnahm ere
Ġschlag krÃ¤ft
ĠBewer ber
Ġentfern t
ĠErbring ung
ĠEntschlossen heit
Ġimpract icable
ĠGrundrecht scharta
ĠChemik alien
ĠMeinungsver schieden
ĠWettbewerbsbeschrÃ¤n kungen
ĠPapayann akis
ĠEnergieeff izienz
Ġbeitritts willigen
ĠGewÃ¤ss er
ĠFriedensgesprÃ¤ che
ĠWahrnehm ung
ĠKyrgy zstan
ĠShepher dstown
ĠMultifunktional itÃ¤t
! "
0 4
0 6
1 4
1 40
2 7
2 8
3 4
4 2
5 1
6 6
7 8
8 5
B IP
C EN
C hrist
D F
D ort
D enken
D anke
E F
E O
E ink
F O
F in
F all
F RE
F reie
G L
G es
H o
H aus
H uman
H arr
J Ã¸
K ein
K lar
L O
L Ã¤nder
M ainstreaming
N eben
N GL
P SE
Q u
R DF
S h
S ub
S eine
S emit
T T
U r
V erst
W F
W o
W or
W ann
Z ug
a ud
a ving
a fel
a unch
b all
b urs
b aut
b inden
c le
c ast
d ge
d ung
d ien
d Ã¤m
d ienste
e y
e per
f achen
f ache
f icial
f unktion
f aÃŁt
f riendly
g ie
g os
g iv
g igen
g ow
g ers
g ap
g reg
g ipfel
h y
h Ã¼
h ic
h ire
h ud
h lung
h ett
h erein
h arm
i am
i ance
i xt
i ority
k i
k ter
k ischen
k Ã¼nf
l Ã¶
l ust
l leg
l assung
l ichten
l Ã¸
m lung
m iÃŁbrauch
n Ã¤chst
n itt
o ok
o hne
o ij
p ers
p rang
p lÃ¤ne
p apier
p lÃ¤tze
r as
r gen
r and
r ischen
r ne
r ont
r ine
s y
s ided
s icherung
s ighted
t ime
t aaten
t afel
u pp
u ard
u ierung
u pport
u itÃ¤t
u kommen
v ar
v oured
w Ã¼
w ies
w ier
w est
w ahr
x as
y r
y le
y pr
z ig
z enten
z Ã¤hlt
£ o
Ã ¡
Ã £o
Ġ 99
Ġ Ã¼ben
Ġ 008
Ġ ordinary
er m
er z
er er
er in
er ated
er legen
er zeug
er atur
er usal
in i
in qu
in sel
in tens
Ġt on
Ġt ight
Ġt ree
Ġt Ã¤us
Ġt abling
Ġd ig
Ġd rag
Ġd uly
Ġd umping
ch o
ch st
ch air
ch mark
ch arakter
Ġa k
Ġa ro
Ġa pt
Ġa chtet
on our
on sten
on ents
es ystem
is ent
is ations
is tell
is ierten
is dom
is emit
Ġw ast
Ġw achen
Ġw ild
Ġw Ã¤chst
Ġw isdom
un n
un ich
un itÃ¤t
it in
it ations
it ally
it ology
Ġs icht
Ġs ah
Ġs eld
Ġs ales
Ġs itzen
Ġs inken
at on
at ient
at ibility
at Ã¼rk
at anen
ie ur
ie th
ie be
ie gel
re h
re gend
re formen
re ason
or a
or ter
or anz
or sel
or ously
ich ern
an nen
an lage
an wendung
an cing
ion ed
Ġb id
Ġb ol
Ġb la
Ġb ank
Ġb eschÃ¤
Ġb read
Ġb low
Ġb licken
Ġb arely
Ġo ben
Ġin nen
Ġin stances
Ġin herent
Ġin aug
Ġin cons
Ġm om
Ġm us
Ġm il
Ġm alt
Ġm org
Ġm iÃŁt
Ġm obil
Ġm Ã¤cht
Ġm ountain
al ed
al ise
al teten
ro v
ar der
ar ant
ar tet
ar ians
Ġf an
Ġf anden
Ġf itting
Ġf ished
Ġf asc
Ġf unktions
Ġf illed
Ġf Ã¼nften
Ġf rost
Ġe p
Ġe la
Ġe cho
st u
st es
st reichen
st ritten
st Ã¤nden
st hem
le b
le t
le id
le vant
Ġp etty
Ġan z
Ġan om
Ġan ger
Ġan zust
Ġan kommt
Ġan bieten
Ġan stehende
Ġn om
Ġn ir
Ġn utz
Ġn ennt
Ġn orth
Ġn uklear
Ġc ens
Ġc rimin
Ġc yc
Ġh i
Ġh y
Ġh Ã¼
Ġh ur
Ġh oc
Ġh ars
Ġh undert
Ġun um
Ġun ity
Ġun qu
Ġun aus
Ġun vor
Ġun gew
Ġun av
Ġun verstÃ¤ndlich
Ġun gefÃ¤hr
Ġun heil
Ġun real
Ġun amb
Ġun reason
ge he
Ã¼ m
Ã¼ ft
Ã¼ ne
te ip
Ã¤ ra
Ã¤ nen
Ã¤ her
Ġdie jenige
Ġder jenigen
om art
om ite
Ġv ary
Ġv ang
Ġv ested
Ġv ague
Ġv itally
Ġbe merk
Ġbe aut
Ġbe heben
Ġbe denkt
Ġbe merken
Ġbe denk
ur ies
ur teil
ur ances
ur atom
ll y
ing end
ĠE qu
ĠE xt
ĠE fter
ĠE val
ĠE poche
ĠE FRE
ĠE RDF
ĠE hud
ĠE uratom
Ġund en
us qu
us hing
ir ing
ir ds
ĠI gn
ĠI WF
ed e
ed enz
ed eration
ĠP R
ĠP lo
ĠP hasen
ig ers
ig ste
ig abe
Ġz ivil
ra d
ra ges
ra ine
ĠA ra
ĠA lex
ĠA lle
ĠA gent
ĠA DA
ĠA bend
ĠA DR
ĠA TT
em y
Ġein richten
Ġein mischen
Ġein treffen
ĠS E
ĠS al
ĠS om
ĠS ens
ĠS ain
ĠS achen
ĠS atz
ĠS ender
ĠS Ã¶der
ĠS amm
ĠS OL
ĠS pekt
ĠS Ã£o
Ġg ame
Ġg ift
Ġg ingen
Ġg Ã¼lt
ic ken
ĠM ust
ĠM Ã¼n
ĠM assen
ĠM ater
ĠM ade
ĠM erk
ĠM ode
ĠM anagement
ĠM unich
im ents
omm t
ut ers
ut ors
ut ting
ve lling
id em
id el
id et
id os
Ġre ine
Ġre aff
Ġre alisation
Ġre habilitation
ies t
am ed
am erikanischen
ol k
ol iber
ĠB i
ĠB re
ĠB ul
ĠB ow
ĠB rÃ¼
ĠB ruch
ĠB ureau
ĠB ahn
ĠB arr
ĠB iblio
ĠB usqu
ul ad
ten ance
ĠT ier
ĠT ake
ĠT anker
ĠT yp
ĠT ankers
ĠT omÃ©
sch ung
sch ub
sch iff
sch ritte
sch ancen
sch lÃ¤ge
sch Ã¶pfung
ter en
ter ung
ter min
ter dam
der te
der ing
der ed
el led
el zen
el ming
ĠK ind
ĠK ann
ĠK ost
ĠK au
ĠK lage
ĠK ale
ĠK unden
ĠK opf
ĠK omit
ĠK abin
ĠK antab
ĠK riterium
ĠK FO
ĠK omite
et ing
et ten
et rie
ct ual
Ġzu me
Ġzu grund
Ġzu hÃ¶ren
Ġzu zul
Ġzu wege
ber ichten
den burg
Ã¶ ch
Ã¶ pf
ĠR um
ĠR ang
ĠR ett
ĠR ack
ĠR over
ĠR unde
ĠR oy
ĠF F
ĠF a
ĠF laut
ĠF isheries
ĠF Ã¼nften
ĠF TE
Ġl en
Ġl it
Ġl anden
Ġl Ã¶st
Ġl Ã¤cher
il ing
il ation
il ungen
Ã¼r en
Ã¼r liche
ĠC as
ĠC am
ĠC ult
ĠC lin
ĠC ux
ĠC ypr
ĠC omart
Ġk ill
Ġk ings
Ġk Ã¶rper
Ġk Ã¤me
Ġwir kt
Ġden selben
Ġha ste
ĠW ann
ĠW omen
ein ster
ĠV I
ĠV is
ĠV an
ĠV eh
ĠV AT
ĠV otum
ĠV atanen
ĠV elzen
ĠG A
ĠG o
ĠG il
ĠG od
ĠG rupp
ĠG ulf
ĠG ehe
ĠG anzes
ĠG orsel
um ph
Ġge we
Ġge ord
Ġge ost
Ġge ared
Ġge messen
Ġge handelt
Ġge liefert
Ġge habt
Ġge hÃ¶re
Ġge grÃ¼ndet
ier ens
ĠU lt
ĠU EN
Ġim bal
Ġal ert
Ġal tern
ĠTh us
ff ens
Ġcon ce
Ġcon stitution
Ġcon ferences
Ġst ory
Ġst Ã¼nde
Ġst aunch
ver hÃ¼tung
ver meidung
Ġver ank
Ġver halten
Ġver ha
Ġver Ã¤ndern
Ġver ify
Ġver kÃ¼nd
Ġver hÃ¤ngt
Ġver handelt
Ġver bleiben
Ġver liehen
Ġpro mpt
Ġvon einander
ĠfÃ¼r chte
est ion
est uft
men istan
ach te
Ġer r
Ġer ad
Ġer wor
Ġer lau
Ġer stellt
Ġer mitteln
Ġer bringen
Ġer zeugt
Ġer reichte
Ġas c
ill ar
Ġauf z
Ġauf halten
Ġauf geben
Ġauf gestellt
Ġauf weist
Ġauf bringen
Ġauf zugreifen
and i
and elt
and ale
kt iver
ĠD ay
ĠD rei
ĠD eshalb
ĠD rug
ĠD ivers
ĠD aher
ĠD iensten
ĠUn recht
Ġnot ion
ive aus
Ġde utet
Ġde cken
Ġde grad
ĠRe v
ĠRe fer
ĠRe aktoren
ĠRe flex
ĠVer y
ĠVer sprechen
ĠVer dienst
ĠVer mÃ¶gen
ĠVer kauf
pp ich
ĠL ut
ĠL ann
ĠL ad
ĠL ichte
ĠL ande
ĠL obby
ĠL omÃ©
ĠL einster
ĠIn c
ĠIn gle
ĠIn flation
ĠIn anspruch
Ġj ung
ĠPar k
ĠPar ameter
th em
op eration
op fern
we ll
we ight
we ichen
ĠSt ad
ĠSt rom
ĠSt imm
ĠSt reichung
ant ly
ant ast
end em
end ium
Ġex ert
Ġse ism
be wuÃŁ
Ġdem nÃ¤chst
if ul
ĠZ er
ĠZ yp
ĠZ eilen
la p
la ble
la ger
la sten
Ġle b
Ã¤n ien
Ġy ield
Ġall iance
Ġsu ited
Ġsh op
Ġsh ell
Ġsh aring
qu em
ann ter
Ġr icher
Ġr ush
Ġr Ã¼tteln
Ġvor s
Ġvor ant
Ġvor Ã¼ber
Ġvor igen
Ġvor kommen
Ġvor geben
Ġvor gebracht
Ġvor sehen
Ġvor behalt
Ġvor dringlich
eh ung
ungs meldungen
Ġsich ere
Ġdo g
Ġuns atisf
ck ung
ck ten
ri um
und ing
und et
ug os
aus chen
aus stattung
ĠPro ca
ĠPro jects
ern t
ru it
ad ian
ad ays
ĠÃ¼ber mÃ¤ÃŁig
ĠÃ¼ber geordnete
ĠÃ¼ber see
ĠÃ¼ber lÃ¤ÃŁt
ĠN um
ĠN ik
ĠN ob
ĠN orth
ĠN orden
ĠN RO
ĠN apolit
ens ionen
ens werte
ens urate
ĠAn n
ĠAn s
ĠAn bet
ĠAn zeichen
ĠAn nex
ĠAn stieg
ĠAn reiz
Ġma k
oun ted
Ġme istern
gra de
gra ce
for ds
for schungen
ges tern
Ġcom itology
Ġaus gesch
Ġaus fÃ¼hren
Ġaus gebaut
Ġaus dehnen
Ġreg ain
Ġreg imes
00 66
Ġum geben
Ġum gangen
Ġum stritten
Ġab bauen
Ġab zeichnen
Ġab war
Ġab schaffen
Ġab hÃ¤ngen
Ġab gibt
Ġsp ect
Ġsp ends
Ġsp heres
ĠAus lÃ¤nder
ĠAus gabe
etz te
ran ce
ran sp
ab l
ab geordnete
ab geordneten
ahr ung
Ġta il
Ġta ught
Ġsch ein
Ġsch weigen
Ġsch nelle
ou d
ard o
ard ants
Ġdar k
Die jenigen
Ġen ger
ert in
ĠBe k
tern ativen
ĠJ u
ĠJ ack
ĠJ osp
Ġent n
Ġent senden
ĠEr hebung
Ġman chen
ne ten
ĠVor h
ĠVor ver
ĠVor fall
ĠVor teile
ĠSch atten
ĠSch eitern
ĠSch nell
ib i
ib r
ĠO z
ĠO ster
ĠO stens
ĠO hren
od y
ise ktor
ĠEnt schuld
ĠReg ulierung
Ã¶r ung
Ġcomp are
Ġcomp iled
Ġcomp lying
Ġcomp liance
Ġcomp atibility
ĠBer g
ĠBer ater
se as
Ġwor an
Ġbet rÃ¤gt
chen ke
ĠParliament ary
Ġhe ed
Ġfa ces
Ġfa voured
Ġnach ger
Ġnach weisen
Ġnach gÃ¤ng
esch iff
Ġad missible
Ġad journ
Ġus ers
Ġus ual
Ġ2 99
Ġag gress
Ġcomm ensurate
Ã¤r ung
ok es
ok ing
Ġqu a
Ġqu o
ute ly
wer ben
Ġdis contin
Ġdis grace
age ments
mp ath
zu halten
zu arbeiten
zu bringen
Ġunter m
Ġunter scheid
Ġunter scheiden
Ġunter liegt
Ġunter richten
Ġunter graben
ĠMit bÃ¼rgern
Ġob jekt
cc i
lo ÃŁ
Ġgro wn
Ġgro ss
oc ratic
ĠAb lauf
ĠAb weg
ĠAb schnitt
ĠGe bur
ĠGe fallen
ĠGe gner
fen ce
ĠSie d
Ġspe zial
ub ringen
rat ing
staat lichen
Ġexp osed
Ġexp lizit
Ġdurch setz
Ġdurch fÃ¼hrbar
Ġinc umb
Ġzw ingend
Ġpre d
Ġpre ference
Ġpre text
ĠEin reise
ĠEin leitung
ĠEin vernehmen
ĠEin wohnern
Ġwho lly
Ġ" ?
ional e
Ġber ufen
Ġint ent
ont iert
Ġcons c
Ġcons erv
rie bene
Ġbes prochen
Ġbes itzt
Ġgen et
Ġgen eration
Ġch ances
Ġpr Ã¼ft
yst er
ass es
ass oni
Ġges onder
Ġges undheit
ik o
Ġhin dern
iert es
och ten
usam ment
Ġwo von
Ġwo hnen
ystem s
Ġjust ifying
Ġinter ven
feren z
sam e
sam mlung
ag ten
Ġpe at
Ã¤hr ungs
Herr n
iz in
iz es
Ġstr ug
ĠRecht sextre
Ġtran che
arbeit ern
Ġnational es
erst ate
erst atter
Ġte uer
Ġte ilt
Ġacc used
Ġacc urate
fahr zeuge
000 7
Ġra re
Ġra ce
bar gos
lÃ¤ d
wir r
Ġper verse
Ġper fekt
ĠDe fiz
ĠDe fence
Ġtime frame
geb Ã¼hren
geb lieben
ov ationen
Ġany way
Ġwork er
Ġla undering
ek ut
ek odex
ĠZusammen kunft
ĠGemein der
Ġgr asp
Ġfact o
Ġsub sc
lement ierung
Ġsol ving
Dies em
Ġgew issen
Ġgew innt
Ġgew Ã¶hnlich
ĠGrund werten
Ġnow adays
In nen
In ner
Ġcar pet
Ġins ult
Ġfre ut
Ġfre und
Ġfre ige
ĠWir ken
ĠWir tschaften
ĠFor est
ĠUm stand
Ġtra in
Ġprov en
Ġprov in
Ġdire cted
ĠAuf sicht
ĠAuf lagen
ĠAuf stellung
ĠAuf wertung
ĠAuf enthalts
ĠAuf stock
ĠAuf schub
ific ial
alis ierten
ĠFin ance
Ġend s
Ġend ed
ĠSo ulad
ĠZeit ungsmeldungen
Ġrep orted
Ġrec ourse
Ġrec ruit
ries taaten
wort hy
ile g
Ġover wh
Ġover coming
Ġover seas
ĠSe eschiff
Ġregard ed
act ively
Ġmark s
ĠBed arf
stÃ¤nd ig
schie bung
Ġinv ested
Ġinv itations
Ġunder way
Ġunder line
Ġunder go
Ġunder lined
Ġoff ic
Ġass et
Ġass ert
Ġass ured
Ġwel coming
ĠEntwicklung spotential
ĠAs so
Ġsocial ists
ha el
Ġdiff ers
Ġgemein schaftlicher
Ġsc ene
land es
ĠWettbewerb sprinzip
ĠÃľber setzung
ĠÃľber leben
weis enden
Ġro ll
Ġro ugh
ĠInter esses
ĠInter ventionen
ĠAussch reib
fl ikt
fl Ã¼ss
ĠRechts etzung
ĠRechts system
ĠRechts hilfe
ĠRechts sachen
ĠRechts systems
ĠRechts ausschusses
ĠRechts kultur
ĠRechts systeme
ĠRechts unsicherheit
Ġar rog
Ġprincip ally
ĠGemeinschaft sprogrammen
Ġbest mÃ¶gliche
Ġbest rebt
Ġbest mÃ¶glichen
Ġbas kischen
Ġaid s
ĠHa uptz
ĠHa var
ĠHa arder
Ġtransp osed
Ġsystem atische
pro ben
Ġadd itions
mal en
Ġher ab
erg ie
ĠHo heits
hin dert
geord net
bie tet
Ġwirk ungsvoll
Ġhand lungs
Ġhand over
Ġrespons es
ĠBÃ¼rger Innen
Ġfest igen
Ġens ures
Ġwant ing
ĠMin istern
Ġanderen falls
ĠMaÃŁnahmen paket
Ġganz er
Ġganz em
halt igkeit
Ġthink s
Ġsozial politischen
Ġview point
Ġbeg leitet
Ġbeg leiten
Ġur ged
Ġur ging
olog ically
ĠTe xas
fin ancial
Ġhal ben
Ġprocess ed
Ġletz tes
Ġgemeinsam es
Ġspec ies
Frau en
vor stellungen
Ġange halten
Ġange legt
ĠMittel stand
ĠMenschen rechts
ĠFinanz minister
ĠFinanz ausstattung
Ġpla cing
Ġpublic ation
Ġpublic ised
Ġzwe ier
Ġzwe imal
ĠWirtschaft stÃ¤tigkeiten
urr ican
199 5
Ġconf irms
Ġconf ront
ĠUmwelt bereich
Ġmay be
Ġpar teip
Ġevery body
Ġ4 3
Ġ4 6
Ġ8 3
Ġ8 9
gehen der
Ġreal e
Ġfo ol
Ġwirtschaft s
ĠIs abel
ĠArbeits bedingungen
ĠArbeits dokument
ĠArbeits krÃ¤fte
Ã¤tz lichkeit
ĠHer an
rÃ¼ ch
ĠDem agog
Ġtrans c
Ġtrans f
lossen en
Ġhope fully
ĠMein ungen
ĠMein ungsaustausch
Ġ5 5
Ġ5 6
Ġ5 20
ĠPolitik ern
ĠPolitik fel
Ġintegr ierte
Ġverb r
Ġverb inden
ĠRegierungskonferenz en
Ġform elle
Ġtechn isch
Ġtechn ically
Ġneg lect
Ġausge glichen
Ġausge hÃ¶
Ġausge prÃ¤
Ġausge wÃ¤hlten
Ġbesch wicht
Ġbesch neiden
Ġbesch eiden
Ġrat sam
Ġrat ify
ĠKolleg ium
recht lich
Ġrepresent ing
ĠMon ats
Ġenlar ging
ĠAut ob
wirtschaft ung
Ġsec ured
Ġworld wide
Ġwirklich es
Ġrecht licher
qual ity
Ġprec ision
Ġgesch ickt
Ġgesch eitert
ĠFre igabe
Ġfavour able
eng ing
Ġklar er
Ġbesonder em
ĠWettbewerbs verzerrungen
Ġbek Ã¤mp
Ġbek ennt
Ġbek ommt
Ġbek undet
ĠErweiterung sprozeÃŁ
Ġbed ro
Ġbed acht
Ġbed ingt
ret ary
Be f
ĠBet rieben
Ġvers Ã¤umen
arm ace
Ġcommun aut
hol es
hol fen
hol ding
Ġanges etzt
Ġanges tellt
ĠAl b
ĠAl sthom
ĠAl ternativen
ĠlÃ¤nd licher
Ġproblem atisch
gew innen
rÃ¤n kungen
ĠNe uer
Ġ7 3
Ġ7 7
Ġfinanz ierten
Ġback s
Ġback ward
Ġback wards
ĠHand hab
ĠHand zeichen
order ung
ĠFl amm
Ġdown fall
ĠSozial part
ĠSozial modell
Ġincreas es
gre mium
ĠDisk rep
ĠzurÃ¼ck kehren
Ġeinge gangenen
Ġeinge fÃ¼hrte
Ġeinge dÃ¤m
Ġ9 2
Ġ9 3
Ġdel ight
Ġdel inqu
Ġgovern o
ichte te
ĠFr assoni
Ġrest ored
Ġrest oration
Ġess ent
Ġqual itative
Ġqual itativen
ĠauÃŁer gew
Ġvoll wert
Ġvoll zieht
ĠUms etzungs
Ġadv anced
raum es
ĠKultur en
ĠKultur er
Ġeing reifen
Ġeing estuft
Ġbew Ã¤hrt
Ġregul ated
Er st
Er weiterung
Ġredu ziert
ĠEnerg y
ĠSteuer politik
Ġunderstand s
ĠgehÃ¶r te
An statt
Ġvar iety
Ġstaat licher
Ġaccept ing
Ġir ische
ĠAt om
ĠAt omen
ĠAt atÃ¼rk
ĠSy mpath
Ġsuccess ive
ĠOrgan ismus
ĠBr un
Ġaccord s
kÃ¤mp ft
kÃ¤mp fen
ĠÃ¼b lich
ĠÃ¼b lichen
Ġbef reit
Ġbef Ã¶rdern
Ġbef Ã¶rdert
ĠQu elle
Ġcl ash
Ġentsprechen der
Ġ6 7
Ġ6 00
Ġdist in
Ġdist ressing
ĠMitte ilungen
Ġoper ativen
Ġben utzt
Ġben chmark
Ġeigen er
Ġvorge legte
ĠPal Ã¤stin
Ġpres idents
Ġpres upp
ĠCon stitution
Ġkle ines
Ġexc lude
Ġ200 5
ĠStandpunkt es
Ġbro ke
ĠMehr jahres
Ġrece ives
Ġ12 3
Ġ12 60
ĠRegel ungs
Ġstatt f
zuf riedenheit
ĠNach teil
ĠNach richt
ĠNach richten
ĠNach forschungen
ĠArbeitsp lan
Ġinvest ieren
Ġinvest iert
Ġapproach ing
aussch Ã¼sse
ĠSchw ar
vorsch rift
01 21
01 20
01 22
Ġgel itten
Ġ15 0
Ġdemand ed
Ġbestehen de
ĠHe ute
Ġavail ability
Ġclos ing
Ġhinaus lÃ¤uft
Ġpass ion
Ġcult ures
Ġsupp lies
ĠÃ¶ff nen
Ġsy n
Ġans onsten
ĠBesch leun
Ġaufge geben
Ġaufge fÃ¼hrten
Ġlead s
Ġsuff ice
Ġremain ed
ĠRÃ¼ck wirkung
ĠRÃ¼ck griff
ĠFort fÃ¼hrung
ĠGleich heit
ĠGleich zeitig
ĠWirtschafts struktur
ĠWirtschafts wachstum
wÃ¤rt ig
ls ruhe
Ġmar ine
ĠFe ira
Ġparticip ating
ĠZwe ideut
ĠAuff orderung
Ġhervor gehen
Ġhervor rufen
Ġhervor zuheben
Ġeindeut igen
ĠKommissions vorschlag
Ġschwer lich
Ġ19 57
ĠGesetz geber
ĠhÃ¶ re
Ġlang wier
Ġstress es
ĠSchiff se
leit ende
ĠMe x
ĠMe ÃŁ
ĠMe ere
ĠMe asures
Ġret ardants
ĠerklÃ¤r ten
app arat
Ġinform ing
Ġexpect ing
Ġgenau en
ĠVerbrauch ern
Ġversch lossenen
Ġwa ke
ĠSitz ungs
ifiz ierte
ĠJahres bericht
Ġakt iver
Ġopt imal
Ġbede utete
Ġconsum ption
ĠLiber alismus
Ġshort ly
Ġ10 5
Ġorganis ieren
Ġorganis ierte
Ġangenommen e
ĠBeitrag s
200 4
Dar auf
ĠPol ize
Ġzie ht
ĠZahl ungen
Ġemphas ising
Ġwahr zunehmen
ĠSol bes
Ġencour ages
Ġhol der
Ġhol iday
ĠGeld es
ĠDokument s
Ġassess ed
Ã© e
Ġmod ification
ĠMar ia
ĠMar itime
ĠTats achen
ĠHersteller verantwortung
ÂŃ ,
Ġcross ing
ĠKap az
ĠPart nern
Ġcoordin ating
Ġmer ger
ĠFest stellungen
Ġvert ical
Ġvert rag
ĠIntegr itÃ¤t
Ġfail s
Ġfail ures
Ġ25 0
Ġofficial ly
Ġremind s
Ġremind ed
ĠÃľberein kunft
ĠÃľberein kommens
Ġcent uries
Ġgener ous
Ġgener ated
Ġhistor isch
Ġhistor ical
ĠProt est
gang s
Ġwirksam en
Ġident ifying
Ġundert ook
Ġ20 25
Man chmal
ĠAktion sprogramms
ĠKar te
ĠKar lsruhe
ĠKomp on
Ġarbeit enden
Ġmodern isiert
ĠfÃ¼hr ten
ĠUr ban
Ġcongratul ating
ĠDire kt
Ġdemonstr iert
ĠIr lands
ĠPer ipher
ĠTibet ans
ĠEntwicklungs zusammenarbeit
ĠKommissionsmitglie ds
Ġharmon ische
Ġharmon ised
Ã¤ss erung
ĠPe king
ĠPe ace
ĠPe ijs
ĠBef ugnissen
ĠGegen wart
folgen den
Ġdiscrimin ated
ĠFrankreich s
ĠPrinzip s
Ġfore front
Ġpost s
Ġpress ing
ĠEs sex
ĠSach kenntnis
vers orgung
Ġdisp utes
Ġbegin s
SE C
Ġcritic ising
ĠfrÃ¼ here
Ġeinzu leiten
Ġeinzu binden
ĠRes ult
ĠZug estÃ¤nd
Ġconcentr ates
Ġangesprochen en
Ġvol at
ĠAd min
ĠAd olf
ĠMont real
Ã¼rz ungen
Ġersch wert
Ġersch Ã¼t
Ġersch Ã¶pfen
ĠerwÃ¤hn te
Gen ehmigung
gere chte
oy e
Ġsett lement
ĠGed uld
haft igkeit
ĠHaupt verantwortung
ĠHaupt stadt
Ġfolgen der
enzÃ¼berschreit ende
Ġwater ed
Ġwater way
Ġsatisf y
Ġeth ical
Ġequ ation
Ġequ ipped
Ġeingehen der
ĠTÃ¼r en
Ġerz ielten
Ġ11 0
ĠProdu ktion
ĠProdu zenten
Ġliber als
Ġliber alism
ĠSee verkehr
ĠSee fahrt
Ġimmigr ant
ĠKapital strÃ¶me
ding ton
go vern
ĠKl Ã¤rung
Ġdev ise
Ġdev ote
Ġcomb ine
Ġconsult ing
ĠRats verordnung
ĠVereinbar keit
ĠVerwaltungs vorschriften
ĠStrategie papier
Ġobserv ance
ott land
Ġeinges etzten
ĠGeneral sekret
ĠFischere isektor
Ġvict ory
Ġlive li
ĠLandwirtschaft s
21 07
21 08
21 10
Ġfunktion ierende
ĠVers ion
ĠVers Ã¶hnung
gebie ts
Ġernst hafte
Ġanzu bieten
Ġgeograph ischer
Ġerheb t
ĠSchengen er
ĠRichtlinien vorschlag
ĠRichtlinien entwÃ¼r
Ġconfirm ation
Ġpoor er
07 9
St aat
St immen
so unding
Ġune qual
llos en
ĠAmer ikaner
sens itive
Ġattemp ting
ĠFlÃ¼cht ling
ĠZus atz
ĠZus icherung
ĠZus Ã¤tzlichkeit
Ġ18 0
Ġregret ted
Ġauthor ise
Ġauthor isation
Ġauthor ising
bur ger
reif ens
Ġvi able
Ġvi ability
ĠKÃ¶n ige
ĠFunktion ierens
Ġstaff ing
Ġentgegen zu
Ġentgegen gesetzte
Ġcomprehens ible
Ġexplain s
ĠÃ¶kolog isch
Ġtransparent er
Ġbroad est
Ġehr lich
ĠSelbst verwaltung
Ġgere chten
Ġgere chnet
Ġrecyc lable
Ġstor ies
Ġprot agon
Ġjen es
Ġrecognis ing
ĠZugang s
Ġmis ery
Ġunz we
ĠMed ina
ĠMid lands
ĠKommun al
Ġumwelt polit
Ġcoast line
ĠEURO JUST
Ġwid est
Ġfl ame
ĠfÃ¶rder fÃ¤hig
Ġunver antwort
ĠSan ierung
uter ungen
ĠKons olidierung
Ġkl im
Ġtack led
ĠEinfluÃŁ nahme
Ġremember ed
Ġbald mÃ¶glich
ĠbeglÃ¼ckwÃ¼n sche
08 25
Ġcut s
Ġcred ible
ĠGel dern
ĠstÃ¤nd igen
Ġfacil ity
ĠVermittlungs verfahrens
ĠEinwander ern
Ġblo ÃŁ
Ġblo ÃŁe
Ġelement aren
Ġanerk annten
Ġvo llen
ĠEC U
ĠRap hael
Ġko oper
Ġsound s
Ġprofit ieren
Ġdeter rent
spolit isch
Ġvorh err
ĠFriedens abkommen
Ġinfrast ructural
03 41
03 52
Ġintens ive
ĠHÃ¶ chst
ĠInvest itions
Ġjoin ed
Ġschle chten
Ġunters agt
Ġunterschied licher
ĠGesprÃ¤ chen
Ġreturn ed
Ġwach senden
Ġhor se
schw ank
ĠKamp agne
Ġexerc ised
Ġexerc ising
Ġmittel fristig
ĠgrÃ¼nd liche
ĠAufbau werks
ĠVolks vertreter
ĠKriti ken
ĠStÃ¤dte entwicklung
Ġcondemn ation
ĠsÃ¤mt licher
Ġemer ges
ĠElement en
ĠSum me
ĠNieder schlag
Ġauszu Ã¼ben
ĠausfÃ¼hr te
Ġviol ation
Ġviol ate
Ġviol ated
uff olk
Ġtest s
Ġvess el
ĠVersch wendung
ĠGeb ot
ĠGeb raucht
ĠGeb Ã¤ude
Ġrecover ing
Ġgering eren
Ġawa its
Ġkompliz ierte
Ġult imate
Ġdr inking
gef aÃŁt
Ġtoler ate
Ġforget ting
Ġverm ieden
ĠverstÃ¤nd liche
ĠUntern ehm
Ġ24 96
Ġ37 0
ĠEntschlieÃŁungsantrag s
Ġlangfrist igen
ĠPartnerschaft s
Ġignor ance
ĠfÃ¼ llen
Ġbeabsicht ige
ĠSpiel raum
ĠBundes lÃ¤nder
ĠBundes regierung
ĠBundes republik
schn itts
Ġvorzu bereiten
ungsk ur
ĠBerat ungs
Ġcharter ers
lÃ¤ÃŁ lich
akte ure
Ġtradition ellen
Ġ35 0
Ġnatur gemÃ¤ÃŁ
ĠKontin uitÃ¤t
Ġrelationship s
Ġten ets
Ġcentr ally
Ġcentr alisation
ĠBy rne
ĠFÃ¶rder mittel
ĠFÃ¶rder fÃ¤higkeit
Ġverk Ã¼nden
Ġverk nÃ¼p
Ġverk aufen
ĠLa w
ĠjÃ¤hr lichen
ĠjÃ¤hr liche
Ġsepar ated
Ġquant ities
Ġquant itativen
Ġberu h
Ġmargin s
Ġmargin alisation
Ġmargin alised
Ġoptim alen
Ġoptim istic
Ġcontradict ory
Ġwidersp rÃ¼ch
Ġprofess ions
Reg ion
Ġwettbewerbs fÃ¤hige
Ġinfrastruct ures
ĠzusÃ¤tz lich
zwe ck
Ġdiplom atische
Ġbr and
Ġfrag ility
Ġfift y
Ġtour ist
igent Ã¼mer
spart nern
Ġvorrang igen
ĠÃ¼bertragen en
ĠBeruf ung
Ġadap ted
ĠDev isent
ĠHandlungs fÃ¤higkeit
ĠHandlungs spiel
Ġkonkret isieren
ĠDirector ates
Ġfront ier
Ġvorhanden e
ĠzukÃ¼nft ige
Ġeduc ational
Ġung laub
Ġung Ã¼nstig
ĠEigen schaft
ĠEigen mittel
ĠEigen initiative
Ġers ucht
ĠDis par
ĠDim ensionen
ĠMitentscheid ungsverfahren
Ġrespond ed
Ġarr ive
Ġreinfor cing
ĠGeneraldire ktionen
Bes itzstand
Ġunbe k
ĠMaterial ien
ĠVoll stre
ĠVoll endung
Ġerf assen
ĠÃ¼berein st
Ġdeclar ations
Ġrecord s
Ġrecord ed
Ġgeboten en
ĠPrÃ¼f dienst
Ġspeziell es
ĠRisiko bewertung
02 08
eff icient
eff ective
sc oreboard
zut reten
Ġtw ice
ente ilung
Ġeinsch rÃ¤nken
ĠKre is
ĠCan adian
ĠWeiter bildung
ump ed
Ġstabil ising
ĠergÃ¤n zt
ĠReicht ums
ĠZw angs
ĠÃ¼berzeugen de
ĠNor way
ĠNor wegen
Ġausger ichteten
ĠAustausch s
ĠGesam ts
ĠBehinder ung
Ġstandard ised
Ġmeaning ful
Ġ198 2
ĠfrÃ¼her er
Ġsorgf Ã¤ltigen
misch t
Ġfederal ist
Ġdahin ter
ĠCor k
Ġstri kt
Ġstri ke
ustr ation
spe ktion
ĠSto ffen
ĠErinn erungen
Ġgegenseit ig
ĠAss embly
Ġscand al
Ġart icles
Ġart ificial
Ġboost ing
ĠÃ¶ffentlich er
Ġattack s
ĠEntschlieÃŁungsentwurf s
Ġterror ists
Ġcheck ing
ĠPersonal politik
ĠDrogen abhÃ¤ngigkeit
ĠDevisen mÃ¤rkte
Ġmid dle
Ġfam ous
Ġemb ark
ĠEing riff
Ġretain ing
Ġdezentr ale
ĠVerletz ungen
Ġspan ische
Ġgesetz geber
Ġscra pped
Ġscra pping
Ġdram atischen
Ġminister ial
Ġirre levant
Ġafford ed
ĠKonsult ation
ĠKonsult ations
Ġbelong s
Ġschlimm sten
Ġmach bar
Ġreiter ated
Ġzugelassen en
ĠFern ando
Ġverz ichtet
ĠZentr alisierung
ĠNaz ism
ĠNaz ismus
Ġdarge legten
ĠErk ki
Ġfinn ische
ĠJahrtaus ends
Ġacquis itions
Ġelimin ated
Ġadvoc ating
Ġsimpl ification
Ġretro active
Ġretro actively
ĠKartell amt
ĠNiederlan de
Ġcharacter ised
Ġhorizont alen
fle isch
flag ge
ĠÃ¤lter e
Ġsel ben
Ġbarr ier
Ġpat ience
Ġcatastrop hic
ĠPak et
ĠSc oreboard
ĠShe ll
ĠRuss ian
Ġkost et
Ġkost eng
Ġkost spiel
002 6
002 8
008 3
ĠBefÃ¼r chtung
look ing
ĠSec retary
Ġremov ing
Ġdrast isch
Ġdrast ically
ĠYes terday
ĠBetracht ungen
Ġelect ric
ĠRegierungsche f
Ġadvant ages
Ġdetriment al
Ġmultip le
ĠGremium s
212 3
212 4
212 7
ĠhÃ¶chst em
Ġsusp ension
ĠdrÃ¤n gt
Ġpill ars
ĠMobil isierung
ĠTr ennung
ĠFus ions
Ġerfre ulicherweise
Ġresum ption
Ġabzusch affen
ĠAusmaÃŁ es
Ġincent ive
ĠgewÃ¼n schten
Ġowners hip
ĠzulÃ¤ss ig
berecht igung
Ġvirt ually
ĠverÃ¶ffent lichten
KÃ¶n nten
Trotz dem
Ġhous es
ĠSouth ern
ĠBo we
ĠBo ard
ĠBern ard
ĠTor f
ĠTrag Ã¶d
ĠRu iz
ffekt iv
Ġstake holders
Ġerleicht ert
Ġdeath s
Ġmitge teilt
Ġsuper ficial
Ġabol ished
Ġenor mer
Ġenjoy ed
ĠVorgehens weise
Ġstell ten
Ġinterv iew
Ġfrequ ent
Ġrepla cing
Ġarm ed
hilf ekodex
ĠbegÃ¼nst igten
finanz ierung
Ġacqu ired
ĠIndust riestaaten
ĠStadtviertel n
Ġbedeutsam en
Ġniedrig eren
ĠEinstimmigkeit sprinzip
Zwe ifellos
ba o
Ġtie fen
Ġtie fer
Ġdiver se
Ġslow ly
stÃ¤d ten
Ġanhalten de
Ġnorm ally
ĠPilot projekte
Ġsozio Ã¶konomischen
Ġstrukture ll
Ġstrukture lle
ĠDar stellung
Ġexec utive
ĠZuf riedenheit
ĠAnmerk ung
Ġmaxim al
ĠJac ob
ĠErzeug nisse
Ġberuf lichen
Ġberuf liche
Ġgenere llen
Ġperpet rators
Ġrefle ction
ĠzurÃ¼ckge gangen
ĠHilfs mittel
ĠWiederver wendung
ĠWiederver wertung
Ġmultinational s
Ġmultinational en
Ġfehl enden
Ġfehl ende
Recht s
ĠFehl verhalten
Gebie te
mon th
Ġtro op
Ġded icated
Ġbra ke
Ġeast ern
Ġcustom s
Ġhull s
Ġtouch es
ĠIM F
ĠApp ell
ĠBran denburg
ĠTenden z
schl Ã¼sse
ĠKan Ã¤le
Ġermut igend
ĠInnen minister
Ġvoranz ukommen
Ġvoranz ubringen
ĠAnzeige pflicht
ĠWechsel k
Ġsched ule
ĠVorab kontrolle
Ġpredecess ors
Ġeuropa weit
ĠCommun ist
ĠCommun ication
Ġassum ing
Ġassum ed
Ġwiederher stellen
Ġwiederher zustellen
ĠAmb ition
ĠAtlant ik
Ġvorgetragen en
Ġbuy er
ĠGleichstellungs fragen
ĠTerror ismus
Ġpriorit ise
ĠVerhaltens regeln
Ġgrav ierend
Ġadapt ation
Ġadapt ability
Ġearthqu ake
disc rimin
kund ig
meth oden
Ġtri umph
ane ously
Ġfle et
Ġearn ed
Ġpie ces
ĠprÃ¤sent ieren
ĠSÃ¤ uber
Ġreibungs lose
ĠBil anz
ĠBil bao
ĠLoy ola
ĠausschlieÃŁ liche
abin ets
Ġenl ist
Ġenl ighten
Ġenrich ing
Ġincomp atible
Ġprem ise
Ġprem ature
Ġperform ance
ĠAuft rÃ¤ge
ĠAuft reten
ĠSynerg ien
Ġverschle chtern
ĠGeschle chter
ĠVorausscha uen
ĠLegitim itÃ¤t
ĠTerritor ium
ĠTerritor iums
Ġgradu al
Ġradik al
Ġherrschen den
Ġstream s
Ġumgekehr t
ĠVerstÃ¶ÃŁ en
Ġcertific ate
Ġhypoc rit
ĠLegislativ vorschlag
ĠPosit ives
Gr enzÃ¼berschreitende
Jed och
iop ia
integr ation
Ġscept ical
Ġbar bar
Ġbrom inated
Ġce ase
Ġcol our
Ġhamp er
ĠEth iopia
ĠPf und
ĠPad an
ĠPad dington
ĠPrÃ¤z edenz
ĠAg ain
Ġeinseit ige
ĠMod elle
Ġzust immt
Ġzust imme
Ġvorn herein
Ġdoct ors
Ġdoct rine
ĠÃ¼bert rieben
ĠJur is
Ġentf alten
ĠErmitt lungen
ĠErmitt lungs
ĠErschein ungen
Ġprinzip iell
Ġjustif iable
Ġaccommod ate
Ġperce ive
Ġperce ived
ĠÃĦr z
Ġempf unden
Ġreput ation
Ġreput able
ĠÃĸlt anker
Ġlobens werte
Ġzweck mÃ¤ÃŁig
Ġzweifels frei
Ġzweifels ohne
Ġgetr ennt
Ġcontinu ity
ĠBeihilf ensystem
sproble m
ĠgrÃ¶ÃŁt mÃ¶gliche
Ġbewill igen
Ġpresc ri
Ġpresc ribed
ĠTurk ish
ĠTurk menistan
Ġunterbreite te
Ġunterbreite ten
ĠkohÃ¤r enten
Ġevalu ate
Ġillustr ate
ĠeinschlÃ¤ gige
Entscheid end
ĠKorru ption
ĠKorru ptions
Ġindirect ly
Ġapolog ise
ĠunnÃ¶t ig
ĠunnÃ¶t ige
ĠXXVIII th
bil den
netz es
Ġdoss iers
ĠsÃ¼ dlichen
Ġsad ly
orand um
anst altung
Ġfost er
Ġphas ing
ĠSelbstÃ¤nd igen
Ġrela unch
ĠTemp eratur
ĠRel ating
ĠRot terdam
ĠCathol ic
Ġkn app
verhÃ¤lt nisse
Ġverdeut licht
ĠVerw Ã¤sserung
Ġschreck lichen
ĠBegrÃ¼nd ung
ĠErwer bs
Ġadm ir
Ġconsist ently
Ġendors ement
Ġloy alists
Ġserb ischen
ĠBehaupt ungen
ĠNeg ativ
ĠbewÃ¤hr ten
Ġpopul ism
Ġannoun cement
Ġoccup ied
ĠDiskussions grundlage
ĠPlenars itzung
ĠverfÃ¼g baren
Ġirgendwel che
Ġequip ment
ĠSchwermet alle
Ġfortun ately
Ġwachsen de
Ġgeeignet es
Ġemot ional
Ġembra ce
Ġangestreb ten
Ġunabding bar
Ġdoppelwand ige
ĠBillig flaggen
ĠChair man
Ġverheeren den
ĠEmpfangs staat
Br Ã¼ssel
hÃ¤nd lern
shal l
wan dern
ĠtÃ¤ glichen
Ġtang ible
Ġwom Ã¶glich
Ġsil ence
Ġpict ure
Ġcop y
Ġunjust ified
Ġbefr iste
ĠAri ane
Ġeint ritt
ĠSpr ung
ĠMem orandum
Ġrevers ed
ĠKlein unternehmen
Ġwhe el
ĠFrÃ¼ h
ĠVÃ¶ gel
Ġweigh ing
ĠUC LAF
ĠHekt ar
Ġstret ched
Ġdeed s
open hagen
Ġdoll ar
Ġdopp elten
Ġabgest immte
ĠFragestell er
ĠBeeintrÃ¤cht igung
ĠErrungen schaften
ĠSchad holz
ĠOpt ionen
ĠEntfern ungen
Ġpartial ly
Ġconcent rated
ĠAbstimm ungs
Ġchem icals
ĠRechtfert igung
Ġvieler lei
Ġloop holes
ĠOrte ga
ĠDemonstr ation
Ġverbrauch er
ĠAutonom iebehÃ¶rde
Ġrechtsextre men
Ġavalan che
ĠNeuf ahr
Ġmotiv iert
ĠWahlkre is
ĠInstrumentar ium
ĠverlÃ¤ng ern
Ġbeherr scht
ĠAbsichtser klÃ¤rungen
ĠStahlbei hilfekodex
ĠRatsbesch luÃŁ
ĠKraftstoff verbrauch
Ġverabschiede ten
Ġdifferenz ierte
Gegen wÃ¤rtig
ĠZustÃ¤ndigkeits bereich
ĠRechnungsprÃ¼ fung
ĠAnpassungs fÃ¤higkeit
Ġentrepreneur ial
Ġforgot ten
Ġkrisenbetroffen en
Ġenthus iasm
Ġintelle ctual
HÃ¶ hen
Verehr te
bran che
mutz ungen
Ġtibet ischen
Ġast on
ĠwuÃŁ te
Ġskept isch
Ġbrauch e
Ġintell igent
arg on
Ġbeauft ragt
ĠSomm er
ĠSoc iety
eliegen den
ĠKomm ent
ĠKore a
ĠRÃ¶ mischen
ĠRind fleisch
ĠFas lane
Ġlod ged
ĠVeterin Ã¤ra
Ġstrik ten
versch mutzungen
Ġvervoll komm
Ġverletz en
Ġjahre lang
Ġexagger ated
Ġsho pping
Ġunsu ccess
Ġresur gence
ĠAngel illi
ĠabtrÃ¤ glich
ahrts organisation
ĠErlÃ¤ uterungen
ĠOff icial
ĠOpp osition
Ġadher ed
ĠGegeben heiten
ĠgrÃ¼n es
angelegenheit en
ĠGrundvor aussetzung
ĠAufschw ung
Ġrout ine
Ġeinzul aden
ĠBÃ¼rgerme ister
ĠMittelb indungen
ĠgleichgÃ¼lt ig
Ġverbreite ten
ĠSympt ome
ĠEntscheidungst rÃ¤ger
ĠWirtschaftszwe ig
ĠVersÃ¤um nis
Ġsymptom s
Ġautonom y
ĠMiÃŁverstÃ¤nd nissen
Ġtelecommun ications
control led
ĠrÃ¼ckwirken den
Ġtraffick ing
consum ing
ĠGeschlecht s
ĠGlas gow
ĠPopul ismus
ĠZertifik at
Ġexperiment al
ĠVorruhestands regelung
Menschen rechte
ĠAusnahmere gelungen
140 94
Fin anz
Ges tern
Harr is
JÃ¸ rgen
Zug leich
hett os
kÃ¼nf te
lÃ¸ n
prang ert
erusal em
intens ive
Ġton ight
Ġseld om
Ġincons istent
Ġmom ents
Ġmus ic
Ġmorg igen
Ġnir gend
Ġhars h
Ġunqu estion
Ġunamb igu
Ġunreason able
Ġvang uard
Ġbemerk enswert
ĠEqu ally
ĠEfter lÃ¸n
ĠEval uierung
ĠIgn oranz
ĠPlo oij
ĠAlex ander
ĠADA PT
ĠATT AC
ĠSain t
ĠSÃ¶der man
ĠBul gar
ĠBow is
ĠBarr ieren
ĠBusqu in
ĠKale idos
ĠKomit ologie
ĠKantab rischen
ĠKFO R
Ġzume ist
Ġzuzul assen
ĠRoy al
ĠFlaut re
ĠCult ural
ĠClin ton
ĠCux haven
ĠCypr us
ĠGrupp ierungen
ĠGehe im
Ġgeost rateg
Ġstaunch ly
Ġverank ert
ĠverkÃ¼nd et
Ġerwor ben
Ġerlau be
ĠDivers ifizierung
ĠLann oye
ĠLad ung
ĠIngle wood
ĠInanspruch nahme
ĠStad ium
ĠZyp ern
Ġvorbehalt los
Ġunsatisf actory
ĠProca cci
ĠÃ¼bersee ischen
ĠNik itin
ĠNapolit ano
ĠAnbet racht
fords hire
ĠJack son
ĠJosp in
ĠOster weiterung
ĠEntschuld igung
Ġnachger ade
Ġadjourn ed
Ġaggress ive
Ġunterscheid et
Ġincumb ent
Ġconserv ation
Inner halb
ĠAufstock ung
ĠSoulad akis
Ġoverwh elming
ĠSeeschiff ahrtsorganisation
ĠAsso zi
ĠAusschreib ungen
Ġparteip olit
ĠDemagog ie
ĠausgehÃ¶ hlt
armace ut
Ġcommunaut aire
ĠHandhab ung
ĠeingedÃ¤m mt
Ġdelinqu ency
ĠPalÃ¤stin a
Ġpresupp oses
ĠBeschleun igung
ĠZweideut igkeit
ĠPeripher ie
ĠProduzenten verantwortung
Ġliveli hood
ĠRichtlinienentwÃ¼r fe
Ġprotagon ists
Ġumweltpolit isch
Ġelectric ity
ĠPrÃ¤zedenz fall
JÃ¸rgen sen
+ .
. '
1 8
3 0
4 5
7 0
7 6
9 0
A S
A ff
B ere
B islang
D rei
E NT
E QUAL
F ort
F Ã¶rderung
G arant
I F
I t
I hren
J e
J eden
K ont
K ulture
K Ã¼nft
L einen
M or
M ar
N P
N ehmen
O der
O ffen
O TE
O ffens
P r
P ers
P olitik
P lan
P olitiken
P inochet
R es
R Ã¼ck
S S
S c
S ein
S icher
S ob
T e
T atsÃ¤ch
T AR
W eit
W omen
Z w
Z us
Z ahl
a id
a ill
a ub
a iled
b i
b em
b ul
b and
b nen
b ted
b stÃ¤nd
b els
b reitung
b orate
c er
c ore
c ow
c ope
c ury
c lass
d es
d ue
d igt
d isk
e i
e v
e ignet
f u
f our
f ish
f lÃ¤
f lichkeit
f ried
f Ã¶rdern
f ood
f inding
f ischung
f unktionen
g ten
g ain
g les
g yp
g ulierung
h our
h ist
h ause
h Ã¤nger
h ielten
h rough
h Ã¤user
i pp
i ates
i Ã¶s
i Ã¤ren
j o
k ly
k ind
k ungs
k olle
k au
k riminalitÃ¤t
k rÃ¤ften
k nÃ¼p
k Ã¤ufer
k Ã¤me
k asus
k uyu
l ong
l itten
l Ã¼sse
l Ã¶sen
m a
m ind
m itte
m ary
m atic
m achten
n ic
n erst
n els
n ehmer
n utzen
n iveaus
o ir
o pp
o ordin
p le
p ert
p rit
p rol
p ret
p ices
p osition
p otential
r t
r un
r end
r igen
r ieren
r ench
r ump
r ins
s a
s ort
s wert
s hip
s orge
s ho
s werten
s anforderungen
s runde
t t
t un
t an
t ok
t agung
u an
u ous
v ore
v able
v als
v ene
v iele
v otum
w a
w ig
w ord
w ater
w ende
w ache
y kl
y zentr
z er
z ungen
z ert
z one
z iger
z Ã¤h
z elf
Ġ )
Ġ ure
Ġ Ã¤r
en ommen
en iger
en cies
er b
er ver
er ischen
er op
er og
er halten
in et
in th
in dern
in iert
in stitut
in nung
in ating
in elessness
Ġt at
Ġt ar
Ġt em
Ġt ens
Ġt ide
Ġt rib
Ġt iny
Ġd un
Ġd im
Ġd up
Ġd ise
Ġd ritt
Ġd imin
Ġd ulden
Ġd ioxin
Ġd urfte
Ġd ilemma
ch it
ch est
ch th
ch ern
ch se
ch arta
Ġa ward
Ġa utor
Ġa erop
on st
on ik
es irable
is ite
is rael
is ively
Ġw re
Ġw al
Ġw ies
Ġw ahre
Ġw alten
Ġw Ã¶rt
Ġw Ã¤hlt
Ġw omit
Ġw undern
Ġw Ã¶ch
un ft
un tern
un gel
it a
it um
it els
it Ã¤re
it Ã¤ren
it ativ
Ġs in
Ġs me
Ġs lic
Ġs onder
Ġs enken
Ġs elten
Ġs orgt
Ġs inkt
Ġs idel
at te
at ant
at ore
at able
at ural
at enden
at isation
at aly
at tete
ie fer
ie vable
re ut
re den
re ht
re ts
re chten
re ckt
or ben
or ischen
or iz
or ated
ich s
an kt
an ad
an ger
an ierung
an cies
an alyse
an sprÃ¼che
an agements
Ġb ul
Ġb ind
Ġb ran
Ġb ab
Ġb lin
Ġb io
Ġb iod
Ġb attle
Ġo missions
Ġin j
Ġin und
Ġin ert
Ġin ne
Ġin con
Ġin ject
Ġin fin
Ġin ability
Ġm Ã¼
Ġm Ã¤n
Ġm ad
Ġm ine
Ġm ild
Ġm arkt
Ġm ale
Ġm ache
Ġm antra
Ġm ahnen
al ing
al zusch
al onik
ro hr
ar a
ar c
ar ten
ar ien
ar itÃ¤t
ar tete
ar rel
Ġf es
Ġf ung
Ġf em
Ġf ach
Ġf ern
Ġf ab
Ġf ahr
Ġf rat
Ġf lies
Ġf asch
Ġf lying
Ġf isher
Ġf atal
Ġf unktional
Ġf law
Ġf Ã¤hig
Ġf lieÃŁt
Ġe is
Ġe il
Ġe ase
Ġe kl
Ġe hren
Ġe bnen
Ġe wig
ent h
ent halten
ent eil
ent sprechend
st ung
st isch
st op
st igen
st anz
st reit
st atten
st Ã¤nde
st ift
st ehung
le um
le hnen
le chter
le ading
le iteten
Ġp in
Ġp rÃ¤
Ġp ad
Ġp urch
Ġp age
Ġp assen
Ġp lag
Ġp orn
Ġp apers
Ġp sy
Ġan im
Ġan sch
Ġan stellen
Ġan stehen
Ġan laufen
Ġan zusch
Ġan zul
Ġan fÃ¤lligen
Ġn ight
Ġn annte
Ġn Ã¤her
Ġc ra
Ġc um
Ġc ow
Ġc ry
Ġc ultur
Ġc urb
Ġc atches
Ġc admium
Ġh un
Ġh um
Ġh ieÃŁ
Ġh urrican
Ġun ent
Ġun us
Ġun ten
Ġun il
Ġun res
Ġun Ã¼ber
Ġun for
Ġun ert
Ġun lo
Ġun ite
Ġun wes
Ġun will
Ġun bel
Ġun its
Ġun akzept
Ġun laut
Ġun rent
Ġun law
Ġun controlled
ge ment
ge gangen
ge walt
ge gent
Ã¼ re
Ã¼ chte
Ã¼ tet
Ã¼ chtern
te lt
te ckten
te enth
Ã¤ men
Ġder og
Ġder selben
om etrie
Ġv e
Ġv age
Ġv oc
Ġv ac
Ġbe acht
Ġbe legt
Ġbe zogen
Ġbe eind
Ġbe isp
Ġbe Ã¤ngst
Ġbe achtet
Ġbe zweif
ur er
ur cht
ur ally
ur ring
ur ban
ur acy
ll igen
ing ly
ĠE M
ĠE W
ĠE c
ĠE le
ĠE ach
ĠE ls
ĠE gy
ĠE co
ĠE EF
Ġund urch
Ġund esirable
us ch
us halt
ir y
ir land
ir bt
ĠI cel
ĠI lleg
ed less
ĠP h
ĠP ur
ĠP olit
ĠP onn
ĠP hilosoph
ig ate
Ġz ag
Ġz Ã¤h
Ġz usamment
ra cted
ra cks
ĠA v
ĠA ber
ĠA uÃŁerdem
ĠA part
em in
em ble
em ember
em icy
Ġein k
Ġein s
Ġein druck
Ġein wand
Ġein dring
Ġein setzt
Ġein rÃ¤umt
Ġein dringlich
ĠS ich
ĠS ic
ĠS am
ĠS ow
ĠS lo
ĠS ov
ĠS zen
ĠS EC
ĠS itze
ĠS TAR
Ġg as
Ġg Ã¤n
Ġg ases
Ġg laub
Ġg alten
Ġg laubwÃ¼rdig
ic it
ic ide
ic ular
ic ism
ic iar
ĠM Ã¶
ĠM il
ĠM ind
ĠM ons
ĠM ak
ĠM ale
ĠM eld
ĠM AR
ĠM igration
ĠM ischung
eit e
ut ung
ut able
ut ala
id al
id ation
id ern
id ieren
id ance
id iert
Ġre lie
Ġre gel
Ġre cept
Ġre isen
Ġre organisation
Ġre lying
Ġre alisiert
Ġre dep
am s
am es
am ing
am bal
am burg
ol ve
ol ving
ol uted
ol onial
ĠB la
ĠB Ã¤n
ĠB ud
ĠB aum
ĠB lei
ĠB SP
ĠB ertin
rop er
ul a
ul ate
ul ierungen
ul anten
ĠT V
ĠT re
ĠT om
ĠT itels
sch er
sch es
sch ul
sch wer
sch Ã¼t
sch reck
sch Ã¤tzen
sch ungel
ter ed
el te
el be
el od
ĠK n
ĠK um
ĠK enn
ĠK rie
ĠK lagen
ĠK Ã¶rper
ĠK ammer
ĠK Ã¼rzung
ĠK enntnissen
ĠK indern
et ro
et itive
ct ure
Ġzu gehen
Ġzu genommen
Ġzu einander
gen au
gen merk
gen ehmigungen
ber n
ber t
ber at
Ã¶ te
Ã¶ ne
Ã¶ tet
Ã¶ hnen
Ã¶ cken
ĠR ese
ĠR ight
ĠR oll
ĠR assen
ĠR ound
ĠR Ã¤ume
ĠR emember
ĠF ein
ĠF ive
ĠF uÃŁ
ĠF ang
ĠF lieÃŁ
ĠF ischer
ĠF Ã¼ÃŁ
ĠF arm
ĠF licken
ĠF rost
ĠF unktionen
ĠF irmen
Ġl ic
Ġl Ã¤nder
Ġl Ã¤ng
Ġl ived
Ġl ands
Ġl osing
Ġl obbies
il ber
il ien
urop a
Ã¼r de
Ã¼r lichen
Ã¼r zen
ĠC and
ĠC he
ĠC urr
ĠC IP
ĠC roat
ĠC auc
ere gelung
ere gulierung
isch erei
Ġk ar
Ġk Ã¼
Ġk olle
Ġk alt
Ġk rimin
Ġk ultur
Ġk atastrop
Ġk raft
Ġk Ã¼nst
Ġk athol
Ġk anad
Ġwir ft
Ġden s
Ġden kbar
Ġha ften
Ġha ushalt
ĠW Ã¼n
ĠW ass
ĠW elle
ĠW andlung
ĠW andels
ly mp
Ġno body
ein igt
ĠV ielen
ĠV EU
ĠV arious
ĠV OTE
Ġwe hren
ĠG F
ĠG I
ĠG eh
ĠG ood
ĠG ieÃŁ
ĠG NP
um n
um me
um ens
um ption
de hnt
Ġge ts
Ġge fahren
Ġge lob
Ġge folgt
Ġge fÃ¼hrten
Ġge wertet
Ġge deckt
Ġge teilte
Ġge kÃ¤mpft
Ġge einigt
ier bar
ier barkeit
ier endes
ort ion
Ġal ia
Ġso ft
ĠTh ess
ĠTh ough
ĠTh ree
ĠH u
ĠH ar
ĠH ung
ĠH ist
ĠH imm
ĠH under
ĠH Ã¤nden
ĠH onour
ĠH emicy
os o
Ġcon form
Ġcon vers
Ġcon ventions
ce an
ce ability
Ġst ab
Ġst ages
Ġst reichen
Ġst reicht
Ġst Ã¼nden
Ġst agn
Ġst Ã¶ÃŁt
ver ing
ver mÃ¶gen
ver lust
ver sammlung
Ġver ant
Ġver Ã¤nder
Ġver wert
Ġver nehmen
Ġver heer
Ġver schlieÃŁen
Ġver bieten
Ġver zei
Ġver grÃ¶ÃŁ
Ġver helfen
Ġver alteten
ft igsten
est ic
est one
est altung
ach es
Ġer od
Ġer gangen
Ġer legt
Ġer gre
Ġer langt
Ġer teile
Ġer achtet
Ġer mittelt
Ġer rungen
Ġer gebnis
Ġer teilte
Ġer werben
Ġer hielten
Ġer litten
ill t
ill ing
ill age
ust rated
Ġauf gesch
Ġauf recht
Ġauf weisen
Ġauf passen
and ten
kt oren
kt Ã¼re
ĠD am
ĠD ort
ĠD utz
ĠD ritte
ĠD oss
ĠD isc
ĠD isp
ĠD iplom
ĠD DR
ĠD anach
ĠD ioxin
ĠD ilemma
ĠD unn
ĠD schungel
ĠD eregulierung
ĠUn be
ĠUn fÃ¤higkeit
ĠUn fÃ¤llen
ĠUn klar
ĠUn zufriedenheit
Ġnot ify
ble ib
Ġne ut
Ġne oliber
Ġdes k
Ġde als
Ġde emed
Ġde eper
ĠRe ichen
ĠRe ading
ĠVer se
ĠVer fe
ĠVer zug
ĠVer wert
ĠVer laub
ĠVer urteilung
ĠVer Ã¶d
ĠVer wertungs
ĠVer meidung
ĠVer wirr
ĠVer schiebung
ĠVer knÃ¼p
sp rÃ¤
sp err
sp Ã¤t
sp ec
sp flege
sp annen
pp y
ident ally
ĠL eh
ĠL eiter
ĠL etzten
ĠL othar
ke ep
ĠIn halts
ĠIn gang
ĠIn haft
ĠIn halte
ĠIn kompetenz
ĠIn spektion
Ġj apan
ĠPar adox
th al
th iop
Ġwer ten
Ġwer ter
we glich
we igerung
ĠSt art
ĠSt aff
ĠSt olz
ĠSt alin
ay ment
ant ic
end id
Ġex ze
Ġex ile
Ġex ac
Ġex akt
Ġex akten
rÃ¤ uch
Ġse ll
Ġse ats
Ġse arch
Ġse lling
be g
be an
be am
be ten
be vÃ¶lk
be griff
be utung
Ġdem ontiert
Ġdem entsprechend
Ġes te
if ies
if ted
if Ã¼hren
if iable
ĠZ it
ĠZ erst
ĠZ one
ĠZ iff
ĠZ ehn
la ining
iv ierung
iv itÃ¤ten
nen prinzip
Ġle id
Ġle ug
Ġle ap
Ġle bens
Ġle ichten
Ã¼ber greifenden
Ã¼ber greifende
Ġmit z
Ġmit ein
Ġmit arbeiten
Ġmit machen
Ã¤n ge
lie fern
lie derung
Ġall ay
Ġsu it
Ġsu itably
ah ost
Ġr ie
Ġr Ã¼
Ġr ust
Ġr uss
Ġr ating
Ġr iver
Ġr ushing
Ġvor erst
Ġvor stell
Ġvor bei
Ġvor lÃ¤uf
Ġvor wÃ¤rts
Ġvor gestern
eh er
eh nisse
our ce
our ish
ungs arbeiten
ungs mÃ¶glichkeiten
ungs quoten
ungs fÃ¤higer
ist ance
ist rat
ect s
ect ure
und s
ug ung
ĠPro m
ĠPro gress
ĠPro dis
ern ing
cht igung
ru d
ru ckt
ad em
ad et
ad ded
ĠÃ¼ber st
ĠÃ¼ber sch
ĠÃ¼ber ze
ĠÃ¼ber arbeit
ĠÃ¼ber arbeiten
ĠÃ¼ber sehen
ĠÃ¼ber bieten
ĠÃ¼ber lastet
ĠÃ¼ber mÃ¤ÃŁigen
Ġres ts
Ġres erve
ĠN O
ĠN ur
ĠN ein
ĠN enn
ĠN Ã¤hr
ĠN one
ĠN uclear
ĠN ahost
ens ing
ĠAn meld
ĠAn wachsen
ĠAn steigen
ĠAn mel
ĠAn wesenheit
ĠAn hÃ¤nger
ow eit
Ġme ag
ĠWe igerung
for est
for ward
Ġpol izei
Ġpol yc
Ġpol yzentr
Ġcom fort
Ġaus nah
Ġaus gestellt
Ġaus zufÃ¼hren
Ġaus lÃ¤nd
Ġaus weiten
Ġaus senden
Ġaus gibt
Ġaus zusprechen
Ġaus pices
Ġat mosph
Ġwie gt
Ġwie viele
Ġum s
Ġum hin
Ġum gehen
Ġab ide
Ġab zusetzen
Ġab schw
Ġab schlieÃŁen
Ġab zustimmen
Ġab hÃ¤ngt
Ġab wandern
ĠFra chte
Ġsp ace
Ġsp ots
Ġsp lit
Ġsp okes
Ġsp inelessness
Ġsp illage
ord s
ĠAus land
ĠAus fÃ¼hrung
ĠAus wertung
ĠAus stellungen
ĠAus richtungen
ĠAus wirkung
ĠAus stattung
ĠAus gestaltung
ĠAus wÃ¼
ĠAus beutung
heit lich
heit lichung
etz ungsverfahren
ab ler
ab kommens
all enging
ot te
Ġor chest
beit rag
enn e
Ġta ct
Ġsch uld
Ġsch ien
Ġsch Ã¤r
Ġsch Ã¤nd
Ġsch uldig
ard ed
ĠAr m
ĠAr ch
Ġen gen
Ġen ables
Ġen emy
ip t
ip ro
ult ures
ult aneously
ĠBe leg
ĠBe vor
ĠBe weg
ĠBe wegungen
ĠBe kenntnis
ĠBe wertungs
ĠBe leid
ĠBe wirtschaftung
tern al
ĠJ e
ĠJ erusalem
Ġent fer
Ġent lassen
Ġent stehenden
Ġent gegent
ste uern
ĠEr st
ĠEr schlieÃŁung
ĠEr laubnis
ne g
ne id
ĠVor lagen
ĠVor zug
ĠVor reit
ĠVor feld
ĠVor zeichen
ĠSch e
ĠSch lieÃŁ
ĠSch recken
ĠSch nitt
ĠSch ottland
ib bean
ĠO l
ĠO ptions
ĠO steuropa
ĠO lymp
ĠParlament sprÃ¤sident
ige minute
od izes
ĠEnt g
ĠEnt last
ĠEnt weder
ĠEnt lassungen
ĠEnt stehung
ĠReg ieren
ĠReg ime
ĠReg ulations
Ġam erikan
Ġam ounted
Ġcomp r
Ġcomp ass
Ġcomp osed
Ġcomp lies
Ġcomp lied
Ġcomp uter
Ġcomp rise
Ġcomp lim
Ġcomp liment
Ġsa w
Ġsa ving
Ġsa ves
Ġsa fest
Ġwor ries
ition al
Ġbet ragen
Ġbet reibt
Ġbet raf
Ġhe iÃŁ
Ġhe bt
Ġhe ighten
Ġfa c
Ġfa ult
Ġnach weis
Ġnach geben
Ġnach frage
Ġnach drÃ¼ck
Ġnach kommt
Ġnach geordnete
Ġnach gekommen
Ġnach folgenden
Ġapp alling
ative ly
Ġad vers
Ġad vert
Ġad verse
form ed
Ġbeen den
anz ig
anz igsten
con stitutional
con sider
ost et
ick et
ud able
Ã¤t te
Ã¤t ig
ms los
ok ultur
Ġmein erseits
Ġqu aestors
Ġqu arrel
ute ilen
wer den
wer ken
Ġdis ability
Ġdis gu
Ġdis burs
Ġdis integration
ount able
zu geben
Ġunter zogen
Ġunter stellt
Ġunter entwick
Ġunter worfen
Ġunter richtet
Ġconc essions
ĠMit verantwortung
out s
Ġste er
Ġste ad
Ġste ms
Ġste cken
Ġste uert
Ġpos e
reich enden
lo c
Ġfin ishing
oc ultures
ĠAb m
ĠAb ove
ĠAb hilfe
ĠAb sÃ¤tze
ĠAb gabe
ĠAb wÃ¤
ĠAb wicklung
ĠAb schreck
ĠGe ometrie
ĠSie b
uch ung
ts anierung
Ġneed y
ider laufen
Ġnoch mal
staat licher
Ġexp l
Ġexp orted
Ġexp ires
Ġexp ired
Ġexp lore
Ġexp elled
Ġexp iry
Ġexp laining
Ġdurch greifende
Ġdurch gÃ¤ng
imm er
Ġinc in
Ġinc ompeten
Ġinc idents
Ġimp ly
Ġimp orted
Ġimp lies
Ġimp roper
Ġco fin
pt ation
cil ing
Ġpre f
Ġpre is
oin ting
ĠEin igkeit
ĠEin sicht
ĠEin wand
ĠEin kauf
ĠEin zelf
Ġalle v
ĠComm ons
au genmerk
Ġreport ing
Ġber gen
Ġber uft
Ġber atenden
Ġint rans
Ġint rins
Ġcons ulted
Ġcons ervative
iden schaft
Ġbes etzten
Ġbes prechen
Ġgen annte
Ġgen ieÃŁen
Ġch amp
Ġch arm
Ġch ief
Ġch arakter
Ġch amber
Ġch allenging
Ġeff ected
ank o
Ġpr ison
Ġpr erog
yst al
ass em
Ġges icher
Ġges tehen
Ġges unken
Ġges teckt
ik ale
ik atore
Ġhin ge
Ġhin dering
Ġbec ame
Ġinter fer
usammen fÃ¼hrung
Ġup he
Ġup holding
Ġout com
Ġout lining
Ġout dated
Ġleg te
ag s
ag nen
leich en
Ġnew ly
iz ehn
Ġcount ies
Ġstr ive
ĠRecht mÃ¤ÃŁigkeit
ious ness
fÃ¼hr enden
arbeit ungs
arbeit ende
Ġnational ly
Ġnational ist
Ġnational ism
Ġnational istic
Ġdec line
Ġdec isively
auf lage
auf wand
auf gabe
wend ungen
wend ungs
Ġdevelop s
ahl t
Ġmehr jÃ¤hrige
Ġmehr heitlich
teil ungs
Ġte eth
Ġte urer
Ġacc uracy
los ure
lar gement
Ġind es
Ġind ul
Ġra ged
bar es
Ġwar nen
Ġwar tet
wir t
wir ft
wir tschaften
ĠRat sebene
ĠDe leg
iÃŁ heit
geb lich
geb nisse
geb Ã¤ude
ov or
Ġhier auf
ĠVorsch rift
ak s
ention ed
Ġany where
Ġev il
Ġev olution
igt es
Ġwork load
Ġla udable
itu al
ĠZusammen spiel
ĠZusammen bruch
ĠZusammen lebens
ĠGemein plÃ¤tze
entr ic
Ġdeb t
Ġdeb atable
ange hens
Ġsub vention
Ġsub mission
Ġsub stitute
lement aritÃ¤t
ink wasser
Ġsol ved
ĠLe hr
ĠLe vel
ĠLe ktÃ¼re
Ġgew arn
Ġgew andt
Ġgew Ã¼tet
Ġgew illt
Ġfe eding
ĠGrund linien
ĠGrund konzept
ĠÃĦ gyp
ĠÃĦ thiop
Ġbereit stellen
Ġsome where
Ġsome body
Ã¤ch ung
Ã¤ch ten
Ã¤ch ern
In dem
In itiativen
Ġcar ries
nahmen bezogenen
ine z
ine es
ine llen
Ġins urm
Ġfre iges
amp en
ĠUm lauf
ĠUm gebung
ĠUm gestaltung
ĠUm verteilung
ktion ismus
Ġtra ceability
uer y
Ġprov ing
Ġprov ider
Ġprov ince
Ġdire kte
ĠAuf arbeitung
ĠAuf nahm
ĠAuf lÃ¶sung
halten der
Ġemp ty
Ġemp findet
alis ierte
lag ern
Ġend ure
Ġend los
Ġrep ud
Ġrep rodu
Ġrep ubl
Ġrep ayment
ĠBere chtigung
schen de
sel bstÃ¤nd
Ġover t
Ġover ha
Ġover due
Ġclear er
ĠBÃ¼r gers
Ġmark iert
Ġunder gone
ame ters
Ġrel ies
Ġass ass
Ġass urance
Ġass igned
Ġass urances
ĠEntwicklung sprogramme
Ġviel fach
ĠRicht ige
ruct ive
Ġdisc our
Ġdisc ret
Ġdisc over
Ġdisc rep
Ġdisc losure
Ġrem in
ĠUnter haus
Ġkon form
ĠÃĸ konom
zeit plan
Ġthem es
Ġgemein schafts
ĠWh ich
Ġsc re
Ġsc or
Ġsc ore
Ġsc ales
Ġbelie ving
Ġbelie ved
ĠÃľber sch
ĠÃľber sicht
ĠÃľber zeug
ĠÃľber schreit
ĠÃľber setzungen
ĠÃľber schw
ĠÃľber gabe
Ġrequ isite
weis end
Ġfinan ces
gel der
Ġfund ierte
Ġfund ierten
ĠInter ests
ĠInter pret
Ġlie ÃŁe
ierungs maÃŁnahmen
ĠRechts staat
ĠRechts vorschrift
ĠRechts etzungsverfahren
Ġar chit
Ġprincip al
mittel ten
ans ion
ans atz
Ġbas iert
Ġmon ocultures
Ġknow ing
ĠHa utala
Ġtransp osition
pro jekten
Ġeinz unehmen
atz en
Ġpresent ly
wor te
wor ter
Ġwieder finden
Ġher anz
Ġher halten
hÃ¶r lich
hÃ¶r igen
hÃ¶r igkeit
pe cted
erg iebehÃ¶rde
Ġhand led
min ently
min dert
Ġfest geschrieben
Ġfest stellte
chn ungen
ĠMin ire
Ġappro vals
Ġstat istischen
ĠVerb r
ĠVerb Ã¤nde
ĠVerb Ã¼nde
ĠVerb ots
Ġbeste he
lish ed
Ġbo x
Ġbo at
Ġsozial politische
Ġbeg ann
Ġbeg riffen
Ġur teilen
Ġfar ce
Ġfar ms
Ġfar mer
Ġpl ight
Ġpl ural
ĠTe ppich
eth nic
ull iert
Ġletz tens
Ġspec ify
Ġspec ified
Ġspec ulators
ĠSte in
Ġable gen
Ġable hn
Ġet abl
vor lage
vor behalt
Ġange zeigt
Ġange fÃ¼hrten
ac a
Ġweiter ver
Ġweiter zu
Ġweiter geben
Ġweiter gefÃ¼hrt
Ġweiter gehende
Ġweit e
ĠGes te
ĠGes pen
ĠGes chenke
ĠMenschen wÃ¼r
ĠMenschen verstand
Ġerw ies
Ġerw achsen
Ġerw idern
Ã¤ÃŁ igen
ĠFinanz iellen
ĠFinanz ielle
ĠFinanz kontroll
ĠFinanz kapital
ĠFinanz interessen
ĠFinanz institut
Ġhel m
Ġger aum
Ġlo ve
Ġlo hnt
Ġpublic ity
ĠRegierungs ko
ĠRegierungs beteiligung
Ġzwe if
Ġlast ly
ĠLand schaft
Ġwen de
Ġatt rib
Ġget Ã¶tet
ischer weise
Ġcommon place
Ġprev ail
ĠUmwelt minister
ĠUmwelt organisationen
ĠUmwelt problem
ss on
ss ysteme
ater ally
Ġadop ts
Ġpar ameter
Ġpar ameters
ĠKont ro
ĠKont am
ĠKont akten
ful ness
reit bar
gesch ritten
ĠunterstÃ¼tz enden
Ġrespect ability
Ġest imate
Ġgleich er
Ġgleich wert
Ġgleich gesetzt
Ġgleich kÃ¤me
Ġposit ives
ied lung
Ġcurr encies
ĠCh ile
Ġreal istische
Ġreal istisch
Ġfo ot
[...]
