{
  "version": "1.0",
  "truncation": null,
  "padding": null,
  "added_tokens": [
    {
      "id": 2,
      "content": "<pad>",
      "single_word": false,
      "lstrip": false,
      "rstrip": false,
      "normalized": false,
      "special": true
    },
    {
      "id": 3,
      "content": "<unk>",
      "single_word": false,
      "lstrip": false,
      "rstrip": false,
      "normalized": false,
      "special": true
    },
    {
      "id": 30598,
      "content": "<sep>",
      "single_word": false,
      "lstrip": false,
      "rstrip": false,
      "normalized": false,
      "special": true
    },
    {
      "id": 30599,
      "content": "<cls>",
      "single_word": false,
      "lstrip": false,
      "rstrip": false,
      "normalized": false,
      "special": true
    },
    {
      "id": 30600,
      "content": "<mask>",
      "single_word": false,
      "lstrip": false,
      "rstrip": false,
      "normalized": false,
      "special": true
    }
  ],
  "normalizer": null,
  "pre_tokenizer": {
    "type": "ByteLevel",
    "add_prefix_space": false,
    "trim_offsets": true,
    "use_regex": true
  },
  "post_processor": {
    "type": "ByteLevel",
    "add_prefix_space": true,
    "trim_offsets": false,
    "use_regex": true
  },
  "decoder": {
    "type": "ByteLevel",
    "add_prefix_space": true,
    "trim_offsets": true,
    "use_regex": true
  },
  "model": {
    "type": "BPE",
    "dropout": null,
    "unk_token": null,
    "continuing_subword_prefix": "",
    "end_of_word_suffix": "",
    "fuse_unk": false,
    "byte_fallback": false,
    "ignore_merges": false,
    "vocab": {
      "<s>": 0,
      "</s>": 1,
      "<pad>": 2,
      "<unk>": 3,
      "!": 4,
      "\"": 5,
      "#": 6,
      "$": 7,
      "%": 8,
      "&": 9,
      "'": 10,
      "(": 11,
      ")": 12,
      "*": 13,
      "+": 14,
      ",": 15,
      "-": 16,
      ".": 17,
      "/": 18,
      "0": 19,
      "1": 20,
      "2": 21,
      "3": 22,
      "4": 23,
      "5": 24,
      "6": 25,
      "7": 26,
      "8": 27,
      "9": 28,
      ":": 29,
      ";": 30,
      "<": 31,
      "=": 32,
      ">": 33,
      "?": 34,
      "@": 35,
      "A": 36,
      "B": 37,
      "C": 38,
      "D": 39,
      "E": 40,
      "F": 41,
      "G": 42,
      "H": 43,
      "I": 44,
      "J": 45,
      "K": 46,
      "L": 47,
      "M": 48,
      "N": 49,
      "O": 50,
      "P": 51,
      "Q": 52,
      "R": 53,
      "S": 54,
      "T": 55,
      "U": 56,
      "V": 57,
      "W": 58,
      "X": 59,
      "Y": 60,
      "Z": 61,
      "[": 62,
      "\\": 63,
      "]": 64,
      "^": 65,
      "_": 66,
      "`": 67,
      "a": 68,
      "b": 69,
      "c": 70,
      "d": 71,
      "e": 72,
      "f": 73,
      "g": 74,
      "h": 75,
      "i": 76,
      "j": 77,
      "k": 78,
      "l": 79,
      "m": 80,
      "n": 81,
      "o": 82,
      "p": 83,
      "q": 84,
      "r": 85,
      "s": 86,
      "t": 87,
      "u": 88,
      "v": 89,
      "w": 90,
      "x": 91,
      "y": 92,
      "z": 93,
      "{": 94,
      "|": 95,
      "}": 96,
      "~": 97,
      "¡": 98,
      "¢": 99,
      "£": 100,
      "¤": 101,
      "¥": 102,
      "¦": 103,
      "§": 104,
      "¨": 105,
      "©": 106,
      "ª": 107,
      "«": 108,
      "¬": 109,
      "®": 110,
      "¯": 111,
      "°": 112,
      "±": 113,
      "²": 114,
      "³": 115,
      "´": 116,
      "µ": 117,
      "¶": 118,
      "·": 119,
      "¸": 120,
      "¹": 121,
      "º": 122,
      "»": 123,
      "¼": 124,
      "½": 125,
      "¾": 126,
      "¿": 127,
      "À": 128,
      "Á": 129,
      "Â": 130,
      "Ã": 131,
      "Ä": 132,
      "Å": 133,
      "Æ": 134,
      "Ç": 135,
      "È": 136,
      "É": 137,
      "Ê": 138,
      "Ë": 139,
      "Ì": 140,
      "Í": 141,
      "Î": 142,
      "Ï": 143,
      "Ð": 144,
      "Ñ": 145,
      "Ò": 146,
      "Ó": 147,
      "Ô": 148,
      "Õ": 149,
      "Ö": 150,
      "×": 151,
      "Ø": 152,
      "Ù": 153,
      "Ú": 154,
      "Û": 155,
      "Ü": 156,
      "Ý": 157,
      "Þ": 158,
      "ß": 159,
      "à": 160,
      "á": 161,
      "â": 162,
      "ã": 163,
      "ä": 164,
      "å": 165,
      "æ": 166,
      "ç": 167,
      "è": 168,
      "é": 169,
      "ê": 170,
      "ë": 171,
      "ì": 172,
      "í": 173,
      "î": 174,
      "ï": 175,
      "ð": 176,
      "ñ": 177,
      "ò": 178,
      "ó": 179,
      "ô": 180,
      "õ": 181,
      "ö": 182,
      "÷": 183,
      "ø": 184,
      "ù": 185,
      "ú": 186,
      "û": 187,
      "ü": 188,
      "ý": 189,
      "þ": 190,
      "ÿ": 191,
      "Ā": 192,
      "ā": 193,
      "Ă": 194,
      "ă": 195,
      "Ą": 196,
      "ą": 197,
      "Ć": 198,
      "ć": 199,
      "Ĉ": 200,
      "ĉ": 201,
      "Ċ": 202,
      "ċ": 203,
      "Č": 204,
      "č": 205,
      "Ď": 206,
      "ď": 207,
      "Đ": 208,
      "đ": 209,
      "Ē": 210,
      "ē": 211,
      "Ĕ": 212,
      "ĕ": 213,
      "Ė": 214,
      "ė": 215,
      "Ę": 216,
      "ę": 217,
      "Ě": 218,
      "ě": 219,
      "Ĝ": 220,
      "ĝ": 221,
      "Ğ": 222,
      "ğ": 223,
      "Ġ": 224,
      "ġ": 225,
      "Ģ": 226,
      "ģ": 227,
      "Ĥ": 228,
      "ĥ": 229,
      "Ħ": 230,
      "ħ": 231,
      "Ĩ": 232,
      "ĩ": 233,
      "Ī": 234,
      "ī": 235,
      "Ĭ": 236,
      "ĭ": 237,
      "Į": 238,
      "į": 239,
      "İ": 240,
      "ı": 241,
      "Ĳ": 242,
      "ĳ": 243,
      "Ĵ": 244,
      "ĵ": 245,
      "Ķ": 246,
      "ķ": 247,
      "ĸ": 248,
      "Ĺ": 249,
      "ĺ": 250,
      "Ļ": 251,
      "ļ": 252,
      "Ľ": 253,
      "ľ": 254,
      "Ŀ": 255,
      "ŀ": 256,
      "Ł": 257,
      "ł": 258,
      "Ń": 259,
      "en": 260,
      "er": 261,
      "in": 262,
      "Ġt": 263,
      "Ġd": 264,
      "ch": 265,
      "Ġa": 266,
      "on": 267,
      "Ġth": 268,
      "es": 269,
      "is": 270,
      "Ġw": 271,
      "un": 272,
      "it": 273,
      "Ġs": 274,
      "at": 275,
      "ie": 276,
      "Ġthe": 277,
      "re": 278,
      "or": 279,
      "ich": 280,
      "an": 281,
      "ion": 282,
      "Ġb": 283,
      "Ġo": 284,
      "Ġin": 285,
      "Ġm": 286,
      "al": 287,
      "ro": 288,
      "ar": 289,
      "Ġf": 290,
      "Ġe": 291,
      "ent": 292,
      "st": 293,
      "le": 294,
      "Ġp": 295,
      "Ġan": 296,
      "Ġn": 297,
      "Ġc": 298,
      "Ġh": 299,
      "Ġun": 300,
      "ge": 301,
      "Ã¼": 302,
      "ung": 303,
      "Ġof": 304,
      "Ġto": 305,
      "te": 306,
      "Ã¤": 307,
      "Ġdie": 308,
      "Ġder": 309,
      "om": 310,
      "Ġv": 311,
      "Ġbe": 312,
      "ur": 313,
      "as": 314,
      "ll": 315,
      "ing": 316,
      "Ġand": 317,
      "ĠE": 318,
      "Ġund": 319,
      "Ġis": 320,
      "us": 321,
      "ir": 322,
      "ĠI": 323,
      "ed": 324,
      "ĠP": 325,
      "ÃŁ": 326,
      "ig": 327,
      "Ġz": 328,
      "ra": 329,
      "ĠA": 330,
      "em": 331,
      "Ġein": 332,
      "ĠS": 333,
      "Ġg": 334,
      "ic": 335,
      "ĠM": 336,
      "im": 337,
      "eit": 338,
      "omm": 339,
      "ut": 340,
      "ve": 341,
      "id": 342,
      "Ġre": 343,
      "icht": 344,
      "ies": 345,
      "am": 346,
      "ol": 347,
      "ĠB": 348,
      "rop": 349,
      "ul": 350,
      "ten": 351,
      "ĠT": 352,
      "sch": 353,
      "ation": 354,
      "ter": 355,
      "der": 356,
      "el": 357,
      "lich": 358,
      "Ġthat": 359,
      "ĠK": 360,
      "et": 361,
      "ct": 362,
      "hr": 363,
      "Ġzu": 364,
      "gen": 365,
      "Ġwh": 366,
      "ber": 367,
      "den": 368,
      "Ã¶": 369,
      "ĠR": 370,
      "iss": 371,
      "ĠF": 372,
      "Ġl": 373,
      "il": 374,
      "Ġau": 375,
      "urop": 376,
      "Ġda": 377,
      "Ã¼r": 378,
      "ĠC": 379,
      "ere": 380,
      "isch": 381,
      "Ġk": 382,
      "Ġfor": 383,
      "Ġwir": 384,
      "Ġden": 385,
      "Ġha": 386,
      "ĠW": 387,
      "ly": 388,
      "Ġno": 389,
      "ein": 390,
      "ommiss": 391,
      "Ġon": 392,
      "ĠV": 393,
      "res": 394,
      "Ġwe": 395,
      "ĠEurop": 396,
      "ĠG": 397,
      "um": 398,
      "ommission": 399,
      "de": 400,
      "Ġge": 401,
      "ier": 402,
      "ort": 403,
      "ĠU": 404,
      "Ġim": 405,
      "Ġal": 406,
      "Ġso": 407,
      "ĠTh": 408,
      "Ġdies": 409,
      "Ġthis": 410,
      "ĠH": 411,
      "ff": 412,
      "os": 413,
      "ĠdaÃŁ": 414,
      "Ġcon": 415,
      "ben": 416,
      "ce": 417,
      "Ġit": 418,
      "Ġst": 419,
      "ver": 420,
      "Ġver": 421,
      "ment": 422,
      "Ġpro": 423,
      "Ġvon": 424,
      "ft": 425,
      "Ġare": 426,
      "ĠfÃ¼r": 427,
      "est": 428,
      "men": 429,
      "ach": 430,
      "Ġer": 431,
      "Ġas": 432,
      "ill": 433,
      "ust": 434,
      "Ġauf": 435,
      "Ġist": 436,
      "and": 437,
      "kt": 438,
      "ith": 439,
      "Ġnicht": 440,
      "uld": 441,
      "ĠD": 442,
      "Ġdas": 443,
      "ess": 444,
      "ĠUn": 445,
      "Ġnot": 446,
      "ould": 447,
      "ble": 448,
      "Ġne": 449,
      "ive": 450,
      "Ġwhich": 451,
      "Ġwith": 452,
      "Ġdes": 453,
      "ischen": 454,
      "Ġde": 455,
      "ĠRe": 456,
      "ĠVer": 457,
      "sp": 458,
      "pp": 459,
      "ĠEurope": 460,
      "ident": 461,
      "ĠL": 462,
      "Ġhave": 463,
      "ke": 464,
      "ĠIn": 465,
      "Ġj": 466,
      "ĠPar": 467,
      "ate": 468,
      "ungen": 469,
      "ament": 470,
      "Ġals": 471,
      "ind": 472,
      "Ġeine": 473,
      "th": 474,
      "Ġwer": 475,
      "ial": 476,
      "op": 477,
      "we": 478,
      "ĠSt": 479,
      "ity": 480,
      "ay": 481,
      "ant": 482,
      "Ġ-": 483,
      "ĠCommission": 484,
      "end": 485,
      "Ġex": 486,
      "rÃ¤": 487,
      "Ġse": 488,
      "be": 489,
      "Ġdem": 490,
      "Ġich": 491,
      "Ġes": 492,
      "Ġwill": 493,
      "if": 494,
      "ĠZ": 495,
      "la": 496,
      "Ġwerden": 497,
      "iv": 498,
      "nen": 499,
      "Ġle": 500,
      "ĠParl": 501,
      "Ã¼ber": 502,
      "Ġmit": 503,
      "Ã¤n": 504,
      "Ġy": 505,
      "lie": 506,
      "ht": 507,
      "Ġall": 508,
      "Ġsu": 509,
      "ah": 510,
      "Ġsh": 511,
      "Ġauch": 512,
      "qu": 513,
      "scha": 514,
      "ann": 515,
      "ore": 516,
      "Ġr": 517,
      "Ġvor": 518,
      "eh": 519,
      "ions": 520,
      "ĠKommission": 521,
      "our": 522,
      "err": 523,
      "ungs": 524,
      "ĠEuropean": 525,
      "ist": 526,
      "Ġsich": 527,
      "Ġdo": 528,
      "Ġuns": 529,
      "ĠThe": 530,
      "ck": 531,
      "sen": 532,
      "iti": 533,
      "ect": 534,
      "igen": 535,
      "ri": 536,
      "und": 537,
      "ĠUnion": 538,
      "ug": 539,
      "aus": 540,
      "uÃŁ": 541,
      "Ġ1": 542,
      "ĠPro": 543,
      "ern": 544,
      "schaft": 545,
      "cht": 546,
      "Ġby": 547,
      "ru": 548,
      "ad": 549,
      "me": 550,
      "uf": 551,
      "ĠÃ¼ber": 552,
      "ĠMr": 553,
      "Ġres": 554,
      "ĠN": 555,
      "ens": 556,
      "ĠAn": 557,
      "ow": 558,
      "Ġhas": 559,
      "art": 560,
      "Ġma": 561,
      "oun": 562,
      "99": 563,
      "ure": 564,
      "Ġme": 565,
      "ĠWe": 566,
      "gra": 567,
      "for": 568,
      "Ġpol": 569,
      "ges": 570,
      "hal": 571,
      "Ġcom": 572,
      "Ġaus": 573,
      "Ġat": 574,
      "iel": 575,
      "itte": 576,
      "Ġreg": 577,
      "Ġwie": 578,
      "00": 579,
      "eren": 580,
      "Ġum": 581,
      "ers": 582,
      "Ġab": 583,
      "keit": 584,
      "Ġwird": 585,
      "port": 586,
      "ĠEn": 587,
      "ien": 588,
      "gram": 589,
      "ĠFra": 590,
      "Ġsp": 591,
      "Ġwould": 592,
      "Ġalso": 593,
      "ain": 594,
      "ord": 595,
      "Ġsind": 596,
      "ĠAus": 597,
      "heit": 598,
      "etz": 599,
      "ran": 600,
      "up": 601,
      "ab": 602,
      "ahr": 603,
      "Ġhat": 604,
      "llen": 605,
      "all": 606,
      "ot": 607,
      "Ġi": 608,
      "Ġthere": 609,
      "Ġor": 610,
      "beit": 611,
      "enn": 612,
      "tz": 613,
      "ische": 614,
      "rÃ¤s": 615,
      "Ġta": 616,
      "Ġsch": 617,
      "ĠPres": 618,
      "Ġhaben": 619,
      "Ġzur": 620,
      "rÃ¤sident": 621,
      "lichen": 622,
      "ou": 623,
      "Ġwas": 624,
      "ard": 625,
      "ĠAr": 626,
      "Ġdar": 627,
      "Die": 628,
      "Ġen": 629,
      "ip": 630,
      "ert": 631,
      "Ich": 632,
      "ult": 633,
      "ĠBe": 634,
      "tern": 635,
      "ous": 636,
      "ĠJ": 637,
      "Ġent": 638,
      "chte": 639,
      "ste": 640,
      "Ã¤ischen": 641,
      "ĠEr": 642,
      "hen": 643,
      "ted": 644,
      "ĠÃ": 645,
      "Ġshould": 646,
      "Ġman": 647,
      "ken": 648,
      "ne": 649,
      "ĠmÃ¶": 650,
      "aat": 651,
      "ational": 652,
      "ĠVor": 653,
      "ĠSch": 654,
      "iament": 655,
      "ib": 656,
      "Ġmust": 657,
      "cial": 658,
      "ast": 659,
      "ĠO": 660,
      "ese": 661,
      "ĠParlament": 662,
      "ige": 663,
      "ue": 664,
      "ze": 665,
      "Ġsie": 666,
      "Ġeiner": 667,
      "od": 668,
      "ĠPresident": 669,
      "ise": 670,
      "rom": 671,
      "ĠEnt": 672,
      "ĠReg": 673,
      "Ġam": 674,
      "ember": 675,
      "Ã¼s": 676,
      "Ã¶r": 677,
      "Ġcomp": 678,
      "gr": 679,
      "Ġour": 680,
      "Ġpart": 681,
      "dern": 682,
      "ĠBer": 683,
      "ĠPrÃ¤sident": 684,
      "se": 685,
      "Ġsein": 686,
      "Ġsa": 687,
      "Ġwor": 688,
      "ition": 689,
      "Ã¶n": 690,
      "Ġbet": 691,
      "chen": 692,
      "Ġbut": 693,
      "Ġyou": 694,
      "ĠHerr": 695,
      "ĠParliament": 696,
      "her": 697,
      "gt": 698,
      "Ġli": 699,
      "ates": 700,
      "ther": 701,
      "Ġhe": 702,
      "ical": 703,
      "Ġdiese": 704,
      "Ġfa": 705,
      "Ġnach": 706,
      "Ġapp": 707,
      "Ġgo": 708,
      "esch": 709,
      "ative": 710,
      "Ġad": 711,
      "olle": 712,
      "Ġus": 713,
      "form": 714,
      "Ġ2": 715,
      "urch": 716,
      "ger": 717,
      "Ġbeen": 718,
      "ĠIt": 719,
      "ations": 720,
      "anz": 721,
      "con": 722,
      "ire": 723,
      "ost": 724,
      "Ġag": 725,
      "Ġcomm": 726,
      "Ã¼n": 727,
      "Ã¤r": 728,
      "Ġfrom": 729,
      "ight": 730,
      "ick": 731,
      "ud": 732,
      "Ã¤t": 733,
      "ms": 734,
      "reat": 735,
      "Ã¼hr": 736,
      "able": 737,
      "Ġprop": 738,
      "ĠkÃ¶n": 739,
      "ok": 740,
      "Ġmein": 741,
      "Ġcont": 742,
      "Ã¼ssen": 743,
      "Ġqu": 744,
      "vel": 745,
      "ute": 746,
      "wer": 747,
      "Wir": 748,
      "Ġdis": 749,
      "age": 750,
      "cy": 751,
      "ount": 752,
      "mp": 753,
      "Ġits": 754,
      "ionen": 755,
      "zu": 756,
      "Ġunter": 757,
      "ome": 758,
      "Ġbei": 759,
      "Ġconc": 760,
      "ĠMit": 761,
      "ĠmÃ¼ssen": 762,
      "out": 763,
      "ĠMember": 764,
      "Ġste": 765,
      "ĠmÃ¶chte": 766,
      "Ġpos": 767,
      "Ġcan": 768,
      "Ġpolit": 769,
      "Ġob": 770,
      "cc": 771,
      "reich": 772,
      "lo": 773,
      "Ġgro": 774,
      "Ġfin": 775,
      "igkeit": 776,
      "Ġlike": 777,
      "oc": 778,
      "ĠAb": 779,
      "ommen": 780,
      "ĠGe": 781,
      "rit": 782,
      "ap": 783,
      "fen": 784,
      "ish": 785,
      "ction": 786,
      "ĠBericht": 787,
      "ject": 788,
      "Ġmore": 789,
      "ĠThis": 790,
      "ĠSie": 791,
      "liche": 792,
      "glie": 793,
      "ieren": 794,
      "uch": 795,
      "Ġdieser": 796,
      "ts": 797,
      "Ġneed": 798,
      "ance": 799,
      "ĠmuÃŁ": 800,
      "Ġspe": 801,
      "Ġeinen": 802,
      "ĠGr": 803,
      "lin": 804,
      "ub": 805,
      "ider": 806,
      "Ġsoll": 807,
      "elt": 808,
      "ally": 809,
      "rat": 810,
      "ary": 811,
      "Ġnoch": 812,
      "ĠEuropÃ¤ischen": 813,
      "nah": 814,
      "fore": 815,
      "staat": 816,
      "Ġexp": 817,
      "Ġdurch": 818,
      "imm": 819,
      "Ġinc": 820,
      "Ġimp": 821,
      "Ġthese": 822,
      "Ġpropos": 823,
      "Ġnur": 824,
      "Ġzw": 825,
      "Ġ199": 826,
      "Ġco": 827,
      "Ġaber": 828,
      "Ġzum": 829,
      "pt": 830,
      "ĠkÃ¶nnen": 831,
      "Ġdiesem": 832,
      "cil": 833,
      "gan": 834,
      "rag": 835,
      "Das": 836,
      "Ġpre": 837,
      "he": 838,
      "che": 839,
      "Ã¤nd": 840,
      "oin": 841,
      "oliti": 842,
      "ierung": 843,
      "ffen": 844,
      "ĠEU": 845,
      "ĠEin": 846,
      "ime": 847,
      "Ġalle": 848,
      "mer": 849,
      "Ġeurop": 850,
      "Ġkann": 851,
      "tschaft": 852,
      "ress": 853,
      "ĠComm": 854,
      "Ġone": 855,
      "Ġwenn": 856,
      "Ġwho": 857,
      "Ġ\"": 858,
      "Ġpolic": 859,
      "ĠMitglie": 860,
      "glich": 861,
      "Ġimport": 862,
      "au": 863,
      "ional": 864,
      "Ġreport": 865,
      "Ġprogram": 866,
      "og": 867,
      "Ġber": 868,
      "Ġih": 869,
      "king": 870,
      "ĠArbeit": 871,
      "Ġint": 872,
      "Ġwur": 873,
      "Ã¼ck": 874,
      "Ġtheir": 875,
      "aÃŁ": 876,
      "sicht": 877,
      "ont": 878,
      "Ġcons": 879,
      "rie": 880,
      "stit": 881,
      "Ġresp": 882,
      "ible": 883,
      "oll": 884,
      "ments": 885,
      "iden": 886,
      "Ġvery": 887,
      "du": 888,
      "ear": 889,
      "Ġbes": 890,
      "Ġgen": 891,
      "ose": 892,
      "Ġjed": 893,
      "wo": 894,
      "ely": 895,
      "Ġch": 896,
      "ouncil": 897,
      "pport": 898,
      "Ġ(": 899,
      "Ġeff": 900,
      "Es": 901,
      "lic": 902,
      "ank": 903,
      "ang": 904,
      "Ġpr": 905,
      "olitik": 906,
      "yst": 907,
      "ass": 908,
      "wick": 909,
      "Ġges": 910,
      "ittel": 911,
      "ik": 912,
      "Ġwhat": 913,
      "ĠCouncil": 914,
      "Ġmy": 915,
      "Ġhin": 916,
      "Ġbec": 917,
      "iert": 918,
      "ice": 919,
      "ĠMitglied": 920,
      "och": 921,
      "sten": 922,
      "usam": 923,
      "Ġwo": 924,
      "ark": 925,
      "ystem": 926,
      "Ġjust": 927,
      "Ġinter": 928,
      "usammen": 929,
      "Ġup": 930,
      "Ġout": 931,
      "stitut": 932,
      "feren": 933,
      "sam": 934,
      "lung": 935,
      "ster": 936,
      "lieÃŁ": 937,
      "Ġleg": 938,
      "Ġoder": 939,
      "unkt": 940,
      "iven": 941,
      "ag": 942,
      "Ġpe": 943,
      "ide": 944,
      "erv": 945,
      "ry": 946,
      "leich": 947,
      "uss": 948,
      "hl": 949,
      "Ġkein": 950,
      "Ġnew": 951,
      "ause": 952,
      "ities": 953,
      "Ġiss": 954,
      "ement": 955,
      "Ã¤hr": 956,
      "rau": 957,
      "ĠKolle": 958,
      "ĠStates": 959,
      "Ġihr": 960,
      "velop": 961,
      "ons": 962,
      "Herr": 963,
      "iz": 964,
      "ument": 965,
      "vern": 966,
      "are": 967,
      "Ġsehr": 968,
      "Ġthey": 969,
      "Ġcount": 970,
      "cess": 971,
      "onder": 972,
      "Ġstr": 973,
      "ugh": 974,
      "ĠMitgliedstaat": 975,
      "ER": 976,
      "ĠRecht": 977,
      "ated": 978,
      "ility": 979,
      "ious": 980,
      "unity": 981,
      "ehmen": 982,
      "Ġpartic": 983,
      "conom": 984,
      "Ġtran": 985,
      "fÃ¼hr": 986,
      "arbeit": 987,
      "Ġnational": 988,
      "Ġdec": 989,
      "itÃ¤t": 990,
      "ural": 991,
      "Ġother": 992,
      "Ġif": 993,
      "Ġeinem": 994,
      "ced": 995,
      "Ġop": 996,
      "auf": 997,
      "wend": 998,
      "Ġdevelop": 999,
      "Ġconcern": 1000,
      "ahl": 1001,
      "mein": 1002,
      "erst": 1003,
      "eiter": 1004,
      "Ġmehr": 1005,
      "one": 1006,
      "teil": 1007,
      "Ġte": 1008,
      "wn": 1009,
      "Ġonly": 1010,
      "resent": 1011,
      "Ġgegen": 1012,
      "Ġabout": 1013,
      "Ġacc": 1014,
      "atter": 1015,
      "los": 1016,
      "tre": 1017,
      "ular": 1018,
      "sche": 1019,
      "Ã¤ische": 1020,
      "Ġimportant": 1021,
      "icher": 1022,
      "itiative": 1023,
      "fahr": 1024,
      "lar": 1025,
      "enz": 1026,
      "ett": 1027,
      "Ġpolicy": 1028,
      "Ġind": 1029,
      "000": 1030,
      "ob": 1031,
      "Ġra": 1032,
      "bar": 1033,
      "lÃ¤": 1034,
      "Ġwar": 1035,
      "ĠProgram": 1036,
      "wir": 1037,
      "nung": 1038,
      "Ġeconom": 1039,
      "ĠRat": 1040,
      "Ġper": 1041,
      "ĠDe": 1042,
      "iff": 1043,
      "irst": 1044,
      "Ġdieses": 1045,
      "Ġtime": 1046,
      "Ġpoin": 1047,
      "iÃŁ": 1048,
      "lear": 1049,
      "geb": 1050,
      "ase": 1051,
      "ces": 1052,
      "ov": 1053,
      "Ã¼tz": 1054,
      "Ġhier": 1055,
      "ĠVorsch": 1056,
      "ak": 1057,
      "ention": 1058,
      "ives": 1059,
      "Ġdam": 1060,
      "Ġany": 1061,
      "ign": 1062,
      "ong": 1063,
      "lan": 1064,
      "Ġev": 1065,
      "assen": 1066,
      "ĠJahr": 1067,
      "ĠGem": 1068,
      "Ġtherefore": 1069,
      "igt": 1070,
      "etzt": 1071,
      "inn": 1072,
      "ĠEuropa": 1073,
      "Ġwork": 1074,
      "Ġwicht": 1075,
      "str": 1076,
      "halb": 1077,
      "Ġla": 1078,
      "ople": 1079,
      "Ġmake": 1080,
      "ĠFrau": 1081,
      "ek": 1082,
      "itu": 1083,
      "Ġsay": 1084,
      "ĠZusammen": 1085,
      "Ġright": 1086,
      "ĠGemein": 1087,
      "Ġgr": 1088,
      "ĠMitgliedstaaten": 1089,
      "rei": 1090,
      "alt": 1091,
      "entr": 1092,
      "Ġagain": 1093,
      "Ġbecause": 1094,
      "ution": 1095,
      "Ġdeb": 1096,
      "Ġunser": 1097,
      "Ġintern": 1098,
      "Ġvie": 1099,
      "iger": 1100,
      "Ġfact": 1101,
      "zial": 1102,
      "ange": 1103,
      "Ġsub": 1104,
      "ibt": 1105,
      "onferen": 1106,
      "Ġtake": 1107,
      "lement": 1108,
      "mend": 1109,
      "Ġparticular": 1110,
      "ring": 1111,
      "ink": 1112,
      "ite": 1113,
      "Ġsol": 1114,
      "ĠEntwick": 1115,
      "Ġact": 1116,
      "ĠLe": 1117,
      "Dies": 1118,
      "als": 1119,
      "Ġgew": 1120,
      "stell": 1121,
      "Ġfe": 1122,
      "ĠArt": 1123,
      "Ġinto": 1124,
      "rol": 1125,
      "lt": 1126,
      "Ġho": 1127,
      "Ġyear": 1128,
      "ĠGrund": 1129,
      "Ġwurde": 1130,
      "nder": 1131,
      "ĠFrage": 1132,
      "gend": 1133,
      "ĠÃĦ": 1134,
      "loy": 1135,
      "Ġbereit": 1136,
      "Ġsome": 1137,
      "Ã¤ch": 1138,
      "Ġnow": 1139,
      "fÃ¼r": 1140,
      "Ġihre": 1141,
      "Ġway": 1142,
      "Ġwhen": 1143,
      "wever": 1144,
      "Ġsupport": 1145,
      "ues": 1146,
      "Ġpeople": 1147,
      "In": 1148,
      "Ġcar": 1149,
      "nahmen": 1150,
      "ine": 1151,
      "Ġson": 1152,
      "Ġins": 1153,
      "Ġfre": 1154,
      "legen": 1155,
      "tet": 1156,
      "ĠWir": 1157,
      "bewer": 1158,
      "ĠProble": 1159,
      "ĠeuropÃ¤ischen": 1160,
      "amp": 1161,
      "ĠFor": 1162,
      "fol": 1163,
      "stÃ¼tz": 1164,
      "ĠUm": 1165,
      "ktion": 1166,
      "wie": 1167,
      "Ġtra": 1168,
      "tell": 1169,
      "uer": 1170,
      "ĠIh": 1171,
      "Ġprov": 1172,
      "ittee": 1173,
      "ision": 1174,
      "Ġdire": 1175,
      "Ġprogramme": 1176,
      "ner": 1177,
      "ĠAuf": 1178,
      "halten": 1179,
      "icherheit": 1180,
      "innen": 1181,
      "schlieÃŁ": 1182,
      "ehen": 1183,
      "Ġquest": 1184,
      "Ġemp": 1185,
      "ĠCommissioner": 1186,
      "ific": 1187,
      "xt": 1188,
      "ĠMaÃŁ": 1189,
      "alis": 1190,
      "lag": 1191,
      "ĠFin": 1192,
      "ettbewer": 1193,
      "ettbewerb": 1194,
      "Ġend": 1195,
      "ĠSo": 1196,
      "ĠZeit": 1197,
      "Ġrep": 1198,
      "ween": 1199,
      "ituation": 1200,
      "Ġrec": 1201,
      "day": 1202,
      "ĠBere": 1203,
      "vernment": 1204,
      "ries": 1205,
      "Ġmade": 1206,
      "igung": 1207,
      "Ġcompet": 1208,
      "Ġpolitical": 1209,
      "schen": 1210,
      "Ġbetween": 1211,
      "sel": 1212,
      "wort": 1213,
      "Ġeines": 1214,
      "ĠVert": 1215,
      "now": 1216,
      "ateg": 1217,
      "Ġsuch": 1218,
      "ĠÃĦnder": 1219,
      "Ġsondern": 1220,
      "ile": 1221,
      "Ġover": 1222,
      "Ġclear": 1223,
      "ĠSe": 1224,
      "utz": 1225,
      "inc": 1226,
      "ures": 1227,
      "ĠBÃ¼r": 1228,
      "Ġregard": 1229,
      "act": 1230,
      "Ġagre": 1231,
      "ĠBereich": 1232,
      "Ġbeing": 1233,
      "Ġwithin": 1234,
      "Ġconsider": 1235,
      "ĠgroÃŁ": 1236,
      "Ġdamit": 1237,
      "ľber": 1238,
      "Ġmark": 1239,
      "ĠBed": 1240,
      "ĠCommunity": 1241,
      "stÃ¤nd": 1242,
      "Ġdenn": 1243,
      "Ġposs": 1244,
      "schie": 1245,
      "Ġproble": 1246,
      "ient": 1247,
      "Ġinv": 1248,
      "Ġunder": 1249,
      "ame": 1250,
      "Ġfirst": 1251,
      "Ġrel": 1252,
      "Ġdebate": 1253,
      "ote": 1254,
      "Ġoff": 1255,
      "Ġass": 1256,
      "Ġyour": 1257,
      "Ġwel": 1258,
      "ors": 1259,
      "Ã¤nder": 1260,
      "ertain": 1261,
      "ĠEntwicklung": 1262,
      "Ġmich": 1263,
      "Ġviel": 1264,
      "ĠRicht": 1265,
      "ruct": 1266,
      "Ġwere": 1267,
      "ings": 1268,
      "forder": 1269,
      "Ġdisc": 1270,
      "ĠAs": 1271,
      "Ġrem": 1272,
      "ĠUnter": 1273,
      "Ġdevelopment": 1274,
      "ism": 1275,
      "uth": 1276,
      "Ġkon": 1277,
      "ĠÃĸ": 1278,
      "Ġpoint": 1279,
      "zeit": 1280,
      "Ġsocial": 1281,
      "Ġcour": 1282,
      "Ġgreat": 1283,
      "ha": 1284,
      "enden": 1285,
      "Ġdiff": 1286,
      "Ġthose": 1287,
      "Ġareas": 1288,
      "Ġthem": 1289,
      "ĠKommiss": 1290,
      "Ġgemein": 1291,
      "bens": 1292,
      "Ġdann": 1293,
      "ĠWh": 1294,
      "essen": 1295,
      "Ġsc": 1296,
      "land": 1297,
      "Ġbelie": 1298,
      "ĠWettbewerb": 1299,
      "Ġthan": 1300,
      "ĠÃľber": 1301,
      "ds": 1302,
      "dem": 1303,
      "Ġrequ": 1304,
      "Ġenv": 1305,
      "Ġcountries": 1306,
      "Ġamend": 1307,
      "weis": 1308,
      "les": 1309,
      "Ġro": 1310,
      "issen": 1311,
      "Ġfinan": 1312,
      "ublic": 1313,
      "nis": 1314,
      "Ġ3": 1315,
      "Ġheute": 1316,
      "eschÃ¤": 1317,
      "ty": 1318,
      "gel": 1319,
      "Ã¤h": 1320,
      "Ġsowie": 1321,
      "achen": 1322,
      "ĠHerrn": 1323,
      "Ġissue": 1324,
      "Ġfund": 1325,
      "Ġgibt": 1326,
      "ĠInter": 1327,
      "Ġzwischen": 1328,
      "Ġlie": 1329,
      "ierungs": 1330,
      "ĠAussch": 1331,
      "incip": 1332,
      "isten": 1333,
      "rukt": 1334,
      "Ġjedoch": 1335,
      "Ġmarket": 1336,
      "fl": 1337,
      "pr": 1338,
      "read": 1339,
      "Ġgu": 1340,
      "ĠRechts": 1341,
      "ĠKommissar": 1342,
      "Ġar": 1343,
      "Ġprincip": 1344,
      "ĠGemeinschaft": 1345,
      "ority": 1346,
      "Ġbest": 1347,
      "ĠKollegen": 1348,
      "hil": 1349,
      "mittel": 1350,
      "zie": 1351,
      "ans": 1352,
      "ĠEuropÃ¤ische": 1353,
      "weise": 1354,
      "kl": 1355,
      "eration": 1356,
      "Ġbas": 1357,
      "Ġmon": 1358,
      "Ġknow": 1359,
      "Ġhabe": 1360,
      "Ġregions": 1361,
      "scheid": 1362,
      "Der": 1363,
      "Ġaid": 1364,
      "ating": 1365,
      "iron": 1366,
      "bei": 1367,
      "ungsant": 1368,
      "ĠHa": 1369,
      "Ġtransp": 1370,
      "Ġsystem": 1371,
      "Ġmeine": 1372,
      "ĠThere": 1373,
      "acht": 1374,
      "pro": 1375,
      "richt": 1376,
      "Ġwhere": 1377,
      "ortug": 1378,
      "Ġdirect": 1379,
      "RE": 1380,
      "ving": 1381,
      "isl": 1382,
      "Ġcertain": 1383,
      "Ġregional": 1384,
      "ordnung": 1385,
      "Ġadd": 1386,
      "okrat": 1387,
      "isk": 1388,
      "Ġeinz": 1389,
      "ild": 1390,
      "Ġweil": 1391,
      "ironment": 1392,
      "mit": 1393,
      "mal": 1394,
      "atz": 1395,
      "Ġpresent": 1396,
      "ĠMen": 1397,
      "els": 1398,
      "Ġdiesen": 1399,
      "Ġeconomic": 1400,
      "wor": 1401,
      "ward": 1402,
      "Ġwieder": 1403,
      "eschÃ¤ft": 1404,
      "ough": 1405,
      "Ġher": 1406,
      "elb": 1407,
      "Ġimplement": 1408,
      "hand": 1409,
      "Ġdarauf": 1410,
      "Ġeffect": 1411,
      "fe": 1412,
      "hÃ¶r": 1413,
      "pe": 1414,
      "erg": 1415,
      "chten": 1416,
      "ĠHo": 1417,
      "Ġbelieve": 1418,
      "hin": 1419,
      "geord": 1420,
      "ĠMad": 1421,
      "rim": 1422,
      "ved": 1423,
      "ister": 1424,
      "ragen": 1425,
      "antwort": 1426,
      "Ġorder": 1427,
      "ld": 1428,
      "welt": 1429,
      "Ġgeht": 1430,
      "Ġquestion": 1431,
      "bie": 1432,
      "rechen": 1433,
      "Ġwirk": 1434,
      "ibility": 1435,
      "Ġhand": 1436,
      "cept": 1437,
      "Ġincl": 1438,
      "Ġrespons": 1439,
      "ĠBÃ¼rger": 1440,
      "geordne": 1441,
      "min": 1442,
      "uen": 1443,
      "Ġfest": 1444,
      "led": 1445,
      "Ġsee": 1446,
      "Ġunsere": 1447,
      "Ġkeine": 1448,
      "Ġenvironment": 1449,
      "Ġens": 1450,
      "Ġdan": 1451,
      "chn": 1452,
      "Ġauth": 1453,
      "Ġwant": 1454,
      "ĠMin": 1455,
      "Ġappro": 1456,
      "ĠwÃ¼r": 1457,
      "Ġnat": 1458,
      "Ġanderen": 1459,
      "ĠThem": 1460,
      "Ġstat": 1461,
      "ahmen": 1462,
      "Ġ2000": 1463,
      "Ġ1999": 1464,
      "ĠMaÃŁnahmen": 1465,
      "Ġcompetition": 1466,
      "Ġmatter": 1467,
      "entlich": 1468,
      "Ġganz": 1469,
      "Ã¶rder": 1470,
      "nahme": 1471,
      "Ġbereits": 1472,
      "kommen": 1473,
      "halt": 1474,
      "tegr": 1475,
      "Ġreform": 1476,
      "ga": 1477,
      "Ġgood": 1478,
      "ruktur": 1479,
      "NT": 1480,
      "Ġinstitut": 1481,
      "geben": 1482,
      "ĠdafÃ¼r": 1483,
      "ĠVerb": 1484,
      "Ġmany": 1485,
      "Ġbeste": 1486,
      "Ġfinancial": 1487,
      "elbst": 1488,
      "di": 1489,
      "Ġmir": 1490,
      "Ġalread": 1491,
      "rib": 1492,
      "onferenz": 1493,
      "Ġalready": 1494,
      "lish": 1495,
      "Ġthink": 1496,
      "Ġbo": 1497,
      "ĠAust": 1498,
      "ĠRegionen": 1499,
      "loyment": 1500,
      "Ġter": 1501,
      "arkt": 1502,
      "Ġever": 1503,
      "ĠRahmen": 1504,
      "ĠPrÃ¤sidentin": 1505,
      "Ġpossible": 1506,
      "NTER": 1507,
      "leg": 1508,
      "Ġdenen": 1509,
      "rÃ¤ge": 1510,
      "Ġsagen": 1511,
      "Ġlegisl": 1512,
      "REG": 1513,
      "ĠMadam": 1514,
      "NTERREG": 1515,
      "fall": 1516,
      "setz": 1517,
      "Ġsozial": 1518,
      "Ġlevel": 1519,
      "Ġview": 1520,
      "Un": 1521,
      "Ġbeg": 1522,
      "Ġdoes": 1523,
      "Ġur": 1524,
      "Ġfar": 1525,
      "Ġpl": 1526,
      "olog": 1527,
      "ĠTe": 1528,
      "eth": 1529,
      "Ã¶glich": 1530,
      "fin": 1531,
      "eral": 1532,
      "Ġhal": 1533,
      "ĠINTERREG": 1534,
      "Ġprocess": 1535,
      "Ġarea": 1536,
      "ĠCommittee": 1537,
      "Ġtwo": 1538,
      "ondere": 1539,
      "ĠIhnen": 1540,
      "ull": 1541,
      "ĠÃ¶": 1542,
      "Ġmost": 1543,
      "Ġcould": 1544,
      "ĠZiel": 1545,
      "Ġletz": 1546,
      "ĠRichtlin": 1547,
      "Ġgemeinsam": 1548,
      "Ġhere": 1549,
      "itiz": 1550,
      "Ġspec": 1551,
      "Ġsollten": 1552,
      "Ġinternational": 1553,
      "Frau": 1554,
      "Ġdra": 1555,
      "Ġbis": 1556,
      "ĠSte": 1557,
      "Ġref": 1558,
      "ĠParlaments": 1559,
      "Ġable": 1560,
      "igh": 1561,
      "erein": 1562,
      "Ġimmer": 1563,
      "Ġgroup": 1564,
      "Ġeven": 1565,
      "ĠTreat": 1566,
      "Ġet": 1567,
      "Ġhad": 1568,
      "ĠAbgeordne": 1569,
      "rimin": 1570,
      "amen": 1571,
      "ope": 1572,
      "riff": 1573,
      "Ġmeas": 1574,
      "vor": 1575,
      "itz": 1576,
      "Ġsame": 1577,
      "Ġange": 1578,
      "Ġhow": 1579,
      "Ġtoday": 1580,
      "Ġproposal": 1581,
      "Sie": 1582,
      "ac": 1583,
      "Ġfut": 1584,
      "Ġwell": 1585,
      "Ġunserer": 1586,
      "bes": 1587,
      "ene": 1588,
      "Ġweiter": 1589,
      "Ġown": 1590,
      "ĠSicherheit": 1591,
      "ĠMittel": 1592,
      "lagen": 1593,
      "ĠMrs": 1594,
      "Ġtax": 1595,
      "Ġincre": 1596,
      "Ġprogramm": 1597,
      "sterreich": 1598,
      "Ġcourse": 1599,
      "Ġfuture": 1600,
      "Ġac": 1601,
      "Ġweit": 1602,
      "Ġvom": 1603,
      "ĠHaus": 1604,
      "Ġask": 1605,
      "ĠGes": 1606,
      "ĠMenschen": 1607,
      "ĠAustri": 1608,
      "piel": 1609,
      "Ġerw": 1610,
      "ternehmen": 1611,
      "Ġsaid": 1612,
      "ĠGebie": 1613,
      "Ġcitiz": 1614,
      "Ġtoo": 1615,
      "Ã¤ÃŁ": 1616,
      "Ġwichtig": 1617,
      "ĠFinanz": 1618,
      "Ġthen": 1619,
      "Ġcann": 1620,
      "Ġhel": 1621,
      "Ġger": 1622,
      "Ġlo": 1623,
      "formation": 1624,
      "Ġcannot": 1625,
      "ack": 1626,
      "Ġpla": 1627,
      "Ġpublic": 1628,
      "ĠThat": 1629,
      "Ġdoch": 1630,
      "ĠRegierungs": 1631,
      "Ġzwe": 1632,
      "Ġlast": 1633,
      "ulture": 1634,
      "Ġsollte": 1635,
      "gangen": 1636,
      "Ġwollen": 1637,
      "klÃ¤r": 1638,
      "bat": 1639,
      "ling": 1640,
      "Ġmuch": 1641,
      "Ġdazu": 1642,
      "ĠLand": 1643,
      "ĠWirtschaft": 1644,
      "fÃ¼": 1645,
      "punkt": 1646,
      "ory": 1647,
      "urr": 1648,
      "lage": 1649,
      "ĠProdi": 1650,
      "ĠÃĦnderungsant": 1651,
      "zip": 1652,
      "isation": 1653,
      "Ġwen": 1654,
      "isse": 1655,
      "ĠGro": 1656,
      "ĠErw": 1657,
      "199": 1658,
      "Ġyears": 1659,
      "ekt": 1660,
      "satz": 1661,
      "Ġput": 1662,
      "ĠStaat": 1663,
      "Ġresol": 1664,
      "Ġatt": 1665,
      "cond": 1666,
      "udge": 1667,
      "ĠHowever": 1668,
      "ĠGer": 1669,
      "Ġget": 1670,
      "Ġconf": 1671,
      "Ġagainst": 1672,
      "Ġhis": 1673,
      "ischer": 1674,
      "Ġcommon": 1675,
      "Ġprev": 1676,
      "ĠUmwelt": 1677,
      "Ã¶glichkeit": 1678,
      "Ġsom": 1679,
      "Ġobject": 1680,
      "Ã¤rk": 1681,
      "strument": 1682,
      "ss": 1683,
      "Ġmay": 1684,
      "Ġstill": 1685,
      "ĠVorschlag": 1686,
      "Ġlaw": 1687,
      "Ġdiscuss": 1688,
      "Ġensure": 1689,
      "ater": 1690,
      "ichts": 1691,
      "Ġadop": 1692,
      "Ġsituation": 1693,
      "Ġinitiative": 1694,
      "Ġpar": 1695,
      "Ã¤re": 1696,
      "ĠKont": 1697,
      "EA": 1698,
      "chie": 1699,
      "Ġbegr": 1700,
      "Ġetw": 1701,
      "Ġprogrammes": 1702,
      "Ġcitizens": 1703,
      "DER": 1704,
      "ual": 1705,
      "red": 1706,
      "Ġallem": 1707,
      "Ġparticularly": 1708,
      "Ġevery": 1709,
      "besondere": 1710,
      "EADER": 1711,
      "zug": 1712,
      "Ġ4": 1713,
      "orte": 1714,
      "ĠHin": 1715,
      "Ġproject": 1716,
      "Ġprinciple": 1717,
      "ful": 1718,
      "Ġ8": 1719,
      "ised": 1720,
      "reit": 1721,
      "gesch": 1722,
      "Ġcontin": 1723,
      "ĠunterstÃ¼tz": 1724,
      "Ġihrer": 1725,
      "ften": 1726,
      "Ġdemoc": 1727,
      "Ġrespect": 1728,
      "Ġest": 1729,
      "Ġbin": 1730,
      "Ġbring": 1731,
      "Ġgleich": 1732,
      "ulation": 1733,
      "tend": 1734,
      "Ġstate": 1735,
      "Ġexamp": 1736,
      "Ġposit": 1737,
      "Ġcoop": 1738,
      "Ġopin": 1739,
      "overnment": 1740,
      "ince": 1741,
      "ablish": 1742,
      "fra": 1743,
      "Ġser": 1744,
      "ied": 1745,
      "Ġnum": 1746,
      "Ġcase": 1747,
      "Ġcurr": 1748,
      "gehen": 1749,
      "Ġgiven": 1750,
      "ĠLEADER": 1751,
      "ruck": 1752,
      "Ġentsp": 1753,
      "Ã¼hren": 1754,
      "Ġwurden": 1755,
      "genda": 1756,
      "hne": 1757,
      "Ġachie": 1758,
      "ict": 1759,
      "ĠCh": 1760,
      "ĠRichtlinie": 1761,
      "ages": 1762,
      "affen": 1763,
      "ines": 1764,
      "Ġaction": 1765,
      "Ġreal": 1766,
      "Ã¼rlich": 1767,
      "ouse": 1768,
      "Ġinsbesondere": 1769,
      "io": 1770,
      "ium": 1771,
      "way": 1772,
      "omp": 1773,
      "Ġselbst": 1774,
      "Ã¼ÃŁ": 1775,
      "licher": 1776,
      "Ġwhy": 1777,
      "Ġmaj": 1778,
      "ĠOr": 1779,
      "cted": 1780,
      "Ġthro": 1781,
      "Ġfo": 1782,
      "uring": 1783,
      "Ġwirtschaft": 1784,
      "reichen": 1785,
      "Ġmeasures": 1786,
      "ia": 1787,
      "of": 1788,
      "uge": 1789,
      "ree": 1790,
      "arge": 1791,
      "Ã¤m": 1792,
      "ĠIs": 1793,
      "kehr": 1794,
      "ĠArbeits": 1795,
      "air": 1796,
      "aum": 1797,
      "aten": 1798,
      "lex": 1799,
      "Ã¤tz": 1800,
      "bene": 1801,
      "Ġneue": 1802,
      "ĠFraktion": 1803,
      "Ġdirective": 1804,
      "Ġestablish": 1805,
      "AN": 1806,
      "ehr": 1807,
      "onds": 1808,
      "ispiel": 1809,
      "ited": 1810,
      "ential": 1811,
      "Ġnun": 1812,
      "ĠHer": 1813,
      "Ġsicher": 1814,
      "Ġuse": 1815,
      "Ġstrateg": 1816,
      "ail": 1817,
      "aff": 1818,
      "orities": 1819,
      "ĠEntscheid": 1820,
      "Ġinterest": 1821,
      "schieden": 1822,
      "Ġamendments": 1823,
      "hilfen": 1824,
      "ĠwÃ¼rde": 1825,
      "ĠTreaty": 1826,
      "rÃ¼": 1827,
      "Ġpers": 1828,
      "ĠDem": 1829,
      "Ġnecess": 1830,
      "Ġneuen": 1831,
      "ĠVerantwort": 1832,
      "Ġtaken": 1833,
      "Ġlegal": 1834,
      "fahren": 1835,
      "1999": 1836,
      "Ġopinion": 1837,
      "BAN": 1838,
      "RBAN": 1839,
      "Wenn": 1840,
      "fet": 1841,
      "konferenz": 1842,
      "inzip": 1843,
      "Ġpra": 1844,
      "ĠAm": 1845,
      "Ġgive": 1846,
      "ĠKo": 1847,
      "Ã¤ng": 1848,
      "ently": 1849,
      "Ã¤lt": 1850,
      "Ġposition": 1851,
      "ĠProgramm": 1852,
      "rifft": 1853,
      "Ġexample": 1854,
      "fety": 1855,
      "lungen": 1856,
      "Ġfra": 1857,
      "ĠBeh": 1858,
      "eln": 1859,
      "ĠReform": 1860,
      "ĠmÃ¶glich": 1861,
      "Ġmeiner": 1862,
      "ritt": 1863,
      "Ġtrans": 1864,
      "lossen": 1865,
      "Ġindust": 1866,
      "Ġinvol": 1867,
      "Ġinstitutions": 1868,
      "Ġterms": 1869,
      "Ġnumber": 1870,
      "Ġwish": 1871,
      "Ġhope": 1872,
      "Ġjetzt": 1873,
      "stellen": 1874,
      "immung": 1875,
      "fung": 1876,
      "lle": 1877,
      "eshalb": 1878,
      "ĠwÃ¤re": 1879,
      "Ġfind": 1880,
      "ĠMein": 1881,
      "Ġloc": 1882,
      "ffe": 1883,
      "ĠBei": 1884,
      "Ġissues": 1885,
      "Ġ5": 1886,
      "erung": 1887,
      "ĠPolitik": 1888,
      "icult": 1889,
      "ether": 1890,
      "ĠURBAN": 1891,
      "Ġexpress": 1892,
      "immt": 1893,
      "Ġthrough": 1894,
      "gleich": 1895,
      "ting": 1896,
      "Ġserv": 1897,
      "ats": 1898,
      "Ġintegr": 1899,
      "Ġmachen": 1900,
      "Ġverb": 1901,
      "Ġshall": 1902,
      "Ġmain": 1903,
      "idency": 1904,
      "Ġproblems": 1905,
      "ĠRegierungskonferenz": 1906,
      "weit": 1907,
      "Ġtun": 1908,
      "Ġprodu": 1909,
      "spolitik": 1910,
      "ife": 1911,
      "rolle": 1912,
      "Ġcooperation": 1913,
      "Ġeinige": 1914,
      "ĠMÃ¶glichkeit": 1915,
      "spro": 1916,
      "Ġextre": 1917,
      "Ã¤ndern": 1918,
      "Ġresult": 1919,
      "Ġconcerned": 1920,
      "ade": 1921,
      "politik": 1922,
      "ĠY": 1923,
      "erk": 1924,
      "Ġthank": 1925,
      "Ã¤uÃŁ": 1926,
      "Ġvote": 1927,
      "luÃŁ": 1928,
      "vour": 1929,
      "ately": 1930,
      "Ġinde": 1931,
      "Ġreas": 1932,
      "ĠKon": 1933,
      "Ã¶s": 1934,
      "ability": 1935,
      "Ġseine": 1936,
      "tellt": 1937,
      "Ġmention": 1938,
      "ĠTran": 1939,
      "Ġform": 1940,
      "Ġtechn": 1941,
      "Ġinclud": 1942,
      "Da": 1943,
      "eut": 1944,
      "ks": 1945,
      "ale": 1946,
      "Ġbefore": 1947,
      "ĠHouse": 1948,
      "Ġneg": 1949,
      "ĠInstitut": 1950,
      "itiat": 1951,
      "ĠAnt": 1952,
      "Ġausge": 1953,
      "Ġagreement": 1954,
      "Ġguid": 1955,
      "ves": 1956,
      "reg": 1957,
      "Ġbesch": 1958,
      "Ġohne": 1959,
      "ĠIf": 1960,
      "edom": 1961,
      "ĠPortug": 1962,
      "ppen": 1963,
      "Ġrat": 1964,
      "ĠBerichterst": 1965,
      "ĠKolleg": 1966,
      "Ġrequire": 1967,
      "ital": 1968,
      "recht": 1969,
      "Ġgest": 1970,
      "Ġlong": 1971,
      "Ġsafety": 1972,
      "Ġaccount": 1973,
      "Ġlook": 1974,
      "Ein": 1975,
      "gest": 1976,
      "ents": 1977,
      "ĠFund": 1978,
      "Ġschon": 1979,
      "ĠZusammenarbeit": 1980,
      "Ġrepresent": 1981,
      "ĠBedeut": 1982,
      "Ġopport": 1983,
      "urs": 1984,
      "ĠMon": 1985,
      "ĠFran": 1986,
      "Ġenlar": 1987,
      "Ġplace": 1988,
      "batte": 1989,
      "ĠGroup": 1990,
      "Ġsim": 1991,
      "Ġstand": 1992,
      "Ġsect": 1993,
      "lau": 1994,
      "Ġaller": 1995,
      "ically": 1996,
      "lob": 1997,
      "wohl": 1998,
      "wendung": 1999,
      "ĠProbleme": 2000,
      "Ġetwas": 2001,
      "ĠBedeutung": 2002,
      "kun": 2003,
      "walt": 2004,
      "Ġwissen": 2005,
      "ĠAut": 2006,
      "Ã¶ÃŁ": 2007,
      "Ġkommen": 2008,
      "Ġprom": 2009,
      "Ġnotwend": 2010,
      "etzen": 2011,
      "Ġboth": 2012,
      "wert": 2013,
      "igten": 2014,
      "ĠVerein": 2015,
      "ĠStruktur": 2016,
      "Ã¼nft": 2017,
      "Ġcountry": 2018,
      "eiterung": 2019,
      "ĠVertrag": 2020,
      "weisen": 2021,
      "Ġnecessary": 2022,
      "ĠBerichterstatter": 2023,
      "ieder": 2024,
      "ĠIhr": 2025,
      "ĠFall": 2026,
      "ultur": 2027,
      "wirtschaft": 2028,
      "ency": 2029,
      "legt": 2030,
      "ĠAu": 2031,
      "Ġprote": 2032,
      "ikel": 2033,
      "ĠLebens": 2034,
      "Ġenlarge": 2035,
      "Ġpri": 2036,
      "Ġval": 2037,
      "ĠBut": 2038,
      "Ġsec": 2039,
      "Ġworld": 2040,
      "Ġcontrol": 2041,
      "kte": 2042,
      "uro": 2043,
      "Ġset": 2044,
      "ĠBeschÃ¤ft": 2045,
      "ĠUnternehmen": 2046,
      "ĠFragen": 2047,
      "Ġstehen": 2048,
      "fÃ¼hrt": 2049,
      "legenheit": 2050,
      "Ġwirklich": 2051,
      "hang": 2052,
      "mÃ¤ÃŁ": 2053,
      "ĠQ": 2054,
      "Ġmin": 2055,
      "Ġcre": 2056,
      "Ġeinmal": 2057,
      "Ġrecht": 2058,
      "Ġkomm": 2059,
      "deut": 2060,
      "Ġwithout": 2061,
      "pporte": 2062,
      "ĠStand": 2063,
      "qual": 2064,
      "ordin": 2065,
      "Ġcontrib": 2066,
      "cyc": 2067,
      "ĠMembers": 2068,
      "come": 2069,
      "ler": 2070,
      "Ġide": 2071,
      "ende": 2072,
      "itor": 2073,
      "orgen": 2074,
      "genommen": 2075,
      "Ġwhether": 2076,
      "ienst": 2077,
      "zeich": 2078,
      "Ġprec": 2079,
      "folg": 2080,
      "falls": 2081,
      "Im": 2082,
      "Ġcost": 2083,
      "rache": 2084,
      "Ġgesch": 2085,
      "ĠFre": 2086,
      "ught": 2087,
      "Ġfavour": 2088,
      "Ġimpro": 2089,
      "Ġzwar": 2090,
      "ĠProblem": 2091,
      "eng": 2092,
      "Ġbrau": 2093,
      "urther": 2094,
      "ĠTages": 2095,
      "Ġklar": 2096,
      "Ġstruct": 2097,
      "Ġallen": 2098,
      "Ġproposals": 2099,
      "ĠeuropÃ¤ische": 2100,
      "Ġbesonder": 2101,
      "Ġrapporte": 2102,
      "ĠDebatte": 2103,
      "Ġrights": 2104,
      "Ġsubject": 2105,
      "ĠUnterstÃ¼tz": 2106,
      "ĠWettbewerbs": 2107,
      "ian": 2108,
      "lus": 2109,
      "aly": 2110,
      "Ġbek": 2111,
      "ĠII": 2112,
      "Ġdecision": 2113,
      "Ġviele": 2114,
      "Ġfew": 2115,
      "Ġhowever": 2116,
      "Ġemployment": 2117,
      "ĠErweiterung": 2118,
      "Ġguidel": 2119,
      "fter": 2120,
      "Ġ%": 2121,
      "gemein": 2122,
      "Ġbed": 2123,
      "rael": 2124,
      "lichkeit": 2125,
      "Ġke": 2126,
      "Ġverst": 2127,
      "Ġdeut": 2128,
      "ĠEntschlieÃŁ": 2129,
      "linien": 2130,
      "Diese": 2131,
      "ĠÃĸsterreich": 2132,
      "ĠMinister": 2133,
      "ĠMeinung": 2134,
      "kunft": 2135,
      "par": 2136,
      "Ġsince": 2137,
      "iele": 2138,
      "ret": 2139,
      "grund": 2140,
      "Ã¼nd": 2141,
      "Wie": 2142,
      "iver": 2143,
      "itions": 2144,
      "Ã¤d": 2145,
      "ices": 2146,
      "elf": 2147,
      "Ġgef": 2148,
      "Ġsecond": 2149,
      "ĠProj": 2150,
      "Ã¼cksicht": 2151,
      "ollow": 2152,
      "ekte": 2153,
      "ĠZusammenhang": 2154,
      "ĠArtikel": 2155,
      "Ġlocal": 2156,
      "ĠBeihilfen": 2157,
      "ĠUnterstÃ¼tzung": 2158,
      "Ġguidelines": 2159,
      "Be": 2160,
      "ban": 2161,
      "cing": 2162,
      "Ġfull": 2163,
      "stand": 2164,
      "Ġderen": 2165,
      "ĠIch": 2166,
      "ĠPunkt": 2167,
      "ĠBet": 2168,
      "ules": 2169,
      "Ġvers": 2170,
      "zept": 2171,
      "Ġpolitischen": 2172,
      "Ġihren": 2173,
      "ĠAusschuÃŁ": 2174,
      "ĠGemeinschafts": 2175,
      "ĠThema": 2176,
      "iar": 2177,
      "lick": 2178,
      "nehmen": 2179,
      "arm": 2180,
      "Ġele": 2181,
      "Ã¤mp": 2182,
      "tens": 2183,
      "Ġcommun": 2184,
      "assung": 2185,
      "Ġdifficult": 2186,
      "ĠnatÃ¼rlich": 2187,
      "Ġzwei": 2188,
      "ĠbegrÃ¼ÃŁ": 2189,
      "Ġserious": 2190,
      "ĠVerantwortung": 2191,
      "hol": 2192,
      "nisse": 2193,
      "Ġdone": 2194,
      "Ġav": 2195,
      "Ġagenda": 2196,
      "alen": 2197,
      "Ġanges": 2198,
      "urity": 2199,
      "ĠAl": 2200,
      "ĠRaum": 2201,
      "ĠlÃ¤nd": 2202,
      "ĠConferen": 2203,
      "Ġgeben": 2204,
      "osov": 2205,
      "Ġnext": 2206,
      "ĠLeit": 2207,
      "ĠInitiative": 2208,
      "Ġja": 2209,
      "ĠZu": 2210,
      "halts": 2211,
      "Ġcome": 2212,
      "reiheit": 2213,
      "Ġproblem": 2214,
      "Ã¶rderung": 2215,
      "Ġbesteht": 2216,
      "udget": 2217,
      "ĠTransp": 2218,
      "ĠKolleginnen": 2219,
      "Aber": 2220,
      "fonds": 2221,
      "man": 2222,
      "gew": 2223,
      "Ġgut": 2224,
      "Ġgeb": 2225,
      "rÃ¤n": 2226,
      "Ġresour": 2227,
      "ĠNe": 2228,
      "Ġgovernment": 2229,
      "Ġhelp": 2230,
      "Ġprojects": 2231,
      "ĠTagesordnung": 2232,
      "ĠConference": 2233,
      "hip": 2234,
      "von": 2235,
      "isions": 2236,
      "Ġeben": 2237,
      "ĠSp": 2238,
      "ĠKosov": 2239,
      "sprÃ¤sident": 2240,
      "ĠJust": 2241,
      "ĠkÃ¶nn": 2242,
      "wirk": 2243,
      "stellung": 2244,
      "agt": 2245,
      "kes": 2246,
      "Ġ7": 2247,
      "unden": 2248,
      "Ġmill": 2249,
      "Ġandere": 2250,
      "ache": 2251,
      "ĠPresidency": 2252,
      "ĠRegierung": 2253,
      "Ã¤chst": 2254,
      "Ġfreedom": 2255,
      "ĠAufga": 2256,
      "wards": 2257,
      "ething": 2258,
      "ĠInstitutionen": 2259,
      "Deshalb": 2260,
      "government": 2261,
      "iod": 2262,
      "lungs": 2263,
      "Ġfollow": 2264,
      "ĠnÃ¤m": 2265,
      "Ġcap": 2266,
      "ĠBeit": 2267,
      "Ġworden": 2268,
      "Ġfinanz": 2269,
      "ĠVorschlÃ¤": 2270,
      "Ġsomething": 2271,
      "Ġrapporteur": 2272,
      "ĠnÃ¤mlich": 2273,
      "hÃ¤ng": 2274,
      "Ġmo": 2275,
      "eld": 2276,
      "Ã¶l": 2277,
      "Ġbetrifft": 2278,
      "ĠJahren": 2279,
      "Ġrole": 2280,
      "Ġenvironmental": 2281,
      "governmental": 2282,
      "ace": 2283,
      "Ġback": 2284,
      "Ġcrit": 2285,
      "ĠEbene": 2286,
      "icle": 2287,
      "ilt": 2288,
      "ĠEuropas": 2289,
      "ĠHand": 2290,
      "Ġ-,": 2291,
      "rieden": 2292,
      "Ġresolution": 2293,
      "order": 2294,
      "Ġbezug": 2295,
      "Ġrural": 2296,
      "ĠdarÃ¼ber": 2297,
      "Ġresponsibility": 2298,
      "Ġenlargement": 2299,
      "AL": 2300,
      "Ġsm": 2301,
      "Ã¼b": 2302,
      "Ġglau": 2303,
      "ĠFl": 2304,
      "ffair": 2305,
      "Ġproced": 2306,
      "Ġdeal": 2307,
      "Ġdown": 2308,
      "osten": 2309,
      "Ġimportance": 2310,
      "usses": 2311,
      "ĠSozial": 2312,
      "ĠTeil": 2313,
      "Ġincreas": 2314,
      "ĠKosovo": 2315,
      "'s": 2316,
      "gre": 2317,
      "markt": 2318,
      "over": 2319,
      "ph": 2320,
      "Ġinformation": 2321,
      "icial": 2322,
      "immen": 2323,
      "ĠBest": 2324,
      "ĠauÃŁ": 2325,
      "uman": 2326,
      "ĠDisk": 2327,
      "ahre": 2328,
      "annt": 2329,
      "istr": 2330,
      "Ġsteht": 2331,
      "Ġjustice": 2332,
      "Ġnationalen": 2333,
      "ĠProgramme": 2334,
      "ĠAustria": 2335,
      "Mein": 2336,
      "druck": 2337,
      "Ġword": 2338,
      "ander": 2339,
      "Ġbess": 2340,
      "entlichen": 2341,
      "eding": 2342,
      "emp": 2343,
      "ĠSystem": 2344,
      "ĠStra": 2345,
      "Ġorgan": 2346,
      "ĠzurÃ¼ck": 2347,
      "fÃ¼hrung": 2348,
      "ĠgrÃ¶ÃŁ": 2349,
      "ĠLeitlinien": 2350,
      "Ġaw": 2351,
      "urz": 2352,
      "Ġeinge": 2353,
      "ĠMill": 2354,
      "ĠRolle": 2355,
      "Ġdaher": 2356,
      "ĠWo": 2357,
      "ĠState": 2358,
      "Ġmeans": 2359,
      "ĠAussp": 2360,
      "ĠErgeb": 2361,
      "zeug": 2362,
      "Ġproposed": 2363,
      "Ġtranspar": 2364,
      "QU": 2365,
      "fÃ¤h": 2366,
      "ude": 2367,
      "Ġ9": 2368,
      "Ġdel": 2369,
      "unÃ¤chst": 2370,
      "omen": 2371,
      "etzung": 2372,
      "Ġschw": 2373,
      "sequ": 2374,
      "Ġgoing": 2375,
      "Ġgovern": 2376,
      "ĠWhat": 2377,
      "prochen": 2378,
      "Ġlegislation": 2379,
      "Ġspecific": 2380,
      "Ġindustry": 2381,
      "Ġresources": 2382,
      "QUAL": 2383,
      "dam": 2384,
      "zw": 2385,
      "ĠÃ¤uÃŁ": 2386,
      "isen": 2387,
      "orge": 2388,
      "roffen": 2389,
      "Ġunderst": 2390,
      "rachten": 2391,
      "Ġonce": 2392,
      "Ġerst": 2393,
      "ĠOn": 2394,
      "ccess": 2395,
      "Ġextrem": 2396,
      "erien": 2397,
      "atast": 2398,
      "iften": 2399,
      "Ġabs": 2400,
      "Ġdarf": 2401,
      "ratic": 2402,
      "ĠgegenÃ¼ber": 2403,
      "Ġinternal": 2404,
      "Ġeffective": 2405,
      "Ġletzten": 2406,
      "Ġrather": 2407,
      "Ã¶lk": 2408,
      "ĠAussprache": 2409,
      "atastrop": 2410,
      "att": 2411,
      "Ġel": 2412,
      "Ġcolle": 2413,
      "ĠEQUAL": 2414,
      "ists": 2415,
      "agement": 2416,
      "Ġsmall": 2417,
      "ellen": 2418,
      "hn": 2419,
      "Ġsens": 2420,
      "ichte": 2421,
      "Ġpow": 2422,
      "ĠFr": 2423,
      "schaften": 2424,
      "Ġrest": 2425,
      "Ġdaran": 2426,
      "Ġchange": 2427,
      "Ġbasis": 2428,
      "Ġtransport": 2429,
      "riften": 2430,
      "ually": 2431,
      "zentr": 2432,
      "Ġtowards": 2433,
      "racht": 2434,
      "ĠSituation": 2435,
      "Ġdavon": 2436,
      "Ġrisk": 2437,
      "ufact": 2438,
      "ielen": 2439,
      "Ġmanufact": 2440,
      "zeÃŁ": 2441,
      "Ġperiod": 2442,
      "Ġsozialen": 2443,
      "Und": 2444,
      "ĠunterstÃ¼tzen": 2445,
      "ĠBehÃ¶r": 2446,
      "ffairs": 2447,
      "Was": 2448,
      "fort": 2449,
      "Ġess": 2450,
      "Ġsign": 2451,
      "Ġfol": 2452,
      "elle": 2453,
      "Ġday": 2454,
      "ierte": 2455,
      "ĠHerren": 2456,
      "Ġqual": 2457,
      "sterdam": 2458,
      "ĠauÃŁer": 2459,
      "lei": 2460,
      "Ġvoll": 2461,
      "ird": 2462,
      "ided": 2463,
      "ĠRates": 2464,
      "ĠUms": 2465,
      "ĠDienst": 2466,
      "Ġjob": 2467,
      "liegen": 2468,
      "ĠAnsicht": 2469,
      "ĠJahre": 2470,
      "Ġadv": 2471,
      "Ġspeak": 2472,
      "ĠEUR": 2473,
      "Ġobjectives": 2474,
      "Ġpositive": 2475,
      "Ġpract": 2476,
      "Ġbrauchen": 2477,
      "zus": 2478,
      "reffen": 2479,
      "ante": 2480,
      "ĠnÃ¤ch": 2481,
      "ĠEuro": 2482,
      "raum": 2483,
      "rauch": 2484,
      "ropri": 2485,
      "ĠKultur": 2486,
      "verstÃ¤nd": 2487,
      "Ġrules": 2488,
      "ĠNo": 2489,
      "ĠIsrael": 2490,
      "Ġsecurity": 2491,
      "ĠZukunft": 2492,
      "bau": 2493,
      "fer": 2494,
      "fÃ¤": 2495,
      "Ġ'": 2496,
      "iness": 2497,
      "Ġeing": 2498,
      "Ġcr": 2499,
      "Ġhigh": 2500,
      "Ġbew": 2501,
      "idar": 2502,
      "Ġcond": 2503,
      "ehm": 2504,
      "Ġregul": 2505,
      "ĠVors": 2506,
      "Ġquite": 2507,
      "Ġzweit": 2508,
      "Ġpolicies": 2509,
      "Ã¤hrend": 2510,
      "Ġeconomy": 2511,
      "flicht": 2512,
      "Ġeinzel": 2513,
      "ĠAmsterdam": 2514,
      "Ġsimp": 2515,
      "Er": 2516,
      "fr": 2517,
      "Ġfurther": 2518,
      "ĠPap": 2519,
      "Ġredu": 2520,
      "Ġlassen": 2521,
      "ktionen": 2522,
      "ĠDie": 2523,
      "ĠEnerg": 2524,
      "Ġenerg": 2525,
      "igkeiten": 2526,
      "Ġconcerns": 2527,
      "Ġclearly": 2528,
      "ĠSteuer": 2529,
      "Ġbesonders": 2530,
      "Ġessential": 2531,
      "ock": 2532,
      "ĠfÃ¼hren": 2533,
      "stimmung": 2534,
      "Ġpay": 2535,
      "Ã¤hl": 2536,
      "Ġless": 2537,
      "ĠWelt": 2538,
      "ĠGen": 2539,
      "ierten": 2540,
      "ĠZust": 2541,
      "Ġmeet": 2542,
      "ĠPrÃ¤sidentschaft": 2543,
      "ĠberÃ¼cksicht": 2544,
      "ĠAbgeordneten": 2545,
      "ĠÃĦnderungsantrÃ¤ge": 2546,
      "Ġglaube": 2547,
      "Ġunderstand": 2548,
      "len": 2549,
      "sid": 2550,
      "stan": 2551,
      "ĠFreiheit": 2552,
      "ĠgehÃ¶r": 2553,
      "ĠLÃ¤nder": 2554,
      "Ġallow": 2555,
      "ennt": 2556,
      "ĠRegional": 2557,
      "Ġwhole": 2558,
      "Ġeffort": 2559,
      "setzung": 2560,
      "Ġreason": 2561,
      "ĠUmsetzung": 2562,
      "An": 2563,
      "liament": 2564,
      "Ġaim": 2565,
      "Ġthree": 2566,
      "Ġbus": 2567,
      "Ġhuman": 2568,
      "Ġvar": 2569,
      "ĠBinnen": 2570,
      "erecht": 2571,
      "Ġsollen": 2572,
      "Ġstaat": 2573,
      "Ġerforder": 2574,
      "ĠZiele": 2575,
      "ĠNamen": 2576,
      "Ġseiner": 2577,
      "Ġapplic": 2578,
      "oint": 2579,
      "ĠIhre": 2580,
      "Ġkonk": 2581,
      "Ġdiffer": 2582,
      "Ġliegt": 2583,
      "Ġauthorities": 2584,
      "Ġaccept": 2585,
      "ĠStaaten": 2586,
      "Ġadopted": 2587,
      "Ġcontinue": 2588,
      "ways": 2589,
      "ĠlÃ¤ndlichen": 2590,
      "fit": 2591,
      "glichen": 2592,
      "hes": 2593,
      "per": 2594,
      "Ġir": 2595,
      "Ġdet": 2596,
      "ĠdÃ¼r": 2597,
      "arn": 2598,
      "Ġeach": 2599,
      "iesen": 2600,
      "Ġstart": 2601,
      "ĠParte": 2602,
      "oti": 2603,
      "Ġadmin": 2604,
      "Ġgesagt": 2605,
      "ĠArticle": 2606,
      "ix": 2607,
      "sÃ¤tz": 2608,
      "uese": 2609,
      "Ġwes": 2610,
      "Ġbudget": 2611,
      "rodu": 2612,
      "leist": 2613,
      "Ġcor": 2614,
      "Ġherv": 2615,
      "ĠAt": 2616,
      "ĠSy": 2617,
      "Ġhaving": 2618,
      "amental": 2619,
      "ify": 2620,
      "Ġsuccess": 2621,
      "Ġricht": 2622,
      "Ġappropri": 2623,
      "Ã¼nf": 2624,
      "Ġdisast": 2625,
      "ĠgroÃŁen": 2626,
      "ĠIntergovernmental": 2627,
      "ĠHaider": 2628,
      "ĠPortuguese": 2629,
      "Ġbusiness": 2630,
      "cument": 2631,
      "ĠhÃ¤t": 2632,
      "urn": 2633,
      "llt": 2634,
      "ĠFirst": 2635,
      "ĠThese": 2636,
      "ffentlich": 2637,
      "Ġdep": 2638,
      "ĠLage": 2639,
      "Ġdocument": 2640,
      "ably": 2641,
      "ards": 2642,
      "Ġcommittee": 2643,
      "Ġgesam": 2644,
      "ĠOrgan": 2645,
      "Ġnegoti": 2646,
      "Ġprotection": 2647,
      "other": 2648,
      "ven": 2649,
      "Ġtal": 2650,
      "ĠwÃ¤hrend": 2651,
      "unde": 2652,
      "org": 2653,
      "oren": 2654,
      "gether": 2655,
      "ication": 2656,
      "ĠBr": 2657,
      "eless": 2658,
      "Ġdeshalb": 2659,
      "ĠVerwalt": 2660,
      "Ġpeace": 2661,
      "Ġaccord": 2662,
      "treten": 2663,
      "Ġmonth": 2664,
      "Ġadministr": 2665,
      "fach": 2666,
      "hÃ¤lt": 2667,
      "kÃ¤mp": 2668,
      "macht": 2669,
      "sicherheit": 2670,
      "ĠÃ¼b": 2671,
      "rech": 2672,
      "Ġinn": 2673,
      "leicht": 2674,
      "Ġbef": 2675,
      "Ġglob": 2676,
      "Ġje": 2677,
      "Ġunseren": 2678,
      "Ġumf": 2679,
      "Ġschaffen": 2680,
      "iÃŁb": 2681,
      "tellung": 2682,
      "Ġagree": 2683,
      "Ġimplementation": 2684,
      "pecial": 2685,
      "Ġfood": 2686,
      "Ġsector": 2687,
      "Ġnotwendig": 2688,
      "ĠQu": 2689,
      "Ġkommt": 2690,
      "cycling": 2691,
      "gress": 2692,
      "Ġseit": 2693,
      "Ġcl": 2694,
      "ĠMarkt": 2695,
      "ĠTob": 2696,
      "ĠRed": 2697,
      "Ġlim": 2698,
      "Ġkurz": 2699,
      "Ġforward": 2700,
      "ierungen": 2701,
      "Ġnichts": 2702,
      "iving": 2703,
      "Ġyet": 2704,
      "Ġallgemein": 2705,
      "sichtlich": 2706,
      "Ġhoffe": 2707,
      "ismus": 2708,
      "Ġgreater": 2709,
      "work": 2710,
      "Ġentsprechen": 2711,
      "ĠVorschlÃ¤ge": 2712,
      "Ġextremely": 2713,
      "ĠTobin": 2714,
      "Nach": 2715,
      "aking": 2716,
      "tain": 2717,
      "Ġ.": 2718,
      "Ġ6": 2719,
      "Ġtas": 2720,
      "Ġdist": 2721,
      "Ġportug": 2722,
      "urf": 2723,
      "icles": 2724,
      "ĠMitte": 2725,
      "Ġdabei": 2726,
      "ĠDamen": 2727,
      "Ġshow": 2728,
      "ĠErklÃ¤r": 2729,
      "Ġitself": 2730,
      "Ġpolitische": 2731,
      "Ġoper": 2732,
      "ĠSocial": 2733,
      "ĠAusschusses": 2734,
      "ĠHaushalts": 2735,
      "Ġachieve": 2736,
      "Ġmajor": 2737,
      "Ġabsol": 2738,
      "Ġdifferent": 2739,
      "Ġportugies": 2740,
      "ining": 2741,
      "Ġafter": 2742,
      "ath": 2743,
      "Ġben": 2744,
      "Ġeigen": 2745,
      "ĠStellung": 2746,
      "ĠBem": 2747,
      "ĠHil": 2748,
      "Ġdefin": 2749,
      "Ġdemokrat": 2750,
      "Ġvorge": 2751,
      "Ġmaking": 2752,
      "graph": 2753,
      "gesehen": 2754,
      "half": 2755,
      "gramm": 2756,
      "ĠAusdruck": 2757,
      "Ġintrodu": 2758,
      "Ġcars": 2759,
      "Ġwelche": 2760,
      "Ġgerade": 2761,
      "Ġmanufactur": 2762,
      "maÃŁ": 2763,
      "Ġwomen": 2764,
      "itt": 2765,
      "Ġbu": 2766,
      "oment": 2767,
      "ĠPal": 2768,
      "icient": 2769,
      "ĠFÃ¶rderung": 2770,
      "Ġverschieden": 2771,
      "ustrie": 2772,
      "ruch": 2773,
      "ĠAnwendung": 2774,
      "abhÃ¤ng": 2775,
      "allen": 2776,
      "Ġstellen": 2777,
      "Ġrecog": 2778,
      "ĠgroÃŁe": 2779,
      "Ġbestimm": 2780,
      "richtung": 2781,
      "Ġhalte": 2782,
      "Ġgroups": 2783,
      "Ġopportunity": 2784,
      "Ġvarious": 2785,
      "hmen": 2786,
      "ode": 2787,
      "zahl": 2788,
      "Ġdrei": 2789,
      "reten": 2790,
      "Ġpres": 2791,
      "Ġbehalf": 2792,
      "irm": 2793,
      "ĠBes": 2794,
      "ĠCon": 2795,
      "ĠCour": 2796,
      "Ġkle": 2797,
      "Ġimm": 2798,
      "ĠIntern": 2799,
      "Ġexc": 2800,
      "Ġespecial": 2801,
      "upt": 2802,
      "Ġ200": 2803,
      "merk": 2804,
      "Ġwelcome": 2805,
      "riminal": 2806,
      "affung": 2807,
      "ĠDemokrat": 2808,
      "ĠYou": 2809,
      "ĠLebensmittel": 2810,
      "ĠStandpunkt": 2811,
      "Ġenergy": 2812,
      "eich": 2813,
      "hÃ¶": 2814,
      "hungen": 2815,
      "ising": 2816,
      "Ġbro": 2817,
      "arante": 2818,
      "entle": 2819,
      "ĠMehr": 2820,
      "Ġrece": 2821,
      "Ġ12": 2822,
      "Ġcomple": 2823,
      "enzen": 2824,
      "ĠFrauen": 2825,
      "Ġfeel": 2826,
      "benso": 2827,
      "Ġcertainly": 2828,
      "Ġstatement": 2829,
      "Ġprevent": 2830,
      "Ġwirtschaftlichen": 2831,
      "Ġespecially": 2832,
      "entlemen": 2833,
      "blick": 2834,
      "cour": 2835,
      "dings": 2836,
      "ep": 2837,
      "kzept": 2838,
      "mÃ¶": 2839,
      "sweise": 2840,
      "ises": 2841,
      "Ġbal": 2842,
      "Ġander": 2843,
      "Ġgentlemen": 2844,
      "Ġalways": 2845,
      "Ġerne": 2846,
      "ĠRegel": 2847,
      "ĠLi": 2848,
      "though": 2849,
      "ĠThey": 2850,
      "rik": 2851,
      "adies": 2852,
      "ference": 2853,
      "entral": 2854,
      "Ġauthority": 2855,
      "Ġstatt": 2856,
      "Ġmillion": 2857,
      "kont": 2858,
      "zuf": 2859,
      "ond": 2860,
      "atten": 2861,
      "Ġplan": 2862,
      "Ġveh": 2863,
      "racy": 2864,
      "Ġgilt": 2865,
      "Ġseem": 2866,
      "ĠSchaffung": 2867,
      "Ġcompan": 2868,
      "idence": 2869,
      "ared": 2870,
      "Ġlack": 2871,
      "zeitig": 2872,
      "ĠCourt": 2873,
      "zust": 2874,
      "Ġtogether": 2875,
      "ily": 2876,
      "Ġkind": 2877,
      "ĠLÃ¤ndern": 2878,
      "ĠNach": 2879,
      "ĠAnge": 2880,
      "Ġproper": 2881,
      "utet": 2882,
      "Ġneeds": 2883,
      "ĠArbeitsp": 2884,
      "Ġsolche": 2885,
      "ĠgewÃ¤hr": 2886,
      "Ġprovide": 2887,
      "Ġguarante": 2888,
      "Ġaddress": 2889,
      "Ġdanger": 2890,
      "ĠnÃ¤chsten": 2891,
      "ĠBinnenmarkt": 2892,
      "ho": 2893,
      "oted": 2894,
      "vention": 2895,
      "orm": 2896,
      "Ġnon": 2897,
      "Ġderzeit": 2898,
      "Ġzusammen": 2899,
      "Ġlok": 2900,
      "Ġexist": 2901,
      "ified": 2902,
      "Ġleast": 2903,
      "Ġ1997": 2904,
      "Ġgeneral": 2905,
      "Ġinvest": 2906,
      "Ġaddition": 2907,
      "Ġapproach": 2908,
      "kÃ¤mpfung": 2909,
      "ogen": 2910,
      "wÃ¤r": 2911,
      "zÃ¼": 2912,
      "Ġdid": 2913,
      "Ġduring": 2914,
      "Ġinstrument": 2915,
      "Ġanother": 2916,
      "Ã¤ten": 2917,
      "Ġvan": 2918,
      "llschaft": 2919,
      "ĠFrieden": 2920,
      "Ġlarge": 2921,
      "ĠstÃ¤rk": 2922,
      "aussch": 2923,
      "ĠNot": 2924,
      "ension": 2925,
      "Ġdarin": 2926,
      "ĠSchw": 2927,
      "Ġworking": 2928,
      "Ġapply": 2929,
      "Ġused": 2930,
      "ried": 2931,
      "oney": 2932,
      "Ġwaren": 2933,
      "Ġassist": 2934,
      "Ġfunds": 2935,
      "vorsch": 2936,
      "ĠKontrolle": 2937,
      "Ġdemocratic": 2938,
      "Ġinterests": 2939,
      "Ġmentioned": 2940,
      "Mit": 2941,
      "beding": 2942,
      "wurf": 2943,
      "unehmen": 2944,
      "unkte": 2945,
      "Ġmind": 2946,
      "Ġmoney": 2947,
      "ross": 2948,
      "Ġflex": 2949,
      "Ġcall": 2950,
      "Ġbeispiel": 2951,
      "ingle": 2952,
      "Ġzahl": 2953,
      "Ġreally": 2954,
      "Ġprogress": 2955,
      "ĠUnited": 2956,
      "Ġvorgesch": 2957,
      "ĠWeise": 2958,
      "Ġtaking": 2959,
      "Ġdarum": 2960,
      "Ġdanken": 2961,
      "Ġgemeinsamen": 2962,
      "ĠEntscheidung": 2963,
      "ĠÃ¼br": 2964,
      "01": 2965,
      "gern": 2966,
      "hing": 2967,
      "Ġtr": 2968,
      "isierung": 2969,
      "ativen": 2970,
      "Ġcreat": 2971,
      "raft": 2972,
      "Ġeinigen": 2973,
      "Ġrev": 2974,
      "ĠKosten": 2975,
      "Ġgel": 2976,
      "Ġerreichen": 2977,
      "Ġwerde": 2978,
      "Ġ15": 2979,
      "Ġentwick": 2980,
      "Ġactiv": 2981,
      "ĠKommissarin": 2982,
      "Ġresponsible": 2983,
      "Ġweniger": 2984,
      "Ġinvolved": 2985,
      "yl": 2986,
      "Ġterr": 2987,
      "Ġsingle": 2988,
      "rechte": 2989,
      "Ġfive": 2990,
      "Ġple": 2991,
      "use": 2992,
      "ĠPr": 2993,
      "eits": 2994,
      "Ġconst": 2995,
      "Ġerinn": 2996,
      "ĠLÃ¶s": 2997,
      "ialog": 2998,
      "Ġdemand": 2999,
      "ivil": 3000,
      "gestellt": 3001,
      "abil": 3002,
      "Ġmeines": 3003,
      "Ġconclus": 3004,
      "Ġbecome": 3005,
      "Ġdecisions": 3006,
      "Ġopen": 3007,
      "scheiden": 3008,
      "steller": 3009,
      "Ã¤hn": 3010,
      "ildung": 3011,
      "ĠThemen": 3012,
      "Ġbestehen": 3013,
      "Ġattention": 3014,
      "Ġbringen": 3015,
      "Ġservices": 3016,
      "Ġdeutlich": 3017,
      "greif": 3018,
      "Ġconditions": 3019,
      "hesion": 3020,
      "Ġmonths": 3021,
      "AF": 3022,
      "Hier": 3023,
      "itÃ¤ten": 3024,
      "angen": 3025,
      "alth": 3026,
      "Ġhist": 3027,
      "ĠEmp": 3028,
      "igungs": 3029,
      "Ġladies": 3030,
      "Ġgegeben": 3031,
      "Ġgemacht": 3032,
      "ĠHe": 3033,
      "ivid": 3034,
      "Ġled": 3035,
      "Ġalles": 3036,
      "Ã¼ssel": 3037,
      "Ġincrease": 3038,
      "Ġframe": 3039,
      "Ġavail": 3040,
      "Ġtransparency": 3041,
      "ĠAngelegenheit": 3042,
      "Ġakzept": 3043,
      "Ġmot": 3044,
      "Ġclos": 3045,
      "Ġculture": 3046,
      "llig": 3047,
      "ĠWer": 3048,
      "Ġersten": 3049,
      "ĠDurch": 3050,
      "Ġstep": 3051,
      "Ġspecial": 3052,
      "Ġhinaus": 3053,
      "unktion": 3054,
      "Ġwichtige": 3055,
      "Ġfundamental": 3056,
      "ziehen": 3057,
      "Ġindeed": 3058,
      "ĠVertrags": 3059,
      "ĠkÃ¶nnte": 3060,
      "onger": 3061,
      "arenz": 3062,
      "Ġpass": 3063,
      "Ġcult": 3064,
      "Ġoffen": 3065,
      "ĠErachten": 3066,
      "eder": 3067,
      "ĠMy": 3068,
      "Ġreach": 3069,
      "olit": 3070,
      "Ġdenke": 3071,
      "ĠWort": 3072,
      "ĠWieder": 3073,
      "eint": 3074,
      "Ġsowohl": 3075,
      "ĠVerhand": 3076,
      "Ġsei": 3077,
      "lauf": 3078,
      "Ġsupp": 3079,
      "Ġfinden": 3080,
      "aps": 3081,
      "Ġihnen": 3082,
      "lÃ¤tz": 3083,
      "alisation": 3084,
      "mitt": 3085,
      "Ġurban": 3086,
      "ĠÃ¶ff": 3087,
      "Ġcommunication": 3088,
      "ĠErachtens": 3089,
      "LAF": 3090,
      "akt": 3091,
      "iation": 3092,
      "net": 3093,
      "ritte": 3094,
      "Ġthird": 3095,
      "Ġsy": 3096,
      "roll": 3097,
      "Ġeig": 3098,
      "Ġans": 3099,
      "ĠBesch": 3100,
      "ĠWahl": 3101,
      "ĠVol": 3102,
      "Ġaufge": 3103,
      "ĠVerkehr": 3104,
      "spect": 3105,
      "Ġlead": 3106,
      "Ġsuff": 3107,
      "ĠAnd": 3108,
      "ĠWeg": 3109,
      "itted": 3110,
      "ĠschlieÃŁ": 3111,
      "ĠBeispiel": 3112,
      "Ġbetter": 3113,
      "ĠFinally": 3114,
      "Ġremain": 3115,
      "Ġcreate": 3116,
      "Ġidea": 3117,
      "Ġwords": 3118,
      "ĠdÃ¼rfen": 3119,
      "rika": 3120,
      "Ġbeispielsweise": 3121,
      "Ġframework": 3122,
      "com": 3123,
      "has": 3124,
      "vÃ¶lk": 3125,
      "ence": 3126,
      "Ġdort": 3127,
      "Ġinitiat": 3128,
      "Ġmov": 3129,
      "Ġpop": 3130,
      "Ġpast": 3131,
      "Ġann": 3132,
      "ĠRÃ¼ck": 3133,
      "ĠFort": 3134,
      "ĠGleich": 3135,
      "Ġdemon": 3136,
      "Ġhinsichtlich": 3137,
      "Ġgrund": 3138,
      "alisierung": 3139,
      "Uns": 3140,
      "ĠWirtschafts": 3141,
      "Ġprevious": 3142,
      "Ġcolleag": 3143,
      "Ġregulations": 3144,
      "ĠEnergie": 3145,
      "ĠHilfe": 3146,
      "wÃ¤rt": 3147,
      "Ġvorgeschlagen": 3148,
      "ĠÃ¼brigen": 3149,
      "Ġty": 3150,
      "Ġequal": 3151,
      "ĠEx": 3152,
      "ĠAll": 3153,
      "ĠAsp": 3154,
      "ĠSub": 3155,
      "Ġread": 3156,
      "schutz": 3157,
      "ĠFahr": 3158,
      "Ġasp": 3159,
      "ĠInstrument": 3160,
      "ived": 3161,
      "Ġmean": 3162,
      "ĠWeiÃŁb": 3163,
      "Ġregion": 3164,
      "Ġentscheiden": 3165,
      "Ġcommit": 3166,
      "ĠAbstimmung": 3167,
      "Ġaccess": 3168,
      "Ġpoints": 3169,
      "prinzip": 3170,
      "Ġincluding": 3171,
      "ĠTransparenz": 3172,
      "Ġaware": 3173,
      "Ġeinzelnen": 3174,
      "sidiar": 3175,
      "Ġavailable": 3176,
      "Ġinitiatives": 3177,
      "Auch": 3178,
      "gument": 3179,
      "ls": 3180,
      "ness": 3181,
      "ners": 3182,
      "zen": 3183,
      "zogen": 3184,
      "Ġbzw": 3185,
      "Ġocc": 3186,
      "Ġinner": 3187,
      "Ġmar": 3188,
      "text": 3189,
      "Ġbeim": 3190,
      "ĠFe": 3191,
      "ĠEnde": 3192,
      "oting": 3193,
      "aged": 3194,
      "Ġstreng": 3195,
      "Ġparticip": 3196,
      "losigkeit": 3197,
      "ĠGrundlage": 3198,
      "Ġquestions": 3199,
      "ructural": 3200,
      "Ġhalten": 3201,
      "Ġparliament": 3202,
      "ĠHinblick": 3203,
      "Ġmajority": 3204,
      "ĠStrukturfonds": 3205,
      "ĠBeschÃ¤ftigung": 3206,
      "ĠMillionen": 3207,
      "ĠPaper": 3208,
      "Aus": 3209,
      "CO": 3210,
      "agen": 3211,
      "best": 3212,
      "lÃ¼ck": 3213,
      "Ġthings": 3214,
      "atur": 3215,
      "Ġmight": 3216,
      "dert": 3217,
      "Ġlife": 3218,
      "esse": 3219,
      "ĠInformation": 3220,
      "ants": 3221,
      "ĠZwe": 3222,
      "Ġvorgesehen": 3223,
      "Ġmeinen": 3224,
      "Ġwohl": 3225,
      "iÃŁt": 3226,
      "altung": 3227,
      "Ġtragen": 3228,
      "Ġemploy": 3229,
      "ĠWhite": 3230,
      "Ġplay": 3231,
      "Ġrefer": 3232,
      "frage": 3233,
      "Ġperson": 3234,
      "ĠFunds": 3235,
      "ĠAuff": 3236,
      "wirkungen": 3237,
      "ĠPartei": 3238,
      "Ġhervor": 3239,
      "ĠArbeitsplÃ¤tz": 3240,
      "ĠWeiÃŁbuch": 3241,
      "fang": 3242,
      "gung": 3243,
      "ugen": 3244,
      "voll": 3245,
      "iellen": 3246,
      "Ġbod": 3247,
      "Ġopp": 3248,
      "Ġear": 3249,
      "Ġunemp": 3250,
      "ged": 3251,
      "gegen": 3252,
      "Ġtot": 3253,
      "Ġbeiden": 3254,
      "iges": 3255,
      "Ġeindeut": 3256,
      "bereich": 3257,
      "ĠkÃ¼nft": 3258,
      "Ġsoc": 3259,
      "ceed": 3260,
      "ĠDank": 3261,
      "Ġnothing": 3262,
      "thing": 3263,
      "Ġvorliegen": 3264,
      "ĠKommissions": 3265,
      "ielle": 3266,
      "Ġschwer": 3267,
      "ĠBevÃ¶lk": 3268,
      "ĠSchutz": 3269,
      "ĠOLAF": 3270,
      "Ġ1998": 3271,
      "Ġindivid": 3272,
      "Ġactually": 3273,
      "Ġdraft": 3274,
      "gangenen": 3275,
      "Ġvalues": 3276,
      "Ġincreasing": 3277,
      "Ġcompanies": 3278,
      "Ġcultural": 3279,
      "mals": 3280,
      "atives": 3281,
      "ĠfÃ¼nf": 3282,
      "ases": 3283,
      "ĠAffairs": 3284,
      "Ġgar": 3285,
      "ilung": 3286,
      "ĠInd": 3287,
      "ĠParty": 3288,
      "Ġext": 3289,
      "Ġsehen": 3290,
      "Ġ19": 3291,
      "gesetzt": 3292,
      "Ġtable": 3293,
      "ĠGefahr": 3294,
      "ification": 3295,
      "Ġregarding": 3296,
      "forderungen": 3297,
      "Ġmatters": 3298,
      "ĠGesetz": 3299,
      "ĠAustrian": 3300,
      "aterial": 3301,
      "Ġcurrent": 3302,
      "Ġebenfalls": 3303,
      "Ġefforts": 3304,
      "Ġvehicles": 3305,
      "Ġdessen": 3306,
      "onen": 3307,
      "Ġfour": 3308,
      "Ġcare": 3309,
      "ĠhÃ¶": 3310,
      "Ġlang": 3311,
      "Ġstress": 3312,
      "spruch": 3313,
      "ĠStr": 3314,
      "ĠStructural": 3315,
      "last": 3316,
      "Ġlet": 3317,
      "ĠSchiff": 3318,
      "okument": 3319,
      "Ġpriv": 3320,
      "Ġlegislative": 3321,
      "ĠDienstleist": 3322,
      "Ġcomplete": 3323,
      "hof": 3324,
      "less": 3325,
      "pend": 3326,
      "pflicht": 3327,
      "wing": 3328,
      "leit": 3329,
      "Ġharm": 3330,
      "Ġoften": 3331,
      "ased": 3332,
      "ĠAmend": 3333,
      "ĠMe": 3334,
      "Ġret": 3335,
      "Ġweek": 3336,
      "ĠerklÃ¤r": 3337,
      "Ġaufgrund": 3338,
      "ĠVertre": 3339,
      "ruppen": 3340,
      "erseits": 3341,
      "ĠAuswirkungen": 3342,
      "Ġexperien": 3343,
      "immungen": 3344,
      "Ġjeder": 3345,
      "Ġtraining": 3346,
      "schlieÃŁend": 3347,
      "selves": 3348,
      "ategie": 3349,
      "Ġbisher": 3350,
      "ĠEntschlieÃŁung": 3351,
      "ĠProjekte": 3352,
      "ĠAufgabe": 3353,
      "ĠDiskuss": 3354,
      "Ġpower": 3355,
      "fortun": 3356,
      "Ġnegotiations": 3357,
      "app": 3358,
      "gent": 3359,
      "side": 3360,
      "vement": 3361,
      "iety": 3362,
      "Ġborder": 3363,
      "Ġinform": 3364,
      "Ġebenso": 3365,
      "struktur": 3366,
      "Ġwhile": 3367,
      "Ġlonger": 3368,
      "ĠWÃ¤hr": 3369,
      "Ġlea": 3370,
      "ehmer": 3371,
      "Ġdoub": 3372,
      "Ġ13": 3373,
      "Ġ14": 3374,
      "Ġenough": 3375,
      "ĠBekÃ¤mpfung": 3376,
      "Ġseinen": 3377,
      "Ġexpect": 3378,
      "Ġgenau": 3379,
      "ĠVerbrauch": 3380,
      "ĠGerichts": 3381,
      "ĠGemeinschaftsin": 3382,
      "Ġklein": 3383,
      "ĠDemokratie": 3384,
      "mden": 3385,
      "Ġtim": 3386,
      "Ġmult": 3387,
      "Ġanaly": 3388,
      "ics": 3389,
      "ĠKatastrop": 3390,
      "ĠFisch": 3391,
      "Ġforce": 3392,
      "einander": 3393,
      "ĠHul": 3394,
      "osition": 3395,
      "Ġvern": 3396,
      "Ġversch": 3397,
      "Ġjud": 3398,
      "Ġjoint": 3399,
      "indest": 3400,
      "rior": 3401,
      "ĠSchluÃŁ": 3402,
      "Ġourselves": 3403,
      "Ġobl": 3404,
      "ĠGrÃ¼n": 3405,
      "Ġconcerning": 3406,
      "ĠgegenwÃ¤rt": 3407,
      "Ġprinciples": 3408,
      "Ġinclude": 3409,
      "Ġwenig": 3410,
      "wertung": 3411,
      "Bei": 3412,
      "Ġprocedure": 3413,
      "Ġschwier": 3414,
      "ĠSyri": 3415,
      "ĠErklÃ¤rung": 3416,
      "Ġdangerous": 3417,
      "Ġinnerhalb": 3418,
      "cen": 3419,
      "hung": 3420,
      "haps": 3421,
      "Ġwa": 3422,
      "itive": 3423,
      "stehen": 3424,
      "Ġvier": 3425,
      "ĠSitz": 3426,
      "ationen": 3427,
      "oss": 3428,
      "ifiz": 3429,
      "Ġcomes": 3430,
      "heiten": 3431,
      "ibil": 3432,
      "Ġamb": 3433,
      "Ġamong": 3434,
      "aÃŁt": 3435,
      "Ġjeden": 3436,
      "rauen": 3437,
      "ĠRatsprÃ¤sident": 3438,
      "ĠJahres": 3439,
      "ĠWettbewerbspolitik": 3440,
      "setzen": 3441,
      "Ġverschiedenen": 3442,
      "ĠHulten": 3443,
      "So": 3444,
      "fte": 3445,
      "gar": 3446,
      "hend": 3447,
      "Ġakt": 3448,
      "reicht": 3449,
      "Ġopt": 3450,
      "Ġintend": 3451,
      "alle": 3452,
      "Ġbede": 3453,
      "ĠPrior": 3454,
      "ĠzunÃ¤chst": 3455,
      "imension": 3456,
      "Ġhappen": 3457,
      "zeuge": 3458,
      "ĠRegion": 3459,
      "ĠeuropÃ¤": 3460,
      "Ġihm": 3461,
      "Ġconsum": 3462,
      "ĠForm": 3463,
      "schied": 3464,
      "Ġerwar": 3465,
      "Ġdemocracy": 3466,
      "Ġexpressed": 3467,
      "Ġbesser": 3468,
      "Ġjobs": 3469,
      "ĠMehrheit": 3470,
      "ĠLiber": 3471,
      "Pro": 3472,
      "bru": 3473,
      "ckt": 3474,
      "kon": 3475,
      "vious": 3476,
      "ench": 3477,
      "itten": 3478,
      "Ġmed": 3479,
      "Ġmorgen": 3480,
      "Ġmoment": 3481,
      "Ġcaus": 3482,
      "Ġbeit": 3483,
      "ĠSeit": 3484,
      "imum": 3485,
      "utions": 3486,
      "osed": 3487,
      "Ġnever": 3488,
      "ĠRechte": 3489,
      "Ġshort": 3490,
      "Ġ10": 3491,
      "ruction": 3492,
      "mehr": 3493,
      "ĠOb": 3494,
      "teilen": 3495,
      "ĠGemeinsam": 3496,
      "ĠForder": 3497,
      "Ġrequest": 3498,
      "Ġbased": 3499,
      "Ġsoziale": 3500,
      "itiativen": 3501,
      "Ġallerdings": 3502,
      "ĠgefÃ¤hr": 3503,
      "Ġorganis": 3504,
      "fÃ¤higkeit": 3505,
      "Ġerforderlich": 3506,
      "ittle": 3507,
      "zustellen": 3508,
      "Eine": 3509,
      "feh": 3510,
      "ove": 3511,
      "system": 3512,
      "vent": 3513,
      "Ġ000": 3514,
      "Ġbene": 3515,
      "stens": 3516,
      "Ġangenommen": 3517,
      "Ġderart": 3518,
      "ĠPers": 3519,
      "ĠTamp": 3520,
      "schein": 3521,
      "Ġlittle": 3522,
      "Ġalthough": 3523,
      "ustain": 3524,
      "thers": 3525,
      "Ġsup": 3526,
      "Ġsure": 3527,
      "Ġship": 3528,
      "uÃŁer": 3529,
      "schaftlichen": 3530,
      "Ġenter": 3531,
      "ĠOur": 3532,
      "Ġpartners": 3533,
      "Ã¤tigkeit": 3534,
      "Ġchallen": 3535,
      "Ġupon": 3536,
      "ĠInteressen": 3537,
      "mitglie": 3538,
      "Ġplann": 3539,
      "ĠGebiete": 3540,
      "Ġservice": 3541,
      "Ġbekannt": 3542,
      "ĠBeitrag": 3543,
      "Ġsimply": 3544,
      "Ġappropriate": 3545,
      "Ġdisaster": 3546,
      "Ġaspect": 3547,
      "ĠFebru": 3548,
      "Ġunemployment": 3549,
      "ĠTampere": 3550,
      "200": 3551,
      "Dar": 3552,
      "rÃ¼ck": 3553,
      "such": 3554,
      "uc": 3555,
      "wh": 3556,
      "zel": 3557,
      "enken": 3558,
      "unction": 3559,
      "Ġant": 3560,
      "Ġnor": 3561,
      "Ã¼fen": 3562,
      "Ġbear": 3563,
      "ĠPol": 3564,
      "Ġzie": 3565,
      "Ġgute": 3566,
      "ĠweiÃŁ": 3567,
      "Ġgehen": 3568,
      "Ġnehmen": 3569,
      "industrie": 3570,
      "weg": 3571,
      "Ġexam": 3572,
      "ĠZahl": 3573,
      "ielt": 3574,
      "Ã¶rdern": 3575,
      "Ġsag": 3576,
      "Ġdisk": 3577,
      "ĠGew": 3578,
      "Ġkeinen": 3579,
      "Ġemphas": 3580,
      "self": 3581,
      "Ġmonitor": 3582,
      "gaben": 3583,
      "ĠÃĦnderungsantrag": 3584,
      "Ġstandards": 3585,
      "Ġfully": 3586,
      "ĠJustiz": 3587,
      "ĠMitteilung": 3588,
      "Ġstrength": 3589,
      "ĠVerbraucher": 3590,
      "Ab": 3591,
      "av": 3592,
      "bare": 3593,
      "ucht": 3594,
      "esen": 3595,
      "Ġwahr": 3596,
      "anu": 3597,
      "anges": 3598,
      "ĠSol": 3599,
      "term": 3600,
      "isches": 3601,
      "Ġcontext": 3602,
      "Ġerste": 3603,
      "Ġerhalten": 3604,
      "Ã¤nde": 3605,
      "annten": 3606,
      "adt": 3607,
      "Ġsprechen": 3608,
      "Ġencour": 3609,
      "ĠBeg": 3610,
      "sec": 3611,
      "Ġprep": 3612,
      "utzen": 3613,
      "fordert": 3614,
      "ĠÃĸffentlich": 3615,
      "ĠÃ¶sterreich": 3616,
      "Ġobjective": 3617,
      "Ġstrategy": 3618,
      "ĠFrance": 3619,
      "Ġgovernments": 3620,
      "Ġinnov": 3621,
      "merksam": 3622,
      "ĠAuffassung": 3623,
      "fortunately": 3624,
      "ĠÃĸffentlichkeit": 3625,
      "EN": 3626,
      "Europ": 3627,
      "GC": 3628,
      "komm": 3629,
      "oten": 3630,
      "wÃ¼r": 3631,
      "Ġtreat": 3632,
      "Ġaff": 3633,
      "isely": 3634,
      "anden": 3635,
      "Ġothers": 3636,
      "Ġcases": 3637,
      "Ġhol": 3638,
      "ĠErika": 3639,
      "ĠIGC": 3640,
      "amit": 3641,
      "amil": 3642,
      "ĠBel": 3643,
      "ctions": 3644,
      "ĠWith": 3645,
      "ĠGeld": 3646,
      "Ġitem": 3647,
      "verfahren": 3648,
      "Ġverl": 3649,
      "ĠDokument": 3650,
      "Ġshare": 3651,
      "Ġschne": 3652,
      "Ġbetroffen": 3653,
      "Ġcohesion": 3654,
      "arbeiten": 3655,
      "Ġindem": 3656,
      "Ġevent": 3657,
      "Ġactions": 3658,
      "ĠBereichen": 3659,
      "Ġrelations": 3660,
      "Ġassess": 3661,
      "Ġvielleicht": 3662,
      "Ġhandelt": 3663,
      "ĠIII": 3664,
      "Ġkey": 3665,
      "Ġangesichts": 3666,
      "ĠFrench": 3667,
      "Ġeigenen": 3668,
      "jen": 3669,
      "Ã©": 3670,
      "Ġthough": 3671,
      "Ġsetzen": 3672,
      "Ġsix": 3673,
      "Ġsustain": 3674,
      "Ġmod": 3675,
      "rok": 3676,
      "rotz": 3677,
      "stre": 3678,
      "ĠvÃ¶": 3679,
      "ĠMar": 3680,
      "imme": 3681,
      "Ġrele": 3682,
      "ĠBal": 3683,
      "ĠTats": 3684,
      "orth": 3685,
      "verkehr": 3686,
      "Ġverhin": 3687,
      "oph": 3688,
      "Ġsug": 3689,
      "Ġdoing": 3690,
      "Ġabge": 3691,
      "Ġgestellt": 3692,
      "Ġteil": 3693,
      "obil": 3694,
      "Ġsolidar": 3695,
      "Ġvielen": 3696,
      "Ġkonn": 3697,
      "Ġscient": 3698,
      "Ġliegen": 3699,
      "Ġgoods": 3700,
      "Ġgemeinsame": 3701,
      "Ġconfidence": 3702,
      "ĠHersteller": 3703,
      "Ġ50": 3704,
      "ĠAntrag": 3705,
      "Ġrequirements": 3706,
      "ĠBeschÃ¤ftigungs": 3707,
      "ĠStellungnahme": 3708,
      "kontrolle": 3709,
      "ausschuÃŁ": 3710,
      "ĠVerhandlungen": 3711,
      "Ġbedeutet": 3712,
      "az": 3713,
      "eil": 3714,
      "fert": 3715,
      "gÃ¤n": 3716,
      "ift": 3717,
      "ÂŃ": 3718,
      "ators": 3719,
      "leis": 3720,
      "Ġcriminal": 3721,
      "Ġcross": 3722,
      "tem": 3723,
      "schreit": 3724,
      "ĠKap": 3725,
      "ĠKonferenz": 3726,
      "bereit": 3727,
      "Ã¶t": 3728,
      "ĠGre": 3729,
      "ĠPart": 3730,
      "ibet": 3731,
      "ĠheiÃŁt": 3732,
      "Ġcontain": 3733,
      "Ġcoordin": 3734,
      "Ġtell": 3735,
      "Ġwichtigen": 3736,
      "Ġihrem": 3737,
      "Ġregionalen": 3738,
      "atsÃ¤ch": 3739,
      "Ġresults": 3740,
      "Ġprecisely": 3741,
      "gewiesen": 3742,
      "Ġadministration": 3743,
      "Ġrecogn": 3744,
      "Ġanalys": 3745,
      ".)": 3746,
      "bour": 3747,
      "vant": 3748,
      "Ãĸ": 3749,
      "unities": 3750,
      "atis": 3751,
      "orted": 3752,
      "Ġmer": 3753,
      "Ġmember": 3754,
      "row": 3755,
      "Ġfight": 3756,
      "Ġoft": 3757,
      "igr": 3758,
      "Ġze": 3759,
      "ĠFest": 3760,
      "Ġvert": 3761,
      "ĠermÃ¶": 3762,
      "ĠInst": 3763,
      "ĠIntegr": 3764,
      "Ġhatte": 3765,
      "Ġhatten": 3766,
      "ĠErfahr": 3767,
      "esellschaft": 3768,
      "Ġamount": 3769,
      "Ġfail": 3770,
      "Ġ25": 3771,
      "Ġpropose": 3772,
      "olitiken": 3773,
      "ĠProgramms": 3774,
      "ĠVorschriften": 3775,
      "Ġsolchen": 3776,
      "Ġcarry": 3777,
      "ĠSecond": 3778,
      "Ġofficial": 3779,
      "Ġremind": 3780,
      "ĠÃľberein": 3781,
      "Ġamendment": 3782,
      "ĠInteresse": 3783,
      "ĠwÃ¼rden": 3784,
      "ĠAbgeordnete": 3785,
      "ĠKoh": 3786,
      "Ġstructural": 3787,
      "Ġfollowing": 3788,
      "Ġsense": 3789,
      "Ġstaatlichen": 3790,
      "Ġtask": 3791,
      "Ġabsolute": 3792,
      "Ġbuild": 3793,
      "Ġseems": 3794,
      "ĠÃ¶ffentlichen": 3795,
      "aution": 3796,
      "full": 3797,
      "hens": 3798,
      "most": 3799,
      "prÃ¤": 3800,
      "rug": 3801,
      "Ġtru": 3802,
      "itim": 3803,
      "arter": 3804,
      "Ġcent": 3805,
      "amt": 3806,
      "ĠRand": 3807,
      "ĠFol": 3808,
      "Ġvertreten": 3809,
      "Ġsever": 3810,
      "behÃ¶r": 3811,
      "rupp": 3812,
      "Ġmanagement": 3813,
      "Ã¼sse": 3814,
      "zulegen": 3815,
      "Ġobvious": 3816,
      "Ġcode": 3817,
      "Ġcover": 3818,
      "ĠArbeitn": 3819,
      "Ġgener": 3820,
      "Ġstrong": 3821,
      "Ġtext": 3822,
      "Ġtrade": 3823,
      "ĠBeding": 3824,
      "Ġimplemented": 3825,
      "ĠVerbess": 3826,
      "finden": 3827,
      "ĠGebiet": 3828,
      "ĠGebieten": 3829,
      "Ġcurrently": 3830,
      "ĠMÃ¶glichkeiten": 3831,
      "Meine": 3832,
      "ĠErgebnis": 3833,
      "ĠBehÃ¶rde": 3834,
      "Ġquality": 3835,
      "ĠberÃ¼cksichtigt": 3836,
      "ĠgehÃ¶rt": 3837,
      "Ġrichtig": 3838,
      "Ġhistor": 3839,
      "Ġeigentlich": 3840,
      "ĠFortsch": 3841,
      "Ġtype": 3842,
      "Ġeindeutig": 3843,
      "Ġsociety": 3844,
      "pendent": 3845,
      "Ġdiskut": 3846,
      "fully": 3847,
      "))": 3848,
      "2000": 3849,
      "Auf": 3850,
      "Denn": 3851,
      "Damit": 3852,
      "bildung": 3853,
      "drÃ¼ck": 3854,
      "miss": 3855,
      "wach": 3856,
      "ĠtatsÃ¤ch": 3857,
      "organ": 3858,
      "ĠfÃ¶rdern": 3859,
      "letz": 3860,
      "Ġcru": 3861,
      "ĠEff": 3862,
      "ĠPrÃ¼": 3863,
      "utes": 3864,
      "Ġrecycling": 3865,
      "ĠKr": 3866,
      "ĠKern": 3867,
      "ctive": 3868,
      "Ġern": 3869,
      "Ġerfolg": 3870,
      "Ġdef": 3871,
      "theless": 3872,
      "Ġexch": 3873,
      "ehn": 3874,
      "ĠProt": 3875,
      "ured": 3876,
      "Ġquick": 3877,
      "reiche": 3878,
      "ĠBerichts": 3879,
      "gang": 3880,
      "iveness": 3881,
      "ekten": 3882,
      "alised": 3883,
      "ĠVertrauen": 3884,
      "iled": 3885,
      "ĠBÃ¼rgern": 3886,
      "demokrat": 3887,
      "Ġwirksam": 3888,
      "Ġapproved": 3889,
      "Ġterm": 3890,
      "Ġweitere": 3891,
      "Ġweiteren": 3892,
      "ĠGerman": 3893,
      "ĠAufgaben": 3894,
      "ĠVorsorge": 3895,
      "ĠNotwend": 3896,
      "ĠLÃ¶sung": 3897,
      "ĠBevÃ¶lkerung": 3898,
      "ĠvÃ¶llig": 3899,
      "ĠTatsache": 3900,
      "atisf": 3901,
      "Ġtrue": 3902,
      "..": 3903,
      "Als": 3904,
      "Ber": 3905,
      "aut": 3906,
      "by": 3907,
      "mor": 3908,
      "tragen": 3909,
      "Ġident": 3910,
      "ches": 3911,
      "ormen": 3912,
      "Ġbitte": 3913,
      "arak": 3914,
      "Ġfiel": 3915,
      "Ġfall": 3916,
      "Ġpot": 3917,
      "ĠunabhÃ¤ng": 3918,
      "teid": 3919,
      "Ġbehand": 3920,
      "ingen": 3921,
      "Ġundert": 3922,
      "ĠSicht": 3923,
      "ulf": 3924,
      "sper": 3925,
      "Ġextend": 3926,
      "rÃ¤cht": 3927,
      "ĠKommissionsprÃ¤sident": 3928,
      "uÃŁt": 3929,
      "formen": 3930,
      "rang": 3931,
      "Ġeng": 3932,
      "ĠJanu": 3933,
      "Ġenthalten": 3934,
      "ĠSchro": 3935,
      "grat": 3936,
      "Ġparty": 3937,
      "Ġ20": 3938,
      "ights": 3939,
      "Ġcontra": 3940,
      "Ġground": 3941,
      "ishing": 3942,
      "heb": 3943,
      "ĠprÃ¼fen": 3944,
      "Ġwobei": 3945,
      "Ġconsideration": 3946,
      "Ġfunding": 3947,
      "Ġmarkets": 3948,
      "hilfe": 3949,
      "Ġfestge": 3950,
      "Ġpromote": 3951,
      "Ġprecaution": 3952,
      "Ġcapital": 3953,
      "ĠÃ¤uÃŁerst": 3954,
      "ĠBehÃ¶rden": 3955,
      "Ġassistance": 3956,
      "Ġmovement": 3957,
      "Ġdoubt": 3958,
      "Ġstrengthen": 3959,
      "jenigen": 3960,
      "Ġprecautionary": 3961,
      "Man": 3962,
      "lies": 3963,
      "messen": 3964,
      "ning": 3965,
      "ule": 3966,
      "ichtet": 3967,
      "Ġfoc": 3968,
      "Ã¼lt": 3969,
      "Ġvoted": 3970,
      "Ġbeh": 3971,
      "ller": 3972,
      "ÃŁen": 3973,
      "ĠAktion": 3974,
      "ichten": 3975,
      "ĠKar": 3976,
      "ĠKinn": 3977,
      "ĠKomp": 3978,
      "Ġerreicht": 3979,
      "ĠVerfahren": 3980,
      "ĠStadt": 3981,
      "Ġseen": 3982,
      "laub": 3983,
      "lied": 3984,
      "ience": 3985,
      "Ġmeinem": 3986,
      "arbeitung": 3987,
      "Ġprovided": 3988,
      "Ġrelation": 3989,
      "Ġarbeit": 3990,
      "Ġasked": 3991,
      "ĠStaats": 3992,
      "Ġgetan": 3993,
      "Ġdiscussion": 3994,
      "Ġadopt": 3995,
      "ĠHeraus": 3996,
      "Ġintegration": 3997,
      "ĠFremden": 3998,
      "ivers": 3999,
      "ĠbegrÃ¼ÃŁe": 4000,
      "Ġmodern": 4001,
      "verstÃ¤ndlich": 4002,
      "Ġgesamten": 4003,
      "Ġguarantee": 4004,
      "Ġactivities": 4005,
      "Ġpleased": 4006,
      "Ġpopulation": 4007,
      "uÃŁerdem": 4008,
      "gratul": 4009,
      "ĠKinnock": 4010,
      "FÃ¼r": 4011,
      "lud": 4012,
      "mb": 4013,
      "Ġturn": 4014,
      "rete": 4015,
      "round": 4016,
      "ĠfÃ¼hr": 4017,
      "Ġhon": 4018,
      "iglich": 4019,
      "denken": 4020,
      "ĠGesch": 4021,
      "ĠGovernment": 4022,
      "ĠUr": 4023,
      "Ġcongratul": 4024,
      "Ġstar": 4025,
      "Ġverw": 4026,
      "ĠDire": 4027,
      "ĠVerfÃ¼": 4028,
      "ĠInde": 4029,
      "Ġrene": 4030,
      "Ġcomments": 4031,
      "Ġobs": 4032,
      "auer": 4033,
      "Ġunserem": 4034,
      "Ġfree": 4035,
      "Ġrepe": 4036,
      "lands": 4037,
      "Ġfindet": 4038,
      "Ġtechnolog": 4039,
      "Ġrepresentatives": 4040,
      "ĠVereinigten": 4041,
      "Ġpriority": 4042,
      "ĠErgebnisse": 4043,
      "leiben": 4044,
      "ĠRegionalpolitik": 4045,
      "sÃ¤tze": 4046,
      "Ġmanufacturers": 4047,
      "zÃ¼glich": 4048,
      "Ġanswer": 4049,
      "Ġdemonstr": 4050,
      "ĠGerichtshof": 4051,
      "2006": 4052,
      "ĠVorsorgeprinzip": 4053,
      "ĠNotwendigkeit": 4054,
      "ake": 4055,
      "ell": 4056,
      "gliche": 4057,
      "kreich": 4058,
      "ograph": 4059,
      "por": 4060,
      "zunehmen": 4061,
      "inge": 4062,
      "Ġdring": 4063,
      "Ġthing": 4064,
      "Ġthreat": 4065,
      "Ġbleiben": 4066,
      "alien": 4067,
      "entliche": 4068,
      "entscheid": 4069,
      "Ġhig": 4070,
      "Ġunt": 4071,
      "Ġtomor": 4072,
      "Ã¤l": 4073,
      "ĠIr": 4074,
      "ĠIde": 4075,
      "edter": 4076,
      "ĠPer": 4077,
      "Ġeinheit": 4078,
      "ims": 4079,
      "ĠTibet": 4080,
      "ĠzustÃ¤nd": 4081,
      "ĠRis": 4082,
      "Ġkulture": 4083,
      "ĠWissen": 4084,
      "Ġsoon": 4085,
      "ĠThank": 4086,
      "Ġstates": 4087,
      "weil": 4088,
      "istischen": 4089,
      "erts": 4090,
      "ĠVoraus": 4091,
      "zeugen": 4092,
      "Ã¤ren": 4093,
      "ritten": 4094,
      "Ġhinweisen": 4095,
      "baren": 4096,
      "ĠEntwicklungs": 4097,
      "Ġrecent": 4098,
      "prÃ¼": 4099,
      "Ġgleichzeitig": 4100,
      "ĠEntscheidungen": 4101,
      "Ġincluded": 4102,
      "zeichnet": 4103,
      "Ġcosts": 4104,
      "Ġimprove": 4105,
      "Ġkeep": 4106,
      "Ġsignific": 4107,
      "Ġmeeting": 4108,
      "ĠhÃ¤tte": 4109,
      "Ġumfassen": 4110,
      "Ġlediglich": 4111,
      "ĠKommissionsmitglie": 4112,
      "Ġharmon": 4113,
      "ĠVertreter": 4114,
      "Ġprepared": 4115,
      "ĠBalk": 4116,
      "Ġsolidarity": 4117,
      "ruppe": 4118,
      "ĠSchroedter": 4119,
      "Ġrenew": 4120,
      "Ġtomorrow": 4121,
      "AuÃŁerdem": 4122,
      "uchen": 4123,
      "inne": 4124,
      "atic": 4125,
      "Ġhim": 4126,
      "gefÃ¼hrt": 4127,
      "teuer": 4128,
      "Ã¤ss": 4129,
      "asch": 4130,
      "llent": 4131,
      "ĠPe": 4132,
      "ĠPlen": 4133,
      "ĠPatten": 4134,
      "Ġeinfach": 4135,
      "Ġgerecht": 4136,
      "ĠTur": 4137,
      "ither": 4138,
      "ĠBef": 4139,
      "Ġentire": 4140,
      "Ġliability": 4141,
      "ĠAbsicht": 4142,
      "ĠGegen": 4143,
      "ĠGelegenheit": 4144,
      "Ġneeded": 4145,
      "staaten": 4146,
      "stellt": 4147,
      "folgen": 4148,
      "ĠZeitpunkt": 4149,
      "ĠZeitraum": 4150,
      "Ġdiscrimin": 4151,
      "geln": 4152,
      "Ġfound": 4153,
      "Ġverbess": 4154,
      "Ġreasons": 4155,
      "Ġtechnical": 4156,
      "ĠAntwort": 4157,
      "ĠFrankreich": 4158,
      "frist": 4159,
      "ĠFirstly": 4160,
      "Ġlimit": 4161,
      "010": 4162,
      "ĠPrinzip": 4163,
      "Ġindividual": 4164,
      "ĠeuropÃ¤ischer": 4165,
      "Ġbenefit": 4166,
      "Ġcrucial": 4167,
      "bo": 4168,
      "fragen": 4169,
      "national": 4170,
      "chan": 4171,
      "ativ": 4172,
      "atory": 4173,
      "rect": 4174,
      "Ġbill": 4175,
      "Ġoil": 4176,
      "alten": 4177,
      "Ġfore": 4178,
      "Ġeither": 4179,
      "Ġpa": 4180,
      "Ġpost": 4181,
      "Ġpress": 4182,
      "Ġnie": 4183,
      "Ġbedeut": 4184,
      "ĠEs": 4185,
      "ĠSach": 4186,
      "ommend": 4187,
      "Ġrein": 4188,
      "ĠTat": 4189,
      "schluÃŁ": 4190,
      "Ġfordern": 4191,
      "verb": 4192,
      "vers": 4193,
      "ĠverfÃ¼": 4194,
      "andid": 4195,
      "sprechen": 4196,
      "ĠLin": 4197,
      "Ġexce": 4198,
      "ĠTheat": 4199,
      "ĠProzeÃŁ": 4200,
      "Ġregulation": 4201,
      "Ġabove": 4202,
      "ĠBeteil": 4203,
      "ĠEntwurf": 4204,
      "ĠRegierungen": 4205,
      "Ġheut": 4206,
      "Ġdisp": 4207,
      "ĠEinfÃ¼hrung": 4208,
      "rieben": 4209,
      "Ġperhaps": 4210,
      "langen": 4211,
      "ĠLeg": 4212,
      "schlieÃŁlich": 4213,
      "haben": 4214,
      "Ġbegin": 4215,
      "Ġinternationalen": 4216,
      "Ġweiterhin": 4217,
      "Ġ80": 4218,
      "ĠArbeitslosigkeit": 4219,
      "ĠIhrer": 4220,
      "Ġcontribution": 4221,
      "ĠbegrÃ¼ÃŁen": 4222,
      "ĠJustice": 4223,
      "Ġdelay": 4224,
      "ĠVorsitz": 4225,
      "ĠBemerk": 4226,
      "maÃŁnahmen": 4227,
      "Ġexclus": 4228,
      "Ġerinnern": 4229,
      "Ġexperience": 4230,
      "ĠGemeinschaftsinitiative": 4231,
      "Ġpartnership": 4232,
      "uclear": 4233,
      "ĠIntegration": 4234,
      "ĠBedingungen": 4235,
      "Ġquickly": 4236,
      "Ġfocus": 4237,
      "Doch": 4238,
      "SE": 4239,
      "Vor": 4240,
      "Zum": 4241,
      "bod": 4242,
      "low": 4243,
      "ued": 4244,
      "wand": 4245,
      "zÃ¶s": 4246,
      "Ġagr": 4247,
      "ĠwÃ¼n": 4248,
      "ĠbeschÃ¤ft": 4249,
      "Ġeas": 4250,
      "Ġpo": 4251,
      "Ġnam": 4252,
      "Ġclar": 4253,
      "Ġcivil": 4254,
      "Ã¤uf": 4255,
      "iding": 4256,
      "Ġrecon": 4257,
      "ders": 4258,
      "Ġwhose": 4259,
      "Ġsogar": 4260,
      "ffice": 4261,
      "Ġconsequ": 4262,
      "ĠVergangen": 4263,
      "ĠVermitt": 4264,
      "ĠVerpflicht": 4265,
      "spr": 4266,
      "opol": 4267,
      "ĠStahl": 4268,
      "lain": 4269,
      "uÃŁen": 4270,
      "Ġresear": 4271,
      "Ġmakes": 4272,
      "Ġentschieden": 4273,
      "ĠErfolg": 4274,
      "grenz": 4275,
      "Ġchanges": 4276,
      "Ġhingewiesen": 4277,
      "Ġstrand": 4278,
      "arbeitet": 4279,
      "Ġroad": 4280,
      "Ġliebe": 4281,
      "Ġpresented": 4282,
      "accept": 4283,
      "sprozeÃŁ": 4284,
      "Dabei": 4285,
      "Ġcritic": 4286,
      "ĠhÃ¤tten": 4287,
      "ĠVerwaltung": 4288,
      "rechend": 4289,
      "ĠRede": 4290,
      "Ġportugiesischen": 4291,
      "ĠDurchfÃ¼hrung": 4292,
      "ĠschlieÃŁlich": 4293,
      "Ġoblig": 4294,
      "ĠSecondly": 4295,
      "ĠVerbesserung": 4296,
      "ĠVerfÃ¼gung": 4297,
      "ĠVergangenheit": 4298,
      "Ġresearch": 4299,
      "Lassen": 4300,
      "PÃĸ": 4301,
      "Zweit": 4302,
      "eten": 4303,
      "fern": 4304,
      "mitted": 4305,
      "ought": 4306,
      "Ġthought": 4307,
      "ichen": 4308,
      "Ġmor": 4309,
      "Ġmacht": 4310,
      "arf": 4311,
      "Ġfran": 4312,
      "ĠfrÃ¼": 4313,
      "Ġfunction": 4314,
      "leben": 4315,
      "Ġunaccept": 4316,
      "Ã¼gen": 4317,
      "Ã¤s": 4318,
      "Ġbevor": 4319,
      "rachte": 4320,
      "ĠAlt": 4321,
      "ĠAgenda": 4322,
      "Ġeinzu": 4323,
      "icy": 4324,
      "icien": 4325,
      "gency": 4326,
      "ĠRes": 4327,
      "ĠUS": 4328,
      "Ġvergangenen": 4329,
      "Ġerster": 4330,
      "ively": 4331,
      "ĠLet": 4332,
      "ĠStÃ¤d": 4333,
      "rÃ¤gen": 4334,
      "ĠZug": 4335,
      "Ġleider": 4336,
      "Ġleisten": 4337,
      "Ġspir": 4338,
      "ĠAusrichtung": 4339,
      "Ġconcentr": 4340,
      "ritts": 4341,
      "ĠGrenzen": 4342,
      "ption": 4343,
      "rief": 4344,
      "wendet": 4345,
      "Ġraised": 4346,
      "wirken": 4347,
      "gebracht": 4348,
      "Ġcarried": 4349,
      "Ġrelating": 4350,
      "ledge": 4351,
      "Ġdraw": 4352,
      "ĠSicherheits": 4353,
      "Ã¤ÃŁt": 4354,
      "Ġopportunities": 4355,
      "ĠBerichterstatterin": 4356,
      "Ġangesprochen": 4357,
      "ĠTransport": 4358,
      "Ġfinanziellen": 4359,
      "ĠZustÃ¤nd": 4360,
      "ĠberÃ¼cksichtigen": 4361,
      "stances": 4362,
      "Ġapplication": 4363,
      "Ġbusinesses": 4364,
      "Ġreceived": 4365,
      "Ġcreating": 4366,
      "greifen": 4367,
      "Ġmotion": 4368,
      "ĠWerte": 4369,
      "Ġtabled": 4370,
      "ĠSolidar": 4371,
      "wÃ¼rd": 4372,
      "ĠPartner": 4373,
      "Ġmembers": 4374,
      "ĠermÃ¶glichen": 4375,
      "Ġexcellent": 4376,
      "):": 4377,
      "bring": 4378,
      "ize": 4379,
      "pite": 4380,
      "Ġtrotz": 4381,
      "Ġwider": 4382,
      "anish": 4383,
      "Ġbre": 4384,
      "Ġinst": 4385,
      "Ġmen": 4386,
      "Ġmaterial": 4387,
      "rollen": 4388,
      "sto": 4389,
      "Ġcir": 4390,
      "Ã¼cht": 4391,
      "Ġtop": 4392,
      "temp": 4393,
      "Ġvol": 4394,
      "ĠbefÃ¼r": 4395,
      "ĠEast": 4396,
      "ĠPunkte": 4397,
      "ĠAd": 4398,
      "ĠMont": 4399,
      "ides": 4400,
      "ĠBarn": 4401,
      "Ġlow": 4402,
      "Ġline": 4403,
      "Ã¼rz": 4404,
      "ĠWor": 4405,
      "Ġwegen": 4406,
      "Ġstud": 4407,
      "Ġverg": 4408,
      "Ġersch": 4409,
      "ĠDo": 4410,
      "ĠDas": 4411,
      "ĠRei": 4412,
      "wegen": 4413,
      "ĠNatur": 4414,
      "ĠBezie": 4415,
      "ĠOf": 4416,
      "Ġago": 4417,
      "Ġstellt": 4418,
      "line": 4419,
      "Ġ1996": 4420,
      "Ġreports": 4421,
      "teilung": 4422,
      "enzÃ¼ber": 4423,
      "reiben": 4424,
      "Ġprovision": 4425,
      "Ġendlich": 4426,
      "Ġrecommend": 4427,
      "ĠVertrÃ¤ge": 4428,
      "ĠerwÃ¤hn": 4429,
      "geschlossen": 4430,
      "ĠunterstÃ¼tzt": 4431,
      "Ġstrategic": 4432,
      "ĠDemoc": 4433,
      "Ġmaintain": 4434,
      "Ġagreements": 4435,
      "ĠbeschrÃ¤n": 4436,
      "ĠAutos": 4437,
      "Ġpriorities": 4438,
      "ĠkÃ¶nnten": 4439,
      "Ġcriter": 4440,
      "ĠBestimmungen": 4441,
      "Ġrestr": 4442,
      "Ġpractical": 4443,
      "Ġcrime": 4444,
      "Ġirgend": 4445,
      "Ġportugiesische": 4446,
      "Ġbestimmte": 4447,
      "vorschriften": 4448,
      "Ġgelten": 4449,
      "Ġconclusion": 4450,
      "ĠEmpfeh": 4451,
      "Ġcolleagues": 4452,
      "Ġcommitment": 4453,
      "ĠInformationen": 4454,
      "ĠSeite": 4455,
      "ĠGemeinsamen": 4456,
      "Ġsagte": 4457,
      "Ġmonitoring": 4458,
      "Ġsuggest": 4459,
      "ĠKohÃ¤s": 4460,
      "Ġabsolutely": 4461,
      "Ġseveral": 4462,
      "ĠtatsÃ¤chlich": 4463,
      "Zweitens": 4464,
      "Ġcirc": 4465,
      "Gen": 4466,
      "aken": 4467,
      "action": 4468,
      "gere": 4469,
      "lÃ¤nder": 4470,
      "oy": 4471,
      "wise": 4472,
      "Ġdue": 4473,
      "ested": 4474,
      "under": 4475,
      "Ġsett": 4476,
      "iew": 4477,
      "any": 4478,
      "anken": 4479,
      "Ġbitten": 4480,
      "Ġold": 4481,
      "Ġine": 4482,
      "alled": 4483,
      "Ġfeh": 4484,
      "Ġfast": 4485,
      "Ġfear": 4486,
      "stimmen": 4487,
      "statt": 4488,
      "Ġnuclear": 4489,
      "Ġcentral": 4490,
      "gehend": 4491,
      "Ã¤st": 4492,
      "ĠSache": 4493,
      "uly": 4494,
      "Ġlist": 4495,
      "Ġlink": 4496,
      "Ġkont": 4497,
      "ĠGed": 4498,
      "ums": 4499,
      "ĠHels": 4500,
      "Ġprof": 4501,
      "ĠVerÃ¤nder": 4502,
      "ending": 4503,
      "undheit": 4504,
      "ausch": 4505,
      "Ġnachhalt": 4506,
      "Ġunterb": 4507,
      "Ġincor": 4508,
      "Ġinteress": 4509,
      "Ġsaying": 4510,
      "inki": 4511,
      "ĠÃĦnderungen": 4512,
      "Ġconsidered": 4513,
      "Ġfirstly": 4514,
      "haft": 4515,
      "ĠHaupt": 4516,
      "Ġnature": 4517,
      "ĠAbgeordneter": 4518,
      "Ã¤rkte": 4519,
      "Ġprakt": 4520,
      "Ġproduct": 4521,
      "ĠPortugal": 4522,
      "ĠMonaten": 4523,
      "Ġfolgen": 4524,
      "ĠbewuÃŁt": 4525,
      "Ġzweite": 4526,
      "ĠZustimmung": 4527,
      "enntnis": 4528,
      "ĠBemÃ¼": 4529,
      "ĠstÃ¤rker": 4530,
      "Ġextent": 4531,
      "AbschlieÃŁend": 4532,
      "ĠTheato": 4533,
      "Ġunacceptable": 4534,
      "ĠSolidaritÃ¤t": 4535,
      "enzÃ¼berschreit": 4536,
      "ĠHelsinki": 4537,
      "border": 4538,
      "kten": 4539,
      "more": 4540,
      "oth": 4541,
      "ptem": 4542,
      "engen": 4543,
      "Ġaffe": 4544,
      "Ġwater": 4545,
      "itime": 4546,
      "Ġsorgen": 4547,
      "Ġsatisf": 4548,
      "Ġeth": 4549,
      "Ġequ": 4550,
      "ĠAuÃŁen": 4551,
      "Ġeingehen": 4552,
      "ĠSinne": 4553,
      "ommun": 4554,
      "ĠTÃ¼r": 4555,
      "ĠTÃ¤tigkeit": 4556,
      "etary": 4557,
      "ĠFÃ¤": 4558,
      "Ġkrit": 4559,
      "eind": 4560,
      "Ġstark": 4561,
      "Ġerz": 4562,
      "ĠLangen": 4563,
      "ĠInitiativen": 4564,
      "Ġsech": 4565,
      "ifically": 4566,
      "Ġleft": 4567,
      "Ã¤nger": 4568,
      "Ġyes": 4569,
      "aher": 4570,
      "ection": 4571,
      "Ġ11": 4572,
      "ĠProdu": 4573,
      "Ġcoming": 4574,
      "ienz": 4575,
      "stead": 4576,
      "Ġliber": 4577,
      "gerungen": 4578,
      "werk": 4579,
      "Ġindic": 4580,
      "Ġsubst": 4581,
      "ĠSee": 4582,
      "ĠSeptem": 4583,
      "Ġregards": 4584,
      "ĠgroÃŁer": 4585,
      "Ġoffer": 4586,
      "Ġheraus": 4587,
      "Ġspecifically": 4588,
      "Ġcurrency": 4589,
      "Ġestablished": 4590,
      "Ġfraud": 4591,
      "Ġwishes": 4592,
      "Ġindependent": 4593,
      "ĠIhren": 4594,
      "Ġpractice": 4595,
      "Ġwesentlichen": 4596,
      "Ġlimited": 4597,
      "Ġvorgelegt": 4598,
      "Ġimmigr": 4599,
      "ĠAngelegenheiten": 4600,
      "Ġreached": 4601,
      "Ġsufficient": 4602,
      "Ġparticipation": 4603,
      "ĠArbeitsplÃ¤tze": 4604,
      "lastung": 4605,
      "ĠAmendment": 4606,
      "ĠDiskussion": 4607,
      "ĠvernÃ¼nft": 4608,
      "ĠSitzung": 4609,
      "ĠObject": 4610,
      "Ġplanning": 4611,
      "Ġverhindern": 4612,
      "leistet": 4613,
      "ĠKapital": 4614,
      "Ġexchange": 4615,
      "Bericht": 4616,
      "ĠWissenschaft": 4617,
      "ĠfranzÃ¶s": 4618,
      "ĠBarnier": 4619,
      "ĠReihe": 4620,
      "Ġaffected": 4621,
      "ĠSeptember": 4622,
      "II": 4623,
      "Re": 4624,
      "Vielen": 4625,
      "ding": 4626,
      "dict": 4627,
      "ean": 4628,
      "ected": 4629,
      "go": 4630,
      "hase": 4631,
      "ians": 4632,
      "mut": 4633,
      "uted": 4634,
      "Ġche": 4635,
      "ennen": 4636,
      "Ġdisch": 4637,
      "Ġdialog": 4638,
      "cher": 4639,
      "ator": 4640,
      "Ġcla": 4641,
      "tel": 4642,
      "edi": 4643,
      "ĠPre": 4644,
      "ĠPlan": 4645,
      "igte": 4646,
      "ĠAkt": 4647,
      "ĠKl": 4648,
      "erehr": 4649,
      "ĠWhen": 4650,
      "Ġconn": 4651,
      "Ġdev": 4652,
      "ĠReformen": 4653,
      "Ġleben": 4654,
      "Ġalloc": 4655,
      "istische": 4656,
      "ureau": 4657,
      "Ġcomb": 4658,
      "ĠAusfÃ¼hr": 4659,
      "Ġtakes": 4660,
      "kennen": 4661,
      "Ġhealth": 4662,
      "Ġface": 4663,
      "Ġcomment": 4664,
      "Ġspez": 4665,
      "Ġconsult": 4666,
      "Ġoutside": 4667,
      "Ġlegitim": 4668,
      "ussels": 4669,
      "ĠRats": 4670,
      "Ġworkers": 4671,
      "ĠGrundsatz": 4672,
      "ĠÃĦnderung": 4673,
      "Ġ30": 4674,
      "Ġbasic": 4675,
      "Ġimplementing": 4676,
      "ĠTreaties": 4677,
      "Ġsicherlich": 4678,
      "ĠKoordin": 4679,
      "Ġthroughout": 4680,
      "ĠVereinbar": 4681,
      "Ġmove": 4682,
      "Ġincreased": 4683,
      "ĠDiskrimin": 4684,
      "ĠStraf": 4685,
      "Ġcorrect": 4686,
      "ĠVerwaltungs": 4687,
      "Ġerneut": 4688,
      "Ġtotal": 4689,
      "ĠStrategie": 4690,
      "ĠKatastrophe": 4691,
      "Ġjudicial": 4692,
      "Ġbeitragen": 4693,
      "ĠPolicy": 4694,
      "Ġschnell": 4695,
      "Ġsustainable": 4696,
      "Ġanalysis": 4697,
      "ĠArbeitnehmer": 4698,
      "Ġfield": 4699,
      "Ġbehind": 4700,
      "Ġobserv": 4701,
      "Ġdiscrimination": 4702,
      "Ġvergessen": 4703,
      "Ġcriteria": 4704,
      "Ġdischarge": 4705,
      "Ġdialogue": 4706,
      "durch": 4707,
      "heren": 4708,
      "iken": 4709,
      "nissen": 4710,
      "inking": 4711,
      "Ġtry": 4712,
      "onnen": 4713,
      "Ġsur": 4714,
      "ief": 4715,
      "Ġhard": 4716,
      "ĠIm": 4717,
      "ĠPublic": 4718,
      "ĠTour": 4719,
      "ĠTag": 4720,
      "ĠKraft": 4721,
      "Ã¶ff": 4722,
      "ĠFeh": 4723,
      "Ġlight": 4724,
      "Ġkomp": 4725,
      "ĠWill": 4726,
      "ĠWider": 4727,
      "ĠWog": 4728,
      "Ġnote": 4729,
      "resp": 4730,
      "ĠEuropol": 4731,
      "ĠGlob": 4732,
      "ierigkeiten": 4733,
      "Ġstage": 4734,
      "Ġverab": 4735,
      "achteil": 4736,
      "ĠerfÃ¼": 4737,
      "Ġneuer": 4738,
      "ĠLast": 4739,
      "Ġjur": 4740,
      "Ġshe": 4741,
      "ĠNational": 4742,
      "ĠNationen": 4743,
      "ienen": 4744,
      "ott": 4745,
      "Ġschem": 4746,
      "Ġapplied": 4747,
      "Ġgrow": 4748,
      "ierenden": 4749,
      "Ġihn": 4750,
      "aging": 4751,
      "teilt": 4752,
      "Ġsolution": 4753,
      "ĠSekt": 4754,
      "ĠAsyl": 4755,
      "Ġkonzentr": 4756,
      "worten": 4757,
      "Ġwiederhol": 4758,
      "Ġeffects": 4759,
      "legung": 4760,
      "Ġtransnational": 4761,
      "Ġsectors": 4762,
      "ĠAutom": 4763,
      "Ġcreation": 4764,
      "ĠFlor": 4765,
      "fÃ¤lle": 4766,
      "Ġeinges": 4767,
      "ĠGeneral": 4768,
      "Ġdetail": 4769,
      "ĠOrganisation": 4770,
      "Ġglobal": 4771,
      "Ġallgemeinen": 4772,
      "Ġmanufacturer": 4773,
      "Ġimmedi": 4774,
      "Ġplans": 4775,
      "Ġlokalen": 4776,
      "bedingungen": 4777,
      "Ġentwickeln": 4778,
      "ĠFahrzeuge": 4779,
      "Ġprivate": 4780,
      "ĠFischere": 4781,
      "ĠSchluÃŁfol": 4782,
      "drÃ¼cklich": 4783,
      "Ġspirit": 4784,
      "ĠBemÃ¼hungen": 4785,
      "ĠWogau": 4786,
      "Nun": 4787,
      "vest": 4788,
      "xen": 4789,
      "Ġign": 4790,
      "ination": 4791,
      "inder": 4792,
      "Ġtreffen": 4793,
      "onse": 4794,
      "iste": 4795,
      "ales": 4796,
      "entwick": 4797,
      "Ġunbeding": 4798,
      "Ã¤um": 4799,
      "Ġvis": 4800,
      "Ġvict": 4801,
      "Ġbeant": 4802,
      "urp": 4803,
      "ÃŁe": 4804,
      "ĠMc": 4805,
      "utor": 4806,
      "Ġreference": 4807,
      "ĠBÃ¼": 4808,
      "ĠBrit": 4809,
      "terday": 4810,
      "elves": 4811,
      "hren": 4812,
      "ĠRom": 4813,
      "ĠFPÃĸ": 4814,
      "Ġlive": 4815,
      "ĠlÃ¤ÃŁt": 4816,
      "ĠGeschÃ¤ft": 4817,
      "Ġconv": 4818,
      "ĠVerordnung": 4819,
      "Ġextern": 4820,
      "ifel": 4821,
      "ourcen": 4822,
      "ĠNr": 4823,
      "Ġcombat": 4824,
      "ennung": 4825,
      "Ġsafe": 4826,
      "Ġhear": 4827,
      "Ġfinal": 4828,
      "ĠAbsatz": 4829,
      "riterien": 4830,
      "Ġdurchaus": 4831,
      "Ġzumindest": 4832,
      "heben": 4833,
      "ĠEinw": 4834,
      "Ġallein": 4835,
      "Ġhinter": 4836,
      "ĠgrenzÃ¼berschreit": 4837,
      "ĠForsch": 4838,
      "ĠBereiche": 4839,
      "Ġoffens": 4840,
      "ĠbestÃ¤t": 4841,
      "ungsantrag": 4842,
      "ĠTherefore": 4843,
      "legten": 4844,
      "legation": 4845,
      "Ġrefuge": 4846,
      "acio": 4847,
      "ĠLandwirtschaft": 4848,
      "Ġentsprechend": 4849,
      "Ġwirtschaftliche": 4850,
      "ĠmÃ¶glichst": 4851,
      "Ġvalue": 4852,
      "Ġstructure": 4853,
      "Ġverstehen": 4854,
      "Ġdifficulties": 4855,
      "ĠWoche": 4856,
      "Ġpowers": 4857,
      "Ġkonkreten": 4858,
      "Ġgesamte": 4859,
      "ĠBrussels": 4860,
      "Ġaccording": 4861,
      "Ġaccordance": 4862,
      "ĠQuest": 4863,
      "ĠPalacio": 4864,
      "ĠInternational": 4865,
      "ĠLebensmittelsicherheit": 4866,
      "Ġerneuer": 4867,
      "Ġexisting": 4868,
      "ĠSchwierigkeiten": 4869,
      "coming": 4870,
      "Ġmedium": 4871,
      "Ġsuperv": 4872,
      "ĠÃ¶sterreichischen": 4873,
      "ophob": 4874,
      "ĠProtok": 4875,
      "Ġcongratulate": 4876,
      "ĠAusfÃ¼hrungen": 4877,
      "Ġunbedingt": 4878,
      "21": 4879,
      "Sch": 4880,
      "fre": 4881,
      "gu": 4882,
      "lassen": 4883,
      "life": 4884,
      "nern": 4885,
      "pf": 4886,
      "uft": 4887,
      "val": 4888,
      "Ġxen": 4889,
      "onn": 4890,
      "isc": 4891,
      "isis": 4892,
      "reland": 4893,
      "rehens": 4894,
      "arily": 4895,
      "Ġfirm": 4896,
      "Ġfunktion": 4897,
      "Ġcause": 4898,
      "ĠIreland": 4899,
      "ĠTerr": 4900,
      "liches": 4901,
      "ĠKÃ¼": 4902,
      "Ġhapp": 4903,
      "Ġstated": 4904,
      "Ġverantwort": 4905,
      "ftrag": 4906,
      "ĠDialog": 4907,
      "Ġdespite": 4908,
      "ĠVers": 4909,
      "key": 4910,
      "ĠStabil": 4911,
      "ĠCommissioners": 4912,
      "Ġexcept": 4913,
      "ĠEng": 4914,
      "abel": 4915,
      "ĠOne": 4916,
      "Ġcomprom": 4917,
      "Ġusing": 4918,
      "rated": 4919,
      "heer": 4920,
      "ĠMitglieder": 4921,
      "Ġresponse": 4922,
      "Ġmyself": 4923,
      "izient": 4924,
      "izienz": 4925,
      "gebie": 4926,
      "Dieser": 4927,
      "Ġfreue": 4928,
      "ĠWirk": 4929,
      "Ġpossibility": 4930,
      "Ġscope": 4931,
      "Ġreforms": 4932,
      "ĠMenschenrechte": 4933,
      "ĠHinsicht": 4934,
      "Ġachieved": 4935,
      "ĠpersÃ¶n": 4936,
      "Ġrequired": 4937,
      "Ġprior": 4938,
      "Ġgeschlossen": 4939,
      "Ġcrisis": 4940,
      "Ġzweiten": 4941,
      "Ġtalking": 4942,
      "Ġjeweil": 4943,
      "Ġgrundlegen": 4944,
      "ĠPrioritÃ¤ten": 4945,
      "Ġziehen": 4946,
      "ĠBeginn": 4947,
      "ĠBelg": 4948,
      "rokrat": 4949,
      "Ġernst": 4950,
      "ĠIndeed": 4951,
      "Ġuntil": 4952,
      "Ġsignificant": 4953,
      "ĠTurkey": 4954,
      "board": 4955,
      "Ġheutigen": 4956,
      "Ġnamely": 4957,
      "ĠBeziehungen": 4958,
      "Ġincorpor": 4959,
      "Ġconnection": 4960,
      "ĠAutomobil": 4961,
      "Ġxenophob": 4962,
      "PE": 4963,
      "bt": 4964,
      "hnen": 4965,
      "jahr": 4966,
      "kolog": 4967,
      "liz": 4968,
      "mark": 4969,
      "wÃ¼n": 4970,
      "Ġdate": 4971,
      "chter": 4972,
      "Ġaffairs": 4973,
      "Ġwelt": 4974,
      "iting": 4975,
      "atÃ¼rlich": 4976,
      "Ġthems": 4977,
      "Ġbureau": 4978,
      "Ġfishing": 4979,
      "leisten": 4980,
      "Ġanzu": 4981,
      "Ġnet": 4982,
      "Ġcard": 4983,
      "Ã¼t": 4984,
      "Ġzentr": 4985,
      "Ġgern": 4986,
      "ĠTo": 4987,
      "Ġlange": 4988,
      "ereign": 4989,
      "ĠgefÃ¼hrt": 4990,
      "Ġgeograph": 4991,
      "ĠHaltung": 4992,
      "Ġstimmen": 4993,
      "Ġerheb": 4994,
      "ĠRecycling": 4995,
      "Ġvorsch": 4996,
      "istent": 4997,
      "ĠAnsatz": 4998,
      "ĠJon": 4999,
      "ĠSchwer": 5000,
      "ĠSchengen": 5001,
      "ĠEntlastung": 5002,
      "Ġparties": 5003,
      "Ġseinem": 5004,
      "Ġfair": 5005,
      "Ã¼nst": 5006,
      "Ã¤rken": 5007,
      "Ġcontent": 5008,
      "Ġsteel": 5009,
      "Ġspee": 5010,
      "Ġspezie": 5011,
      "rats": 5012,
      "Ġprepar": 5013,
      "wogen": 5014,
      "stitutional": 5015,
      "fahrens": 5016,
      "gebung": 5017,
      "Ġsubsidiar": 5018,
      "folgt": 5019,
      "Ġargument": 5020,
      "minister": 5021,
      "ĠMinder": 5022,
      "Ġviews": 5023,
      "ĠRichtlinien": 5024,
      "Ġconfirm": 5025,
      "Ġestablishing": 5026,
      "Ġverbunden": 5027,
      "Ġbeschlossen": 5028,
      "ĠAugen": 5029,
      "Ġavo": 5030,
      "ĠBestand": 5031,
      "Ġdocuments": 5032,
      "Ġentsprechenden": 5033,
      "zufÃ¼hren": 5034,
      "ĠgewÃ¤hrleisten": 5035,
      "Ġoccas": 5036,
      "Ġmaritime": 5037,
      "Ġbodies": 5038,
      "ĠkÃ¼nftig": 5039,
      "Ġvorliegenden": 5040,
      "ĠhÃ¶ch": 5041,
      "ĠSchiffe": 5042,
      "ĠGrÃ¼nden": 5043,
      "Ġerwarten": 5044,
      "ĠForderung": 5045,
      "stream": 5046,
      "Ġofficials": 5047,
      "behÃ¶rde": 5048,
      "chanis": 5049,
      "Ġpoor": 5050,
      "ĠFlorenz": 5051,
      "Ġthemselves": 5052,
      "07": 5053,
      "DA": 5054,
      "Daher": 5055,
      "St": 5056,
      "bs": 5057,
      "cies": 5058,
      "feind": 5059,
      "so": 5060,
      "Ġdut": 5061,
      "Ġworth": 5062,
      "iter": 5063,
      "orden": 5064,
      "Ġinfl": 5065,
      "Ġinspect": 5066,
      "leibt": 5067,
      "Ġport": 5068,
      "Ġpurp": 5069,
      "Ġune": 5070,
      "Ġunternehmen": 5071,
      "gelung": 5072,
      "Ġverehr": 5073,
      "Ġbeha": 5074,
      "llos": 5075,
      "ĠAmer": 5076,
      "Ġred": 5077,
      "Ã¶st": 5078,
      "ĠRess": 5079,
      "ĠRights": 5080,
      "ĠFonds": 5081,
      "Ġliving": 5082,
      "ilar": 5083,
      "ĠCo": 5084,
      "ĠGesellschaft": 5085,
      "ĠgeÃ¤uÃŁ": 5086,
      "cep": 5087,
      "ĠDen": 5088,
      "ĠDimension": 5089,
      "Ġdesign": 5090,
      "ĠRep": 5091,
      "ĠReport": 5092,
      "ĠVerwendung": 5093,
      "indung": 5094,
      "ends": 5095,
      "cks": 5096,
      "cken": 5097,
      "sens": 5098,
      "itious": 5099,
      "rift": 5100,
      "ĠÃ¼bernehmen": 5101,
      "ĠNov": 5102,
      "Ġattemp": 5103,
      "Ġscheint": 5104,
      "Ġsage": 5105,
      "Ġbetreffen": 5106,
      "Ġpolitics": 5107,
      "ĠEinzel": 5108,
      "Ġgesprochen": 5109,
      "ĠKollege": 5110,
      "Ġdamage": 5111,
      "streng": 5112,
      "schiede": 5113,
      "ĠRichtung": 5114,
      "haupt": 5115,
      "Ġinstitution": 5116,
      "ological": 5117,
      "Ġangemessen": 5118,
      "ĠGroÃŁ": 5119,
      "Ġsubjects": 5120,
      "Ġseriously": 5121,
      "ĠFlÃ¼cht": 5122,
      "Ġprocedures": 5123,
      "ĠÃ¤uÃŁer": 5124,
      "Ġfolgt": 5125,
      "ĠvollstÃ¤nd": 5126,
      "zusetzen": 5127,
      "Ġdeta": 5128,
      "Ġwesentlich": 5129,
      "ĠBrÃ¼ssel": 5130,
      "Ġentsprechende": 5131,
      "Ġtasks": 5132,
      "ĠSubsidiar": 5133,
      "Ġcompletely": 5134,
      "Ġkleinen": 5135,
      "ĠgegenwÃ¤rtig": 5136,
      "Ġorganisations": 5137,
      "Ġchallenge": 5138,
      "Ġscientific": 5139,
      "Ġpotential": 5140,
      "Ġarbeiten": 5141,
      "ĠfÃ¼hrt": 5142,
      "Ġhonour": 5143,
      "ĠRisik": 5144,
      "ĠPlenum": 5145,
      "iciency": 5146,
      "Ġsubsidiarity": 5147,
      "ĠNovember": 5148,
      "Nur": 5149,
      "NatÃ¼rlich": 5150,
      "Zu": 5151,
      "ZunÃ¤chst": 5152,
      "ave": 5153,
      "agraph": 5154,
      "gÃ¼lt": 5155,
      "kÃ¼nd": 5156,
      "wal": 5157,
      "Ġaway": 5158,
      "itting": 5159,
      "Ġbrief": 5160,
      "Ġbleibt": 5161,
      "Ġfulf": 5162,
      "Ġec": 5163,
      "Ġpurs": 5164,
      "Ġhome": 5165,
      "Ġhoch": 5166,
      "Ġbeteil": 5167,
      "ĠPra": 5168,
      "ĠPosition": 5169,
      "ĠMacht": 5170,
      "Ġreject": 5171,
      "ichtlich": 5172,
      "ĠTod": 5173,
      "hrist": 5174,
      "ĠChin": 5175,
      "Ġfort": 5176,
      "ĠVÃ¶lk": 5177,
      "ĠGar": 5178,
      "Ġgefordert": 5179,
      "ĠUN": 5180,
      "ĠUhr": 5181,
      "Ġsour": 5182,
      "ĠHow": 5183,
      "Ġverd": 5184,
      "Ġasyl": 5185,
      "ĠDritt": 5186,
      "ession": 5187,
      "Ġneu": 5188,
      "Ġjudge": 5189,
      "weist": 5190,
      "rÃ¤um": 5191,
      "ifall": 5192,
      "ĠZus": 5193,
      "istic": 5194,
      "ckheer": 5195,
      "Ġ17": 5196,
      "Ġ18": 5197,
      "ĠAnstreng": 5198,
      "Ġregret": 5199,
      "ienste": 5200,
      "ĠFraktionen": 5201,
      "ranted": 5202,
      "Ġcommunity": 5203,
      "ĠdurchgefÃ¼hrt": 5204,
      "Ġ1994": 5205,
      "Ġgenommen": 5206,
      "Ġefficiency": 5207,
      "stitution": 5208,
      "Ġdecided": 5209,
      "Ġoperation": 5210,
      "ĠDec": 5211,
      "Ġunseres": 5212,
      "ĠUntersuch": 5213,
      "ĠRechtsvorschriften": 5214,
      "mitteln": 5215,
      "Ġdanke": 5216,
      "Ġauthor": 5217,
      "Ġlevels": 5218,
      "Ġurge": 5219,
      "Ġheld": 5220,
      "Ġetwa": 5221,
      "Ġeveryone": 5222,
      "iode": 5223,
      "ĠOrt": 5224,
      "Ġintegrated": 5225,
      "regional": 5226,
      "Ġprotect": 5227,
      "Ġelig": 5228,
      "Ġstaatliche": 5229,
      "Ġsuccessful": 5230,
      "Ġadministrative": 5231,
      "Ġdemokratischen": 5232,
      "Ġconclusions": 5233,
      "Ġakzeptieren": 5234,
      "ĠDienstleistungs": 5235,
      "Ġconsumer": 5236,
      "ĠPerson": 5237,
      "organisation": 5238,
      "ĠKomprom": 5239,
      "Ġyesterday": 5240,
      "ĠObjective": 5241,
      "Ġbureauc": 5242,
      "ĠJonckheer": 5243,
      "ĠSubsidiaritÃ¤t": 5244,
      "Ġasylum": 5245,
      "aust": 5246,
      "bur": 5247,
      "bet": 5248,
      "dition": 5249,
      "hÃ¤n": 5250,
      "kraft": 5251,
      "uing": 5252,
      "wenden": 5253,
      "xis": 5254,
      "³n": 5255,
      "Ã³n": 5256,
      "Ġ,": 5257,
      "unsch": 5258,
      "reif": 5259,
      "anced": 5260,
      "Ġbil": 5261,
      "Ġfamil": 5262,
      "Ġcities": 5263,
      "Ġunan": 5264,
      "Ġunfortunately": 5265,
      "Ã¼ter": 5266,
      "Ġvi": 5267,
      "Ġvoting": 5268,
      "ĠEind": 5269,
      "ĠPPE": 5270,
      "ĠAgr": 5271,
      "ĠKÃ¶n": 5272,
      "ĠKoch": 5273,
      "Ġzug": 5274,
      "ĠFunktion": 5275,
      "Ġforth": 5276,
      "Ġgeehr": 5277,
      "ĠgemÃ¤ÃŁ": 5278,
      "Ġalong": 5279,
      "Ġstra": 5280,
      "Ġstaff": 5281,
      "Ġprob": 5282,
      "Ġproceed": 5283,
      "spar": 5284,
      "thy": 5285,
      "laÃŁ": 5286,
      "ahn": 5287,
      "Ġrun": 5288,
      "ufen": 5289,
      "ĠÃ¼berhaupt": 5290,
      "ĠArgument": 5291,
      "Ġenorm": 5292,
      "ĠBeam": 5293,
      "Ġentgegen": 5294,
      "Ġcomprehens": 5295,
      "Ġheart": 5296,
      "Ġgoes": 5297,
      "Ġstets": 5298,
      "Ġobwohl": 5299,
      "ĠGrunde": 5300,
      "Ġexplain": 5301,
      "Ġeffekt": 5302,
      "Ġeffizient": 5303,
      "asser": 5304,
      "ikan": 5305,
      "ized": 5306,
      "conomic": 5307,
      "ĠLeben": 5308,
      "Dieses": 5309,
      "folge": 5310,
      "Ġprovisions": 5311,
      "ĠAufmerksam": 5312,
      "Ġoverall": 5313,
      "ĠBedenken": 5314,
      "Ġassoc": 5315,
      "Ġdifferen": 5316,
      "Ġmonopol": 5317,
      "Ġfarm": 5318,
      "ĠÃ¶kolog": 5319,
      "Ġaccep": 5320,
      "Ġwichtigsten": 5321,
      "Ġdiscussions": 5322,
      "Ġeverything": 5323,
      "Ġ81": 5324,
      "reiten": 5325,
      "Ġgleichen": 5326,
      "Ġreality": 5327,
      "Ġestablishment": 5328,
      "sprogramm": 5329,
      "regionen": 5330,
      "alyse": 5331,
      "Ġgebracht": 5332,
      "ĠNever": 5333,
      "Ġtransparent": 5334,
      "Ġelse": 5335,
      "Ġspeakers": 5336,
      "ĠgehÃ¶ren": 5337,
      "Ġdisasters": 5338,
      "Ġabsolut": 5339,
      "Ġbroad": 5340,
      "Ġbalance": 5341,
      "ĠRegelungen": 5342,
      "Ġreview": 5343,
      "laufen": 5344,
      "Ġsymp": 5345,
      "Unsere": 5346,
      "ĠWÃ¤hrung": 5347,
      "secutor": 5348,
      "Ġaffect": 5349,
      "Ġassessment": 5350,
      "Ġrecognise": 5351,
      "ĠRandlage": 5352,
      "ĠFortschritte": 5353,
      "ĠverfÃ¼gen": 5354,
      "ĠBeteiligung": 5355,
      "grenzung": 5356,
      "ĠMonti": 5357,
      "Ġcircum": 5358,
      "ĠKoordinierung": 5359,
      "ĠGlobalisierung": 5360,
      "Ġweltweit": 5361,
      "ĠAnstrengungen": 5362,
      "ĠAufmerksamkeit": 5363,
      "Car": 5364,
      "He": 5365,
      "dle": 5366,
      "here": 5367,
      "mÃ¼": 5368,
      "making": 5369,
      "part": 5370,
      "vereign": 5371,
      "yond": 5372,
      "ĠÃ¤hn": 5373,
      "erc": 5374,
      "erweise": 5375,
      "Ġaut": 5376,
      "unter": 5377,
      "ĠmÃ¼ÃŁ": 5378,
      "aler": 5379,
      "Ġfr": 5380,
      "Ġehr": 5381,
      "stimm": 5382,
      "Ġnimmt": 5383,
      "Ġhuge": 5384,
      "gemÃ¤ÃŁ": 5385,
      "Ã¤us": 5386,
      "omin": 5387,
      "Ġverein": 5388,
      "ĠSelbst": 5389,
      "Ġgere": 5390,
      "ĠME": 5391,
      "imes": 5392,
      "Ġrecyc": 5393,
      "ĠKenntnis": 5394,
      "ctor": 5395,
      "Ġlot": 5396,
      "Ġsovereign": 5397,
      "Ġstor": 5398,
      "vert": 5399,
      "Ġprot": 5400,
      "Ġerg": 5401,
      "Ġergreifen": 5402,
      "Ġaufgenommen": 5403,
      "ĠDa": 5404,
      "Ġneigh": 5405,
      "Ġjen": 5406,
      "Ġexact": 5407,
      "Ã¤nden": 5408,
      "quate": 5409,
      "oreboard": 5410,
      "Ġmag": 5411,
      "ordn": 5412,
      "Ġenfor": 5413,
      "ĠJun": 5414,
      "Ã¶rper": 5415,
      "Ġheard": 5416,
      "eschrÃ¤n": 5417,
      "Ġdisapp": 5418,
      "ĠMitarbeit": 5419,
      "reichend": 5420,
      "ĠAbschluÃŁ": 5421,
      "ĠEinsatz": 5422,
      "Ġinterp": 5423,
      "Ġraise": 5424,
      "Ġperf": 5425,
      "inning": 5426,
      "ĠGrundsÃ¤tze": 5427,
      "Ġrecently": 5428,
      "forderung": 5429,
      "fluÃŁ": 5430,
      "ĠLandes": 5431,
      "Ġgetroffen": 5432,
      "Ġsomit": 5433,
      "Ġparagraph": 5434,
      "Ġproduce": 5435,
      "Ġsimilar": 5436,
      "ĠBetrug": 5437,
      "ĠSozialdemokrat": 5438,
      "hnt": 5439,
      "Ġdays": 5440,
      "ĠauÃŁerdem": 5441,
      "Ġreduce": 5442,
      "ĠOrgane": 5443,
      "Ġclose": 5444,
      "Ġbenachteil": 5445,
      "Ġrecognis": 5446,
      "Ġcreated": 5447,
      "ĠVolk": 5448,
      "Ġparliamentary": 5449,
      "Ġreferred": 5450,
      "Ġbody": 5451,
      "Ġborders": 5452,
      "ĠRatsprÃ¤sidentschaft": 5453,
      "konom": 5454,
      "Ġenterpr": 5455,
      "Ġbetroffenen": 5456,
      "ĠEffizienz": 5457,
      "Ġhighl": 5458,
      "Ġrenewable": 5459,
      "ĠAltfahr": 5460,
      "ĠZugang": 5461,
      "Ġsechs": 5462,
      "Ġgrowth": 5463,
      "ĠGeschÃ¤fts": 5464,
      "ĠNevertheless": 5465,
      "Ġneighbour": 5466,
      "bÃ¼r": 5467,
      "ikt": 5468,
      "lÃ¤n": 5469,
      "rary": 5470,
      "sk": 5471,
      "sehen": 5472,
      "sized": 5473,
      "wes": 5474,
      "xim": 5475,
      "ender": 5476,
      "ino": 5477,
      "Ġbie": 5478,
      "Ġmis": 5479,
      "Ġmess": 5480,
      "alition": 5481,
      "entwurf": 5482,
      "lect": 5483,
      "Ġunz": 5484,
      "ĠSince": 5485,
      "Ġgiving": 5486,
      "Ġgranted": 5487,
      "ĠMed": 5488,
      "ĠMid": 5489,
      "ĠMÃ¤n": 5490,
      "ĠMiÃŁ": 5491,
      "olz": 5492,
      "ĠKommun": 5493,
      "Ġdadurch": 5494,
      "ĠCost": 5495,
      "ĠGol": 5496,
      "iers": 5497,
      "Ġverteid": 5498,
      "Ġprosper": 5499,
      "Ġdesire": 5500,
      "ĠVerhalten": 5501,
      "kei": 5502,
      "lare": 5503,
      "Ġsuc": 5504,
      "arta": 5505,
      "Ġmeisten": 5506,
      "Ġumwelt": 5507,
      "Ġdarstellt": 5508,
      "Ġentsch": 5509,
      "Ġcompeten": 5510,
      "Ġexperts": 5511,
      "Ġcoast": 5512,
      "Ġjede": 5513,
      "Ġinterregional": 5514,
      "Ġdeveloping": 5515,
      "Ġgrant": 5516,
      "Ġagreed": 5517,
      "ĠÃľberwach": 5518,
      "Ġsystems": 5519,
      "haltung": 5520,
      "ĠbeglÃ¼ck": 5521,
      "ĠGesundheit": 5522,
      "Ġgestimmt": 5523,
      "Ġcontribute": 5524,
      "Ġbessere": 5525,
      "ĠEURO": 5526,
      "Ġtalk": 5527,
      "Ġglobalisation": 5528,
      "ĠPalest": 5529,
      "Ġbrought": 5530,
      "Ġclosed": 5531,
      "Ġsteps": 5532,
      "COS": 5533,
      "Ġemploye": 5534,
      "Ġcaused": 5535,
      "Ġrelevant": 5536,
      "Ġobviously": 5537,
      "arakter": 5538,
      "Ġfestgelegt": 5539,
      "ĠGeschichte": 5540,
      "ĠKommissionsmitglied": 5541,
      "bringen": 5542,
      "Ġsetting": 5543,
      "Ġkontroll": 5544,
      "ĠVerÃ¤nderungen": 5545,
      "ĠTÃ¼rkei": 5546,
      "Ġvictims": 5547,
      "Ġoffensichtlich": 5548,
      "ĠQuestion": 5549,
      "ĠProtokoll": 5550,
      "Ġcompromise": 5551,
      "Ġfulfil": 5552,
      "ĠKompromiÃŁ": 5553,
      "Ġunanim": 5554,
      "Ge": 5555,
      "Office": 5556,
      "Steuer": 5557,
      "Um": 5558,
      "gruppen": 5559,
      "mÃ¶glichkeit": 5560,
      "plan": 5561,
      "polit": 5562,
      "will": 5563,
      "wahl": 5564,
      "ences": 5565,
      "Ġachten": 5566,
      "Ġthus": 5567,
      "Ġwid": 5568,
      "Ġwettbewerb": 5569,
      "Ġsinn": 5570,
      "Ġself": 5571,
      "Ġought": 5572,
      "Ġmiss": 5573,
      "Ġfl": 5574,
      "Ġfragen": 5575,
      "ĠfÃ¶rder": 5576,
      "Ġpub": 5577,
      "Ġunver": 5578,
      "gelt": 5579,
      "Ġbefinden": 5580,
      "Ġbeyond": 5581,
      "ury": 5582,
      "ederal": 5583,
      "igin": 5584,
      "ĠSan": 5585,
      "ĠSome": 5586,
      "ĠSinn": 5587,
      "uter": 5588,
      "elten": 5589,
      "ĠKons": 5590,
      "Ã¶sen": 5591,
      "ĠChrist": 5592,
      "Ġkl": 5593,
      "ĠHause": 5594,
      "Ġcondu": 5595,
      "Ġconference": 5596,
      "Ġstability": 5597,
      "ĠstÃ¤d": 5598,
      "ĠerhÃ¶": 5599,
      "iveau": 5600,
      "Ġdesc": 5601,
      "lause": 5602,
      "istan": 5603,
      "riffen": 5604,
      "ĠNicht": 5605,
      "ording": 5606,
      "Ġtack": 5607,
      "Ġenable": 5608,
      "ĠVorbereit": 5609,
      "ĠOp": 5610,
      "ĠPrÃ¤sidenten": 5611,
      "linie": 5612,
      "Ġnochmals": 5613,
      "ĠEinfluÃŁ": 5614,
      "Ġbesten": 5615,
      "Ġbesondere": 5616,
      "anker": 5617,
      "Ġkeiner": 5618,
      "Ġstrict": 5619,
      "fÃ¼hren": 5620,
      "Ġwarum": 5621,
      "langt": 5622,
      "Ġevents": 5623,
      "Ġgeworden": 5624,
      "Ġfell": 5625,
      "Ġdirection": 5626,
      "Ġcompetit": 5627,
      "utzung": 5628,
      "Ã¤ndert": 5629,
      "Ġremember": 5630,
      "Ġremark": 5631,
      "Ġfeststellen": 5632,
      "Ġbeginnen": 5633,
      "Ġurgent": 5634,
      "ĠText": 5635,
      "Ġdiscussed": 5636,
      "ĠKontrollen": 5637,
      "Ġentspricht": 5638,
      "erkennung": 5639,
      "Ġminimum": 5640,
      "Ġimprovement": 5641,
      "ĠProjekt": 5642,
      "Ġelections": 5643,
      "Meiner": 5644,
      "ĠMilliar": 5645,
      "attle": 5646,
      "zusch": 5647,
      "standen": 5648,
      "ĠInternet": 5649,
      "Ġbald": 5650,
      "Ġflexibility": 5651,
      "Ġzahlreiche": 5652,
      "Ġconstruction": 5653,
      "Ġsupported": 5654,
      "ĠBeschl": 5655,
      "ĠAspekte": 5656,
      "ĠMeer": 5657,
      "ibilities": 5658,
      "Ġambitious": 5659,
      "ĠFebruar": 5660,
      "Ġcoordination": 5661,
      "Ġmerely": 5662,
      "ĠPrÃ¼fung": 5663,
      "Ġgrounds": 5664,
      "luded": 5665,
      "ĠSachverstÃ¤nd": 5666,
      "Ã¤stin": 5667,
      "Ġethn": 5668,
      "Ġkonzentrieren": 5669,
      "ĠSchluÃŁfolgerungen": 5670,
      "ĠMcCar": 5671,
      "Ġrefugees": 5672,
      "Ġspeech": 5673,
      "Ġcircumstances": 5674,
      "Ġsucceed": 5675,
      "ĠbeglÃ¼ckwÃ¼n": 5676,
      "ĠstÃ¤dt": 5677,
      "ĠMcCarthy": 5678,
      "08": 5679,
      "VP": 5680,
      "aden": 5681,
      "fel": 5682,
      "licht": 5683,
      "ux": 5684,
      "zÃ¶": 5685,
      "zehn": 5686,
      "Ã¨": 5687,
      "Ġweder": 5688,
      "ature": 5689,
      "arr": 5690,
      "Ġflo": 5691,
      "Ġcut": 5692,
      "Ġcred": 5693,
      "ĠhÃ¤uf": 5694,
      "Ã¼g": 5695,
      "Ġdiejenigen": 5696,
      "ompe": 5697,
      "ires": 5698,
      "ĠPolitiken": 5699,
      "Ġeiniger": 5700,
      "Ġgra": 5701,
      "Ġgab": 5702,
      "Ġgave": 5703,
      "olution": 5704,
      "ĠFalle": 5705,
      "Ġlisten": 5706,
      "Ġforest": 5707,
      "ĠVitor": 5708,
      "ĠGel": 5709,
      "Ġalmost": 5710,
      "Ġcondem": 5711,
      "ĠstÃ¤nd": 5712,
      "ĠDer": 5713,
      "ĠDÃ¤n": 5714,
      "ĠVerhÃ¤lt": 5715,
      "ĠInhalt": 5716,
      "bezie": 5717,
      "ĠAnnahme": 5718,
      "ĠAnerkennung": 5719,
      "gesichts": 5720,
      "Ġumgesetzt": 5721,
      "range": 5722,
      "Ġorigin": 5723,
      "ipl": 5724,
      "ously": 5725,
      "ĠEnts": 5726,
      "itionen": 5727,
      "Ġbetrachte": 5728,
      "Ġhead": 5729,
      "Ġfacil": 5730,
      "formations": 5731,
      "Ġ21": 5732,
      "rittens": 5733,
      "Ġ1995": 5734,
      "Ġ\",": 5735,
      "Ġintention": 5736,
      "Ġjedes": 5737,
      "Ġrad": 5738,
      "barer": 5739,
      "Ġanything": 5740,
      "Ġactive": 5741,
      "ĠgewÃ¤hl": 5742,
      "stellungen": 5743,
      "Ġknowledge": 5744,
      "Ġdirectives": 5745,
      "Ġensuring": 5746,
      "fallen": 5747,
      "setzungen": 5748,
      "Ġmeasure": 5749,
      "Ġhelfen": 5750,
      "Ġdiscussing": 5751,
      "Ġ40": 5752,
      "ĠselbstverstÃ¤ndlich": 5753,
      "Ġproduction": 5754,
      "ifellos": 5755,
      "Ġextreme": 5756,
      "ĠQual": 5757,
      "ĠMinisters": 5758,
      "Ġguten": 5759,
      "ĠBeitritts": 5760,
      "Ġfinanzielle": 5761,
      "Ġreasonable": 5762,
      "Angesichts": 5763,
      "Ġdistrib": 5764,
      "Ġpresidency": 5765,
      "Ġcolleague": 5766,
      "Ġschwerwie": 5767,
      "ĠDienstleistungen": 5768,
      "Ġtimes": 5769,
      "ibilitÃ¤t": 5770,
      "Ġaspects": 5771,
      "ĠFebruary": 5772,
      "Ġkonnte": 5773,
      "Ġdringend": 5774,
      "prÃ¼ft": 5775,
      "Ġverbessern": 5776,
      "ĠLinie": 5777,
      "ĠVermittlungs": 5778,
      "ĠBritish": 5779,
      "Ġexternal": 5780,
      "Ġsafegu": 5781,
      "ĠEinwander": 5782,
      "streaming": 5783,
      "ĠÃ¤uÃŁerster": 5784,
      "Ġeligible": 5785,
      "Ġforthcoming": 5786,
      "Ġprobably": 5787,
      "Ġcomprehensive": 5788,
      "Heute": 5789,
      "lÃ¤ne": 5790,
      "ompeten": 5791,
      "ĠVitorino": 5792,
      "FR": 5793,
      "Le": 5794,
      "Wer": 5795,
      "lÃ¤ndern": 5796,
      "na": 5797,
      "rong": 5798,
      "yp": 5799,
      "ys": 5800,
      "ĠÃ¤ndern": 5801,
      "ined": 5802,
      "Ġdest": 5803,
      "Ġsort": 5804,
      "Ġsitting": 5805,
      "Ġbur": 5806,
      "Ġblo": 5807,
      "Ġinfra": 5808,
      "Ġmet": 5809,
      "Ġelement": 5810,
      "enten": 5811,
      "Ġanerk": 5812,
      "Ġunc": 5813,
      "teile": 5814,
      "Ã¤cht": 5815,
      "omes": 5816,
      "Ġvo": 5817,
      "Ġbel": 5818,
      "Ġbekommen": 5819,
      "ĠbemÃ¼": 5820,
      "ĠEC": 5821,
      "Ġisol": 5822,
      "Ġzunehmen": 5823,
      "ĠAcc": 5824,
      "emark": 5825,
      "ĠSer": 5826,
      "ĠSorge": 5827,
      "iculture": 5828,
      "oler": 5829,
      "scht": 5830,
      "ets": 5831,
      "Ã¶der": 5832,
      "ĠRap": 5833,
      "ĠFurther": 5834,
      "Ġko": 5835,
      "Ġsound": 5836,
      "Ġconven": 5837,
      "Ġverme": 5838,
      "Ġverpf": 5839,
      "Ġprofit": 5840,
      "esses": 5841,
      "Ġdeter": 5842,
      "spolit": 5843,
      "idents": 5844,
      "indet": 5845,
      "rÃ¤gt": 5846,
      "ĠZivil": 5847,
      "Ġlearn": 5848,
      "ahen": 5849,
      "quis": 5850,
      "Ġvorh": 5851,
      "istisch": 5852,
      "Ġ16": 5853,
      "ĠNormen": 5854,
      "Ġausges": 5855,
      "ĠBewertung": 5856,
      "ĠJÃ¶r": 5857,
      "ĠSchritt": 5858,
      "Ġbetonen": 5859,
      "Ġcommitted": 5860,
      "Ã¤rkt": 5861,
      "Ġconcil": 5862,
      "Ġfinally": 5863,
      "aper": 5864,
      "ĠGrenz": 5865,
      "Ġimpress": 5866,
      "Ġefficient": 5867,
      "Ġpointed": 5868,
      "ĠJahrh": 5869,
      "Ġvielmehr": 5870,
      "ĠUnterschiede": 5871,
      "Ġgemeinschaftlichen": 5872,
      "programm": 5873,
      "etheless": 5874,
      "Ġletzte": 5875,
      "Ġdrawn": 5876,
      "ĠEntscheidungs": 5877,
      "Ġthanks": 5878,
      "Dazu": 5879,
      "rechts": 5880,
      "Ġlooking": 5881,
      "ĠMonate": 5882,
      "Ġpromot": 5883,
      "zeichne": 5884,
      "Ġelected": 5885,
      "ĠWohl": 5886,
      "Ġdeliver": 5887,
      "Ġeffectively": 5888,
      "bauen": 5889,
      "Erstens": 5890,
      "Ġkonkrete": 5891,
      "ifying": 5892,
      "Ġclass": 5893,
      "Ġbestimmten": 5894,
      "Ġproperly": 5895,
      "hoben": 5896,
      "ĠFriedens": 5897,
      "ĠZweifel": 5898,
      "ĠArbeitsplÃ¤tzen": 5899,
      "ĠIndustrie": 5900,
      "ĠWÃ¤hrungs": 5901,
      "Ġanti": 5902,
      "Ġinnovative": 5903,
      "Ġerfolgreich": 5904,
      "Ġrepeat": 5905,
      "Ġkulturellen": 5906,
      "ĠPeople": 5907,
      "Ġconsequences": 5908,
      "ĠVerpflichtungen": 5909,
      "ĠEmpfehlungen": 5910,
      "Ġsubstant": 5911,
      "ĠForschung": 5912,
      "ĠStabilitÃ¤t": 5913,
      "ĠgeÃ¤uÃŁert": 5914,
      "ĠEindruck": 5915,
      "ĠKÃ¶nig": 5916,
      "Ġaccepted": 5917,
      "Ġperfect": 5918,
      "ĠGeschÃ¤ftsordnung": 5919,
      "Ġpublish": 5920,
      "ĠDÃ¤nemark": 5921,
      "Ġinfrast": 5922,
      "Ġverpflich": 5923,
      "ĠJÃ¶rg": 5924,
      "03": 5925,
      "Fra": 5926,
      "LT": 5927,
      "The": 5928,
      "bung": 5929,
      "hnung": 5930,
      "just": 5931,
      "lament": 5932,
      "ober": 5933,
      "ood": 5934,
      "punkte": 5935,
      "seit": 5936,
      "uk": 5937,
      "vision": 5938,
      "Ġtarge": 5939,
      "Ġade": 5940,
      "Ġwrong": 5941,
      "Ġbl": 5942,
      "Ġintens": 5943,
      "altet": 5944,
      "Ġfal": 5945,
      "Ġfig": 5946,
      "Ġflag": 5947,
      "Ġeher": 5948,
      "Ġpoll": 5949,
      "get": 5950,
      "Ġzus": 5951,
      "Ġeinbe": 5952,
      "ĠMal": 5953,
      "ĠBas": 5954,
      "ulative": 5955,
      "ĠWorte": 5956,
      "ĠWunsch": 5957,
      "lying": 5958,
      "einen": 5959,
      "Ġwealth": 5960,
      "Ġgebe": 5961,
      "ĠHÃ¶": 5962,
      "verÃ¤n": 5963,
      "Ġasking": 5964,
      "spekt": 5965,
      "ĠInvest": 5966,
      "Ġjoin": 5967,
      "Ġextens": 5968,
      "Ġsea": 5969,
      "liegt": 5970,
      "anner": 5971,
      "Ġvorzulegen": 5972,
      "erner": 5973,
      "schaftliche": 5974,
      "ĠÃ¼berw": 5975,
      "ĠNations": 5976,
      "ĠAng": 5977,
      "gese": 5978,
      "gramme": 5979,
      "Ġschle": 5980,
      "ouch": 5981,
      "gerung": 5982,
      "Ġunters": 5983,
      "Ġunterschied": 5984,
      "ished": 5985,
      "Ġimpact": 5986,
      "Ġgenug": 5987,
      "Ġgestern": 5988,
      "Ġrac": 5989,
      "Ġpermit": 5990,
      "ĠDeut": 5991,
      "itude": 5992,
      "Ġsubmitted": 5993,
      "Ġgewesen": 5994,
      "ĠMaÃŁe": 5995,
      "ĠendgÃ¼lt": 5996,
      "ĠSeattle": 5997,
      "ĠÃĸl": 5998,
      "Ġenvis": 5999,
      "istence": 6000,
      "ildungs": 6001,
      "ĠGesprÃ¤": 6002,
      "ĠFinanzkontrolle": 6003,
      "Ġconflic": 6004,
      "Ġuseful": 6005,
      "icultural": 6006,
      "Ġkommenden": 6007,
      "Ġgeschaffen": 6008,
      "ĠWettbewerbsfÃ¤higkeit": 6009,
      "Ġbedarf": 6010,
      "Ġversich": 6011,
      "zeugt": 6012,
      "ĠIhrem": 6013,
      "Ġ...": 6014,
      "ĠbenÃ¶t": 6015,
      "riminalitÃ¤t": 6016,
      "ĠRegeln": 6017,
      "Ġinvestig": 6018,
      "Ġinstruments": 6019,
      "eintrÃ¤cht": 6020,
      "Ġequality": 6021,
      "ĠGesetzgebung": 6022,
      "Ġreturn": 6023,
      "ĠerklÃ¤ren": 6024,
      "Ġamongst": 6025,
      "Ġintended": 6026,
      "ventions": 6027,
      "Ġmodel": 6028,
      "ĠInstanz": 6029,
      "ĠErfahrungen": 6030,
      "Ġdiskutieren": 6031,
      "ĠIrland": 6032,
      "ĠBalkan": 6033,
      "Ġbillion": 6034,
      "ĠerwÃ¤hnt": 6035,
      "Ġrestrict": 6036,
      "ĠTourism": 6037,
      "Ġeingesetzt": 6038,
      "Ġavoid": 6039,
      "ĠDenmark": 6040,
      "ĠVÃ¶lker": 6041,
      "reifen": 6042,
      "Ġsympath": 6043,
      "Ġmessage": 6044,
      "Ġfellow": 6045,
      "Ġcompetitiveness": 6046,
      "ĠMilliarden": 6047,
      "ĠAccording": 6048,
      "ĠKÃ¶nigreich": 6049,
      "Ġverpflichtet": 6050,
      "MU": 6051,
      "Von": 6052,
      "Wel": 6053,
      "gut": 6054,
      "lude": 6055,
      "meld": 6056,
      "odern": 6057,
      "ron": 6058,
      "yn": 6059,
      "Ġdienen": 6060,
      "Ġthinking": 6061,
      "Ġwach": 6062,
      "unch": 6063,
      "unkten": 6064,
      "anze": 6065,
      "Ġbrit": 6066,
      "Ġinstead": 6067,
      "Ġeuro": 6068,
      "Ġhor": 6069,
      "Ġuner": 6070,
      "geiz": 6071,
      "Ġbezie": 6072,
      "used": 6073,
      "igungen": 6074,
      "Ġzul": 6075,
      "rach": 6076,
      "Ġgives": 6077,
      "ica": 6078,
      "olid": 6079,
      "ĠBudget": 6080,
      "schw": 6081,
      "ĠKamp": 6082,
      "ĠFlex": 6083,
      "Ġlog": 6084,
      "ĠlÃ¤nger": 6085,
      "ĠComp": 6086,
      "ĠWahr": 6087,
      "ĠWert": 6088,
      "ĠThird": 6089,
      "Ġverur": 6090,
      "Ġerk": 6091,
      "ands": 6092,
      "ĠDanish": 6093,
      "ĠUngleich": 6094,
      "ĠUnabhÃ¤ng": 6095,
      "Ġdealt": 6096,
      "ĠVerstÃ¤nd": 6097,
      "ĠStimme": 6098,
      "Ġexerc": 6099,
      "rÃ¤ft": 6100,
      "Ġmittel": 6101,
      "Ġrule": 6102,
      "Ġvorlegen": 6103,
      "Ġ100": 6104,
      "ĠProsecutor": 6105,
      "ĠAnfrage": 6106,
      "ounced": 6107,
      "gestell": 6108,
      "Ġausreichend": 6109,
      "Ġabzu": 6110,
      "ennium": 6111,
      "ipul": 6112,
      "steht": 6113,
      "ĠmÃ¶chten": 6114,
      "Ã¶rt": 6115,
      "Ġapplies": 6116,
      "Ġcontrary": 6117,
      "Ġdispar": 6118,
      "Ġjedem": 6119,
      "Ġcho": 6120,
      "lieÃŁen": 6121,
      "lieÃŁlich": 6122,
      "Ġrightly": 6123,
      "ĠgrÃ¼nd": 6124,
      "Ġhoffen": 6125,
      "ĠGrundrechte": 6126,
      "ĠProblemen": 6127,
      "ĠAufbau": 6128,
      "schlieÃŁen": 6129,
      "ĠMaÃŁnahme": 6130,
      "Ġoffice": 6131,
      "Ġremote": 6132,
      "richtungen": 6133,
      "works": 6134,
      "Ġhalf": 6135,
      "ĠStellen": 6136,
      "ĠHauses": 6137,
      "Ġattach": 6138,
      "ofern": 6139,
      "Ã¤mt": 6140,
      "ĠAuto": 6141,
      "Ġimproving": 6142,
      "ĠProjekten": 6143,
      "ĠRaums": 6144,
      "ĠVorschlÃ¤gen": 6145,
      "Ġrisks": 6146,
      "Ġaims": 6147,
      "ĠSocialists": 6148,
      "odex": 6149,
      "Ġ2002": 6150,
      "Ġanderer": 6151,
      "Ġaddressed": 6152,
      "Ġentwickelt": 6153,
      "Ġactivity": 6154,
      "ĠWiederauf": 6155,
      "ĠVolks": 6156,
      "Ġsuffer": 6157,
      "ĠgrundsÃ¤tz": 6158,
      "Ġreading": 6159,
      "Ġoccur": 6160,
      "Ġcarefully": 6161,
      "ĠerklÃ¤rt": 6162,
      "ĠGrÃ¼nde": 6163,
      "Ġnormal": 6164,
      "Ġencourage": 6165,
      "Ġkonnten": 6166,
      "ĠFolgen": 6167,
      "ĠKriti": 6168,
      "ĠFremdenverkehr": 6169,
      "ĠBemerkungen": 6170,
      "Ġexclusion": 6171,
      "ĠStÃ¤dte": 6172,
      "ĠZustÃ¤ndigkeit": 6173,
      "ĠfranzÃ¶sischen": 6174,
      "Ġspezif": 6175,
      "ĠWiderspruch": 6176,
      "ĠerfÃ¼llen": 6177,
      "Ġimmediately": 6178,
      "SchlieÃŁlich": 6179,
      "Ġverantwortlich": 6180,
      "Ġjeweiligen": 6181,
      "ĠRessourcen": 6182,
      "ĠCosta": 6183,
      "mÃ¶glichkeiten": 6184,
      "Ã¤stinens": 6185,
      "Ġcondemn": 6186,
      "ĠQualitÃ¤t": 6187,
      "Ġsafeguard": 6188,
      "ĠFurthermore": 6189,
      "Ġconciliation": 6190,
      "Fraktion": 6191,
      "gesellschaft": 6192,
      ").": 6193,
      "Ander": 6194,
      "Bet": 6195,
      "Gleich": 6196,
      "Par": 6197,
      "ai": 6198,
      "cement": 6199,
      "falt": 6200,
      "lier": 6201,
      "oul": 6202,
      "ren": 6203,
      "trÃ¤": 6204,
      "tran": 6205,
      "erve": 6206,
      "Ġdank": 6207,
      "Ġdimension": 6208,
      "Ġdivers": 6209,
      "chnung": 6210,
      "isp": 6211,
      "Ġwonder": 6212,
      "itory": 6213,
      "Ġsl": 6214,
      "Ġsus": 6215,
      "ĠsÃ¤mt": 6216,
      "atisch": 6217,
      "reign": 6218,
      "Ġmass": 6219,
      "Ġmanner": 6220,
      "ality": 6221,
      "aren": 6222,
      "Ġemer": 6223,
      "Ġnieder": 6224,
      "Ġunmittel": 6225,
      "ĠElement": 6226,
      "rahmen": 6227,
      "ĠeinschlieÃŁlich": 6228,
      "ĠSh": 6229,
      "ĠSum": 6230,
      "Ġgain": 6231,
      "ĠMindest": 6232,
      "ĠModern": 6233,
      "imal": 6234,
      "ama": 6235,
      "amm": 6236,
      "amber": 6237,
      "tends": 6238,
      "ĠKouch": 6239,
      "Ġlab": 6240,
      "ilit": 6241,
      "Ġkaum": 6242,
      "Ġforms": 6243,
      "ĠViel": 6244,
      "Ġweak": 6245,
      "ĠEuropÃ¤": 6246,
      "Ġgeling": 6247,
      "Ġconstit": 6248,
      "Ġstop": 6249,
      "Ġstipul": 6250,
      "ĠDinge": 6251,
      "Ġdead": 6252,
      "ĠLange": 6253,
      "ĠInformations": 6254,
      "Ġexcess": 6255,
      "Ġmitt": 6256,
      "ored": 6257,
      "Ġrasch": 6258,
      "Ġvorher": 6259,
      "riÃ¨": 6260,
      "ausweis": 6261,
      "ĠÃ¼bern": 6262,
      "ĠNieder": 6263,
      "ĠAnforderungen": 6264,
      "fordern": 6265,
      "gesamt": 6266,
      "Ġauszu": 6267,
      "ĠausfÃ¼hr": 6268,
      "ĠAusbildung": 6269,
      "ĠenthÃ¤lt": 6270,
      "ĠSchritte": 6271,
      "ibly": 6272,
      "ĠOsten": 6273,
      "Ġparts": 6274,
      "Ġappe": 6275,
      "Ġappear": 6276,
      "Ã¼nden": 6277,
      "Ã¼nde": 6278,
      "Ġobtain": 6279,
      "Ġproposing": 6280,
      "ĠEinsch": 6281,
      "Ġgesetzt": 6282,
      "Ġgesehen": 6283,
      "Ġdecentr": 6284,
      "icherung": 6285,
      "lÃ¤uf": 6286,
      "strategie": 6287,
      "ĠLeist": 6288,
      "Ġways": 6289,
      "ĠUmfang": 6290,
      "ĠVertra": 6291,
      "actions": 6292,
      "Ġconsiderable": 6293,
      "Ġscience": 6294,
      "gelmÃ¤ÃŁ": 6295,
      "ĠRechtssicherheit": 6296,
      "Ġdirectly": 6297,
      "ildet": 6298,
      "Ġapprove": 6299,
      "Ġnatural": 6300,
      "gabe": 6301,
      "legungen": 6302,
      "Ġbeginning": 6303,
      "ĠZielen": 6304,
      "acity": 6305,
      "ĠFinanzierung": 6306,
      "ĠÃĦnderungsantrÃ¤gen": 6307,
      "ĠErwart": 6308,
      "ĠGericht": 6309,
      "ĠUmweltschutz": 6310,
      "Ã¤rkung": 6311,
      "tendlich": 6312,
      "ĠChance": 6313,
      "Ġwissenschaftlichen": 6314,
      "Ġideas": 6315,
      "Ġbraucht": 6316,
      "Ġversuchen": 6317,
      "overty": 6318,
      "ĠWochen": 6319,
      "Ġgovernance": 6320,
      "ĠauÃŁerord": 6321,
      "ĠErklÃ¤rungen": 6322,
      "Ġdemokratische": 6323,
      "Ġintroduce": 6324,
      "ĠBesorg": 6325,
      "Ġreceive": 6326,
      "Ġderzeitigen": 6327,
      "Ġflexible": 6328,
      "Ġbestehenden": 6329,
      "Unser": 6330,
      "ĠAspekt": 6331,
      "Ġearlier": 6332,
      "genteil": 6333,
      "Ġwaste": 6334,
      "scheinlich": 6335,
      "Ġships": 6336,
      "where": 6337,
      "Ġcovered": 6338,
      "Ġbehandelt": 6339,
      "ĠJanuar": 6340,
      "ĠJanuary": 6341,
      "ĠHerausforderung": 6342,
      "andidaten": 6343,
      "sprinzip": 6344,
      "General": 6345,
      "entwicklung": 6346,
      "Ġpurpose": 6347,
      "Ġverehrte": 6348,
      "Ġdetailed": 6349,
      "Ġviol": 6350,
      "Ġassoci": 6351,
      "Ġehrgeiz": 6352,
      "Ġsovereignty": 6353,
      "Ġstorms": 6354,
      "ĠMiddle": 6355,
      "ĠÃľberwachung": 6356,
      "Ġburden": 6357,
      "ĠFlexibilitÃ¤t": 6358,
      "ĠKouchner": 6359,
      "riÃ¨re": 6360,
      "App": 6361,
      "DE": 6362,
      "War": 6363,
      "aktionen": 6364,
      "cke": 6365,
      "dom": 6366,
      "dra": 6367,
      "ec": 6368,
      "fs": 6369,
      "fassung": 6370,
      "katastrop": 6371,
      "mand": 6372,
      "uation": 6373,
      "uff": 6374,
      "uble": 6375,
      "inden": 6376,
      "Ġtest": 6377,
      "ĠdÃ¤n": 6378,
      "Ġweshalb": 6379,
      "atch": 6380,
      "iell": 6381,
      "rec": 6382,
      "Ġban": 6383,
      "Ġbad": 6384,
      "Ġmand": 6385,
      "alian": 6386,
      "ars": 6387,
      "stelle": 6388,
      "Ġpoverty": 6389,
      "Ġcalled": 6390,
      "Ġuntern": 6391,
      "Ġtook": 6392,
      "tei": 6393,
      "Ã¤ter": 6394,
      "Ġvess": 6395,
      "ĠEG": 6396,
      "ĠEreign": 6397,
      "usion": 6398,
      "ĠAkte": 6399,
      "ĠSÃ¼": 6400,
      "ĠSou": 6401,
      "ĠMoment": 6402,
      "imin": 6403,
      "ĠBildung": 6404,
      "etimes": 6405,
      "Ġzudem": 6406,
      "Ġlater": 6407,
      "Ġforces": 6408,
      "ĠWales": 6409,
      "Ġdiesbe": 6410,
      "Ġverlei": 6411,
      "Ġerkennen": 6412,
      "Ġaufmerksam": 6413,
      "ĠUnfortunately": 6414,
      "Ġwithdra": 6415,
      "ĠVersch": 6416,
      "ĠInsel": 6417,
      "ĠjÃ¼n": 6418,
      "Ġseek": 6419,
      "que": 6420,
      "Ġrig": 6421,
      "chtung": 6422,
      "Ġreserv": 6423,
      "Ġspielen": 6424,
      "ĠAusgrenzung": 6425,
      "absicht": 6426,
      "ĠArmut": 6427,
      "Ġdarstellen": 6428,
      "Ġ28": 6429,
      "ĠItaly": 6430,
      "outh": 6431,
      "Ġpolitisch": 6432,
      "ĠGeb": 6433,
      "ĠGegenteil": 6434,
      "Ġspeaking": 6435,
      "head": 6436,
      "ĠEinbezie": 6437,
      "Ġgenannten": 6438,
      "Ġihres": 6439,
      "Ġdevelopments": 6440,
      "barkeit": 6441,
      "Ġfactor": 6442,
      "ĠAufnahme": 6443,
      "alism": 6444,
      "Ġrecover": 6445,
      "utzt": 6446,
      "haften": 6447,
      "Ġscale": 6448,
      "Ġrequires": 6449,
      "Ġcertainty": 6450,
      "hÃ¶ren": 6451,
      "Ġapproval": 6452,
      "Ġstatus": 6453,
      "Ã¶rdert": 6454,
      "Ġletztendlich": 6455,
      "ĠHaushalt": 6456,
      "Ġgering": 6457,
      "Ġzweifellos": 6458,
      "Ã¤rkten": 6459,
      "Ġadopting": 6460,
      "frastruktur": 6461,
      "ĠKoop": 6462,
      "ĠKonfl": 6463,
      "Ġausgewogen": 6464,
      "Einige": 6465,
      "Ġpromoting": 6466,
      "gemeinschaft": 6467,
      "Beifall": 6468,
      "Ã¤mpfen": 6469,
      "ĠAlthough": 6470,
      "Ġawa": 6471,
      "Ġeingegangen": 6472,
      "zeugung": 6473,
      "Ġadvis": 6474,
      "Ġsimple": 6475,
      "Ã¤hlen": 6476,
      "ĠRedner": 6477,
      "Ġoperators": 6478,
      "Ġintroduced": 6479,
      "odell": 6480,
      "Ġstatements": 6481,
      "Ġterritor": 6482,
      "Ġterritory": 6483,
      "Ġgegebenen": 6484,
      "Ġparliaments": 6485,
      "Ġopposed": 6486,
      "leitet": 6487,
      "ĠSyrien": 6488,
      "ĠPrioritÃ¤t": 6489,
      "ĠForderungen": 6490,
      "Ġderartige": 6491,
      "Ġzeigt": 6492,
      "Ġdiskutiert": 6493,
      "ĠGermany": 6494,
      "ĠStaatsan": 6495,
      "Ġpaid": 6496,
      "Ġagricultural": 6497,
      "Ġmorning": 6498,
      "Ġmaterials": 6499,
      "Ġstudy": 6500,
      "ĠAktiv": 6501,
      "Ġkompliz": 6502,
      "Ġhappy": 6503,
      "ĠAutomobilindustrie": 6504,
      "ĠBestandteil": 6505,
      "Ġduty": 6506,
      "Ġecological": 6507,
      "ĠGarant": 6508,
      "Ġsources": 6509,
      "ĠMitarbeiter": 6510,
      "ĠPalestin": 6511,
      "Ġemployees": 6512,
      "ĠbeglÃ¼ckwÃ¼nschen": 6513,
      "Ġvermeiden": 6514,
      "Ġpromotion": 6515,
      "Ġdisparities": 6516,
      "Parliament": 6517,
      "Applause": 6518,
      "ĠSouverÃ¤n": 6519,
      "ĠjÃ¼ng": 6520,
      "ĠEinbeziehung": 6521,
      "),": 6522,
      "Aller": 6523,
      "En": 6524,
      "OL": 6525,
      "TO": 6526,
      "bal": 6527,
      "bel": 6528,
      "ever": 6529,
      "frieden": 6530,
      "gin": 6531,
      "iere": 6532,
      "kay": 6533,
      "lant": 6534,
      "mium": 6535,
      "oung": 6536,
      "ugend": 6537,
      "zlich": 6538,
      "zember": 6539,
      "zio": 6540,
      "Ġil": 6541,
      "Ġult": 6542,
      "Ġdr": 6543,
      "Ġdre": 6544,
      "Ġack": 6545,
      "Ġaround": 6546,
      "Ġwoll": 6547,
      "unsten": 6548,
      "itial": 6549,
      "Ġsum": 6550,
      "ateral": 6551,
      "reff": 6552,
      "regeln": 6553,
      "ancen": 6554,
      "Ġintends": 6555,
      "Ġinitial": 6556,
      "Ġmut": 6557,
      "alb": 6558,
      "Ġfallen": 6559,
      "stum": 6560,
      "gef": 6561,
      "Ġtoler": 6562,
      "Ã¤den": 6563,
      "ash": 6564,
      "ĠEconomic": 6565,
      "ĠPflicht": 6566,
      "ĠAfter": 6567,
      "Ġeinsetzen": 6568,
      "ĠSonder": 6569,
      "ĠMalt": 6570,
      "ĠBar": 6571,
      "ĠBlick": 6572,
      "dere": 6573,
      "ĠKriterien": 6574,
      "etition": 6575,
      "Ġzufrieden": 6576,
      "ĠFamil": 6577,
      "ĠCont": 6578,
      "Ġforget": 6579,
      "ĠWach": 6580,
      "ĠWaffen": 6581,
      "Ġweap": 6582,
      "ĠGruppen": 6583,
      "ĠGÃ¼ter": 6584,
      "Ġgeleistet": 6585,
      "Ġsogen": 6586,
      "Ġsofort": 6587,
      "Ġstimme": 6588,
      "verstanden": 6589,
      "Ġverm": 6590,
      "ĠverstÃ¤nd": 6591,
      "Ġverfolgen": 6592,
      "achten": 6593,
      "ĠerÃ¶r": 6594,
      "ĠDies": 6595,
      "ĠUntern": 6596,
      "ĠRechnung": 6597,
      "ĠVerfahrens": 6598,
      "pped": 6599,
      "ĠInfrastruktur": 6600,
      "rÃ¤z": 6601,
      "laus": 6602,
      "Ġrise": 6603,
      "rige": 6604,
      "undes": 6605,
      "ĠÃ¼berzeugt": 6606,
      "ĠNos": 6607,
      "ĠNahen": 6608,
      "ĠAnspruch": 6609,
      "gesetz": 6610,
      "ĠausdrÃ¼cklich": 6611,
      "ittees": 6612,
      "Ġschl": 6613,
      "Ġcomplex": 6614,
      "ĠBereit": 6615,
      "Ġ24": 6616,
      "ierende": 6617,
      "ubl": 6618,
      "Ġexplan": 6619,
      "ĠEinrichtung": 6620,
      "auern": 6621,
      "Ġgenu": 6622,
      "ĠgenÃ¼": 6623,
      "anks": 6624,
      "Ġrap": 6625,
      "Ġrail": 6626,
      "ĠProgrammp": 6627,
      "ĠDecour": 6628,
      "ĠDezember": 6629,
      "Ġlaid": 6630,
      "Ġinsgesamt": 6631,
      "Ġcourts": 6632,
      "ĠWhy": 6633,
      "Ġ37": 6634,
      "Ġeinzige": 6635,
      "antwortung": 6636,
      "Ġfestgestellt": 6637,
      "Ġletzter": 6638,
      "Ġinternationaler": 6639,
      "ĠStelle": 6640,
      "Ġtaxation": 6641,
      "Ġerweit": 6642,
      "Ġachieving": 6643,
      "ĠCharta": 6644,
      "Ġnunmehr": 6645,
      "Ã¤ltigen": 6646,
      "Ġinvolving": 6647,
      "Ġincludes": 6648,
      "Ġgestalten": 6649,
      "Ġnotwendigen": 6650,
      "Ġcontrols": 6651,
      "Ġstehenden": 6652,
      "zeichnen": 6653,
      "ĠFreedom": 6654,
      "ĠEntschlieÃŁungsantrag": 6655,
      "ĠÃĸsterreichs": 6656,
      "wirkung": 6657,
      "Ġcapacity": 6658,
      "ĠStraÃŁe": 6659,
      "sequently": 6660,
      "ĠauÃŁerhalb": 6661,
      "Ġapplicable": 6662,
      "Ġhistory": 6663,
      "ĠWahlen": 6664,
      "ĠVerkehrs": 6665,
      "Ġdemonst": 6666,
      "Ġvorgeschlagenen": 6667,
      "Ġcommitments": 6668,
      "Ġpersonal": 6669,
      "Ġlangfrist": 6670,
      "ĠAmendments": 6671,
      "Ġweeks": 6672,
      "Ġcauses": 6673,
      "ĠPersonen": 6674,
      "Ġhold": 6675,
      "ĠÃľbereinkommen": 6676,
      "Ġbuilding": 6677,
      "mission": 6678,
      "letzt": 6679,
      "Ġdefend": 6680,
      "mbol": 6681,
      "ĠIdee": 6682,
      "ĠVoraussetzung": 6683,
      "ĠLegal": 6684,
      "ĠUSA": 6685,
      "ĠPartnerschaft": 6686,
      "Ġrecommendations": 6687,
      "ĠKohÃ¤sion": 6688,
      "stattung": 6689,
      "Ġallocated": 6690,
      "Ġcombating": 6691,
      "ĠFischerei": 6692,
      "Ġignor": 6693,
      "Ġsupervision": 6694,
      "ĠKÃ¼sten": 6695,
      "Ġvorschlagen": 6696,
      "Ġinfluen": 6697,
      "Ġbeteiligt": 6698,
      "ĠDecember": 6699,
      "burg": 6700,
      "Ġenormous": 6701,
      "Ġenterprises": 6702,
      "bÃ¼rger": 6703,
      "Ġsinnvoll": 6704,
      "iplom": 6705,
      "ĠRapkay": 6706,
      "Ġausgesprochen": 6707,
      "lamentar": 6708,
      "ĠVerstÃ¤ndnis": 6709,
      "ĠErwartungen": 6710,
      "ĠSouverÃ¤nitÃ¤t": 6711,
      "Ġacknow": 6712,
      "reffend": 6713,
      "ĠDecourriÃ¨re": 6714,
      "Des": 6715,
      "Dann": 6716,
      "Jetzt": 6717,
      "cision": 6718,
      "gruppe": 6719,
      "hab": 6720,
      "kÃ¶rper": 6721,
      "lÃ¤nd": 6722,
      "met": 6723,
      "rig": 6724,
      "son": 6725,
      "sachen": 6726,
      "to": 6727,
      "enational": 6728,
      "enary": 6729,
      "oned": 6730,
      "ĠwÃ¤ren": 6731,
      "undert": 6732,
      "reche": 6733,
      "anted": 6734,
      "anagement": 6735,
      "ĠfÃ¼": 6736,
      "Ġpaper": 6737,
      "Ġnied": 6738,
      "Ġtown": 6739,
      "Ġvital": 6740,
      "Ġbeabsicht": 6741,
      "ĠEisen": 6742,
      "ush": 6743,
      "eden": 6744,
      "Ġzut": 6745,
      "ĠAktionen": 6746,
      "ĠSten": 6747,
      "ĠSpiel": 6748,
      "ĠMore": 6749,
      "imate": 6750,
      "either": 6751,
      "ĠBundes": 6752,
      "ĠTA": 6753,
      "schn": 6754,
      "denkt": 6755,
      "ĠFinn": 6756,
      "Ġlauf": 6757,
      "Ġauft": 6758,
      "ĠCons": 6759,
      "ĠWel": 6760,
      "ĠGra": 6761,
      "ĠGip": 6762,
      "Ġgee": 6763,
      "Ġgek": 6764,
      "Ġgelungen": 6765,
      "Ġconcept": 6766,
      "ĠRegelung": 6767,
      "ĠVerlauf": 6768,
      "Ġjene": 6769,
      "ĠStud": 6770,
      "Ġexem": 6771,
      "Ġwilling": 6772,
      "Ġlegen": 6773,
      "Ġyoung": 6774,
      "Ġvoraus": 6775,
      "Ġvorzu": 6776,
      "ungsk": 6777,
      "ĠAnfang": 6778,
      "Ġaussprechen": 6779,
      "gramms": 6780,
      "Ġspo": 6781,
      "Ġspent": 6782,
      "ternative": 6783,
      "ĠVorhaben": 6784,
      "ĠSchul": 6785,
      "ĠSchÃ¼ssel": 6786,
      "Ġamt": 6787,
      "Ġcompens": 6788,
      "ĠBerat": 6789,
      "Ġapprec": 6790,
      "ĠItalian": 6791,
      "Ġcommittees": 6792,
      "werte": 6793,
      "Ġunterst": 6794,
      "linge": 6795,
      "Ġ\".": 6796,
      "Ġcharter": 6797,
      "angs": 6798,
      "Ġinterin": 6799,
      "Ġintervention": 6800,
      "Ġnews": 6801,
      "Ġotherwise": 6802,
      "Ġdeveloped": 6803,
      "losen": 6804,
      "lÃ¤ÃŁ": 6805,
      "ĠProgrammen": 6806,
      "akte": 6807,
      "Ġeval": 6808,
      "Ġsubsid": 6809,
      "loyed": 6810,
      "Initiative": 6811,
      "Ġsonst": 6812,
      "ĠUmst": 6813,
      "Ġtradition": 6814,
      "Ġproviding": 6815,
      "ĠÃĸVP": 6816,
      "Ġscoreboard": 6817,
      "Ġ35": 6818,
      "Ġarrange": 6819,
      "Ġnatur": 6820,
      "Ġinstitutional": 6821,
      "Ġplenary": 6822,
      "ethod": 6823,
      "ighted": 6824,
      "ĠGebiets": 6825,
      "fÃ¼hl": 6826,
      "Ġattitude": 6827,
      "Ġparlamentar": 6828,
      "ĠKontin": 6829,
      "ĠCharakter": 6830,
      "ĠChamber": 6831,
      "ĠKonzentr": 6832,
      "Ġformul": 6833,
      "Ã¼cksichtigung": 6834,
      "Ġversucht": 6835,
      "Ġelements": 6836,
      "Ġdealing": 6837,
      "sequent": 6838,
      "ĠOnly": 6839,
      "Ġhervorge": 6840,
      "Ġshown": 6841,
      "Ġanderem": 6842,
      "Ġguarantees": 6843,
      "ĠBinnenmarktes": 6844,
      "Ġnonetheless": 6845,
      "Ġzahlreichen": 6846,
      "Ġtruly": 6847,
      "Ġdemands": 6848,
      "Ġearly": 6849,
      "Ġtotally": 6850,
      "ĠKatastrophen": 6851,
      "stehenden": 6852,
      "allel": 6853,
      "Ġconsumers": 6854,
      "Programm": 6855,
      "Ġwahrscheinlich": 6856,
      "ENER": 6857,
      "kommens": 6858,
      "Ġrelationship": 6859,
      "laubwÃ¼rd": 6860,
      "ĠHerausforderungen": 6861,
      "Ġdemonstrate": 6862,
      "Ġeinheitliche": 6863,
      "ĠzustÃ¤ndig": 6864,
      "Ġforeign": 6865,
      "ĠProdukt": 6866,
      "ĠVereinbarung": 6867,
      "ĠDiskriminierung": 6868,
      "Ġwiederholen": 6869,
      "Ġxenophobia": 6870,
      "austausch": 6871,
      "ĠAgrar": 6872,
      "Ġzugunsten": 6873,
      "Ġgeehrte": 6874,
      "Ġmonopolies": 6875,
      "Ġentschlossen": 6876,
      "Ġconduct": 6877,
      "Ġfloor": 6878,
      "Ġbetrachtet": 6879,
      "Ġimpression": 6880,
      "ĠKritik": 6881,
      "Ġlabour": 6882,
      "ĠauÃŁerordentlich": 6883,
      "Warum": 6884,
      "Ġilleg": 6885,
      "Ġweapons": 6886,
      "AP": 6887,
      "Ar": 6888,
      "Dem": 6889,
      "Ob": 6890,
      "freiheit": 6891,
      "hem": 6892,
      "iate": 6893,
      "lose": 6894,
      "nehm": 6895,
      "prÃ¤sident": 6896,
      "rial": 6897,
      "zul": 6898,
      "zesses": 6899,
      "Ġten": 6900,
      "Ġtief": 6901,
      "Ġage": 6902,
      "ones": 6903,
      "isieren": 6904,
      "Ġwanted": 6905,
      "itation": 6906,
      "Ġsent": 6907,
      "orient": 6908,
      "ande": 6909,
      "Ġmethod": 6910,
      "alitÃ¤t": 6911,
      "entions": 6912,
      "struction": 6913,
      "Ġcentr": 6914,
      "Ġhour": 6915,
      "Ã¤llt": 6916,
      "ĠbezÃ¼glich": 6917,
      "rab": 6918,
      "ĠALT": 6919,
      "Ġeinverstanden": 6920,
      "Ġganze": 6921,
      "ĠMut": 6922,
      "ĠMay": 6923,
      "uting": 6924,
      "Ġreag": 6925,
      "ĠBy": 6926,
      "schland": 6927,
      "Ġzuk": 6928,
      "Ã¶p": 6929,
      "ĠRass": 6930,
      "ĠFÃ¶rder": 6931,
      "Ġlate": 6932,
      "Ġlay": 6933,
      "ĠlÃ¶sen": 6934,
      "ĠCulture": 6935,
      "Ġkam": 6936,
      "Ġdenken": 6937,
      "ĠVal": 6938,
      "ĠGruppe": 6939,
      "Ġgekommen": 6940,
      "bend": 6941,
      "Ġitalien": 6942,
      "Ġstock": 6943,
      "Ġverk": 6944,
      "acher": 6945,
      "andlung": 6946,
      "ktor": 6947,
      "ĠDonn": 6948,
      "Ġdeep": 6949,
      "ĠLa": 6950,
      "ĠLes": 6951,
      "ĠjÃ¤hr": 6952,
      "Ġsepar": 6953,
      "Ġvorange": 6954,
      "Ġdouble": 6955,
      "ugnisse": 6956,
      "ado": 6957,
      "ĠAnp": 6958,
      "Ġauseinander": 6959,
      "ĠAuswahl": 6960,
      "ipher": 6961,
      "ĠBeweis": 6962,
      "ĠVorred": 6963,
      "zeigt": 6964,
      "ĠBerger": 6965,
      "ĠBerÃ¼cksichtigung": 6966,
      "ĠbetrÃ¤cht": 6967,
      "Ġ22": 6968,
      "Ġ26": 6969,
      "Ã¤rz": 6970,
      "udit": 6971,
      "Ġquant": 6972,
      "Ġcoalition": 6973,
      "ĠEinigung": 6974,
      "Ġberu": 6975,
      "Ġconsolid": 6976,
      "duc": 6977,
      "Ġgender": 6978,
      "Ġchar": 6979,
      "Ġoutcome": 6980,
      "Ġkeines": 6981,
      "Ġnationals": 6982,
      "Ġdecide": 6983,
      "erstag": 6984,
      "Ġmehrere": 6985,
      "lÃ¤ge": 6986,
      "lÃ¤gt": 6987,
      "Ġeconomies": 6988,
      "Ġwichtiger": 6989,
      "Ġrelative": 6990,
      "Ġgreatest": 6991,
      "endence": 6992,
      "proble": 6993,
      "richten": 6994,
      "Ġregionale": 6995,
      "Ġeffectiveness": 6996,
      "pekt": 6997,
      "Ġresponsibilities": 6998,
      "Unter": 6999,
      "ologie": 7000,
      "Ġinternationale": 7001,
      "ĠMitteln": 7002,
      "Ġacross": 7003,
      "ĠGesamt": 7004,
      "Ġwenigen": 7005,
      "Ġputting": 7006,
      "Ġsometimes": 7007,
      "Ġgleiche": 7008,
      "Ġpositiv": 7009,
      "Ġpositiven": 7010,
      "ĠCharter": 7011,
      "Ġfrage": 7012,
      "Ġtransfer": 7013,
      "Ġinvolvement": 7014,
      "Ġnegative": 7015,
      "ĠVereinten": 7016,
      "qualitÃ¤t": 7017,
      "ĠFreiz": 7018,
      "Ġstructures": 7019,
      "ĠBetrie": 7020,
      "Ġversion": 7021,
      "Ġcritical": 7022,
      "ĠgrÃ¶ÃŁere": 7023,
      "Ġsensitive": 7024,
      "fÃ¤ll": 7025,
      "Ġtalks": 7026,
      "ĠSocialist": 7027,
      "Ġeigene": 7028,
      "Ġ2006": 7029,
      "hÃ¶hung": 7030,
      "Ġlokale": 7031,
      "Ġerinnert": 7032,
      "Ġpassiert": 7033,
      "Ġannual": 7034,
      "ĠGleichstellung": 7035,
      "Ġmargin": 7036,
      "Ġletter": 7037,
      "Ġleaders": 7038,
      "Ġschwierig": 7039,
      "ĠSyria": 7040,
      "Ġoptim": 7041,
      "ĠLiberal": 7042,
      "Ġchallenges": 7043,
      "ĠGewÃ¤hr": 7044,
      "Ġemphasis": 7045,
      "Europa": 7046,
      "kommt": 7047,
      "Ġcontains": 7048,
      "Ġrecognition": 7049,
      "ĠÃľbereinstimmung": 7050,
      "Ġcontradict": 7051,
      "ĠAktionsp": 7052,
      "Ġconcentrate": 7053,
      "Ġwidersp": 7054,
      "ĠWorten": 7055,
      "ĠDemocrats": 7056,
      "ĠbeschrÃ¤nken": 7057,
      "Ġprofess": 7058,
      "Reg": 7059,
      "Ġclaim": 7060,
      "ĠBÃ¼rokrat": 7061,
      "Ġarguments": 7062,
      "ĠPraxis": 7063,
      "ĠToday": 7064,
      "ĠMEP": 7065,
      "ordnungs": 7066,
      "ĠGolan": 7067,
      "Ġverteidigen": 7068,
      "Ġwettbewerbs": 7069,
      "ĠOpfer": 7070,
      "ĠGelder": 7071,
      "ĠstÃ¤ndig": 7072,
      "Ġschwerwiegen": 7073,
      "Ġdetermin": 7074,
      "ĠWohlstand": 7075,
      "Ġinfrastruct": 7076,
      "Ġadequate": 7077,
      "ĠzusÃ¤tz": 7078,
      "Ġconflict": 7079,
      "Ġsympathy": 7080,
      "ĠModernisierung": 7081,
      "Ġverleihen": 7082,
      "Allerdings": 7083,
      "ĠProgrammplan": 7084,
      "Ġdemonstrated": 7085,
      "Ġinfluence": 7086,
      "kÃ¶rperschaften": 7087,
      "ĠStenzel": 7088,
      "ĠGebietskÃ¶rperschaften": 7089,
      "ĠALTENER": 7090,
      "ĠRassismus": 7091,
      "ĠDonnerstag": 7092,
      "EC": 7093,
      "IP": 7094,
      "KO": 7095,
      "Mir": 7096,
      "Vert": 7097,
      "ging": 7098,
      "hner": 7099,
      "li": 7100,
      "mm": 7101,
      "oured": 7102,
      "tes": 7103,
      "tÃ¤us": 7104,
      "uern": 7105,
      "uelle": 7106,
      "verein": 7107,
      "zwe": 7108,
      "enze": 7109,
      "int": 7110,
      "instrument": 7111,
      "Ġdiv": 7112,
      "Ġdiplom": 7113,
      "Ġahead": 7114,
      "union": 7115,
      "itage": 7116,
      "ieht": 7117,
      "rey": 7118,
      "repr": 7119,
      "orn": 7120,
      "Ġbr": 7121,
      "Ġbig": 7122,
      "Ġmist": 7123,
      "ĠmÃ¼nd": 7124,
      "Ġfrag": 7125,
      "Ġfift": 7126,
      "Ġcamp": 7127,
      "Ġunion": 7128,
      "Ġtour": 7129,
      "Ġvolle": 7130,
      "Ġbeige": 7131,
      "ĠbeeintrÃ¤cht": 7132,
      "ingdom": 7133,
      "igent": 7134,
      "ragt": 7135,
      "ĠAchtung": 7136,
      "ĠAudit": 7137,
      "icip": 7138,
      "ĠMio": 7139,
      "ĠMÃ¤rz": 7140,
      "uten": 7141,
      "iders": 7142,
      "ĠBank": 7143,
      "schÃ¤d": 7144,
      "ĠKy": 7145,
      "ĠKMU": 7146,
      "ĠKingdom": 7147,
      "Ġzustimmen": 7148,
      "gence": 7149,
      "ĠFÃ¼nf": 7150,
      "ilot": 7151,
      "Ġformer": 7152,
      "Ġfordere": 7153,
      "ume": 7154,
      "Ġgelangen": 7155,
      "Ġalone": 7156,
      "Ġsole": 7157,
      "ĠerlÃ¤": 7158,
      "Ġaufzu": 7159,
      "ĠDro": 7160,
      "ĠDut": 7161,
      "spart": 7162,
      "ppel": 7163,
      "ĠLauf": 7164,
      "Ġjem": 7165,
      "Ġjetz": 7166,
      "ivitÃ¤t": 7167,
      "Ġrate": 7168,
      "Ġvorrang": 7169,
      "ehe": 7170,
      "ĠÃ¼bertragen": 7171,
      "ĠNow": 7172,
      "ĠAnalyse": 7173,
      "ĠausschlieÃŁlich": 7174,
      "Ġability": 7175,
      "Ġabgeschlossen": 7176,
      "Ġspielt": 7177,
      "ĠspÃ¤ter": 7178,
      "ots": 7179,
      "rÃ¤sent": 7180,
      "ĠErhÃ¶hung": 7181,
      "Ġmanaged": 7182,
      "grenzen": 7183,
      "ĠBeruf": 7184,
      "Ġsagt": 7185,
      "Ġlik": 7186,
      "Ġnachzu": 7187,
      "Ġadap": 7188,
      "Ġusw": 7189,
      "ĠItalien": 7190,
      "Ġproport": 7191,
      "Ġquot": 7192,
      "werten": 7193,
      "Ġ1993": 7194,
      "ciliation": 7195,
      "Ġpolice": 7196,
      "auftrag": 7197,
      "licit": 7198,
      "Ġnationale": 7199,
      "Ġwarten": 7200,
      "wirkt": 7201,
      "Ġperspect": 7202,
      "ĠDev": 7203,
      "ĠDelegation": 7204,
      "Ã¼tzen": 7205,
      "akes": 7206,
      "ĠZusammenhalt": 7207,
      "Ġsolutions": 7208,
      "Ġgewisse": 7209,
      "Ġsupporting": 7210,
      "Ġcompetitive": 7211,
      "ategor": 7212,
      "ategien": 7213,
      "Ġconsiderably": 7214,
      "Ġassure": 7215,
      "Ġwelcom": 7216,
      "ĠÃľberlegungen": 7217,
      "gelassen": 7218,
      "Ã¤hnen": 7219,
      "Ġmonetary": 7220,
      "Ġknown": 7221,
      "Ġknows": 7222,
      "beihilfen": 7223,
      "Ġeinzigen": 7224,
      "Ġherzlich": 7225,
      "Ġheritage": 7226,
      "ĠMinutes": 7227,
      "ology": 7228,
      "ĠTechn": 7229,
      "ziplin": 7230,
      "Ġbegrenz": 7231,
      "ĠHerzen": 7232,
      "Ġtransactions": 7233,
      "Ġtechnische": 7234,
      "ĠInstitution": 7235,
      "Ġausgezeichne": 7236,
      "gestimmt": 7237,
      "Ġrepresentative": 7238,
      "ĠMonetary": 7239,
      "Ġgeschehen": 7240,
      "Ġimproved": 7241,
      "ĠverstÃ¤rken": 7242,
      "ĠgefÃ¶rdert": 7243,
      "ĠbegrÃ¼ÃŁt": 7244,
      "ĠHandlungs": 7245,
      "ĠgrÃ¶ÃŁer": 7246,
      "ĠgrÃ¶ÃŁte": 7247,
      "ĠgrÃ¶ÃŁeren": 7248,
      "Ġadvice": 7249,
      "fÃ¤llig": 7250,
      "Ġhighly": 7251,
      "Ġreduction": 7252,
      "Ġreducing": 7253,
      "Anfrage": 7254,
      "erechtigkeit": 7255,
      "Ġkonkret": 7256,
      "ĠParteien": 7257,
      "Ġappropriations": 7258,
      "zufÃ¼gen": 7259,
      "mittag": 7260,
      "ĠBeschluÃŁ": 7261,
      "ĠSubject": 7262,
      "Ġpersonally": 7263,
      "ossible": 7264,
      "Ġexamination": 7265,
      "ĠMarch": 7266,
      "ĠFestlegung": 7267,
      "Ġcentury": 7268,
      "Ġhistoric": 7269,
      "Ġfalls": 7270,
      "ĠDirector": 7271,
      "Ġumfassende": 7272,
      "Ġagriculture": 7273,
      "Ġlinks": 7274,
      "ĠGedanken": 7275,
      "ĠFÃ¤llen": 7276,
      "Ġscheme": 7277,
      "ĠpersÃ¶nlich": 7278,
      "ĠMinderheiten": 7279,
      "ĠCohesion": 7280,
      "Ġhonourable": 7281,
      "waltschaft": 7282,
      "Ġfarmers": 7283,
      "Ġfront": 7284,
      "Ġexactly": 7285,
      "ĠhÃ¤ufig": 7286,
      "Ã¼gigkeit": 7287,
      "Ġvorhanden": 7288,
      "Ġperfectly": 7289,
      "ĠKampf": 7290,
      "Betrifft": 7291,
      "Ġvessels": 7292,
      "ĠAktivitÃ¤ten": 7293,
      "ĠMalta": 7294,
      "Ġrapid": 7295,
      "ĠzukÃ¼nft": 7296,
      "ĠFreizÃ¼gigkeit": 7297,
      "Den": 7298,
      "Drittens": 7299,
      "Ebenso": 7300,
      "aktion": 7301,
      "bed": 7302,
      "dire": 7303,
      "eben": 7304,
      "haus": 7305,
      "kop": 7306,
      "mÃ¶glich": 7307,
      "mÃ¤rkte": 7308,
      "ound": 7309,
      "ollen": 7310,
      "pay": 7311,
      "sbe": 7312,
      "taus": 7313,
      "war": 7314,
      "Ġut": 7315,
      "Ġordnungs": 7316,
      "ĠtÃ¤t": 7317,
      "Ġdon": 7318,
      "Ġdiss": 7319,
      "chsel": 7320,
      "Ġaf": 7321,
      "isher": 7322,
      "isiert": 7323,
      "unternehmen": 7324,
      "iture": 7325,
      "itable": 7326,
      "itely": 7327,
      "Ġsitu": 7328,
      "reb": 7329,
      "rep": 7330,
      "reib": 7331,
      "ancial": 7332,
      "ances": 7333,
      "Ġfri": 7334,
      "Ġfrei": 7335,
      "Ġeduc": 7336,
      "Ġph": 7337,
      "Ġpack": 7338,
      "Ġanch": 7339,
      "Ġnutzen": 7340,
      "Ġcoun": 7341,
      "Ġherr": 7342,
      "Ġung": 7343,
      "Ġunable": 7344,
      "geber": 7345,
      "teen": 7346,
      "tete": 7347,
      "ĠEv": 7348,
      "ĠEigen": 7349,
      "ĠAid": 7350,
      "Ġgre": 7351,
      "ĠMark": 7352,
      "ĠBot": 7353,
      "ĠBarak": 7354,
      "uls": 7355,
      "ulations": 7356,
      "schlag": 7357,
      "ĠKriminalitÃ¤t": 7358,
      "Ġlies": 7359,
      "Ġdagegen": 7360,
      "ĠCEN": 7361,
      "ĠkÃ¼rz": 7362,
      "Ġformal": 7363,
      "ĠWest": 7364,
      "ĠGerechtigkeit": 7365,
      "ĠThurs": 7366,
      "ĠHere": 7367,
      "osen": 7368,
      "Ġstre": 7369,
      "Ġstimmt": 7370,
      "verwalt": 7371,
      "Ġverweisen": 7372,
      "Ġers": 7373,
      "ĠDis": 7374,
      "ĠDim": 7375,
      "Ġneues": 7376,
      "Ġdeg": 7377,
      "Ġdefen": 7378,
      "ĠRevision": 7379,
      "ĠListe": 7380,
      "ĠStÃ¤rkung": 7381,
      "annte": 7382,
      "ionsfonds": 7383,
      "ruh": 7384,
      "ĠAnliegen": 7385,
      "Ġregular": 7386,
      "Ġumge": 7387,
      "Ġabst": 7388,
      "ĠAuss": 7389,
      "ĠAusarbeitung": 7390,
      "Ġentit": 7391,
      "Ġentscheid": 7392,
      "uellen": 7393,
      "Ġfacing": 7394,
      "Ġnachdem": 7395,
      "Ġgoal": 7396,
      "Ġdisag": 7397,
      "Ġconcrete": 7398,
      "Ġconclude": 7399,
      "ĠMitentscheid": 7400,
      "Ġgrowing": 7401,
      "ĠAbkommen": 7402,
      "ĠGrÃ¼": 7403,
      "lines": 7404,
      "Ġimpossible": 7405,
      "ĠEinhaltung": 7406,
      "ĠEinrichtungen": 7407,
      "Ġrespond": 7408,
      "Ġprim": 7409,
      "ĠMitglieds": 7410,
      "velopment": 7411,
      "obby": 7412,
      "Ġdamals": 7413,
      "Ġsubmit": 7414,
      "gendes": 7415,
      "Ġfreuen": 7416,
      "nerg": 7417,
      "Ġovercome": 7418,
      "Ġrelated": 7419,
      "Ġkonst": 7420,
      "zeitraum": 7421,
      "Ġrequested": 7422,
      "Ġarr": 7423,
      "ĠHaft": 7424,
      "ĠBÃ¼rgerinnen": 7425,
      "Ġganzen": 7426,
      "ribed": 7427,
      "Ġurgency": 7428,
      "Ġreflect": 7429,
      "ĠangekÃ¼nd": 7430,
      "Ġweiterer": 7431,
      "ĠerwÃ¤hnen": 7432,
      "Ġplaced": 7433,
      "Ġresolve": 7434,
      "Ġresolutions": 7435,
      "udgets": 7436,
      "ĠGerichte": 7437,
      "Ġbringing": 7438,
      "Ġcooper": 7439,
      "ĠChancen": 7440,
      "ĠArbeitsmarkt": 7441,
      "afft": 7442,
      "Ġinteresting": 7443,
      "ĠmÃ¶glicherweise": 7444,
      "Ġindustrial": 7445,
      "Ġinvolve": 7446,
      "Ġmainly": 7447,
      "Ġcommunities": 7448,
      "ĠlÃ¤ndliche": 7449,
      "gewicht": 7450,
      "ĠSpek": 7451,
      "ĠSprache": 7452,
      "iertel": 7453,
      "Ġacceptable": 7454,
      "Ġbudgetary": 7455,
      "Ġbefassen": 7456,
      "maÃŁen": 7457,
      "ĠConvention": 7458,
      "Ġadditional": 7459,
      "Ġflexib": 7460,
      "ĠLÃ¶sungen": 7461,
      "Ġpassed": 7462,
      "ĠFahrzeug": 7463,
      "ĠZweck": 7464,
      "Ġhervorheben": 7465,
      "Ġleave": 7466,
      "Ġschwierigen": 7467,
      "ĠLiberalen": 7468,
      "Ġnevertheless": 7469,
      "Ġexamine": 7470,
      "Ġemphasise": 7471,
      "European": 7472,
      "Ġzeigen": 7473,
      "ĠFolge": 7474,
      "Ġcodecision": 7475,
      "Ġbehandeln": 7476,
      "ĠFremdenfeind": 7477,
      "ĠBalkans": 7478,
      "Ġpressure": 7479,
      "Ġreinfor": 7480,
      "ĠBemerkung": 7481,
      "ĠbeschÃ¤ftigen": 7482,
      "Ġcriticism": 7483,
      "Ġfunctioning": 7484,
      "Ġfehlt": 7485,
      "Ġconsultation": 7486,
      "ĠGeneraldire": 7487,
      "ĠgrenzÃ¼berschreitende": 7488,
      "ĠbestÃ¤tigen": 7489,
      "chanismen": 7490,
      "Ġdesigned": 7491,
      "ĠFlÃ¼chtlinge": 7492,
      "ĠChina": 7493,
      "Ġbilden": 7494,
      "ĠFunktionieren": 7495,
      "spartei": 7496,
      "Ġdifferences": 7497,
      "Ġinterpret": 7498,
      "Ġkontrolliert": 7499,
      "ĠstÃ¤dtischen": 7500,
      "Ġfacilit": 7501,
      "Leider": 7502,
      "Ġpublished": 7503,
      "ĠHÃ¶he": 7504,
      "ĠDeutschland": 7505,
      "ĠThirdly": 7506,
      "Andererseits": 7507,
      "Ġarrangements": 7508,
      "ĠKonzentration": 7509,
      "ĠLesung": 7510,
      "adox": 7511,
      "ĠordnungsgemÃ¤ÃŁ": 7512,
      "ĠThursday": 7513,
      "ĠFremdenfeindlichkeit": 7514,
      "Bes": 7515,
      "Durch": 7516,
      "IS": 7517,
      "POL": 7518,
      "Ver": 7519,
      "aign": 7520,
      "cel": 7521,
      "jekte": 7522,
      "kung": 7523,
      "machen": 7524,
      "oden": 7525,
      "trag": 7526,
      "vi": 7527,
      "volle": 7528,
      "wel": 7529,
      "wuÃŁ": 7530,
      "Ãľber": 7531,
      "Ġill": 7532,
      "inst": 7533,
      "reibt": 7534,
      "orgt": 7535,
      "ichert": 7536,
      "anten": 7537,
      "anforderungen": 7538,
      "arch": 7539,
      "ĠfÃ¤llt": 7540,
      "Ġem": 7541,
      "Ġpen": 7542,
      "Ġanwes": 7543,
      "Ġnah": 7544,
      "Ġnations": 7545,
      "Ġcandid": 7546,
      "Ġunge": 7547,
      "Ġunbe": 7548,
      "Ġtool": 7549,
      "Ġvig": 7550,
      "Ġbeziehen": 7551,
      "Ġbezeichnet": 7552,
      "usetzen": 7553,
      "ĠPo": 7554,
      "ĠPunkten": 7555,
      "Ġeingeb": 7556,
      "Ġeingebracht": 7557,
      "ĠMaterial": 7558,
      "Ġreden": 7559,
      "ulierung": 7560,
      "schuld": 7561,
      "tering": 7562,
      "ĠRules": 7563,
      "Ġland": 7564,
      "Ġlatter": 7565,
      "Ġloss": 7566,
      "ĠCode": 7567,
      "Ġkor": 7568,
      "Ġklare": 7569,
      "ĠWerk": 7570,
      "ĠVoll": 7571,
      "Ġweaken": 7572,
      "ĠGree": 7573,
      "ĠgeprÃ¼ft": 7574,
      "Ġsouth": 7575,
      "ĠHolz": 7576,
      "Ġconsens": 7577,
      "verantwortung": 7578,
      "Ġverfolgt": 7579,
      "Ġerf": 7580,
      "ĠUnions": 7581,
      "Ġdepr": 7582,
      "ĠVerteid": 7583,
      "sprech": 7584,
      "oples": 7585,
      "ĠStÃ¼r": 7586,
      "Ġexistence": 7587,
      "Ġsehe": 7588,
      "bele": 7589,
      "Ġries": 7590,
      "ĠProced": 7591,
      "ĠÃ¼berein": 7592,
      "urely": 7593,
      "Ġmeant": 7594,
      "Ġausgehen": 7595,
      "Ġumzusetzen": 7596,
      "Ġspricht": 7597,
      "Ġspending": 7598,
      "Ġthereby": 7599,
      "Ġschrift": 7600,
      "Ġdaraus": 7601,
      "ĠJugend": 7602,
      "Ġentrepr": 7603,
      "ĠErarbeitung": 7604,
      "ĠSchl": 7605,
      "ĠSchÃ¤den": 7606,
      "Ã¶ren": 7607,
      "Ġbetont": 7608,
      "hersteller": 7609,
      "Ġheav": 7610,
      "Ġcoll": 7611,
      "rieg": 7612,
      "Ġrespekt": 7613,
      "wohner": 7614,
      "Ġchann": 7615,
      "anging": 7616,
      "Ġlegally": 7617,
      "Ġpeoples": 7618,
      "fÃ¼hrten": 7619,
      "Ġnationaler": 7620,
      "Ġdeclar": 7621,
      "akis": 7622,
      "Ġlaunch": 7623,
      "ĠGemeinden": 7624,
      "Ġgewiss": 7625,
      "Ġhohen": 7626,
      "Ins": 7627,
      "Ġrecord": 7628,
      "Ġdiscip": 7629,
      "Ġamended": 7630,
      "klang": 7631,
      "ĠHafen": 7632,
      "ĠHaving": 7633,
      "Ġwirklichen": 7634,
      "Ġenvironmentally": 7635,
      "Ġplant": 7636,
      "ighten": 7637,
      "Ġtaxpay": 7638,
      "ĠLandwir": 7639,
      "Ġconfident": 7640,
      "ĠHindern": 7641,
      "reitung": 7642,
      "Ġcontinuing": 7643,
      "Ġpositions": 7644,
      "Ġrealise": 7645,
      "ĠBehandlung": 7646,
      "Ġtransl": 7647,
      "Ġindustries": 7648,
      "ĠYet": 7649,
      "rechtlichen": 7650,
      "ĠFundamental": 7651,
      "Ġkomme": 7652,
      "Ġcontributions": 7653,
      "Ġdeutschen": 7654,
      "Ġgeboten": 7655,
      "Ġfollows": 7656,
      "ĠSystems": 7657,
      "Ġorganised": 7658,
      "ĠeingefÃ¼hrt": 7659,
      "ĠIsraelis": 7660,
      "ĠEnergien": 7661,
      "Ã¤hlt": 7662,
      "Ġerforderlichen": 7663,
      "Ġapplicant": 7664,
      "Ġdepart": 7665,
      "orgung": 7666,
      "Ġumfang": 7667,
      "Ġintroduction": 7668,
      "ĠNachdruck": 7669,
      "Ġlokaler": 7670,
      "Ġapplying": 7671,
      "Ġrevision": 7672,
      "Ġakzeptiert": 7673,
      "Ġsymbol": 7674,
      "ĠExp": 7675,
      "Ġready": 7676,
      "COM": 7677,
      "Ġextra": 7678,
      "leiten": 7679,
      "schiedet": 7680,
      "systems": 7681,
      "Ġplanned": 7682,
      "ĠÃ¶sterreichische": 7683,
      "Ġteilen": 7684,
      "Ġscientists": 7685,
      "fertigt": 7686,
      "ĠInstance": 7687,
      "Ġamounts": 7688,
      "ĠPrÃ¼f": 7689,
      "ĠDirective": 7690,
      "Ġtechnology": 7691,
      "entscheidungen": 7692,
      "ĠBefÃ¶rderung": 7693,
      "sprÃ¼n": 7694,
      "Ġvolun": 7695,
      "ĠbefÃ¼rwor": 7696,
      "ĠDoes": 7697,
      "Ġerzielen": 7698,
      "Ġimmigration": 7699,
      "Ġimmigrants": 7700,
      "III": 7701,
      "Ġtrying": 7702,
      "Ġverabschiedet": 7703,
      "Ġjuris": 7704,
      "Ġschemes": 7705,
      "ĠTerrÃ³n": 7706,
      "ĠEngagement": 7707,
      "Ġnetworks": 7708,
      "Ġspeziell": 7709,
      "Ġoccasion": 7710,
      "Ġbehaup": 7711,
      "ĠRisiko": 7712,
      "ĠmÃ¼ÃŁte": 7713,
      "Ġbenachteiligten": 7714,
      "Ġrecognised": 7715,
      "ĠVolkspartei": 7716,
      "Ġhighlight": 7717,
      "Ġprosperity": 7718,
      "Ġcompetence": 7719,
      "ĠVorbereitung": 7720,
      "ĠBeschlÃ¼sse": 7721,
      "Ġcredibility": 7722,
      "Ġfalsch": 7723,
      "Ġeinbezogen": 7724,
      "ĠInvestitionen": 7725,
      "Ġversichern": 7726,
      "ĠÃ¼bernommen": 7727,
      "ĠBesorgnis": 7728,
      "ĠKonflikt": 7729,
      "Ġadvisers": 7730,
      "ĠjÃ¼ngsten": 7731,
      "ĠControl": 7732,
      "ĠBÃ¼rokratie": 7733,
      "KOM": 7734,
      "Ġcampaign": 7735,
      "ĠerlÃ¤ut": 7736,
      "Ġsituations": 7737,
      "ĠGreece": 7738,
      "ĠProcedure": 7739,
      "02": 7740,
      "AG": 7741,
      "All": 7742,
      "Alle": 7743,
      "Ferner": 7744,
      "HA": 7745,
      "SV": 7746,
      "Selbst": 7747,
      "Viel": 7748,
      "besch": 7749,
      "bildungs": 7750,
      "eff": 7751,
      "fangen": 7752,
      "latz": 7753,
      "mann": 7754,
      "rise": 7755,
      "sc": 7756,
      "saktionen": 7757,
      "ximum": 7758,
      "zut": 7759,
      "inced": 7760,
      "Ġtw": 7761,
      "Ġair": 7762,
      "Ġacht": 7763,
      "Ġthor": 7764,
      "its": 7765,
      "Ġsorg": 7766,
      "atischen": 7767,
      "atik": 7768,
      "attet": 7769,
      "Ġbit": 7770,
      "Ġinhalt": 7771,
      "Ġmilit": 7772,
      "ente": 7773,
      "Ġcle": 7774,
      "Ã¼ben": 7775,
      "oming": 7776,
      "Ġbein": 7777,
      "Ġbezahl": 7778,
      "urtz": 7779,
      "asse": 7780,
      "ĠEven": 7781,
      "irms": 7782,
      "Ġzeit": 7783,
      "ĠAfr": 7784,
      "Ġeinig": 7785,
      "Ġeinsch": 7786,
      "ĠSar": 7787,
      "Ġgesellschaft": 7788,
      "icted": 7789,
      "ĠBrok": 7790,
      "ĠTra": 7791,
      "lichung": 7792,
      "ĠKre": 7793,
      "ĠKlar": 7794,
      "Ġzugleich": 7795,
      "Ġlost": 7796,
      "ĠCan": 7797,
      "ĠWeiter": 7798,
      "ĠWurtz": 7799,
      "ĠGD": 7800,
      "ump": 7801,
      "Ġged": 7802,
      "Ġgezogen": 7803,
      "Ġalten": 7804,
      "ffnung": 7805,
      "oses": 7806,
      "osing": 7807,
      "Ġstabil": 7808,
      "Ġverurs": 7809,
      "Ġverwendet": 7810,
      "Ġergeben": 7811,
      "ĠergÃ¤n": 7812,
      "Ġaufnehmen": 7813,
      "ĠDruck": 7814,
      "Ġnear": 7815,
      "Ġneben": 7816,
      "Ġdelegation": 7817,
      "ĠReicht": 7818,
      "ĠRechn": 7819,
      "ĠVerl": 7820,
      "ĠVersuch": 7821,
      "ateful": 7822,
      "ĠStat": 7823,
      "Ġsele": 7824,
      "behalten": 7825,
      "beauftrag": 7826,
      "ĠZw": 7827,
      "ivity": 7828,
      "Ġleicht": 7829,
      "Ġrich": 7830,
      "Ġrational": 7831,
      "erring": 7832,
      "ungsver": 7833,
      "Ġsichern": 7834,
      "ĠProf": 7835,
      "ĠÃ¼berzeugen": 7836,
      "ĠNor": 7837,
      "ĠNutzen": 7838,
      "ĠNutzung": 7839,
      "ĠAny": 7840,
      "ĠAnzahl": 7841,
      "ĠAnlaÃŁ": 7842,
      "Ġausger": 7843,
      "Ġausreichen": 7844,
      "grammen": 7845,
      "Ġspreche": 7846,
      "ranational": 7847,
      "Ġentail": 7848,
      "ĠErster": 7849,
      "tedly": 7850,
      "ĠVorlage": 7851,
      "ĠOffen": 7852,
      "Ġcompon": 7853,
      "ĠBerend": 7854,
      "ĠBerlin": 7855,
      "ĠBerichte": 7856,
      "Ã¤rm": 7857,
      "Ġobst": 7858,
      "igkeits": 7859,
      "ocol": 7860,
      "ĠGeber": 7861,
      "ĠdurchzufÃ¼hren": 7862,
      "Ġimplic": 7863,
      "rags": 7864,
      "Ġconsistent": 7865,
      "Ġchance": 7866,
      "Ġchair": 7867,
      "ankers": 7868,
      "Ġmehrfach": 7869,
      "Ġteile": 7870,
      "ĠDevelopment": 7871,
      "igerung": 7872,
      "Ġhohe": 7873,
      "Ġinsist": 7874,
      "Ġreply": 7875,
      "Ġrelates": 7876,
      "Ġcourage": 7877,
      "ĠÃľbergang": 7878,
      "Ġfinanced": 7879,
      "Ġfinancing": 7880,
      "pril": 7881,
      "Ġeinzuf": 7882,
      "Ġpresentation": 7883,
      "Ġhands": 7884,
      "Ġhandeln": 7885,
      "Ġapproxim": 7886,
      "ĠAustausch": 7887,
      "ĠursprÃ¼n": 7888,
      "Ġevening": 7889,
      "Ġangewand": 7890,
      "Ġprogramming": 7891,
      "ĠGesam": 7892,
      "Ġwichtigste": 7893,
      "Ġlaws": 7894,
      "ĠHinter": 7895,
      "reitet": 7896,
      "ĠunterstÃ¼tze": 7897,
      "Ġstrategischen": 7898,
      "Ġnecessarily": 7899,
      "Ã¤ngst": 7900,
      "ĠBehinder": 7901,
      "Ġverbind": 7902,
      "Ġmainstreaming": 7903,
      "weiten": 7904,
      "Ġproduced": 7905,
      "regierung": 7906,
      "ursacher": 7907,
      "Ġstandard": 7908,
      "ĠIhres": 7909,
      "ĠLebensqualitÃ¤t": 7910,
      "Ġminority": 7911,
      "hold": 7912,
      "ĠAlban": 7913,
      "Ġhelping": 7914,
      "Ġcapit": 7915,
      "Ġmoder": 7916,
      "Ġ94": 7917,
      "Ġsigned": 7918,
      "ĠDienststellen": 7919,
      "ĠnÃ¤chste": 7920,
      "ĠIsraeli": 7921,
      "Ġeingere": 7922,
      "Ġcondition": 7923,
      "Ġeinzelstaat": 7924,
      "Ġpays": 7925,
      "Ġrichtige": 7926,
      "ĠMittelaus": 7927,
      "ĠInternal": 7928,
      "Ġexcluded": 7929,
      "ĠLebensmittelbehÃ¶rde": 7930,
      "ĠgewÃ¤hrleistet": 7931,
      "Ġinvestment": 7932,
      "vorschlÃ¤ge": 7933,
      "Ġconstruct": 7934,
      "ĠEmployment": 7935,
      "Ġremains": 7936,
      "Ġannounced": 7937,
      "ĠEnergietrÃ¤": 7938,
      "Ġmeaning": 7939,
      "Ġentscheidenden": 7940,
      "Ġentscheidende": 7941,
      "COD": 7942,
      "bestÃ¤nde": 7943,
      "Ġgarant": 7944,
      "Ġ198": 7945,
      "ĠGefahrgut": 7946,
      "Ġlangu": 7947,
      "ĠDiskussionen": 7948,
      "strukturen": 7949,
      "ĠgegenwÃ¤rtigen": 7950,
      "Ġhappening": 7951,
      "ĠgefÃ¤hrlicher": 7952,
      "ventionen": 7953,
      "Ġsupranational": 7954,
      "Ġtreatment": 7955,
      "Ã©s": 7956,
      "Ġabgele": 7957,
      "ĠErfahrung": 7958,
      "Ġgenerally": 7959,
      "Dennoch": 7960,
      "speriode": 7961,
      "Ã¤lter": 7962,
      "ĠzustÃ¤ndigen": 7963,
      "ĠVorsitzenden": 7964,
      "ĠwÃ¼nschen": 7965,
      "Ġeasy": 7966,
      "ĠfrÃ¼her": 7967,
      "ĠfrÃ¼heren": 7968,
      "ĠResolution": 7969,
      "ĠStÃ¤dten": 7970,
      "Ġinstance": 7971,
      "ĠbeschrÃ¤nkt": 7972,
      "ĠKohÃ¤sionsfonds": 7973,
      "Ġnachhaltige": 7974,
      "ĠFÃ¤lle": 7975,
      "ĠWillen": 7976,
      "ĠOrganisationen": 7977,
      "Ġconvinced": 7978,
      "Ġexception": 7979,
      "ĠvollstÃ¤ndig": 7980,
      "Ġbriefly": 7981,
      "Ġbureaucracy": 7982,
      "Ġstraf": 7983,
      "Ġautom": 7984,
      "Ġbietet": 7985,
      "ĠVerhÃ¤ltnis": 7986,
      "ĠbemÃ¼ht": 7987,
      "Ġracism": 7988,
      "Welche": 7989,
      "ĠCompetition": 7990,
      "Ġexercise": 7991,
      "gestellten": 7992,
      "Gleichzeitig": 7993,
      "Ġdiversity": 7994,
      "ĠVertrages": 7995,
      "Ġunternommen": 7996,
      "ĠAkteure": 7997,
      "Ġterritorial": 7998,
      "ĠFamilien": 7999,
      "ĠUnternehmer": 8000,
      "ĠgenÃ¼gend": 8001,
      "Ġnaturally": 8002,
      "Ġvorangegangenen": 8003,
      "Ġinfrastructure": 8004,
      "ĠDutch": 8005,
      "Ġjemand": 8006,
      "Ġdonors": 8007,
      "Ġanchov": 8008,
      "ĠMarket": 8009,
      "ĠBotschaft": 8010,
      "Ġdegree": 8011,
      "Ġanwesend": 8012,
      "Ġconsensus": 8013,
      "Ġthorough": 8014,
      "Ġsorgf": 8015,
      "Ġimplications": 8016,
      "-,": 8017,
      "MEs": 8018,
      "Seit": 8019,
      "hre": 8020,
      "jected": 8021,
      "misch": 8022,
      "pre": 8023,
      "pet": 8024,
      "pendence": 8025,
      "ton": 8026,
      "ties": 8027,
      "vors": 8028,
      "xts": 8029,
      "ying": 8030,
      "year": 8031,
      "ÃŃ": 8032,
      "erungs": 8033,
      "erous": 8034,
      "Ġdomin": 8035,
      "chmal": 8036,
      "Ġaver": 8037,
      "Ġwrit": 8038,
      "Ġsend": 8039,
      "Ġside": 8040,
      "Ġsession": 8041,
      "reck": 8042,
      "Ġiniti": 8043,
      "ros": 8044,
      "roht": 8045,
      "Ġfederal": 8046,
      "Ġannehmen": 8047,
      "ĠnÃ¶t": 8048,
      "Ġnennen": 8049,
      "Ġhence": 8050,
      "tein": 8051,
      "teten": 8052,
      "Ã¤glich": 8053,
      "Ġvot": 8054,
      "urance": 8055,
      "asc": 8056,
      "ingeschrÃ¤n": 8057,
      "Ġisrael": 8058,
      "uses": 8059,
      "ract": 8060,
      "ĠAgre": 8061,
      "ĠApril": 8062,
      "ĠSorgen": 8063,
      "ĠSMEs": 8064,
      "ican": 8065,
      "ĠMor": 8066,
      "Ġreaction": 8067,
      "ĠregelmÃ¤ÃŁ": 8068,
      "old": 8069,
      "ĠBol": 8070,
      "ters": 8071,
      "ĠKompeten": 8072,
      "Ġzugr": 8073,
      "bere": 8074,
      "ĠFÃ¼hr": 8075,
      "Ġlines": 8076,
      "Ġaud": 8077,
      "Ġdauer": 8078,
      "Ġdahin": 8079,
      "ĠCO": 8080,
      "ĠCor": 8081,
      "ĠCentral": 8082,
      "Ġkr": 8083,
      "Ġforts": 8084,
      "ĠWasser": 8085,
      "eine": 8086,
      "ĠVice": 8087,
      "ĠGest": 8088,
      "ĠGlaubwÃ¼rd": 8089,
      "osoph": 8090,
      "Ġstri": 8091,
      "Ġveran": 8092,
      "Ġverlangen": 8093,
      "achtet": 8094,
      "Ġerfahren": 8095,
      "Ġerschein": 8096,
      "ustr": 8097,
      "ĠDaten": 8098,
      "ĠUnsicherheit": 8099,
      "ĠVerursacher": 8100,
      "spe": 8101,
      "Ġwerte": 8102,
      "ĠSto": 8103,
      "endes": 8104,
      "lared": 8105,
      "ival": 8106,
      "Ġshared": 8107,
      "Ġvorstellen": 8108,
      "Ġvorliegt": 8109,
      "ungsentwurf": 8110,
      "ĠEuropeans": 8111,
      "advant": 8112,
      "enswert": 8113,
      "Ġmaximum": 8114,
      "Ġmechanis": 8115,
      "ĠWege": 8116,
      "halte": 8117,
      "Ġregister": 8118,
      "Ġaband": 8119,
      "ĠspÃ¼r": 8120,
      "heits": 8121,
      "otal": 8122,
      "Ġschlagen": 8123,
      "Ġenh": 8124,
      "steuer": 8125,
      "ĠErinn": 8126,
      "ĠSchaden": 8127,
      "Ġsieht": 8128,
      "ĠPresidents": 8129,
      "Ġworst": 8130,
      "Ġfaced": 8131,
      "Ġappar": 8132,
      "Ġappell": 8133,
      "Ġ23": 8134,
      "ired": 8135,
      "Ġdisadvant": 8136,
      "Ġpolitic": 8137,
      "Ġpolitischer": 8138,
      "reichung": 8139,
      "ĠGeist": 8140,
      "Ġexplicit": 8141,
      "Ġcoup": 8142,
      "ptions": 8143,
      "Ġprice": 8144,
      "ikation": 8145,
      "Ġissued": 8146,
      "Ã¤hrt": 8147,
      "Ġdeclared": 8148,
      "Ġtele": 8149,
      "Ġgegenseit": 8150,
      "akten": 8151,
      "Ġanyone": 8152,
      "strÃ¶": 8153,
      "Ġsays": 8154,
      "Ġgrateful": 8155,
      "Ġdebatt": 8156,
      "ĠLeft": 8157,
      "Ġdirekt": 8158,
      "alisiert": 8159,
      "ĠAss": 8160,
      "hafte": 8161,
      "Ġscand": 8162,
      "Ġart": 8163,
      "hilosoph": 8164,
      "Ġdanach": 8165,
      "Ġwants": 8166,
      "ĠVerbindung": 8167,
      "Ġboost": 8168,
      "ĠÃ¶ffentlich": 8169,
      "Ġspeculation": 8170,
      "Ġspeculative": 8171,
      "ĠErwÃ¤": 8172,
      "Ġresolved": 8173,
      "Ġattack": 8174,
      "Ġparadox": 8175,
      "Ġserve": 8176,
      "Ġstrategies": 8177,
      "Ġgestaltet": 8178,
      "Ġnotwendige": 8179,
      "ĠAuftrag": 8180,
      "Ġvalid": 8181,
      "Ġsecure": 8182,
      "Ġminorities": 8183,
      "Ġbesonderen": 8184,
      "ĠEntschlieÃŁungsentwurf": 8185,
      "Ġgefunden": 8186,
      "Ġsecondly": 8187,
      "ĠNeu": 8188,
      "Ġmillennium": 8189,
      "ĠHandels": 8190,
      "Ġbesseren": 8191,
      "ĠÃ¤uÃŁern": 8192,
      "Ġsensible": 8193,
      "ĠFrist": 8194,
      "Ġrestruct": 8195,
      "Ġspeaker": 8196,
      "Ġeinger": 8197,
      "Ġpaying": 8198,
      "Ġunderstanding": 8199,
      "Ġstarting": 8200,
      "Ġkurzfrist": 8201,
      "Ġbuilt": 8202,
      "Ġkleine": 8203,
      "ĠNachbar": 8204,
      "ĠFriedensprozeÃŁ": 8205,
      "ausschusses": 8206,
      "Ġterror": 8207,
      "Ġconstant": 8208,
      "Ġclosely": 8209,
      "ĠÃ¶ffentliche": 8210,
      "Ġvorgeschlagene": 8211,
      "ĠAlli": 8212,
      "ĠInstrumente": 8213,
      "Ġvorgesehenen": 8214,
      "ĠkÃ¼nftigen": 8215,
      "Ġvorliegende": 8216,
      "Ġinformed": 8217,
      "Ġexpectations": 8218,
      "Ġtimet": 8219,
      "Ġmulti": 8220,
      "Ġaktiv": 8221,
      "Ġverloren": 8222,
      "Ġsixth": 8223,
      "bourg": 8224,
      "Ġfailure": 8225,
      "behÃ¶rden": 8226,
      "ĠPerhaps": 8227,
      "ĠGegensatz": 8228,
      "Ġeasier": 8229,
      "ĠVerpflichtung": 8230,
      "ĠStahlindustrie": 8231,
      "ĠZustÃ¤ndigkeiten": 8232,
      "Ġtopical": 8233,
      "Ġcheck": 8234,
      "ĠPreis": 8235,
      "ĠSektoren": 8236,
      "Ġbeantragt": 8237,
      "ĠRoman": 8238,
      "ĠgrenzÃ¼berschreitenden": 8239,
      "ĠbestÃ¤tigt": 8240,
      "Ġgrundlegende": 8241,
      "jahres": 8242,
      "Ġgeographical": 8243,
      "Ġspeziellen": 8244,
      "Ġoccasions": 8245,
      "Ġinspection": 8246,
      "ĠuneingeschrÃ¤n": 8247,
      "ĠDienstleistungsausweis": 8248,
      "ĠPersonal": 8249,
      "organisationen": 8250,
      "ĠBeamten": 8251,
      "Ġtackle": 8252,
      "Ġethnic": 8253,
      "Ġradical": 8254,
      "ĠBeitrittsk": 8255,
      "oleranz": 8256,
      "Ġgebeten": 8257,
      "ĠGesprÃ¤che": 8258,
      "ĠBudgetary": 8259,
      "transp": 8260,
      "ĠniederlÃ¤nd": 8261,
      "ĠVielfalt": 8262,
      "Ġexcessive": 8263,
      "Ġmittl": 8264,
      "Ġmandate": 8265,
      "ĠSÃ¼d": 8266,
      "Ġrecovery": 8267,
      "Ġgegebenenfalls": 8268,
      "ĠPalestinian": 8269,
      "Ent": 8270,
      "ĠWachstum": 8271,
      "ĠMoreover": 8272,
      "ĠTAC": 8273,
      "ĠVorredner": 8274,
      "Ġprofessional": 8275,
      "ĠDrogen": 8276,
      "spartner": 8277,
      "ĠDevisen": 8278,
      "ĠtÃ¤tig": 8279,
      "verwaltung": 8280,
      "Ġentitled": 8281,
      "ĠGrÃ¼nen": 8282,
      "Ġkonstrukt": 8283,
      "Ġcandidate": 8284,
      "belebung": 8285,
      "Ġentreprene": 8286,
      "ĠAfrica": 8287,
      "ĠRechnungs": 8288,
      "ĠOffenheit": 8289,
      "ĠMittelausstattung": 8290,
      "vorsitz": 8291,
      "ĠAgreement": 8292,
      "Ġzugrunde": 8293,
      "ĠGlaubwÃ¼rdigkeit": 8294,
      "Ġmechanisms": 8295,
      "40": 8296,
      "AV": 8297,
      "Behr": 8298,
      "Ist": 8299,
      "Pres": 8300,
      "Zur": 8301,
      "bahn": 8302,
      "cause": 8303,
      "dienst": 8304,
      "feld": 8305,
      "mant": 8306,
      "oon": 8307,
      "van": 8308,
      "Ã§": 8309,
      "ernen": 8310,
      "ins": 8311,
      "inter": 8312,
      "Ġapart": 8313,
      "Ġthous": 8314,
      "ison": 8315,
      "isive": 8316,
      "Ġwiden": 8317,
      "itra": 8318,
      "Ġsk": 8319,
      "Ġsinc": 8320,
      "athol": 8321,
      "reite": 8322,
      "orous": 8323,
      "ordern": 8324,
      "Ġbir": 8325,
      "Ġmid": 8326,
      "Ġmerg": 8327,
      "alÃ¤stinens": 8328,
      "Ġfam": 8329,
      "Ġemb": 8330,
      "ĠprÃ¤z": 8331,
      "ĠpalÃ¤stinens": 8332,
      "Ġangest": 8333,
      "Ġcore": 8334,
      "Ġhar": 8335,
      "Ġunf": 8336,
      "Ã¼rokrat": 8337,
      "uren": 8338,
      "ĠEing": 8339,
      "ĠImp": 8340,
      "ĠPSE": 8341,
      "ĠPlÃ¤ne": 8342,
      "ĠPHA": 8343,
      "Ġeinf": 8344,
      "ĠSa": 8345,
      "ĠSwo": 8346,
      "Ġging": 8347,
      "Ġretain": 8348,
      "Ġrejected": 8349,
      "ĠTer": 8350,
      "ettering": 8351,
      "Ġzuges": 8352,
      "bericht": 8353,
      "Ã¶konom": 8354,
      "ĠReding": 8355,
      "ĠRoth": 8356,
      "ĠFrom": 8357,
      "ĠFrei": 8358,
      "ille": 8359,
      "ĠWicht": 8360,
      "Ġones": 8361,
      "dellen": 8362,
      "Ġgezeigt": 8363,
      "ierter": 8364,
      "ĠHarm": 8365,
      "verse": 8366,
      "vertre": 8367,
      "Ġverlangt": 8368,
      "ĠDes": 8369,
      "ĠDal": 8370,
      "ĠDub": 8371,
      "ĠUng": 8372,
      "Ġnotification": 8373,
      "Ġdezentr": 8374,
      "ĠRechten": 8375,
      "ĠVerst": 8376,
      "ĠVerletz": 8377,
      "spiel": 8378,
      "sprÃ¼": 8379,
      "pping": 8380,
      "ĠLux": 8381,
      "atever": 8382,
      "inding": 8383,
      "opf": 8384,
      "endt": 8385,
      "bef": 8386,
      "iform": 8387,
      "Ġmitteilen": 8388,
      "Ġrange": 8389,
      "Ġvorbereit": 8390,
      "ungsverfahren": 8391,
      "ugt": 8392,
      "auso": 8393,
      "ĠNiel": 8394,
      "ĠNiveau": 8395,
      "Ġauswirken": 8396,
      "ĠabschlieÃŁend": 8397,
      "Ġspan": 8398,
      "Ġsprach": 8399,
      "ĠAusgaben": 8400,
      "ables": 8401,
      "abkommen": 8402,
      "abling": 8403,
      "oto": 8404,
      "enness": 8405,
      "Ġschlage": 8406,
      "ĠschlÃ¤gt": 8407,
      "ĠBezug": 8408,
      "ĠBecause": 8409,
      "steurop": 8410,
      "ĠVorbe": 8411,
      "ĠVorgÃ¤n": 8412,
      "Ġcomply": 8413,
      "sebene": 8414,
      "Ġworse": 8415,
      "Ġappoint": 8416,
      "Ġgoals": 8417,
      "Ġ27": 8418,
      "cont": 8419,
      "Ã¤tigkeiten": 8420,
      "Ġdismant": 8421,
      "ape": 8422,
      "apan": 8423,
      "ĠBerichten": 8424,
      "tsein": 8425,
      "ĠGrie": 8426,
      "lined": 8427,
      "staats": 8428,
      "Ġexpend": 8429,
      "Ġexplo": 8430,
      "ointed": 8431,
      "ĠEinklang": 8432,
      "ĠArbeiten": 8433,
      "Ġintentions": 8434,
      "Ġgenehm": 8435,
      "Ġgenauso": 8436,
      "Ġgesetz": 8437,
      "Ġhinweg": 8438,
      "ĠhinzufÃ¼gen": 8439,
      "Ġbecomes": 8440,
      "Ġjustified": 8441,
      "agne": 8442,
      "hlen": 8443,
      "ĠRechtsprech": 8444,
      "aufgaben": 8445,
      "Ġaccomp": 8446,
      "Ġperman": 8447,
      "Ġdebated": 8448,
      "Ġsolcher": 8449,
      "Ġactual": 8450,
      "Ġgewalt": 8451,
      "ĠArticles": 8452,
      "Ġprovides": 8453,
      "ĠFinancial": 8454,
      "Ġpolitically": 8455,
      "active": 8456,
      "actory": 8457,
      "Ġdennoch": 8458,
      "Ġyourself": 8459,
      "Ġwelches": 8460,
      "Ġcourt": 8461,
      "Ġscra": 8462,
      "Ġround": 8463,
      "Ġ31": 8464,
      "Ġ33": 8465,
      "mittelt": 8466,
      "Ġadded": 8467,
      "worfen": 8468,
      "Ġdram": 8469,
      "Ġdrawing": 8470,
      "Ġetc": 8471,
      "itzen": 8472,
      "Ġcitizen": 8473,
      "Ġgerichtet": 8474,
      "ĠKontroll": 8475,
      "Ġ45": 8476,
      "ĠHinweis": 8477,
      "Ġ82": 8478,
      "Ġcontinent": 8479,
      "Ġbringt": 8480,
      "Ġseries": 8481,
      "Ġsicherzustellen": 8482,
      "Ġtransition": 8483,
      "gleichheit": 8484,
      "ĠKollegin": 8485,
      "Ġaccounts": 8486,
      "ĠStrukturen": 8487,
      "mÃ¤ÃŁig": 8488,
      "Ġminister": 8489,
      "Ġklaren": 8490,
      "ĠSpanish": 8491,
      "kestein": 8492,
      "Ġcapable": 8493,
      "Ġfinanziert": 8494,
      "ĠHandel": 8495,
      "ĠStraft": 8496,
      "Ġorganisation": 8497,
      "ĠWohn": 8498,
      "fÃ¤higen": 8499,
      "zwischen": 8500,
      "Ġsmaller": 8501,
      "Ġqualified": 8502,
      "ehmigung": 8503,
      "Ġzweitens": 8504,
      "ĠPapier": 8505,
      "ĠSteuerzahl": 8506,
      "periode": 8507,
      "Ġirre": 8508,
      "ĠbefaÃŁt": 8509,
      "Ġclimate": 8510,
      "Ġallgemeine": 8511,
      "Ġdistort": 8512,
      "Ġshows": 8513,
      "Ġoperational": 8514,
      "ĠHaushaltslinie": 8515,
      "Ġdefined": 8516,
      "Ġvorgelegten": 8517,
      "Ġbestimmter": 8518,
      "ĠConsequently": 8519,
      "Ġfeeling": 8520,
      "Ġpreventing": 8521,
      "Ġbalanced": 8522,
      "kontroll": 8523,
      "ĠgewÃ¤hrt": 8524,
      "ĠBinnenmarkts": 8525,
      "ĠstÃ¤rksten": 8526,
      "Ġzahlen": 8527,
      "Ġplease": 8528,
      "Ġopening": 8529,
      "ĠWiederbelebung": 8530,
      "aktoren": 8531,
      "Ġaufgefordert": 8532,
      "Ġparticipate": 8533,
      "ĠBevÃ¶lkerungs": 8534,
      "Ġinformieren": 8535,
      "ĠFischler": 8536,
      "Ġjudges": 8537,
      "Ġoblige": 8538,
      "Ġhappened": 8539,
      "ĠSeiten": 8540,
      "DarÃ¼ber": 8541,
      "while": 8542,
      "Ġbearing": 8543,
      "Ġsagten": 8544,
      "Ġencouraging": 8545,
      "Ġafford": 8546,
      "ĠGreens": 8547,
      "ĠKrise": 8548,
      "Ġwirksame": 8549,
      "Ġundertaking": 8550,
      "Ġundertaken": 8551,
      "ĠKaras": 8552,
      "Ġmodernisation": 8553,
      "Ġstarke": 8554,
      "Ġhigher": 8555,
      "Ġkulturelle": 8556,
      "ĠBefugnisse": 8557,
      "Ġpostp": 8558,
      "Ġniemand": 8559,
      "Ġbedeuten": 8560,
      "boda": 8561,
      "Ġclarity": 8562,
      "Ġobligation": 8563,
      "Ġobligations": 8564,
      "izei": 8565,
      "ĠWorld": 8566,
      "Ġinequal": 8567,
      "Ġnachhaltigen": 8568,
      "Ġunterbreiten": 8569,
      "Ġchecks": 8570,
      "ĠPlanung": 8571,
      "ĠDiskriminierungen": 8572,
      "ĠImm": 8573,
      "ĠFehler": 8574,
      "ĠSektor": 8575,
      "Ġerneuerbarer": 8576,
      "Ġfunktioniert": 8577,
      "gebiete": 8578,
      "ĠWirklichkeit": 8579,
      "Ġincorporated": 8580,
      "Ġattempt": 8581,
      "Ġbetreffenden": 8582,
      "Ġverdient": 8583,
      "ĠUntersuchung": 8584,
      "Ġfamilies": 8585,
      "Ġfamiliar": 8586,
      "ĠJune": 8587,
      "ĠJuni": 8588,
      "ĠAltfahrzeuge": 8589,
      "ĠEUROPOL": 8590,
      "ĠKonsult": 8591,
      "Ġkeinerlei": 8592,
      "ĠMeeres": 8593,
      "ĠSachverstÃ¤ndiger": 8594,
      "Ġforestry": 8595,
      "Ġoriginal": 8596,
      "Ġdistributed": 8597,
      "Ġuncertain": 8598,
      "Ġbelong": 8599,
      "uklear": 8600,
      "Ġextension": 8601,
      "Ġhoriz": 8602,
      "Ġbezieht": 8603,
      "ĠWiederaufbau": 8604,
      "oulos": 8605,
      "ĠSummit": 8606,
      "lÃ¤ufig": 8607,
      "Ġschlimm": 8608,
      "Ġexplanation": 8609,
      "schnitt": 8610,
      "ĠWelth": 8611,
      "Ġunterstreichen": 8612,
      "Art": 8613,
      "Ġbeigetragen": 8614,
      "ĠKyoto": 8615,
      "kopoulos": 8616,
      "Ġaftern": 8617,
      "Ġcounter": 8618,
      "ĠEvans": 8619,
      "ĠDimitra": 8620,
      "Ġdefence": 8621,
      "tragung": 8622,
      "ĠPoettering": 8623,
      "ĠStÃ¼rme": 8624,
      "Ġgewisser": 8625,
      "ĠSardellen": 8626,
      "beauftragten": 8627,
      "Ġobstac": 8628,
      "ĠEnergietrÃ¤ger": 8629,
      "Ġaverage": 8630,
      "Ġvotes": 8631,
      "ĠBolkestein": 8632,
      "ĠBeitrittskandidaten": 8633,
      "AVE": 8634,
      "Behrendt": 8635,
      "Ġmergers": 8636,
      "ĠPHARE": 8637,
      "ĠSwoboda": 8638,
      "ĠHarmon": 8639,
      "ĠDublin": 8640,
      "ĠLuxem": 8641,
      "ĠDimitrakopoulos": 8642,
      "25": 8643,
      "Am": 8644,
      "DR": 8645,
      "EG": 8646,
      "EU": 8647,
      "Ger": 8648,
      "Hin": 8649,
      "ader": 8650,
      "bon": 8651,
      "called": 8652,
      "ex": 8653,
      "frika": 8654,
      "hm": 8655,
      "hib": 8656,
      "jÃ¤hr": 8657,
      "lore": 8658,
      "mlich": 8659,
      "oÃŁen": 8660,
      "ser": 8661,
      "sider": 8662,
      "uals": 8663,
      "viel": 8664,
      "weder": 8665,
      "wesen": 8666,
      "zierung": 8667,
      "erikan": 8668,
      "Ġdat": 8669,
      "Ġdrop": 8670,
      "Ġdrug": 8671,
      "Ġabend": 8672,
      "isbon": 8673,
      "Ġwit": 8674,
      "Ġwritten": 8675,
      "Ġsan": 8676,
      "Ġsides": 8677,
      "atal": 8678,
      "oration": 8679,
      "ĠbiÃŁ": 8680,
      "Ġbildet": 8681,
      "ĠbÃ¼rokrat": 8682,
      "Ġinsp": 8683,
      "Ġmach": 8684,
      "Ġname": 8685,
      "Ġneither": 8686,
      "Ġhop": 8687,
      "ĠhÃ¤lt": 8688,
      "Ġuniform": 8689,
      "Ã¼ckt": 8690,
      "Ã¤chen": 8691,
      "omit": 8692,
      "Ġvir": 8693,
      "urm": 8694,
      "rachen": 8695,
      "ĠSAVE": 8696,
      "ĠMa": 8697,
      "ima": 8698,
      "iment": 8699,
      "imately": 8700,
      "vey": 8701,
      "Ġreact": 8702,
      "Ġreiter": 8703,
      "ambod": 8704,
      "ĠBSE": 8705,
      "ĠTotal": 8706,
      "tert": 8707,
      "ĠKor": 8708,
      "ĠKinder": 8709,
      "Ġzuge": 8710,
      "Ġzugelassen": 8711,
      "Ġwhom": 8712,
      "issab": 8713,
      "ĠFern": 8714,
      "ĠFlag": 8715,
      "Ġlar": 8716,
      "Ġkennen": 8717,
      "Ġfordert": 8718,
      "ĠVize": 8719,
      "Ġgehe": 8720,
      "Ġgedenkt": 8721,
      "Ġalternative": 8722,
      "verfolg": 8723,
      "Ġverz": 8724,
      "ĠverÃ¶ff": 8725,
      "ĠerhÃ¤lt": 8726,
      "Ġerfolgen": 8727,
      "Ġerarbeitet": 8728,
      "andels": 8729,
      "ĠDienste": 8730,
      "ĠDÃ©s": 8731,
      "Ġneun": 8732,
      "ĠRealitÃ¤t": 8733,
      "ĠReaktion": 8734,
      "ĠVergleich": 8735,
      "spolitiken": 8736,
      "ĠLisbon": 8737,
      "ĠLissab": 8738,
      "ĠInstead": 8739,
      "indungen": 8740,
      "rÃ¤fte": 8741,
      "ĠZentr": 8742,
      "ĠZentral": 8743,
      "Ġsuchen": 8744,
      "schaffen": 8745,
      "Ġru": 8746,
      "Ġvorhin": 8747,
      "rient": 8748,
      "ĠNaz": 8749,
      "ureich": 8750,
      "ĠspÃ¤t": 8751,
      "ĠAusweis": 8752,
      "ĠAusnahme": 8753,
      "ĠAusweit": 8754,
      "ĠAusbildungs": 8755,
      "etze": 8756,
      "otential": 8757,
      "Ġoral": 8758,
      "Ġschafft": 8759,
      "Ġdarge": 8760,
      "ĠErk": 8761,
      "ĠmÃ¶gliche": 8762,
      "ĠOffice": 8763,
      "uell": 8764,
      "ĠRegulation": 8765,
      "Ġcomplement": 8766,
      "grÃ¼nd": 8767,
      "Ġworry": 8768,
      "Ġbetrachten": 8769,
      "ĠnachdrÃ¼cklich": 8770,
      "Ġcommer": 8771,
      "Ġfinn": 8772,
      "Ġfinde": 8773,
      "Ġfinance": 8774,
      "ĠAbÃ¤nder": 8775,
      "ĠAbbau": 8776,
      "staatlichkeit": 8777,
      "Ġimpose": 8778,
      "Ġproposes": 8779,
      "Ġprefer": 8780,
      "auen": 8781,
      "Ġgenutzt": 8782,
      "Ġchanging": 8783,
      "assungen": 8784,
      "Ġhinzu": 8785,
      "samkeit": 8786,
      "cedent": 8787,
      "Ġopenness": 8788,
      "Ġtexts": 8789,
      "Ġperipher": 8790,
      "akzept": 8791,
      "ĠJahrtaus": 8792,
      "Ġlautet": 8793,
      "Ġdebating": 8794,
      "Ġfacts": 8795,
      "Ġfeas": 8796,
      "ĠGrundsÃ¤tz": 8797,
      "Ġinsofern": 8798,
      "ĠUmstruktur": 8799,
      "ĠSeix": 8800,
      "Ġpossibly": 8801,
      "Ġunderlying": 8802,
      "Ġwelcher": 8803,
      "ĠKommissare": 8804,
      "Ġgemeinschaftliche": 8805,
      "ĠÃľberzeugung": 8806,
      "ĠMensch": 8807,
      "ĠHohen": 8808,
      "bieten": 8809,
      "Ġbound": 8810,
      "Ġboard": 8811,
      "Ġbegonnen": 8812,
      "Ġreferring": 8813,
      "Ġangewendet": 8814,
      "acter": 8815,
      "Ġacquis": 8816,
      "Ġweitgehend": 8817,
      "Ġwenige": 8818,
      "Ġdemocrat": 8819,
      "Ġrespects": 8820,
      "licherweise": 8821,
      "Ġwirtschaftlich": 8822,
      "rÃ¼gere": 8823,
      "ĠPolitiker": 8824,
      "Ġindependence": 8825,
      "ĠFranz": 8826,
      "lauben": 8827,
      "Ġpromised": 8828,
      "Ġenlarged": 8829,
      "Ġsets": 8830,
      "zeichen": 8831,
      "Ġgeschieht": 8832,
      "ĠbekrÃ¤ft": 8833,
      "ĠbekÃ¤mpfen": 8834,
      "Ġverstehe": 8835,
      "grundlage": 8836,
      "ĠRaumes": 8837,
      "rÃ¤nkung": 8838,
      "Ġglauben": 8839,
      "Meines": 8840,
      "fÃ¤hig": 8841,
      "Ġgoverning": 8842,
      "Ġerstens": 8843,
      "Ġelimin": 8844,
      "Ġfolgendes": 8845,
      "Ġadvoc": 8846,
      "Ġhighest": 8847,
      "ĠbewÃ¤ltigen": 8848,
      "Ġsimpl": 8849,
      "Ġreduced": 8850,
      "ĠdÃ¼rfte": 8851,
      "Ġwesentliche": 8852,
      "Ġcorresp": 8853,
      "Ġinneren": 8854,
      "Ġbefind": 8855,
      "Ġkurzem": 8856,
      "Ġintroducing": 8857,
      "Ġpresence": 8858,
      "ĠLike": 8859,
      "Ġcompany": 8860,
      "hood": 8861,
      "Ġinvestments": 8862,
      "vorschlag": 8863,
      "Ġcalls": 8864,
      "Ġcalling": 8865,
      "ĠPriv": 8866,
      "Ġcloser": 8867,
      "Ġmoving": 8868,
      "ĠÃ¼brigens": 8869,
      "Ġtyp": 8870,
      "Ġentscheidender": 8871,
      "bereiche": 8872,
      "Ġindividuals": 8873,
      "Ġincreasingly": 8874,
      "Ġretro": 8875,
      "Ġschwierige": 8876,
      "Ġwait": 8877,
      "Ġanticip": 8878,
      "Ġinnovation": 8879,
      "Ġtreaties": 8880,
      "Ġverhindert": 8881,
      "Ġcarrying": 8882,
      "Ġpotent": 8883,
      "ĠunabhÃ¤ngig": 8884,
      "Ġextending": 8885,
      "Ġcontract": 8886,
      "Ġfestgelegten": 8887,
      "ĠKartell": 8888,
      "Ġstarken": 8889,
      "ĠVoraussetzungen": 8890,
      "Ġentirely": 8891,
      "Ġreconstruction": 8892,
      "Ġconcentration": 8893,
      "ĠSicherheitsber": 8894,
      "Ġrestricted": 8895,
      "Ġinev": 8896,
      "Ġlinked": 8897,
      "Ġequally": 8898,
      "ĠLastly": 8899,
      "otti": 8900,
      "Ã¤umen": 8901,
      "ĠInternationalen": 8902,
      "Ġerneuerbaren": 8903,
      "Ġfirmly": 8904,
      "Ġxenophobic": 8905,
      "ĠSchwerpunkt": 8906,
      "Ġbureaucratic": 8907,
      "Ġproceedings": 8908,
      "Ġprotest": 8909,
      "Ġergriffen": 8910,
      "politischen": 8911,
      "ĠerhÃ¶hen": 8912,
      "Ġdescribed": 8913,
      "Ġremarks": 8914,
      "ĠJahrhundert": 8915,
      "Ġsubstantial": 8916,
      "Ġenvisaged": 8917,
      "Ġverurteilen": 8918,
[...]
