<unk>	0
<pad>	0
<s>	0
</s>	0
,	-2.95409
.	-3.43225
▁the	-3.4872
▁in	-4.14394
▁of	-4.18198
▁die	-4.18498
▁der	-4.22413
▁to	-4.23964
n	-4.42194
▁and	-4.47323
▁und	-4.51355
s	-4.59285
▁a	-4.92115
▁is	-4.94817
▁I	-4.97017
en	-4.98241
▁that	-4.99812
▁zu	-5.25957
▁be	-5.31139
▁	-5.31685
▁den	-5.34311
▁for	-5.35565
ing	-5.42346
▁this	-5.42802
▁daß	-5.44772
▁we	-5.48841
▁von	-5.55726
▁für	-5.56894
▁on	-5.58756
▁ist	-5.62775
-	-5.6482
▁das	-5.6809
▁nicht	-5.68367
▁eine	-5.68806
▁wir	-5.69589
▁which	-5.71318
▁auf	-5.74012
▁an	-5.75848
e	-5.76261
▁are	-5.77987
▁it	-5.80069
▁have	-5.808
▁not	-5.80898
▁des	-5.84309
▁-	-5.91169
m	-5.92693
▁as	-5.92717
▁ich	-5.94043
▁with	-5.95672
▁werden	-5.96581
▁will	-5.96759
▁im	-5.99962
▁es	-6.00264
▁diese	-6.04396
▁mit	-6.06728
▁auch	-6.07223
▁Kommission	-6.09771
▁European	-6.11377
▁Union	-6.13518
▁Commission	-6.14088
▁The	-6.15452
r	-6.16638
ch	-6.17461
▁by	-6.2153
▁Mr	-6.23154
▁sich	-6.23278
▁dem	-6.24859
▁has	-6.25555
▁ein	-6.25609
ed	-6.25825
'	-6.31667
▁so	-6.35467
▁Herr	-6.36255
▁wird	-6.36737
▁would	-6.41099
▁also	-6.41704
▁sind	-6.41991
▁Die	-6.42453
er	-6.45476
▁We	-6.48233
▁haben	-6.50153
▁was	-6.51161
▁s	-6.51262
y	-6.53814
▁über	-6.55564
▁hat	-6.55829
▁at	-6.57463
▁all	-6.58136
▁should	-6.58461
▁wie	-6.58682
▁um	-6.59534
▁must	-6.61068
ly	-6.62811
▁zur	-6.64202
▁einer	-6.64545
▁Europäische	-6.65363
d	-6.65478
▁President	-6.65485
t	-6.6621
?	-6.66752
▁sie	-6.67141
▁als	-6.6718
:	-6.6816
▁Sie	-6.68938
▁you	-6.70689
▁but	-6.71439
▁Wir	-6.71594
▁In	-6.71719
▁Parliament	-6.73065
▁our	-6.75937
▁from	-6.81081
▁uns	-6.81205
▁been	-6.8209
▁möchte	-6.89401
▁müssen	-6.89674
▁vor	-6.90296
▁It	-6.90536
▁there	-6.91013
▁like	-6.91433
▁bei	-6.91963
▁can	-6.92837
▁Parlament	-6.93102
▁more	-6.95245
▁This	-6.96265
▁or	-6.98325
▁do	-6.99058
▁dieser	-6.9967
▁am	-6.99884
▁(	-7.01174
▁nach	-7.02502
▁muß	-7.04168
▁aus	-7.05194
▁these	-7.05748
▁Europe	-7.05749
▁nur	-7.05773
▁Das	-7.06313
▁its	-7.06483
▁aber	-7.06571
▁können	-7.07102
▁einen	-7.07121
!	-7.08395
▁noch	-7.09804
▁kann	-7.10172
ung	-7.10311
▁"	-7.10478
▁wenn	-7.11426
▁one	-7.11549
▁Member	-7.1336
▁their	-7.14971
▁europäische	-7.15117
▁Es	-7.15344
▁zum	-7.16794
▁very	-7.17955
▁Bericht	-7.19244
▁Frau	-7.20015
▁report	-7.20349
▁Council	-7.21812
▁who	-7.22871
▁sein	-7.22928
▁what	-7.24731
▁need	-7.25339
▁oder	-7.25405
▁Präsident	-7.26502
▁ihre	-7.26744
▁States	-7.28452
▁sehr	-7.30328
▁my	-7.3081
▁EU	-7.32027
▁new	-7.33714
▁us	-7.33868
▁A	-7.34878
▁if	-7.34994
▁einem	-7.36428
▁no	-7.36458
▁make	-7.36687
▁about	-7.38059
▁only	-7.38073
▁take	-7.38951
▁durch	-7.39377
▁other	-7.39663
▁policy	-7.40154
al	-7.40441
▁meine	-7.4068
;	-7.40952
es	-7.416
▁time	-7.41825
▁man	-7.41994
▁important	-7.42428
▁Europa	-7.4429
te	-7.45755
▁dieses	-7.46725
▁up	-7.46996
▁mehr	-7.47746
▁therefore	-7.47863
▁Mitgliedstaaten	-7.5002
)	-7.50329
▁because	-7.50469
▁hier	-7.52822
▁out	-7.55308
▁Frage	-7.55358
▁wurde	-7.55632
▁into	-7.55781
▁some	-7.56544
▁unsere	-7.58409
▁support	-7.5886
▁people	-7.58976
▁now	-7.59059
▁when	-7.59381
▁un	-7.60172
▁programme	-7.61961
▁say	-7.62525
▁any	-7.6293
▁keine	-7.63323
▁Commissioner	-7.63656
▁point	-7.64306
▁B	-7.64436
▁Regierung	-7.65275
▁Entwicklung	-7.65852
▁just	-7.66694
▁made	-7.66699
▁way	-7.66725
▁alle	-7.67078
▁such	-7.67187
▁fact	-7.67478
▁between	-7.67737
▁work	-7.68163
▁Rat	-7.68217
▁sondern	-7.688
▁regard	-7.69854
▁Da	-7.70037
▁within	-7.70725
▁damit	-7.71292
▁er	-7.71357
▁Community	-7.71657
▁debate	-7.71936
▁political	-7.72982
ose	-7.73079
▁S	-7.7332
▁development	-7.73945
▁mich	-7.74226
▁th	-7.74679
▁were	-7.74757
▁being	-7.75545
▁Der	-7.75811
▁social	-7.77638
▁dann	-7.77653
▁areas	-7.77729
▁countries	-7.79189
▁E	-7.79198
▁issue	-7.80022
▁heute	-7.80767
▁sowie	-7.80778
▁your	-7.80995
▁C	-7.80998
▁than	-7.81555
▁gibt	-7.81568
▁zwischen	-7.81596
▁jedoch	-7.82775
▁dies	-7.82958
▁habe	-7.83624
▁Kollegen	-7.84181
▁believe	-7.84436
▁regions	-7.85131
▁aid	-7.85383
▁where	-7.86922
▁unter	-7.87099
▁economic	-7.87783
▁weil	-7.87817
▁da	-7.89612
▁first	-7.90227
▁darauf	-7.90359
▁want	-7.90636
▁question	-7.91103
▁order	-7.91728
▁geht	-7.92141
▁denn	-7.92689
▁competition	-7.94376
▁me	-7.94443
▁Madam	-7.94832
▁bereits	-7.95107
▁see	-7.95179
▁anderen	-7.95385
▁politische	-7.95397
▁Maßnahmen	-7.96362
▁mir	-7.96681
▁dafür	-7.96684
▁financial	-7.96689
▁under	-7.96848
▁many	-7.96931
▁war	-7.97042
▁already	-7.97148
▁think	-7.97172
▁wo	-7.97335
▁Regionen	-7.97373
▁seine	-7.9772
▁possible	-7.9811
▁Präsidentin	-7.98144
▁sagen	-7.98789
▁ganz	-7.98911
▁Diese	-7.98993
▁national	-7.99207
▁INTERREG	-7.99521
▁does	-7.99692
▁area	-8.00245
▁Ihnen	-8.00481
▁Committee	-8.00484
▁ob	-8.00525
▁vo	-8.0174
▁could	-8.01945
▁most	-8.0206
▁Rahmen	-8.02381
▁here	-8.02884
▁immer	-8.03442
▁sollten	-8.03589
▁proposal	-8.04427
▁two	-8.04432
▁had	-8.04436
▁There	-8.04516
▁them	-8.046
▁Ein	-8.04624
▁regional	-8.0476
▁Bürger	-8.0519
a	-8.05196
▁course	-8.05391
▁market	-8.05445
▁same	-8.05449
▁how	-8.05474
▁today	-8.05547
▁process	-8.05889
▁future	-8.05955
▁gegen	-8.0599
▁unserer	-8.06019
▁well	-8.06021
▁even	-8.06917
▁said	-8.08022
▁over	-8.08092
▁Parlaments	-8.08109
▁too	-8.08605
▁denen	-8.08887
▁sollte	-8.08982
▁cannot	-8.09072
▁system	-8.09489
▁right	-8.09546
▁Prodi	-8.09601
▁That	-8.09601
▁wollen	-8.10143
▁last	-8.10173
▁doch	-8.10234
▁much	-8.10668
▁give	-8.11089
▁dazu	-8.11301
st	-8.1174
▁Zeit	-8.11774
▁Bereich	-8.11828
▁able	-8.12468
ten	-8.12771
▁clear	-8.12833
▁However	-8.12836
▁part	-8.12844
▁put	-8.12844
▁years	-8.13052
▁As	-8.13226
▁ensure	-8.13386
▁against	-8.13413
▁his	-8.13988
▁end	-8.14427
▁still	-8.14494
▁Arbeit	-8.15229
▁common	-8.15614
▁situation	-8.15717
▁allem	-8.15725
▁level	-8.15732
▁initiative	-8.15892
▁Ver	-8.15902
▁may	-8.16751
▁Recht	-8.16833
▁public	-8.17162
▁Mittel	-8.17248
▁principle	-8.1745
▁Sicherheit	-8.17558
▁know	-8.17945
▁Vorschlag	-8.17981
▁particularly	-8.18015
▁Richtlinie	-8.18531
▁LEADER	-8.19057
▁state	-8.19087
▁programmes	-8.19093
▁ihrer	-8.19396
▁own	-8.19463
▁great	-8.19477
▁present	-8.20029
▁view	-8.2039
▁case	-8.20391
▁neue	-8.20608
▁Fraktion	-8.21381
▁action	-8.21599
▁soll	-8.21851
▁reform	-8.21901
▁bin	-8.22006
▁Wenn	-8.22101
▁Kommissar	-8.22499
▁insbesondere	-8.22614
▁citizens	-8.22714
▁given	-8.22748
▁far	-8.22923
in	-8.23021
c	-8.23217
▁wurden	-8.23748
▁why	-8.23834
▁So	-8.23873
▁measures	-8.24629
▁hope	-8.24641
▁directive	-8.24652
den	-8.25731
▁würde	-8.25733
▁wieder	-8.25751
▁Ihre	-8.25816
▁good	-8.25919
▁Gemeinschaft	-8.25981
▁1999	-8.26121
▁particular	-8.26174
▁opinion	-8.26508
▁again	-8.26904
▁Treaty	-8.26935
▁amendments	-8.27287
▁einige	-8.27518
▁example	-8.27794
▁position	-8.27848
▁große	-8.28134
▁Programm	-8.28658
▁legal	-8.28698
▁G	-8.29016
▁neuen	-8.29031
▁number	-8.29492
▁wäre	-8.29568
▁institutions	-8.29619
▁terms	-8.29839
▁meiner	-8.29887
▁jetzt	-8.30141
▁taken	-8.30512
▁URBAN	-8.30806
▁ohne	-8.30809
▁hin	-8.30991
skonferenz	-8.31469
▁law	-8.31746
▁matter	-8.31761
k	-8.31792
▁shall	-8.3212
▁machen	-8.32139
▁issues	-8.32492
▁vote	-8.32596
▁cooperation	-8.32782
▁problems	-8.32888
▁wirklich	-8.33598
▁concerned	-8.33641
i	-8.33816
▁respect	-8.33919
▁consider	-8.34282
▁re	-8.34305
▁2000	-8.3435
▁ab	-8.34566
▁concern	-8.34971
▁ge	-8.35173
▁international	-8.35974
▁Ziel	-8.36138
▁House	-8.36183
▁Meinung	-8.36194
▁Menschen	-8.36231
▁Wie	-8.36872
▁bis	-8.3689
ary	-8.37106
ous	-8.37113
▁ask	-8.37266
▁If	-8.37369
▁long	-8.37435
▁safety	-8.37579
▁place	-8.37775
▁Zu	-8.37937
▁No	-8.38027
▁Probleme	-8.38053
▁schon	-8.38281
▁Zusammenarbeit	-8.38283
▁before	-8.38305
▁he	-8.38473
wohl	-8.38491
ion	-8.38564
▁welche	-8.38804
▁tax	-8.38901
▁Group	-8.3899
▁Bedeutung	-8.3899
▁Im	-8.39514
▁tun	-8.39657
▁both	-8.39705
▁etwas	-8.39957
▁Artikel	-8.40444
▁Fall	-8.40884
▁year	-8.40922
▁necessary	-8.41148
▁viele	-8.41601
▁zwei	-8.42041
▁r	-8.42251
lich	-8.42262
▁Debatte	-8.42614
▁world	-8.42615
▁nun	-8.43058
▁Erweiterung	-8.43365
▁But	-8.43374
▁favour	-8.43382
▁Beihilfen	-8.43449
▁gemeinsame	-8.43632
▁set	-8.43906
ation	-8.4397
▁Nach	-8.43996
▁Verantwortung	-8.44105
▁form	-8.4452
▁selbst	-8.44854
▁without	-8.44906
▁whether	-8.4561
▁wissen	-8.45665
l	-8.46116
▁use	-8.46204
▁zwar	-8.46373
▁extreme	-8.46532
▁einmal	-8.4671
▁decision	-8.46908
▁since	-8.46957
▁Fragen	-8.4705
▁An	-8.47171
▁Problem	-8.47343
able	-8.47738
zug	-8.47739
▁few	-8.47743
▁local	-8.47918
▁Unterstützung	-8.47922
▁however	-8.47923
▁employment	-8.47928
▁Dies	-8.47966
▁wichtig	-8.48329
▁P	-8.48454
▁F	-8.48459
▁Reform	-8.48596
▁rights	-8.48628
▁Members	-8.48692
▁proposals	-8.48706
▁natürlich	-8.4871
g	-8.48725
▁%	-8.4896
▁Unternehmen	-8.49208
▁thank	-8.49297
▁wirtschaftliche	-8.49341
▁Thema	-8.50016
▁Zusammenhang	-8.5028
▁Tagesordnung	-8.5028
▁guidelines	-8.50303
Änderungsanträge	-8.50448
▁agenda	-8.5108
▁positive	-8.51087
▁country	-8.51122
▁Aber	-8.51168
▁möglich	-8.51272
▁Punkt	-8.51443
▁Initiative	-8.51591
▁come	-8.51707
▁certain	-8.5175
▁1	-8.5183
▁Ebene	-8.51893
bei	-8.51911
▁Aus	-8.52119
▁andere	-8.52217
▁Politik	-8.52381
▁Conference	-8.527
▁next	-8.527
▁Kolleginnen	-8.52701
▁Deshalb	-8.52701
▁ja	-8.52715
▁done	-8.52719
▁besteht	-8.52727
ural	-8.52728
▁government	-8.52847
▁Er	-8.52847
▁geben	-8.52863
▁allen	-8.53212
▁help	-8.53519
▁ländliche	-8.5353
▁projects	-8.53946
▁Ausschuß	-8.54389
▁deal	-8.54774
dem	-8.548
▁rapporteur	-8.54956
um	-8.5507
▁Und	-8.55086
▁Presidency	-8.5518
▁Institutionen	-8.55332
▁Be	-8.55531
▁la	-8.55663
▁Umwelt	-8.55664
▁role	-8.55779
▁nämlich	-8.56019
▁something	-8.5602
▁Entschließung	-8.56131
▁worden	-8.56206
▁ver	-8.56306
▁resolution	-8.56682
▁environmental	-8.56775
▁Kosovo	-8.56867
▁betrifft	-8.56869
▁Wirtschaft	-8.57111
"	-8.5713
▁Programme	-8.57141
▁viel	-8.58049
▁What	-8.58584
▁enlargement	-8.58584
▁darüber	-8.58586
▁responsibility	-8.5859
▁ihr	-8.58625
▁Jahren	-8.58663
▁Wettbewerb	-8.59073
▁Austria	-8.59122
▁hand	-8.59304
▁problem	-8.5934
▁importance	-8.59454
▁Au	-8.5978
▁justice	-8.6033
▁steht	-8.6036
▁information	-8.60475
▁Europas	-8.60919
▁Jahr	-8.61018
▁freedom	-8.61021
▁control	-8.61088
▁group	-8.61096
▁State	-8.61104
le	-8.61209
▁Rolle	-8.61216
▁Leitlinien	-8.61228
▁Article	-8.61235
▁nationalen	-8.61878
▁Was	-8.62112
▁daher	-8.62132
▁proposed	-8.62173
▁letzten	-8.62517
▁means	-8.62613
▁second	-8.62873
▁specific	-8.63007
▁EQUAL	-8.63009
▁industry	-8.63009
▁legislation	-8.63009
▁Aussprache	-8.6301
▁through	-8.63016
▁down	-8.63036
▁resources	-8.63097
▁going	-8.63405
▁kommen	-8.6405
▁unterstützen	-8.64112
▁once	-8.64157
▁Auf	-8.6419
▁Jahre	-8.6442
▁internal	-8.64701
▁rather	-8.64837
▁darf	-8.64861
▁car	-8.65812
▁account	-8.66568
▁basis	-8.66697
▁daran	-8.66704
▁towards	-8.67641
▁davon	-8.67642
▁continue	-8.67645
▁call	-8.67718
▁gegenüber	-8.67769
▁qui	-8.67799
▁wish	-8.68324
▁Meine	-8.68337
▁sozialen	-8.68648
▁Entscheidung	-8.68856
A	-8.68995
▁brauchen	-8.69594
▁Rates	-8.6973
▁For	-8.70125
▁objectives	-8.70134
▁Österreich	-8.70177
▁Umsetzung	-8.70527
▁Zukunft	-8.70527
▁security	-8.70536
▁führen	-8.70596
o	-8.70788
▁rules	-8.7085
▁look	-8.70855
▁agreement	-8.71477
▁You	-8.71488
▁Haider	-8.71505
▁economy	-8.71505
▁policies	-8.71505
▁Amsterdam	-8.71517
▁budget	-8.71518
▁Präsidentschaft	-8.71543
f	-8.71597
▁stehen	-8.72019
▁Abgeordneten	-8.72162
▁glaube	-8.72252
▁Länder	-8.7231
Berichterstatter	-8.72316
▁klar	-8.72321
▁real	-8.72427
▁besonders	-8.72495
▁essential	-8.72495
▁lassen	-8.72573
▁clearly	-8.72736
zu	-8.7275
▁T	-8.72905
▁provide	-8.73359
h	-8.73668
b	-8.73862
▁concerns	-8.7398
▁p	-8.74055
▁start	-8.74312
▁go	-8.74365
▁three	-8.7452
▁Name	-8.74548
▁D	-8.74577
▁weiter	-8.74601
▁Ziele	-8.74761
▁Situation	-8.74776
▁notwendig	-8.75262
der	-8.75525
▁liegt	-8.75526
▁authorities	-8.75526
▁drei	-8.75528
▁gesagt	-8.75533
▁every	-8.75578
▁adopted	-8.75657
▁Staaten	-8.75749
▁Herren	-8.76003
▁vari	-8.76091
each	-8.76153
p	-8.76561
▁result	-8.76568
▁sollen	-8.76729
▁'	-8.77126
▁welcome	-8.77494
▁kein	-8.77587
▁large	-8.77598
▁having	-8.77598
▁Portuguese	-8.77603
▁committee	-8.77614
▁subject	-8.77656
▁Möglichkeit	-8.77946
th	-8.77963
▁L	-8.78316
▁Lage	-8.78411
▁Beschäftigung	-8.78478
▁Welt	-8.7865
▁peace	-8.78651
▁während	-8.78651
▁Kultur	-8.78677
▁These	-8.7887
▁Ansicht	-8.7898
▁transport	-8.7949
▁Vorschläge	-8.79567
▁agree	-8.79578
▁change	-8.7963
ntergovernmental	-8.79669
▁großen	-8.7969
▁deshalb	-8.7976
▁forward	-8.79778
▁sector	-8.79788
▁solche	-8.80499
▁Dam	-8.80536
▁hoffe	-8.80658
▁Land	-8.80677
▁achieve	-8.80761
▁implementation	-8.80803
▁food	-8.80804
▁kommt	-8.8081
ar	-8.80947
▁Gemeinschafts	-8.81361
▁back	-8.81394
▁schaffen	-8.81653
dies	-8.81704
▁small	-8.81711
▁Tobin	-8.81877
▁yet	-8.81877
▁protection	-8.81882
▁whole	-8.81895
▁Förderung	-8.819
▁seiner	-8.82051
▁greater	-8.82177
▁Freiheit	-8.82235
▁gute	-8.82263
▁period	-8.82643
▁staatliche	-8.82799
▁halte	-8.82881
▁major	-8.82964
▁Ausschusses	-8.82975
▁dabei	-8.83027
▁itself	-8.83081
▁2	-8.83478
▁de	-8.83541
half	-8.83582
▁find	-8.83701
▁Mit	-8.83999
▁Teil	-8.84
▁human	-8.8406
▁Anwendung	-8.84088
▁Lebensmittel	-8.84091
▁Ausdruck	-8.84091
▁gerade	-8.84108
el	-8.84139
▁making	-8.84268
▁sicher	-8.84394
▁express	-8.85018
▁wichtige	-8.85045
▁include	-8.85126
▁her	-8.85155
gesichts	-8.85177
▁opportunity	-8.8521
▁women	-8.85223
▁cars	-8.85312
▁stellen	-8.85341
▁unseren	-8.854
on	-8.8567
ted	-8.85952
▁serious	-8.86213
▁dur	-8.8624
▁Bei	-8.86274
▁further	-8.86347
▁energy	-8.86347
▁million	-8.86441
an	-8.86485
▁groups	-8.86509
▁after	-8.86554
▁pre	-8.86565
▁Rechts	-8.86655
politik	-8.86721
▁gesamte	-8.87361
▁K	-8.87411
▁especially	-8.87496
ern	-8.87513
▁certainly	-8.87686
▁Standpunkt	-8.88369
▁On	-8.88546
▁Court	-8.88659
▁always	-8.88659
▁einzelne	-8.88659
▁gentlemen	-8.88659
▁authority	-8.88664
▁W	-8.88786
▁System	-8.88833
▁gut	-8.89343
▁environment	-8.89771
▁gilt	-8.89835
▁Schaffung	-8.89838
▁less	-8.90067
▁seem	-8.9053
▁deutlich	-8.9082
▁general	-8.9089
▁different	-8.91014
▁together	-8.91026
▁Minister	-8.91157
▁nächsten	-8.9131
▁Frauen	-8.91319
▁create	-8.9143
sichtlich	-8.92158
▁least	-8.92233
▁Ländern	-8.92483
sten	-8.92707
▁danken	-8.92843
▁darin	-8.93043
▁Grund	-8.93089
▁high	-8.93304
▁increase	-8.93319
▁Weise	-8.9344
▁democratic	-8.93448
▁äußerst	-8.9345
▁legislative	-8.9346
▁did	-8.93476
▁another	-8.93554
▁mentioned	-8.93598
▁Hier	-8.93604
▁funds	-8.93798
est	-8.93948
▁M	-8.94162
▁interests	-8.94168
▁Wettbewerbs	-8.94223
▁used	-8.94633
▁money	-8.94685
▁taking	-8.94685
▁culture	-8.94688
▁darum	-8.94699
▁werde	-8.9474
▁really	-8.94856
▁working	-8.95038
▁Kommissarin	-8.9511
▁waren	-8.95303
▁Eine	-8.95553
▁develop	-8.9573
▁effective	-8.95847
grund	-8.9593
▁erreichen	-8.95935
▁responsible	-8.95937
▁main	-8.9596
▁van	-8.95973
▁involved	-8.95994
▁Kontrolle	-8.96035
▁weniger	-8.96079
▁become	-8.96154
▁risk	-8.96168
▁Abstimmung	-8.96458
▁needs	-8.96485
or	-8.96516
▁feel	-8.96745
se	-8.97027
▁Vor	-8.97124
▁attention	-8.972
▁single	-8.97201
▁five	-8.97207
▁conditions	-8.97359
▁months	-8.9739
▁bring	-8.97792
▁bringen	-8.97948
▁services	-8.97994
▁understand	-8.9802
▁d	-8.98099
▁N	-8.98342
▁Beispiel	-8.98406
▁transparency	-8.98483
▁Hilfe	-8.98488
▁gemacht	-8.98493
▁Hi	-8.98544
▁könnte	-8.98568
▁einigen	-8.98581
▁Gebiet	-8.98805
▁sei	-8.98878
▁decisions	-8.98892
be	-8.98909
▁soziale	-8.99456
▁fundamental	-8.99634
▁Kosten	-8.9967
▁approach	-8.99711
▁framework	-8.99781
▁indeed	-8.99784
▁third	-8.99788
▁denke	-8.99872
▁communication	-8.99982
re	-9.00004
ve	-9.003
▁Weg	-9.00412
▁ersten	-9.00448
▁eigene	-9.00546
▁idea	-9.009
▁difficult	-9.00934
▁urban	-9.01097
▁Themen	-9.01129
▁Ende	-9.01158
▁My	-9.01254
▁cost	-9.01272
▁ihnen	-9.01467
▁Art	-9.01726
▁allow	-9.01741
▁aller	-9.01952
▁And	-9.02004
▁finden	-9.02202
▁lead	-9.02265
▁Whi	-9.02336
▁Euro	-9.0243
▁beispielsweise	-9.0243
▁dürfen	-9.02431
▁Finally	-9.02431
▁better	-9.02431
▁kind	-9.02744
▁words	-9.02843
▁weitere	-9.03001
▁alles	-9.03075
▁accept	-9.03559
▁progress	-9.0374
▁Paper	-9.03782
▁Transparenz	-9.03782
▁Demokratie	-9.03784
▁dort	-9.03792
▁Strukturfonds	-9.03792
▁past	-9.03793
▁übrigen	-9.03835
z	-9.03875
erweise	-9.04059
▁region	-9.04091
ge	-9.04418
▁Partei	-9.0443
▁regulations	-9.04433
de	-9.04933
▁Steuer	-9.04983
▁Un	-9.05009
▁aware	-9.05143
▁cultural	-9.05152
▁including	-9.05152
▁ebenso	-9.05155
▁available	-9.05156
▁Grundlage	-9.05283
nblick	-9.05427
▁life	-9.05431
▁day	-9.06074
▁lack	-9.06081
▁7	-9.06299
▁Dank	-9.06305
bzw	-9.06527
▁Millionen	-9.0654
▁EUR	-9.06554
▁majority	-9.06554
▁nichts	-9.0677
▁Raum	-9.06854
▁b	-9.07474
▁initiatives	-9.07665
▁remain	-9.0773
▁play	-9.07949
▁OLAF	-9.07949
▁might	-9.07949
▁genau	-9.08116
▁II	-9.08151
▁special	-9.082
▁halten	-9.08224
▁finanzielle	-9.08306
▁talk	-9.0834
▁Uni	-9.0856
▁Funds	-9.08657
▁things	-9.08659
▁i	-9.08796
▁Man	-9.09225
rachten	-9.09307
▁companies	-9.09377
▁nothing	-9.0938
her	-9.09382
▁points	-9.0939
▁actually	-9.09407
▁entsprechende	-9.09517
▁Auswirkung	-9.09593
▁force	-9.09644
▁Form	-9.09778
▁Projekte	-9.09781
▁reason	-9.09781
▁questions	-9.09813
▁beiden	-9.0982
▁values	-9.09953
ce	-9.09967
▁seit	-9.10259
▁gemeinsam	-9.10283
▁5	-9.10324
▁current	-9.10693
▁Affairs	-9.10827
▁ebenfalls	-9.1083
▁Party	-9.10834
▁vehicles	-9.10969
▁Aufgabe	-9.1109
▁efforts	-9.1127
▁sehen	-9.11376
▁erste	-9.1161
▁best	-9.11676
%	-9.11694
▁Austrian	-9.11775
ity	-9.11994
tructural	-9.12142
CO	-9.12227
/	-9.12366
▁get	-9.12512
▁dessen	-9.12515
▁Israel	-9.12647
▁bekannt	-9.12713
▁At	-9.13055
▁matters	-9.13091
▁besser	-9.13124
▁6	-9.13264
▁tragen	-9.13393
▁Vertrags	-9.13507
▁adopt	-9.13574
▁appropriate	-9.13643
▁1998	-9.1379
▁off	-9.13794
▁training	-9.13827
▁negotiations	-9.13891
erhalb	-9.13908
▁prevent	-9.14619
▁erst	-9.15025
▁meinen	-9.15099
▁Schutz	-9.15235
▁Amendment	-9.15305
▁enough	-9.15305
▁moment	-9.15307
▁Stellungnahme	-9.15308
▁type	-9.1536
▁while	-9.15382
ance	-9.15611
▁longer	-9.15657
▁mind	-9.1572
▁procedure	-9.15881
▁Erklärung	-9.16132
▁gegeben	-9.16525
▁full	-9.16698
▁Hulten	-9.16843
▁ourselves	-9.16843
▁Verbraucher	-9.16846
▁Änderungsantrag	-9.16847
▁dangerous	-9.16851
▁joint	-9.16898
▁jeder	-9.17042
▁Weißbuch	-9.17309
ic	-9.1741
▁draft	-9.17424
▁erforderlich	-9.17511
▁power	-9.1773
+	-9.17877
▁Region	-9.18142
▁1997	-9.18161
▁fünf	-9.18256
▁Mehrheit	-9.18409
▁Mitteilung	-9.18415
▁among	-9.18424
▁vier	-9.18431
▁gestellt	-9.18432
spolitik	-9.18445
▁access	-9.18446
▁verschiedenen	-9.18819
▁exist	-9.18925
▁add	-9.19138
▁apply	-9.19539
▁principles	-9.19626
▁zunächst	-9.19993
▁ihm	-9.19993
▁face	-9.19996
▁democracy	-9.19998
▁Rechte	-9.20086
▁Ab	-9.20113
sicherheit	-9.20164
▁expressed	-9.20267
▁comes	-9.20417
▁All	-9.20498
▁statement	-9.20595
▁jobs	-9.20661
▁Vertrag	-9.20763
▁richtig	-9.20802
▁Mitgliedstaat	-9.2085
▁h	-9.20907
u	-9.20914
▁konkrete	-9.21059
▁eigentlich	-9.2138
▁Ou	-9.21458
▁addition	-9.21544
▁allerdings	-9.21606
▁Gemeinsame	-9.21627
▁sure	-9.21641
▁morgen	-9.21646
▁based	-9.21691
ies	-9.21927
▁Bevölkerung	-9.2201
▁effect	-9.2221
▁disaster	-9.22217
▁service	-9.22246
iert	-9.2229
▁Gebiete	-9.22461
▁wohl	-9.22756
▁previous	-9.23108
▁proper	-9.23112
▁dar	-9.23183
▁combat	-9.23236
▁Hersteller	-9.23246
▁Tampere	-9.23246
▁although	-9.23246
▁little	-9.23246
▁unemployment	-9.23248
▁Beitrag	-9.23252
▁simply	-9.23253
▁000	-9.23313
▁upon	-9.23332
▁Als	-9.23415
▁Wort	-9.23888
▁eindeutig	-9.24205
▁Interessen	-9.24453
▁bereit	-9.24829
▁besondere	-9.24912
▁weiß	-9.24912
▁zahlreiche	-9.24912
▁context	-9.24913
▁jede	-9.24996
▁fully	-9.25119
▁standards	-9.25156
▁nehmen	-9.25194
▁meeting	-9.25209
initiative	-9.25396
▁Interesse	-9.25398
▁gehen	-9.25458
▁objective	-9.25589
▁aim	-9.25609
ekämpfung	-9.2566
▁bear	-9.25689
▁Auffassung	-9.25867
▁Lösung	-9.25891
▁mention	-9.25939
▁bestimmte	-9.26054
▁zurück	-9.26508
▁four	-9.26592
▁strategy	-9.26607
▁Öffentlichkeit	-9.26607
▁österreichische	-9.26607
▁administration	-9.26607
▁Erika	-9.26622
▁handelt	-9.26646
▁erhalten	-9.26677
▁France	-9.26677
▁sprechen	-9.27004
et	-9.2708
ive	-9.27097
▁document	-9.27304
▁demokratische	-9.27485
▁criminal	-9.27693
▁hohe	-9.2798
▁Wirtschafts	-9.2804
▁IGC	-9.28331
▁key	-9.28331
▁vielleicht	-9.28332
▁Tatsache	-9.28332
▁cohesion	-9.28333
▁French	-9.28344
▁amount	-9.28345
▁Damit	-9.28355
▁Gefahr	-9.28396
▁Verhandlungen	-9.28399
▁interest	-9.28417
▁With	-9.28423
▁structural	-9.28513
▁governments	-9.28756
▁g	-9.28899
▁experience	-9.29014
▁vorgesehen	-9.29589
▁bedeutet	-9.2977
▁10	-9.29827
▁address	-9.29909
ut	-9.29919
▁though	-9.29957
▁völlig	-9.30086
▁confidence	-9.30086
▁capital	-9.3009
▁trade	-9.30094
▁remind	-9.30096
▁setzen	-9.30162
▁requirements	-9.30314
▁J	-9.30329
▁15	-9.3091
▁Jahres	-9.31096
▁Verwaltung	-9.31229
▁open	-9.31266
▁actions	-9.31334
▁cases	-9.31369
▁beim	-9.31392
▁Bereichen	-9.31433
▁Markt	-9.31583
▁hinaus	-9.31799
▁six	-9.31871
▁Vereinigte	-9.31872
▁cross	-9.31872
▁motion	-9.31872
▁sense	-9.31873
▁Konferenz	-9.31876
▁tell	-9.31877
▁heißt	-9.31883
term	-9.31887
▁gehört	-9.31889
▁precisely	-9.31901
▁zweite	-9.31989
▁mean	-9.32129
▁Abgeordnete	-9.32271
▁V	-9.3233
▁vorgelegt	-9.32462
▁share	-9.32491
▁propose	-9.3251
▁Änderung	-9.32594
▁task	-9.32665
▁amendment	-9.32676
▁angenommen	-9.3276
▁relat	-9.32989
▁goods	-9.3301
▁request	-9.33016
▁Vertrauen	-9.33018
▁Über	-9.33176
▁hatte	-9.33417
▁increasing	-9.33558
▁results	-9.33656
▁Für	-9.33689
▁fight	-9.3369
▁Antrag	-9.33696
▁carry	-9.33697
▁fest	-9.33704
▁Vorschriften	-9.33727
▁free	-9.33742
▁promote	-9.3384
▁following	-9.3406
▁Re	-9.3418
▁öffentlichen	-9.34313
▁Behörde	-9.34353
S	-9.34426
▁vielen	-9.34539
▁instrument	-9.34553
▁wesentliche	-9.34558
▁text	-9.34581
▁doing	-9.347
▁kleine	-9.3519
▁unser	-9.3526
▁others	-9.3527
▁hatten	-9.35417
ur	-9.35437
▁wichtigen	-9.35476
▁Ergebnis	-9.35519
caution	-9.35542
▁society	-9.35552
▁berücksichtigt	-9.35556
▁quality	-9.35582
▁Sitzung	-9.35582
▁management	-9.35595
▁implemented	-9.35695
▁Doch	-9.35703
▁currently	-9.35712
▁vertreten	-9.35738
▁3	-9.35795
▁solchen	-9.35819
ä	-9.35879
▁vorliegende	-9.36008
keit	-9.36142
▁non	-9.36532
▁Programms	-9.36692
▁Möglichkeiten	-9.36799
▁speak	-9.36821
▁term	-9.36936
▁bisher	-9.37085
▁show	-9.37119
assen	-9.37264
▁würden	-9.37295
▁private	-9.37428
▁Notwendigkeit	-9.37428
▁fördern	-9.37428
▁tatsächlich	-9.37429
▁recycling	-9.37452
▁III	-9.37457
▁approved	-9.37535
▁true	-9.37576
▁bitte	-9.37576
▁statt	-9.37615
▁act	-9.3766
▁Verfahren	-9.37918
▁Gebieten	-9.37957
▁Erfolg	-9.37985
▁wenig	-9.38234
▁relation	-9.38346
▁consideration	-9.38361
▁einfach	-9.38409
▁größere	-9.38663
▁close	-9.39085
▁liebe	-9.39139
▁improve	-9.39178
▁prüfen	-9.39351
▁technical	-9.39352
▁enthalten	-9.39353
▁assistance	-9.3938
▁Auto	-9.39394
▁oft	-9.39509
▁funding	-9.39593
▁mein	-9.39798
pite	-9.39815
▁party	-9.3987
▁recht	-9.39953
▁strong	-9.40019
▁Ergebnisse	-9.40032
▁begrüße	-9.401
▁guarantee	-9.40139
▁population	-9.40252
▁individual	-9.40266
▁project	-9.40294
▁discussion	-9.40298
▁weiteren	-9.40491
▁t	-9.4053
ußerdem	-9.40569
▁Behörden	-9.40625
ment	-9.4066
▁jeden	-9.40761
ierung	-9.40803
H	-9.40809
▁pro	-9.40864
▁Haus	-9.40935
▁13	-9.4108
▁short	-9.41161
▁liegen	-9.41215
▁wichtigste	-9.41249
▁Kinnock	-9.41312
▁activities	-9.41312
▁Durchführung	-9.41313
▁gleichzeitig	-9.41316
▁Regionalpolitik	-9.41332
▁integration	-9.41341
▁getan	-9.41347
▁Um	-9.41369
▁pleased	-9.41383
▁gar	-9.41396
▁provided	-9.41663
▁balance	-9.41708
▁voted	-9.4176
▁kurz	-9.41806
▁stand	-9.41822
▁asked	-9.41861
▁nu	-9.42021
▁erreicht	-9.42194
▁represent	-9.4221
▁f	-9.42508
▁50	-9.42539
▁Entscheidungen	-9.42773
coming	-9.42789
spräsident	-9.42869
▁per	-9.42904
▁voll	-9.42917
▁25	-9.43108
▁w	-9.43232
▁markets	-9.43312
▁Government	-9.43312
▁Vorsorgeprinzip	-9.43312
▁keep	-9.43312
▁Gegen	-9.43313
▁Integration	-9.43314
▁priority	-9.43317
▁Ausrichtung	-9.43335
▁findet	-9.43367
io	-9.43493
▁eben	-9.43527
▁Frieden	-9.43575
▁representatives	-9.4376
ttbewerbspolitik	-9.43837
▁pay	-9.43918
▁Bürgern	-9.44066
▁Vertreter	-9.44104
▁manufacturers	-9.44138
▁hätte	-9.44141
▁comments	-9.44158
▁Fund	-9.44345
▁item	-9.44606
▁14	-9.44613
▁Diskussion	-9.44634
ie	-9.44803
ischen	-9.4493
▁20	-9.45131
▁recent	-9.45222
▁success	-9.45345
▁Schroedter	-9.45353
▁Thank	-9.45353
▁hinweisen	-9.45353
▁lediglich	-9.45353
▁practical	-9.45353
▁solidarity	-9.45353
▁tomorrow	-9.45353
▁festgelegt	-9.45354
▁Herausforderung	-9.45359
▁bleiben	-9.45379
▁Verträge	-9.45386
▁Regional	-9.45419
▁prepared	-9.45464
▁Mitglieder	-9.45526
▁included	-9.45591
▁soon	-9.45687
▁let	-9.45776
is	-9.46171
ness	-9.46173
▁Anfrage	-9.46202
▁thing	-9.46641
▁Antwort	-9.46704
▁accord	-9.46781
▁establish	-9.46853
clear	-9.46886
▁Aufgaben	-9.46911
▁costs	-9.46948
▁seen	-9.47203
▁bestehen	-9.47235
gen	-9.47237
▁begin	-9.47406
as	-9.47411
▁Patten	-9.47436
▁Zunächst	-9.47436
▁liability	-9.47436
▁Frankreich	-9.47436
▁crucial	-9.47438
▁kulturelle	-9.47441
▁Zeitraum	-9.47442
▁Zeitpunkt	-9.47452
▁carrie	-9.47464
▁old	-9.4748
sfähigkeit	-9.47512
▁Firstly	-9.47567
▁global	-9.4791
▁creat	-9.47912
▁Ihrer	-9.48165
id	-9.48177
▁derzeit	-9.48308
most	-9.48358
▁Strategie	-9.48418
▁operation	-9.48429
▁contribution	-9.48528
▁stellt	-9.48539
▁line	-9.4855
▁regulation	-9.48564
▁Viele	-9.48813
▁Verbesserung	-9.48817
▁reasons	-9.48932
M	-9.49006
▁states	-9.4902
▁needed	-9.49228
▁gegenwärtig	-9.49254
▁Tat	-9.49374
▁First	-9.4943
▁equal	-9.49461
▁Justiz	-9.49556
▁Justice	-9.49564
▁erinnern	-9.49564
▁perhaps	-9.49564
▁heutige	-9.49564
▁Verfügung	-9.49569
▁Einführung	-9.49575
▁fordern	-9.49577
▁quickly	-9.4958
▁Prozeß	-9.4958
▁oil	-9.49586
▁macht	-9.49592
▁above	-9.49604
▁weiterhin	-9.49611
▁Bedingungen	-9.49663
ör	-9.49688
▁Punkte	-9.49768
▁internationale	-9.49782
▁either	-9.49803
▁derartige	-9.49854
▁Finanz	-9.49876
▁vergangene	-9.5002
▁12	-9.50034
▁lange	-9.50088
▁Sache	-9.50094
Arbeitslosigkeit	-9.50142
ant	-9.50306
▁He	-9.50513
▁doubt	-9.50622
▁al	-9.50667
▁begrüßen	-9.50896
▁stress	-9.5107
▁4	-9.51284
▁schnell	-9.51465
wirtschaft	-9.5164
▁business	-9.51673
▁Transport	-9.51736
▁Vergangenheit	-9.51738
▁Theato	-9.51738
▁entschieden	-9.51738
▁hingewiesen	-9.51739
▁research	-9.51739
▁Portugal	-9.51744
▁sogar	-9.51751
▁Sicht	-9.51757
▁Verordnung	-9.5176
▁Secondly	-9.51763
▁hard	-9.51813
▁entsprechend	-9.51967
▁Absicht	-9.51982
▁schließlich	-9.5202
ist	-9.52249
▁draw	-9.52284
▁erster	-9.5234
▁presented	-9.52465
▁follow	-9.52468
▁To	-9.52558
▁demand	-9.526
▁answer	-9.52651
▁stärker	-9.52711
▁bessere	-9.52721
▁portugiesische	-9.52747
▁step	-9.52831
▁Binnenmarkt	-9.52848
▁entscheidende	-9.52849
▁application	-9.52855
▁portugiesischen	-9.52938
▁hätten	-9.53047
▁Dokument	-9.53242
▁weit	-9.53583
▁ex	-9.5385
▁changes	-9.53856
▁Agenda	-9.5396
▁leisten	-9.5396
▁berücksichtigen	-9.5396
▁opportunities	-9.5396
▁Vermittlung	-9.53961
▁ermöglichen	-9.53963
▁excellent	-9.53964
▁angesprochen	-9.53971
▁leider	-9.53977
▁Let	-9.53981
▁businesses	-9.54032
▁bewußt	-9.54033
▁tabled	-9.54048
▁raised	-9.54079
▁received	-9.54084
▁Zweitens	-9.54088
▁Regierungen	-9.54109
▁Hinsicht	-9.54158
▁Grenzen	-9.54354
erstatterin	-9.54366
▁Informationen	-9.5438
ful	-9.54395
▁Ihr	-9.54421
▁plan	-9.54682
ting	-9.54826
▁Änderungen	-9.54835
▁Zahl	-9.54875
v	-9.55015
▁provision	-9.55137
▁sagte	-9.55159
▁Seite	-9.55161
▁crime	-9.55166
▁commitment	-9.55198
▁conclusion	-9.55205
▁Of	-9.55225
▁list	-9.55309
▁vorgeschlagen	-9.55312
sprozeß	-9.55639
▁Ge	-9.55824
▁sever	-9.55975
▁expect	-9.56009
▁H	-9.56211
▁1996	-9.56233
▁Reihe	-9.56233
▁extent	-9.56233
▁ago	-9.56233
▁priorities	-9.56234
▁unterstützt	-9.56234
▁strategic	-9.56236
▁East	-9.56238
▁Währung	-9.56239
▁absolutely	-9.56275
▁turn	-9.56292
▁Bestimmungen	-9.56306
▁endlich	-9.56343
▁monitoring	-9.56403
▁Rede	-9.56445
.)	-9.56549
▁Dienstleistung	-9.56627
▁gerecht	-9.56851
▁colleagues	-9.56934
▁gleich	-9.56988
▁Autos	-9.57445
▁Berichts	-9.57617
▁Gelegenheit	-9.57778
ers	-9.57791
▁implement	-9.57897
em	-9.5793
▁Verkehr	-9.58017
▁könnten	-9.58403
▁2000-2006	-9.58558
▁Abschließend	-9.58558
▁Helsinki	-9.58558
▁Zustimmung	-9.58558
▁erneut	-9.58558
▁Solidarität	-9.58558
▁durchgeführt	-9.58562
▁unacceptable	-9.5857
▁stage	-9.58575
▁nature	-9.58592
▁him	-9.58612
▁due	-9.58641
▁agreements	-9.58645
▁independent	-9.5873
▁Abgeordneter	-9.58832
▁Sinne	-9.58884
▁considered	-9.59261
▁firstly	-9.5928
▁Monaten	-9.59574
▁Haushalts	-9.59588
▁Arbeitnehmer	-9.59686
▁Arbeitsplätze	-9.59719
w	-9.59798
▁movement	-9.59879
▁practice	-9.59881
▁exchange	-9.59924
▁bitten	-9.60064
▁Tätigkeit	-9.60203
nish	-9.60221
less	-9.60325
border	-9.60437
▁Geld	-9.6052
nahme	-9.60726
▁Werte	-9.60809
▁Organe	-9.60871
▁Barnier	-9.60939
▁Objective	-9.60939
▁September	-9.60939
▁currency	-9.60939
▁verhindern	-9.60939
▁response	-9.6094
▁participation	-9.6094
▁sorgen	-9.60941
▁never	-9.60942
▁gefordert	-9.60943
▁planning	-9.60945
▁specifically	-9.60947
▁Grundsatz	-9.60951
▁move	-9.60952
▁geführt	-9.60974
▁Instrument	-9.60986
▁light	-9.60993
▁fraud	-9.60994
▁limited	-9.61067
▁affected	-9.61095
▁reached	-9.61095
▁wishes	-9.61103
▁established	-9.61162
▁gleiche	-9.61254
▁Angelegenheiten	-9.61548
▁coming	-9.6166
▁Do	-9.61714
▁Langen	-9.61722
▁saying	-9.6178
▁congratulate	-9.62108
▁Katastrophe	-9.62153
▁Initiativen	-9.62184
▁Gerichtshof	-9.62304
▁field	-9.62316
▁week	-9.62347
▁job	-9.62357
▁comment	-9.62357
til	-9.62648
life	-9.62886
))	-9.62894
ag	-9.63047
of	-9.63057
▁central	-9.63182
▁final	-9.63242
▁raise	-9.63249
▁künftig	-9.63306
▁behind	-9.63355
▁basic	-9.63377
▁Diskriminierung	-9.63378
▁Policy	-9.63378
▁Treaties	-9.63378
▁analysis	-9.63378
▁criteria	-9.63378
▁dialogue	-9.63378
▁discharge	-9.63378
▁Entlastung	-9.63378
▁Voraussetzung	-9.63378
▁judicial	-9.63378
▁When	-9.63379
▁Europol	-9.63379
▁health	-9.6338
▁beitragen	-9.63391
▁throughout	-9.63391
▁vergessen	-9.63395
▁Prüfung	-9.63405
▁discrimination	-9.63413
▁outside	-9.6342
▁workers	-9.63438
▁sustainabl	-9.63487
ought	-9.63531
▁increased	-9.63642
ability	-9.63762
▁implementing	-9.63851
▁Aspekte	-9.64161
▁stark	-9.64777
▁französische	-9.64829
▁solution	-9.6484
▁manufacturer	-9.64919
▁broad	-9.65098
▁ihn	-9.65176
▁Tag	-9.65347
svorschriften	-9.65352
­	-9.65356
▁meet	-9.65565
▁Reformen	-9.65624
▁she	-9.65829
▁Ausbildung	-9.65859
▁Social	-9.65866
▁spirit	-9.65877
▁Dimension	-9.65878
▁Public	-9.65878
▁Schlußfolgerung	-9.65878
▁Wogau	-9.65878
▁applied	-9.65878
▁Bemühungen	-9.6588
▁connection	-9.65884
▁try	-9.65885
▁Absatz	-9.65888
▁urge	-9.65891
▁e	-9.65897
▁entwickeln	-9.65898
▁creation	-9.65913
▁Nationen	-9.65918
▁einzige	-9.65926
▁Menschenrechte	-9.65927
▁schwer	-9.66048
▁fall	-9.66092
▁lokalen	-9.66575
heit	-9.66695
▁allgemeinen	-9.6694
▁intend	-9.66961
▁neuer	-9.66973
▁plans	-9.67029
▁Woche	-9.67219
▁structure	-9.67266
ory	-9.67333
▁fear	-9.6734
▁reference	-9.67391
▁live	-9.67396
▁effects	-9.67471
▁value	-9.67475
▁reports	-9.6763
up	-9.6763
ü	-9.67766
bedingt	-9.67874
ig	-9.68022
▁Tibet	-9.68071
▁führt	-9.68195
smitglied	-9.68203
▁extend	-9.68244
▁focus	-9.68261
schaft	-9.68278
▁sectors	-9.68323
▁strengthen	-9.68364
▁Rück	-9.68396
▁protect	-9.68419
mindest	-9.68441
▁Beginn	-9.68442
▁FPÖ	-9.68442
▁Plenum	-9.68442
▁Question	-9.68442
▁entwickelt	-9.68442
▁Palacio	-9.68442
▁maritime	-9.68443
▁honour	-9.68443
▁Erstens	-9.68447
▁medium	-9.68448
▁Therefore	-9.68449
▁Richtung	-9.68451
▁Schwierigkeiten	-9.68453
▁Landwirtschaft	-9.68461
▁Brussels	-9.68462
▁difficulties	-9.68462
▁läßt	-9.68475
▁durchaus	-9.68495
▁neu	-9.68503
▁Ausführungen	-9.68507
▁möglichst	-9.6855
▁fair	-9.6857
▁Bereiche	-9.6874
▁allein	-9.68743
ieren	-9.68846
▁mere	-9.68859
▁verstehen	-9.6891
▁International	-9.68986
▁One	-9.69075
to	-9.69094
▁Unsere	-9.691
▁date	-9.69217
▁dis	-9.69762
▁freue	-9.69843
▁wesentlich	-9.69857
ß	-9.6989
▁Fahrzeuge	-9.69951
▁cause	-9.69953
▁delay	-9.69999
▁benefit	-9.70143
▁powers	-9.70153
▁Entwurf	-9.70233
▁Schiffe	-9.70483
ungen	-9.70517
recht	-9.70563
▁home	-9.70793
▁Unter	-9.7084
▁Hand	-9.71065
▁Natürlich	-9.71074
▁Turkey	-9.71074
▁crisis	-9.71074
▁scientifi	-9.71074
▁Ireland	-9.71074
▁Indeed	-9.71074
▁Fischerei	-9.7108
▁Schengen	-9.71081
▁Haltung	-9.71082
▁scope	-9.71091
▁code	-9.71094
▁Brüssel	-9.71094
▁possibility	-9.71103
▁gebracht	-9.71114
▁Nur	-9.71123
▁myself	-9.71129
▁namely	-9.71151
▁geschlossen	-9.71159
▁Beziehungen	-9.71178
▁required	-9.71207
▁Ort	-9.7122
▁ever	-9.71226
▁11	-9.71293
▁ziehen	-9.71309
▁weg	-9.71425
▁achieved	-9.7152
▁Prioritäten	-9.7154
▁stated	-9.71677
▁Leben	-9.71911
▁zweiten	-9.71928
ave	-9.72031
▁regionale	-9.72135
▁Kollege	-9.72575
▁content	-9.72665
▁strand	-9.72703
▁betroffen	-9.72733
▁innovative	-9.72915
▁nor	-9.72978
▁Forderung	-9.73064
▁card	-9.73078
▁produce	-9.73079
ial	-9.73083
▁eingehen	-9.73616
satz	-9.73672
▁found	-9.73741
▁damage	-9.73759
haupt	-9.73771
▁poor	-9.73777
▁Florenz	-9.73777
▁Koordinierung	-9.73777
▁bodies	-9.73777
▁explain	-9.73777
▁gewährleisten	-9.73777
▁themselves	-9.73777
▁verbunden	-9.73777
▁steel	-9.73777
▁Bedenken	-9.73779
▁Verwendung	-9.73782
sausschuß	-9.73797
▁assessment	-9.73799
▁leben	-9.73803
▁gern	-9.73813
▁Ansatz	-9.7382
▁parties	-9.73827
▁fishing	-9.73881
▁affairs	-9.74018
▁hinter	-9.74022
▁Inhalt	-9.74109
▁erwarten	-9.74137
▁officials	-9.74273
zeit	-9.74307
nt	-9.74348
▁establishing	-9.74364
▁stimmen	-9.74575
▁30	-9.74589
▁Gründen	-9.74669
sverfahren	-9.74697
ter	-9.74723
▁mehrere	-9.74938
▁technische	-9.74987
▁beschlossen	-9.7501
▁arbeiten	-9.75124
▁treffen	-9.75248
▁challenge	-9.75383
▁require	-9.75391
▁documents	-9.75417
▁sage	-9.75439
ian	-9.75551
it	-9.75581
▁reforms	-9.75721
▁Fortschritte	-9.75737
▁Wahl	-9.75756
▁Gesellschaft	-9.75827
ate	-9.75835
▁Angelegenheit	-9.75848
▁using	-9.75982
▁fast	-9.76389
by	-9.7651
▁Wer	-9.76541
▁left	-9.76554
▁Fonds	-9.76554
▁November	-9.76554
▁Zweifel	-9.76554
▁compromise	-9.76554
▁geäußert	-9.76554
▁living	-9.76554
▁relevant	-9.76554
▁scheint	-9.76554
▁administrative	-9.76555
▁subsidiarity	-9.76555
▁verehrte	-9.76555
▁Macht	-9.76556
▁Report	-9.76557
▁Uhr	-9.76558
▁finance	-9.76562
▁Prinzip	-9.76572
▁gesprochen	-9.76576
▁übernehmen	-9.76577
▁potential	-9.76596
▁politics	-9.76599
▁Rights	-9.76628
▁folgt	-9.76652
▁gehören	-9.76676
▁completely	-9.76677
▁Nun	-9.7675
▁unternehmen	-9.76767
▁seriously	-9.76886
▁design	-9.7706
▁organisations	-9.77095
▁Denn	-9.77299
ische	-9.77365
▁politisch	-9.77664
▁Energie	-9.78086
▁tasks	-9.78153
▁danke	-9.78315
stand	-9.78338
▁consumer	-9.78379
▁etwa	-9.78395
▁procedures	-9.78473
▁views	-9.78629
▁R	-9.78972
▁se	-9.79138
▁successful	-9.79284
▁subjects	-9.79342
▁offen	-9.7936
over	-9.79383
▁Recycling	-9.7941
▁Jonckheer	-9.79412
▁Untersuchung	-9.79412
▁asylum	-9.79412
▁conference	-9.79412
▁yesterday	-9.79412
▁Subsidiarität	-9.79412
▁bleibt	-9.79412
▁efficiency	-9.79412
▁held	-9.79412
▁community	-9.79412
▁Globalisierung	-9.7942
▁everyone	-9.79421
▁integrated	-9.79496
▁akzeptieren	-9.79501
▁ergreifen	-9.7952
▁genommen	-9.79523
▁decided	-9.79532
▁away	-9.79575
▁members	-9.79697
▁Commissioners	-9.79871
▁sea	-9.79981
▁Regelungen	-9.80001
▁wor	-9.80056
▁k	-9.80309
gleich	-9.80531
ro	-9.80677
▁conclusions	-9.80723
▁note	-9.80764
hin	-9.80772
▁forth	-9.8078
▁relations	-9.80969
▁9	-9.81059
▁total	-9.81105
▁recognise	-9.81184
▁road	-9.81295
▁contain	-9.81319
▁offer	-9.81418
▁thought	-9.81533
▁inter	-9.81549
ok	-9.81586
▁zusammen	-9.81734
5	-9.81907
▁event	-9.82059
▁repeat	-9.82155
▁affect	-9.82159
00	-9.82288
▁reach	-9.82327
giving	-9.82353
▁Aufmerksamkeit	-9.82353
▁Geschichte	-9.82353
▁Monti	-9.82353
▁verfügen	-9.82353
▁geehrte	-9.82353
▁everything	-9.82353
▁stets	-9.82353
▁staff	-9.82353
▁Randlage	-9.82353
▁cities	-9.82355
▁How	-9.82356
▁darstellt	-9.82356
▁establishment	-9.82365
▁Anstrengungen	-9.82365
▁overall	-9.82365
▁offensichtlich	-9.82367
▁PPE	-9.82376
▁unfortunately	-9.82379
▁reality	-9.82393
▁voting	-9.82401
▁Heu	-9.82435
▁dringend	-9.82456
▁Koch	-9.82461
▁along	-9.82477
▁heart	-9.8248
▁reduce	-9.82521
▁goes	-9.82544
▁according	-9.82846
▁speakers	-9.82874
▁gemäß	-9.82898
▁Fraktionen	-9.82904
and	-9.82928
▁Grunde	-9.83134
▁read	-9.83254
lbstverständlich	-9.83336
▁sechs	-9.83401
igkeit	-9.83525
▁nachhaltige	-9.83603
C	-9.83679
▁provisions	-9.83705
erlich	-9.83726
▁discussions	-9.83925
▁Vo	-9.83961
mals	-9.84085
▁grundlegende	-9.841
▁Grundsätze	-9.84134
▁letzte	-9.84159
▁strategische	-9.84198
▁disasters	-9.84237
▁Dialog	-9.84274
▁renewable	-9.84295
▁partnership	-9.84332
▁rule	-9.84369
▁levels	-9.84809
making	-9.84885
ver	-9.84953
▁border	-9.84993
ität	-9.85043
▁Industrie	-9.8506
▁complete	-9.85137
▁Kenntnis	-9.85163
▁significant	-9.85245
▁zuständig	-9.8526
▁Gesetzgebung	-9.85364
▁regret	-9.85366
▁civil	-9.8537
▁Effizienz	-9.85383
▁Nevertheless	-9.85383
▁getroffen	-9.85383
▁huge	-9.85383
▁verantwortlich	-9.85383
▁highlight	-9.85385
▁growth	-9.85386
▁Abschluß	-9.85386
▁Mitarbeiter	-9.85387
▁parliamentary	-9.854
▁Bewertung	-9.85404
▁Beteilig	-9.85404
▁lot	-9.85405
▁Einsatz	-9.8542
▁Zugang	-9.85421
▁nimmt	-9.85438
▁aufgenommen	-9.8546
▁low	-9.8547
▁referred	-9.85483
▁somit	-9.85495
▁heard	-9.85511
▁body	-9.85562
▁recently	-9.85583
▁umgesetzt	-9.85609
▁Veränderungen	-9.85621
▁similar	-9.85646
▁einheitliche	-9.85715
▁Protokoll	-9.85805
aus	-9.85995
▁created	-9.86002
lichen	-9.86049
ng	-9.86232
▁80	-9.86333
▁borders	-9.86423
▁relate	-9.8648
▁Struktur	-9.86503
▁außerdem	-9.86559
▁betreffend	-9.86607
▁starke	-9.86739
▁jene	-9.87059
▁grant	-9.87241
▁stehende	-9.87301
▁contribute	-9.87394
8	-9.87445
▁days	-9.87735
▁Mal	-9.87759
▁discuss	-9.87838
▁Gericht	-9.88002
▁enable	-9.88028
politischen	-9.8821
▁Sozialdemokrat	-9.88245
▁maintain	-9.88311
auf	-9.88349
▁correct	-9.8837
▁encourage	-9.88373
side	-9.88398
▁Redner	-9.88508
▁Since	-9.88508
▁Türkei	-9.88508
▁Kompromiß	-9.88508
▁defend	-9.88508
▁succeed	-9.88508
▁Überwachung	-9.88508
sized	-9.88508
▁rasch	-9.88508
▁meisten	-9.88509
▁globalisation	-9.88514
▁gestimmt	-9.88517
▁anti	-9.88527
▁direction	-9.88529
▁dadurch	-9.88533
▁Irland	-9.88564
▁eingesetzt	-9.88571
▁victims	-9.88591
▁obviously	-9.886
▁behandelt	-9.88605
▁setting	-9.88613
▁experts	-9.88624
▁caused	-9.887
▁granted	-9.88704
▁schlage	-9.88711
▁closed	-9.88723
▁18	-9.88791
▁Kraft	-9.88823
▁agreed	-9.88899
▁17	-9.88997
▁Beschäftigungs	-9.89091
▁bestehende	-9.891
folge	-9.89349
▁absolut	-9.89515
tion	-9.89619
spräsidentschaft	-9.89853
▁steps	-9.89982
▁refer	-9.90452
▁office	-9.9067
▁aspect	-9.90703
▁intention	-9.90747
schaftlichen	-9.90904
▁erfolgreich	-9.90931
Office	-9.91223
▁Hause	-9.91224
Steuer	-9.91235
▁Sinn	-9.91284
▁Some	-9.91469
▁Richtlinien	-9.91502
▁avoid	-9.91526
▁Februar	-9.91587
▁urgent	-9.91597
▁sufficient	-9.91605
▁besten	-9.91635
▁speech	-9.91664
▁Internet	-9.91734
▁McCarthy	-9.91734
▁entspricht	-9.91734
▁geworden	-9.91734
▁konzentrieren	-9.91734
▁message	-9.91734
▁Linie	-9.91734
▁Welche	-9.91734
▁ambitious	-9.91734
▁external	-9.91734
▁beyond	-9.91734
▁minimum	-9.91735
▁remember	-9.91736
▁Rule	-9.91737
▁stability	-9.91738
▁coordination	-9.91739
▁flexibility	-9.91743
▁beginnen	-9.9176
▁Annahme	-9.91764
▁construction	-9.91775
▁thus	-9.91776
▁circumstances	-9.91786
▁feststellen	-9.91795
▁improvement	-9.91804
▁befinden	-9.91825
▁warum	-9.9187
▁elections	-9.91887
▁Landes	-9.91931
▁discussed	-9.91936
▁refugees	-9.91955
self	-9.92019
setzung	-9.92089
▁Not	-9.92124
shalb	-9.92163
▁grounds	-9.92432
▁achten	-9.92456
▁Unterschiede	-9.92563
▁ganze	-9.92618
▁spezielle	-9.92703
▁events	-9.92878
▁Falle	-9.92968
▁fragen	-9.92992
▁word	-9.93057
rseits	-9.93072
so	-9.9308
▁je	-9.93256
us	-9.93676
▁supported	-9.93744
la	-9.93817
▁konnte	-9.93845
▁measure	-9.93906
▁Aspekt	-9.94003
und	-9.94009
▁hoffen	-9.94024
▁colleague	-9.94042
▁effort	-9.94046
D	-9.94297
ud	-9.94461
behörde	-9.94502
Das	-9.9458
▁flexible	-9.94843
▁systems	-9.94981
▁active	-9.94987
▁trotz	-9.95057
▁Vitorino	-9.95067
▁zeigt	-9.95067
▁ensuring	-9.95068
▁anything	-9.95068
▁Anerkennung	-9.95069
▁knowledge	-9.9507
▁eligible	-9.9507
▁safeguard	-9.9507
▁presidency	-9.9507
▁probably	-9.95075
▁Bestandteil	-9.95076
▁British	-9.95077
▁comprehensive	-9.95077
▁production	-9.95085
▁verbessern	-9.95091
▁gab	-9.95103
▁helfen	-9.95113
▁reasonable	-9.95117
▁cut	-9.95133
FR	-9.95147
▁sort	-9.95158
▁ständig	-9.95199
▁diejenigen	-9.95213
▁February	-9.95229
▁seek	-9.95239
▁wer	-9.95239
▁länger	-9.95243
▁Kontrollen	-9.95244
▁receive	-9.95264
▁Osten	-9.95308
▁8	-9.95419
▁...	-9.95423
▁discussing	-9.95551
▁kommende	-9.95764
▁aspects	-9.96144
▁40	-9.9627
▁concentrate	-9.96344
▁einiger	-9.96389
▁vorgeschlagene	-9.96456
▁Haushalt	-9.96611
▁Text	-9.96637
▁allgemein	-9.9677
▁happen	-9.96831
▁nochmal	-9.96835
▁Sorge	-9.97333
▁sitting	-9.97386
▁Monate	-9.9743
▁Schritt	-9.97432
▁water	-9.97474
▁Balkan	-9.97476
ri	-9.97568
ir	-9.97614
li	-9.97805
▁Regelung	-9.97827
▁ausreichend	-9.97944
▁Ministers	-9.98005
hand	-9.98008
▁build	-9.98065
▁Politiken	-9.98105
▁involve	-9.98377
stellung	-9.98478
▁Zusammen	-9.98505
▁Dänemark	-9.98515
▁Opfer	-9.98515
▁People	-9.98515
▁verpflichtet	-9.98515
▁ändern	-9.98515
▁Normen	-9.98516
▁committed	-9.98518
▁vielmehr	-9.98518
▁häufig	-9.98525
▁elected	-9.98533
▁eingebracht	-9.98534
▁Eindruck	-9.98539
▁dimension	-9.98542
Geschäftsordnung	-9.98561
▁eingegangen	-9.98574
beziehung	-9.98586
▁late	-9.9861
▁useful	-9.9866
▁enter	-9.98675
▁Entwicklungs	-9.98702
▁finally	-9.98707
▁jedes	-9.98789
▁properly	-9.98801
▁betonen	-9.98841
▁bekommen	-9.98873
▁effectively	-9.98891
▁consequences	-9.98898
▁Empfehlungen	-9.98904
▁Verpflichtungen	-9.98929
▁led	-9.98942
▁accepted	-9.99019
▁z	-9.9907
il	-9.991
▁Finanzierung	-9.99145
▁erklärt	-9.99422
▁gesetzt	-9.99451
▁sound	-9.9972
gestern	-9.99857
falls	-9.99942
▁Verein	-10.0015
igen	-10.0018
▁looking	-10.002
▁Arbeitsplätzen	-10.0032
lichkeit	-10.0038
▁drawn	-10.0046
▁Stimme	-10.0048
▁relative	-10.0058
▁fund	-10.0058
▁Völker	-10.0079
▁wide	-10.008
▁directives	-10.0087
▁billion	-10.0096
sehen	-10.0099
▁model	-10.0101
▁erwähnt	-10.0101
land	-10.0107
▁Wert	-10.0107
▁Unser	-10.0127
▁Position	-10.0133
ard	-10.0134
co	-10.0136
▁bestimmten	-10.0138
mittel	-10.0154
▁Worte	-10.0156
rought	-10.0156
B	-10.0157
0	-10.0166
ll	-10.0184
▁confirm	-10.0189
▁cover	-10.0193
▁German	-10.0194
▁gewisse	-10.0194
▁entire	-10.0195
▁join	-10.0196
▁Tourism	-10.0208
▁Midd	-10.0209
▁Seattle	-10.0209
▁Syrien	-10.0209
▁Wunsch	-10.0209
▁ausdrücklich	-10.0209
▁diskutieren	-10.0209
▁impact	-10.0209
▁remote	-10.0209
▁According	-10.0209
▁deutsche	-10.0209
▁fellow	-10.0209
▁genug	-10.0209
▁Denmark	-10.0209
▁return	-10.0209
▁competitiveness	-10.0209
▁wrong	-10.021
▁Kern	-10.021
▁gewesen	-10.021
▁Übereinkommen	-10.021
▁vorzulegen	-10.021
▁equality	-10.0211
▁Finanzkontrolle	-10.0211
▁conciliation	-10.0211
▁unterschiedlich	-10.0212
▁submitted	-10.0215
▁approval	-10.0215
▁Nations	-10.0217
▁Milliarden	-10.022
▁geschaffen	-10.0221
▁scale	-10.0223
▁Regeln	-10.0224
▁approve	-10.0225
▁Maße	-10.0227
▁bedarf	-10.0231
▁Präsidenten	-10.0233
▁erklären	-10.0234
▁limit	-10.0251
out	-10.0253
▁normal	-10.0263
▁Erfahrungen	-10.0278
▁Des	-10.0282
at	-10.0295
▁Forschung	-10.031
▁thanks	-10.0319
▁instruments	-10.0413
bedingungen	-10.0414
▁weltweit	-10.0431
▁asking	-10.0446
▁Gründe	-10.0457
▁Lange	-10.0458
▁größte	-10.0458
▁Maßnahme	-10.0459
▁geleistet	-10.0464
▁Nicht	-10.0467
▁transnational	-10.0485
▁derzeitige	-10.0488
▁Zuständigkeit	-10.0507
▁Erfahrung	-10.0508
▁hear	-10.0513
Fraktion	-10.0529
tended	-10.0545
▁Nah	-10.0552
▁Ob	-10.0562
▁Einzel	-10.0565
▁conclude	-10.0566
▁dienen	-10.0577
▁Einfluß	-10.0578
▁Furthermore	-10.0579
▁Kritik	-10.0579
▁Prosecutor	-10.0579
▁Qualität	-10.0579
▁Schließlich	-10.0579
▁Widerspruch	-10.0579
▁applies	-10.0579
▁contrary	-10.0579
▁improving	-10.0579
▁instead	-10.0579
▁direkt	-10.0579
▁braucht	-10.0579
▁vital	-10.0579
▁1994	-10.0579
volving	-10.0579
▁erfüllen	-10.0579
▁Moment	-10.0579
▁Fremdenverkehr	-10.0579
▁exclusion	-10.0579
▁Grundrechte	-10.0579
▁Verbindung	-10.0579
▁Costa	-10.058
▁Information	-10.058
▁100	-10.0583
▁carefully	-10.0585
▁hoch	-10.0585
▁immediately	-10.0585
▁vorlegen	-10.0586
▁activity	-10.0586
▁Neu	-10.0588
▁Ressourcen	-10.0591
▁jeweiligen	-10.0591
▁Personen	-10.0597
▁beteiligt	-10.0597
fern	-10.0617
▁addressed	-10.0621
▁Bemerkungen	-10.0632
▁reading	-10.0634
▁building	-10.0639
▁Socialists	-10.0664
▁rightly	-10.0675
▁anderer	-10.0685
▁Folgen	-10.0688
▁Stellen	-10.0689
▁Hauses	-10.0711
2	-10.0715
▁konnten	-10.0717
▁Gleichstellung	-10.0737
▁factor	-10.0737
▁emphasise	-10.0748
fach	-10.0749
▁Projekt	-10.0751
▁half	-10.0751
▁Erklärungen	-10.0754
▁emphasis	-10.0757
maßnahmen	-10.0787
▁send	-10.0788
▁aims	-10.0811
▁ökologische	-10.0814
▁Staat	-10.082
▁Chance	-10.083
▁detail	-10.0839
▁Dinge	-10.0839
me	-10.0845
▁paragraph	-10.0855
▁Informations	-10.0858
▁Raums	-10.0859
los	-10.086
▁purpose	-10.0862
▁fulfil	-10.0864
▁Schritte	-10.0867
▁pa	-10.0876
▁entgegen	-10.0878
▁risks	-10.0891
▁ban	-10.0895
schließlich	-10.0905
▁zentrale	-10.0914
The	-10.0914
▁Natur	-10.0928
son	-10.0929
▁appear	-10.0942
▁review	-10.0944
ein	-10.0944
▁Zweck	-10.0946
▁thinking	-10.0948
▁Januar	-10.0949
▁natural	-10.0954
▁stop	-10.0956
punkt	-10.0957
▁euro	-10.0961
meinschaftlichen	-10.0962
santrag	-10.0963
▁1995	-10.0964
▁Anforderungen	-10.0964
▁Kouchner	-10.0964
▁außerordentlich	-10.0964
▁paper	-10.0964
▁proposing	-10.0964
▁science	-10.0964
▁sämtliche	-10.0964
▁diskutiert	-10.0964
▁festgestellt	-10.0964
▁Armut	-10.0964
▁sovereignty	-10.0964
▁enthält	-10.0964
▁Umfang	-10.0964
▁versuchen	-10.0964
▁obtain	-10.0964
▁beginning	-10.0965
▁britische	-10.0965
▁governance	-10.0965
▁burden	-10.0965
▁Flexibilität	-10.0965
▁earlier	-10.0966
▁manner	-10.0967
▁promotion	-10.0967
▁govern	-10.0969
DE	-10.0971
▁simple	-10.0972
▁Projekten	-10.0974
▁introduce	-10.0978
▁January	-10.0978
▁bad	-10.0981
▁detailed	-10.0983
▁covered	-10.0988
▁storms	-10.099
▁Augen	-10.0994
▁gesehen	-10.1007
ismus	-10.101
4	-10.1017
▁Vorschlägen	-10.1018
▁persönlich	-10.1018
▁Gelder	-10.102
▁waste	-10.1021
▁ships	-10.1036
▁Erst	-10.1045
▁Verkehrs	-10.1049
▁kau	-10.1062
▁Bildung	-10.1067
bar	-10.1074
▁Ratspräsident	-10.1126
un	-10.1138
▁interne	-10.114
▁Wochen	-10.1151
▁fallen	-10.1164
K	-10.1174
überschreitende	-10.1189
▁16	-10.1195
gesellschaft	-10.1209
▁klare	-10.1239
▁Budget	-10.1257
▁ideas	-10.1273
▁promot	-10.1276
fter	-10.1276
▁times	-10.1281
▁positiv	-10.1288
▁Priorität	-10.1293
▁fail	-10.1298
für	-10.1306
Beifall	-10.1312
General	-10.1313
Initiative	-10.1314
Parliament	-10.1314
▁Friedens	-10.1332
▁agricultur	-10.1333
▁Verwaltungs	-10.1338
Programm	-10.1339
▁reject	-10.134
schen	-10.1345
▁count	-10.1346
▁ecological	-10.1348
▁Städte	-10.1348
ty	-10.136
Applause	-10.1364
▁Charta	-10.1364
▁Economic	-10.1364
▁Jetzt	-10.1364
▁Modernisierung	-10.1364
▁Unfortunately	-10.1364
▁Verständnis	-10.1364
▁aufmerksam	-10.1364
▁disparities	-10.1364
▁morning	-10.1364
▁operators	-10.1364
▁outcome	-10.1364
▁poverty	-10.1364
▁study	-10.1364
▁territory	-10.1364
▁verabschiedet	-10.1364
▁vermeiden	-10.1364
▁versucht	-10.1364
▁zweifellos	-10.1364
▁Although	-10.1364
▁darstellen	-10.1364
▁Schluß	-10.1364
▁letztendlich	-10.1364
▁serve	-10.1364
▁UN	-10.1364
▁Ausgrenzung	-10.1364
▁spielen	-10.1364
▁Wales	-10.1364
▁duty	-10.1364
▁Italy	-10.1364
▁Funktionieren	-10.1364
▁Vorhaben	-10.1364
▁paid	-10.1364
▁überzeugt	-10.1365
▁Stellung	-10.1365
▁erkennen	-10.1365
▁rise	-10.1365
▁Gegenteil	-10.1365
▁enormous	-10.1365
▁mag	-10.1366
▁attitude	-10.1366
▁happy	-10.1366
▁certainty	-10.1366
▁Aufnahme	-10.1366
▁consultation	-10.1367
▁diesbezüglich	-10.1369
▁historic	-10.137
▁opposed	-10.1371
▁status	-10.1373
▁Germany	-10.138
▁beglückwünschen	-10.1386
he	-10.139
▁employees	-10.1391
▁later	-10.1391
▁introduced	-10.1393
▁sources	-10.1404
▁parliaments	-10.1413
▁genannten	-10.1413
▁men	-10.1415
directly	-10.1418
▁Alle	-10.1422
▁materials	-10.1426
ell	-10.1432
▁speaking	-10.1461
▁Wahlen	-10.1468
▁Forderungen	-10.1471
▁Straße	-10.1482
leben	-10.1487
lange	-10.1488
▁Dienst	-10.1489
▁wirtschaftlich	-10.1491
▁Einig	-10.1495
▁requires	-10.1516
▁Ro	-10.1539
▁ten	-10.1539
▁Z	-10.1548
ine	-10.1555
▁frei	-10.1556
ober	-10.1583
▁dealing	-10.1587
▁threat	-10.1597
eher	-10.1607
▁hold	-10.1624
▁zudem	-10.1627
▁Problemen	-10.1629
▁statements	-10.1629
▁innere	-10.1649
▁Güter	-10.1654
▁Idee	-10.1656
tomobilindustrie	-10.1656
▁gelten	-10.1658
▁Stelle	-10.1658
▁stimme	-10.1659
▁forces	-10.1664
▁tru	-10.1697
▁grenz	-10.1699
▁Partnerschaft	-10.1706
▁Institution	-10.171
▁Einrichtung	-10.1711
▁heraus	-10.1714
▁achiev	-10.1717
▁ent	-10.1725
▁parts	-10.1728
stitutional	-10.1729
Rechtssicherheit	-10.1732
▁nationale	-10.1735
programm	-10.174
▁negative	-10.1752
einander	-10.1754
▁Risiko	-10.1761
▁personal	-10.177
▁Fern	-10.1772
▁desire	-10.1772
erücksichtig	-10.178
parlamentarische	-10.178
▁Decourrière	-10.178
▁Delegation	-10.178
▁Dezember	-10.178
▁Souveränität	-10.178
▁concept	-10.178
▁critical	-10.178
▁genuine	-10.178
▁gestalten	-10.178
▁impression	-10.178
▁Why	-10.178
▁around	-10.178
▁coast	-10.178
▁Rapkay	-10.178
▁insgesamt	-10.178
▁verfolgen	-10.178
▁außerhalb	-10.1781
▁initial	-10.1781
▁nunmehr	-10.1781
▁capacity	-10.1781
▁Anspruch	-10.1781
▁ausgesprochen	-10.1781
▁supervision	-10.1781
▁history	-10.1781
▁USA	-10.1781
▁December	-10.1782
▁wahrscheinlich	-10.1782
rlei	-10.1782
▁24	-10.1782
▁vorschlagen	-10.1783
▁allocated	-10.1784
▁applicable	-10.1784
▁Beförderung	-10.1785
▁Erwartungen	-10.1785
▁decide	-10.1787
▁einsetzen	-10.1787
▁Durch	-10.179
▁taxation	-10.1793
▁Kriterien	-10.1794
▁Selbst	-10.18
▁betrachtet	-10.1802
▁enterprises	-10.181
▁table	-10.1812
fragen	-10.1817
▁recommendations	-10.1823
▁wiederholen	-10.1836
▁courts	-10.1854
▁spezifische	-10.1854
▁wirksame	-10.186
▁Sei	-10.1865
▁Zielen	-10.1875
ab	-10.188
▁volle	-10.1892
ily	-10.1925
▁causes	-10.1949
▁intends	-10.1953
▁weeks	-10.1961
▁commitments	-10.1975
▁National	-10.1985
▁Katastrophen	-10.1995
▁gefährliche	-10.1999
7	-10.2
▁provid	-10.2031
▁ausschließlich	-10.2068
▁wichtiger	-10.2082
▁demonstrate	-10.2094
▁firm	-10.2099
▁Liberal	-10.2109
▁unabhängige	-10.2116
▁intervention	-10.2116
ied	-10.2133
▁direct	-10.2139
▁Instanz	-10.214
▁Vereinbarung	-10.2143
▁Organisation	-10.2143
unter	-10.2144
▁Stadt	-10.2157
ien	-10.2168
▁konkret	-10.2172
▁notwendigen	-10.2173
▁Sachverständige	-10.2174
ste	-10.2185
am	-10.2189
▁ways	-10.2194
▁conduct	-10.2194
▁folgende	-10.2197
▁unabhängig	-10.2198
nsten	-10.2199
▁Umweltschutz	-10.2209
▁prior	-10.2211
▁Funktion	-10.2214
▁Handlung	-10.2215
▁ALTENER	-10.2215
▁Akteure	-10.2215
▁Chamber	-10.2215
▁Charakter	-10.2215
▁Schüssel	-10.2215
▁Stenzel	-10.2215
▁break	-10.2215
▁erinnert	-10.2215
▁examination	-10.2215
▁floor	-10.2215
▁gefördert	-10.2215
▁nonetheless	-10.2215
▁plenary	-10.2215
▁xenophobia	-10.2215
▁ÖVP	-10.2215
▁Übereinstimmung	-10.2215
▁Verlauf	-10.2215
▁amtierende	-10.2215
▁Festlegung	-10.2215
▁spent	-10.2215
▁gelungen	-10.2215
▁version	-10.2215
▁Malta	-10.2215
▁efficient	-10.2215
▁More	-10.2215
▁foreign	-10.2215
▁labour	-10.2215
▁monopolies	-10.2215
▁sogenannte	-10.2216
▁ausgewogene	-10.2216
▁Gipfel	-10.2216
▁Anfang	-10.2216
▁Vorlage	-10.2216
▁Warum	-10.2216
▁otherwise	-10.2216
talian	-10.2217
▁Mir	-10.2217
▁eingeführt	-10.2217
▁weapons	-10.2218
▁Mut	-10.2218
▁China	-10.2219
▁verwendet	-10.2219
▁aussprechen	-10.222
ö	-10.2222
▁spielt	-10.2223
▁jüngste	-10.2223
▁zugu	-10.2223
▁scoreboard	-10.2223
(	-10.2225
▁Binnenmarktes	-10.2228
▁influence	-10.2233
▁young	-10.2235
▁totally	-10.2238
▁eng	-10.2238
▁bald	-10.2239
▁Österreichs	-10.2241
▁Vorstellung	-10.2242
▁c	-10.2249
▁Aktionen	-10.2265
▁Only	-10.2267
▁legen	-10.2285
▁controls	-10.2286
▁developed	-10.2297
▁elements	-10.2312
either	-10.2327
▁interi	-10.233
early	-10.2336
eben	-10.2336
▁Folge	-10.2343
▁anderem	-10.2365
▁consumers	-10.2376
▁Leide	-10.2378
▁Dan	-10.238
▁entscheiden	-10.2391
▁Betrug	-10.2405
▁demands	-10.2424
isation	-10.2434
▁seiten	-10.2447
teil	-10.2452
▁guarantees	-10.2452
▁leave	-10.2473
▁umfassende	-10.2476
bezüglich	-10.2504
▁shown	-10.2505
▁attempt	-10.2512
▁schwierig	-10.2513
▁lokale	-10.2529
▁Syria	-10.2547
▁verschiedene	-10.2549
▁Gruppe	-10.2552
▁conflict	-10.2559
▁claim	-10.2562
▁developments	-10.2563
ever	-10.2563
▁Socialist	-10.2568
▁representative	-10.2568
ism	-10.2584
▁frage	-10.2589
▁Bank	-10.2592
ling	-10.2599
▁O	-10.2619
▁rate	-10.2641
▁sofort	-10.2645
▁transparent	-10.2645
▁await	-10.2647
▁m	-10.2648
▁Haupt	-10.2648
▁erneuerbare	-10.2648
▁condemn	-10.2649
▁wealth	-10.2654
▁adequate	-10.2655
▁obvious	-10.2656
▁run	-10.2658
▁committees	-10.2662
▁annual	-10.2664
▁wider	-10.2668
etrifft	-10.2668
leichzeitig	-10.2669
responsibilities	-10.267
skörperschaften	-10.267
▁Allerdings	-10.267
▁Auswahl	-10.267
▁Convention	-10.267
▁Donnerstag	-10.267
▁Ebenso	-10.267
▁Fundament	-10.267
▁Gewähr	-10.267
▁Märkte	-10.267
▁Papier	-10.267
▁Praxis	-10.267
▁Programmplanung	-10.267
▁Rassismus	-10.267
▁Revision	-10.267
▁Stabilität	-10.267
▁akzeptiert	-10.267
▁beschränken	-10.267
▁bevorstehende	-10.267
▁herzlich	-10.267
▁illegal	-10.267
▁italienische	-10.267
▁monetar	-10.267
▁recognition	-10.267
▁sympathy	-10.267
▁Achtung	-10.267
▁Italien	-10.267
▁across	-10.267
▁jegliche	-10.267
▁sometimes	-10.267
▁Charter	-10.267
▁coalition	-10.267
▁lösen	-10.267
▁Wohlstand	-10.267
▁fehlt	-10.267
▁Deutschland	-10.267
▁Wissenschaftler	-10.267
▁economies	-10.267
▁Reaktion	-10.267
▁chance	-10.267
▁Today	-10.267
▁reduction	-10.267
▁passiert	-10.2671
▁involvement	-10.2671
▁Aufbau	-10.2671
▁Anpassung	-10.2671
▁einverstanden	-10.2671
▁letter	-10.2671
▁sensible	-10.2672
▁gekommen	-10.2672
▁effectiveness	-10.2673
▁Waffen	-10.2673
▁verteidigen	-10.2673
▁name	-10.2673
▁bezeichnet	-10.2673
freiheit	-10.2674
▁Berger	-10.2675
▁2006	-10.2676
▁consistent	-10.2678
▁verleihen	-10.2678
▁22	-10.268
▁Einigung	-10.268
▁gender	-10.268
▁demonstrated	-10.2684
▁sensitive	-10.2685
▁Culture	-10.2688
▁original	-10.2689
▁double	-10.2689
▁Herzen	-10.2691
▁Analyse	-10.2692
▁inform	-10.2693
▁infrastructure	-10.2693
▁Gedanken	-10.2701
▁Minderheiten	-10.2711
▁erhebliche	-10.2713
▁insof	-10.2716
▁werte	-10.2723
▁participate	-10.2723
▁arguments	-10.274
▁Democrats	-10.2748
sentwurf	-10.2763
▁Monetar	-10.2802
liche	-10.2809
▁amend	-10.2814
fordere	-10.2814
halten	-10.2818
▁contains	-10.2833
▁challenges	-10.2844
▁structures	-10.2858
▁element	-10.2886
▁press	-10.2888
ry	-10.289
▁gefährlich	-10.2901
▁richtige	-10.2905
zahl	-10.2909
▁l	-10.2918
▁wenigen	-10.2929
ot	-10.2931
▁Den	-10.2934
▁co	-10.2939
▁vollständig	-10.2962
▁age	-10.2965
▁function	-10.2986
durch	-10.2986
▁talks	-10.3012
▁schwerwiegende	-10.3024
▁komme	-10.3025
▁Worten	-10.3033
▁target	-10.3037
▁Zusammenhalt	-10.3041
▁product	-10.3041
▁scheme	-10.3042
▁sagt	-10.3042
▁ground	-10.3043
lo	-10.3056
▁Vorbereitung	-10.3057
▁union	-10.3073
▁kam	-10.3074
▁reduc	-10.3076
rely	-10.308
▁learn	-10.3081
▁2000.	-10.3082
▁wären	-10.3089
▁Gerichte	-10.311
▁strict	-10.3114
▁Planung	-10.312
hilfe	-10.3126
ubject	-10.313
▁assure	-10.3131
▁examine	-10.3132
schutz	-10.3133
▁attach	-10.3139
druck	-10.314
▁Beratung	-10.3141
▁danger	-10.3144
▁assess	-10.3144
▁complex	-10.3145
▁forget	-10.3145
ohesion	-10.3145
▁Konzentration	-10.3146
▁Fremden	-10.3146
▁Anliegen	-10.3146
▁Freizügigkeit	-10.3146
▁KMU	-10.3146
▁Kampf	-10.3146
▁Kingdom	-10.3146
▁März	-10.3146
▁advice	-10.3146
▁applicant	-10.3146
▁begrüßt	-10.3146
▁century	-10.3146
▁erarbeitet	-10.3146
▁heritage	-10.3146
▁jetzige	-10.3146
▁police	-10.3146
▁respond	-10.3146
▁section	-10.3146
▁verstärken	-10.3146
▁Dennoch	-10.3146
▁geschehen	-10.3146
▁March	-10.3146
▁codecision	-10.3146
▁gelangen	-10.3146
▁Wissenschaft	-10.3146
▁pressure	-10.3146
ausstattung	-10.3146
▁echte	-10.3146
▁alone	-10.3147
▁Fro	-10.3147
▁delegation	-10.3147
▁abgeschlossen	-10.3147
barkeit	-10.3147
▁else	-10.3147
▁Ausarbeitung	-10.3148
▁Liste	-10.3149
▁übertragen	-10.3149
▁Mitentscheidung	-10.3151
▁Now	-10.3151
▁perfectly	-10.3151
▁geändert	-10.3152
▁ahead	-10.3152
▁competitive	-10.3152
▁exactly	-10.3153
▁Aktivitäten	-10.3155
▁Staatsanwalt	-10.3155
▁appropriations	-10.3159
▁considerably	-10.3159
▁transactions	-10.3159
▁farmers	-10.3159
▁managed	-10.3159
▁personally	-10.3162
▁später	-10.3163
▁vessels	-10.3164
▁Überlegungen	-10.3165
▁Bis	-10.3165
▁zustimmen	-10.3169
▁Minutes	-10.3169
▁plant	-10.3172
▁denken	-10.3173
▁Dem	-10.3173
▁improved	-10.3179
▁warten	-10.3179
▁agriculture	-10.3184
sweise	-10.3197
▁highly	-10.32
smöglichkeiten	-10.3204
▁U	-10.321
▁links	-10.3218
▁öffentliche	-10.322
gesehen	-10.3227
sbereich	-10.3229
arbeitung	-10.3246
▁Fällen	-10.3252
kommen	-10.3256
▁26	-10.3258
▁Gruppen	-10.3269
▁con	-10.3281
industrie	-10.3289
▁Miß	-10.329
KO	-10.3315
▁betroffene	-10.3334
▁historische	-10.3336
icht	-10.3338
▁solutions	-10.3349
wing	-10.336
sche	-10.339
▁höhere	-10.3392
▁einzigen	-10.3394
tic	-10.3396
▁Parteien	-10.3403
▁Programmen	-10.3414
▁ihres	-10.3418
fe	-10.3455
▁sozial	-10.3466
▁speziell	-10.3496
(1999)	-10.3497
▁Gespräche	-10.3508
▁EC	-10.351
▁Flüchtlinge	-10.3512
▁Sprache	-10.3518
statt	-10.3525
▁nächste	-10.3525
tung	-10.3543
▁criticism	-10.3548
▁Abkommen	-10.3551
▁81	-10.3562
ndererseits	-10.3571
▁goal	-10.3573
▁Bemerkung	-10.3575
▁sign	-10.3575
▁introduc	-10.3594
European	-10.3597
▁Gesamt	-10.3606
1	-10.3607
▁reflect	-10.3623
▁Sozial	-10.3625
▁deliver	-10.3626
▁Hav	-10.3628
▁Asyl	-10.3637
▁resolve	-10.3642
▁Höhe	-10.3644
▁Barak	-10.3646
▁Directive	-10.3646
▁Gerechtigkeit	-10.3646
▁Hafen	-10.3646
▁Legal	-10.3646
▁Stärkung	-10.3646
▁Stürme	-10.3646
▁Thursday	-10.3646
▁beschäftigen	-10.3646
▁bestätigen	-10.3646
▁comply	-10.3646
▁concrete	-10.3646
▁impossible	-10.3646
▁kontrolliert	-10.3646
▁nevertheless	-10.3646
▁overcome	-10.3646
▁regular	-10.3646
▁revision	-10.3646
▁stimmt	-10.3646
▁urgency	-10.3646
▁befassen	-10.3646
▁communities	-10.3646
▁Lesung	-10.3646
▁facing	-10.3646
▁hervorheben	-10.3646
▁radical	-10.3646
▁Kriminalität	-10.3646
▁exclusive	-10.3646
▁betont	-10.3646
▁excessive	-10.3646
▁Arbeitsmarkt	-10.3646
feindlichkeit	-10.3646
▁Gemeinden	-10.3646
▁verfolgt	-10.3646
▁Botschaft	-10.3647
▁Drittens	-10.3647
▁Hohe	-10.3647
▁Wasser	-10.3647
▁erzielen	-10.3647
▁Bürgerinnen	-10.3648
▁Geist	-10.3648
▁dagegen	-10.3648
▁erwähnen	-10.3649
▁Befugnisse	-10.365
▁Einwanderung	-10.365
▁Thirdly	-10.365
▁umzusetzen	-10.365
▁damals	-10.3652
▁Resolution	-10.3652
▁behandeln	-10.3653
▁zeigen	-10.3653
▁acceptable	-10.3654
▁arrangements	-10.3654
▁nutzen	-10.3656
▁published	-10.3656
▁fällt	-10.3657
▁CEN	-10.3657
▁abschließend	-10.3658
dauer	-10.3659
▁35	-10.366
▁tätig	-10.366
▁growing	-10.3661
▁Here	-10.3662
▁passed	-10.3664
▁additional	-10.3664
ative	-10.3664
▁continu	-10.3666
▁weaken	-10.3667
▁Wachstum	-10.3669
▁Nutzen	-10.3672
maßen	-10.3681
▁differences	-10.3681
▁verweisen	-10.3681
▁institution	-10.3692
▁functioning	-10.3694
▁requested	-10.3701
▁städtischen	-10.3713
▁Mitteln	-10.3714
▁formal	-10.3721
age	-10.3722
▁nationals	-10.3727
▁Einrichtungen	-10.3733
hose	-10.3735
▁Ist	-10.3741
▁placed	-10.3746
ul	-10.375
gesellschaftlich	-10.375
▁lies	-10.3753
smaßnahmen	-10.3765
▁Liberalen	-10.3771
▁interesting	-10.378
nach	-10.3783
ind	-10.3791
▁Balkans	-10.38
▁port	-10.3808
I	-10.3821
▁Arbeits	-10.3824
▁schwierigen	-10.3825
▁Gesundheit	-10.3838
▁19	-10.3857
▁Lösungen	-10.3864
ige	-10.3883
▁freuen	-10.3887
hr	-10.3891
▁Seit	-10.3892
▁Instrumente	-10.3893
employed	-10.3911
chen	-10.3912
the	-10.3918
▁stärkere	-10.3937
▁Kohäsion	-10.3948
▁rechtliche	-10.3953
▁möchten	-10.3955
▁See	-10.3973
▁met	-10.3986
▁interregional	-10.3991
▁Lebens	-10.4006
▁Mitglied	-10.4012
▁prepar	-10.402
▁Beschlüsse	-10.4046
▁müßte	-10.4046
▁sehe	-10.4052
▁relationship	-10.4056
▁knows	-10.406
▁competence	-10.4067
▁einig	-10.4071
uch	-10.4092
▁Pflicht	-10.4094
▁Infrastruktur	-10.4095
▁deep	-10.4096
▁bilden	-10.41
▁organisation	-10.4104
▁vernünftige	-10.4106
▁proceed	-10.4123
▁wonder	-10.4123
▁Preis	-10.4124
▁wettbewerbs	-10.4145
▁Besorgnis	-10.4153
▁Verhältnis	-10.4154
sp	-10.4157
▁realise	-10.4159
im	-10.4163
▁Plan	-10.4164
pp	-10.4169
▁exercise	-10.417
▁Terr	-10.4171
▁Mindest	-10.4171
▁Mehr	-10.4172
▁Control	-10.4172
anforderungen	-10.4172
▁Bürokratie	-10.4172
▁Engagement	-10.4172
▁Greece	-10.4172
▁Kontinent	-10.4172
▁Procedure	-10.4172
▁Rechnung	-10.4172
▁Yet	-10.4172
▁bestätigt	-10.4172
▁campaign	-10.4172
▁channel	-10.4172
▁credibility	-10.4172
▁einbezogen	-10.4172
▁gewährt	-10.4172
▁scientists	-10.4172
▁spricht	-10.4172
▁technology	-10.4172
▁übernommen	-10.4172
▁Instance	-10.4172
▁appeal	-10.4172
▁latter	-10.4172
▁vorangegangene	-10.4172
▁Volkspartei	-10.4172
▁anwesend	-10.4172
▁geboten	-10.4172
▁advisers	-10.4172
▁south	-10.4172
▁Schäden	-10.4173
▁existence	-10.4173
▁introduction	-10.4173
▁planned	-10.4173
▁industries	-10.4173
▁prosperity	-10.4173
▁neben	-10.4173
▁Ja	-10.4173
▁Nutzung	-10.4173
▁Behandlung	-10.4173
▁geprüft	-10.4174
▁jemand	-10.4174
▁daraus	-10.4174
teilung	-10.4175
▁Ereignisse	-10.4175
richtung	-10.4176
klang	-10.4177
▁Wege	-10.4178
▁immigration	-10.4178
▁May	-10.4179
▁Me	-10.4181
▁Investitionen	-10.4183
▁letzter	-10.4185
▁organised	-10.4186
isierung	-10.4187
▁mainstreaming	-10.4187
sebene	-10.419
▁sent	-10.4192
▁immigrants	-10.4193
▁amended	-10.4195
▁La	-10.4197
▁lokaler	-10.4199
▁recognised	-10.42
▁session	-10.4204
▁impose	-10.4209
▁versichern	-10.421
ompetition	-10.4211
▁spending	-10.4213
▁endgültige	-10.4213
gabe	-10.4222
▁loss	-10.4234
▁General	-10.424
▁beschränkt	-10.4245
▁keines	-10.4248
▁nations	-10.4249
▁news	-10.425
▁beziehen	-10.4254
▁networks	-10.4255
▁known	-10.4255
▁environmentally	-10.426
▁Dienste	-10.426
ably	-10.4262
▁lay	-10.4268
▁falsch	-10.4274
▁Israelis	-10.4275
▁tool	-10.4276
▁21	-10.4276
▁aktiv	-10.428
▁reden	-10.4283
one	-10.4285
▁legally	-10.4287
related	-10.4288
▁schemes	-10.4289
▁resolutions	-10.429
▁teilen	-10.4291
▁listen	-10.4296
mit	-10.4308
▁pass	-10.4324
▁applying	-10.4327
▁br	-10.4356
▁Viel	-10.4363
▁ange	-10.4368
▁2002	-10.4371
▁demokratisch	-10.4375
▁Sorgen	-10.4383
▁nationaler	-10.4387
▁geltende	-10.4388
▁permit	-10.4401
▁follows	-10.4428
▁contributions	-10.4439
▁angemessene	-10.444
▁Politiker	-10.4445
rhöh	-10.4463
▁Sta	-10.4476
ko	-10.4479
▁finanziert	-10.45
▁care	-10.4545
frage	-10.4552
rei	-10.4571
▁suggest	-10.4598
▁withdraw	-10.4599
▁Fälle	-10.4605
▁spreche	-10.4607
▁unterstütze	-10.4607
▁instance	-10.4612
▁Altfahrzeuge	-10.4612
▁teile	-10.4616
▁degree	-10.4617
▁Jahrhundert	-10.4622
▁investment	-10.4623
▁official	-10.4625
▁ship	-10.4626
ken	-10.4627
▁Israeli	-10.464
▁allgemeine	-10.4651
▁evening	-10.4658
▁Systems	-10.4662
▁consult	-10.4666
▁sinnvoll	-10.4676
zehn	-10.4676
▁ausgehen	-10.4683
halt	-10.4697
▁rich	-10.4702
▁transfer	-10.4705
▁suffer	-10.4708
▁37	-10.4709
▁Groß	-10.4715
ated	-10.4715
▁secure	-10.4718
▁side	-10.4722
▁außer	-10.4726
▁assist	-10.4727
▁Material	-10.4728
einzelstaatliche	-10.4728
sberater	-10.4728
▁Africa	-10.4728
▁Anlaß	-10.4728
▁Austausch	-10.4728
▁Berlin	-10.4728
▁Besonder	-10.4728
▁Development	-10.4728
▁Druck	-10.4728
▁Employment	-10.4728
▁Energieträger	-10.4728
▁Entsorgung	-10.4728
▁Genehmigung	-10.4728
▁Market	-10.4728
▁Regulation	-10.4728
▁Wurtz	-10.4728
▁afford	-10.4728
▁befaßt	-10.4728
▁bemüht	-10.4728
▁bietet	-10.4728
▁bureaucracy	-10.4728
▁candidate	-10.4728
▁easy	-10.4728
▁extension	-10.4728
▁financing	-10.4728
▁gewährleistet	-10.4728
▁implications	-10.4728
▁language	-10.4728
▁nachdrücklich	-10.4728
▁professional	-10.4728
▁supranational	-10.4728
▁unternommen	-10.4728
▁ursprünglich	-10.4728
▁verloren	-10.4728
▁Überzeugung	-10.4728
▁Berend	-10.4728
▁Brok	-10.4728
▁geographic	-10.4728
▁reply	-10.4728
▁operate	-10.4728
▁Lebensqualität	-10.4728
▁niemand	-10.4728
▁racism	-10.4728
▁seven	-10.4728
▁Gleichgewicht	-10.4728
▁Even	-10.4728
▁education	-10.4728
▁programming	-10.4728
▁weitgehend	-10.4728
SV	-10.4729
▁angewandt	-10.4729
▁Beschluß	-10.4729
▁Erreich	-10.4729
▁speculation	-10.4729
▁alternative	-10.4729
▁Kohäsionsfonds	-10.4729
▁treatment	-10.473
▁minority	-10.473
▁Code	-10.473
▁Geber	-10.473
nternal	-10.473
▁Anzahl	-10.473
▁announced	-10.4731
▁Dutch	-10.4731
▁ergeben	-10.4731
▁consensus	-10.4731
▁convinced	-10.4733
▁Richter	-10.4733
▁excluded	-10.4734
▁80%	-10.4734
▁lost	-10.4735
▁necessarily	-10.4735
▁ethnic	-10.4735
▁diversity	-10.4735
▁handeln	-10.4736
▁donors	-10.4737
▁gezogen	-10.4738
▁aufnehmen	-10.4738
bau	-10.474
▁briefly	-10.4741
chmal	-10.4744
▁worse	-10.4744
▁naturally	-10.4748
▁Willen	-10.4749
▁presentation	-10.4749
▁nie	-10.475
▁anschließen	-10.4755
▁fordert	-10.4756
▁Vertrages	-10.4758
▁signed	-10.4762
▁produced	-10.4763
▁1.	-10.477
▁bevor	-10.4772
mal	-10.4778
▁enorme	-10.4779
▁entscheidend	-10.4789
▁generally	-10.4793
▁Kan	-10.4799
vorschlag	-10.4799
▁vernünftig	-10.4802
▁happening	-10.4803
▁kritische	-10.4808
▁Vorsitzenden	-10.481
▁gegenwärtige	-10.4811
▁Fahrzeug	-10.4816
▁gewählte	-10.4816
▁Sch	-10.4817
▁vereinbart	-10.482
▁Organisationen	-10.4821
▁wünschen	-10.4824
▁früheren	-10.4828
legen	-10.4831
▁zugleich	-10.4833
klichkeit	-10.4834
▁alten	-10.4856
▁near	-10.4885
entral	-10.4894
9	-10.4899
▁Fortschritt	-10.49
▁Städten	-10.49
▁praktische	-10.4912
▁el	-10.4919
▁Diskussionen	-10.493
▁notwendige	-10.4931
▁feeling	-10.4934
▁mandate	-10.4955
▁Energien	-10.4976
▁By	-10.4977
▁aktive	-10.4984
▁Punkten	-10.4992
ited	-10.5011
que	-10.502
▁pays	-10.5024
▁angemessen	-10.5031
▁ernst	-10.5042
▁Ho	-10.5045
gang	-10.5046
▁Sicherheits	-10.5046
▁Du	-10.5047
▁prove	-10.5059
erous	-10.5062
▁Ko	-10.5067
▁Verantwortlich	-10.5072
▁positions	-10.5093
▁betreffen	-10.512
▁durchzuführen	-10.514
▁Rats	-10.5165
▁Co	-10.5193
speriode	-10.5193
▁person	-10.5199
▁failure	-10.52
▁folgen	-10.5201
▁Konzept	-10.5202
▁reaction	-10.5204
▁Palestinian	-10.5208
▁inspection	-10.521
▁price	-10.521
▁check	-10.5211
▁arm	-10.5212
▁court	-10.5212
▁situations	-10.5217
▁pursu	-10.5218
▁worth	-10.5221
eren	-10.5225
R	-10.5235
▁Berichte	-10.5237
▁mögliche	-10.524
▁Frist	-10.5242
▁früher	-10.5243
▁Verpflichtung	-10.5245
▁monitor	-10.5251
mp	-10.5254
▁Handel	-10.5258
EC	-10.526
▁speaker	-10.5265
year	-10.5267
▁spend	-10.5271
▁maxim	-10.5273
▁Vic	-10.5276
ug	-10.5276
▁Jun	-10.5283
▁head	-10.5288
▁brief	-10.5302
schlägt	-10.5305
seitig	-10.5308
▁zugrunde	-10.5311
▁Familien	-10.5313
▁tackle	-10.5314
verwaltung	-10.5315
▁Zivil	-10.5315
▁adapt	-10.5315
breitung	-10.5315
▁consist	-10.5316
ausschusses	-10.5316
▁Agreement	-10.5316
▁Blick	-10.5316
▁Glaubwürdigkeit	-10.5316
▁Left	-10.5316
▁Niveau	-10.5316
▁Perhaps	-10.5316
▁Phase	-10.5316
▁Realität	-10.5316
▁SMEs	-10.5316
▁beantragt	-10.5316
▁built	-10.5316
▁clarify	-10.5316
▁climate	-10.5316
▁confine	-10.5316
▁easier	-10.5316
▁gezeigt	-10.5316
▁grateful	-10.5316
▁regelmäßig	-10.5316
▁stärkste	-10.5316
▁subsequent	-10.5316
▁uneingeschränkt	-10.5316
▁vorliegt	-10.5316
▁Koalition	-10.5316
▁Anreiz	-10.5316
▁geplant	-10.5316
▁minorities	-10.5316
▁valid	-10.5316
▁abgestimmt	-10.5316
▁äußern	-10.5316
▁vorstellen	-10.5316
▁beabsichtigt	-10.5316
▁Letzt	-10.5316
▁Directorate	-10.5316
▁Stahlindustrie	-10.5316
▁Vielfalt	-10.5316
▁rail	-10.5316
▁strategies	-10.5316
▁Offenheit	-10.5316
▁funktioniert	-10.5316
▁Wiederaufbau	-10.5316
▁33	-10.5316
▁defence	-10.5316
▁boost	-10.5316
▁gefunden	-10.5316
▁Beiträge	-10.5316
▁23	-10.5316
▁Haushaltslinie	-10.5317
▁hence	-10.5317
arüber	-10.5317
▁offenbar	-10.5317
▁April	-10.5318
▁millennium	-10.5318
▁evaluation	-10.5318
▁entitled	-10.5318
▁generate	-10.5318
▁Pläne	-10.5318
▁gebeten	-10.5318
▁erfahren	-10.5318
▁danach	-10.532
▁Unsicherheit	-10.532
▁1993	-10.5321
▁register	-10.5321
▁innovation	-10.5321
▁topical	-10.5321
▁land	-10.5321
▁anyone	-10.5322
▁recovery	-10.5323
▁gestaltet	-10.5324
▁israelische	-10.5324
▁sieht	-10.5324
▁unterzeichnet	-10.5325
▁annehmen	-10.5327
▁verlangen	-10.5327
▁declared	-10.5329
▁gerichtet	-10.533
indung	-10.533
▁mechanisms	-10.5332
▁erzielt	-10.5332
▁please	-10.5334
ik	-10.5335
▁Ministerrat	-10.5337
▁referr	-10.5337
▁Schaden	-10.5337
▁Grünen	-10.5337
▁resolved	-10.5338
▁Meeres	-10.5343
▁attack	-10.5344
▁expectations	-10.5345
▁informed	-10.5346
▁notification	-10.5347
▁Democrat	-10.5351
▁st	-10.5353
call	-10.5357
▁closely	-10.5359
▁institutionelle	-10.5363
▁shared	-10.5365
▁Genu	-10.5369
organisationen	-10.5369
▁Daten	-10.5371
ification	-10.5375
▁American	-10.538
▁notice	-10.5383
▁Sektoren	-10.5385
▁Beamten	-10.5396
▁ging	-10.5396
entwicklung	-10.5397
▁fine	-10.5397
▁occasions	-10.5404
genügend	-10.5407
▁secondly	-10.5408
▁grenzüber	-10.541
verfahren	-10.5412
55	-10.5412
capable	-10.5414
▁tri	-10.5421
▁Landwirte	-10.5424
▁hands	-10.5432
▁Zuständigkeiten	-10.5433
sprinzip	-10.5439
▁mal	-10.544
▁paying	-10.5452
▁geeignete	-10.5455
▁opening	-10.5471
beauftragten	-10.5478
ally	-10.5483
▁sichern	-10.5507
▁Einhalt	-10.551
▁größten	-10.5518
▁Beweis	-10.5518
▁issued	-10.553
▁understanding	-10.5533
P	-10.5535
▁mittlere	-10.5537
▁Weiter	-10.5539
▁Hinweis	-10.5543
▁zusätzliche	-10.5549
▁zunehmende	-10.5581
▁künftigen	-10.5584
schreitenden	-10.5589
▁erforderlichen	-10.5599
▁lines	-10.5616
usw	-10.562
▁12.	-10.5649
▁Verfahrens	-10.565
▁De	-10.5653
▁rest	-10.5662
▁laws	-10.5666
/1999	-10.5675
wo	-10.5689
ende	-10.5689
ture	-10.5693
▁wirkliche	-10.5726
▁praktisch	-10.5737
▁mündliche	-10.5753
▁integriert	-10.5762
▁Sektor	-10.5764
lang	-10.5768
sbildung	-10.5776
▁vorliegen	-10.5783
wie	-10.5804
▁modern	-10.5815
▁undertake	-10.5817
▁breite	-10.583
▁explanation	-10.5831
▁bedeuten	-10.5831
▁Freedom	-10.5833
▁Krise	-10.5834
▁effiziente	-10.5834
▁Königreich	-10.5835
▁flag	-10.5835
▁obligation	-10.5836
▁Will	-10.5838
▁citizen	-10.5839
▁langfristig	-10.584
▁Aktion	-10.5866
kontrolle	-10.587
▁acht	-10.587
▁Empfehlung	-10.587
V	-10.5888
▁schwierige	-10.589
bald	-10.589
zwischen	-10.5891
President	-10.5891
table	-10.5899
▁unmittelbar	-10.5902
▁ernsthaft	-10.5904
▁Maß	-10.591
▁leicht	-10.5912
▁sustain	-10.5914
▁record	-10.5919
▁lang	-10.592
▁gain	-10.5921
▁endorse	-10.5926
▁Schwerpunkt	-10.5926
▁advance	-10.5926
steuer	-10.5933
inancial	-10.5938
▁Sonder	-10.5938
▁Außen	-10.594
onsequently	-10.5941
Behrendt	-10.5941
▁Because	-10.5941
▁Bolkestein	-10.5941
▁Dimitrakopoulos	-10.5941
▁Dublin	-10.5941
▁EUROPOL	-10.5941
▁Eisen	-10.5941
▁Harmonisierung	-10.5941
▁Karas	-10.5941
▁Kyoto	-10.5941
▁PHARE	-10.5941
▁Poettering	-10.5941
▁Rechtsprechung	-10.5941
▁SAVE	-10.5941
▁Spanish	-10.5941
▁Steuerzahler	-10.5941
▁Summit	-10.5941
▁Swoboda	-10.5941
▁Wiederbelebung	-10.5941
▁afternoon	-10.5941
▁appreciate	-10.5941
▁bezieht	-10.5941
▁clarity	-10.5941
▁encouraging	-10.5941
▁identify	-10.5941
▁palästinensisch	-10.5941
▁unterbreiten	-10.5941
▁verdient	-10.5941
▁verlangt	-10.5941
▁Konsultation	-10.5941
▁förderfähig	-10.5941
▁round	-10.5941
▁Evans	-10.5941
▁Fischler	-10.5941
▁average	-10.5941
▁gewaltige	-10.5941
▁dennoch	-10.5941
▁etc	-10.5941
▁permanent	-10.5941
▁aufgefordert	-10.5941
▁Verbot	-10.5941
▁erhöht	-10.5941
▁hinzufügen	-10.5941
▁series	-10.5941
▁familiar	-10.5941
▁Golan	-10.5941
▁bereitgestellt	-10.5941
▁forestry	-10.5941
▁mitteilen	-10.5941
▁Reding	-10.5941
▁lautet	-10.5941
▁families	-10.5942
▁distributed	-10.5942
▁definition	-10.5942
▁82	-10.5942
▁informieren	-10.5942
▁concentration	-10.5942
▁sicherzustellen	-10.5942
▁transition	-10.5942
▁beigetragen	-10.5942
▁Abbau	-10.5942
▁45	-10.5943
▁justified	-10.5943
▁Kapital	-10.5943
▁invite	-10.5944
▁modernisation	-10.5944
▁auswirken	-10.5944
▁angewendet	-10.5944
▁Fehler	-10.5946
▁qualified	-10.5946
▁genutzt	-10.5946
orld	-10.5946
▁eingeleitet	-10.5947
▁timetable	-10.5947
▁continent	-10.5949
▁yourself	-10.5949
▁core	-10.5951
▁actual	-10.5952
▁safe	-10.5952
▁package	-10.5953
▁zahlen	-10.5953
▁incorporated	-10.5953
▁PSE	-10.5954
▁unterstreichen	-10.5954
▁phase	-10.5957
▁Menge	-10.5958
▁Bezug	-10.5959
▁mergers	-10.5965
▁Ausgaben	-10.5969
▁apart	-10.5971
▁erneuerbarer	-10.5971
▁defined	-10.5971
▁Bau	-10.5972
▁rejected	-10.5972
▁June	-10.5976
▁Kollegin	-10.5976
▁happened	-10.5978
▁EG	-10.598
▁gewisser	-10.5984
▁Greens	-10.5992
▁Gleich	-10.5993
▁zuständige	-10.5993
heiten	-10.5996
▁leaders	-10.6002
▁bringt	-10.6007
vor	-10.602
▁neues	-10.6031
res	-10.6034
▁erwartet	-10.6036
politische	-10.6036
▁smaller	-10.6039
saustausch	-10.6042
▁Office	-10.6042
▁judges	-10.6044
▁obligations	-10.6047
▁willing	-10.6049
▁checks	-10.6054
achten	-10.6059
haltung	-10.6062
▁undertaken	-10.6066
▁Mos	-10.607
ier	-10.6071
▁sole	-10.6072
▁goals	-10.6074
▁drawing	-10.6075
▁solcher	-10.6075
▁Strukturen	-10.6091
▁peoples	-10.6095
▁Mein	-10.611
▁judge	-10.6115
▁Volk	-10.6115
▁speculati	-10.6118
smitglieder	-10.6121
▁Asia	-10.6126
rime	-10.6129
▁preventing	-10.6137
ors	-10.6139
▁Zur	-10.6141
▁intentions	-10.615
tätigkeit	-10.6159
▁ba	-10.6159
▁politically	-10.6183
▁zweitens	-10.6199
▁debated	-10.6199
om	-10.6201
▁considerabl	-10.6221
▁Binnenmarkts	-10.6248
▁27	-10.6269
tra	-10.6285
▁anerkannt	-10.6296
▁shows	-10.6301
meinschaftliche	-10.6311
▁beträchtliche	-10.6318
▁rechtlich	-10.6329
weg	-10.6343
▁verstärkt	-10.6353
▁vi	-10.6363
▁Seiten	-10.6393
▁sagten	-10.6397
▁indicat	-10.6406
cal	-10.6408
▁West	-10.6413
führung	-10.643
▁Ausnahme	-10.6438
▁finanziell	-10.6438
▁ähnlich	-10.6441
▁ausge	-10.6444
gt	-10.6445
sstrategie	-10.6449
▁31	-10.645
▁Vorredner	-10.647
▁jährlich	-10.6473
▁dürfte	-10.6477
▁material	-10.648
▁entsprechen	-10.6483
▁verstehe	-10.6486
rat	-10.6487
▁becomes	-10.6488
▁gehe	-10.6491
range	-10.6493
▁Dienstleistungs	-10.6499
▁constitute	-10.65
▁network	-10.6504
▁argument	-10.6504
lage	-10.6504
▁Kommissare	-10.6506
ill	-10.6512
▁month	-10.6518
▁benachteiligte	-10.6527
unternehmen	-10.6533
▁mov	-10.6541
▁Auswei	-10.6546
▁debat	-10.6548
▁Jac	-10.655
G	-10.6551
▁kleinere	-10.6558
fallen	-10.6559
▁wait	-10.6562
▁insist	-10.6564
äre	-10.6566
▁effektive	-10.6571
▁possibl	-10.6576
▁wenige	-10.6579
▁spät	-10.6585
haben	-10.6596
▁big	-10.6605
▁courage	-10.6606
▁Dritte	-10.6606
▁anchov	-10.6606
▁conven	-10.6607
▁Stand	-10.6607
Generaldirektion	-10.6608
zeichen	-10.6608
▁Bereitschaft	-10.6608
▁Désir	-10.6608
▁Eurojust	-10.6608
▁Experts	-10.6608
▁Griechenland	-10.6608
▁Instead	-10.6608
▁Klima	-10.6608
▁Lisbon	-10.6608
▁Lissabon	-10.6608
▁Niederlande	-10.6608
▁beschäftigt	-10.6608
▁bewältigen	-10.6608
▁bildet	-10.6608
▁bißchen	-10.6608
▁bureaucratic	-10.6608
▁changing	-10.6608
▁correspond	-10.6608
▁debattieren	-10.6608
▁evidence	-10.6608
▁finnische	-10.6608
▁geschieht	-10.6608
▁interessiert	-10.6608
▁parallel	-10.6608
▁uniform	-10.6608
▁written	-10.6608
▁xenophobic	-10.6608
Umstrukturierung	-10.6608
▁Franz	-10.6608
▁Angst	-10.6608
▁begonnen	-10.6608
▁commerc	-10.6608
▁couple	-10.6608
▁ergriffen	-10.6608
▁erhöhen	-10.6608
▁externe	-10.6608
▁independence	-10.6608
▁verhindert	-10.6608
▁dauerhafte	-10.6608
▁bekämpfen	-10.6608
▁zählen	-10.6608
▁expenditure	-10.6608
▁abgelehnt	-10.6608
▁Auditors	-10.6608
▁erfolgen	-10.6608
▁constructive	-10.6608
xas	-10.6608
▁treaties	-10.6608
▁GDP	-10.6608
▁entstehen	-10.6608
▁Arab	-10.6608
▁reconstruction	-10.6608
▁delight	-10.6608
▁dargelegt	-10.6608
ielleicht	-10.6608
▁abend	-10.6609
felt	-10.6609
erade	-10.6609
▁gedenkt	-10.6609
▁Unabhängigkeit	-10.6609
▁definiert	-10.6609
▁obliged	-10.6609
▁declaration	-10.6609
▁konsequent	-10.661
▁promised	-10.661
▁BSE	-10.661
▁legitimate	-10.661
▁Haftung	-10.661
▁erhält	-10.661
▁ausgerichtet	-10.661
▁adhere	-10.661
▁organisierte	-10.661
▁28	-10.6611
▁openness	-10.6611
▁einzuführen	-10.6611
bericht	-10.6611
▁Auftrag	-10.6611
▁erarbeiten	-10.6612
▁Aktionsprogramm	-10.6613
▁Bereits	-10.6613
▁gesichert	-10.6613
▁fifth	-10.6613
▁described	-10.6614
▁angebracht	-10.6614
leistungsausweis	-10.6614
verkehr	-10.6614
▁feed	-10.6615
▁Vergleich	-10.6615
▁fortsetzen	-10.6615
▁highest	-10.6615
▁lesson	-10.6616
▁company	-10.6617
▁enlarged	-10.6618
▁envisaged	-10.6619
▁einführen	-10.6619
▁Lastly	-10.662
▁nennen	-10.6621
▁verurteilen	-10.6621
▁Dienststellen	-10.6621
▁audit	-10.6621
weile	-10.6621
▁Kon	-10.6623
▁board	-10.6624
▁kurzem	-10.6626
▁schriftlich	-10.6626
▁schafft	-10.6627
hancengleichheit	-10.6628
▁firmly	-10.6629
▁linked	-10.663
▁restricted	-10.6631
▁mission	-10.6631
▁vorhin	-10.6632
▁green	-10.6633
▁entirely	-10.6634
▁substantial	-10.6636
▁Ausstellung	-10.6638
▁hält	-10.6638
▁Raumes	-10.664
▁proceedings	-10.664
▁island	-10.6643
renz	-10.6645
▁equally	-10.6652
▁presen	-10.6653
▁hours	-10.6655
▁remarks	-10.6655
▁MEPs	-10.6655
▁red	-10.6656
▁betrachten	-10.6656
▁increasingly	-10.6659
▁reduced	-10.6667
▁zugelassen	-10.667
▁finde	-10.6673
lying	-10.6673
▁define	-10.6676
▁veröffentlicht	-10.6678
ca	-10.668
▁accounts	-10.6684
▁benachteiligt	-10.6688
▁dänischen	-10.669
▁Gesetze	-10.6703
▁mark	-10.6716
▁deutliche	-10.6727
enfalls	-10.6733
▁sides	-10.6736
▁investments	-10.6736
periode	-10.6749
wirtschaftlichen	-10.6761
▁folgendes	-10.6771
▁massive	-10.6775
gemeinschaft	-10.6775
▁allzu	-10.6786
▁Syrian	-10.6795
▁Arbeiten	-10.6804
▁erweitert	-10.6818
▁umfangreiche	-10.6819
▁link	-10.6826
▁o	-10.6837
▁oral	-10.686
system	-10.6861
▁wants	-10.6864
▁vollständige	-10.6879
sinitiativen	-10.6901
▁Amt	-10.693
▁neun	-10.6939
▁release	-10.6961
▁dritte	-10.6977
▁individuals	-10.6981
ehr	-10.6993
F	-10.6999
▁votes	-10.7003
▁texts	-10.7004
▁proposes	-10.7012
day	-10.7013
▁occasion	-10.7023
▁Anfragen	-10.7029
weit	-10.703
▁Straf	-10.7046
▁Modell	-10.7055
▁absolute	-10.7077
▁Konflikt	-10.709
fall	-10.7109
E	-10.7119
▁Uns	-10.712
▁wirksam	-10.7123
▁schwere	-10.7141
▁facilitate	-10.7148
sektor	-10.7154
▁u	-10.7162
▁3.	-10.7164
▁Roma	-10.7165
▁Dala	-10.7172
▁keiner	-10.7176
▁erstens	-10.718
▁überzeugen	-10.7183
▁riesige	-10.7188
▁coordinate	-10.7195
▁wollte	-10.7196
▁Grenz	-10.72
▁wünsche	-10.7204
▁inhaltlich	-10.721
▁nation	-10.7211
treffen	-10.7212
▁perspective	-10.7213
▁exemption	-10.7214
▁profit	-10.7214
▁quota	-10.7214
▁neighbour	-10.7215
▁figure	-10.7217
▁Argumente	-10.7218
ben	-10.7218
▁pr	-10.7219
▁irgendeine	-10.7226
▁alte	-10.7229
gehend	-10.7233
▁hervor	-10.7233
▁Aid	-10.7235
▁Ta	-10.7235
▁effektiv	-10.7236
leistung	-10.7245
▁Leistung	-10.7249
sinstrument	-10.7255
gegeben	-10.7256
▁Personal	-10.7261
▁gründlich	-10.7261
▁enorm	-10.7263
regelung	-10.7266
what	-10.7272
position	-10.7273
Bericht	-10.7273
▁konstruktive	-10.7273
ökonomische	-10.7273
ow	-10.7277
▁rein	-10.7278
ha	-10.728
▁Öl	-10.7284
▁procedur	-10.7284
rin	-10.7286
sicht	-10.729
fähigkeit	-10.7296
szeitraum	-10.7301
▁Meer	-10.7303
▁charter	-10.7304
reffen	-10.7304
aufgaben	-10.7305
▁voraus	-10.7306
▁class	-10.7308
▁Sardellen	-10.7309
wert	-10.731
▁nine	-10.7314
▁stipulat	-10.7315
▁mittel	-10.7315
ausschuß	-10.7317
▁Zwei	-10.7319
▁consolidat	-10.7319
▁Agrar	-10.732
▁Unabhängig	-10.7321
ould	-10.7322
▁Polizei	-10.7322
▁disappear	-10.7322
determination	-10.7322
gestaltung	-10.7322
konstitutionelle	-10.7322
kriteri	-10.7322
▁Cusí	-10.7322
▁Einschränkung	-10.7322
▁Genau	-10.7322
▁Hitler	-10.7322
▁Moura	-10.7322
▁Netherlands	-10.7322
▁Ordnung	-10.7322
▁Profess	-10.7322
▁Regierungschef	-10.7322
▁Sozialisten	-10.7322
▁Ursachen	-10.7322
▁WTO	-10.7322
▁akzeptabel	-10.7322
▁behaviour	-10.7322
▁bieten	-10.7322
▁compulsory	-10.7322
▁menschliche	-10.7322
▁mutual	-10.7322
▁nachzudenken	-10.7322
▁reagieren	-10.7322
▁sake	-10.7322
▁shift	-10.7322
▁teilweise	-10.7322
▁zwangsläufig	-10.7322
▁Lama	-10.7322
▁Where	-10.7322
▁liable	-10.7322
▁opposite	-10.7322
▁Regelwerk	-10.7322
▁Schiene	-10.7322
▁media	-10.7322
▁Belgium	-10.7322
▁chairman	-10.7322
▁Überprüfung	-10.7322
▁incident	-10.7322
▁Sozialfonds	-10.7322
▁Nielson	-10.7322
-1-	-10.7322
▁spanische	-10.7322
▁Termin	-10.7322
▁gelingen	-10.7322
▁Hintergrund	-10.7322
▁stattfinden	-10.7322
▁2001	-10.7322
▁Ahern	-10.7322
▁kürzlich	-10.7322
▁Abänderungsantr	-10.7322
▁restructuring	-10.7322
▁convention	-10.7322
▁enforcement	-10.7323
▁devote	-10.7323
▁Kinder	-10.7323
room	-10.7323
▁Jahrzehnt	-10.7323
▁Durchsetzung	-10.7323
▁Finanzmittel	-10.7323
▁Sicher	-10.7324
▁decentralised	-10.7324
▁Betrügereien	-10.7324
▁told	-10.7324
▁hinweg	-10.7325
▁Insel	-10.7325
▁Marktwirtschaft	-10.7325
▁assistants	-10.7325
▁700	-10.7325
▁uphold	-10.7325
rg	-10.7326
▁Binnen	-10.7326
▁trotzdem	-10.7326
▁speed	-10.7327
▁tut	-10.7327
▁convenience	-10.7328
▁trägt	-10.7328
▁verändert	-10.7328
▁heavy	-10.7328
▁Ungleichheit	-10.7328
▁Flu	-10.7328
▁Reg	-10.7329
▁Leinen	-10.7332
▁While	-10.7332
▁thousands	-10.7334
▁aufzunehmen	-10.7336
▁benötigen	-10.7336
▁anzunehmen	-10.7336
▁überall	-10.7336
▁ignore	-10.7338
▁Am	-10.7339
▁Rechten	-10.734
▁rechtzeitig	-10.734
▁Sollte	-10.7341
▁incorporate	-10.7343
eswegen	-10.7344
▁34	-10.7345
▁Fin	-10.7345
▁proved	-10.7345
kraft	-10.7347
▁Such	-10.7348
▁Pro	-10.7349
▁Marktes	-10.7349
▁treten	-10.7351
▁cooperate	-10.7352
▁hervorragende	-10.7355
▁Bar	-10.7355
▁reicht	-10.7357
▁mis	-10.7358
ask	-10.7359
▁save	-10.7366
▁house	-10.737
▁repeated	-10.7371
▁observations	-10.7373
▁nahe	-10.7374
üb	-10.7375
▁Eigen	-10.7377
▁strengthened	-10.7379
▁Ste	-10.7383
▁pure	-10.7384
▁towns	-10.7389
tergovernmental	-10.7389
▁Are	-10.7392
▁Männern	-10.7392
▁Wiederauf	-10.7395
▁Fehlen	-10.7397
▁CO	-10.7399
▁Umständen	-10.7401
wertung	-10.7403
▁eingehend	-10.7404
▁partners	-10.7404
▁centres	-10.7404
▁exceptional	-10.7413
▁changed	-10.7415
▁accidents	-10.742
▁derart	-10.7426
▁groß	-10.7428
▁figures	-10.7428
▁allowed	-10.7433
▁andererseits	-10.7437
ber	-10.7442
▁Vereinbarungen	-10.7444
▁zehn	-10.7446
/2000)	-10.7447
▁Like	-10.7451
ären	-10.7456
▁none	-10.7462
▁bisherige	-10.7469
▁laufende	-10.747
▁ports	-10.7472
▁niederländische	-10.7474
▁Ve	-10.7478
▁products	-10.7484
▁whom	-10.7494
▁85	-10.7498
▁glauben	-10.7504
▁erfolgreiche	-10.7506
▁cam	-10.7507
▁sub	-10.7509
▁grundsätzliche	-10.7512
▁Budgets	-10.7516
▁meaning	-10.7516
vast	-10.7517
▁details	-10.7524
▁sorgfältig	-10.7528
▁vorgesehene	-10.7548
▁Methode	-10.7554
▁Kooperation	-10.7563
▁partnerships	-10.758
▁1999.	-10.7585
▁base	-10.7588
▁verstärkte	-10.7603
▁Constitution	-10.7607
▁lives	-10.7628
▁grundlegend	-10.7638
▁relativ	-10.7649
selben	-10.7649
▁Tagen	-10.7657
▁reinforce	-10.7682
▁Se	-10.7683
▁inner	-10.7689
▁geringe	-10.7702
all	-10.7705
▁öffentlich	-10.7709
▁bestimmt	-10.772
lle	-10.7725
▁ta	-10.7726
▁begrenzt	-10.7729
▁respects	-10.7732
▁considerations	-10.7735
▁worked	-10.7749
▁ernste	-10.7755
ia	-10.7767
led	-10.779
▁Schiff	-10.7822
▁befindliche	-10.7837
abled	-10.7858
ration	-10.7858
▁Lehre	-10.786
definitely	-10.786
ure	-10.7861
▁liberal	-10.7864
▁Teilen	-10.7885
▁grundsätzlich	-10.789
▁submit	-10.7901
sstrukturen	-10.792
▁industrial	-10.7922
▁St	-10.7937
onciliation	-10.7938
▁Dar	-10.7939
▁entschlossen	-10.7943
▁Partner	-10.7953
▁Tage	-10.796
▁Kontroll	-10.7974
▁Verhandlungs	-10.7976
▁option	-10.7977
▁genannt	-10.7983
▁method	-10.7984
▁deadline	-10.7984
▁entail	-10.7984
▁substance	-10.7984
▁accident	-10.7986
behörden	-10.7989
▁requirement	-10.7991
▁belong	-10.7998
▁Last	-10.801
▁Feststellung	-10.8012
▁Erinnerung	-10.8012
spolitiken	-10.8013
▁legitim	-10.8015
▁Minderheit	-10.802
▁nötig	-10.8024
▁undermine	-10.8026
how	-10.8028
6	-10.8031
▁Ar	-10.8033
ward	-10.8034
ex	-10.8034
house	-10.804
institutionelle	-10.804
Die	-10.8044
gegen	-10.8044
▁Urteil	-10.8057
surance	-10.8058
▁Verhalten	-10.806
▁2,	-10.806
▁retain	-10.8069
raft	-10.8074
▁zukünftige	-10.8074
▁thorough	-10.8074
▁decisive	-10.8076
▁Jugend	-10.8077
▁Zwa	-10.8077
▁immediate	-10.8078
▁precise	-10.8078
▁abge	-10.8079
▁zufrieden	-10.8079
▁Can	-10.8081
▁Unternehmer	-10.8081
▁sonst	-10.8082
▁Ganz	-10.8084
▁Qu	-10.8086
▁topic	-10.8086
gehen	-10.8088
▁admit	-10.8089
▁Daru	-10.809
▁Holz	-10.8091
▁Spiel	-10.8091
▁disseminat	-10.8091
schließt	-10.8091
transaktionen	-10.8091
▁Ablehnung	-10.8091
▁Afrika	-10.8091
▁Aktionsplan	-10.8091
▁Authority	-10.8091
▁Führung	-10.8091
▁Gewalt	-10.8091
▁Graç	-10.8091
▁Japan	-10.8091
▁Kräfte	-10.8091
▁Praktiken	-10.8091
▁Tanker	-10.8091
▁Währungsunion	-10.8091
▁emergency	-10.8091
▁furthermore	-10.8091
▁garantieren	-10.8091
▁nachmittag	-10.8091
▁potentielle	-10.8091
▁supply	-10.8091
▁whatsoever	-10.8091
▁ziemlich	-10.8091
▁zuletzt	-10.8091
ärmsten	-10.8091
▁Dringlichkeit	-10.8091
▁Einstimmigkeit	-10.8091
▁Nichtregierungs	-10.8091
▁Unterlagen	-10.8091
▁gestärkt	-10.8091
▁endeavour	-10.8091
▁generell	-10.8091
▁located	-10.8091
▁sicherstellen	-10.8091
▁verabschieden	-10.8091
▁match	-10.8091
▁shap	-10.8091
▁Altener	-10.8091
▁hervorgehoben	-10.8091
▁elsewhere	-10.8091
▁stärken	-10.8091
▁verwenden	-10.8091
▁Perspektive	-10.8091
▁mismanagement	-10.8091
▁abstimmen	-10.8091
▁distribution	-10.8091
▁blind	-10.8091
▁festzulegen	-10.8091
▁bedauere	-10.8091
▁Klarheit	-10.8091
▁Übergang	-10.8091
▁Sanktion	-10.8091
teigerung	-10.8092
▁Dauer	-10.8092
▁slick	-10.8092
▁Hindernisse	-10.8092
▁90	-10.8092
▁Angebot	-10.8092
▁Ex	-10.8092
▁tough	-10.8092
▁Angriff	-10.8093
▁festhalten	-10.8093
▁deswegen	-10.8093
▁harmonisation	-10.8093
▁pollution	-10.8093
▁48	-10.8093
▁gebilligt	-10.8093
▁hinnehmbar	-10.8093
▁satisfaction	-10.8093
▁Republic	-10.8094
▁dankbar	-10.8094
▁abgegeben	-10.8094
▁Zeitplan	-10.8094
▁truth	-10.8094
▁Christ	-10.8094
▁erweisen	-10.8095
▁remit	-10.8095
▁Register	-10.8095
▁Nein	-10.8096
▁vorzunehmen	-10.8096
▁manage	-10.8096
▁hinausgehen	-10.8096
▁countryside	-10.8096
▁treaty	-10.8097
▁abandoned	-10.8097
▁Amo	-10.8097
▁wenigsten	-10.8097
▁visible	-10.8097
▁gefaßt	-10.8097
achtung	-10.8098
▁Volkes	-10.8099
▁unanimously	-10.8099
ping	-10.81
▁Dafür	-10.81
▁dahin	-10.8101
▁gap	-10.8102
▁born	-10.8102
▁prevention	-10.8104
▁Staates	-10.8105
▁approximate	-10.8107
▁Frei	-10.8111
▁July	-10.8111
▁angeht	-10.8112
▁obstacles	-10.8112
▁respektieren	-10.8116
▁erteilen	-10.8116
▁monitored	-10.8118
▁suggested	-10.8119
▁concluded	-10.812
▁Mai	-10.8122
▁resign	-10.8122
▁Randz	-10.8125
▁gewünscht	-10.8126
onnen	-10.8128
organisation	-10.8129
▁confirmed	-10.8135
▁regulate	-10.8137
▁Minuten	-10.8137
svorschläge	-10.8138
▁contributed	-10.8144
▁waiting	-10.8145
▁kennen	-10.8147
classification	-10.8147
▁extended	-10.8154
▁previously	-10.8158
▁expected	-10.8161
▁minutes	-10.8163
▁stocks	-10.8163
Naturkatastrophe	-10.8164
▁stressed	-10.8164
trittskandidaten	-10.8171
iger	-10.8174
▁Su	-10.8179
▁schneller	-10.8193
ker	-10.82
▁welcomed	-10.82
mus	-10.8202
▁zukommen	-10.8206
▁Stunden	-10.8207
▁num	-10.8209
wegs	-10.8217
▁anzu	-10.8232
▁Vorrang	-10.8233
zusammenarbeiten	-10.8247
▁competences	-10.8249
▁Zusammenhalts	-10.8266
ringer	-10.8272
▁acting	-10.8285
▁sincere	-10.8286
▁Standpunkte	-10.8292
▁transnationale	-10.8294
▁Bo	-10.8301
▁gegebenen	-10.8315
▁freien	-10.8319
gruppen	-10.8334
ating	-10.8344
▁dank	-10.8348
▁Dokumente	-10.8351
▁lacking	-10.8358
N	-10.836
▁interregionale	-10.8365
▁preserv	-10.8369
▁umfassenden	-10.8382
sregierung	-10.8395
dienst	-10.8398
▁verständlich	-10.8406
▁Ri	-10.8415
▁lose	-10.8415
▁jenen	-10.8416
arbeiten	-10.8432
▁europäisch	-10.8443
ze	-10.8449
sbedingungen	-10.845
▁top	-10.8452
▁Ziels	-10.8458
▁employ	-10.8461
ilot	-10.8475
na	-10.8481
▁standard	-10.8496
sprogramm	-10.8513
▁represents	-10.852
schreiben	-10.8541
▁manufactur	-10.8551
▁weite	-10.8559
▁Berichten	-10.856
▁assume	-10.8563
man	-10.8573
▁warm	-10.8576
▁künftige	-10.8576
förderung	-10.858
▁Vertretern	-10.8591
ba	-10.8592
ility	-10.8595
traf	-10.8598
▁Selbstverständ	-10.86
▁initiate	-10.8608
▁Parlamente	-10.8618
▁unit	-10.8618
vis	-10.862
▁examples	-10.8621
▁suchen	-10.8621
pr	-10.8622
▁exists	-10.8636
ise	-10.8655
plan	-10.8662
ft	-10.868
▁Volks	-10.8684
aß	-10.8691
schaffung	-10.8698
erst	-10.8714
▁Handels	-10.8722
▁condition	-10.8729
lassen	-10.8734
▁Bas	-10.8736
nkt	-10.8749
▁umfassend	-10.8759
viel	-10.8765
▁beraten	-10.8767
▁erscheinen	-10.8771
▁Vorsitzende	-10.8777
▁ehrgeizige	-10.8785
▁Einwohner	-10.8787
▁anzuwenden	-10.8788
posed	-10.8799
▁spoke	-10.8799
▁Stunde	-10.88
▁nehme	-10.8804
▁könne	-10.8804
▁kritisch	-10.8805
▁persönliche	-10.8805
▁Reichtum	-10.8809
stehen	-10.881
▁Garantie	-10.8811
▁regime	-10.8811
▁gewählt	-10.8812
▁parliament	-10.8812
▁verbindliche	-10.8814
▁Element	-10.8814
▁ambition	-10.8815
▁sprach	-10.8821
▁Monat	-10.8822
▁Verbrechen	-10.8826
▁Hoffnung	-10.8849
▁eingereicht	-10.8851
santräge	-10.8852
▁contribut	-10.8853
▁millions	-10.8853
nother	-10.8856
body	-10.8859
▁Car	-10.8866
handlung	-10.8867
▁restor	-10.8872
Europe	-10.8873
▁proportion	-10.8874
session	-10.8874
wirklich	-10.8875
country	-10.8875
▁vorher	-10.8879
▁fai	-10.8882
right	-10.8884
▁höchste	-10.8885
port	-10.8885
▁discipline	-10.8886
weise	-10.8888
▁End	-10.8889
▁verbessert	-10.8889
wesen	-10.8891
▁multi	-10.8894
reform	-10.8903
1999	-10.8909
▁rapid	-10.8911
▁exact	-10.8911
▁careful	-10.8912
merk	-10.8912
▁path	-10.8914
ood	-10.8914
▁wiederholt	-10.8918
▁gebe	-10.8921
▁complement	-10.8922
▁facts	-10.8922
▁Devisen	-10.8924
würdig	-10.8924
▁Presse	-10.8924
▁Demontage	-10.8924
▁ESF	-10.8924
▁Maastricht	-10.8924
▁Strafverfolgung	-10.8924
▁Trotz	-10.8924
▁Wähler	-10.8924
Plath	-10.8924
ressourcen	-10.8924
▁Abhängigkeit	-10.8924
▁Anhörung	-10.8924
▁Bourlanges	-10.8924
▁Büro	-10.8924
▁Chinese	-10.8924
▁Definition	-10.8924
▁English	-10.8924
▁Ernennung	-10.8924
▁Fragestunde	-10.8924
▁Inkrafttreten	-10.8924
▁Mittwoch	-10.8924
▁Nuklear	-10.8924
▁Risiken	-10.8924
▁Signal	-10.8924
▁Sturm	-10.8924
▁Toleranz	-10.8924
▁Vordergrund	-10.8924
▁Wednesday	-10.8924
▁agencies	-10.8924
▁bedaure	-10.8924
▁beinhaltet	-10.8924
▁benötigt	-10.8924
▁convergence	-10.8924
▁denjenigen	-10.8924
▁deprive	-10.8924
▁einstimmig	-10.8924
▁erfüllt	-10.8924
▁erläutert	-10.8924
▁erörtern	-10.8924
▁erörtert	-10.8924
▁jurisdiction	-10.8924
▁kontrollieren	-10.8924
▁nukleare	-10.8924
▁präzise	-10.8924
▁replac	-10.8924
▁rigorous	-10.8924
▁schützen	-10.8924
▁surround	-10.8924
▁technologische	-10.8924
▁trifft	-10.8924
▁umfaßt	-10.8924
▁unerläßlich	-10.8924
▁volume	-10.8924
▁widmen	-10.8924
▁zutiefst	-10.8924
▁Ölpest	-10.8924
▁TACIS	-10.8924
▁sozio	-10.8924
▁Total	-10.8925
▁supposed	-10.8925
▁tourism	-10.8925
▁verteilt	-10.8925
▁Angaben	-10.8925
▁excuse	-10.8925
▁primarily	-10.8925
▁verletzt	-10.8925
▁Liebe	-10.8925
▁offences	-10.8925
▁gelingt	-10.8925
▁Ziffer	-10.8925
▁data	-10.8925
▁worthwhile	-10.8925
▁anwenden	-10.8925
▁qualifizierte	-10.8925
▁1999/212	-10.8925
▁1967	-10.8925
▁bedauerlich	-10.8925
▁regeneration	-10.8925
▁entsteht	-10.8925
▁Umfeld	-10.8925
▁translation	-10.8925
▁gebührend	-10.8925
▁feasible	-10.8925
▁death	-10.8925
▁competent	-10.8925
▁geregelt	-10.8925
▁Mitbürger	-10.8925
geblich	-10.8925
▁ergibt	-10.8925
▁BBC	-10.8925
▁satisfactory	-10.8925
▁tonnes	-10.8925
▁UK	-10.8925
▁entry	-10.8925
▁Basis	-10.8925
▁Vorgehen	-10.8926
▁New	-10.8926
▁mindesten	-10.8926
▁basically	-10.8926
▁disagreement	-10.8926
▁Produkt	-10.8926
▁Just	-10.8926
▁reverse	-10.8926
▁Prinzipien	-10.8926
▁Begriff	-10.8926
▁uncertainty	-10.8926
▁29	-10.8926
▁engage	-10.8926
▁ideology	-10.8926
▁democratically	-10.8927
▁Rücknahme	-10.8927
▁38	-10.8927
▁Besteuerung	-10.8927
▁spekulative	-10.8927
▁South	-10.8927
▁jedenfalls	-10.8927
▁abgeben	-10.8927
▁proof	-10.8928
▁Belgien	-10.8928
▁Häfen	-10.8928
▁ultimately	-10.8929
▁via	-10.8929
▁Abfälle	-10.8929
▁oppose	-10.893
▁Arbeitsweise	-10.893
llow	-10.893
▁eingehalten	-10.893
▁Schulung	-10.8931
▁alter	-10.8931
▁Dollar	-10.8931
▁verstanden	-10.8931
▁deplore	-10.8932
▁Bitte	-10.8932
▁angewiesen	-10.8932
▁collective	-10.8932
▁demonstration	-10.8932
▁stipulates	-10.8932
▁running	-10.8932
▁Beteiligten	-10.8934
▁158	-10.8934
schreibung	-10.8934
▁erleben	-10.8934
▁aspiration	-10.8935
▁ansprechen	-10.8935
▁einzusetzen	-10.8936
▁launched	-10.8936
▁gelöst	-10.8936
▁beweist	-10.8936
▁indication	-10.8937
▁Unfälle	-10.8937
▁occurred	-10.8938
sanction	-10.8938
▁signal	-10.8938
▁überlassen	-10.894
▁Human	-10.894
▁herzustellen	-10.8942
▁foundation	-10.8943
▁Dur	-10.8943
▁gehalten	-10.8943
▁überlegen	-10.8947
▁politicians	-10.8948
▁reconsider	-10.8948
▁adoption	-10.8948
▁bedeutende	-10.8949
▁Medien	-10.8953
▁vorherige	-10.8955
▁beide	-10.8957
▁umgehend	-10.8959
▁posting	-10.8959
▁Beitritt	-10.8961
▁correctly	-10.8962
▁beschließen	-10.8963
▁successfully	-10.8966
▁failed	-10.8967
▁v	-10.897
▁territorial	-10.8973
▁hierzu	-10.8973
alter	-10.8975
▁components	-10.8975
▁departments	-10.8975
▁taxpayers	-10.8976
▁vorrangig	-10.8976
▁weight	-10.8978
▁maintained	-10.8979
▁persisten	-10.898
▁Jul	-10.8984
▁reichen	-10.8984
▁outline	-10.899
ised	-10.8995
▁Laufe	-10.8995
▁zuvor	-10.8997
▁periodic	-10.9001
▁Lasten	-10.9007
▁Ausschüssen	-10.9007
▁Leistungen	-10.9011
ques	-10.9012
▁rid	-10.9022
▁aimed	-10.9027
▁hearing	-10.9032
▁counter	-10.9033
▁eigentliche	-10.9046
▁Garantien	-10.9051
▁wage	-10.9054
▁severe	-10.9054
geben	-10.9055
▁ausgezeichneten	-10.9055
▁islands	-10.9059
▁demokratischer	-10.9067
▁schließen	-10.9067
▁Königreichs	-10.9069
▁flags	-10.9069
▁persons	-10.9078
katastrophe	-10.9091
▁enabl	-10.9093
▁started	-10.9097
stelle	-10.9099
▁looked	-10.9103
▁di	-10.9103
▁­	-10.9104
▁Handeln	-10.9105
sphase	-10.9111
▁ante	-10.9116
▁strafrechtliche	-10.9117
▁prepare	-10.9125
▁gegenseitige	-10.9128
▁firms	-10.9135
verantwortung	-10.9139
▁erwähnten	-10.914
▁waters	-10.9142
▁Drogen	-10.9145
po	-10.9154
rs	-10.9163
▁integrierte	-10.917
▁Ideen	-10.9189
▁Ell	-10.9193
▁86	-10.9198
▁Well	-10.92
▁Roman	-10.9202
▁Dingen	-10.9211
ack	-10.9213
▁Wieder	-10.9217
▁negativen	-10.9227
▁du	-10.9231
▁setzt	-10.9234
▁größer	-10.9239
▁roads	-10.9239
▁halbe	-10.9243
▁offers	-10.9244
ions	-10.9271
▁benefits	-10.9277
▁Staatsangehörig	-10.928
▁Grundsätzen	-10.9287
▁Ausweise	-10.9299
ulf	-10.9306
▁Kommunikation	-10.9311
nstitutional	-10.9314
▁practices	-10.9316
▁erfolgt	-10.9321
log	-10.9329
election	-10.9335
▁com	-10.9339
▁ergänzen	-10.9341
spe	-10.9385
▁Arbeitnehmern	-10.939
T	-10.9395
governmental	-10.9397
▁stands	-10.9397
rechts	-10.9404
▁root	-10.9417
▁seien	-10.9426
▁Schiffen	-10.9426
▁manche	-10.9427
▁ethnische	-10.9485
srecht	-10.9532
▁Kooperations	-10.9533
tually	-10.9536
▁erweiterte	-10.9551
▁trust	-10.9564
▁ce	-10.9588
▁ca	-10.9609
ol	-10.9626
EG	-10.9631
▁interessante	-10.9643
entwurf	-10.9646
sprozesse	-10.9662
ton	-10.9668
atory	-10.9669
▁forc	-10.9671
▁400	-10.9672
▁Beamte	-10.969
▁Europäer	-10.9703
▁Finanzmärkte	-10.9705
▁acknowledge	-10.9709
▁städtische	-10.9711
▁wiederhole	-10.9711
▁200	-10.9712
▁Beihilfe	-10.9714
▁Argument	-10.9718
▁unterbreitet	-10.9718
▁choice	-10.9721
▁contradiction	-10.9723
▁mistake	-10.9726
▁judgement	-10.9727
▁income	-10.9728
▁consequence	-10.973
▁partner	-10.9732
▁approv	-10.9733
▁geltend	-10.9734
▁Jahrtausend	-10.9735
▁centre	-10.9735
▁tanker	-10.9739
▁Betracht	-10.9747
▁Verletzung	-10.9754
▁Ent	-10.9762
▁trans	-10.9762
▁Veränderung	-10.9764
▁Mensch	-10.9766
▁erheblich	-10.9767
▁War	-10.9769
▁Th	-10.9772
igt	-10.9772
▁irgendw	-10.9775
ub	-10.9783
▁Rand	-10.9792
bereich	-10.9794
ster	-10.9799
▁Franc	-10.98
▁whil	-10.9802
▁restrict	-10.981
▁separate	-10.9811
opfer	-10.9812
▁weise	-10.9814
▁Fort	-10.9816
▁voice	-10.9819
▁vorhanden	-10.9821
▁Vorsitz	-10.9825
▁qua	-10.9826
schluß	-10.9826
hängt	-10.9828
kunft	-10.9828
▁declare	-10.9831
▁capita	-10.9831
▁prosper	-10.9833
▁began	-10.9833
▁visit	-10.9833
▁Kohä	-10.9834
lassifizierungs	-10.9834
▁inadequate	-10.9834
▁unfair	-10.9834
mittelständische	-10.9834
▁1990	-10.9834
▁Amerika	-10.9834
▁Crespo	-10.9834
▁Einberufung	-10.9834
▁Fassung	-10.9834
▁Fähigkeit	-10.9834
▁Fünfjahres	-10.9834
▁Gama	-10.9834
▁Geltung	-10.9834
▁Gewicht	-10.9834
▁Greek	-10.9834
▁High	-10.9834
▁Identität	-10.9834
▁Leute	-10.9834
▁Mechanismen	-10.9834
▁Mitgefühl	-10.9834
▁Multi	-10.9834
▁Oldtimer	-10.9834
▁Respekt	-10.9834
▁Schreyer	-10.9834
▁Wandel	-10.9834
▁beantworten	-10.9834
▁beeinträchtigen	-10.9834
▁befindet	-10.9834
▁beibehalten	-10.9834
▁bemühen	-10.9834
▁beruht	-10.9834
▁controvers	-10.9834
▁dismantling	-10.9834
▁erscheint	-10.9834
▁genehmigt	-10.9834
▁margin	-10.9834
▁ongoing	-10.9834
▁operating	-10.9834
▁perpetrat	-10.9834
▁protocol	-10.9834
▁ratified	-10.9834
▁scenario	-10.9834
▁significance	-10.9834
▁supplement	-10.9834
▁survey	-10.9834
▁terribl	-10.9834
▁track	-10.9834
▁unanimity	-10.9834
▁universal	-10.9834
▁uranium	-10.9834
▁verlieren	-10.9834
▁verwirklicht	-10.9834
▁voluntar	-10.9834
▁Übertragung	-10.9834
▁überarbeitet	-10.9834
▁überprüft	-10.9834
▁Entschädigung	-10.9834
▁Konsens	-10.9834
▁geprägt	-10.9834
▁incentive	-10.9834
▁tolerance	-10.9834
▁Äußerung	-10.9834
▁Sharm	-10.9834
▁unterstrichen	-10.9834
▁untersucht	-10.9834
▁Einwanderer	-10.9834
▁ermöglicht	-10.9834
spartnerschaften	-10.9834
▁Bekannt	-10.9834
▁doppelte	-10.9834
▁merit	-10.9834
▁energies	-10.9834
▁Detail	-10.9834
Sheikh	-10.9834
▁Belgian	-10.9834
▁duties	-10.9834
▁timber	-10.9834
▁beschäftigungs	-10.9834
▁militar	-10.9834
▁quantitative	-10.9834
▁zurückzuführen	-10.9834
▁Wirkung	-10.9834
▁Haushaltsjahr	-10.9834
▁Vorgehensweise	-10.9834
▁begun	-10.9834
▁Gültigkeit	-10.9834
▁täglich	-10.9834
▁Verlust	-10.9834
▁übermitteln	-10.9834
▁Existenz	-10.9834
▁prerequisite	-10.9834
▁Clearly	-10.9834
▁Uran	-10.9834
▁Augenblick	-10.9834
▁niemals	-10.9835
▁binding	-10.9835
▁Anträge	-10.9835
▁Raumordnung	-10.9835
▁Mitwirkung	-10.9835
▁allocation	-10.9835
▁insecurity	-10.9835
▁gerechtfertigt	-10.9835
▁ablehnen	-10.9835
▁Tourismus	-10.9835
▁disposal	-10.9835
▁darlegen	-10.9835
▁collection	-10.9835
▁definitive	-10.9835
▁Gib	-10.9836
▁informiert	-10.9836
wide	-10.9836
▁Flüchtlings	-10.9836
▁verlassen	-10.9836
▁sozusagen	-10.9836
▁Safety	-10.9836
▁technological	-10.9836
▁Gestaltung	-10.9836
▁erfordert	-10.9837
▁recall	-10.9838
▁push	-10.9838
▁Arbeitsprogramm	-10.9838
▁Erfordernisse	-10.9838
▁Licht	-10.9838
▁Strukturpolitik	-10.9838
▁Ok	-10.9839
▁Verteilung	-10.9839
▁richten	-10.9839
ities	-10.9839
▁awareness	-10.9839
▁appointment	-10.9839
▁Oc	-10.9839
▁north	-10.984
▁economically	-10.984
▁überdenken	-10.984
▁constantly	-10.9841
▁Environment	-10.9841
▁berechtigt	-10.9841
▁vorgenommen	-10.9841
▁Nachbar	-10.9842
▁arrived	-10.9842
▁envisage	-10.9842
▁angeführt	-10.9842
▁vornehmen	-10.9843
rish	-10.9844
sausweises	-10.9845
▁Pinochet	-10.9846
▁rufen	-10.9846
▁zugute	-10.9847
ebung	-10.9847
▁traditional	-10.9847
▁whatever	-10.9849
▁worrying	-10.9849
▁constitutional	-10.9849
▁Alter	-10.9851
▁BIP	-10.9851
▁lobby	-10.9851
▁Drittstaaten	-10.9851
▁behaupten	-10.9854
▁restore	-10.9855
▁accountable	-10.9856
▁auftreten	-10.9858
decentralisation	-10.9859
▁bewirken	-10.9861
▁angekündigt	-10.9863
getting	-10.9866
▁gelegt	-10.9866
▁suffered	-10.9867
▁Verhältnisse	-10.9868
▁win	-10.9869
▁Hab	-10.9869
▁delivered	-10.9871
innen	-10.9871
▁sufficiently	-10.9874
▁encouraged	-10.9874
▁wenden	-10.9875
▁completed	-10.9876
▁fahren	-10.9876
▁Ehre	-10.9877
▁Weil	-10.9878
▁career	-10.9884
▁willkommen	-10.9885
▁lower	-10.9886
▁chosen	-10.9888
▁Drittländern	-10.9888
▁wachsende	-10.9889
▁studies	-10.989
▁threaten	-10.989
▁Beispiele	-10.9892
▁le	-10.9893
voll	-10.9893
▁sums	-10.99
▁ökonomische	-10.9901
▁jener	-10.9901
▁strongly	-10.9901
▁dritten	-10.9908
▁ausgezeichnete	-10.9909
▁listening	-10.9916
▁verfahren	-10.9916
▁meant	-10.9921
▁taxes	-10.9924
▁geographischen	-10.9924
▁wirken	-10.9924
▁funktionierende	-10.9925
rising	-10.9933
▁Studien	-10.9935
▁Have	-10.9937
▁holding	-10.9939
▁denied	-10.9944
▁Küsten	-10.9946
rfüll	-10.9946
▁Entwicklungen	-10.9953
▁pursue	-10.9956
▁kurzfristige	-10.9959
▁weisen	-10.9962
▁schlechte	-10.9965
500	-10.9968
▁spoken	-10.9973
ich	-10.998
▁1997.	-10.9983
▁wirksamer	-10.9988
▁gleicher	-10.999
worthy	-10.9991
▁juristisch	-10.9994
▁US	-10.9995
▁owner	-11
▁prices	-11.0003
▁continued	-11.0008
skosten	-11.0008
▁Ausnahmen	-11.0011
▁Jahrhunderts	-11.0013
▁internationally	-11.0027
▁Any	-11.0028
▁Flagge	-11.0031
▁criticisms	-11.0034
▁demanding	-11.0034
▁eigen	-11.0045
▁müßten	-11.0059
▁Altfahrzeugen	-11.0086
▁mußten	-11.0104
▁Versuch	-11.0106
▁Ma	-11.011
▁limits	-11.0113
ency	-11.0115
▁Verteidigung	-11.0129
▁anderes	-11.0129
▁happens	-11.0129
▁friedliche	-11.0134
▁refers	-11.0149
▁niedrige	-11.0159
▁Antworten	-11.0172
▁ausführlich	-11.0189
EU	-11.0193
▁einge	-11.0203
)).	-11.0208
▁Al	-11.021
▁bases	-11.0232
des	-11.0233
stellt	-11.0245
▁protest	-11.0248
ad	-11.0249
▁fields	-11.0254
marked	-11.0255
rität	-11.026
▁advocate	-11.0271
▁select	-11.0275
▁suitabl	-11.0276
▁compensate	-11.029
▁leav	-11.0293
zen	-11.0296
▁Stimmen	-11.0304
▁importantly	-11.0332
ender	-11.0351
mobilhersteller	-11.0355
▁Texte	-11.0362
NS	-11.0362
fälle	-11.0362
▁Welthandels	-11.0363
weiger	-11.0369
▁seines	-11.0372
43	-11.039
tract	-11.0402
off	-11.0406
▁genaue	-11.0416
atik	-11.0419
Programme	-11.0441
▁horizontal	-11.0464
L	-11.0472
matic	-11.0473
▁14.	-11.0481
▁opinions	-11.0501
▁unzureichend	-11.0503
low	-11.0519
lung	-11.0519
halb	-11.052
iling	-11.0548
▁Werten	-11.0559
▁erwarte	-11.0566
▁erklärte	-11.0567
sregeln	-11.0572
ängst	-11.0573
formation	-11.0573
time	-11.0598
ez	-11.0604
▁höchst	-11.061
▁tiefgreifende	-11.0612
▁lie	-11.0617
▁harmonis	-11.0624
rarbeitung	-11.0625
▁fehlen	-11.064
tellung	-11.0649
ish	-11.0669
▁Wahr	-11.0672
▁abzu	-11.0676
ising	-11.0691
▁bewegen	-11.0691
▁Stadtviertel	-11.0697
▁Grundwerte	-11.0697
▁Beitritts	-11.0699
ziele	-11.0701
▁arise	-11.0701
ndependent	-11.0703
▁Küste	-11.0708
▁schließe	-11.0709
länder	-11.071
▁beziehe	-11.071
▁dänische	-11.0713
▁müsse	-11.0714
odex	-11.0715
▁Gremium	-11.0718
▁advantage	-11.0718
▁sphere	-11.0718
▁undertaking	-11.0723
▁investigation	-11.0724
▁Bern	-11.0727
▁deserve	-11.0727
▁source	-11.073
▁regulat	-11.073
▁vehicle	-11.0732
▁recommendation	-11.0732
▁Elemente	-11.0736
▁Grundlagen	-11.0736
minister	-11.0737
▁member	-11.0744
5-000	-11.0746
▁zone	-11.0747
▁Wille	-11.0764
▁damag	-11.0764
▁Zielsetzung	-11.0767
issenschaftliche	-11.0767
▁Inso	-11.0771
▁stelle	-11.0774
fähig	-11.0776
Kopf	-11.0777
staatliche	-11.0779
verhandlung	-11.078
text	-11.0781
Analyse	-11.0783
economic	-11.0784
wenig	-11.0784
benefit	-11.0784
zeitigen	-11.0786
▁federal	-11.0787
sagen	-11.0789
▁author	-11.0789
▁divide	-11.0809
▁paradox	-11.0816
▁Bundes	-11.0816
zustellen	-11.0816
flation	-11.0819
bracht	-11.0823
▁Wichtig	-11.0826
▁Rechnungshof	-11.0826
▁detriment	-11.0827
▁reiterate	-11.0828
▁resource	-11.083
▁recommend	-11.0831
▁exploit	-11.0831
▁remove	-11.0832
▁mid	-11.0832
clusion	-11.0833
bruch	-11.0833
▁Ohn	-11.0834
▁Zwischen	-11.0834
▁verankert	-11.0834
nationalisierung	-11.0834
obachtungsstelle	-11.0834
oubtedly	-11.0834
▁1992	-11.0834
▁AIDS	-11.0834
▁Agricultur	-11.0834
▁Banotti	-11.0834
▁Brittany	-11.0834
▁Cadiz	-11.0834
▁Citizens	-11.0834
▁Consumer	-11.0834
▁Differenz	-11.0834
▁Experten	-11.0834
▁Freude	-11.0834
▁Friday	-11.0834
▁Futtermittel	-11.0834
▁Gargani	-11.0834
▁Gasòliba	-11.0834
▁Gewerkschaften	-11.0834
▁Großbritannien	-11.0834
▁Hatzidakis	-11.0834
▁Immigranten	-11.0834
▁Lucas	-11.0834
▁MEDA	-11.0834
▁Marinho	-11.0834
▁Mängel	-11.0834
▁Paris	-11.0834
▁Parlamentarier	-11.0834
▁Schreiben	-11.0834
▁Stärke	-11.0834
▁Tendenz	-11.0834
▁Trade	-11.0834
▁abgereicherte	-11.0834
▁auffordern	-11.0834
▁automatisch	-11.0834
▁background	-11.0834
▁beeinträchtigt	-11.0834
▁bound	-11.0834
▁division	-11.0834
▁easily	-11.0834
▁einzubeziehen	-11.0834
▁erfaßt	-11.0834
▁erfordern	-11.0834
▁erhoben	-11.0834
▁examining	-11.0834
▁extensive	-11.0834
▁gewähren	-11.0834
▁hull	-11.0834
▁minimal	-11.0834
▁multiannual	-11.0834
▁nachvollziehen	-11.0834
▁opposition	-11.0834
▁pension	-11.0834
▁prosecutor	-11.0834
▁regeln	-11.0834
▁senior	-11.0834
▁societies	-11.0834
▁subsidies	-11.0834
▁unprecedented	-11.0834
▁verschoben	-11.0834
▁verursachen	-11.0834
▁wachsam	-11.0834
▁welfare	-11.0834
▁zitiere	-11.0834
▁zugänglich	-11.0834
Fina	-11.0834
▁NATO	-11.0834
▁London	-11.0834
▁Zentralbank	-11.0834
▁absence	-11.0834
▁entwe	-11.0834
▁honest	-11.0834
▁pact	-11.0834
▁vorbereitet	-11.0834
▁wertvolle	-11.0834
▁Pakistan	-11.0834
▁Ungleichgewicht	-11.0834
▁Yes	-11.0834
▁immense	-11.0834
▁neighbourhood	-11.0834
▁rechnen	-11.0834
▁residence	-11.0834
▁commend	-11.0834
▁shortcomings	-11.0834
▁herrscht	-11.0834
▁membership	-11.0834
▁confusion	-11.0834
▁kämpfen	-11.0834
▁physical	-11.0834
▁Gang	-11.0834
▁coherent	-11.0834
▁raising	-11.0834
▁throw	-11.0834
▁identity	-11.0834
▁gewinnen	-11.0834
▁Brief	-11.0834
▁Cox	-11.0834
▁family	-11.0834
▁drop	-11.0834
latz	-11.0834
▁confidentiality	-11.0834
▁wünschenswert	-11.0834
▁üblich	-11.0834
▁categories	-11.0834
▁Reformprozeß	-11.0834
▁ausgestattet	-11.0834
▁USD	-11.0834
▁compensation	-11.0834
▁abhängig	-11.0834
▁bauen	-11.0834
▁harmful	-11.0834
praxis	-11.0834
▁keen	-11.0834
▁flow	-11.0834
▁Auslegung	-11.0835
7(	-11.0835
Vertrags	-11.0835
▁book	-11.0835
pleted	-11.0835
▁underline	-11.0835
▁guidance	-11.0835
▁owe	-11.0835
▁bedauern	-11.0835
▁280	-11.0835
8(	-11.0835
▁North	-11.0835
▁Gesamtheit	-11.0835
▁Entsendung	-11.0835
▁Rechtsgrundlage	-11.0835
▁bedroht	-11.0835
▁infringement	-11.0835
▁untersuchen	-11.0835
▁vorgetragen	-11.0835
▁racist	-11.0835
▁Ansätze	-11.0836
▁Mitgliedsländer	-11.0836
▁stance	-11.0836
▁frequent	-11.0836
▁identified	-11.0836
▁gestatten	-11.0836
▁Verfassung	-11.0836
▁philosophy	-11.0836
▁interpretation	-11.0836
▁unmöglich	-11.0836
▁Laan	-11.0837
▁EURODAC	-11.0837
▁understood	-11.0837
▁verbreitet	-11.0837
▁geraten	-11.0837
▁interference	-11.0837
▁vorgestellt	-11.0837
▁disappointed	-11.0837
▁rassistische	-11.0837
abel	-11.0837
▁hide	-11.0837
▁stake	-11.0838
▁Quästoren	-11.0838
▁stolz	-11.0838
▁rückwirkend	-11.0838
omé	-11.0839
▁acquire	-11.0839
▁ausgeschlossen	-11.0839
▁erlassen	-11.0839
▁davor	-11.084
▁shipowners	-11.084
▁observed	-11.084
▁accountability	-11.0841
▁fate	-11.0842
▁ferner	-11.0842
▁logisch	-11.0842
▁trend	-11.0842
▁integral	-11.0842
▁location	-11.0842
▁bomb	-11.0842
▁children	-11.0842
▁gelangt	-11.0842
▁Gewässer	-11.0842
▁distortion	-11.0843
▁disadvantaged	-11.0843
▁explicitly	-11.0843
▁insufficient	-11.0844
▁negotiating	-11.0844
wachsen	-11.0845
▁rejection	-11.0845
▁ähnliche	-11.0845
▁befürwortet	-11.0846
▁recycled	-11.0846
▁umsetzen	-11.0846
▁94	-11.0847
▁evident	-11.0847
▁gearbeitet	-11.0848
▁vorhandene	-11.0848
▁authorised	-11.0849
hlbeihilfenkodex	-11.0851
▁acquis	-11.0851
useinandersetzen	-11.0851
▁unannehmbar	-11.0852
▁umweltpolitisch	-11.0853
▁bezahlen	-11.0853
▁Vorgaben	-11.0854
▁removed	-11.0855
▁transportation	-11.0856
▁missing	-11.0857
▁Schwerpunkte	-11.0859
▁bewährt	-11.086
▁Einkommen	-11.086
maß	-11.086
▁strictly	-11.0864
▁begünstigt	-11.0866
▁gained	-11.0866
▁Bediensteten	-11.0867
▁Zuge	-11.0868
▁Arbeitsgruppe	-11.0868
▁emerge	-11.0868
▁soweit	-11.0868
▁Verzögerungen	-11.0869
▁testing	-11.0871
▁Angleich	-11.0871
▁Summe	-11.0872
▁Tausende	-11.0873
räume	-11.0873
▁barriers	-11.0873
▁frontiers	-11.0873
▁sonstige	-11.0877
▁Anteil	-11.0879
▁east	-11.0881
▁Kompetenzen	-11.0884
ipped	-11.0885
▁suggestions	-11.0896
▁payments	-11.0897
▁unmittelbare	-11.0897
▁sought	-11.0901
▁globale	-11.0901
▁strikt	-11.0902
▁banks	-11.0907
▁guaranteed	-11.0907
▁focused	-11.0915
▁catastrophe	-11.0917
▁exceptions	-11.0932
▁befürchten	-11.0934
▁Einheit	-11.0935
▁Wan	-11.0937
▁zones	-11.0941
▁deserves	-11.0941
▁ausgehend	-11.0942
▁strenger	-11.0944
▁preferr	-11.0949
tlich	-11.0952
▁drittens	-11.0953
▁tankers	-11.0953
▁lieber	-11.0953
▁interested	-11.0956
▁2.	-11.0959
ursacherprinzip	-11.0962
▁Fristen	-11.0962
▁aufge	-11.0963
gesellschaften	-11.0971
▁Beifall	-11.0971
▁reich	-11.0972
▁processes	-11.0973
▁substances	-11.0976
ready	-11.0993
▁Ha	-11.1006
▁wollten	-11.1016
▁kompliziert	-11.1019
▁inspections	-11.1022
▁95	-11.1026
kept	-11.103
▁suggests	-11.1033
▁interessant	-11.1048
▁Fest	-11.1052
staatenkontrolle	-11.1053
▁diplomati	-11.1053
enz	-11.1054
▁weist	-11.1058
▁air	-11.1072
▁attempts	-11.108
entscheidungen	-11.1082
▁anhaltende	-11.1085
▁interventions	-11.1091
▁rates	-11.1092
agung	-11.1092
ark	-11.1095
▁erteilt	-11.1098
▁holds	-11.1104
▁Gesellschaften	-11.1113
▁umfassender	-11.1115
▁rapporteurs	-11.1119
▁purposes	-11.1126
▁politisches	-11.1126
▁Strafrecht	-11.1132
62	-11.1138
(1999)0	-11.1145
oth	-11.1146
▁Sant	-11.1148
▁Sitz	-11.1148
▁bitter	-11.1149
ere	-11.1153
gleichen	-11.1157
▁Tätigkeiten	-11.1161
▁geleistete	-11.1162
ite	-11.1167
▁Zahlen	-11.118
tig	-11.118
▁offices	-11.1184
tri	-11.1184
▁ehe	-11.1185
▁eliminat	-11.1186
▁widen	-11.1188
▁Themas	-11.119
mark	-11.1207
▁recognises	-11.1222
▁attend	-11.1228
▁enforce	-11.1239
enden	-11.1255
isch	-11.1272
raum	-11.1272
▁reassure	-11.1285
änderungen	-11.1289
▁eindeutige	-11.1291
stände	-11.1307
▁exchanges	-11.1314
▁movements	-11.1314
▁invest	-11.1335
▁crimes	-11.1337
▁übermäßig	-11.1338
▁doubts	-11.1361
▁Gerichten	-11.1364
▁Sa	-11.1385
▁streng	-11.1394
swert	-11.1398
▁Intervention	-11.1406
gewicht	-11.1408
▁einfache	-11.1415
ments	-11.1426
▁Arten	-11.1436
▁stabilis	-11.1445
▁ältere	-11.1452
sbe	-11.1462
rious	-11.1464
▁Erhalt	-11.1468
▁nachhaltig	-11.147
▁Who	-11.1471
bes	-11.1476
▁offiziell	-11.1482
niveau	-11.1487
▁Fahrzeugen	-11.1493
▁experienc	-11.1495
netze	-11.1498
▁geringer	-11.1511
▁21.	-11.1513
▁ausführliche	-11.1523
▁ma	-11.1526
▁Cor	-11.1533
spiel	-11.1535
▁begründet	-11.1539
O	-11.1554
▁Ansichten	-11.159
os	-11.1596
falt	-11.1598
stern	-11.1601
▁Gesetz	-11.1603
▁isolate	-11.1609
cke	-11.1609
▁Straßen	-11.1612
rechtliche	-11.1622
▁13.	-11.1628
systems	-11.1636
▁Austrians	-11.1639
▁Bildungs	-11.1649
▁Li	-11.1651
▁legt	-11.1658
arbeit	-11.168
▁Davo	-11.1687
▁Gra	-11.169
▁ones	-11.1692
▁exception	-11.1696
▁kinds	-11.1701
▁noted	-11.1704
▁allows	-11.1711
▁Kontakte	-11.1718
▁laufen	-11.1719
25	-11.1734
▁zwingen	-11.1738
▁Finanzierungs	-11.1744
sentscheidungen	-11.1746
▁post	-11.175
▁letzt	-11.1752
▁juristische	-11.1754
▁genügen	-11.1767
schließen	-11.1768
▁Mari	-11.1769
ordnung	-11.1774
▁Mißverständnis	-11.1783
▁42	-11.1784
▁refus	-11.1786
▁Entschließungen	-11.1794
ged	-11.1796
▁hi	-11.1797
▁befürworte	-11.1798
▁sieben	-11.1801
▁erweitern	-11.1801
é	-11.1803
▁auseinander	-11.1806
ewertung	-11.1809
▁receiv	-11.1813
▁integrat	-11.1813
▁Anlage	-11.1815
▁Men	-11.1816
▁appelliere	-11.1818
▁fuel	-11.1819
gesetzt	-11.1821
▁America	-11.1821
▁Umstände	-11.1821
▁depend	-11.1823
▁vertrete	-11.1824
▁ordnungsgemäße	-11.1831
führen	-11.1832
hält	-11.1832
▁aktuelle	-11.1832
▁charge	-11.1833
▁funktionieren	-11.1833
▁decade	-11.1836
▁debates	-11.1836
▁stock	-11.184
▁preparation	-11.1841
▁affair	-11.1842
▁solid	-11.1846
▁town	-11.1848
▁minute	-11.1849
▁endgültig	-11.1856
SC	-11.1857
staat	-11.1862
▁fand	-11.1868
▁vorrangige	-11.1875
staaten	-11.1875
▁Go	-11.1879
▁7,	-11.1881
▁optim	-11.1881
▁Ne	-11.1882
valu	-11.1887
gegangen	-11.1887
▁substanti	-11.1892
Kultur	-11.1895
bedarf	-11.1896
▁terrorist	-11.1896
▁Kürz	-11.1897
länger	-11.1898
▁associat	-11.1904
state	-11.1908
▁angekündigte	-11.1909
▁inevitabl	-11.1911
▁leiden	-11.1912
sprogramme	-11.1914
getreten	-11.1916
▁Hilfs	-11.1917
▁ho	-11.1917
east	-11.1919
schw	-11.1919
▁Systeme	-11.192
▁combin	-11.1923
▁finish	-11.1924
▁publish	-11.1925
fahren	-11.1928
▁determine	-11.1931
▁perfect	-11.1931
▁Second	-11.1931
▁recycle	-11.1932
▁Prüf	-11.1932
fte	-11.1933
griff	-11.1933
▁enhance	-11.1933
▁Förder	-11.1934
▁Produkte	-11.1935
sätze	-11.1936
fore	-11.1937
DA	-11.1938
▁agrees	-11.194
▁bit	-11.194
anlage	-11.1942
lösung	-11.1943
▁Republik	-11.1943
▁Freund	-11.1944
▁Verwertung	-11.1944
▁clean	-11.1944
sumption	-11.1944
AP	-11.1944
Y	-11.1944
abschied	-11.1945
▁Indikator	-11.1945
▁redistribut	-11.1945
▁Leader	-11.1945
▁Option	-11.1945
▁Synergie	-11.1945
▁gravierend	-11.1945
▁traffic	-11.1945
Unzulänglichkeit	-11.1945
dämm	-11.1945
gewirkt	-11.1945
▁1991	-11.1945
▁Aktionspläne	-11.1945
▁Akzeptanz	-11.1945
▁Alliance	-11.1945
▁Effektivität	-11.1945
▁Einwände	-11.1945
▁Erneuerung	-11.1945
▁Eurodac	-11.1945
▁Freitag	-11.1945
▁Fusionen	-11.1945
▁Gewiß	-11.1945
▁Häl	-11.1945
▁Innovation	-11.1945
▁Kategorie	-11.1945
▁Legislativ	-11.1945
▁Lynne	-11.1945
▁Mißbrauch	-11.1945
▁Mobilität	-11.1945
▁Palästinenser	-11.1945
▁Please	-11.1945
▁Schicksal	-11.1945
▁Sjöstedt	-11.1945
▁Spitze	-11.1945
▁Strasbourg	-11.1945
▁Straßburg	-11.1945
▁Subventionen	-11.1945
▁Verschmutzung	-11.1945
▁Wortmeldung	-11.1945
▁Wälder	-11.1945
▁afraid	-11.1945
▁anspruchsvolle	-11.1945
▁besorgt	-11.1945
▁certificate	-11.1945
▁coherence	-11.1945
▁complicated	-11.1945
▁desperate	-11.1945
▁drängen	-11.1945
▁ehemalige	-11.1945
▁emissions	-11.1945
▁enrich	-11.1945
▁erinnere	-11.1945
▁erläutern	-11.1945
▁estimate	-11.1945
▁expand	-11.1945
▁gezwungen	-11.1945
▁hilfreich	-11.1945
▁inequalities	-11.1945
▁invitation	-11.1945
▁justitielle	-11.1945
▁mangelnde	-11.1945
▁nepotism	-11.1945
▁scrutiny	-11.1945
▁stattfindet	-11.1945
▁unverzichtbar	-11.1945
▁unverzüglich	-11.1945
▁veranlaßt	-11.1945
▁vergleichbar	-11.1945
▁verteidigt	-11.1945
▁writing	-11.1945
▁zuzustimmen	-11.1945
▁Finnland	-11.1945
▁Ombudsman	-11.1945
▁display	-11.1945
▁distance	-11.1945
▁imagine	-11.1945
▁intervene	-11.1945
▁mutige	-11.1945
▁zügig	-11.1945
▁Niemand	-11.1945
▁bedürfen	-11.1945
▁Kernkraftwerk	-11.1945
▁stringent	-11.1945
▁Verstöße	-11.1945
▁expertise	-11.1945
▁Albanians	-11.1945
▁Loy	-11.1945
▁vision	-11.1945
▁citizenship	-11.1945
▁Ideologie	-11.1945
▁Pfeiler	-11.1945
▁neo	-11.1945
▁omission	-11.1945
▁Inselregionen	-11.1945
▁proactive	-11.1945
▁vorankommen	-11.1945
▁außen	-11.1945
▁drive	-11.1945
PT	-11.1945
▁Hände	-11.1945
▁solve	-11.1945
▁collaboration	-11.1945
wechsel	-11.1945
▁eight	-11.1945
▁revenue	-11.1945
▁besitzen	-11.1945
▁aufbauen	-11.1945
▁limitations	-11.1945
oreign	-11.1945
▁Bestrebungen	-11.1945
▁Vorausschau	-11.1945
▁accessible	-11.1945
▁gefragt	-11.1945
▁Finland	-11.1945
▁Wahrheit	-11.1945
▁animal	-11.1945
▁Liberalisierung	-11.1946
▁Schweden	-11.1946
▁beweisen	-11.1946
▁europaweit	-11.1946
▁Wichtigkeit	-11.1946
▁festzustellen	-11.1946
▁Enttäuschung	-11.1946
▁electora	-11.1946
▁Ruf	-11.1946
▁restrictive	-11.1946
▁beendet	-11.1946
▁Zusammenleben	-11.1946
▁Over	-11.1946
▁erweist	-11.1946
▁Arbeitszeit	-11.1946
seinandersetzung	-11.1946
▁versteht	-11.1946
▁Erfassung	-11.1946
helm	-11.1947
▁Tisch	-11.1947
▁festlegen	-11.1947
▁beef	-11.1947
▁repair	-11.1947
▁unklar	-11.1947
▁complaint	-11.1947
▁ausgearbeitet	-11.1947
▁32	-11.1947
)]	-11.1948
▁Akt	-11.1948
ancy	-11.1948
▁koordiniert	-11.1948
▁length	-11.1948
▁piece	-11.1948
▁unnecessary	-11.1948
▁Mediterranean	-11.1948
▁Flug	-11.1948
▁Sozialpolitik	-11.1948
▁Drei	-11.1949
▁Bay	-11.1949
▁Bedürfnisse	-11.1949
▁berufliche	-11.1949
▁Seele	-11.1949
▁Thyssen	-11.195
▁beklagen	-11.195
▁einbeziehen	-11.195
▁Bedauer	-11.195
▁nachdenken	-11.195
Straftatbestände	-11.195
▁Umweltfragen	-11.195
tät	-11.195
▁durchsetzen	-11.1951
▁harm	-11.1951
▁durchgesetzt	-11.1951
zierung	-11.1952
▁Tur	-11.1953
▁Konservativen	-11.1953
▁belgischen	-11.1953
▁einräumen	-11.1953
▁Ausgleich	-11.1953
▁Anna	-11.1954
▁amerikanische	-11.1954
▁ausgesetzt	-11.1954
▁gewiß	-11.1954
▁gewonnen	-11.1954
▁klären	-11.1954
▁zählt	-11.1954
▁messen	-11.1954
▁stützt	-11.1955
▁Periodische	-11.1955
▁aufgeführt	-11.1955
▁hergestellt	-11.1955
▁anerkennen	-11.1955
▁fourth	-11.1956
▁unemployed	-11.1957
▁einzugehen	-11.1958
▁Reformierung	-11.1958
▁Spanien	-11.1958
▁Sweden	-11.1958
▁determined	-11.1958
▁Force	-11.1959
▁acceptance	-11.196
▁peripheral	-11.196
▁Vorbehalte	-11.1962
▁aufgeworfen	-11.1962
▁choose	-11.1963
▁rapidly	-11.1964
▁interpreted	-11.1964
▁Standards	-11.1964
▁usual	-11.1965
▁erwiesen	-11.1967
ho	-11.1967
▁diplomatische	-11.1967
▁Technologien	-11.1968
▁bedanken	-11.1968
▁irische	-11.1969
▁respective	-11.1969
▁logical	-11.197
▁doubtless	-11.197
▁ehrgeizig	-11.1971
▁tritt	-11.1973
▁bedenken	-11.1973
▁Betroffenen	-11.1975
▁knappen	-11.1975
▁expense	-11.1975
▁eyes	-11.1977
▁Weisen	-11.1977
▁overlook	-11.1978
▁begründen	-11.1979
▁gefährdet	-11.1979
▁refused	-11.1979
VIII	-11.1979
▁formally	-11.1981
▁stopp	-11.1982
▁Konsequenzen	-11.1984
▁anstehende	-11.1985
▁associate	-11.1986
demokratische	-11.1988
▁leader	-11.1989
bestände	-11.199
▁depth	-11.1991
▁actively	-11.1993
▁betrieben	-11.1993
3(	-11.1996
haft	-11.1997
▁erlauben	-11.1998
Risikomanagement	-11.1998
▁getreten	-11.1999
ntage	-11.2005
▁reviewed	-11.2006
▁Linken	-11.2013
haften	-11.2013
▁irgend	-11.2017
▁proportional	-11.2017
arbeiter	-11.2018
pro	-11.2019
ealth	-11.202
▁flexibler	-11.2023
▁ministers	-11.2027
▁fish	-11.2029
▁Kenntnisse	-11.2029
übergreifende	-11.2037
▁ill	-11.2038
ble	-11.2043
bahn	-11.2044
▁Aussagen	-11.2045
▁wahren	-11.205
gemeinschaftlich	-11.205
▁San	-11.2067
▁Presidents	-11.2068
▁Tor	-11.2078
▁Schwächen	-11.2078
▁mistakes	-11.2079
▁failing	-11.2081
▁aufrichtig	-11.2082
▁difficulty	-11.2082
▁organise	-11.2085
▁owners	-11.2093
▁aktuellen	-11.2096
Haushaltsordnung	-11.2096
▁Str	-11.2103
▁deadlines	-11.2105
▁methods	-11.2105
▁komplizierten	-11.2113
▁refuse	-11.2114
stätigkeit	-11.2115
▁neighbours	-11.2117
ob	-11.2129
ations	-11.2138
▁brachte	-11.2139
gerung	-11.2164
▁fehlende	-11.2166
art	-11.2167
▁Ratspräsidenten	-11.2174
ide	-11.2186
▁Abkommens	-11.2195
▁47	-11.2197
▁stressing	-11.22
▁höchsten	-11.2203
▁functions	-11.221
cken	-11.2211
▁ausreichende	-11.2211
▁mußte	-11.2214
▁Tod	-11.2214
▁unions	-11.2215
▁claims	-11.2221
sdebatte	-11.2225
▁Beschlüssen	-11.2227
ib	-11.2244
10	-11.2246
raten	-11.2257
ple	-11.2262
▁Staats	-11.2265
Wettbewerbsrecht	-11.227
▁react	-11.2279
▁privilege	-11.228
▁formed	-11.2284
▁factors	-11.2288
▁genauer	-11.2289
▁Österreicher	-11.2304
▁ut	-11.2315
▁Entwurfs	-11.2324
Projekte	-11.2329
▁renationalis	-11.2334
000	-11.2335
▁grants	-11.2354
setzen	-11.2356
▁effizienter	-11.2358
▁reconcile	-11.2364
▁gering	-11.2377
▁thoughts	-11.2379
▁ideal	-11.2392
▁strands	-11.2419
sniveau	-11.2425
▁delays	-11.2433
markt	-11.2435
smal	-11.2438
tabilisierung	-11.2443
▁Gefahren	-11.2457
▁Gerichtshofs	-11.2473
die	-11.2492
höh	-11.2512
▁congratulat	-11.2572
▁items	-11.258
wi	-11.2586
hab	-11.2589
▁Tr	-11.259
▁j	-11.2596
▁rational	-11.2601
▁populations	-11.2608
▁suit	-11.2611
▁4,	-11.2613
▁Wis	-11.2615
▁outer	-11.2615
kämpfung	-11.2618
▁41	-11.262
▁negotiate	-11.2632
▁Vorgänger	-11.2644
etrugsbekämpfung	-11.2648
▁Abstimmungen	-11.2657
▁Gleichstellungs	-11.2658
ann	-11.2662
▁Gesundheits	-11.2667
▁Amts	-11.2683
▁kurze	-11.2698
▁systematisch	-11.2711
▁mittler	-11.2725
geht	-11.273
▁Rechtsakte	-11.2734
iven	-11.2749
▁Voll	-11.275
▁schlecht	-11.2767
nie	-11.2768
▁Freiheiten	-11.2771
fahrguttransport	-11.2782
use	-11.2783
▁arabische	-11.2795
punkte	-11.2796
▁Verteidigungs	-11.2799
selbe	-11.2807
▁1,	-11.2818
cy	-11.2825
▁Forschungs	-11.2834
▁los	-11.284
▁Te	-11.2845
▁dient	-11.2853
ler	-11.2853
▁Bevölkerungs	-11.287
treten	-11.288
srahmen	-11.2882
gebiet	-11.289
form	-11.289
▁bilateral	-11.2905
▁criticise	-11.2909
ehen	-11.2916
aff	-11.292
ständig	-11.2923
actors	-11.2935
▁Krieg	-11.2948
▁Könn	-11.296
ious	-11.2963
kosten	-11.2967
genommen	-11.2967
▁organis	-11.2993
▁Vorschlags	-11.2994
sabkommen	-11.3003
frei	-11.3003
losigkeit	-11.3016
▁defin	-11.3016
▁Ad	-11.3017
bring	-11.3028
▁test	-11.3037
▁Mann	-11.3042
gruppe	-11.3042
▁sp	-11.3058
way	-11.306
▁Russia	-11.3061
▁bürokratische	-11.3061
ient	-11.3062
▁Quote	-11.3064
▁junge	-11.3065
▁möge	-11.3066
▁befürchte	-11.3068
▁Stoffe	-11.3069
▁geographische	-11.3069
▁Ausschüsse	-11.307
▁Männer	-11.307
▁betone	-11.3073
ick	-11.3073
▁Schlüssel	-11.3075
▁Studie	-11.3076
▁harmoni	-11.3076
▁Unglück	-11.3084
▁drug	-11.3086
▁contract	-11.3086
▁association	-11.3089
▁Green	-11.309
▁collect	-11.3091
j	-11.3094
ads	-11.3104
▁Zei	-11.3106
▁pleas	-11.3108
vertreter	-11.3108
▁fa	-11.3109
centralised	-11.3112
hold	-11.3113
uslaufen	-11.3114
▁Statu	-11.3117
▁Faktor	-11.312
welt	-11.3122
Recht	-11.3122
▁ausreichen	-11.3122
▁Orientierung	-11.3123
▁Vertrau	-11.3124
ssystem	-11.3129
grenzen	-11.3134
fordert	-11.3136
▁monopol	-11.3138
ify	-11.3139
zusammenarbeit	-11.3139
denkt	-11.3139
96/	-11.3141
▁manager	-11.3142
depth	-11.3142
favour	-11.3145
Staaten	-11.3145
Mittel	-11.3145
steigen	-11.3146
effective	-11.3152
▁nieder	-11.3152
▁stor	-11.3154
reiche	-11.3157
scale	-11.3159
ola	-11.3166
4/1999	-11.3168
▁klein	-11.3169
aatsanwaltschaft	-11.3169
teiligung	-11.3171
▁occur	-11.3172
▁enjoy	-11.3173
▁witness	-11.3174
wirkung	-11.3177
nction	-11.318
▁possibilit	-11.318
Regionen	-11.318
▁unanimous	-11.3181
▁Üb	-11.3185
▁renew	-11.3187
führt	-11.3187
▁Bild	-11.3187
regionen	-11.3188
▁weakness	-11.3188
accessi	-11.3189
▁slight	-11.319
▁export	-11.319
▁moral	-11.319
▁juris	-11.3191
▁Stahl	-11.3191
emäß	-11.3192
runde	-11.3192
▁disagree	-11.3193
▁Justizminister	-11.3193
▁vigilan	-11.3193
lassung	-11.3193
nsbesondere	-11.3194
▁guid	-11.3194
märkte	-11.3194
▁Redu	-11.3194
▁jeweil	-11.3194
ährend	-11.3194
aktion	-11.3194
5-03	-11.3194
5-012	-11.3195
▁Valentin	-11.3195
▁geschädigt	-11.3195
förderungswürdig	-11.3195
▁Barcelona	-11.3195
▁Bedrohung	-11.3195
▁Mangel	-11.3195
▁Nahrungsmittel	-11.3195
▁Produktivität	-11.3195
▁Stück	-11.3195
▁XXVIII	-11.3195
▁belief	-11.3195
▁mix	-11.3195
Veröffentlichung	-11.3195
swachstum	-11.3195
▁1986	-11.3195
▁Allianz	-11.3195
▁Annäherung	-11.3195
▁Befrachter	-11.3195
▁Biscay	-11.3195
▁Britain	-11.3195
▁Confedera	-11.3195
▁Delors	-11.3195
▁ELDR	-11.3195
▁Eröffnung	-11.3195
▁Gaza	-11.3195
▁Gefühl	-11.3195
▁ICES	-11.3195
▁Lanka	-11.3195
▁Lebanon	-11.3195
▁Liikanen	-11.3195
▁Luxembourg	-11.3195
▁Luxemburg	-11.3195
▁McNally	-11.3195
▁Moratinos	-11.3195
▁Premier	-11.3195
▁Representative	-11.3195
▁Rußland	-11.3195
▁Solana	-11.3195
▁Spain	-11.3195
▁Titel	-11.3195
▁Transit	-11.3195
▁Vallelersundi	-11.3195
▁Verfasser	-11.3195
▁Verfolgung	-11.3195
▁Wallström	-11.3195
▁Widerstand	-11.3195
▁Wohnsitz	-11.3195
▁absurd	-11.3195
▁anbelangt	-11.3195
▁anderthalb	-11.3195
▁anerkennt	-11.3195
▁anxious	-11.3195
▁attentive	-11.3195
▁bekräftigt	-11.3195
▁beteiligen	-11.3195
▁destruction	-11.3195
▁driving	-11.3195
▁droht	-11.3195
▁dynamic	-11.3195
▁eingeschränkt	-11.3195
▁einschlägige	-11.3195
▁erleichtern	-11.3195
▁fisheries	-11.3195
▁gedacht	-11.3195
▁gekennzeichnet	-11.3195
▁grip	-11.3195
▁guard	-11.3195
▁hamper	-11.3195
▁hauptsächlich	-11.3195
▁hinfällig	-11.3195
▁hitherto	-11.3195
▁hurdle	-11.3195
▁imperative	-11.3195
▁inakzeptabel	-11.3195
▁interact	-11.3195
▁korrekt	-11.3195
▁magnificent	-11.3195
▁mobility	-11.3195
▁perceive	-11.3195
▁plötzlich	-11.3195
▁prejudice	-11.3195
▁prinzipiell	-11.3195
▁productivity	-11.3195
▁reagiert	-11.3195
▁realistic	-11.3195
▁rechtfertigen	-11.3195
▁television	-11.3195
▁vernommen	-11.3195
▁verursacht	-11.3195
▁verwiesen	-11.3195
▁vigorous	-11.3195
▁volunteers	-11.3195
▁überprüfen	-11.3195
▁überwunden	-11.3195
▁Free	-11.3195
▁Gedächtnis	-11.3195
▁Vision	-11.3195
▁herausstellen	-11.3195
▁isolieren	-11.3195
▁mangelt	-11.3195
▁religi	-11.3195
▁schenken	-11.3195
▁volks	-11.3195
▁watch	-11.3195
▁Otherwise	-11.3195
▁altogether	-11.3195
▁klarstellen	-11.3195
▁legislature	-11.3195
▁resumed	-11.3195
▁sudden	-11.3195
▁verwirklichen	-11.3195
▁Bonde	-11.3195
▁electronic	-11.3195
▁feet	-11.3195
▁penalt	-11.3195
▁ruling	-11.3195
▁Verhaltenskodex	-11.3195
▁gründet	-11.3195
▁memory	-11.3195
▁praise	-11.3195
ldungen	-11.3195
▁crises	-11.3195
▁gefährden	-11.3195
sbefugnisse	-11.3195
▁Näh	-11.3195
▁langsam	-11.3195
▁verweigert	-11.3195
▁Öltanker	-11.3195
▁districts	-11.3195
▁ausüben	-11.3195
▁outstanding	-11.3195
▁Formulierung	-11.3195
▁metals	-11.3195
▁verzeichnen	-11.3195
▁Küstenregionen	-11.3195
▁kohärente	-11.3195
▁profound	-11.3195
▁vermittelt	-11.3195
▁input	-11.3195
▁finanzieren	-11.3195
▁differ	-11.3195
▁tagtäglich	-11.3195
▁Sozialistische	-11.3195
▁statute	-11.3195
▁1999/210	-11.3195
▁Quite	-11.3195
▁verarbeitende	-11.3195
▁ignorieren	-11.3195
▁Kurz	-11.3195
▁zweifels	-11.3195
aktisch	-11.3195
▁instability	-11.3195
▁spot	-11.3195
▁Forstwirtschaft	-11.3195
▁technologies	-11.3195
▁Herstellung	-11.3195
▁Einschätzung	-11.3195
▁indicators	-11.3195
▁simplify	-11.3195
▁Vereinfachung	-11.3195
▁retirement	-11.3195
▁Obergrenze	-11.3195
▁Reeder	-11.3195
▁assent	-11.3195
▁connect	-11.3195
bringen	-11.3195
▁gewidmet	-11.3196
▁manifesto	-11.3196
▁rethink	-11.3196
▁bezahlt	-11.3196
▁Naturally	-11.3196
▁Grundprinzip	-11.3196
▁entsorgt	-11.3196
▁ratifiziert	-11.3196
▁gespielt	-11.3196
▁isolation	-11.3196
▁liefern	-11.3196
ux	-11.3196
▁Einmischung	-11.3196
▁Weltkrieg	-11.3196
▁pending	-11.3196
▁meantime	-11.3196
▁lesen	-11.3196
▁vertritt	-11.3196
▁Morgan	-11.3196
▁94/	-11.3196
▁extra	-11.3196
▁erlebt	-11.3196
▁steer	-11.3196
▁civilisation	-11.3196
▁übermittelt	-11.3196
▁ersetzt	-11.3196
▁Vereinigung	-11.3197
▁39	-11.3197
▁erhielt	-11.3197
▁occurr	-11.3197
drew	-11.3197
▁strange	-11.3197
▁44	-11.3197
▁Agrarpolitik	-11.3197
▁bio	-11.3198
▁Erkenntnisse	-11.3198
▁Rechtsrahmen	-11.3198
▁Währungs	-11.3199
▁1994-1999	-11.3199
▁beantwortet	-11.3199
▁write	-11.3199
▁bezeichnen	-11.3199
▁consolidation	-11.3199
▁jeopardise	-11.3199
▁Bevor	-11.3199
▁gigantische	-11.3199
▁beizutragen	-11.3199
ross	-11.32
▁CAP	-11.32
llor	-11.32
▁Davies	-11.32
▁Überw	-11.32
▁twenty	-11.32
▁nützlich	-11.32
▁überwachen	-11.32
▁worrie	-11.32
▁compete	-11.3201
▁fassen	-11.3201
▁Sea	-11.3201
▁eingeräumt	-11.3202
orientat	-11.3202
▁gone	-11.3202
friedenstellend	-11.3203
▁Departements	-11.3203
▁city	-11.3203
▁Teilnahme	-11.3203
▁stay	-11.3204
▁Wieland	-11.3204
▁fit	-11.3204
corporation	-11.3204
▁ausgeht	-11.3204
▁gezahlt	-11.3205
▁Zustand	-11.3206
▁zugesagt	-11.3206
▁eingerichtet	-11.3207
▁Jeder	-11.3207
▁Rechtsetzung	-11.3208
▁anstreben	-11.3209
tätigung	-11.321
▁zollen	-11.321
▁warning	-11.3211
▁auferlegt	-11.3211
▁Seegrenze	-11.3212
▁roll	-11.3212
▁gebildet	-11.3213
▁attract	-11.3213
▁Besuch	-11.3213
▁satisfied	-11.3213
▁scrapp	-11.3214
▁recover	-11.3215
▁Betrag	-11.3215
▁undergo	-11.3215
▁aufgegriffen	-11.3215
▁size	-11.3216
▁footing	-11.3217
(199	-11.3219
▁heißen	-11.322
▁Demokraten	-11.322
▁bewertet	-11.322
▁nachkommen	-11.322
▁englischen	-11.3221
▁zukommt	-11.3222
▁zukünftig	-11.3223
anzle	-11.3228
▁unclear	-11.3229
shandeln	-11.323
▁scandals	-11.3231
▁quote	-11.3231
▁realised	-11.3231
▁Organ	-11.3232
ift	-11.3233
prä	-11.3233
▁Lor	-11.3234
▁gerufen	-11.3234
▁wach	-11.3234
▁gefallen	-11.3238
▁desired	-11.3238
▁tighten	-11.324
▁farming	-11.324
▁Fernseh	-11.324
▁spread	-11.3241
▁characterise	-11.3242
8)	-11.3243
▁assets	-11.3246
▁anstelle	-11.3247
▁betreiben	-11.325
▁zentralisierte	-11.3252
▁condemned	-11.3253
▁nahm	-11.3255
▁leichter	-11.3255
ksamkeit	-11.3255
▁hören	-11.3255
▁Einstellung	-11.3258
gefangen	-11.3258
▁Erwägungen	-11.326
ecurity	-11.326
ieß	-11.3262
▁image	-11.3264
▁forests	-11.3266
▁transferr	-11.3267
▁structured	-11.3271
▁compli	-11.3272
▁erkannt	-11.3272
▁recycelt	-11.3273
▁reservations	-11.3275
▁skill	-11.3279
betriebe	-11.328
▁wholehearted	-11.3282
▁offered	-11.3287
▁Behinderten	-11.329
▁Zielsetzungen	-11.329
▁earn	-11.3295
▁centralis	-11.3297
▁openly	-11.33
▁associations	-11.3304
▁managers	-11.3305
▁integrate	-11.3307
ka	-11.3312
▁Verbrechens	-11.3312
▁Monopol	-11.3318
▁km	-11.3328
▁zentral	-11.3345
▁reibungslose	-11.3347
▁roots	-11.3348
▁judgements	-11.3348
▁unbe	-11.3353
lessness	-11.3354
▁führte	-11.3373
x	-11.3376
▁Her	-11.3376
▁options	-11.3378
ife	-11.3381
abkommen	-11.3388
▁wording	-11.3388
▁Dara	-11.3395
▁internally	-11.3401
▁constitutes	-11.3407
▁langfristige	-11.3408
▁zeit	-11.3409
▁Gesetzes	-11.3411
▁supervise	-11.3416
▁Freedoms	-11.3422
▁breit	-11.3429
mann	-11.3431
▁Partnerschaften	-11.3432
▁arms	-11.3436
▁Palestinians	-11.3437
▁Krisen	-11.3444
ellen	-11.3448
▁transported	-11.3452
▁Konzepte	-11.3455
sstrategien	-11.3456
▁Teile	-11.3469
▁Rech	-11.3475
vert	-11.3484
▁Under	-11.3487
▁Tier	-11.3496
EN	-11.3497
▁freie	-11.3498
▁Vert	-11.3521
projekte	-11.3523
▁demonstrates	-11.3526
▁mass	-11.353
lit	-11.3533
▁na	-11.3561
▁dieselben	-11.3562
▁Gespräch	-11.3563
▁aufzu	-11.3567
▁wahr	-11.3572
SE	-11.3582
▁sail	-11.3593
▁eventuelle	-11.3596
schaftlicher	-11.3596
▁models	-11.3601
sbehörde	-11.3604
▁schedule	-11.3605
▁Gütern	-11.3607
Sachverständiger	-11.3616
makers	-11.3627
▁elementar	-11.3633
▁Nor	-11.3634
▁dezentrale	-11.3638
▁schädliche	-11.3638
▁bra	-11.3641
▁bann	-11.3645
▁+	-11.3654
▁Verbesserungen	-11.367
▁einheitliches	-11.3673
▁Taten	-11.3674
▁finding	-11.3677
züglich	-11.3677
fassung	-11.368
▁Unternehmens	-11.3685
tisch	-11.3701
▁strenge	-11.3712
▁Problems	-11.372
▁bl	-11.3735
▁cards	-11.3738
▁Monopole	-11.3743
hell	-11.3766
sverfahrens	-11.3773
sbekämpfung	-11.3778
▁mo	-11.3785
▁konkreter	-11.379
▁Auffassungen	-11.3797
▁farm	-11.3801
▁bereiten	-11.3804
▁argue	-11.381
ence	-11.3826
▁sho	-11.3838
▁Po	-11.3841
▁Schuld	-11.3849
problem	-11.3856
▁execut	-11.3858
▁Darau	-11.3871
▁Ander	-11.3878
auc	-11.3881
staatlichkeit	-11.3883
▁Nord	-11.3885
vested	-11.3892
▁begrenzte	-11.3892
▁Verla	-11.393
▁treffend	-11.3936
öl	-11.3938
▁Kreise	-11.3965
▁acts	-11.3976
rad	-11.4015
▁shares	-11.4023
fung	-11.4053
▁Hinweise	-11.4069
▁anders	-11.4073
▁bestmögliche	-11.4089
▁obligatorische	-11.41
▁voter	-11.4103
nten	-11.4119
▁eliminate	-11.4137
67	-11.4159
IT	-11.4164
austausch	-11.4191
sbestimmungen	-11.4194
▁negativ	-11.422
▁Situationen	-11.4222
fremdenfeindlich	-11.4223
von	-11.4237
▁mandat	-11.4238
▁Unterschied	-11.4245
etzung	-11.4275
▁Berufs	-11.432
präsident	-11.4334
steht	-11.4338
hersteller	-11.4356
quote	-11.436
▁supervis	-11.4371
▁rechts	-11.4372
▁Betrieb	-11.4399
ziel	-11.4412
änge	-11.4418
▁gezielt	-11.4427
ziehen	-11.4428
icher	-11.4428
▁grow	-11.4439
▁Verursacher	-11.444
▁reine	-11.4458
artige	-11.4465
qui	-11.4467
igung	-11.447
möglichkeiten	-11.447
wirtschaftliche	-11.4473
▁erstellen	-11.4479
technologie	-11.4481
▁Alternative	-11.4486
▁Gleichbe	-11.4493
▁Aussage	-11.4496
ließen	-11.4497
▁remark	-11.4497
▁moderne	-11.45
▁stehe	-11.4503
▁block	-11.4503
rac	-11.4506
▁multinational	-11.4508
for	-11.4511
▁contact	-11.4511
gelegt	-11.4515
ach	-11.4515
▁feature	-11.4517
▁observation	-11.4518
▁MEP	-11.4518
▁enterprise	-11.452
▁pillar	-11.452
▁employee	-11.452
ay	-11.4522
▁refugee	-11.4525
▁negotiation	-11.4527
▁difference	-11.4532
▁Vizepräsident	-11.4537
Gebiet	-11.4538
▁verurteilt	-11.454
▁hour	-11.4541
▁Reich	-11.4541
sfonds	-11.4543
▁Person	-11.4546
▁Erwägung	-11.455
▁Kompetenz	-11.455
▁storm	-11.4553
▁Bedingung	-11.4553
▁custom	-11.4554
▁origin	-11.4554
▁Herz	-11.4554
▁strength	-11.4555
▁hervorragend	-11.4556
verhalten	-11.456
Dienst	-11.4561
werk	-11.4566
known	-11.4567
funktion	-11.4567
läuft	-11.4569
isierte	-11.4569
polluter	-11.457
spread	-11.4571
▁qualitative	-11.4571
Nordi	-11.4571
▁Grenze	-11.4572
Krise	-11.4572
Nutzen	-11.4573
efficient	-11.4573
bewußt	-11.4573
▁issu	-11.4573
▁intern	-11.4573
Richtlinie	-11.4574
down	-11.4574
Sta	-11.4575
programme	-11.4577
wissen	-11.458
▁pollut	-11.4583
sses	-11.4587
kehr	-11.4589
▁folg	-11.4591
Mitgliedstaaten	-11.4591
▁logic	-11.4593
▁minister	-11.4594
gemäß	-11.4594
▁formuliert	-11.4596
▁Streit	-11.4597
▁interpret	-11.4597
schlüsse	-11.4598
▁Vorgänge	-11.4598
wendung	-11.46
▁Bes	-11.4602
▁Fünf	-11.4603
▁launch	-11.4604
rolle	-11.4604
cent	-11.4604
▁accompan	-11.4608
▁fragt	-11.4609
▁apparent	-11.4609
▁explicit	-11.4609
▁disadvantage	-11.461
▁Third	-11.461
▁unfortunate	-11.461
▁describe	-11.461
▁convince	-11.461
▁tackl	-11.461
hould	-11.4611
kapital	-11.4614
▁Logi	-11.4614
▁Ereignis	-11.4615
reichend	-11.4616
▁Liberale	-11.4617
▁Kapit	-11.4618
beihilfen	-11.4619
▁Berg	-11.462
lehnt	-11.462
▁opt	-11.462
▁breach	-11.4621
forderung	-11.4621
zog	-11.4621
▁Disziplin	-11.4622
▁transit	-11.4622
▁minor	-11.4622
wart	-11.4622
gesundheit	-11.4622
besitze	-11.4623
urteilung	-11.4623
▁sovereign	-11.4623
▁Adria	-11.4623
▁struc	-11.4623
▁quantit	-11.4623
stück	-11.4623
▁Langzeitarbeits	-11.4623
Beeinträchtigung	-11.4623
Mathies	-11.4623
republik	-11.4623
▁Bewußtsein	-11.4623
▁Blickwinkel	-11.4623
▁Böhm	-11.4623
▁Danube	-11.4623
▁Donau	-11.4623
▁EAGFL	-11.4623
▁EAGGF	-11.4623
▁EVP	-11.4623
▁Erdbeben	-11.4623
▁Ergänzung	-11.4623
▁Fourth	-11.4623
▁Hürden	-11.4623
▁Karl	-11.4623
▁Kommunen	-11.4623
▁Mission	-11.4623
▁Obviously	-11.4623
▁Palestine	-11.4623
▁Protection	-11.4623
▁Quaestors	-11.4623
▁Stabilitätspakt	-11.4623
▁Technik	-11.4623
▁Tragweite	-11.4623
▁Unterzeichn	-11.4623
▁Vertiefung	-11.4623
▁Zusätzlich	-11.4623
▁abzubauen	-11.4623
▁angehört	-11.4623
▁applaud	-11.4623
▁appreciation	-11.4623
▁beeinflussen	-11.4623
▁benutzen	-11.4623
▁beunruhigt	-11.4623
▁bewirkt	-11.4623
▁bretonische	-11.4623
▁calculat	-11.4623
▁clarification	-11.4623
▁contrast	-11.4623
▁decrease	-11.4623
▁deficiencies	-11.4623
▁deprivation	-11.4623
▁description	-11.4623
▁dignity	-11.4623
▁eingebunden	-11.4623
▁entscheidet	-11.4623
▁erlaubt	-11.4623
▁errichten	-11.4623
▁flexibel	-11.4623
▁gebraucht	-11.4623
▁großzügig	-11.4623
▁herangezogen	-11.4623
▁impetus	-11.4623
▁integrieren	-11.4623
▁interessieren	-11.4623
▁klug	-11.4623
▁legitimacy	-11.4623
▁manoeuvre	-11.4623
▁murder	-11.4623
▁newspaper	-11.4623
▁nördliche	-11.4623
▁occup	-11.4623
▁perfekt	-11.4623
▁plastic	-11.4623
▁president	-11.4623
▁principal	-11.4623
▁propaganda	-11.4623
▁prosecution	-11.4623
▁rigid	-11.4623
▁satisfy	-11.4623
▁schreckliche	-11.4623
▁schreibt	-11.4623
▁schrittweise	-11.4623
▁serbische	-11.4623
▁stattgefunden	-11.4623
▁stünde	-11.4623
▁stützen	-11.4623
▁territories	-11.4623
▁tremendous	-11.4623
▁türkische	-11.4623
▁unabdingbar	-11.4623
▁verbergen	-11.4623
▁verschaffen	-11.4623
▁versprochen	-11.4623
▁vonnöten	-11.4623
▁vorzuschlagen	-11.4623
▁widerspricht	-11.4623
▁zwingt	-11.4623
▁Ängste	-11.4623
▁Öffnung	-11.4623
richtlinie	-11.4623
▁Decision	-11.4623
▁Gebrauch	-11.4623
▁Schwermetalle	-11.4623
▁bewiesen	-11.4623
▁glad	-11.4623
▁hospital	-11.4623
▁irgendwelche	-11.4623
▁school	-11.4623
▁solidarisch	-11.4623
▁vorlegt	-11.4623
▁zufällig	-11.4623
▁zweckmäßig	-11.4623
▁Time	-11.4623
▁admir	-11.4623
▁contraven	-11.4623
▁multifunctional	-11.4623
▁verfügt	-11.4623
▁zweifelhaft	-11.4623
▁gewahrt	-11.4623
▁intensify	-11.4623
▁stabile	-11.4623
▁credit	-11.4623
▁dictatorship	-11.4623
▁Fakten	-11.4623
▁Jean	-11.4623
▁Laufbahn	-11.4623
▁UNMIK	-11.4623
▁agency	-11.4623
▁gelesen	-11.4623
▁straight	-11.4623
▁Hüter	-11.4623
▁Kette	-11.4623
▁Behauptung	-11.4623
▁vermitteln	-11.4623
▁violence	-11.4623
▁Vorabkontrolle	-11.4623
▁agieren	-11.4623
▁housing	-11.4623
▁dominan	-11.4623
▁Kunststoff	-11.4623
▁foresee	-11.4623
▁bewegt	-11.4623
▁Monday	-11.4623
▁enttäuscht	-11.4623
▁wählen	-11.4623
▁Konvent	-11.4623
▁foster	-11.4623
▁Begründung	-11.4623
▁Schnell	-11.4623
▁Aktionsgruppen	-11.4623
▁Dort	-11.4623
▁councils	-11.4623
▁route	-11.4623
▁Mindestnormen	-11.4623
▁irregularities	-11.4623
▁plus	-11.4623
▁Kernwaffen	-11.4624
▁Einnahmen	-11.4624
▁Finanzrahmen	-11.4624
▁hervorgeht	-11.4624
▁dawn	-11.4624
▁getrennt	-11.4624
▁Eisenbahn	-11.4624
▁Adriatic	-11.4624
▁lock	-11.4624
▁inequality	-11.4624
▁Catholic	-11.4624
▁stick	-11.4624
nhang	-11.4624
▁Außenminister	-11.4624
▁Ratifizierung	-11.4624
▁imstande	-11.4624
▁dargestellt	-11.4624
▁Rücktritt	-11.4624
▁darzulegen	-11.4624
▁Anyone	-11.4624
▁ethic	-11.4624
▁Außenha	-11.4624
▁conju	-11.4624
▁punish	-11.4624
katalog	-11.4624
▁Kapitalsteuer	-11.4624
▁everywhere	-11.4624
▁verzögert	-11.4624
smodell	-11.4624
▁verweist	-11.4624
▁permission	-11.4624
▁Belastung	-11.4624
▁visa	-11.4624
▁Viertel	-11.4624
▁Literatur	-11.4624
▁Hence	-11.4624
▁gather	-11.4624
▁stating	-11.4624
▁eröffnet	-11.4624
▁Luft	-11.4624
▁abzuschließen	-11.4624
▁wann	-11.4624
▁exakt	-11.4625
liste	-11.4625
▁fire	-11.4625
▁resort	-11.4625
▁corruption	-11.4625
▁spar	-11.4625
▁Wortlau	-11.4625
▁Rechtsordnung	-11.4625
▁abgebaut	-11.4625
▁hinnehmen	-11.4626
▁Realisierung	-11.4626
▁discriminat	-11.4626
▁Mich	-11.4626
▁begangen	-11.4626
▁rush	-11.4626
▁India	-11.4626
▁grave	-11.4626
▁nein	-11.4626
▁beiträgt	-11.4626
▁controller	-11.4626
rey	-11.4626
▁unique	-11.4626
▁Golf	-11.4626
gesetzgebung	-11.4626
▁Action	-11.4626
ij	-11.4626
▁Gross	-11.4626
▁Klage	-11.4627
▁Auskunft	-11.4627
▁tendency	-11.4627
▁Anschluß	-11.4627
▁Pack	-11.4627
▁Terror	-11.4627
▁extraordinary	-11.4627
▁ausgeführt	-11.4627
▁gestattet	-11.4628
▁Cambodia	-11.4628
▁geblieben	-11.4628
▁gerichtliche	-11.4628
▁apprais	-11.4628
▁yes	-11.4628
▁einzurichten	-11.4628
▁zugestimmt	-11.4628
▁extremism	-11.4628
▁chin	-11.4628
▁stem	-11.4629
▁violation	-11.4629
▁wahrnehmen	-11.463
▁likewise	-11.463
▁cast	-11.463
▁Leitung	-11.463
▁Kauf	-11.463
▁Bestand	-11.4631
▁erstellt	-11.4631
▁übernimmt	-11.4632
▁örtliche	-11.4632
▁door	-11.4632
▁durchführen	-11.4632
▁slow	-11.4633
▁existiert	-11.4634
äge	-11.4634
▁Produktion	-11.4634
▁attain	-11.4634
▁fixed	-11.4634
bezogenen	-11.4634
▁angehören	-11.4634
▁machine	-11.4634
▁sight	-11.4635
▁Selbständige	-11.4636
▁fresh	-11.4636
▁spüren	-11.4636
▁EGKS	-11.4636
▁trading	-11.4636
▁geklärt	-11.4636
▁berührt	-11.4636
▁beitreten	-11.4636
entrepreneurship	-11.4636
▁interfere	-11.4636
▁federalist	-11.4637
▁front	-11.4637
▁beimessen	-11.4637
▁treated	-11.4638
▁getragen	-11.4638
▁bridge	-11.4638
▁Werk	-11.4638
▁analyse	-11.4638
▁accompany	-11.4639
▁Finanzhilfe	-11.4639
losen	-11.4641
▁Also	-11.4641
iscal	-11.4641
▁Nationalstaaten	-11.4641
▁corp	-11.4642
▁rot	-11.4642
▁erfreulich	-11.4642
Kambodscha	-11.4642
schutzes	-11.4643
▁postponed	-11.4643
▁enhanced	-11.4643
▁Rome	-11.4644
▁geschrieben	-11.4644
▁hot	-11.4645
ezentralisierung	-11.4645
▁Gefälligkeits	-11.4645
▁zugewiesen	-11.4645
▁acknowledged	-11.4646
akt	-11.4647
Unternehmergeist	-11.4647
▁hinein	-11.4647
▁moralische	-11.4647
▁hit	-11.4648
▁weiterentwickel	-11.4648
▁wind	-11.4648
▁restrictions	-11.4649
▁Präs	-11.465
▁paradoxical	-11.465
▁combine	-11.4652
▁gratulieren	-11.4652
Der	-11.4652
▁detaillierten	-11.4652
▁Jugendliche	-11.4653
zieren	-11.4653
▁harmonische	-11.4653
▁antworten	-11.4654
▁fühlen	-11.4654
▁valu	-11.4655
▁emb	-11.4656
▁representation	-11.4657
▁Grenzregion	-11.4657
▁Einzelnen	-11.4657
paket	-11.4658
▁bank	-11.4658
▁abuse	-11.466
read	-11.4661
▁sad	-11.4662
formen	-11.4663
▁Anmerkungen	-11.4664
orientierte	-11.4665
▁constraints	-11.4666
▁lawyers	-11.4666
▁vertrauen	-11.4667
▁employers	-11.4667
▁dasselbe	-11.4667
eitung	-11.4668
▁Nazi	-11.4668
▁friendly	-11.467
establish	-11.4671
▁progressive	-11.4672
zukommen	-11.4672
▁empfehlen	-11.4674
▁Seine	-11.4677
▁Beide	-11.4679
▁Besorgnisse	-11.4679
▁ju	-11.468
▁waterways	-11.4683
new	-11.4684
▁überein	-11.4684
▁begrenzen	-11.4685
▁reflected	-11.4685
enschaftspflicht	-11.4686
▁fürchte	-11.4687
▁Serben	-11.4688
▁Mitgliedstaates	-11.4689
▁angehen	-11.469
esischen	-11.4692
▁Tran	-11.4693
kodex	-11.4693
▁Europawahl	-11.4696
▁bloße	-11.4699
▁residents	-11.47
▁objections	-11.47
4(	-11.4702
fonds	-11.4704
▁entschlossene	-11.4704
uung	-11.4706
▁Faktoren	-11.4711
▁zulässige	-11.4712
▁Statut	-11.4714
▁polluter	-11.4715
▁Mandats	-11.4716
▁Serbs	-11.4717
▁faster	-11.4718
ather	-11.4719
▁disciplin	-11.4729
▁Erbe	-11.473
▁glo	-11.4731
elimina	-11.4733
▁features	-11.4734
ize	-11.4734
▁Betriebs	-11.4734
▁schwieriger	-11.4735
▁abuses	-11.4737
▁Denk	-11.4738
▁Innen	-11.474
▁Fa	-11.4742
▁heading	-11.4746
schuld	-11.4746
▁contracts	-11.4751
▁drugs	-11.4751
▁Unfall	-11.4751
▁solide	-11.4754
▁grüne	-11.4754
▁indicates	-11.4756
▁delegate	-11.4756
▁transparenter	-11.4757
▁passing	-11.4757
▁Hoffnungen	-11.4757
derly	-11.476
▁emphasised	-11.4762
▁Preise	-11.4763
▁decades	-11.4768
▁depends	-11.4768
▁preparations	-11.4768
lim	-11.4769
zusetzen	-11.4769
▁Christdemokrat	-11.4772
▁voran	-11.4773
▁existierende	-11.4774
▁mögen	-11.4774
▁accorded	-11.4775
dying	-11.4775
▁costly	-11.4789
estatten	-11.4791
zuarbeiten	-11.4794
smethode	-11.4795
▁lebend	-11.4797
▁appellieren	-11.4801
▁threatens	-11.4802
sstaatlichkeit	-11.4804
mä	-11.4808
▁bas	-11.4815
▁sum	-11.4817
▁ambitions	-11.4819
▁promoted	-11.4819
▁Versicherungs	-11.4819
Stadtentwicklung	-11.4824
▁Rahmenprogramm	-11.4824
▁prevented	-11.4834
▁Finanzmärkten	-11.4835
▁entails	-11.4836
▁Jo	-11.484
▁hart	-11.4846
umweltfreundlich	-11.4848
▁quotas	-11.4854
▁perspectives	-11.4854
▁exemptions	-11.4854
sache	-11.4854
Oil	-11.4865
▁coordinat	-11.4874
stellungen	-11.488
wendet	-11.4882
beit	-11.4889
▁Sektors	-11.489
▁positively	-11.4899
sprinzips	-11.4904
▁greife	-11.4906
reach	-11.4908
▁überzeugende	-11.4917
▁produc	-11.4918
▁Willens	-11.4923
mission	-11.4929
▁permits	-11.493
▁indicate	-11.4935
▁criticis	-11.4935
▁modernen	-11.4937
▁bestand	-11.4943
▁Positionen	-11.4949
▁Impulse	-11.4951
europäische	-11.4955
▁wished	-11.496
▁freedoms	-11.4966
▁Wissen	-11.4968
▁sicherer	-11.4969
▁industrialis	-11.4969
▁angestrebt	-11.4975
▁targets	-11.4975
▁submitt	-11.4977
▁kleiner	-11.4978
▁withdrawn	-11.4979
ergestellt	-11.4981
ttern	-11.4981
hlich	-11.4991
▁commission	-11.4999
▁Vern	-11.5009
bre	-11.5011
bu	-11.5012
▁publicly	-11.5013
▁Belang	-11.5019
▁Argumenten	-11.5023
1.1	-11.5029
▁threats	-11.5031
▁requesting	-11.5032
▁Zahlung	-11.5039
bildung	-11.5047
ollbeschäftigung	-11.5052
sarbeit	-11.5057
interesse	-11.5058
▁paragraphs	-11.5063
▁mentioning	-11.5063
▁roles	-11.5071
olf	-11.5078
▁Nichts	-11.5095
▁bu	-11.5137
▁mar	-11.5144
▁gene	-11.5146
▁systematic	-11.5177
spotential	-11.518
▁contributes	-11.5183
▁Rechtsakt	-11.5185
▁sichtbar	-11.5186
▁renewables	-11.5188
▁Völkern	-11.5189
▁advise	-11.5199
▁Prozesse	-11.521
alisten	-11.5212
ierungen	-11.5215
▁meinte	-11.5232
▁ear	-11.5237
▁ökologisch	-11.5248
▁weltweite	-11.5248
▁schwerwiegend	-11.5249
sho	-11.525
▁modernis	-11.5258
▁Verantwort	-11.5261
▁bedeutsame	-11.5271
werte	-11.5282
▁Verwaltungen	-11.5288
Kohäsionspolitik	-11.5289
▁Vertrauens	-11.5291
▁lag	-11.5294
▁references	-11.5296
▁divers	-11.5297
▁beträchtlich	-11.5299
do	-11.5304
▁annehmbar	-11.5312
▁kostenlos	-11.5313
▁behindert	-11.5344
pping	-11.5345
part	-11.5346
▁dringliche	-11.5346
▁Arme	-11.5347
▁prim	-11.535
▁rationale	-11.5355
guttransporte	-11.5358
▁Wo	-11.5364
dez	-11.5382
overs	-11.5382
▁virtue	-11.54
▁unl	-11.5402
rus	-11.5408
last	-11.5414
▁answers	-11.5414
▁operations	-11.5442
loo	-11.5445
▁reinforc	-11.5458
▁virtu	-11.5466
added	-11.548
vers	-11.5493
▁places	-11.5493
▁unnötig	-11.5494
▁selb	-11.55
tische	-11.5502
van	-11.551
▁erfolgte	-11.5514
▁impos	-11.5529
ew	-11.5538
▁diverse	-11.5547
gu	-11.5554
seits	-11.5567
▁Alt	-11.5567
ttbewerbsfähige	-11.5567
▁miß	-11.5577
▁Bra	-11.5582
▁forum	-11.5606
mäßige	-11.5607
▁Schwäche	-11.5633
▁2002.	-11.565
lement	-11.5655
▁Inter	-11.5659
▁sechste	-11.5681
▁preserve	-11.5687
▁Mitte	-11.5687
amm	-11.5689
▁Ergebnissen	-11.5699
verbindliche	-11.5709
▁Beweise	-11.5712
▁Ku	-11.5714
▁zunehmend	-11.5715
shop	-11.5716
▁vorgelegte	-11.5725
rtegemeinschaft	-11.5727
dium	-11.5733
▁komplizierte	-11.5736
▁gef	-11.5738
▁Weißbuchs	-11.576
▁cr	-11.5793
▁dra	-11.5817
▁verpflichten	-11.5826
istische	-11.5829
dischen	-11.5838
eilt	-11.5843
▁compare	-11.5858
rang	-11.5861
77	-11.5863
wirtschaftlicher	-11.587
continuation	-11.5874
▁denounce	-11.588
ammer	-11.5885
▁süd	-11.5887
rlaß	-11.5893
▁Wissens	-11.5898
▁60	-11.5903
fully	-11.5904
etze	-11.591
risch	-11.5932
blick	-11.5938
owing	-11.5942
▁temp	-11.5953
mitglieder	-11.5961
▁multipl	-11.5969
▁weak	-11.5972
▁fo	-11.5977
schlag	-11.5989
▁leiten	-11.599
änderung	-11.5993
▁einleiten	-11.5993
▁Arbeitsplatz	-11.5996
▁vereinbar	-11.6003
ets	-11.6003
▁kennt	-11.6012
heitlich	-11.6021
▁versicher	-11.6023
▁Kurs	-11.603
zunehmen	-11.6033
building	-11.6035
ahl	-11.6038
regelmäßigkeiten	-11.6039
▁Unionsbürger	-11.6041
▁kurzfristig	-11.6056
zusehen	-11.606
▁Protokolle	-11.6067
mechanismen	-11.6069
▁betrachte	-11.6076
▁Serb	-11.6077
▁sa	-11.6084
▁ending	-11.6092
▁auszu	-11.6099
sprogrammen	-11.611
long	-11.6115
isieren	-11.6115
▁Ka	-11.6115
▁existieren	-11.6122
▁hop	-11.6124
wirken	-11.6142
▁Pa	-11.6143
▁schlimm	-11.6153
▁Keine	-11.6155
nationalisation	-11.6157
▁Asylbewerber	-11.6157
▁griechische	-11.6157
management	-11.6157
▁entrepreneur	-11.6159
ety	-11.616
lose	-11.6161
▁Behinderte	-11.6162
▁kenne	-11.6165
▁Gedanke	-11.6167
▁erkläre	-11.6168
▁tradition	-11.6168
▁lege	-11.617
▁verweise	-11.6174
▁predecessor	-11.6174
▁travel	-11.618
▁hundred	-11.618
shaushalt	-11.6181
▁Mandat	-11.6181
▁reservation	-11.6183
vot	-11.6184
zahlung	-11.6184
▁Steuern	-11.6184
▁component	-11.6184
▁department	-11.6184
vorschläge	-11.6185
▁Altfahrzeug	-11.6185
▁studie	-11.6185
▁Tibetan	-11.6185
▁zulässig	-11.6186
finden	-11.6186
▁taxpayer	-11.6186
▁decid	-11.6188
▁territoriale	-11.619
▁suggestion	-11.6191
▁payment	-11.6191
▁Auge	-11.6193
▁Betriebe	-11.6194
▁achievement	-11.6194
▁Zweiten	-11.6196
TE	-11.6197
gebaut	-11.6198
pflicht	-11.6199
fang	-11.6204
stab	-11.6205
geschlossen	-11.6209
▁Tür	-11.621
▁Bewegung	-11.6211
tory	-11.6211
▁zunehmen	-11.6212
▁Süd	-11.6212
▁entzieh	-11.6214
▁charterer	-11.6217
rede	-11.6219
▁Überlegung	-11.6219
▁Beziehung	-11.622
▁Rechenschaft	-11.622
▁manag	-11.622
willig	-11.6222
▁betrieb	-11.6223
spartner	-11.6225
▁übrig	-11.6225
seekers	-11.6235
▁caus	-11.6236
Nazi	-11.6237
40	-11.6237
bank	-11.6238
34	-11.6239
schafft	-11.6239
gefährdet	-11.6239
turn	-11.6239
Culture	-11.6239
developed	-11.6239
free	-11.624
Ausschuß	-11.624
Artikel	-11.624
Bürger	-11.624
▁Fach	-11.624
▁devastat	-11.6242
Rat	-11.6242
▁resolv	-11.6242
▁formulat	-11.6243
▁alt	-11.6246
▁justify	-11.6247
▁intensive	-11.6248
▁weigh	-11.6249
▁Ausmaß	-11.625
course	-11.625
brechen	-11.6253
tätig	-11.6257
▁Vorteil	-11.626
06	-11.6261
nehmen	-11.6264
▁scrap	-11.6264
eilen	-11.6264
▁abolish	-11.6268
▁sit	-11.6268
gerufen	-11.6269
zentren	-11.6269
▁abstain	-11.6269
▁destroy	-11.6269
▁distort	-11.6274
pecial	-11.6275
peak	-11.6275
▁Hinzu	-11.6275
▁constant	-11.6276
▁gemein	-11.6276
▁Klar	-11.6277
▁quick	-11.6277
▁train	-11.6279
▁heav	-11.628
borne	-11.6283
zugeben	-11.6283
aught	-11.6284
▁Davi	-11.6285
liefer	-11.6287
sprache	-11.6287
lehnen	-11.6287
▁grand	-11.6288
krieg	-11.6288
▁Hindernis	-11.6288
glieder	-11.6289
abhängigkeit	-11.6289
etween	-11.6289
stieg	-11.6289
▁Fra	-11.6289
hether	-11.6289
▁confident	-11.6289
eira	-11.6289
hüt	-11.6289
▁Audit	-11.629
5-02	-11.629
▁Entscheidungsf	-11.629
bewegung	-11.629
suppose	-11.629
▁Halbzeit	-11.629
▁motor	-11.629
▁suspens	-11.629
à	-11.629
▁bottom	-11.629
▁persecut	-11.629
eschleunig	-11.629
▁1989	-11.629
▁CSU	-11.629
▁Demagog	-11.629
▁Errungenschaft	-11.629
▁Extrem	-11.629
▁Konvergenz	-11.629
▁Pflanzen	-11.629
▁Sichtvermerk	-11.629
▁audiovisu	-11.629
▁fragwürdig	-11.629
▁kostet	-11.629
5-0018/2000)	-11.629
5-0108/1999)	-11.629
ULTUR	-11.629
gnügen	-11.629
krisenbetroffene	-11.629
kuyu	-11.629
licate	-11.629
mißverständlich	-11.629
nergieeinsparung	-11.629
otenübertragung	-11.629
rotagonist	-11.629
schmutz	-11.629
voraussetzung	-11.629
▁12/99	-11.629
▁1244	-11.629
▁ABB	-11.629
▁Abschnitt	-11.629
▁Alavanos	-11.629
▁Anmelde	-11.629
▁Arafat	-11.629
▁Aufwand	-11.629
▁Bewohner	-11.629
▁Börsen	-11.629
▁Canyon	-11.629
▁Cederschiöld	-11.629
▁Christmas	-11.629
▁Computer	-11.629
▁Corbett	-11.629
▁Diejenigen	-11.629
▁Durchschnitt	-11.629
▁EDD	-11.629
▁Erleichterung	-11.629
▁Erzeuger	-11.629
▁Gebot	-11.629
▁Geldwäsche	-11.629
▁Gesamtfangmenge	-11.629
▁Gewerbe	-11.629
▁Golanhöhen	-11.629
▁Great	-11.629
▁Gremien	-11.629
▁Hänsch	-11.629
▁Imbeni	-11.629
▁Industry	-11.629
▁Isolation	-11.629
▁Legalausnahme	-11.629
▁Madrid	-11.629
▁Montag	-11.629
▁Next	-11.629
▁Nonetheless	-11.629
▁PVC	-11.629
▁Pilotprojekte	-11.629
▁Propaganda	-11.629
▁Protocol	-11.629
▁Präsidium	-11.629
▁Rechtfertigung	-11.629
▁SPÖ	-11.629
▁Spannung	-11.629
▁Stockholm	-11.629
▁Tsatsos	-11.629
▁Verheugen	-11.629
▁Verstärkung	-11.629
▁Vienna	-11.629
▁WWU	-11.629
▁Wahlkreis	-11.629
▁Zusammenhänge	-11.629
▁Zuschüsse	-11.629
▁allegations	-11.629
▁applause	-11.629
▁aufhören	-11.629
▁auswirkt	-11.629
▁avalanche	-11.629
▁beabsichtige	-11.629
▁bekundet	-11.629
▁beneficial	-11.629
▁cheap	-11.629
▁coexistence	-11.629
▁collapse	-11.629
▁completion	-11.629
▁confused	-11.629
▁democracies	-11.629
▁disregard	-11.629
▁drink	-11.629
▁empfangen	-11.629
▁enshrine	-11.629
▁erledigt	-11.629
▁eröffnen	-11.629
▁flood	-11.629
▁froh	-11.629
▁fördert	-11.629
▁gebunden	-11.629
▁geschenkt	-11.629
▁gewöhnlich	-11.629
▁gäbe	-11.629
▁inappropriate	-11.629
▁indirekt	-11.629
▁irresponsible	-11.629
▁judiciary	-11.629
▁konzentriert	-11.629
▁leistet	-11.629
▁multilateral	-11.629
▁nachgedacht	-11.629
▁obliegt	-11.629
▁osteuropäische	-11.629
▁percentage	-11.629
▁periphery	-11.629
▁picture	-11.629
▁rechtsextreme	-11.629
▁repercussions	-11.629
▁scheinen	-11.629
▁shadow	-11.629
▁smooth	-11.629
▁statistische	-11.629
▁steckt	-11.629
▁steigern	-11.629
▁sweeping	-11.629
▁synergy	-11.629
▁tragic	-11.629
▁tribute	-11.629
▁unterbrochen	-11.629
▁upheld	-11.629
▁vehement	-11.629
▁verliert	-11.629
▁verschärfen	-11.629
▁vertraut	-11.629
▁verzerren	-11.629
▁weitestgehend	-11.629
▁widerspiegelt	-11.629
▁willkürlich	-11.629
▁zusammenfassen	-11.629
▁übertrieben	-11.629
▁1998/01	-11.629
▁2000-2005	-11.629
▁Behinderung	-11.629
▁GUE	-11.629
▁Grenzkontrollen	-11.629
▁Heights	-11.629
▁IMO	-11.629
▁Oslo	-11.629
▁Ressort	-11.629
▁Schande	-11.629
▁Syrer	-11.629
▁Wechsel	-11.629
▁beschleunigen	-11.629
▁convey	-11.629
▁dollar	-11.629
▁erdbeben	-11.629
▁hört	-11.629
▁republicans	-11.629
▁revised	-11.629
▁settlement	-11.629
▁tragedy	-11.629
▁venture	-11.629
▁versäum	-11.629
ehnung	-11.629
▁blieb	-11.629
▁dominate	-11.629
▁entstanden	-11.629
▁vulnerab	-11.629
stuffs	-11.629
▁forgot	-11.629
▁EMU	-11.629
▁Gomes	-11.629
▁bekunden	-11.629
▁embrace	-11.629
▁kommentieren	-11.629
▁shock	-11.629
▁vermag	-11.629
▁überwinden	-11.629
▁Know	-11.629
▁chair	-11.629
▁Anzeigepflicht	-11.629
▁Demonstration	-11.629
▁Größe	-11.629
▁alliance	-11.629
▁lernen	-11.629
▁observator	-11.629
▁personnel	-11.629
▁subordinate	-11.629
▁verringern	-11.629
▁Protest	-11.629
▁fortzusetzen	-11.629
▁liefert	-11.629
entschließung	-11.629
▁Branche	-11.629
▁Valentinstag	-11.629
▁ratify	-11.629
▁verteilen	-11.629
▁vorbereiten	-11.629
▁Vögel	-11.629
▁distress	-11.629
▁cancelled	-11.629
▁concluding	-11.629
▁summer	-11.629
▁leadership	-11.629
kontrollausschuß	-11.629
unglück	-11.629
▁Datum	-11.629
▁billigt	-11.629
▁inspectors	-11.629
▁2003	-11.629
zweifel	-11.629
▁bewahren	-11.629
▁differentiation	-11.629
▁Diktatur	-11.629
▁krasse	-11.629
▁literature	-11.629
▁Gesichtspunkt	-11.629
▁Schlag	-11.629
▁distant	-11.629
▁confront	-11.629
sträger	-11.629
ewältig	-11.629
mäßigkeit	-11.629
▁Provan	-11.629
▁blame	-11.629
▁Kapitalbewegung	-11.629
latt	-11.629
▁dependency	-11.629
▁Maßstab	-11.629
▁großartige	-11.629
▁Holzmann	-11.629
▁cold	-11.629
▁spring	-11.629
▁Beweislast	-11.629
▁Mitgliedsland	-11.629
▁Nachbarländer	-11.629
▁master	-11.629
inguis	-11.629
isenbe	-11.629
▁alert	-11.629
▁chapter	-11.629
▁airport	-11.629
▁Spielraum	-11.629
▁essence	-11.629
▁Außengrenzen	-11.629
▁summit	-11.629
▁headway	-11.629
ential	-11.629
▁Rückschritt	-11.629
▁laps	-11.629
▁ehrlich	-11.629
▁pull	-11.629
▁anmerken	-11.629
ondo	-11.629
▁beinhalten	-11.629
▁Viertens	-11.6291
▁Begrenzung	-11.6291
▁Motor	-11.6291
▁Anregung	-11.6291
▁reconciliation	-11.6291
▁Heilig	-11.6291
▁Kampagne	-11.6291
▁ignoriert	-11.6291
▁facilities	-11.6291
▁Ausgewogenheit	-11.6291
▁Kapitalverkehr	-11.6291
▁Autonomie	-11.6291
▁leftovers	-11.6291
▁overrid	-11.6291
▁Wye	-11.6291
▁Arbeitsplan	-11.6291
▁liberalisation	-11.6291
▁Erwähnung	-11.6291
ahnung	-11.6291
▁verwässern	-11.6291
▁disappointment	-11.6291
▁Power	-11.6291
▁continually	-11.6291
▁Zivilschutz	-11.6291
▁Autohersteller	-11.6291
▁parameter	-11.6291
▁Zivilisation	-11.6291
▁scandalous	-11.6291
▁zustande	-11.6291
ISPA	-11.6291
▁2010	-11.6291
ollowing	-11.6291
▁chain	-11.6291
▁foremost	-11.6291
▁pronounced	-11.6291
▁übergeordnete	-11.6292
▁Disziplinar	-11.6292
▁twofold	-11.6292
▁bewerten	-11.6292
▁36	-11.6292
▁postpone	-11.6292
▁Trag	-11.6292
▁umweltschädlich	-11.6292
▁decent	-11.6292
▁wood	-11.6292
xon	-11.6292
▁Reise	-11.6292
▁sah	-11.6292
▁verfügbare	-11.6292
▁Stör	-11.6292
▁UC	-11.6292
▁87	-11.6292
▁passieren	-11.6292
▁erheben	-11.6292
▁beimißt	-11.6292
iederaufgenommen	-11.6292
▁Vorfälle	-11.6292
▁remarkable	-11.6293
▁Torf	-11.6293
▁Abfall	-11.6293
▁raci	-11.6293
▁1999/00	-11.6293
▁88	-11.6293
▁Eingreifen	-11.6293
▁erfreut	-11.6293
ible	-11.6293
▁fortgesetzt	-11.6293
▁Vorsicht	-11.6293
▁Tiefe	-11.6293
▁tang	-11.6294
▁hingenommen	-11.6294
▁Haushaltsmittel	-11.6294
▁zurückkommen	-11.6294
5-0104/1999)	-11.6294
5-0105/1999)	-11.6294
5-0107/1999)	-11.6294
▁turnout	-11.6294
▁Certainly	-11.6294
▁swiftly	-11.6294
▁exploitation	-11.6294
▁Park	-11.6294
▁Federal	-11.6294
▁ausgelöst	-11.6294
▁gewachsen	-11.6294
▁ausmacht	-11.6294
▁unlike	-11.6294
▁wirtschafts	-11.6294
▁Anti	-11.6295
▁vorgeschrieben	-11.6295
▁Finanzielle	-11.6295
schöpft	-11.6295
willigen	-11.6295
▁Millennium	-11.6295
▁render	-11.6295
▁Aussicht	-11.6295
▁Regulierung	-11.6295
▁predict	-11.6295
▁Libanon	-11.6295
▁birgt	-11.6295
▁profile	-11.6295
▁rechtfertigt	-11.6295
▁tanks	-11.6295
▁wrote	-11.6295
▁fashion	-11.6295
▁Tarifverträge	-11.6295
▁Work	-11.6296
▁Albaner	-11.6296
▁70	-11.6296
▁Neben	-11.6296
▁Zufall	-11.6296
Wiederverwendung	-11.6296
▁Rund	-11.6297
▁expo	-11.6297
▁PR	-11.6297
▁Ausgangspunkt	-11.6297
▁employability	-11.6297
▁operative	-11.6297
▁Wende	-11.6297
▁oberste	-11.6298
▁verdanken	-11.6298
investitionen	-11.6298
sdokument	-11.6298
▁Quelle	-11.6298
▁suspended	-11.6299
pus	-11.6299
▁fulfilled	-11.63
▁Sport	-11.63
spekulationen	-11.63
▁50%	-11.6301
▁auszuarbeiten	-11.6301
▁Weihnachts	-11.6301
▁violate	-11.6302
▁bereitet	-11.6302
▁Somit	-11.6302
▁compliment	-11.6302
▁einseitige	-11.6302
▁behindern	-11.6303
▁arrive	-11.6303
▁kritisieren	-11.6303
▁beobachten	-11.6304
▁pol	-11.6304
▁kg	-11.6304
▁Entw	-11.6304
▁fährt	-11.6305
beitritts	-11.6305
▁communitisation	-11.6306
▁Fördermittel	-11.6306
Kandidatenländer	-11.6306
▁unterhalten	-11.6306
beitrag	-11.6306
▁productive	-11.6307
▁apparently	-11.6307
▁appointed	-11.6307
▁einzuhalten	-11.6307
▁einzubringen	-11.6307
▁disposed	-11.6307
▁Buch	-11.6307
▁untereinander	-11.6308
▁angestellt	-11.6309
▁laut	-11.631
▁Erscheinung	-11.631
▁quoted	-11.631
▁bestimmen	-11.631
▁pave	-11.6311
▁destroyed	-11.6311
▁einnehmen	-11.6311
▁fundierte	-11.6311
tigen	-11.6312
▁accuse	-11.6312
▁partial	-11.6313
▁annimmt	-11.6313
▁gear	-11.6314
▁symbolische	-11.6314
▁vorgehen	-11.6315
▁ermutigend	-11.6315
▁Alba	-11.6315
▁vorbehalt	-11.6315
kay	-11.6315
▁attaches	-11.6316
▁zuläßt	-11.6316
merkt	-11.6319
▁Erde	-11.6319
▁anticipate	-11.6319
▁NGOs	-11.6321
▁quarters	-11.6321
▁aufgreifen	-11.6321
▁birds	-11.6321
▁übergeben	-11.6322
SS	-11.6322
zuwirken	-11.6323
▁buyer	-11.6324
▁compatib	-11.6324
▁enforced	-11.6324
▁Stil	-11.6324
▁schlimmer	-11.6324
▁Mainstreaming	-11.6324
▁Besitzstand	-11.6325
▁analysieren	-11.6325
▁Generationen	-11.6325
▁illustrate	-11.6325
▁anzugehen	-11.6325
▁widened	-11.6326
wasserstraßen	-11.6326
▁entnehmen	-11.6327
▁finished	-11.6328
▁province	-11.6328
▁speeches	-11.6329
▁outlined	-11.6329
statten	-11.633
066	-11.6333
▁Beamter	-11.6334
▁75	-11.6335
▁Wirken	-11.6335
Privatwirtschaft	-11.6336
▁Pf	-11.6336
▁aussehen	-11.6338
▁Befürchtungen	-11.6339
▁bigge	-11.634
▁gelassen	-11.634
▁Inneres	-11.6341
▁savings	-11.6341
▁inhabitants	-11.6341
▁promises	-11.6341
▁equ	-11.6341
▁Unterpunkt	-11.6342
▁reserves	-11.6343
▁inevitable	-11.6343
▁provisional	-11.6343
▁gebaut	-11.6344
▁import	-11.6345
▁adequately	-11.6346
▁comm	-11.6347
▁Woh	-11.6348
▁efficiently	-11.6349
▁Sechsten	-11.635
▁wealthy	-11.6352
▁spürbar	-11.6352
▁läuft	-11.6354
strategie	-11.6357
gründen	-11.6357
▁examined	-11.6358
▁Val	-11.6358
▁Spekulationen	-11.6358
▁Nu	-11.6359
▁rund	-11.6359
▁soul	-11.636
▁earthquakes	-11.6361
▁generations	-11.6361
▁pledges	-11.6361
▁united	-11.6362
▁Va	-11.6363
▁96/	-11.6364
▁sinnvoller	-11.6364
▁strike	-11.6364
▁hierher	-11.6364
▁enlarge	-11.6367
▁herrschende	-11.6367
▁entziehen	-11.6367
▁höchster	-11.6368
▁intolerable	-11.637
▁stepp	-11.6371
lichkeiten	-11.6371
▁Stahlbeihilfe	-11.6372
▁Schutzes	-11.6373
▁behält	-11.6374
▁conducted	-11.6375
▁friends	-11.6381
verständnis	-11.6385
▁approaches	-11.6387
▁behauptet	-11.6388
▁Orientierungen	-11.6394
▁intensiver	-11.6395
▁liegende	-11.6395
▁Übernahmen	-11.6398
▁Lücken	-11.6398
▁Ur	-11.64
▁tune	-11.6401
▁ersuchen	-11.6401
▁hundreds	-11.6402
▁traditions	-11.6402
▁achievements	-11.6404
▁avoided	-11.6406
▁sell	-11.6407
tar	-11.6408
olche	-11.6409
▁realistische	-11.641
gefallen	-11.6411
▁strukturelle	-11.6422
rauf	-11.6422
▁shed	-11.6423
▁Versorgungs	-11.6426
▁freier	-11.6428
zugehen	-11.6435
leistungen	-11.6439
▁findings	-11.6442
▁Unglücks	-11.6442
▁authorise	-11.6443
▁bench	-11.6443
▁zulassen	-11.6447
▁doors	-11.645
▁moved	-11.6452
▁listed	-11.6457
Lo	-11.6464
Fortsetzung	-11.6466
▁era	-11.6468
▁Quoten	-11.6471
▁jungen	-11.6472
▁Strafrechts	-11.6476
2-	-11.6477
▁Kasse	-11.6477
▁undertakings	-11.6483
▁investigations	-11.6483
fahr	-11.6484
▁cooperat	-11.6484
zutreten	-11.6486
98	-11.6489
▁gra	-11.6491
wal	-11.6491
▁Verhandlung	-11.6492
▁tape	-11.6493
fällen	-11.6495
gut	-11.6497
▁contradictions	-11.6504
▁acknowledges	-11.6504
▁ungleich	-11.6516
▁symbolic	-11.6521
nfalls	-11.6524
yp	-11.6533
▁courses	-11.6535
▁Europäern	-11.6544
▁deepen	-11.655
5-0004/	-11.6551
▁doppelwandige	-11.6553
▁Tibeter	-11.6556
▁ordnungsgemäßen	-11.6559
▁Aids	-11.6565
sektors	-11.6565
▁mittels	-11.6566
▁profits	-11.6566
stoß	-11.6567
apparat	-11.6593
▁Tages	-11.6598
▁Ausd	-11.6598
▁legislate	-11.66
zielen	-11.6605
▁explanations	-11.6608
▁verheerende	-11.6611
▁verbindlich	-11.6622
▁verw	-11.663
52	-11.663
▁dürften	-11.6643
▁degrees	-11.665
▁Kontakt	-11.6651
▁touch	-11.6657
▁jährliche	-11.6657
▁ve	-11.6669
▁9.	-11.6674
▁schlechter	-11.6677
▁Reformstrategie	-11.6687
▁stri	-11.6689
mischen	-11.6693
▁fewer	-11.6707
▁allgemeiner	-11.6708
prozesses	-11.6712
gesch	-11.6716
ierten	-11.6722
▁ähnlichen	-11.6727
▁conflicts	-11.6734
▁verh	-11.6734
▁gesch	-11.6736
Programms	-11.6741
▁Schule	-11.6745
stanz	-11.6768
▁facilitat	-11.6771
▁Schwäch	-11.6776
▁unabhängiges	-11.6778
▁welch	-11.6779
beschaffung	-11.6779
▁occasional	-11.6782
remdenfeindliche	-11.6784
▁Sprachen	-11.6796
ame	-11.6796
ttbewerbskultur	-11.68
▁wert	-11.6803
folgt	-11.6829
▁Mo	-11.684
▁Ju	-11.6842
▁Ru	-11.6842
▁beste	-11.685
▁modernise	-11.6856
veryone	-11.6858
▁dramati	-11.6859
ending	-11.6872
▁tief	-11.6902
35	-11.6912
▁bol	-11.6919
rand	-11.692
▁klassische	-11.6925
▁Com	-11.6928
▁reformed	-11.6941
ological	-11.6958
▁Dialogs	-11.697
▁fam	-11.6976
▁vorsichtig	-11.6977
isiert	-11.7002
▁Verweis	-11.7008
▁standen	-11.7013
▁Sp	-11.7036
ardo	-11.7037
▁Spekulations	-11.7044
▁rang	-11.7077
grade	-11.7085
etter	-11.7086
▁fears	-11.7095
▁assum	-11.7095
ual	-11.7097
lau	-11.71
▁Einer	-11.7109
▁geringere	-11.7115
▁Offen	-11.7121
▁Vergemeinschaft	-11.7145
▁ha	-11.7146
▁Instruments	-11.7158
bereiche	-11.7165
wettbewerbsfähig	-11.717
politisch	-11.7189
ifteen	-11.719
rechte	-11.7192
▁geteilt	-11.7222
▁drafts	-11.7225
▁socio	-11.7226
▁radikal	-11.7228
▁applications	-11.7234
▁höher	-11.7245
▁Seg	-11.726
409	-11.7294
▁stellte	-11.7299
programmen	-11.7302
▁angenommene	-11.7308
systeme	-11.7314
▁infolge	-11.733
▁Schritten	-11.7355
tain	-11.7358
▁Spekulation	-11.7365
▁arbeitende	-11.7385
▁föderalistische	-11.7385
▁technisch	-11.7398
▁str	-11.7409
▁bedeutsam	-11.7425
saspekt	-11.7432
zi	-11.7437
ically	-11.7449
ivi	-11.745
▁tiefe	-11.7458
ises	-11.7468
▁zusätzlich	-11.7482
▁historisch	-11.7482
▁engagierte	-11.7505
▁Lei	-11.7535
ander	-11.7538
▁Politikbereiche	-11.7541
atically	-11.7543
0(	-11.7566
tun	-11.7584
tischen	-11.7599
ctual	-11.7606
▁Sach	-11.7635
sgruppen	-11.764
▁ir	-11.764
▁Regions	-11.7658
▁eventuell	-11.7659
ook	-11.7659
bilisierung	-11.7661
▁halb	-11.7668
sonst	-11.768
▁zeitliche	-11.768
▁Van	-11.7681
▁fu	-11.7683
uß	-11.7706
lating	-11.7727
▁minds	-11.7734
▁Gerichts	-11.7738
▁Finanzi	-11.774
▁Israels	-11.7741
tragen	-11.7745
gesetzte	-11.7749
▁Alltag	-11.7762
▁ki	-11.7777
phase	-11.7778
▁Zentr	-11.7782
▁Radikale	-11.7789
5/	-11.7789
▁gegenseitig	-11.7802
emocratic	-11.7802
▁angestrebte	-11.7804
▁übereinstimmen	-11.7822
ock	-11.7823
▁vergangen	-11.7832
tier	-11.7836
▁extrem	-11.7841
sorganisation	-11.7862
▁wh	-11.7871
▁lo	-11.7881
▁falsche	-11.7883
▁vorgebracht	-11.79
▁forest	-11.7928
auto	-11.793
▁gel	-11.7931
▁accommodate	-11.7948
▁communications	-11.7956
Christdemokraten	-11.7959
achtet	-11.7961
iled	-11.7963
wagen	-11.7973
schieben	-11.7983
greifen	-11.7987
ight	-11.7996
date	-11.7997
sistance	-11.7998
uft	-11.8003
denken	-11.8008
spin	-11.8013
▁Versicherung	-11.8015
wohn	-11.8018
kenntnis	-11.803
ülle	-11.8032
ki	-11.8038
▁miss	-11.804
▁Fehl	-11.8053
gelassen	-11.8056
ished	-11.806
▁Minute	-11.8061
meist	-11.8078
uff	-11.8085
aving	-11.8087
vel	-11.8088
▁pu	-11.8109
▁Geschäft	-11.8111
▁solch	-11.8121
lly	-11.8122
bil	-11.8124
▁Arbeitslosen	-11.8124
▁sel	-11.8125
standards	-11.8126
Vertrag	-11.8126
▁dramatische	-11.8126
OS	-11.8131
▁strukturell	-11.8134
räumt	-11.8139
abgeordnete	-11.8153
▁qu	-11.8154
möglich	-11.8154
▁Werkstoffe	-11.8157
▁Zusage	-11.8157
▁Arbeitslose	-11.8158
gründe	-11.8158
tritt	-11.8159
▁Lücke	-11.8159
▁ersuche	-11.8159
▁Linke	-11.8163
▁Drittländer	-11.8164
▁friend	-11.8165
▁Kollegi	-11.8166
▁Übernahme	-11.8168
Le	-11.8168
▁ziehe	-11.8169
▁frühere	-11.817
▁chose	-11.8174
▁article	-11.8174
▁Conservative	-11.8178
▁clause	-11.8178
▁begleiten	-11.8179
▁resident	-11.8181
▁ordnungsgemäß	-11.8181
▁objection	-11.8183
handelt	-11.8186
▁Sorg	-11.8196
partei	-11.8197
▁leid	-11.8203
bleib	-11.8207
geleitet	-11.8208
▁expectation	-11.8208
gerichtet	-11.8209
altung	-11.8211
▁character	-11.8212
▁dringen	-11.8214
▁Konsequenz	-11.8216
▁Verzögerung	-11.8217
▁tight	-11.8217
▁Ratsvorsitz	-11.8218
▁Bestimmung	-11.8219
▁Inspektion	-11.8222
▁Sol	-11.8227
99	-11.8231
dispens	-11.8231
komplex	-11.8233
plizit	-11.8233
gewählt	-11.8235
▁transparente	-11.8235
schlagen	-11.8235
schätzen	-11.8235
like	-11.8236
friendly	-11.8237
schau	-11.8238
▁compari	-11.8238
material	-11.8239
spezifische	-11.8239
Abkommen	-11.8239
status	-11.824
Frei	-11.824
board	-11.824
setting	-11.824
fraud	-11.824
Länder	-11.824
deutet	-11.824
Article	-11.824
based	-11.8241
Kommission	-11.8241
disciplin	-11.8241
with	-11.8243
level	-11.8244
▁mainstream	-11.8245
▁Medi	-11.8248
works	-11.8249
▁natur	-11.8252
▁treat	-11.8253
erheblich	-11.8254
ifying	-11.8254
sector	-11.8254
▁Gründung	-11.8255
▁Gewinn	-11.8255
▁äußert	-11.8255
akte	-11.8256
▁approximat	-11.8256
kind	-11.8256
▁Vorbehalt	-11.8257
bewußtsein	-11.8258
▁sensitiv	-11.8258
gegriffen	-11.8259
▁expir	-11.826
normen	-11.8261
migration	-11.8262
trea	-11.8264
▁appoint	-11.8266
▁Wah	-11.8266
hibitions	-11.8267
▁Weiterbildung	-11.8268
träge	-11.8269
▁umfassen	-11.827
▁buy	-11.827
▁Gef	-11.8271
▁fill	-11.8272
werfen	-11.8274
▁plain	-11.8274
▁verzichte	-11.8275
jahr	-11.8276
▁observe	-11.8276
reise	-11.8277
zubringen	-11.8277
▁vernünftiger	-11.8277
ruft	-11.8278
urzeln	-11.8279
▁Or	-11.828
▁cargo	-11.8282
▁lea	-11.8282
▁Haft	-11.8282
▁prov	-11.8282
jährige	-11.8282
]	-11.8284
stürzt	-11.8284
▁analy	-11.8284
▁quo	-11.8285
itzung	-11.8285
ahrung	-11.8286
rweiterung	-11.8286
ommission	-11.8286
▁object	-11.8286
legung	-11.8286
▁Juris	-11.8287
onstrukti	-11.8287
vereinbarung	-11.8287
sgrundlage	-11.8287
angehörige	-11.8287
enefit	-11.8287
gewinn	-11.8287
evolution	-11.8287
gebot	-11.8287
▁except	-11.8287
ipfel	-11.8287
▁exempt	-11.8287
▁corrupt	-11.8287
spruch	-11.8287
▁Integr	-11.8288
▁investigate	-11.8288
▁eligib	-11.8288
scheinend	-11.8288
konzept	-11.8288
ollution	-11.8288
rojects	-11.8288
fehl	-11.8288
requisite	-11.8288
rnehmung	-11.8288
▁categor	-11.8289
ereinfachung	-11.8289
▁commit	-11.8289
vermögen	-11.8289
verbot	-11.8289
▁präsent	-11.8289
quellen	-11.8289
▁Director	-11.8289
leute	-11.8289
inimum	-11.8289
öchte	-11.8289
hapter	-11.829
(2)	-11.829
▁Prozent	-11.829
▁drastic	-11.829
knüpf	-11.829
qualität	-11.829
schließung	-11.829
ströme	-11.829
ommunication	-11.829
▁super	-11.829
▁ultra	-11.829
▁Rap	-11.829
▁Schrift	-11.829
▁TAC	-11.829
wasser	-11.829
eripher	-11.829
stammt	-11.829
onsolid	-11.829
▁beneficiar	-11.829
▁dynamisch	-11.829
▁enact	-11.829
▁macro	-11.829
▁repräsentativ	-11.829
Affäre	-11.829
Energieeffizienz	-11.829
Entschlossenheit	-11.829
aktivität	-11.829
eigentümer	-11.829
elecommunication	-11.829
forschung	-11.829
funktionalität	-11.829
geschoben	-11.829
hulled	-11.829
iculous	-11.829
konzentration	-11.829
lbstgefälligkeit	-11.829
mißbrauch	-11.829
riedensgespräche	-11.829
schöpfung	-11.829
sorgniserregend	-11.829
sverschiedenheit	-11.829
verletzungen	-11.829
versorgung	-11.829
volumen	-11.829
▁81(3)	-11.829
▁Agency	-11.829
▁Anschuldigungen	-11.829
▁Arbeitgeber	-11.829
▁Atlantic	-11.829
▁Aufschwung	-11.829
▁BAT	-11.829
▁Beantwortung	-11.829
▁Berenguer	-11.829
▁Beschränkung	-11.829
▁Beschäftigte	-11.829
▁Bewerber	-11.829
▁Bretagne	-11.829
▁College	-11.829
▁Common	-11.829
▁Eigentümer	-11.829
▁Einvernehmen	-11.829
▁Entschuldigung	-11.829
▁Erzeugung	-11.829
▁Flughafen	-11.829
▁Gegner	-11.829
▁Geldgeber	-11.829
▁Generaldirektor	-11.829
▁Geneva	-11.829
▁Guterres	-11.829
▁Hierarchie	-11.829
▁Holocaust	-11.829
▁Intoleranz	-11.829
▁Katholiken	-11.829
▁Kirgisistan	-11.829
▁Kyrgyzstan	-11.829
▁Larrea	-11.829
▁Loire	-11.829
▁Mühe	-11.829
▁Obdachlos	-11.829
▁Opposition	-11.829
▁Orkan	-11.829
▁Papayannakis	-11.829
▁Positivliste	-11.829
▁Potential	-11.829
▁RINA	-11.829
▁Redebeiträge	-11.829
▁Reserve	-11.829
▁Réunion	-11.829
▁Scotland	-11.829
▁Shepherdstown	-11.829
▁Soforthilfe	-11.829
▁Spielregeln	-11.829
▁Symbol	-11.829
▁Symptom	-11.829
▁Südosteuropa	-11.829
▁Tajikistan	-11.829
▁Tanks	-11.829
▁Tradition	-11.829
▁Transaktionen	-11.829
▁TÜV	-11.829
▁Verhinderung	-11.829
▁Washington	-11.829
▁Wohlfahrts	-11.829
▁Zoll	-11.829
▁anfällig	-11.829
▁angesiedelt	-11.829
▁apologis	-11.829
▁arbitrary	-11.829
▁assault	-11.829
▁aufzubauen	-11.829
▁battle	-11.829
▁befugt	-11.829
▁befördert	-11.829
▁beizubehalten	-11.829
▁beschreibt	-11.829
▁boat	-11.829
▁boundaries	-11.829
▁cautious	-11.829
▁circle	-11.829
▁clarified	-11.829
▁closure	-11.829
▁complacency	-11.829
▁conditionality	-11.829
▁convincing	-11.829
▁crop	-11.829
▁denominator	-11.829
▁detect	-11.829
▁dismantle	-11.829
▁distinguish	-11.829
▁dubious	-11.829
▁eindringlich	-11.829
▁einzumischen	-11.829
▁engagieren	-11.829
▁entfernt	-11.829
▁ergreift	-11.829
▁erkennt	-11.829
▁erschweren	-11.829
▁explore	-11.829
▁federführend	-11.829
▁flame	-11.829
▁garantiert	-11.829
▁genehmigen	-11.829
▁genügt	-11.829
▁glücklich	-11.829
▁größtmögliche	-11.829
▁hazardous	-11.829
▁heikle	-11.829
▁heimgesucht	-11.829
▁hierarchy	-11.829
▁imminent	-11.829
▁impracticable	-11.829
▁incorrect	-11.829
▁intolerance	-11.829
▁irrational	-11.829
▁jahrelang	-11.829
▁kommunal	-11.829
▁konfrontiert	-11.829
▁kontinuierlich	-11.829
▁kritisiert	-11.829
▁kümmern	-11.829
▁liais	-11.829
▁liberty	-11.829
▁loyalist	-11.829
▁modification	-11.829
▁optimistisch	-11.829
▁orientieren	-11.829
▁permissible	-11.829
▁proclaim	-11.829
▁reglementier	-11.829
▁relevance	-11.829
▁space	-11.829
▁subsidy	-11.829
▁survival	-11.829
▁symptom	-11.829
▁teilgenommen	-11.829
▁teilnehmen	-11.829
▁tibetische	-11.829
▁unterminieren	-11.829
▁unterstreicht	-11.829
▁unvereinbar	-11.829
▁verkündet	-11.829
▁vermocht	-11.829
▁vertiefen	-11.829
▁vertikale	-11.829
▁vertretbar	-11.829
▁verworren	-11.829
▁vordringlich	-11.829
▁vormittag	-11.829
▁vorzubeugen	-11.829
▁workplace	-11.829
▁zugehört	-11.829
▁überwältigende	-11.829
▁Atlantik	-11.829
▁Begleit	-11.829
▁Chemikalien	-11.829
▁Communities	-11.829
▁Flugzeug	-11.829
▁Glauben	-11.829
▁Glückwunsch	-11.829
▁Korea	-11.829
▁Rang	-11.829
▁Sommer	-11.829
▁Standort	-11.829
▁Through	-11.829
▁Tunnel	-11.829
▁Verpackung	-11.829
▁Versäumnis	-11.829
▁Westjordanland	-11.829
▁beispielhafte	-11.829
▁belastet	-11.829
▁dropped	-11.829
▁käme	-11.829
▁random	-11.829
▁routine	-11.829
▁sterben	-11.829
▁suspicion	-11.829
▁teilhaben	-11.829
▁unangemessen	-11.829
▁vollzogen	-11.829
▁wußte	-11.829
▁zerstört	-11.829
▁Bürgermeister	-11.829
▁Opportunities	-11.829
▁Pranger	-11.829
▁bekennen	-11.829
▁erwägen	-11.829
▁föderale	-11.829
▁gestoßen	-11.829
▁gestrichen	-11.829
▁klingen	-11.829
▁machbar	-11.829
▁monies	-11.829
▁stammen	-11.829
▁street	-11.829
▁syrische	-11.829
▁zivil	-11.829
▁arrest	-11.829
▁bog	-11.829
▁damalige	-11.829
▁steigt	-11.829
▁Präventi	-11.829
▁compile	-11.829
▁expel	-11.829
▁gleichgültig	-11.829
▁Osteuropa	-11.829
▁Zertifikat	-11.829
▁benennen	-11.829
▁prompt	-11.829
▁reveal	-11.829
▁verweigern	-11.829
▁whistle	-11.829
▁zerstören	-11.829
ühne	-11.829
▁Interims	-11.829
▁reunit	-11.829
CIP	-11.829
Lothar	-11.829
rundrechtscharta	-11.829
▁Verbände	-11.829
▁anregen	-11.829
▁exceed	-11.829
ungerechtfertigt	-11.829
▁Faschismus	-11.829
▁beherrscht	-11.829
▁enlist	-11.829
▁vague	-11.829
▁gesture	-11.829
▁Effekte	-11.829
▁automatically	-11.829
▁gegründet	-11.829
▁selbständige	-11.829
▁businesspeople	-11.829
▁drastisch	-11.829
▁premise	-11.829
▁wohlhabend	-11.829
antabri	-11.829
arbeitslosigkeit	-11.829
▁Altauto	-11.829
▁reduzieren	-11.829
▁skeptisch	-11.829
▁Normung	-11.829
▁hypocrisy	-11.829
▁Thematik	-11.829
▁retten	-11.829
▁nachteilig	-11.829
▁Wald	-11.829
▁generous	-11.829
▁81(1)	-11.829
▁Stahlwerk	-11.829
▁geistige	-11.829
▁identical	-11.829
▁phenomenon	-11.829
▁Arbeitskräfte	-11.829
▁sorry	-11.829
nanspruch	-11.829
▁Räume	-11.829
▁coastline	-11.829
▁split	-11.829
ilanz	-11.829
▁Instrumentarium	-11.829
▁embark	-11.829
▁beseitigt	-11.829
▁cease	-11.829
▁Kapitalströme	-11.829
▁SAPAR	-11.829
▁Zwangs	-11.829
▁Verzicht	-11.829
▁Ankündigung	-11.829
▁broke	-11.829
▁envoy	-11.829
▁fühlt	-11.829
▁zahlt	-11.829
▁Devisenmärkte	-11.829
▁tree	-11.829
▁Bundesländer	-11.829
▁Volksvertreter	-11.829
▁rhetoric	-11.829
▁Verehrte	-11.829
▁bekräftigen	-11.829
▁Berufsgruppen	-11.829
▁näher	-11.829
▁Indien	-11.829
▁Communist	-11.829
▁Mißmanagement	-11.829
▁erlangen	-11.829
▁stoßen	-11.829
▁Nunmehr	-11.829
▁embargo	-11.829
▁klarmachen	-11.829
▁steuerliche	-11.829
▁Umverteilung	-11.829
▁Kontext	-11.829
▁ermittelt	-11.829
▁Bauteile	-11.8291
▁vertical	-11.8291
▁Hauptproblem	-11.8291
▁prescribe	-11.8291
▁bevorzugt	-11.8291
▁team	-11.8291
▁unilateral	-11.8291
verhüt	-11.8291
▁referendum	-11.8291
burg	-11.8291
▁Genf	-11.8291
▁deregulation	-11.8291
▁Bereicherung	-11.8291
▁dependence	-11.8291
▁rare	-11.8291
▁Rechtstexte	-11.8291
klus	-11.8291
▁Schulz	-11.8291
▁desirable	-11.8291
▁corporations	-11.8291
▁outset	-11.8291
▁cleansing	-11.8291
edoch	-11.8291
▁monst	-11.8291
▁viewpoint	-11.8291
▁Lesen	-11.8291
▁klargestellt	-11.8291
▁Amtszeit	-11.8291
▁Moral	-11.8291
▁verdienen	-11.8291
▁solemn	-11.8291
▁Asylverfahren	-11.8291
▁doct	-11.8291
▁grass	-11.8291
▁verantwortungs	-11.8291
▁beseitigen	-11.8291
▁communicate	-11.8291
▁richtet	-11.8291
▁adverse	-11.8291
▁consequently	-11.8291
▁assert	-11.8291
▁abträglich	-11.8291
kampagne	-11.8291
▁hinzuweisen	-11.8291
▁Bestreben	-11.8291
▁interpretiert	-11.8292
▁reliable	-11.8292
▁Trenn	-11.8292
▁gift	-11.8292
▁Finanzminister	-11.8292
▁konzipiert	-11.8292
easures	-11.8292
▁hieß	-11.8292
▁Legitimation	-11.8292
▁finalised	-11.8292
▁ausführte	-11.8292
▁Kleinst	-11.8292
▁constituency	-11.8292
▁ambiguity	-11.8292
▁morality	-11.8292
▁Regieren	-11.8292
▁bereitzustellen	-11.8292
▁Beträge	-11.8292
▁gerückt	-11.8292
▁Nationalismus	-11.8292
ikistan	-11.8292
▁Kostenlosigkeit	-11.8292
Verhaltensweisen	-11.8292
▁sachgerecht	-11.8292
▁gulf	-11.8292
▁ausmachen	-11.8293
▁prohibited	-11.8293
▁gedenken	-11.8293
▁modest	-11.8293
▁zukunftsweisend	-11.8293
▁entirety	-11.8293
▁dauern	-11.8293
▁Rö	-11.8293
▁unease	-11.8293
▁thirt	-11.8293
▁Jahresbericht	-11.8293
eichung	-11.8293
▁adjustment	-11.8293
▁abzugeben	-11.8294
fristig	-11.8294
▁tiger	-11.8294
▁realisiert	-11.8294
▁Verstoß	-11.8294
seeische	-11.8294
▁formelle	-11.8294
▁teilt	-11.8294
▁Atom	-11.8294
▁Vizepräsidentin	-11.8294
▁abzusehen	-11.8294
▁brak	-11.8294
▁ausgewählte	-11.8294
▁Abgabe	-11.8295
amkeit	-11.8295
▁Initiativrecht	-11.8295
▁verhängt	-11.8295
▁himself	-11.8295
▁abgesetzt	-11.8295
▁additionality	-11.8295
▁vergeben	-11.8295
▁Rückstand	-11.8295
▁900	-11.8295
▁Maßnahmenpaket	-11.8295
▁unterziehen	-11.8296
▁mehrjährige	-11.8296
▁zuerkannt	-11.8296
▁Schon	-11.8296
▁Berufung	-11.8297
▁colour	-11.8297
▁ECHO	-11.8297
▁Scoreboard	-11.8297
▁geschätzte	-11.8297
▁gestiegen	-11.8297
▁beschrieben	-11.8297
▁profitable	-11.8297
▁einzuräumen	-11.8297
▁fool	-11.8297
sbeschränkungen	-11.8297
blauf	-11.8297
▁feierlich	-11.8297
▁killed	-11.8298
▁performance	-11.8298
▁precedent	-11.8298
▁disp	-11.8298
▁Sek	-11.8298
▁greift	-11.8298
▁erbringen	-11.8298
▁beginnt	-11.8299
▁substantielle	-11.8299
▁Rechtsun	-11.8299
5-004	-11.8299
▁Instabilität	-11.83
angelegenheiten	-11.83
▁30%	-11.83
▁IX	-11.83
▁Straftaten	-11.83
▁durchzusetzen	-11.83
▁Wor	-11.83
▁verbraucher	-11.83
endung	-11.8301
▁Sender	-11.8301
▁gradually	-11.8301
▁Angehörige	-11.8301
hud	-11.8302
▁priori	-11.8302
▁weaknesses	-11.8302
▁aufzeigen	-11.8302
▁anwendbar	-11.8302
▁escape	-11.8303
▁Cost	-11.8303
▁seinerzeit	-11.8303
▁Menschenrechts	-11.8303
▁vorzugehen	-11.8303
▁eingestellt	-11.8304
▁Ausland	-11.8304
▁Els	-11.8304
▁ausgelegt	-11.8304
▁TAOs	-11.8304
▁Gesch	-11.8305
▁Rechnungshofes	-11.8305
▁Wichtiges	-11.8305
cumbe	-11.8305
▁offensiv	-11.8305
▁page	-11.8306
▁ausgenommen	-11.8306
▁deployed	-11.8306
▁permitted	-11.8306
▁produktive	-11.8306
▁begegnen	-11.8307
▁host	-11.8308
▁freiwillige	-11.8308
▁Asien	-11.8308
▁ausschließen	-11.8308
▁ausgegangen	-11.8308
▁ausführen	-11.8308
▁fossil	-11.8309
▁militärische	-11.8309
▁hinder	-11.8309
▁gemeldet	-11.8309
▁deem	-11.8309
▁zuwenden	-11.8309
▁Rückzug	-11.831
▁aufgehoben	-11.831
▁weckt	-11.831
▁anfangen	-11.831
▁Versuchung	-11.8311
verzerrungen	-11.8311
▁bid	-11.8311
▁IIIA	-11.8312
▁indikative	-11.8312
▁Chi	-11.8312
▁aufgestellt	-11.8313
küste	-11.8313
▁vorzustellen	-11.8313
▁differenzierte	-11.8314
▁pet	-11.8314
▁humanity	-11.8314
▁slightly	-11.8314
▁konsultieren	-11.8315
zuhalten	-11.8315
▁anticipated	-11.8315
▁reformieren	-11.8315
▁abstained	-11.8316
geschick	-11.8316
▁entschuldigen	-11.8316
▁erstrecken	-11.8316
▁tender	-11.8317
▁pity	-11.8317
▁Entsteh	-11.8318
▁sceptical	-11.8319
schiffahrt	-11.8319
bul	-11.8319
▁ausgegeben	-11.832
▁od	-11.832
▁Inflation	-11.832
▁paßt	-11.8321
flaggen	-11.8321
▁zugeführt	-11.8323
▁election	-11.8323
▁Kulturpolitik	-11.8323
▁voiced	-11.8323
▁vorgegeben	-11.8324
▁beunruhigend	-11.8324
▁Mittelzuweisung	-11.8324
▁Gewinne	-11.8325
▁äußerte	-11.8325
üsse	-11.8325
▁witnessed	-11.8325
▁einbringen	-11.8326
▁Asylrecht	-11.8326
anteil	-11.8327
ando	-11.8328
▁railways	-11.8328
▁replies	-11.8328
▁Vorruhestands	-11.8328
▁Youth	-11.8328
▁wieviel	-11.833
▁understandable	-11.833
▁eingetreten	-11.8331
▁Serbia	-11.8331
▁posted	-11.8331
▁Zug	-11.8331
▁Zeile	-11.8331
▁vorschlägt	-11.8331
▁Pest	-11.8332
▁Umweltpolitik	-11.8332
▁legality	-11.8332
▁endet	-11.8334
▁Personally	-11.8334
▁angeschlossen	-11.8334
geschlagen	-11.8335
▁Billigflaggen	-11.8335
▁lenken	-11.8335
▁niedrigere	-11.8336
▁verschwinden	-11.8336
▁abzielen	-11.8336
-2-	-11.8338
▁Forum	-11.8338
elekommunikation	-11.8339
Wiederverwertung	-11.8339
bereitungsgruppe	-11.8339
▁fragte	-11.834
▁discover	-11.834
▁Umweltbereich	-11.8341
warnsystem	-11.8341
▁Far	-11.8341
▁angelegt	-11.8342
▁Hauptziel	-11.8343
▁Rest	-11.8343
▁eintreten	-11.8343
transeuropäische	-11.8344
▁miser	-11.8345
gleichberechtigt	-11.8345
▁tiefer	-11.8346
▁nationality	-11.8346
ohne	-11.8348
▁verspreche	-11.8348
▁begreifen	-11.8349
▁devastating	-11.835
▁Sha	-11.8352
▁statistics	-11.8353
▁annex	-11.8354
▁Urban	-11.8354
partnern	-11.8355
ire	-11.8356
▁democrats	-11.8356
▁beobachtet	-11.8358
▁annually	-11.836
▁seekers	-11.8363
▁Abend	-11.8364
verbänden	-11.8365
▁Freiwilligen	-11.8365
▁respectable	-11.8366
▁Inspektionen	-11.8368
schance	-11.8369
▁Fünften	-11.837
▁Rather	-11.837
▁exclude	-11.8371
▁stricter	-11.8371
▁Zentren	-11.8371
▁Zonen	-11.8372
trags	-11.8373
▁gesetzlichen	-11.8375
ände	-11.8378
▁prospects	-11.8378
hren	-11.838
▁Kürzung	-11.8381
kel	-11.8383
▁prioritise	-11.8384
▁measured	-11.8385
▁Urteile	-11.8387
▁verify	-11.8387
▁proceeding	-11.8387
▁Zy	-11.8388
▁denkt	-11.8388
Verhaltensregeln	-11.8389
▁urgently	-11.8389
▁schätzen	-11.8391
▁thereof	-11.8391
▁verbesserte	-11.8391
▁einhalten	-11.8391
▁Landschaft	-11.8393
schub	-11.8394
▁motive	-11.8395
▁befürworten	-11.8396
▁significantly	-11.8396
pfen	-11.8399
gewogen	-11.8399
▁accordingly	-11.8399
▁arena	-11.8401
▁inspire	-11.8401
▁pursued	-11.8402
▁sinnvolle	-11.8403
▁clauses	-11.8404
▁Conservatives	-11.8404
▁Canad	-11.8404
sfaktor	-11.8405
▁beider	-11.8406
▁appeared	-11.841
▁zusammenhängend	-11.8412
▁anlaufen	-11.8419
▁schlimmste	-11.8419
ika	-11.8421
ush	-11.8423
▁Werkstoffen	-11.8425
▁auslaufen	-11.8426
▁ernsthafte	-11.8427
light	-11.8427
dependent	-11.8429
▁Zusagen	-11.843
▁Nachteil	-11.8433
▁enger	-11.8435
▁zuviel	-11.8441
uchung	-11.8442
▁Geschäfts	-11.8443
▁ließen	-11.8446
▁insisting	-11.8449
oC	-11.8451
▁damaged	-11.8452
▁Ratsbeschlu	-11.8452
Ausnahmeregelung	-11.8453
▁contacts	-11.8454
▁dieselbe	-11.8455
▁Asylbewerbern	-11.8455
▁griechischen	-11.8455
bild	-11.8458
▁blocks	-11.8461
vorlag	-11.8464
▁Profit	-11.8466
▁Mon	-11.8468
▁einheitlicher	-11.8469
▁score	-11.8472
▁Teilung	-11.8472
▁gründliche	-11.8473
▁multipli	-11.8473
▁dramatisch	-11.8479
▁aufkommen	-11.8484
▁eingereichten	-11.849
▁sprachen	-11.8492
▁wondering	-11.8494
▁Betrachtung	-11.8495
geachtet	-11.8502
▁letztere	-11.8503
▁zugeben	-11.8504
▁charges	-11.8504
spunkt	-11.8507
▁appropriately	-11.8508
▁answered	-11.8511
▁Russian	-11.8515
▁bürokratischen	-11.8516
▁learning	-11.8516
▁kurzer	-11.8531
▁erforderliche	-11.8537
▁fundamentally	-11.8542
rust	-11.8545
▁Anlagen	-11.8546
▁effizient	-11.8547
instrument	-11.8551
gedeckt	-11.8551
achkenntnis	-11.8554
140	-11.8554
▁choices	-11.8557
▁incomes	-11.8557
mobili	-11.8558
▁resist	-11.8562
▁Beitrittsländer	-11.8569
geworfen	-11.8574
dmittedly	-11.8576
▁arisen	-11.8577
▁inne	-11.8579
▁multiplic	-11.8587
▁Versprech	-11.8595
▁drafted	-11.8595
▁ehrgeiziger	-11.8602
ggressiv	-11.8607
licher	-11.8607
teils	-11.8611
▁Infrastrukturen	-11.8614
▁Pflichten	-11.8615
▁cond	-11.8615
▁Regime	-11.8624
dsch	-11.8625
▁seiz	-11.8631
ächer	-11.8634
zuschreiben	-11.8636
▁gerechter	-11.8638
sspielraum	-11.864
Wirtschaftszweig	-11.8642
▁Konflikts	-11.8646
▁Rasse	-11.8651
▁kamen	-11.8651
▁Vorbereitungen	-11.8652
▁Banken	-11.8668
▁updat	-11.8675
▁umgekehrt	-11.8679
▁einsetzt	-11.8683
▁Instanzen	-11.8686
▁endlos	-11.8688
▁effektiver	-11.8691
▁zwingend	-11.8691
3	-11.8692
▁Könnte	-11.8693
▁leitende	-11.8695
▁erscheinende	-11.8695
▁riesigen	-11.87
▁sichere	-11.8702
▁vorgebrachte	-11.8702
üttelt	-11.8704
stan	-11.8711
▁reactions	-11.8713
▁tempt	-11.8717
quality	-11.8722
▁falling	-11.8722
▁Vorrednern	-11.8731
▁evaluate	-11.8759
▁Chairm	-11.876
nts	-11.877
ties	-11.8777
oc	-11.8781
lerated	-11.8782
14	-11.8789
▁dark	-11.8791
▁bilaterale	-11.8791
▁creativ	-11.8805
va	-11.8807
▁indefinitely	-11.8808
▁plants	-11.8813
▁fram	-11.8814
bürger	-11.8817
▁alleviat	-11.8824
▁läng	-11.8841
▁havens	-11.8856
▁settl	-11.8869
schaften	-11.8878
strukturen	-11.8882
▁Flüchtlingen	-11.8889
ship	-11.8908
▁endless	-11.8918
▁surprise	-11.8922
our	-11.8929
branche	-11.894
bestimmungen	-11.8953
▁Projekts	-11.896
lied	-11.8969
▁liberals	-11.8983
ucht	-11.899
wise	-11.8992
▁broaden	-11.8999
bro	-11.9002
▁billions	-11.9007
▁tone	-11.9011
▁Chancen	-11.9012
▁unzureichende	-11.9025
▁sittings	-11.904
▁unite	-11.9052
▁Gelegenheiten	-11.9056
gender	-11.9061
ssysteme	-11.9077
rooted	-11.9106
▁begründete	-11.911
▁lobenswerte	-11.9112
▁ausschließliche	-11.9113
oyal	-11.9114
▁horizontale	-11.9116
▁Modelle	-11.9133
fällt	-11.9137
▁aktiver	-11.9137
▁sta	-11.9138
▁193	-11.9147
▁systematische	-11.915
mplement	-11.9168
dex	-11.9177
vent	-11.9179
spräsidenten	-11.9182
urs	-11.919
▁strategisch	-11.9193
mod	-11.9205
▁rechten	-11.9219
▁offizielle	-11.9225
skompetenz	-11.9251
▁dec	-11.9254
▁contents	-11.9255
▁Jede	-11.9266
▁fr	-11.927
▁conce	-11.9281
ertain	-11.9287
▁älter	-11.929
sorgane	-11.9298
U	-11.9324
▁Kreis	-11.9324
3%	-11.9335
rate	-11.934
▁backing	-11.935
▁Ch	-11.9351
cope	-11.9353
snetze	-11.9354
▁Welthandel	-11.9359
bare	-11.9363
▁anerkannte	-11.9368
wende	-11.9375
▁schön	-11.9392
ffentlich	-11.9394
Rechnungsprüfung	-11.941
▁hoff	-11.9416
▁outrage	-11.9424
▁Nordi	-11.9437
teile	-11.9438
herein	-11.9439
old	-11.9439
▁klarer	-11.9462
▁radikale	-11.9485
▁Popul	-11.9495
▁Vi	-11.9499
einheitlich	-11.9517
ical	-11.9519
br	-11.953
verbindlich	-11.9531
ssystems	-11.9537
aufwend	-11.9572
portion	-11.9576
▁Besteh	-11.9581
rückt	-11.9583
▁advocat	-11.9589
argued	-11.9592
akteure	-11.9592
▁spi	-11.9602
▁erreichte	-11.9604
▁pose	-11.9608
▁conc	-11.9621
▁Kommunikations	-11.9622
▁maximal	-11.9634
schlossenen	-11.9657
iederherstell	-11.9657
▁persuade	-11.9666
75	-11.9677
▁Rec	-11.968
skrise	-11.9703
vielfach	-11.9705
vorschriften	-11.9705
▁rück	-11.9722
▁irre	-11.9735
signed	-11.9738
▁VI	-11.9756
▁cap	-11.9762
regierung	-11.9779
ket	-11.9788
iterhin	-11.9789
gangs	-11.9796
▁acc	-11.9813
2000)	-11.9817
Rechtsvorschrift	-11.9821
1%	-11.9847
tage	-11.9856
ufstock	-11.9868
iness	-11.9871
▁komplexe	-11.9872
coup	-11.9872
▁Inspektor	-11.9875
incidence	-11.9891
laden	-11.9914
▁verständliche	-11.9916
▁thre	-11.9928
▁Na	-11.9932
▁unab	-11.9935
▁Every	-11.9938
▁umfangreich	-11.9962
▁Bla	-11.9963
▁effizientere	-11.9997
▁Gu	-12.0013
▁1999/0	-12.0021
▁sorgfältige	-12.0039
pläne	-12.004
mäßig	-12.005
verse	-12.0067
passen	-12.0071
sounding	-12.0076
istan	-12.0092
▁relie	-12.0097
gerechte	-12.0099
▁Ausweis	-12.0104
▁Kranken	-12.0106
▁verb	-12.0113
▁beauftragt	-12.0117
ada	-12.0118
greifende	-12.0118
projekt	-12.0122
appe	-12.0125
iel	-12.0133
20	-12.014
viate	-12.0144
ger	-12.015
durchschnittlich	-12.0155
kommt	-12.0166
öse	-12.0172
situation	-12.0177
▁strafrechtlich	-12.0185
sprechen	-12.0187
▁tolerate	-12.0193
▁dedicate	-12.0204
▁Automobil	-12.0215
rren	-12.0219
▁ka	-12.0226
▁She	-12.0266
▁46	-12.0281
▁eingest	-12.0283
▁Equal	-12.0287
▁verheerend	-12.0308
▁habit	-12.0312
▁umgekehrte	-12.0319
▁elektronische	-12.0341
mpen	-12.036
gerecht	-12.0378
▁rely	-12.0382
22	-12.0384
ath	-12.0385
▁Gefahrgut	-12.0389
▁umwelt	-12.0391
worfen	-12.0396
slosigkeit	-12.0423
schieden	-12.0444
▁Fragestell	-12.0444
anträge	-12.0447
icity	-12.0448
▁normale	-12.0449
reite	-12.0461
ES	-12.0466
▁participa	-12.0467
▁600	-12.0476
lk	-12.048
▁Pol	-12.049
mine	-12.0509
kann	-12.0512
wertet	-12.0518
ou	-12.0542
▁delegat	-12.0544
rechtigung	-12.0546
▁180	-12.0561
▁catastroph	-12.0568
schreiten	-12.0574
▁wirksamere	-12.0583
elle	-12.0596
▁tend	-12.0597
▁Rom	-12.0599
▁flie	-12.0611
big	-12.0621
eduld	-12.0621
nimmt	-12.0622
▁authoris	-12.0627
▁enlarg	-12.063
auer	-12.0633
zone	-12.064
ano	-12.0645
weiten	-12.0646
▁infrastructur	-12.0647
▁ignor	-12.0649
▁bloß	-12.0651
▁Rechtssystem	-12.0652
▁underpin	-12.0653
deckt	-12.0655
▁indirect	-12.0656
▁Seeverkehr	-12.0657
looking	-12.0659
7%	-12.066
equal	-12.066
grenze	-12.0661
▁höre	-12.0662
pf	-12.0663
▁erlaube	-12.0663
▁Regel	-12.0665
Region	-12.0666
petition	-12.0667
▁zustimme	-12.0667
▁diejenige	-12.0668
▁gehöre	-12.0669
seas	-12.0669
▁brauche	-12.067
▁trage	-12.067
▁Korruption	-12.0675
▁dispute	-12.0675
▁prospect	-12.0678
suchen	-12.0678
▁Ausgabe	-12.0678
▁earthquake	-12.068
▁generation	-12.068
▁backward	-12.0681
▁pledge	-12.0681
▁clas	-12.0682
▁waterway	-12.0682
▁beglückwünsche	-12.0683
▁barrier	-12.0684
▁Territorium	-12.0684
▁frontier	-12.0684
darf	-12.0685
▁merger	-12.0686
▁vessel	-12.0686
▁Grupp	-12.0687
▁expert	-12.0687
▁asset	-12.0688
versicherungs	-12.0689
19	-12.0692
▁spürbare	-12.0693
▁immigrant	-12.0695
gemessen	-12.0702
▁exercis	-12.0704
▁Ost	-12.0704
wünschte	-12.0706
▁Oste	-12.0707
▁Ambition	-12.0707
▁Nachricht	-12.0711
balance	-12.0712
▁Befürchtung	-12.0714
▁150	-12.0715
▁erzielte	-12.0715
▁Anmerkung	-12.0715
elf	-12.0715
▁Übersetzung	-12.0716
▁betreib	-12.0716
▁schriftliche	-12.0716
▁Betroffen	-12.0716
dürftig	-12.0718
▁Kriteri	-12.0719
▁morg	-12.072
▁welcom	-12.0721
iederschlag	-12.0724
▁knapp	-12.0725
▁facilit	-12.0725
streichen	-12.0727
▁Ausführung	-12.0729
▁recognis	-12.0732
▁shar	-12.0733
▁plac	-12.0733
▁declar	-12.0733
5%	-12.0733
▁illustrat	-12.0735
schlechter	-12.0736
Besitzstand	-12.0736
compatib	-12.0736
klar	-12.0736
intensive	-12.0736
Rahmenprogramm	-12.0737
analyse	-12.0737
SEC	-12.0737
▁remov	-12.0737
controlle	-12.0738
Einkommen	-12.0738
lobby	-12.0738
BIP	-12.0738
weight	-12.0738
Human	-12.0738
liberal	-12.0738
züg	-12.0739
80	-12.0739
month	-12.0739
sensitive	-12.0739
Sha	-12.0739
intervention	-12.0739
scoreboard	-12.0739
Haushalt	-12.074
PSE	-12.074
Z	-12.074
intention	-12.074
govern	-12.074
consistent	-12.074
while	-12.074
Menschenrechte	-12.074
J	-12.074
word	-12.074
URBAN	-12.074
Europa	-12.074
CEN	-12.0741
sort	-12.0741
herzustellen	-12.0742
zulassen	-12.0742
gezogen	-12.0742
dessen	-12.0743
wünscht	-12.0743
immer	-12.0743
Mainstreaming	-12.0744
technische	-12.0746
▁tourist	-12.0746
▁worry	-12.0748
financial	-12.0749
bling	-12.075
gerade	-12.075
acht	-12.0751
verwertung	-12.0752
▁foot	-12.0753
▁iron	-12.0753
gar	-12.0754
schneiden	-12.0755
dom	-12.0757
▁Cultur	-12.0758
▁unterbreitete	-12.0759
▁tim	-12.0759
ressing	-12.0762
hielt	-12.0762
▁gehörte	-12.0763
▁Act	-12.0763
geist	-12.0764
▁fix	-12.0765
▁Blei	-12.0766
have	-12.0766
pern	-12.0766
▁Nachfolge	-12.0768
▁deploy	-12.077
▁ermutig	-12.077
▁abandon	-12.077
ilba	-12.0773
ociety	-12.0774
▁retroactive	-12.0775
▁gradual	-12.0775
working	-12.0777
erlegt	-12.0778
wärts	-12.0778
charakter	-12.0778
titude	-12.0778
cap	-12.0779
ruppe	-12.0779
▁bill	-12.078
äglich	-12.078
▁Part	-12.0781
▁Gestalt	-12.0781
▁ultimate	-12.0782
▁Gott	-12.0782
olving	-12.0783
herent	-12.0783
durchführbar	-12.0783
▁constitution	-12.0784
5-0104/1999	-12.0784
5-0107/1999	-12.0784
5-0105/1999	-12.0784
gnoran	-12.0785
▁Kartell	-12.0785
wicklung	-12.0785
▁Feder	-12.0785
▁Produ	-12.0786
freut	-12.0786
▁construct	-12.0787
wandel	-12.0787
friedenheit	-12.0787
schweigen	-12.0787
weisung	-12.0787
▁Legitim	-12.0788
söhnung	-12.0788
▁1999/21	-12.0788
▁manifest	-12.0788
arameter	-12.0788
iversifizier	-12.0788
rogress	-12.0788
zufordern	-12.0789
▁Hinter	-12.0789
▁ungefähr	-12.0789
egenwärtig	-12.0789
gebühren	-12.0789
feindlich	-12.0789
schritt	-12.0789
statut	-12.0789
ntscheidend	-12.0789
▁shame	-12.0789
feld	-12.0789
efence	-12.0789
5-01	-12.0789
▁Palästin	-12.0789
disziplin	-12.0789
▁discre	-12.0789
betracht	-12.0789
▁Jordan	-12.0789
▁Eigentum	-12.0789
▁bromi	-12.0789
IS	-12.0789
waffen	-12.0789
ontinu	-12.079
▁Morg	-12.079
abstimmung	-12.079
LAF	-12.079
▁totalitarian	-12.079
▁profess	-12.079
▁child	-12.079
▁empf	-12.079
▁patien	-12.079
ordinary	-12.079
verhältnis	-12.079
geschäfte	-12.079
gänz	-12.079
kommissar	-12.079
▁Super	-12.079
4-035	-12.079
strom	-12.079
(99)0	-12.079
á	-12.079
▁Atomenergie	-12.079
effekt	-12.079
händler	-12.079
▁Illegal	-12.079
▁Komitologie	-12.079
▁Wahrscheinlich	-12.079
▁privatis	-12.079
08/1999	-12.079
5-0006/2000)	-12.079
5-0007/2000)	-12.079
5-0026/2000)	-12.079
5-0028/2000)	-12.079
Harris	-12.079
Höhen	-12.079
Jørgensen	-12.079
Suffolk	-12.079
ausgeglichene	-12.079
conscious	-12.079
consuming	-12.079
eckung	-12.079
gesetzgeberische	-12.079
güter	-12.079
hrjahresprogramm	-12.079
imulator	-12.079
klausel	-12.079
kommunizier	-12.079
lammschutzmittel	-12.079
medizin	-12.079
meidung	-12.079
nutzung	-12.079
parlament	-12.079
prangert	-12.079
schrott	-12.079
sgremium	-12.079
sponsor	-12.079
unverantwortlich	-12.079
verkäufe	-12.079
verschmutzungen	-12.079
widersprüchliche	-12.079
ã	-12.079
▁1982	-12.079
▁1993-1995	-12.079
▁96/71	-12.079
▁ADAPT	-12.079
▁ATTAC	-12.079
▁Abwegigkeit	-12.079
▁Again	-12.079
▁Agentur	-12.079
▁Angelilli	-12.079
▁Appell	-12.079
▁Assembly	-12.079
▁Assoziierung	-12.079
▁Atatürk	-12.079
▁Außenhandel	-12.079
▁Bahn	-12.079
▁Bomben	-12.079
▁Brandenburg	-12.079
▁Busquin	-12.079
▁Byrne	-12.079
▁BürgerInnen	-12.079
▁Clinton	-12.079
▁Cuxhaven	-12.079
▁Devisenhandel	-12.079
▁Diskrepanz	-12.079
▁Drohung	-12.079
▁EFRE	-12.079
▁ERDF	-12.079
▁Efterløn	-12.079
▁Energy	-12.079
▁Ethiopia	-12.079
▁Euratom	-12.079
▁Exekutiv	-12.079
▁Faslane	-12.079
▁Fisheries	-12.079
▁Flautre	-12.079
▁Fusions	-12.079
▁Galici	-12.079
▁Geschlechts	-12.079
▁Gesetzgeber	-12.079
▁Gewerkschafts	-12.079
▁Glasgow	-12.079
▁Haarder	-12.079
▁Heranführungs	-12.079
▁IWF	-12.079
▁Inglewood	-12.079
▁Karlsruhe	-12.079
▁Klärung	-12.079
▁Komitee	-12.079
▁Kommunal	-12.079
▁Komponente	-12.079
▁Koordinator	-12.079
▁Lannoye	-12.079
▁Lawine	-12.079
▁Leinster	-12.079
▁Madeira	-12.079
▁Management	-12.079
▁Midlands	-12.079
▁Montreal	-12.079
▁Munich	-12.079
▁NRO	-12.079
▁Napolitano	-12.079
▁Nazism	-12.079
▁Netzwerke	-12.079
▁Niedergang	-12.079
▁Nikitin	-12.079
▁Norwegen	-12.079
▁Official	-12.079
▁Ortega	-12.079
▁Paddington	-12.079
▁Peijs	-12.079
▁Peking	-12.079
▁Positives	-12.079
▁Procacci	-12.079
▁Proposal	-12.079
▁Präzedenzfall	-12.079
▁Reflexion	-12.079
▁Rindfleisch	-12.079
▁Rotterdam	-12.079
▁Ruiz	-12.079
▁Rumänien	-12.079
▁Schatten	-12.079
▁Scheitern	-12.079
▁Schottland	-12.079
▁Schwarz	-12.079
▁Souladakis	-12.079
▁Sozialmodell	-12.079
▁Sympathie	-12.079
▁Säuberung	-12.079
▁Söderman	-12.079
▁Tragödie	-12.079
▁Transnational	-12.079
▁VAT	-12.079
▁Vatanen	-12.079
▁Velzen	-12.079
▁Vermögen	-12.079
▁Verschwendung	-12.079
▁Vertretung	-12.079
▁Verwässerung	-12.079
▁Veterinäramt	-12.079
▁Vorverurteilung	-12.079
▁Yesterday	-12.079
▁Zentralasien	-12.079
▁abhängen	-12.079
▁abschaffen	-12.079
▁abzuschaffen	-12.079
▁anbieten	-12.079
▁anzubieten	-12.079
▁artificial	-12.079
▁aufgezeigt	-12.079
▁ausgehöhlt	-12.079
▁autonomy	-12.079
▁außergewöhnlich	-12.079
▁bedenklich	-12.079
▁befriedigend	-12.079
▁befördern	-12.079
▁begleitet	-12.079
▁beliebig	-12.079
▁bescheidene	-12.079
▁besitzt	-12.079
▁besprochen	-12.079
▁bestrebt	-12.079
▁birth	-12.079
▁carpet	-12.079
▁comitology	-12.079
▁communautaire	-12.079
▁competitor	-12.079
▁comprehensible	-12.079
▁conservation	-12.079
▁conservative	-12.079
▁credible	-12.079
▁curb	-12.079
▁delinquency	-12.079
▁demnächst	-12.079
▁demographic	-12.079
▁demographische	-12.079
▁deterrent	-12.079
▁dictate	-12.079
▁drängt	-12.079
▁einrichten	-12.079
▁einschränken	-12.079
▁einzubinden	-12.079
▁einzuladen	-12.079
▁emotional	-12.079
▁empfunden	-12.079
▁enlighten	-12.079
▁entsandt	-12.079
▁equivalent	-12.079
▁eradicat	-12.079
▁erleichtert	-12.079
▁erschwert	-12.079
▁funktionsfähig	-12.079
▁gauge	-12.079
▁geboren	-12.079
▁geliefert	-12.079
▁gescheitert	-12.079
▁gestrige	-12.079
▁glaubwürdig	-12.079
▁guilt	-12.079
▁hervorzuheben	-12.079
▁holiday	-12.079
▁hypocritical	-12.079
▁inclin	-12.079
▁inject	-12.079
▁irrelevant	-12.079
▁kommunistische	-12.079
▁konservative	-12.079
▁kostengünstig	-12.079
▁kostspielig	-12.079
▁kreative	-12.079
▁livelihood	-12.079
▁lodged	-12.079
▁lächerlich	-12.079
▁löst	-12.079
▁marginalisation	-12.079
▁marginalised	-12.079
▁middle	-12.079
▁mitgeteilt	-12.079
▁nachgängige	-12.079
▁neglect	-12.079
▁nirgend	-12.079
▁nutzbar	-12.079
▁objektiv	-12.079
▁observance	-12.079
▁optimistic	-12.079
▁populism	-12.079
▁precision	-12.079
▁premature	-12.079
▁problematisch	-12.079
▁prüft	-12.079
▁qualification	-12.079
▁ratsam	-12.079
▁reaffirm	-12.079
▁recyclable	-12.079
▁regain	-12.079
▁relaunch	-12.079
▁reputation	-12.079
▁resurgence	-12.079
▁retardants	-12.079
▁revive	-12.079
▁rough	-12.079
▁rumour	-12.079
▁rütteln	-12.079
▁schwerfällig	-12.079
▁shipyard	-12.079
▁silence	-12.079
▁spezialisiert	-12.079
▁stakeholders	-12.079
▁streams	-12.079
▁struggle	-12.079
▁suffice	-12.079
▁superficial	-12.079
▁teuer	-12.079
▁tranche	-12.079
▁transcend	-12.079
▁triumph	-12.079
▁trouble	-12.079
▁twice	-12.079
▁ungehindert	-12.079
▁unjustified	-12.079
▁unquestionabl	-12.079
▁unreasonable	-12.079
▁unsatisfactory	-12.079
▁unsuccessful	-12.079
▁untergraben	-12.079
▁unterliegt	-12.079
▁unterrichten	-12.079
▁untersagt	-12.079
▁unterscheiden	-12.079
▁unterscheidet	-12.079
▁unverständlich	-12.079
▁urging	-12.079
▁vanguard	-12.079
▁veraltet	-12.079
▁verbinden	-12.079
▁verletzen	-12.079
▁verliehen	-12.079
▁vertraglich	-12.079
▁vervollkommne	-12.079
▁verändern	-12.079
▁victory	-12.079
▁vollzieht	-12.079
▁vorzubereiten	-12.079
▁wake	-12.079
▁wisdom	-12.079
▁wächst	-12.079
▁yield	-12.079
▁zieht	-12.079
▁zustimmt	-12.079
▁Ärzte	-12.079
▁Ökonom	-12.079
▁ärmer	-12.079
▁öffnen	-12.079
NGL	-12.079
cheinheilig	-12.079
wütet	-12.079
è	-12.079
▁ADR	-12.079
▁Flicken	-12.079
▁Führer	-12.079
▁Geburt	-12.079
▁Gegebenheiten	-12.079
▁Halbjahr	-12.079
▁Höchst	-12.079
▁KFOR	-12.079
▁Kaleidos	-12.079
▁Kartellamt	-12.079
▁Konkret	-12.079
▁Materie	-12.079
▁Migration	-12.079
▁Mittelmeerraum	-12.079
▁Politikfelder	-12.079
▁Provid	-12.079
▁SOL	-12.079
▁Satz	-12.079
▁Schadholz	-12.079
▁Verkauf	-12.079
▁ausgeprägt	-12.079
▁auszuüben	-12.079
▁centuries	-12.079
▁closing	-12.079
▁computer	-12.079
▁demagog	-12.079
▁entsenden	-12.079
▁erfassen	-12.079
▁ergänzt	-12.079
▁erworben	-12.079
▁essentiell	-12.079
▁false	-12.079
▁füllen	-12.079
▁gehabt	-12.079
▁grobe	-12.079
▁harsh	-12.079
▁namentliche	-12.079
▁nominate	-12.079
▁prevail	-12.079
▁rank	-12.079
▁vollwertige	-12.079
▁zurückkehren	-12.079
Semiti	-12.079
entrepr	-12.079
▁Berater	-12.079
▁Drug	-12.079
▁Früh	-12.079
▁Gebilde	-12.079
▁Geschenk	-12.079
▁IMF	-12.079
▁Lekt	-12.079
▁Mittelbindungen	-12.079
▁Saint	-12.079
▁Secretary	-12.079
▁Stichwort	-12.079
▁Votum	-12.079
▁Zweifelsfall	-12.079
▁adjourned	-12.079
▁announcement	-12.079
▁bekennt	-12.079
▁devise	-12.079
▁erschüttert	-12.079
▁meistern	-12.079
▁mile	-12.079
▁phasing	-12.079
▁remedy	-12.079
▁Take	-12.079
▁Wachs	-12.079
▁music	-12.079
▁verschlechtern	-12.079
schwemm	-12.079
▁Casa	-12.079
▁Rechtssachen	-12.079
▁horse	-12.079
▁reduziert	-12.079
▁scene	-12.079
▁subscribe	-12.079
▁trafficking	-12.079
(99)047	-12.079
▁Sprung	-12.079
▁beschert	-12.079
▁insult	-12.079
▁peat	-12.079
▁unrechtmäßig	-12.079
▁Bruch	-12.079
▁Rettung	-12.079
▁bürgernah	-12.079
▁debt	-12.079
▁echo	-12.079
▁nennt	-12.079
▁simplification	-12.079
box	-12.079
▁Ladung	-12.079
▁ersucht	-12.079
▁verkaufen	-12.079
▁verlängern	-12.079
▁vorüber	-12.079
gemischt	-12.079
▁Brun	-12.079
▁bedacht	-12.079
▁Kartellverbot	-12.079
▁forefront	-12.079
▁frost	-12.079
▁gewinnt	-12.079
▁shake	-12.079
▁verschärft	-12.079
▁Auflagen	-12.079
gewalt	-12.079
▁Assad	-12.079
▁abbauen	-12.079
▁empt	-12.079
▁Empfangsstaat	-12.079
▁gesunde	-12.079
fressen	-12.079
sverhältnisse	-12.079
▁Negativ	-12.079
▁anomal	-12.079
▁availability	-12.079
▁Großstädte	-12.079
▁enthusiasm	-12.079
▁explosion	-12.079
▁wunderbare	-12.079
▁Zweideutigkeit	-12.079
▁befreit	-12.079
▁ethische	-12.079
▁Fehlverhalten	-12.079
▁Kunden	-12.079
▁Rechtsextrem	-12.079
▁bemerkenswert	-12.079
▁intelligent	-12.079
▁voranschreiten	-12.079
▁voranzubringen	-12.079
▁1957	-12.079
▁Turkish	-12.079
▁Bundesregierung	-12.079
▁fragility	-12.079
▁disturbance	-12.079
explosionsartige	-12.079
▁Musik	-12.079
▁voranzukommen	-12.079
▁wahrzunehmen	-12.079
präventi	-12.079
▁professions	-12.079
▁hierarchi	-12.079
▁ownership	-12.079
▁Comart	-12.079
▁Kanäle	-12.079
enüge	-12.079
▁Barrieren	-12.079
▁Vollstreck	-12.079
▁astonish	-12.079
▁schien	-12.079
▁litera	-12.079
▁Fahrzeugbestand	-12.079
sighted	-12.079
▁1997/037	-12.079
▁Erzeugnisse	-12.079
▁Hauptstadt	-12.079
▁Zentralisierung	-12.079
▁wählt	-12.079
5-002	-12.079
kistan	-12.079
▁Norway	-12.079
▁sitzen	-12.079
untergekommen	-12.079
▁contradictory	-12.079
▁Essex	-12.079
kündigen	-12.079
▁compatibility	-12.079
▁race	-12.079
▁vermisse	-12.079
▁Ratsverordnung	-12.079
▁extremist	-12.079
läßlich	-12.079
▁doctors	-12.079
5-033	-12.079
▁rehabilitation	-12.079
▁drastically	-12.079
▁Kulturerbe	-12.079
▁interface	-12.079
▁republic	-12.079
▁feststellte	-12.079
udicial	-12.079
ureau	-12.079
▁abzeichnen	-12.079
heimlich	-12.079
produktion	-12.079
▁bromierte	-12.079
▁bekämpft	-12.079
▁demonstriert	-12.079
▁ermitteln	-12.079
▁species	-12.079
Anzeigetafel	-12.079
vorstellungen	-12.079
▁umgangen	-12.079
▁Ohren	-12.079
▁baldmöglich	-12.079
▁wohnen	-12.079
▁Prüfdienst	-12.079
▁Nazismus	-12.079
arifvertrag	-12.079
▁grasp	-12.079
▁1999/217	-12.0791
▁1999/218	-12.0791
▁Texas	-12.0791
▁blicken	-12.0791
▁socialists	-12.0791
▁intelle	-12.0791
▁trail	-12.0791
▁Neuwagen	-12.0791
▁Disp	-12.0791
▁konkretisieren	-12.0791
▁equipment	-12.0791
▁reinstate	-12.0791
▁Strom	-12.0791
▁festgeschrieben	-12.0791
▁Marg	-12.0791
▁burn	-12.0791
▁standardised	-12.0791
(1999)01	-12.0791
▁sentence	-12.0791
▁Defizit	-12.0791
▁zuwege	-12.0791
▁Start	-12.0791
▁UEN	-12.0791
5-0120/	-12.0791
▁Geschlechter	-12.0791
▁Föderalis	-12.0791
▁perform	-12.0791
ungsme	-12.0791
▁Pfund	-12.0791
▁modu	-12.0791
▁participating	-12.0791
▁präsentieren	-12.0791
▁consumption	-12.0791
▁Statt	-12.0791
▁tension	-12.0791
▁Streben	-12.0791
▁Organismus	-12.0791
▁Mehrwert	-12.0791
ausbildung	-12.0791
▁bewilligt	-12.0791
▁Memorandum	-12.0791
▁marine	-12.0791
verordnung	-12.0791
▁bemerken	-12.0791
gefüge	-12.0791
einigung	-12.0791
▁Zusicherung	-12.0791
69	-12.0791
▁Schiffbau	-12.0791
▁abgibt	-12.0791
▁interview	-12.0791
▁ignorance	-12.0791
▁Warnung	-12.0791
▁Gebäude	-12.0791
▁Rechtskultur	-12.0791
teilnehmer	-12.0791
licit	-12.0791
▁Lobby	-12.0791
2/1999	-12.0791
▁liberalism	-12.0791
▁Unterlassung	-12.0791
haftigkeit	-12.0791
wiederherstellen	-12.0791
▁game	-12.0791
▁üben	-12.0791
▁Rückwirkung	-12.0791
▁organisieren	-12.0791
bour	-12.0791
▁timeframe	-12.0791
▁nachgeordnete	-12.0792
▁verbleiben	-12.0792
▁versetzt	-12.0792
008	-12.0792
▁73	-12.0792
▁bereicher	-12.0792
2/2000)	-12.0792
▁Hekt	-12.0792
▁fitting	-12.0792
▁hinausläuft	-12.0792
▁denkbar	-12.0792
▁gelitten	-12.0792
▁Recent	-12.0792
▁investieren	-12.0792
▁Rack	-12.0792
▁wirkt	-12.0792
▁Darstellung	-12.0792
verfolg	-12.0792
▁Network	-12.0792
▁specify	-12.0792
▁ungeheure	-12.0792
▁Menschheit	-12.0792
▁2025	-12.0792
▁erzeugt	-12.0792
▁Aussöhnung	-12.0792
▁Schein	-12.0792
▁stories	-12.0792
▁bread	-12.0792
▁Anweisung	-12.0792
▁unambiguous	-12.0792
▁dahinter	-12.0792
osphere	-12.0792
▁tonight	-12.0793
eutung	-12.0793
▁Zufriedenheit	-12.0793
▁zurückgegangen	-12.0793
industrielle	-12.0793
▁89	-12.0793
▁Eigenschaft	-12.0793
▁error	-12.0793
5-0069/1999)	-12.0793
5-0073/1999)	-12.0793
5-0078/1999)	-12.0793
5-0087/1999)	-12.0793
▁profitieren	-12.0793
▁350	-12.0793
▁Absätze	-12.0793
▁Volkswirtschaft	-12.0793
▁abgestellt	-12.0793
▁investiert	-12.0793
▁gültig	-12.0793
▁Gesicht	-12.0793
squoten	-12.0793
▁earth	-12.0793
▁trick	-12.0793
▁Liberalismus	-12.0793
▁exposed	-12.0793
▁viability	-12.0793
▁meaningful	-12.0793
▁299	-12.0793
▁night	-12.0793
▁exaggerated	-12.0793
▁adaptability	-12.0793
rittstaatsbürger	-12.0793
▁authorisation	-12.0793
▁Konzerne	-12.0794
▁abgedeckt	-12.0794
▁Verkehrsmittel	-12.0794
▁Aufforderung	-12.0794
▁equation	-12.0794
hagen	-12.0794
svereinbarungen	-12.0794
▁Misch	-12.0794
▁Wiederein	-12.0794
41/	-12.0794
▁Zuliefer	-12.0794
▁blow	-12.0794
▁ausdehnen	-12.0794
▁Kulturraum	-12.0794
▁56	-12.0794
▁Finance	-12.0795
▁fixiert	-12.0795
▁strukturiert	-12.0795
▁schwächer	-12.0795
▁verhandelt	-12.0795
▁alia	-12.0795
▁dead	-12.0795
▁Beihilfepolitik	-12.0795
▁experimental	-12.0795
▁kings	-12.0795
seite	-12.0795
▁ablehnt	-12.0795
▁drain	-12.0795
▁erhebt	-12.0795
▁Arbeitsdokument	-12.0795
bereite	-12.0795
▁dezentralisiert	-12.0795
▁Havarie	-12.0795
bindung	-12.0795
▁deeds	-12.0796
▁nachfolgend	-12.0796
▁Kartellrecht	-12.0796
▁Könige	-12.0796
▁Vorfall	-12.0796
▁Einflußnahme	-12.0796
▁voraussichtlich	-12.0796
▁Verurteilung	-12.0796
▁attraktive	-12.0796
▁Ausländer	-12.0796
▁Personalpolitik	-12.0796
▁Island	-12.0796
▁Zusätze	-12.0796
▁fleet	-12.0796
▁Turk	-12.0796
▁Netze	-12.0796
▁Verfahrensweise	-12.0796
▁Tiger	-12.0797
▁Präzisi	-12.0797
▁fortunately	-12.0797
▁continuity	-12.0797
verkünden	-12.0797
▁Überein	-12.0797
▁hervorgehen	-12.0797
ID	-12.0798
▁Aufsicht	-12.0798
AG	-12.0798
▁downfall	-12.0798
▁seismi	-12.0798
▁festigen	-12.0798
▁Küstengebiete	-12.0798
▁Oz	-12.0798
▁Befürworter	-12.0798
▁Anzeige	-12.0798
▁Oper	-12.0798
fremd	-12.0798
▁Emission	-12.0798
▁geordnet	-12.0799
▁ausgestellt	-12.0799
▁Eingriff	-12.0799
▁admissible	-12.0799
hebt	-12.0799
zumachen	-12.0799
▁underway	-12.0799
▁mountain	-12.0799
▁EUROJUST	-12.0799
▁Epoche	-12.0799
▁accurate	-12.0799
▁klima	-12.0799
▁mächtig	-12.0799
▁zuhören	-12.0799
▁X	-12.0799
▁copy	-12.0799
▁Umstand	-12.0799
▁vary	-12.0799
▁einzuleiten	-12.0799
▁motiviert	-12.0799
▁centralisation	-12.0799
sgarantien	-12.08
▁Rechtshilfe	-12.08
▁transposed	-12.08
sländern	-12.08
▁rating	-12.08
▁Nie	-12.08
▁Rover	-12.08
▁Sonderg	-12.08
▁verdeutlicht	-12.08
▁viable	-12.08
▁publicised	-12.08
▁nachzuweisen	-12.0801
▁Umweltproblem	-12.0801
▁überläßt	-12.0802
tenverantwortung	-12.0802
ensur	-12.0802
▁anyway	-12.0802
▁sozialistische	-12.0802
▁Erläuterungen	-12.0803
oast	-12.0803
▁gelegen	-12.0803
▁Tun	-12.0804
▁mode	-12.0804
Selbstbestimmung	-12.0804
▁reflection	-12.0804
▁continuous	-12.0804
▁Stein	-12.0804
▁distinct	-12.0805
used	-12.0805
▁fruitful	-12.0805
▁sachliche	-12.0805
▁retroactively	-12.0805
▁Typ	-12.0805
▁Szen	-12.0805
▁Ermittlungen	-12.0805
▁regretted	-12.0805
▁Equally	-12.0806
▁Bewunder	-12.0806
▁catch	-12.0806
Gebiete	-12.0806
▁vermi	-12.0806
▁Schwer	-12.0806
parteipolitische	-12.0807
▁electr	-12.0807
▁Neufahrzeug	-12.0807
▁fifty	-12.0808
▁Kapazität	-12.0808
blowers	-12.0808
▁stretched	-12.0808
▁Neonazis	-12.0808
▁acquisitions	-12.0808
▁supplies	-12.0808
▁verzichtet	-12.0809
▁detrimental	-12.0809
▁Sozialpartner	-12.0809
▁abide	-12.081
▁wiederholte	-12.081
▁testify	-12.0811
▁handover	-12.0811
▁dumping	-12.0812
▁derjenigen	-12.0812
wort	-12.0812
▁entfalten	-12.0812
▁15%	-12.0812
▁Emp	-12.0812
/4	-12.0813
aton	-12.0814
▁laundering	-12.0814
▁minimis	-12.0814
▁cycle	-12.0814
▁gesteckt	-12.0814
rmout	-12.0815
▁beträgt	-12.0815
preise	-12.0815
▁Reaktoren	-12.0815
▁identi	-12.0815
▁benutzt	-12.0815
zugrundeliegende	-12.0816
▁praktikable	-12.0816
▁aufzugreifen	-12.0816
▁aufweist	-12.0816
▁violated	-12.0816
▁tabl	-12.0817
▁zutreffend	-12.0817
▁Ganzes	-12.0817
▁Zusatz	-12.0817
▁coordinator	-12.0817
▁Beste	-12.0818
▁slowly	-12.0818
▁personelle	-12.0818
gestanden	-12.0818
▁eintritt	-12.0818
▁imbalance	-12.0818
▁struktur	-12.0819
▁schuldig	-12.0819
luft	-12.0819
▁inakzeptable	-12.0819
▁prohibition	-12.0821
verg	-12.0821
▁justifiable	-12.0821
▁Mittelstand	-12.0822
▁hervorrufen	-12.0822
ehör	-12.0823
▁Meere	-12.0823
▁Steuerpolitik	-12.0824
▁abolished	-12.0824
▁Entfernungen	-12.0825
▁Kraftfahrzeugen	-12.0825
▁angehalten	-12.0825
▁Bowe	-12.0825
▁God	-12.0825
▁vorgeben	-12.0827
▁Unzu	-12.0828
quiries	-12.0829
▁optimaler	-12.0829
▁kultur	-12.0829
▁Farm	-12.0829
Kleinunternehmen	-12.0829
▁ankommt	-12.0829
aunch	-12.083
▁gerechnet	-12.083
▁beheben	-12.083
▁Women	-12.0831
▁berufen	-12.0831
▁shell	-12.0831
▁overw	-12.0831
▁Demokratische	-12.0831
▁Rechtssysteme	-12.0832
▁hoc	-12.0832
▁Ober	-12.0832
[...]
