#version: 0.2
Ġ t
Ġ a
Ġt h
i n
r e
Ġth e
o n
Ġ w
i s
e r
Ġ s
Ġ b
i t
Ġ o
n d
a t
o u
Ġ c
Ġ f
e n
Ġ m
o r
Ġ p
Ġt o
e s
in g
Ġ h
e d
Ġa nd
Ġo f
Ġ I
a n
l l
Ġ d
Ġ in
a r
a s
Ġ l
Ġ re
i c
o m
i on
Ġ is
Ġ n
Ġ it
v e
Ġ g
l e
a l
o t
Ġ e
s t
Ġb e
u t
en t
Ġ on
T h
o o
Ġth is
c t
a d
l y
r o
Ġth at
v er
Ġw h
Ġf or
Ġ y
s e
e t
l d
i d
Ġ u
Ġs t
g h
o w
Ġy ou
c h
oo k
a y
i m
it h
Ġw as
Ġh a
c e
Th e
a m
Ġw ith
Ġn ot
Ġw e
k e
u r
Ġm o
Ġa n
t h
Ġ C
a ll
Ġb ook
p e
ou ld
Ġa re
r i
Ġa s
t er
i r
Ġha ve
Ġ A
i e
i f
at ion
i ll
Ġ S
Ġp ro
Ġb ut
u st
' s
Ġs h
r a
Ġ M
Ġs e
e m
i l
Ġc on
b le
Ġ The
u l
. .
gh t
Ġc om
' t
p p
Ġe x
Ġl i
Ġm y
e re
Ġs o
c k
Ġn e
Ġ P
Ġa l
ver y
all y
Ġd e
er s
Ġc h
re s
Ġ E
Ġw or
Ġ B
Ġs u
es s
or t
Th is
Ġ j
Ġd o
Ġa t
o l
g e
Ġa ll
i ve
is t
Ġon e
ou t
at e
an t
m ent
a in
Ġre ad
u s
v ie
Ġo r
e l
q u
es t
o p
r om
ic h
Ġa b
Ġ W
Ġw ould
Ġ H
Ġm e
u n
om e
u m
re at
ĠI t
i es
Ġw ill
Ġh as
Ġ T
om m
ar t
Ġ D
Ġli ke
Ġ "
it y
Ġc an
Ġp l
on e
oo d
Ġwh ich
Ġin t
Ġb y
o s
ar d
n t
c i
a k
Ġ v
Ġf rom
Ġh e
u re
a nd
s ion
Ġ very
e ct
Ġab out
Ġo ut
a ct
Ġt im
Ġ en
on g
Ġ r
Ġj ust
Ġ k
ou nd
Ġ (
a u
as t
Ġl e
ou gh
am e
Ġthe y
Ġmo re
in d
o re
v en
e nd
h er
a p
Ġ F
Ġu p
a ke
Ġn o
Ġa m
Ġ G
Ġt r
Ġan y
Ġg et
Ġwh o
a ck
a ble
Ġg ood
Ġ N
Ġcom p
Ġthe re
Ġl o
i g
im p
Ġ 1
Ġmo vie
Ġ L
ou s
it t
ic e
Ġd is
Ġg reat
Ġs ome
Ġtim e
ĠC omm
a g
Ġ R
ou r
Ġa d
Ġh ad
Ġ if
in t
u d
Ġf e
Ġwor k
Ġ qu
Ġ O
s o
Ġwh at
u ro
ion s
id e
Ġre c
th er
Ġbe c
Ġon ly
or y
Ġg o
Ġu n
Ġu s
l i
uro pe
p t
Ġa g
Ġyou r
u ct
Ġ -
f f
ĠE urope
is h
Ġm an
a b
a re
Ġa ct
au se
it e
p l
Ġwh en
Ġc o
ve l
i re
i v
ar s
Ġth an
Ġd id
Ġbe en
Ġthe m
ir st
is sion
in k
ou ght
o y
u e
an s
Ġo ther
! !
Ġsh ould
in e
Ġ This
Ġb u
Ġ U
o int
Ġ J
Ġ imp
Ġc l
Ġp re
Ġw r
Ġp r
ĠComm ission
Ġal so
Ġbe t
Ġh is
Ġcon t
Ġbec ause
u ch
Ġh er
i ght
.. .
Ġp art
Ġdo es
p er
Ġ 2
Ġk n
a ge
Ġf irst
b er
Ġch ar
on d
Ġre ally
e ll
Ġo ver
Ġh ow
ul t
Ġc ould
Ġwe re
Ġm uch
Ġre s
or m
Ġs c
Ġthe ir
Ġto o
Ġthe se
an ce
o se
vie w
Ġy e
ar y
h ing
ad e
Ġp e
ic al
f ter
Ġth ink
Ġe ven
Ġw ant
Ġne ed
Ġwe ll
a v
Ġl ook
ĠEurope an
Ġa r
Ġkn ow
a ch
d uct
Ġst ory
r y
as s
i z
Ġs pe
at ed
Ġint o
Ġo ur
e p
Ġit s
as e
ic k
Ġe very
Ġm ust
ay s
c c
o d
f ul
nd er
at ch
se l
ic t
Ġd on
t e
i ous
Ġm ake
Ġre g
op le
it ion
0 0
ation s
Ġs a
f orm
Ġne w
Ġbu y
Ġse e
o g
Ġp er
f ore
Ġof f
a ce
Ġt w
Ġw ay
Ġ i
ou nt
ci al
Ġin c
a c
Ġu nder
ĠS t
Ġpe ople
en ce
res s
if f
g r
or d
Ġth ing
id ent
Ġpro duct
w n
v ed
Ġb ack
re e
Ġsh e
Ġt e
Ġe nd
i gh
pe ct
Ġs ay
en s
Ġs er
ur n
Ġf il
Ġchar act
Ġbet ter
Ġa pp
Ġmo st
Ġag ain
a z
Ġman y
Ġn ow
Ġpl ay
Ġd es
e ver
Ġd iff
Ġu se
I t
u ll
g in
Ġp ol
a il
i p
i le
Ġa fter
Ġm ade
Ġthe n
is e
omm end
ĠU n
Ġin st
ot her
Ġfil m
ow n
ut h
an g
am ent
Ġ K
Ġlo ve
Ġre p
Ġrec ommend
Ġbook s
ak es
ĠW h
i al
Ġf ind
if e
er t
ĠI f
itt le
Ġg u
Ġm us
Ġth r
Ġ Y
u b
W e
Ġ ri
ar k
ĠP res
ĠM r
n e
Ġs p
' m
Ġre al
i ble
Ġ V
ar li
as ed
ere st
Ġ Th
om et
c es
t ing
Ġ ro
Ġl ittle
Ġa w
Ġthr ough
Ġtw o
Ġg ot
Ġcom m
sel f
x t
Ġcon c
o st
Ġst ill
Ġb est
Ġg r
pp ort
at es
Ġp ut
Ġw atch
re d
ĠA m
j ect
Ġre m
Ġl ong
Ġre view
Ġint erest
v ing
or s
at ive
Ġye ars
Ġf in
one y
Ġst r
on s
Ġmus ic
E R
Ġne ver
' ve
Ġh igh
o c
Ġt ra
ment s
Ġread ing
arli ament
Ġe ff
Ġs omet
at ing
b um
Ġde c
p le
Ġs ong
Ġse em
ĠC h
ble m
Ġp os
Ġcon s
Ġ 3
ot h
Ġm oney
Ġbe ing
j oy
v es
Ġ ke
p h
Ġ ra
Ġp ur
ĠI n
n ing
Ġs ame
Ġa uth
Ġal bum
Ġpro blem
ĠPres ident
u al
u ally
Ġf act
Ġf ound
o b
Ġbe l
Ġp oint
Ġb ought
ak ing
Ġen joy
g et
w e
Ġ ent
Ġd own
i ld
Ġth ose
Ġa cc
Ġm ay
Ġe ver
9 9
a pp
Ġb l
Ġo ld
Ġt ake
Ġh o
Ġri ght
Ġor d
Ġs et
Ġsu ch
em ber
Ġs ound
Ġwh ere
th ing
h e
Ġl ife
Ġth ought
u res
Ġin d
ĠT H
i b
i ly
ar ly
am m
Ġex t
Ġfe el
Ġs m
Ġc r
Ġb ad
Ġo wn
Ġf un
Ġe m
Ġin ter
Ġc le
Ġf l
al ity
Ġm on
Ġbe fore
Ġdid n
ĠP arliament
ig n
re ad
Ġf ar
Ġfe w
Ġse c
c ed
Ġat t
Ġm at
Ġl ist
l es
Ġo p
ent s
Ġauth or
in ce
Ġst art
Ġimp ort
Ġe as
) .
Ġsh ow
re n
f t
k s
ert ain
ere d
ie ve
ce pt
Ġ 4
Ġh ard
a ve
Ġha pp
Ġcl ass
er n
Ġg ame
Ġsomet hing
Ġh ere
Ġt er
ĠUn ion
Ġh el
Ġl ot
W h
ou n
Ġde f
Ġ ver
Ġo b
Ġad d
it ing
Ġg ive
Ġdis c
Ġsu b
u nd
w h
u es
Ġhel p
I n
l ess
Ġl ast
vel op
o ll
t y
i a
Ġpro gr
Ġtr y
Ġdiff ere
p os
ic s
ĠB ut
c y
Ġgo ing
V D
ĠC D
i an
Ġre l
ent ion
Ġt ri
Ġan other
st and
c on
Ġwor th
Ġcharact ers
ĠD VD
app oint
Ġis s
Ġpur ch
l ic
Ġtr ans
iv es
Ġre f
u g
c ess
Ġc ount
Ġde velop
Ġus ed
il ity
a ir
e e
l ud
Ġp ers
d ay
ic ul
ut e
Ġ 5
Ġm in
Ġcomp le
oo l
Ġch e
Ġdis appoint
Ġin s
Ġwor ld
itt en
Ġin form
Ġg en
Ġ im
Ġye ar
Ġver sion
Ġp o
Ġs y
Ġwith out
a w
b e
Ġp res
ire ct
it ies
Ġsa id
Ġwh y
w ard
l ish
Ġqu ality
ut ion
id er
ond er
n ot
Ġsu pport
Ġs ince
Ġg l
Ġno vel
Ġb o
Ġm akes
al s
n g
if ic
Ġco ll
Ġeff ect
em ent
f ort
Ġf av
Ġprogr amm
at her
Ġm is
Ġre t
Ġrep ort
ing s
con om
ate ly
we en
as on
e ad
Ġimport ant
Ġbel ieve
Ġpol ic
ot e
Ġwr itten
Ġdoes n
Ġo ri
Ġh im
ow er
ow ever
Ġdiffere nt
Ġpl ot
Ġbet ween
o ck
Ġ '
ab ly
Ġunder stand
c il
ou p
.. ..
Ġtim es
Ġw onder
Ġs imp
ĠThe re
ation al
c ri
Ġen ough
Ġpro v
Ġp h
Ġwh ile
m an
ĠThe y
Ġany one
ur al
Ġori gin
Ġlook ing
Ġcon f
Ġin v
Ġex pect
az on
ri end
at er
ĠH e
Ġd irect
ar n
I f
ver n
ĠA nd
at h
en se
Ġnot hing
w ays
it er
an ge
Ġw om
ĠM ember
Ġle g
is m
Ġsec ond
n ce
Ġpro pos
Ġ ide
Ġa p
Ġd ay
l ed
is ed
k ed
Ġh um
I N
Ġb oth
iz e
Ġex am
Ġke ep
Ġcom e
Ġb r
t ed
Ġe conom
Ġord er
un ity
Ġqu est
' ll
Ġha nd
Ġinc lud
Ġe l
Ġa ble
Ġthing s
Ġl ess
oun cil
ou se
ro w
Ġpart icul
er y
ĠS o
Ġc our
Ġe v
ĠY ou
Ġpers on
read y
Ġt al
M r
Ġ ed
or ing
n y
Ġsm all
i x
Ġwor d
Ġd et
Ġal ready
ag es
Ġmon th
Ġth ough
Ġs ing
Ġfor m
ĠC ouncil
et y
Ġ view
ĠA l
Ġact ually
d u
Ġs ur
ect ion
ce ll
Ġcharact er
Ġpol it
v ies
Ġl et
Ġex p
Ġv ide
Ġch ild
Ġact ion
Ġinterest ing
Ġsong s
Ġlist en
it ed
ter s
Ġsu re
Ġf ull
Ġser ies
Ġpos s
ĠSt ates
k ing
Ġcomple te
Ġal ways
Ġinform ation
Ġt a
Ġmo vies
Ġb ig
Ġf r
ic ult
Ġex per
Ġc ar
Ġf am
e c
Ġp ub
ĠM y
R E
on t
Ġh or
Ġpr ice
Ġapp ro
u p
ion al
Ġa c
Ġex pl
Ġt urn
Ġw a
O T
ra ct
it s
Ġar ound
Ġt ell
Ġd em
Ġeas y
Ġc ertain
Ġre ce
Ġdes cri
Ġf an
ĠA s
ĠTH E
v ious
Ġp ict
le ct
Ġwas te
Ġdef in
y s
es e
ck s
Ġs l
Ġf ut
im e
Ġse en
Ġmo d
Ġ1 9
Ġpr in
r uct
Ġm ark
Ġit em
al f
Ġne xt
cell ent
ĠAm azon
Ġorigin al
Ġb as
Ġre qu
Ġe ach
m ost
Ġpolic y
Ġk ind
Ġpre t
re m
Ġm ain
oll ow
Ġwho le
Ġre ason
Ġwith in
Ġres p
Ġn um
au gh
Ġret urn
le ase
ci ally
Ġqu ite
ur ing
Ġs ch
ĠB r
) ,
Ġseem s
Ġf riend
Ġas s
Ġpl ace
Ġa v
Ġw ish
Ġfut ure
Ġcan not
Ġsc en
Ġ es
is ion
Ġde b
i ven
ic ally
Ġvide o
o ve
' re
Ġm a
Ġle vel
Ġcour se
Ġc am
Ġd one
O N
at ure
ver s
Ġthere fore
i o
i ed
Ġaw ay
Ġpres ent
p r
Ġf ollow
Ġreview s
Ġc all
Ġd ra
A N
Ġj ob
Ġconc ern
Ġdisappoint ed
vern ment
Ġt y
an k
Ġbe gin
Ġwe e
Ġh ist
Ġgen er
as h
Ġst ud
n ess
ra ph
Ġad v
" .
Ġs it
or ies
Ġto p
Ġy et
Ġdiff icult
Ġto day
e w
t en
pe cially
Ġre st
Ġb it
Ġcons ider
Ġc ur
Ġst and
th ough
ri ble
pp ed
Ġle ast
Ġth ree
st em
ĠW e
Ġex cellent
Ġc ard
The re
a ut
Ġp ie
Ġar t
Ġon ce
Ġab s
th e
ol og
Ġho pe
Ġc ame
Ġex c
ap er
Ġcomp et
Ġp ower
ar ch
Ġwork s
Ġproblem s
Ġfav or
in es
Ġc are
Ġdevelop ment
Ġpret ty
M y
r ist
Ġ &
Ġto get
Ġtoget her
!! !!
Ġreg ard
h ip
Ġb at
Ġany thing
Ġsy stem
li ght
Ġw ar
ri es
Ġcont ro
an y
Ġr ather
Ġco st
Ġb oring
id ed
n er
ut es
Ġcont in
Ġc ase
Ġop in
i ence
ar g
as ter
ith er
f ect
Ġm ind
Ġn ice
Ġha ving
Ġ1 99
Ġpo or
A s
Ġel se
ak en
Ġs k
Ġm ight
Ġc or
Ġh our
Ġre pl
ra nd
Ġwr iting
pl oy
b ably
Ġgr oup
m s
Ġc reat
s s
Ġin it
are d
Ġiss ue
t s
g g
Ġhapp en
Ġmis s
rem e
Ġspe cial
ĠN ot
Ġal most
Ġag o
Ġop en
A T
Ġli ght
Ġpurch ased
Ġpolit ical
e f
ĠS h
Ġus ing
Ġ $
le ment
ist s
er ic
Ġsh ort
Ġde al
Ġcle ar
Ġ 8
ĠN o
Ġhow ever
Ġevery thing
Ġmark et
Ġst ars
ir d
Ġmonth s
Ġc ap
b ers
Ġso cial
iv ed
Ġspe c
Ġcom es
Ġhe ad
Ġg iven
Ġposs ible
Ġes pecially
Ġ 6
c om
ere nce
Ġme an
Ġopin ion
w or
Ġst y
ir on
Ġsu pp
itt ee
Ġext reme
Ġtri ed
Ġin f
ir l
ire d
- -
en cy
Ġtry ing
ri b
ull y
Ġho ld
Ġpro bably
Ġ2 00
Ġap pe
I S
Ġc ou
ĠS he
Ġm aking
Ġso l
Ġv al
Ġper fect
Ġprogramm e
er a
Ġto t
ar ge
ent ly
ĠCh rist
r u
th ers
Ġwor st
ĠH owever
Ġte ch
O U
Ġk id
Ġtr ue
Ġget ting
l ing
Ġrec ord
Ġco ver
Ġwonder ful
Ġquest ion
Ġbe aut
Ġare as
ter n
os ed
Ġle arn
Ġlo c
ite ly
Ġagain st
' d
ot s
Ġh alf
ĠN OT
it ive
Ġo thers
Ġen v
E A
re ed
ver al
re t
ol ute
Ġlo ved
Ġent ire
Ġinit i
j or
Ġc ra
ur y
u ff
Ġw on
ust r
Ġinter n
Ġwom en
e g
Ġl ack
Ġu nt
Ġse veral
ĠP ro
od y
Ġclass ic
u ck
Ġc re
Ġenjoy ed
Ġide a
ĠA r
ict ion
Ġdet ail
Ġnum ber
Ġdeb ate
Ġw ent
Ġpro cess
pp ing
Ġqu ick
l us
Ġit self
Ġmin utes
Ġcontro l
O R
r or
Ġp rom
ĠE U
Ġhigh ly
Ġc d
Ġare a
Ġli ve
Ġde p
pt ion
Ġrece ived
Ġsch ool
Ġyou ng
ĠComm unity
ĠCommission er
Ġcon d
Ġexam ple
g y
Ġt aken
Ġis n
Ġget s
!! !
Ġcould n
Ġfam ily
l and
Ġc ult
Ġd ist
Ġse ct
Ġr un
ast ic
Ġam az
Ġres ult
Ġser v
Ġcount ries
i er
Ġa ir
Ġhe ar
Ġhe ard
Ġma jor
Ġsit u
Ġb ro
Ġf und
um p
Ġte xt
fort un
Ġprin ci
g ed
Ġa ge
Ġs ize
Ġp ages
Ġd r
Ġbe h
Ġcomp ut
Ġword s
Ġabs olute
at ic
ap s
ib ility
Ġd ri
Ġl ine
Ġmat ter
Ġsty le
ed i
et her
Ġad m
Ġsc re
ĠAm eric
Ġtech n
E S
in ation
Ġs ci
qu e
Ġwork ing
Ġser ious
Ġinst ead
Ġfin an
" ,
Ġm ention
Ġp ri
el t
Ġsome one
Ġeconom ic
Ġf all
iz ed
Ġd ays
ro ss
Ġwas n
am es
Ġ1 0
Ġunt il
Ġf ine
Ġwant ed
Ġhum an
Ġpub lic
a h
Ġp ay
Ġp ast
Ġli ked
Ġsimp ly
Ġt akes
Ġp ack
Ġtoo k
IN G
ot t
Ġpl an
Ġam end
ĠWh en
Ġwatch ing
iron ment
. "
E N
Ġg ave
Ġst ories
Ġn ight
ĠA n
Ġcon st
ress ed
Ġc ent
Ġe ither
Ġreg ul
Ġresp ons
o v
Ġb ed
Ġmy self
Ġint ro
ĠF or
m m
it ch
ic es
Ġpr ot
c ing
ap ter
Ġfavor ite
Ġbeaut if
re nt
Ġst ar
ain s
Wh at
Ġbat ter
Ġ 9
Ġm et
Ġp op
Ġg irl
Ġsu per
Ġneed ed
ĠWh at
Ġstr ong
Ġiss ues
Ġinv ol
Ġm em
Ġsub ject
Ġcomplete ly
Ġextreme ly
a le
Ġa id
Ġc ol
ĠC on
em pt
Ġwr ong
Ġfin ish
Ġeffect s
Ġav ail
Ġf it
Ġord ered
Ġdisc us
m as
Ġenv ironment
u ly
w ell
id es
Ġreg ions
Ġcount ry
Ġpict ure
e ed
g er
Ġs ense
Ġle ad
Ġle ft
Ġcomm on
g an
Ġs on
Ġp ick
Ġe t
in ess
Ġso ci
f ully
ist ic
Ġme as
Ġact ing
Ġsa f
Ġper form
im es
Ġhist ory
b s
l ine
o h
Ġb and
Ġc op
Ġf ree
os s
Ġimp lement
Ġres pect
Ġevery one
Ġparticul ar
Ġ 7
le ased
ut ions
ĠT r
Ġbuy ing
Ġbo x
Ġdefin itely
Ġcomput er
E D
f act
Ġ .
Ġst ate
it al
Ġexper ience
L L
p ort
Ġa ff
Ġmo ve
Ġen s
Ġimp ro
Ġpie ce
at s
Ġto y
ĠD on
Ġneed s
fortun ately
Ġf ig
ĠA ll
ust ri
ĠO r
b ed
u ge
Ġm ess
Ġd uring
ĠA fter
Ġabsolute ly
ĠTh at
o ice
Ġch ang
Ġcompet ition
Ġavail able
w ay
y ing
ent ial
Ġv ar
Ġbec ome
Ġhour s
Ġamaz ing
it ions
Ġe ar
Ġread er
Ġgo es
Ġcou ple
Ġ est
Ġc ut
Ġall ow
Ġt it
Ġf elt
Ġh ome
pe nd
Ġpro ject
ĠB l
Ġsing le
ĠE ng
ĠB e
re ct
Ġl iter
Ġu r
Ġan n
Ġsu gg
Ġinc re
Ġparticul arly
Ġchild ren
Ġsugg est
o ld
it iz
ĠA N
Ġstart ed
in s
is ing
Ġcon n
ab ility
are nt
Ġacc ount
Ġfinan cial
e x
ĠI N
Ġfor ward
ens ive
Ġpurch ase
Ġspec ific
r ic
Ġp ract
Ġl aw
Ġre form
Ġn on
Ġch ange
us h
Ġob ject
Ġty pe
Ġcur rent
Ġthink ing
augh ter
Ġb re
Ġf ail
Ġsa w
Ġent ertain
Ġm om
Ġse ll
Ġspe ak
Ġrepl ace
ploy ment
b o
Ġres ol
ang u
Ġcam era
c ome
g o
Ġd i
ad am
Ġdo ing
Ġeff ort
wh ere
cess ary
p s
Ġs ent
Ġf ive
Ġ- -
pl es
ĠJ ust
Ġim m
Ġet c
H owever
Ġs ign
Ġp age
Ġte ach
Ġsitu ation
Ġa ch
Ġb ased
Ġd ou
ic i
Ġn ational
el s
ĠG r
Ġfriend s
h aps
o ver
Ġf ast
Ġf ore
us ed
ĠF r
sel ves
Ġsoci ety
S T
Ġhapp y
Ġche ap
Ġcoll ection
Ġp ass
Ġof ten
an ces
Ġl arge
Ġn ame
Ġtr uly
ĠComm ittee
ĠO ne
le ep
Th at
id d
in ed
Ġg ives
im s
Ġlo st
Ġlook s
fort able
re am
Ġp ar
Ġcl ose
Ġpre vious
ac ed
Ġkid s
c u
Ġ ill
Ġ ess
Ġb ri
Ġb us
et s
Ġas k
Ġgo vernment
Ġinst it
l f
Ġa ud
er ial
Ġh ouse
ar ing
ĠT reat
iv ing
Ġbeautif ul
l ation
Ġt aking
ar b
if t
Ġag ree
Ġpart s
Ġadd ition
Ġloc al
Ġc itiz
le v
Ġpr int
cc ess
Ġtra ck
w are
Ġm ar
Ġs ide
Ġwh ether
ur d
Ġpro f
ure d
per ation
Ġatt ention
Ġter ms
Ġcertain ly
i od
is ation
Ġh op
Ġl angu
Ġgu ess
ward s
Ġwom an
Ġpropos al
Ġscen es
ĠChrist mas
a id
Ġsh all
un ch
Ġrep res
Ġta x
o ot
ar m
Ġal ong
Ġhe art
Ġad op
u c
Ġf our
Ġp aper
ur ther
Ġmay be
Ġfun ny
B ut
F or
en ces
ĠA ustri
Ġspe nd
Ġwa it
Ġsl ow
T H
Ġo cc
Ġp ain
Ġe qu
Ġlong er
Ġshow s
Ġleg is
ĠC l
Ġv is
Ġcle arly
v ent
on y
ĠI T
Ġe lect
Ġme ans
Ġsur pr
wor k
u y
Ġp ort
Ġst at
Ġst uff
ain ed
ore d
Ġyour self
Ġcomm un
Ġatt empt
Ġim ag
1 0
in ing
en sion
Ġre se
Ġex cept
ĠH ouse
Ġwork ed
ĠMr s
Ġac cept
p ri
Ġse lf
Ġne g
li ke
Ġplay ing
Ġro le
Ġpos ition
Ġsimp le
g th
an n
Ġse x
ab lish
Ġplay er
Ġgener al
ĠEng lish
Ġ ve
or n
el ess
Ġend ing
oc r
Ġmat erial
f er
f or
g ing
l er
Ġpro du
Ġde v
d d
s p
Ġt est
Ġs at
Ġsh i
Ġwould n
Ġ2 0
Ġdec ided
Ġwee k
reed om
Ġserv ice
Ġbatter y
M adam
Ġper iod
Ġc a
Ġon es
Ġens ure
Ġlangu age
u fact
Ġh uge
as ing
Ġst ay
Ġcom b
Ġar ri
Ġl ater
ĠO n
Ġob vious
Ġquick ly
Ġcop y
Ġcitiz ens
Ġs ays
Ġconcern ed
Ġiniti ative
Ġ ,
Ġw ater
an e
Ġso ft
Ġdo cu
Ġprogramm es
Ġprinci ple
Ġest ablish
T ER
as es
Ġne cessary
Ġter rible
Ġtit le
Ġf ood
Ġm ot
Ġl im
ĠD o
Ġcomp any
Ġplay ed
Ġdes ign
Ġbus iness
b r
t ic
Ġso on
our ces
ĠV ery
Ġcr it
Ġcor rect
w ise
is es
at or
Ġc oo
Ġm ag
Ġl ow
ud get
Ġman ufact
av ing
V E
Y ou
a x
g es
Ġf air
Ġd aughter
Ġpro per
og raph
ang er
Ġche ck
Ġph ot
b ook
d e
ou ch
Ġh on
Ġrem ember
Ġpict ures
Ġmeas ures
r on
Ġth ird
Ġs ad
Ġm ill
Ġto ld
ĠR e
Ġinst all
g u
s w
s ide
ĠC an
Ġsu ccess
ap t
ĠU S
Wh en
ĠAl so
Ġ er
Ġst o
un k
Ġstr uct
Ġtra cks
Ġmod ern
Ġf ant
ĠI s
Ġex act
Ġal though
iv id
Ġke pt
Ġ19 8
Ġcall ed
Ġwee ks
A L
Ġc ool
Ġd ial
ĠA t
il ar
ĠT O
Ġpre p
Ġgl ad
Ġbegin ning
Ġb ott
Ġo pport
se t
Ġcont rib
Ġfin ally
Ġeas ily
Ġed ition
A R
Ġs im
itt ing
Ġag re
Ġpri or
Ġrepres ent
i res
l o
at ives
om p
th is
Ġk ill
og n
Ġscre en
Ġsaf ety
p ose
is s
Ġre lease
Ġe p
ud e
ord er
Ġmiss ing
Ġtot ally
O M
Ġp ost
ĠS c
ul es
Ġex ist
ag ed
Ġdirect ive
Ġsupp osed
t on
er v
Ġst ep
ĠW or
ard s
Ġexpect ed
oh n
A l
o id
ĠI S
us ing
Ġind ust
Ġamend ments
Ġinstit utions
ĠTreat y
E T
ou l
Ġf ight
Ġe y
Ġan sw
ĠT o
Ġam ount
Ġrec ogn
Ġeffect ive
Ġleg al
olog y
S o
t o
Ġf a
Ġf ire
st er
Ġst op
Ġsound s
Ġhor rible
Ġdial og
a pe
k es
Ġ X
Ġ Z
Ġcomp l
Ġquest ions
Ġbre ak
e gr
Ġt reat
ar r
ow s
ĠS e
ĠM em
um e
Ġthan k
Ġpre c
Ġgu id
Ġro ck
ren ch
Ġrel ations
Ġcontin ue
Ġrese arch
Ġf reedom
Ġto wards
ir m
Ġor gan
Ġv ote
00 0
Ġinc red
Ġseem ed
ib ly
ĠAN D
A S
O O
i ke
m en
ct ion
Ġst ore
ĠD e
Ġen er
Ġext ra
Ġfav our
s on
y c
Ġm aster
id ency
em ents
Ġbu ild
Ġlook ed
Ġinterest ed
Ġide as
Ġvar ious
b ut
nd a
Ġm or
ar ity
Ġg row
ĠM ay
Ġcom fortable
Ġen g
ĠG er
Ġwr ite
Ġdec ision
Ġbr ing
ĠAmeric an
Ġcol or
b y
b and
Ġf urther
Ġe arly
Ġen l
Ġpoint s
Ġdou b
Ġcoo peration
V ER
Ġs leep
ĠL e
? ?
ĠS ome
Ġsp ent
Ġright s
Ġcoll e
Ġprov ide
b ury
is ter
ic ial
Th ese
et h
ĠS p
Ġen c
Ġstr ate
Ġinclud ed
Ġ200 0
Ġcult ure
f erence
is ions
Ġb oy
ou d
ou ra
Ġf ace
Ġl ab
Ġl augh
Ġre ach
im in
ĠM ar
Ġ1 5
ĠO F
Ġro om
Ġinclud ing
Ġinvol ved
Ġm ist
Ġde l
Ġwor se
ĠW ith
Ġr is
Ġhor ror
ĠGr oup
, "
O n
Ġ rom
Ġs w
Ġo k
Ġo per
or ry
Ġcon cept
ĠE ven
ant ly
Ġst ra
ĠE very
Ġfe ll
Ġun i
Ġpre d
Ġover all
Ġreg ional
led ge
EA D
e ur
Ġb ra
Ġd ue
ro wn
us band
Ġ1 2
Ġdescri ption
Ġinf l
Ġpop ul
u se
on es
Ġs n
Ġd am
Ġg ift
le t
ri ed
if ied
Ġme et
Ġint end
Ġlo ves
Ġfe at
Ġappro ach
m b
p ite
s c
y ond
ri ght
Ġj ud
ant s
Ġapp lic
Ġsomet imes
Ġimport ance
wh at
up id
Ġcre ate
Ġann oy
Ġmanufact ure
r al
r ay
Ġt ouch
Ġse nd
Ġpl ug
ĠF und
ĠOr well
Ġmess age
z z
Ġb udget
le y
al th
ust om
ĠB U
Ġv oice
ĠG reat
ĠN ow
ĠO N
pl ay
Ġwr ote
Ġindust ry
Ġenl arg
Ġb urn
Ġh usband
ic ed
all en
ir th
il i
ĠJ ohn
Ġthrough out
Ġcle an
Ġimpro ve
Ġentertain ing
A nd
Ġf ill
Ġm ix
es ome
Ġd ark
Ġsu ff
ĠT V
Ġuse ful
Ġinst ruct
ĠTh ese
g ress
m ore
t le
it ar
am p
Ġwe ar
Ġj o
Ġrem ind
air s
Ġhum or
Ġbas is
Ġproject s
I T
re ci
er ing
Ġf oc
as k
Ġas pect
Ġli ves
Ġam ong
ĠN ew
Ġun it
Ġcont ent
Ġwatch ed
Ġev ent
Ġappro pri
Ġrequ ire
Ġdra w
idd le
Ġarri ved
Ġguid el
Ġmanufacture r
i en
p or
y l
en ing
ic ation
Ġg iving
Ġst e
Ġst upid
ur ity
op h
Ġint egr
pport eur
Ġpos itive
Ġinv est
Ġlisten ing
Ġval ue
Ġtot al
Ġconn ect
Ġresol ution
Ġf iction
Ġl ad
Ġcom ing
Ġr id
ne y
ĠTH IS
Ġage nda
Ġener gy
n a
Ġ Q
Ġm en
Ġr ad
Ġr ules
Ġres ources
Ġperson al
Ġbas ic
Ġscen e
Ġdocu ment
i or
Ġp leased
Ġact ors
Ġaw are
Ġconc lus
Ġra pporteur
Ġind ivid
Ġem ployment
Ġpropos als
arb age
Ġguidel ines
o pe
Ġb en
Ġp aid
ĠP e
ĠP r
ĠH ow
Ġv ol
Ġjust ice
Ġup on
ag ing
Ġcl a
Ġfilm s
Ġacc ess
ĠBr ad
Ġintro du
Ġdiscus s
d i
p es
r ation
Ġs ort
it es
Ġbe yond
Ġha ven
Ġch apter
Ġdo g
Ġsa ve
ac es
Ġapp reci
Ġap art
Ġsim ilar
ĠMem bers
I C
Ġc ast
am s
Ġus ually
Ġdon t
Ġem ot
Ġ199 9
Ġf ans
Ġd anger
as ons
Ġpro ced
ĠP l
ĠP ort
Ġch allen
Ġact ual
Ġwr iter
Ġrecommend ed
Ġtal king
Ġpub lish
Ġhappen ed
Ġintern al
ĠGer man
O W
b ody
Ġc ustom
oo se
ĠS ch
res sion
ĠH is
Ġr ural
Ġthem selves
Ġsc ary
Ġproduct ion
Ġke y
Ġind eed
t ra
v d
ar l
ver t
id ence
ĠE x
Ġun less
av es
duct ion
Ġ3 0
Ġrespons ibility
O ne
y r
Ġ z
Ġs ix
Ġm ult
Ġg ra
ĠW ell
Ġknow ledge
Ġinst ru
Ġdec ent
Ġsci ence
Ġmention ed
Ġfig ure
Ġdoub t
b ack
n o
Ġp lease
as c
Ġwe l
ĠP art
Ġpl astic
Ġchar ge
Ġper haps
Ġ4 5
Ġtrans port
Ġpie ces
ĠCon ference
Ġenvironment al
F irst
Ġ ...
in ist
Ġg raph
Ġg ames
ĠH er
itt ed
ĠPres idency
Ġprin ter
go vernment
Ġach ieve
Ġill ustr
Ġsat is
A fter
e xt
m y
o es
is od
Ġm edi
an ks
Ġre pe
Ġde ad
pt ions
Ġknow n
Ġacc ord
Ġfr ame
Ġhist or
Ġbeh ind
Ġess ential
i ans
t ain
is c
Ġc ir
Ġm ed
Ġd vd
Ġan al
if y
Ġfeel ing
Ġreplace ment
Ġfeat ures
Ġindivid ual
government al
j ust
Ġb rand
Ġp ress
Ġhe av
ĠG od
Ġpe ace
gr ound
Ġsay ing
Ġta pe
Ġturn ed
Ġliter ature
Ġexact ly
Ġdialog ue
e ch
r it
Ġd ance
Ġn or
Ġcon v
Ġli br
Ġint ell
ĠSt ate
Ġ5 0
Ġeconom y
Ġdiscus sion
ĠPort ug
N ot
on st
Ġc ause
ar ant
Ġst ick
Ġwe ak
Ġpro gress
Ġde li
um b
Ġgreat er
Ġbec om
Ġwant s
Ġbel ie
Ġbl ack
Ġcond ition
Ġsoft ware
Ġenlarg ement
o or
p ar
Ġs ens
Ġf oot
ce ed
The y
Ġsh ip
Ġli ving
Ġch ance
ĠF rench
Ġchar ger
ament al
Ġaw esome
Ġshi pping
A ll
S E
n ers
Ġc ars
ĠA ny
ĠM in
il t
Ġsu mm
ĠH a
Ġv oc
ĠG o
Ġdes er
Ġsp ir
Ġexp ress
Ġta le
Ġcap t
Ġimm edi
ĠBrad bury
h ic
in ally
Ġo pp
Ġd ate
Ġst ren
ĠA d
Ġv ot
Ġins ight
Ġev ents
Ġep isod
A Y
b it
Ġc red
Ġf le
Ġp ull
et t
Ġde ep
us es
Ġab ove
ĠO ver
Ġpropos ed
Ġlegis lation
Ġopport unity
L E
r ing
Ġs we
Ġb ody
Ġp ot
Ġfor ce
et ic
ri ll
Ġle ave
Ġad ult
ĠIn st
Ġcoll ect
Ġinclud e
lo ad
Ġpred ict
b an
Ġs light
as y
ent le
ie ld
Ġse lect
Ġde ath
ĠUn fortunately
Ġgu y
ĠY OU
Ġalbum s
Ġmod el
Ġrequ est
Ġconcern s
Ġwar m
Ġmean ing
ĠAr tic
ĠTr ans
Ġadop ted
Ġhon est
Ġstren gth
e es
k en
in st
Ġp u
Ġh ot
Ġre d
se qu
Ġpart y
ĠK ind
Ġtra vel
Ġpoor ly
Ġgroup s
Ġperform ance
ĠAustri a
Ġ198 4
Ġrelations hip
Ġannoy ing
Ġlibr ary
W ith
s h
Ġ ident
Ġc ook
Ġfor get
ĠM ac
Ġse qu
Ġse arch
Ġr u
Ġpre vent
Ġset ting
Ġsub st
Ġpolic ies
Ġresult s
Ġprot ection
ĠIN TER
A C
Ġre nt
Ġnot e
ri f
Ġcom ment
Ġad vert
Ġcont act
ĠIn ter
Ġsec urity
RE G
Ġobject ives
Ġris k
u ed
ĠA pp
Ġsu sp
our t
Ġgo vern
Ġproduct s
ruct ion
Ġsk in
Ġhop ing
Ġmill ion
Ġcompl ain
Ġcir c
b ing
in ating
Ġw al
Ġc ross
Ġp arent
Ġto ol
Ġn ature
Ġg entle
ly ing
ĠWh ile
Ġreal ity
Ġhelp ful
Ġref erence
Ġins p
Ġtal ent
Ġdem ocr
ograph y
Ġagre ement
E C
I D
g ic
h es
is on
ol ic
ĠIt al
Ġcomp an
ĠO f
Ġrec ently
Ġgr ound
Ġtrans p
Ġhand s
Ġrequ ired
Ġaud io
Ġocc as
Ġfant astic
o f
z y
Ġt ight
or ge
or row
Ġn one
ent y
ke y
Ġtr ad
Ġ1 00
Ġrec ent
are n
he ad
Ġfull y
Ġfr ont
Ġwa iting
Ġmom ent
S t
s y
Ġw in
Ġw ays
ve re
ĠP er
Ġgreat est
Ġsome what
Ġact iv
Ġref er
Ġfr ustr
Ġregard ing
ĠMay be
in y
Ġl a
Ġl ate
Ġre v
Ġre leased
ĠC ourt
Ġas ked
ĠS T
Ġkn ew
Ġgu ys
Ġgu arant
Ġsp ace
Ġmon it
icul ous
Ġdisappoint ment
Ġins ide
Ġnovel s
Ġac ross
Ġreturn ed
ĠPro di
m p
Ġ :
ou th
Ġh ate
ot i
Ġbe at
ir t
ĠW H
Ġr ub
Ġtri p
olog ical
re w
Ġp le
ĠI I
Ġd est
Ġy es
ill s
Ġal one
ab y
ĠTh en
Ġcons id
Ġauthor ities
Ġlot s
Ġfollow ing
Ġstud y
Ġval ues
ĠWor ld
Ġspir it
1 99
e ar
i k
i ant
w ood
re en
Ġw ife
Ġh y
ll ing
ver age
Ġdis s
Ġcomm ittee
Ġauthor ity
ues e
Ġrun ning
Ġmajor ity
Ġaff ect
Ġneg oti
Ġsto pped
ĠINTER REG
* *
5 0
Ġ ign
en n
Ġn orm
ĠM c
ĠD O
our ce
Ġman ag
Ġother wise
ĠJ ack
Ġfin al
Ġpur pose
Ġbo ots
ific ation
Ġtal k
Ġcar ry
Ġadv ice
Ġsol id
Ġadm inist
Ġserious ly
Ġprof ess
Ġve hic
Ġbott om
Ġben ef
ĠPortug uese
A t
z e
Ġ ir
Ġc atch
an ced
Ġhe ld
Ġad apter
Ġcont r
ĠWh ite
Ġdec isions
wh ich
Ġ8 0
Ġappe ars
Ġbro ke
Ġsell er
Ġh it
Ġl ay
Ġre asons
Ġwe ight
ĠW ar
Ġv i
Ġr ating
ast e
ap an
Ġsee ing
Ġput ting
Ġsm o
Ġhapp ens
Ġprov ided
Ġass ist
Ġlearn ed
Ġintern ational
Ġsci ent
Ġrespons ible
Ġmem bers
Ġimplement ation
Ġsurpr ised
A n
U n
Ġ [
re h
Ġp at
Ġd ro
ic ip
Ġsh are
ĠB uy
un ting
ĠIt s
ĠG ood
ĠR ead
ĠO ther
Ġus es
Ġback ground
Ġtra ining
Ġbo ot
Ġbr ought
Ġexp ensive
Ġincre ase
Ġpract ice
Ġobvious ly
Ġappropri ate
Ġwel come
ĠArtic le
ĠInter governmental
. )
h ow
h ere
r ated
Ġb irth
it ude
Ġf asc
or ough
Ġg rand
oo f
se c
ie ce
ra cy
Ġread ers
ap ters
Ġend ed
Ġrem ain
Ġold er
Ġdem and
ĠBr it
Ġexc ited
Ġsect or
Ġchang ed
Ġey es
Ġansw er
Ġlad ies
ĠKind le
I G
e an
t i
Ġb ar
Ġb al
at ors
Ġm iddle
Ġd ig
Ġn at
ĠR o
Ġimp oss
Ġknow s
ĠK e
Ġfl at
Ġstart s
Ġexpl ain
Ġfinish ed
Ġchang es
Ġdanger ous
Ġgraph ics
G reat
y n
on se
Ġm ine
or ne
Ġre du
Ġre lev
Ġan im
ĠM ost
ĠM ont
.. ...
pp er
ate ver
Ġout side
Ġoff er
ĠUn ited
Ġcons um
Ġenjoy able
ĠSo cial
Ġpresent ed
Ġdetail s
ici ent
Ġenc oura
b el
r ate
Ġt able
Ġth in
Ġth row
en er
Ġp ump
ed y
Ġl at
Ġl ines
Ġe le
Ġst ates
ur t
Ġex ch
ĠW ill
ĠH A
Ġinterest s
Ġadd ress
ug g
Ġcond itions
Ġcult ural
Ġfund amental
Ġadm it
Ġstra ight
EAD ER
Ġheav y
i et
Ġ ut
Ġt un
Ġa im
Ġf re
ar ily
Ġl yr
am ed
ĠS m
Ġtr ou
Ġcl os
Ġtw ice
Ġdes pite
Ġaw ful
Ġind ic
Ġdr am
Ġlim ited
ĠPart y
M E
Ġth orough
Ġs oul
Ġm other
Ġp air
an ish
Ġin n
Ġcom ments
ant ic
ect ive
Ġrec yc
Ġher o
Ġacc ur
Ġsm ell
Ġconf using
Ġdem onst
Ġav oid
Ġcost s
Ġbeh alf
Ġpack age
Ġeffort s
Ġcrit ic
Ġappreci ate
Ġ45 1
Ġimmedi ately
Ġgentle men
Ġcompan ies
Ġimposs ible
R B
e pend
u el
Ġa verage
re al
Ġs orry
Ġb i
Ġto wn
Ġh ook
al es
Ġwh ite
id ing
Ġmo ving
ill y
Ġsh ape
ĠP h
ap oint
ĠF irst
ans on
az z
ĠWh y
Ġmat t
Wh ile
Ġgen re
Ġhim self
Ġwa ist
ĠAmeric a
Ġcommun ication
L D
Ġs itting
Ġc able
Ġf em
Ġf ix
Ġst ock
ri pt
ĠP at
Ġwho se
ĠN O
ous ly
ĠJ apan
Ġcomm it
Ġconc ert
ph as
Ġdown load
Ġcr ime
Ġter m
Ġdiffere nce
Ġcomple x
Ġexpl an
Ġadv ent
!!!! !!!!
Ġcreat ed
Ġsect ion
Ġmet al
A m
Ġp ill
ut ed
ag ue
Ġfe ature
Ġcont ext
ac ing
ĠV ER
Ġauth ors
Ġexam ples
ĠAl though
Ġresp onse
Ġappe ar
Ġperfect ly
Ġtechn ical
Ġconn ection
Ġrid iculous
Ġparent s
L Y
f riend
g ent
v able
w r
Ġt end
Ġw all
er c
er m
en ed
Ġd a
om b
le ar
Ġst ated
ol id
ĠW I
ĠH P
Ġr ate
Ġact ions
Ġpart icip
Ġsc ript
Ġcr imin
Ġem ploy
Ġem phas
oll y
Ġstand ards
Ġfund s
Ġintro duction
Ġconclus ion
Ġsatis f
Ġvi ol
i ent
o x
Ġb unch
Ġc in
Ġf irm
Ġm ach
Ġg arbage
ver se
Ġst uck
ĠS and
ĠS te
Ġmy st
ers on
Ġpl ain
Ġr ich
Ġfe ar
Ġpre fer
ight s
sel ess
ĠK ing
Ġeas ier
Ġ4 0
Ġform at
Al though
Ġpublish ed
ĠApp le
Ġdemocr atic
Ġmatt ress
F inally
W ell
c ent
i um
t ime
Ġb ored
Ġh arm
Ġd iv
Ġe arli
Ġse ason
Ġpl ays
Ġle ar
ĠL EADER
ud d
Ġreg ion
Ġinc or
Ġsp o
Ġreview ers
ob al
he it
Ġob s
ec ond
Ġstud ents
Ġpri v
Ġcent ury
Ġsign ific
Ġbri ll
apt op
Ġprep ared
Ġprec ise
199 9
I E
T o
m ing
Ġd ull
Ġl aptop
ad s
ĠM anson
Ġread y
un g
ĠD r
au ght
ĠG u
Ġtr uth
Ġar gu
Ġsound tra
ĠTH AT
Ġed uc
Ġdescri bed
Ġlevel s
Ġcurrent ly
Ġfair ly
Ġfoc us
Ġinstru ment
Ġpu zz
Ġple as
Ġconsid ered
Ġlyr ics
B e
Ġt en
in a
er ning
ul ation
pp y
Ġdo ll
Ġany way
Ġdis aster
Ġfe et
Ġcont ains
ĠY es
ne w
Ġfun ction
Ġmat ters
und red
Ġref und
Ġdep th
Ġserv ices
Ġregul ar
Ġlegis l
Ġframe work
Ġhistor ical
aren cy
A P
n ces
Ġb other
Ġg one
Ġu nd
Ġde light
Ġch apters
Ġj our
Ġj oint
ind ows
Ġ2 5
Ġour selves
ub lic
Ġprogr am
Ġdisappoint ing
Ġkeep s
Ġexp ressed
Ġbas ically
OO K
Ġuni que
Ġrad io
Ġfasc inating
RB AN
4 0
H e
k y
Ġc ases
ion ally
Ġwe bs
ĠS ony
Ġch oice
ĠF rom
Ġtr ash
ĠR eg
Ġun c
Ġbu ilt
ber t
Ġsc an
Ġset s
Ġunderstand ing
ec ause
Ġpower ful
Ġprom ot
Ġpick ed
Ġur ban
Ġach ie
Ġstat ement
Ġsusp ense
Ġtransp arency
Z Z
e qu
p ro
Ġt our
Ġc at
Ġc art
Ġm er
Ġp ure
Ġp ush
Ġd ream
Ġl uck
Ġfor ced
Ġst age
ĠC ar
Ġne arly
us s
Ġv ict
ĠF l
ĠL ove
ick s
Ġreg ret
Ġgr ade
ĠIn tern
Ġsub s
Ġexpect ing
Ġjob s
Ġcreat ive
Ġbro ken
Ġprinci ples
Ġcent ral
Ġregul ations
Ġincre asing
bo ard
Ġincred ible
Ġstrate gy
Ġanal ys
Ġintell ig
Ġbecom es
ĠOver all
Ġpot ential
I s
b one
e en
o on
p re
Ġt em
Ġc ord
Ġf ield
Ġn et
Ġn arr
id i
ow ers
im ate
ĠM an
Ġso ld
Ġne ar
ĠP aper
Ġal ot
res h
ĠB E
ĠG e
ĠR ay
li ed
Ġend s
Ġgu ide
Ġext end
Ġmin ute
Ġgl obal
Ġcreat ing
ĠFr ance
Ġbri ef
Ġrom ance
Ġlear ning
e v
o e
p iece
t a
Ġa ut
Ġth rill
is her
Ġf ab
Ġm el
Ġp en
ve red
im ent
im ension
Ġwas ted
Ġsh ock
ra el
ĠW AS
ĠH aw
Ġle aves
Ġbec ame
iv il
ink s
ĠU RBAN
ress ing
Ġreal ize
Ġcomm unity
Ġconc erning
Ġstr ange
stand ing
Ġprov ides
Ġrece ive
Ġty p
Ġexc iting
Ġmem ory
Ġinfl u
Ġfle x
Ġearli er
Ġsoundtra ck
Ġwebs ite
C H
m ark
r ant
r ors
v ention
Ġm il
ing ly
ĠI nd
Ġl os
ad ing
Ġfor th
Ġha ir
ĠS O
Ġsh ot
Ġal tern
ĠL a
ab led
ac y
Ġapp ly
Ġcons ist
Ġfact s
Ġatt ach
Ġmin or
Ġstand ard
ĠAustri an
Ġproper ly
ĠCan on
Ġvehic les
D on
o ff
Ġw ide
Ġb ag
Ġb aby
Ġf ra
Ġp arliament
Ġare n
ĠM O
ĠB ig
Ġj unk
ive ly
Ġpl aces
Ġhe alth
ĠL O
Ġus ual
iz ation
od ies
form ers
Ġgu itar
oc racy
Ġra re
Ġadd ed
Ġph one
Ġpolit ics
Ġturn s
Ġtell ing
Ġdescri ptions
Ġcontin u
Ġrecord ing
Ġiniti atives
Ġmove ment
Ġincred ibly
Ġmedi um
ĠBrit ish
a ff
Ġs qu
it an
at t
Ġf its
en gth
Ġh undred
am b
ĠM U
ĠM ad
ĠM ich
ĠP al
ĠP lease
ĠH igh
um m
Ġlike ly
Ġcomp reh
ish ing
Ġimp ressed
Ġgr ant
Ġind epend
Ġfl aw
Ġter rif
Ġhelp s
Ġdevelop ed
ruct ural
Ġcap ital
Ġprot ect
Ġteach er
Ġfore ver
Ġmor ning
Ġvol ume
Ġslight ly
Ġgovern ments
Ġmanag ement
Ġp ath
Ġto m
al ing
im ov
Ġnot ice
th orne
ĠA ff
ĠM ax
Ġli kes
Ġab ility
Ġr ice
Ġle ak
ĠF OR
Ġun fortunately
Ġco vers
Ġco vered
Ġpr im
Ġstory line
Ġro ll
Ġfeel s
Ġtrans fer
Ġsmall er
Ġtell s
Ġbro ad
Ġmot ion
ron ic
Ġcla im
Ġproced ure
Ġillustr ations
Ġpredict able
Ġrelev ant
Ġcrimin al
C h
d ing
o ved
in n
Ġw ood
an a
Ġl oud
Ġu seless
im um
all ed
ĠP C
Ġj ump
Ġun em
iz es
Ġspe ed
Ġoff ers
Ġem b
Ġref lect
Ġdirect ion
Ġitem s
Ġcam p
Ġopen ed
Ġsol ution
Ġplan ning
ĠSc ar
Ġmist ake
ĠFund s
ili ar
Ġfill ed
Ġaspect s
ĠVER Y
1 9
2 0
H ow
O ur
S ome
U T
h y
v al
Ã ©
Ġt ask
re st
Ġl oss
Ġre ci
Ġnot iced
ĠS er
ĠM s
ĠM us
il os
Ġ1 1
Ġ1 8
ag raph
Ġfe ed
Ġpart ners
Ġar r
Ġapp arent
Ġbl ock
Wh y
Ġhelp ed
Ġperson ally
Ġdra ft
Ġstud ent
Ġconsider ing
Ġcra p
Ġneg ative
Ġphot os
Ġanalys is
ĠAff airs
I R
I ON
L A
Q U
c er
Ġa head
re g
Ġc ivil
Ġl arg
Ġwh atever
Ġst ri
ul ar
Ġcom edy
ĠB ay
ĠD es
act ion
Ġ1 4
ish ed
Ġmus ical
ĠCh ar
ren heit
ution ary
Ġconf idence
Ġmiss ed
ah renheit
Ġobject ive
Ġcolle ge
Ġevent ually
Ġvoc als
Ġele ments
c l
i us
l t
Ġ x
Ġs ust
Ġb are
Ġc li
ĠI nt
ll y
Ġd ur
Ġin ch
as sion
le g
Th ank
Ġfor g
et ter
Ġtr ade
Ġun like
pect ive
Ġreal istic
ĠTh ank
Ġbl ue
ution al
Ġsing ing
Ġdem ocracy
Ġwar ning
Ġfail ed
ĠIs rael
ĠPe ople
Ġnegoti ations
Ġnat ural
Ġfem ale
$ $
Ġs av
Ġb ase
Ġd ie
Ġd ied
ar th
ot ic
Ġsh ame
em s
il ities
ul f
Ġde g
Ġread s
ĠN E
Ġ1 3
Ġwr it
Ġchar ging
Ġsc r
av a
Ġoff icial
ĠSt ructural
ip s
Ġrem ote
Ġhigh er
Ġdirect or
Ġpract ical
Ġfa ith
Ġintend ed
Ġcustom er
ĠInst ead
Ġtrou ble
' .
2 00
P ro
V ery
a el
r ict
in ary
Ġs ite
Ġb reat
Ġm atch
Ġm urd
Ġon line
Ġan ti
Ġse par
Ġun able
ac cept
Ġreal ized
Ġconc ent
Ġent er
Ġstart ing
Ġrel ig
aw bone
Ġinclud es
Ġsur f
Ġelse where
Ġcra zy
Ġdetail ed
ĠEU R
Ġpar agraph
Ġimag ine
Ġstruct ure
ĠBU Y
ĠQ u
sy ch
Ġexch ange
J ust
O S
b all
d am
i am
r id
r ound
Ġ !
at ory
Ġm ount
ar get
Ġl ength
Ġn ation
ur s
ur ch
ĠC omp
Ġde pend
ound ation
Ġlo se
Ġher self
iz ing
ang ing
Ġinter view
Ġlist ed
Ġnum bers
EN T
Ġgirl s
Ġspecific ally
Ġmyst ery
a f
a res
m ber
n ow
in o
Ġb all
Ġm ere
ĠI G
Ġwe aring
Ġmo ves
pe cial
ĠS H
ĠE VER
ess ion
ol a
Ġme ant
Ġv ib
Ġr ange
Ġam azon
Ġany more
Ġgood s
Ġman ner
Ġact or
ĠJ an
sel s
Ġoff ice
Ġte en
Ġmost ly
Ġstr ugg
Ġhigh light
Ġcr u
Ġsub m
Ġinform ative
ĠAs imov
Ġrepl aced
ef in
Ġcontrol s
Ġbatter ies
Ġprodu ce
Ġfa ult
Ġdam age
Ġsumm er
Ġaccur ate
ilos oph
N o
Ġa f
Ġth reat
Ġb le
Ġm ent
ll ed
Ġd ry
Ġl and
im ately
Ġpro s
ra p
Ġcon ven
Ġex erc
ĠB el
ĠB OOK
Ġwill ing
os ov
Ġun f
Ġco hes
Ġro ad
Ġra ised
wh ile
Ġrel ative
Ġtrans lation
Ġversion s
Ġlisten ed
Ġass ess
com ing
Ġfall s
Ġmet h
ĠBl u
Ġmanufacturer s
Ġguarant ee
ĠHaw thorne
L et
g ly
o ices
t r
Ġt aste
on na
it able
Ġo il
Ġf ather
Ġre ject
om as
al k
Ġan g
th eless
ĠA LL
ĠS w
ĠE n
Ġsu c
Ġj azz
ĠO b
Ġco ord
Ġtw ist
Ġreview er
Ġra p
Ġbl u
Ġthought s
ON E
Ġfollow s
Ġdra wn
Ġart ist
Ġdri ve
que z
Ġdev ice
Ġer rors
Ġmaster piece
Ġmeet ing
Ġapplic ation
Ġconv in
Ġepisod e
Ġtrad ition
mp ath
Ġrub ber
Ġadvent ure
Ġbrill iant
Ġlegisl ative
Ġtom orrow
Ġunem ployment
! )
U N
e in
l ig
u x
Ġth us
Ġb an
Ġf ol
Ġd imension
Ġl oose
Ġre new
Ġas king
ul ate
Ġch oose
ĠH ol
Ġun accept
Ġco ld
ĠJ ul
Ġimp act
Ġimp ression
Ġplay ers
ĠK osov
Ġatt ack
Ġgl ass
Ġreason able
Ġcam c
Ġentire ly
Ġca used
Ġrequire ments
Ġcirc um
Ġnorm al
Ġscient ific
Ġarr ang
o res
s u
w o
w ith
er ous
Ġc ity
Ġf right
ĠS imp
ĠE d
un t
ĠD is
Ġout standing
ĠF e
Ġcomp ared
Ġ1 6
Ġthan ks
Ġspe ech
Ġrem ark
Ġem ail
Ġfl oor
Ġexpect ations
Ġlet ter
Ġcard s
Ġsupp ose
Ġear th
Ġmom ents
Ġdou ble
Ġocc ur
Ġshi pped
Ġbuild ing
Ġbra in
ĠBU T
Ġmult ip
Ġactiv ities
Ġsmo oth
Ġprecise ly
Ġcohes ion
Ġmeth od
i ally
l ict
l ock
n ed
p ret
Ġb ill
Ġc ry
Ġp sych
Ġl ed
Ġbe ar
ad ed
ro om
ch e
ĠS ci
Ġsh own
Ġcon sequ
ul a
ck ed
un ities
ĠT ur
Ġpl enty
Ġup d
ĠG l
Ġ1 7
ĠL ook
ĠO K
Ġcont ain
ĠWh o
Ġfind ing
Ġshow ing
Ġhard ly
Ġdet erm
Ġexper ien
Ġcar ried
Ġresp ond
ĠBr other
Ġopen ing
Ġdist ur
Ġhear ing
Ġconst antly
Ġconst ruction
Ġ9 0
Ġimag ination
Ġsuccess ful
Ġcontrib ution
Ġinstruct ions
Ġchallen ge
Ġdig ital
ĠIG C
! "
l ated
l og
Ġt ough
Ġf resh
Ġm ass
al t
Ġst ress
ĠC ol
ter m
ĠB y
ĠT oo
ap es
Ġcomp ar
Ġad just
ĠU N
ĠJ ames
ĠJ ava
Ġpre m
Ġper m
Ġdes k
Ġrel ation
Ġsy mpath
Ġvide os
Ġfam iliar
Ġappro ved
Ġ19 6
Ġhappen ing
Ġlack ing
Ġcre ation
Ġprom ote
Ġsitu ations
Ġimplement ed
Ġvar i
Ġdesign ed
ĠUS B
ster dam
Ġadvert ised
Ġcomplain t
Ġdest ro
Ġadminist ration
bel ie
Ġsust ain
Ġsuc ceed
Ġunaccept able
S h
e ven
h ood
l ies
re et
Ġw ire
Ġs ource
Ġo pt
Ġo dd
Ġc ute
Ġf ool
Ġm id
om en
ut or
ad es
Ġbut ton
ĠE uro
ĠW OR
un e
Ġpl us
Ġv an
Ġhe ll
Ġtr ust
ĠR ep
Ġqu ot
ĠO h
so ci
Ġimp ress
Ġcl osed
Ġpart ies
Ġsc ore
Ġunder t
Ġdec ide
ob in
Ġob lig
Ġsy mb
Ġed ge
RE AT
ove red
Ġfollow ed
ĠNot hing
Ġadop t
Ġequ al
Ġcomb at
Ġstruct ural
Ġpopul ation
Ġinsp ir
Ġassist ance
Ġbal ance
ĠGe orge
Ġreci pes
QU AL
ĠKosov o
' ,
A D
E E
E urope
M A
l s
l ife
m es
y ou
y ear
in c
Ġh om
an cing
Ġl if
Ġe ars
Ġu lt
ch an
Ġnot es
ĠA L
Ġpro pose
ĠM E
ĠP ower
Ġv ill
ĠL ike
ag er
ag ues
Ġgo d
Ġ2 4
ious ly
igh b
gin s
Ġconc lud
Ġput s
Ġacc ident
Ġcr is
Ġrel ate
Ġim age
.... ....
Ġposs ibly
iven ess
Ġconsider ation
Ġexc lus
Ġyoung er
ES T
Ġpack aging
Ġamend ment
ĠJust ice
Ġsex ual
Ġreach ed
Ġsw itch
Ġrepe at
Ġdiss apoint
Ġbenef it
Ġthorough ly
ĠMich ael
Ġcircum st
O f
T S
d y
Ġt re
Ġb order
it or
nd om
Ġn ames
Ġbe ats
Ġwe b
Ġwe ird
ter day
ĠA S
ĠS y
ĠM on
ĠM ed
Ġne ighb
ĠB ecause
ol es
ĠW as
ci ous
ind ing
Ġany where
Ġdis play
ĠR ec
Ġbu cks
av id
Ġdes ire
Ġgot ten
ĠAm sterdam
Ġph ilosoph
Ġconf used
Ġtal ks
Ġ19 7
Ġreturn ing
Ġart ists
arg ate
Ġmarket s
Ġfund ing
Ġconst it
Ġstrong ly
Ġmeas ure
Ġvis ual
ĠOn ly
Ġrom antic
Ġpopul ar
ĠON E
Ġpress ure
Ġswe et
Ġprofess ional
ĠMont ag
ĠSm ith
Ġbare ly
Ġcamc order
1 1
? )
D o
G E
h a
Ġt arget
er o
at ers
Ġis land
Ġg ri
ĠC ont
ĠM ore
Ġne ither
ĠW inst
ĠG ree
ĠR E
Ġad apt
ab les
Ġspe aking
od e
ĠAm end
Ġmusic ians
ER E
Ġdec l
Ġcons ult
Ġra ndom
Ġbel ong
Ġfl ick
Ġatt ract
Ġdevelop ing
Ġconf irm
Ġconf lict
Ġbr other
Ġsing er
Ġview s
Ġrequ ires
Ġsch em
Ġma le
Ġsect ions
Ġscre w
Ġsubject s
uc lear
Ġport ray
Ġprodu ced
Ġprior ity
Ġexist ing
Ġfight ing
Ġey e
Ġprec a
Ġintegr ation
Ġaccord ing
ĠGo vernment
ĠItal y
ĠPer haps
Ġinn ov
Ġpill ow
Ġpuzz le
Ġintellig ent
Ġwrit ers
1 2
A B
B ook
S econd
g est
Ġt ired
er cial
Ġs am
Ġs illy
Ġf ing
Ġm outh
Ġp ra
es y
ar ry
Ġg if
Ġst rand
Ġst urd
ĠA T
ĠA g
ra w
res p
ĠE QUAL
Ġwor ry
ĠB ook
Ġsu dd
el f
iv ity
Ġthem e
ord s
Ġrep et
oun ter
Ġgen ius
Ġph ys
Ġeconom ics
Ġsur v
Ġwar rant
Ġsk ip
ret ch
Ġtechn i
Ġfig ured
Ġansw ers
Ġdeser ves
Ġvot ed
Ġcontact ed
Ġrecyc ling
Ġmach ine
Ġpriv ate
Ġlarg er
Ġpreca utionary
Ġsudd en
K E
O D
O P
e ff
f i
m aking
is ters
Ġs ides
Ġo ption
Ġc e
Ġf at
Ġp assion
Ġh i
Ġd ut
Ġe lement
ro c
Ġas soci
ĠS u
Ġsh ut
Ġcon gr
ĠP lus
Ġdo or
Ġme chan
ĠD em
ĠD ark
Ġpl aced
Ġno ise
Ġdis k
ĠR om
Ġqu al
Ġun com
ber al
Ġgu est
Ġdisc r
Ġpers pective
Ġform er
Ġmain ly
Ġgener ally
ash ion
Ġcare fully
OU LD
Ġdr ug
Ġtechn ology
Ġliter ary
Ġaud ience
Ġestablish ed
Ġbott le
Ġstep s
Ġgrow ing
Ġintrodu ced
First ly
Ġepisod es
Ġvict ims
Ġtyp ical
Ġaltern ative
Ġcru cial
Ġmultip le
ĠWinst on
Ġcongr at
P arliament
S ince
V IE
b l
d om
e per
l a
er ry
Ġc ave
an c
Ġl ame
Ġe c
Ġe at
ct or
et er
ch arge
ir ley
ĠA B
ra id
Ġch art
ĠE m
ĠW ould
ĠH olly
Ġle aving
Ġcomp at
Ġcomp are
Ġco de
Ġthem es
Ġshe ets
ĠY our
ĠTh omas
Ġent h
Ġext ent
Ġclass es
Ġdisc over
ian e
Ġref ere
Ġbo ard
Ġwish es
Ġfavor ites
Ġinvol ve
Ġallow ed
Ġinstall ed
Ġrepresent atives
ĠHa ider
Ġyes terday
Ġexplan ation
Ġindepend ent
Ġforg ot
Ġcircumst ances
3 0
E x
H S
N ow
b oy
d own
e y
r d
r icult
Ġ era
Ġc ities
Ġf ulf
Ġp owers
Ġh its
as ks
oo p
Ġwas h
ĠS her
em y
il ing
Ġcom fort
ĠP ar
Ġch em
ĠH ard
un ted
ome nd
Ġpl ans
Ġint ention
Ġv irt
ĠL I
iv al
oy ce
Ġcl ich
erest ing
Ġrem ove
ĠCh arl
Ġra c
Ġbel ow
Ġinter pret
Ġlast ed
Ġrel ating
ĠDVD s
Ġpurch asing
Ġche aper
Ġreport s
Ġsimp l
arn ed
Ġsur round
Ġbig gest
Ġdra g
Ġty pes
Ġdifficult ies
Ġrest rict
rib ly
Ġhold s
Ġappe al
ĠChrist ian
Ġrecord ed
tern al
Ġregul ation
Ġperform ances
Ġattempt s
Ġmag ic
Ġcolle agues
Ġcred it
ĠTrans formers
Ġaffect ed
Ġsolid arity
Un fortunately
Ġfre qu
Ġcommit ment
Ġharm on
Ġincor por
Ġsignific ant
Ġcompreh ensive
Ġdur able
Ġsymb ol
Q u
b es
p ut
Ġt ack
re land
on ed
or able
Ġd ub
Ġon to
Ġst orm
im ination
ur ally
ra ge
Ġli ability
ĠW atch
ĠW indows
ĠT om
ĠT ess
Ġint ri
ak ers
ĠG et
Ġwork ers
Ġrec omend
ther n
Ġun us
Ġag ricult
ff ice
ĠJ ean
Ġcl im
Ġcont em
Ġsc ared
ord ers
Ġte eth
ĠTh anks
Ġcomm ercial
Ġstr ict
Ġcr iter
Ġfl ims
wh o
Ġpres ents
Ġwonder ing
Ġexpl ained
Ġmain tain
Ġass um
ON G
Ġsystem s
Ġsk ills
Ġpay ing
ĠBl ue
Ġaddition al
Ġsto res
Ġopport unities
Ġlab or
Ġok ay
Ġfell ow
Ġdeli very
Ġsatisf ied
Ġcin em
Ġfra ud
Ġaf raid
E ven
O L
c r
k a
l in
l ook
s es
u ght
Ġt iny
Ġth ick
Ġw ind
ĠI reland
Ġre ve
om in
Ġn uclear
et ary
Ġst retch
ĠS ave
Ġso le
ĠD irect
ak er
ĠF oundation
ĠN ight
Ġnew s
Ġsee k
Ġunder st
ĠSt ill
Ġapp lied
Ġsp ot
Ġrem ains
Ġtra ged
Ġfact or
Ġter ror
Ġsy n
Ġregard s
Ġ199 7
Ġ6 0
Ġinf o
Ġband s
Ġentertain ment
Ġspeak ers
Ġhop es
Ġca uses
ĠMar quez
Ġjo ke
Ġste el
Ġinvest ig
ĠItal ian
ĠJapan ese
Ġda ily
ĠWI TH
Ġpartners hip
, ,
1 5
M P
O k
g n
o king
w ing
Ġb odies
at ically
Ġc and
Ġf ishing
Ġm ad
Ġm ood
Ġh ur
ĠI m
Ġe lev
st ein
Ġwh om
ĠC ath
ĠA ct
ie l
Ġsh op
Ġcom pe
ĠP R
Ġch air
ĠE l
ĠB est
Ġsu cks
ive red
ĠT obin
ĠD avid
Ġam b
ĠN or
Ġcomp rom
Ġcomp lic
Ġdis ag
Ġsome how
ag on
Ġsc ope
uth or
Ġeff ici
Ġrel ated
Ġprov ision
Ġorigin ally
Ġhand le
Ġexper ts
Ġfam ous
vers ity
Ġpresent ation
Ġcur ren
Ġbat tle
ĠSh irley
ustr al
Ġdist rib
Ġdri ver
Ġfall ing
Ġ7 0
bo x
Ġpass ed
Ġelect ronic
Ġmaterial s
Ġdocu ments
Ġlim it
Ġbusiness es
Ġmag n
Ġconclus ions
Ġcla ims
Ġadult s
Ġmere ly
efin itely
Second ly
Ġuncom fortable
ĠHolly wood
Ġflims y
L ike
f ric
m os
n es
p ol
r ough
Ġt abled
Ġthe ory
Ġs ick
Ġb on
en e
ar ies
Ġn amed
Ġwe alth
ĠC ent
ri ved
ĠM e
Ġex pos
Ġsu s
est ion
Ġhas n
ĠT R
ĠT itan
Ġv ac
Ġout d
Ġr ated
ound s
ĠG REAT
ĠL ane
ĠR ed
ĠR EA
ĠO nce
Ġun real
Ġman aged
ĠJ awbone
ĠJ oyce
Ġcl oth
Ġevery day
akes pe
ĠV an
ĠV HS
app y
Ġshow ed
Ġins pect
Ġph r
Ġass ign
Ġcontin ues
Ġ199 8
Ġfig ures
Ġincre ased
Ġpain ful
for ce
ĠDo es
Ġprior ities
ĠX P
Ġstrate gic
Ġlab el
Ġmist akes
Ġdel ay
Ġdel ivered
Ġmonit oring
Ġbirth day
Ġconsum er
ener al
ĠHA VE
Ġjour ney
Ġscan ner
Ġachie ved
Ġscr atch
belie vable
Ġcris is
Ġcriter ia
A ny
N ever
U R
c ies
i ation
o k
r s
u ine
v is
Ġt one
Ġt ree
Ġt asks
Ġs and
Ġb ul
Ġc aught
Ġf if
Ġf ashion
or k
ar p
ar re
Ġl ink
Ġg e
ct ions
Ġwh e
im m
Ġpro se
il ed
Ġcon duct
Ġch ann
ĠB rand
us ion
qu es
ĠD ick
and s
and er
Ġr ing
Ġr hy
Ġco ast
Ġdid nt
Ġcl ub
Ġsc are
Ġthink s
Ġwant ing
ac ity
Ġte lev
ub e
Ġgr ad
Ġfl ow
Ġdef end
Ġworth while
Ġim ages
ism s
Ġev il
Ġexpl ains
Ġturn ing
Ġnum erous
AN T
Ġbegin s
Ġstand s
Ġcare ful
Ġcre ep
Ġdep ressing
Ġbeautif ully
Ġsuper b
Ġcol ors
Ġallow s
Ġur ge
Ġfail s
Ġsell ing
Ġimm ig
idd en
Ġspend ing
Ġstat us
Ġmot or
Ġfant asy
Ġagre ements
Ġgrow th
Ġsleep ing
eth eless
Ġboy s
Ġconcept s
Ġdiscussion s
Ġopp os
Ġtun es
Ġparticip ation
Ġarrang ements
Ġvari ety
Ġsturd y
ĠDem ocr
ĠCharl ie
C E
a i
o le
s ized
Ġw it
Ġb ow
or ation
an ch
Ġg h
al d
al u
ch er
ce nd
ĠA fric
if ying
Ġpro ceed
Ġex ec
Ġch ose
ĠE N
ĠE X
ĠB rown
Ġj oy
ĠW W
ĠH ig
ure au
ĠF R
ĠF in
Ġdis m
ĠR EAD
Ġag reed
Ġkn ock
Ġfirst ly
Ġfind s
Ġpoint ed
Ġfar m
Ġter rit
Ġdef ective
Ġdisc overed
Ġtri es
Ġworth y
Ġsupport ed
Ġprogramm ing
Ġless on
Ġless ons
Ġmod e
AN D
Ġstud io
Ġtop ic
ĠSh akespe
Ġdep art
Ġbeh av
Ġfore ign
Ġeffective ly
oph ob
Ġsens itive
ĠHa unting
Ġru le
Ġtalent ed
Ġclos er
ĠSand ler
Ġsav ed
Ġbreat h
ĠSimp le
Ġdestro y
Ġcurren cy
? "
O ver
R e
Y es
b order
d er
d ys
i est
i os
l isher
r as
Ã ¶
Ġ #
in er
Ġw ore
is ations
it ary
it ime
Ġo ught
Ġc ens
Ġc up
Ġf ac
Ġp et
Ġto ys
Ġto ler
ed er
Ġd en
Ġg ain
ent ially
ir ty
ĠS ince
Ġsh oes
ra ft
ĠM any
Ġse a
Ġse at
Ġex cess
Ġli ved
ĠP L
ĠP olic
ĠE ach
Ġwor n
ge nd
um s
ĠD ON
ĠD iane
act ions
our s
Ġag es
Ġwere n
og a
ib ilities
Ġem er
Ġclass ics
Ġche esy
Ġsupport ing
Ġmis le
Ġdirect ly
Ġposs ibility
Ġexc use
Ġdeal ing
Ġdri vers
itch es
Ġchang ing
Ġliter ally
Ġteach ing
ann a
Ġjud icial
Ġimprove ment
itar ian
Ġinstru ments
Ġrepe ated
Ġsubst ance
Ġlat est
Ġargu ments
Ġdoll ars
ĠOb ject
Ġexperien ced
Ġdiscr imination
Ġtelev ision
P lease
b ru
g ency
i ences
p ack
Ġth rown
Ġs li
Ġs ister
Ġb ound
it a
Ġc ate
en g
Ġh es
Ġh os
an cy
Ġd u
ar a
as ters
Ġl ower
Ġe th
Ġbe gan
ro l
th at
ĠC H
Ġas ide
ĠA RE
ĠA ustral
ill e
ĠM ark
il ies
ck et
ĠE conom
ge l
Ġall oc
us sels
qu is
Ġint ent
ci ent
Ġhe at
Ġr ise
ap pe
Ġup gr
Ġup set
ĠG amm
ĠL ola
Ġdis g
Ġad equ
Ġhad n
Ġun ne
Ġact ive
pl ace
Ġpol ice
ĠY e
Ġrem oved
Ġbl ood
Ġfl av
Ġbr ings
Ġtop ics
Ġart ic
Ġinit ial
Ġbeaut y
Ġimplement ing
LL Y
Ġaff airs
Ġimpro ved
Ġname ly
ĠTreat ies
Ġaccept able
Ġcorrect ly
ĠRe ally
OO D
Ġeng lish
por ary
yl a
Ġconnect ed
Ġdiscuss ed
ĠGerman y
Ġaccord ance
ĠMin ister
Ġfrustr ating
sec utor
wr itten
Ġinflu ence
ĠLO VE
ĠScar let
19 8
ĠTur key
log y
Ġsustain able
Ġwire less
Ġwarrant y
ĠPolic y
bru ary
. ,
8 0
B ought
F rom
c ast
g ies
h ist
i pped
p et
p oint
Ġ iron
Ġt ed
Ġt ort
Ġs pl
Ġs ources
Ġb oo
Ġc yc
Ġh olid
Ġre de
Ġg reen
se y
im al
am a
Ġwe ap
ĠA uel
ĠS omet
ĠM or
ul ous
Ġat mos
ol f
ist ent
ĠH ill
un ning
ci pl
Ġv ision
Ġv amp
Ġtr ick
Ġdis charge
Ġgreat ly
Ġwhat so
Ġun believable
Ġman ual
ans a
Ġbu g
Ġcont ained
Ġsp in
Ġro d
oc ol
Ġsec ret
Ġatt itude
Ġworth less
Ġwonder fully
Ġprov iding
There fore
eric an
wor ks
ru pt
Ġintern et
Ġsect ors
Ġintell ect
Ġdeli ver
Ġcapt iv
Ġrefer red
Ġobs erv
Ġterrif ic
Ġinterview s
Ġcomplic ated
B A
a it
f l
l or
s ing
t op
Ġa st
Ġth ous
Ġo peration
at in
Ġc as
Ġc ant
Ġp un
Ġl aid
ot ed
ro p
Ġfor ces
Ġst aff
Ġnot ed
all ing
Ġas se
ĠA C
ĠA yla
Ġbut t
Ġsh o
ĠThe ir
Ġex ternal
ol ution
Ġv ia
Ġr out
end er
ap h
itt y
ĠR ome
ĠO ut
Ġwr ites
Ġpr oud
Ġdoes nt
Ġover d
Ġsc ale
ep h
Ġper man
Ġcomm itted
Ġgr amm
ph ere
Ġpoint less
Ġref uge
Ġsecond s
Ġkeep ing
Ġfam ilies
Ġpub lisher
Ġdescri be
Ġnice ly
Ġdeal t
Ġhold ing
iction ary
Ġprom pt
Ġsaf e
Ġaff ord
ĠBl ack
come nd
urther more
Ġcrit ical
Ġphot o
Al so
Ġtreat ment
Ġmix ed
Ġintegr ated
Ġdiscuss ing
Ġproced ures
Ġbecom ing
Ġselect ion
ĠJack son
Ġadminist r
ĠOther wise
Ġredu ce
Ġhook ed
Ġsubs idi
ĠMO VIE
Ġdeg ree
ĠNE VER
Ġconvin ced
ĠHol mes
Ġfright ening
ĠFe bruary
Ġcompar ison
Ġcongrat ulate
ĠHig gins
ĠShakespe are
Ġwhatso ever
I nd
U L
b b
g reat
h old
i ver
i ance
m e
n ight
o very
t it
u nder
y le
Ġ *
Ġt on
Ġb ureau
Ġc al
Ġc ounter
Ġf o
en ophob
Ġm ir
Ġh urt
Ġd umb
Ġn ons
st ream
Ġbe g
se ll
Ġst ation
ay be
ke l
ur g
ĠC r
ĠC om
Ġas leep
ul ated
ĠE ast
ĠB as
ĠB ra
us hing
um es
Ġr ide
ĠG uy
ĠN e
ĠN ever
Ġsome where
ĠO R
ĠO dys
Ġrec comend
Ġun int
Ġspe ct
Ġrep air
ĠTh ough
Ġro b
ph one
Ġfl ag
Ġmin imum
Ġinform ed
Ġpo et
Ġprov isions
Ġcreat es
wor ld
Ġhuman ity
Ġpack ed
Ġreform s
Ġfail ure
Ġbri ght
Ġpain t
Ġsurpr ise
Ġsurpr ising
Ġcontrib ute
Ġsuff icient
Ġemot ional
Ġmedi oc
Ġmed ia
Ġdeser ve
AC K
Ġwal k
Ġcatch y
Ġencoura ge
Ġnarr ative
ĠHigh ly
Ġgrant ed
Ġapparent ly
LA F
Ġx enophob
Ġrelative ly
Ġassess ment
Ġtradition al
Ġprem ise
ĠAmend ment
Ġdut y
Ġtraged y
Ġeffici ency
Ġcate g
A r
E very
H aving
c raft
n own
Ġ 0
re nd
Ġb orders
it ation
Ġp ace
Ġh ated
Ġd ated
ut s
Ġthat s
ow ing
Ġan tic
ĠC am
ir v
if ul
ĠM ag
em b
ĠP ublic
ĠB oy
ĠB arb
us i
Ġme ets
ĠD en
ĠF ahrenheit
Ġun s
ĠCommission ers
Ġchar m
Ġknow ing
cc ord
Ġtw ists
ĠSt ar
ĠSt argate
ark er
Ġra ise
Ġfound ation
Ġfeel ings
Ġfl ash
oun ced
Ġhelp ing
Ġins ert
Ġform s
Ġlet ters
Ġbig ger
Ġkind a
Ġbegin ner
the y
Ġrecord ings
Ġcra ft
Ġlack s
Ġtext book
Ġsuggest ed
ĠAN Y
Ġsign al
ĠFr ank
Ġmar itime
Ġvis it
Ġestablish ing
ĠSe pt
Ġmor al
yl um
Ġgra b
Ġsatis fact
ĠMc C
Ġcontr ary
Ġlat ter
Ġpleas ure
ZZ ZZ
Ġrare ly
Ġofficial s
Ġfol ks
Ġsympath y
Ġimpress ive
Ġrepet itive
ĠCath olic
Ġmisle ading
Ġhos p
198 4
Ġted ious
Ind eed
Ġmedioc re
A M
D S
I I
P er
g l
h h
h ab
m o
w w
y p
z en
Ġt rem
Ġt ank
at a
Ġto ward
es tern
Ġd ancing
Ġre in
Ġre le
Ġst ays
ce mber
ri age
ĠA ud
ie w
ĠS orry
ĠM el
il ation
Ġne cess
ant age
op les
Ġen orm
ĠG ET
ĠL ord
ĠR ights
Ġgo ld
Ġus er
Ġpr oof
ell y
Ġover come
Ġres ource
Ġpe oples
atch ett
Ġinc omp
Ġte am
Ġnow here
Ġrecommend ations
Ġacc omp
Ġcr ash
Ġbad ly
Ġatt end
less ly
Ġleg it
Ġev idence
ĠBr ussels
Ġair bed
Ġnight s
Ġconst ruct
Ġsuper v
Ġsuper ior
Ġlead ers
Ġclose ly
Ġaccept ed
Ġestablish ment
Ġmag az
Ġcheck ed
Ġrecogn ise
ĠSp anish
On ly
Ġplug ged
Ġintrodu ce
Ġemot ion
ĠAny one
ĠAd am
Ġvot ing
Ġsequ el
Ġinsp ired
Ġactiv ity
Ġmonit or
ĠII I
IG H
ĠRo bert
ĠKe ep
Ġdram a
Ġdiv or
Ġeduc ation
Ġforth coming
Ġenter pr
Ġexerc ise
Ġconsequ ences
ĠSy ri
Ġphilosoph y
ĠTitan ic
eder al
Ġatmos phere
Ġsubsidi arity
irv ana
+ +
A ST
C an
D oes
G ood
O nce
U C
a ven
c an
c le
l ines
u le
in al
Ġthe at
Ġs en
Ġs le
Ġs il
Ġs aving
it ate
at o
at tle
ou red
Ġc ore
en omen
Ġm ail
Ġm ember
Ġp ad
an im
Ġre ven
Ġre li
oo oo
et a
am ing
th m
Ġas ylum
ĠA b
ill ed
Ġsh arp
ĠM o
il er
ĠB er
ĠB oth
ĠH E
ĠH all
ĠT ot
ĠT ib
ĠT ime
os i
Ġen light
ĠG arbage
ĠL i
ĠL etter
Ġdis asters
ab et
Ġcl ar
per ate
Ġar ch
ass ic
od ay
Ġsa le
ĠK er
Ġrem ake
oth ers
ual ity
amm e
Ġown ed
Ġsec ure
ĠCD s
Ġgen uine
Ġel ig
Ġcour t
Ġdescri bes
Ġdefin ately
Ġes c
Ġma x
Ġcare er
Ġlight s
Ġcap acity
Ġdep ict
Ġinvol ving
Ġsent ences
Ġhop ed
Ġshall ow
Ġequ ally
Ġstat ements
Ġkill ed
?? ?
Ġjo in
ĠPr ime
Ġhonest ly
Ġrelationship s
Ġsequ ences
Ġsubst ant
Ġwal king
Ġhy p
Ġcontr ad
ĠKe el
Ġut ter
Ġdram atic
ĠReg ional
Ġcart oon
Ġflex ible
Ġmil itary
Ġult imately
Ġpra ise
Ġrefere nces
Ġintri gu
Ġunderst ood
Ġunreal istic
ĠObject ive
Ġrede em
Ġweap ons
ĠTib et
H ere
I F
L ast
R ay
a ul
c ers
d es
g ers
n ational
o ch
o ke
u ary
Ġ idi
Ġt ension
in ct
re y
Ġs ight
Ġs izes
Ġb iz
Ġb orn
Ġp in
Ġp oll
Ġl ie
ic ro
ve y
Ġg orge
ver ty
Ġy ell
id ge
Ġu gly
Ġmo ved
ĠC O
ĠA ge
ĠA nt
ĠS oul
ĠS pecial
ra h
ĠM eg
Ġse vere
Ġmy ster
Ġal ive
ĠE ri
ĠE arth
ĠB udd
Ġj ack
ĠT ra
ĠD E
Ġint ense
Ġv on
Ġlo ck
ĠR ich
Ġqu iet
Ġgo al
li osi
ink ing
igh ter
Ġser ve
Ġri g
Ġro cks
Ġacc om
Ġcle ver
Ġmon op
Ġpo verty
Ġmain stream
Ġhead set
Ġcou rage
eg al
Ġamaz ed
Ġgirl friend
Ġfore st
TH E
Ġer ror
OM E
Ġorgan isations
Ġbring ing
Ġremind s
ĠPr atchett
bit ious
Ġground s
Ġla unch
ĠWill iam
Ġhero ine
Ġaut om
Ġparliament ary
ĠPal est
ĠJan uary
Ġcoord ination
Ġdistur bing
Ġdissapoint ed
Ġinnov ative
Ġcomprom ise
Ġadministr ative
Ġantic ip
ĠSept ember
A ME
C omm
I L
c o
f ord
g ar
g ue
h and
p ir
u ke
Ġo ptions
Ġf lying
en ry
or ate
es ides
Ġd ictionary
Ġin ex
as er
Ġg onna
st ar
Ġbe ware
ch ed
Ġha unted
Ġpro ve
ĠM Y
ĠM uch
ĠM iddle
Ġso vere
ĠB u
ĠB ug
ĠW il
ĠH ult
um my
ĠT us
ĠD isc
ci a
Ġv ivid
Ġout come
Ġen h
Ġr ound
au d
Ġany body
ĠR uss
ĠO LAF
ide o
pt ive
Ġact ed
Ġact ress
ars h
Ġ2 1
ult ure
Ġeven ing
te en
og ether
Ġra il
we ight
Ġho le
Ġext ension
Ġshow er
Ġob tain
Ġadd ressed
Ġconf erence
Ġed iting
Ġmod els
Ġsch ol
Ġdeb ut
Ġcall ing
Ġstud ies
Ġcompet it
Ġcontin ued
Ġcra ck
Ġrun s
Ġdri ving
Ġplan ned
ĠAn n
Ġprot agon
Ġcut s
ĠEng land
Ġspeak er
Ġteach ers
Ġkill er
Ġeng aging
Ġcolor ful
Ġboy friend
Ġapplic able
Ġtouch ing
Ġamong st
Ġinvest ment
Ġtotal itarian
no on
Ġbelie vable
Ġcook ing
Ġtool s
Ġ: )
Ġconsum ers
Ġemphas is
Ġincor rect
ĠIntern et
Ġflex ibility
Ġattach ed
Ġpath etic
Ġcamp a
ĠChar les
Ġsepar ate
Ġrap id
Ġrenew able
Ġsudden ly
Ġcloth es
Ġhosp ital
Ġtrem end
Ġgorge ous
ĠHult en
G H
I VE
M B
O ffice
S he
U ST
a wn
b bit
c at
i ac
k nown
l ause
n al
o ly
o vers
p art
w as
Ã ĸ
Ġa ck
Ġth rew
Ġw id
Ġw ild
Ġs ession
Ġb ass
Ġb ird
Ġb urd
Ġf aster
en cies
Ġm ut
or ic
Ġh oles
Ġd ed
as p
ic it
st it
Ġbe lly
ro ll
se e
Ġst ability
Ġst reet
ĠC ons
ĠC orn
pe re
ĠA uthor
ĠS ansa
Ġse ven
Ġde leg
Ġde eper
ĠE v
Ġsu pr
ain t
ĠW ild
ĠD an
ĠD efinitely
Ġv ital
Ġr ough
Ġk ick
ap ed
Ġam bitious
ĠN irvana
Ġcomp os
Ġdis appe
ĠR ock
Ġqu it
Ġun anim
Ġman age
ĠU P
Ġpr ices
Ġchar ges
ach e
ĠSt eph
Ġapp lies
ĠUn less
Ġthr u
ER S
Ġhigh est
ĠCh e
ĠCh ild
Ġbl ind
Ġsound ed
Ġem p
Ġmat h
Ġdiffere nces
Ġph enomen
Ġconf ident
Ġleg s
Ġhum ans
Ġorder ing
Ġtal es
Ġdifficult y
Ġopin ions
Ġsupp ly
OU N
Ġcond em
Ġcent er
Ġlead ing
ĠBe at
Ġbre aking
Ġprof ound
Ġer otic
ĠDe cember
Ġeng ine
ĠEvery thing
Ġburn ing
Ġclean ing
Ġopp osed
Ġrequest ed
ĠTrans port
Ġfrustr ated
Ġdro p
ĠWI LL
Ġglobal isation
Ġfab ric
Ġfab ulous
Ġhundred s
Ġprim arily
Ġblock s
Ġbill ion
ĠGree ce
Ġgif ted
Ġelev ator
Never theless
Ġadequ ate
Ġack now
? !
A pp
D E
b re
e al
g a
h ard
h ib
i ers
o ppy
Ġ ing
Ġt ast
in ative
Ġs in
it z
it ure
at is
ou ac
or al
Ġh ous
Ġh int
Ġg un
al ed
Ġfor t
Ġy oga
im ed
ĠC oll
ĠC AN
Ġpro p
ĠM a
ĠM iss
ul ative
Ġex ists
ĠB ar
ist ry
ant ed
ĠW ay
ĠH ad
ĠT am
ĠT wo
ĠD ream
Ġv ast
Ġhe ater
ĠG OOD
Ġun ion
Ġun its
ĠU p
Ġcont ents
Ġsc ar
Ġnew sp
Ġshe et
Ġinst ance
Ġlove ly
Ġrep ly
Ġaw ard
ors hip
ple te
Ġra ce
Ġbl ade
Ġbl ank
Ġright ly
he art
Ġsm art
Ġown ers
Ġhard er
Ġins ult
Ġdirect ives
Ġtal ked
Ġexper iences
Ġscen ery
pr oof
Ġcall s
Ġconsider able
EA R
eg u
Ġprom ised
Ġnight m
Ġens uring
Ġur gent
Ġprevious ly
TH IS
Ġelect ions
Ġcommun ic
Ġcomb ination
Ġprep ar
Ġexist ence
ĠZ eta
Ġcolle ague
Ġris ks
Ġjud g
ili ation
Ġdocument ary
Ġemot ions
Ġcustom ers
Ġmed ic
ĠAny way
ĠYOU R
Ġstrength en
Ġcomment ary
Ġwin ter
Ġign or
Ġign ore
Ġir rit
Ġpromot ion
Ġnet work
ĠMU ST
ĠMus ic
Ġschem e
Ġtechni ques
Ġenth usi
ĠBrand o
Ġcreep y
Ġgh ost
Ġunne cessary
Ġrefuge es
ccord ing
Ġaccom pl
ĠBug liosi
A IN
F ahrenheit
a ult
a cc
c ore
c alled
d o
i ents
k ward
l ist
l ined
s pe
t ell
Ġ ....
Ġ 000
Ġt ill
Ġt aught
in ate
in ese
re ly
is k
it ter
Ġm p
Ġm and
Ġm ission
es pecially
Ġh ang
an ia
Ġd read
Ġin ev
Ġre action
Ġg ender
st op
ent ed
Ġy r
id s
Ġst ream
ow een
ay er
Ġha unting
ill ing
ĠS econd
ust er
ĠM adam
pp ers
Ġli es
ĠP re
Ġal t
ĠB ible
Ġdo ctor
ĠW est
ĠH ar
ĠT our
ĠD ec
ĠD anish
ak ed
Ġtim eless
Ġr ul
Ġle gend
ĠF ire
ĠG ar
ĠG old
ĠN ations
Ġlo ad
ĠR un
ĠO p
ĠU s
Ġevery where
Ġoff ered
Ġtw in
Ġafter noon
ang ers
Ġrecommend ation
ĠV iew
ĠTh ree
Ġro les
Ġaw kward
ph ones
Ġbl ues
Ġem pt
Ġtrans l
Ġref res
Ġpres idency
Ġimportant ly
Ġview ing
Ġexper t
Ġappro ve
vious ly
Ġadv anced
Ġcost ume
Ġrepl acing
Ġappe ared
Ġloc ation
Ġdist ort
Ġdist ract
Ġtechn o
itch en
Ġsaf egu
Ġimpro ving
Ġaccount s
Ġnon etheless
Ġequ ality
Ġelect ed
Ġattempt ing
Ġmag ical
Ġamount s
oura ble
Ġjo kes
ĠQ ue
ĠMin isters
Ġpat tern
Ġemploy ees
Ġviol ence
Ġpromot ing
ĠFl ore
Ġinch es
200 6
Ġrelig ion
Ġrelig ious
Ġpros per
MA Z
Ġfrequ ently
Ġmagn ific
Ġoutd ated
Ġcens orship
Ġcaptiv ating
ĠDen mark
Ġenorm ous
ĠKer ouac
Ġelig ible
ĠEri ka
ĠTam pere
1 00
C D
C l
F urthermore
I B
P E
T r
V EN
d ec
g ood
i xt
k ins
m ed
r ast
in ated
it led
Ġo m
Ġf old
Ġf acing
en a
Ġp oo
Ġh ip
ed ter
ar io
ic ing
Ġis ol
Ġe ight
ro edter
et te
ch est
Ġas h
ĠA MAZ
Ġsh oot
Ġsh elf
ĠM ary
Ġcon ver
ers ion
Ġch oices
ĠB ad
ĠB udget
Ġab and
ĠH or
ĠH ere
ĠH ope
um bs
ĠT I
ĠT er
ĠD ay
Ġv oices
Ġr at
Ġr ot
Ġr ush
ap ers
Ġcomp act
Ġlo g
Ġlo ver
Ġdis h
Ġdis pos
Ġdis par
ĠR em
Ġun re
ĠJ im
Ġpre gn
Ġevery body
ict or
Ġfil es
Ġreview ed
Ġeff icient
oth man
app ed
Ġbl ow
Ġind ustri
Ġext ras
Ġinter vention
Ġsub sequ
wh el
Ġrel ates
Ġins ist
Ġpo cket
Ġpres ence
Ġexam ination
Mr s
Ġed itor
Ġexpl os
OT H
Ġdescri ptive
Ġkind le
Ġgener ation
Ġadv antage
Ġ199 6
Ġcap able
IS T
Ġsol utions
Ġconst ant
Ġmem orable
ĠBe aut
Ġsign ed
Ġess entially
Ġprint ing
Ġrepres ents
Ġpaper back
Ġexcept ional
Ġsex y
Ġve nd
Ġtest s
Ġmot iv
ograph ical
Ġrecogn ition
Ġoper ate
Ġuni verse
Ġburn ed
Ġchallen ges
Ġindividual s
Ġship s
Ġoccas ions
Ġhy pe
Ġtun e
Ġcritic ism
Ġprefer red
Ġfunction ing
Ġextend ed
Ġconcent rate
Ġsurf ace
Ġmount ain
Ġsubm itted
Ġphys ical
Ġforgot ten
Ġsymbol ism
Ġwind ow
Ġcand id
Ġdisag ree
Ġdisg ust
Ġintellect ual
Ġnons ense
Ġpoet ry
Ġdivor ce
Ġcampa ign
ĠSteph en
) :
2 000
G I
I P
P res
U E
a ur
b irth
c a
c ons
f ull
m ail
n ic
r is
t es
u able
w atch
Ã ¨
Ġa ims
Ġthe ater
Ġw ed
Ġw indows
Ġw anna
Ġs ake
Ġc ake
Ġh ide
Ġh ost
Ġd yn
Ġin k
Ġre nd
Ġg ore
Ġg rown
al se
st al
st ers
ut ch
ro s
ce l
th ink
ĠC or
ĠA p
ill es
ĠS G
ĠS k
Ġpro ved
Ġsh ared
ra b
ĠM A
ĠM art
ĠM arch
il es
ere nt
Ġso cks
Ġch est
Ġch urch
ĠB arn
ĠH D
un ny
ard ing
Ġv ent
Ġen force
ĠN eed
ĠL et
Ġdis cipl
ud s
Ġwork out
Ġqu ant
Ġshould n
ĠJ ones
Ġ2 6
Ġtw enty
Ġi P
Ġunder lying
It s
Ġreal ism
Ġfin est
Ġ3 5
Ġra bbit
Ġbl ah
Ġext ensive
Ġinter f
Ġ4 00
Ġter ribly
oun ce
Ġdef l
Ġadd ing
Ġrel ax
Ġtri b
not es
Ġprov oking
Ġform ula
Ġview er
Ġlet s
Ġfriend ly
Ġass ure
Ġass ume
Ġcam er
Ġadv ise
Ġcur ious
Ġart work
Ġexc lud
Ġ200 2
Ġval uable
Ġenv is
Ġcomput ers
ĠAn th
Ġlead s
Ġaff air
Ġresol ved
go ing
Ġsent ence
Ġcheap ly
Ġslow ly
Ġrecogn ize
Ġdam aged
Ġinstruct ion
Ġlad y
ĠSch roedter
Ġfoot age
ĠMac ally
Ġsearch ing
ĠWH AT
ĠSocial ists
Ġdemonst rate
Ġexplan ations
Ġeduc ational
Ġachie ving
Ġconsist ent
Ġcontinu ing
Ġglass es
Ġexclus ion
Ġrac ism
Ġsus pect
ĠDick ens
Ġterrit ory
Over all
Ġupgr ade
ĠGamm ell
Ġflav or
Ġthous ands
Per haps
Ġnecess arily
Ġmagaz ine
Ġcompetit iveness
Ġburd en
ĠTour ism
Pres ident
! ).
6 0
A RE
I LL
M ost
M any
S ub
f ree
r ick
r ates
s pecially
Ġ ;
Ġt apes
in et
on ic
Ġw ra
Ġw ont
er ve
Ġs ings
Ġb ol
Ġb read
Ġb orrow
Ġb inding
it age
ou b
Ġf ile
Ġh at
Ġd ata
Ġe ase
id ay
Ġst one
Ġst iff
am ily
Ġan x
ĠC al
ĠC ur
ĠC ost
ĠA ir
ie f
if er
ĠS A
ĠS pe
ĠS ol
ĠM en
ĠM ill
Ġse asons
em ic
Ġcon vers
Ġde lic
ĠE asy
ĠB ow
ĠB ern
Ġsu ck
Ġsu itable
Ġor chest
est ly
ĠH ER
un ction
ĠT ake
ĠT ry
ĠD ra
Ġpl ant
Ġen able
Ġk itchen
Ġ( "
ĠF reedom
ĠF inally
ĠF ox
ĠN ove
Ġcomp on
Ġcomp ens
Ġcomp ilation
ig nt
ĠJ uly
ĠJ une
Ġpr on
Ġher itage
Ġ2 2
Ġchar ged
ell o
Ġshe er
Ġend e
gin al
ang es
ĠK N
ĠWh ere
ĠWh ich
ĠY ork
Ġri p
ĠV ictor
Ġro ots
Ġconc iliation
ĠCh inese
Ġpos itions
ern ess
Ġadd s
Ġsub tle
Ġdevelop ments
Ġdirect ions
Ġev ident
Ġev alu
Ġsure ly
Ġhor rif
Ġappro x
Ġac ad
Ġexpl ore
Ġcertain ty
Ġrece iving
Ġmark ed
Ġadv is
Ġadv ance
Ġcor por
Ġinf rast
OU GH
Ġrecord s
Ġhalf way
ĠPro secutor
ĠAr gent
Ġprom ise
ump ing
Ġfinish ing
Ġcop ies
ĠTr ue
Ġcut ting
Ġann ual
Ġlaw s
Ġdi et
Ġmar riage
Ġphot ography
Ġsad ly
Ġbreak s
Ġinfl ated
Ġinstruct or
Ġchallen ging
Ġanal y
Ġcred ibility
Ġident ify
Ġcook er
Ġrent ed
Ġnorm ally
Ġdro pped
ĠRo ad
Ġdelight ful
Ġpush ed
Ġlos ing
Ġminor ity
ĠEVER Y
ĠEuro pol
Europe an
ĠHard y
Ġinterpret ation
Ġstorm s
Ġcinem at
Ġbon us
ĠREA LLY
Ġassign ed
Ġwhe el
Ġwit ness
ĠFR OM
Ġholid ay
ĠSomet imes
Ġgramm ar
Ġbiz arre
ĠPalest in
Ġsovere ignt
ĠCorn well
Ġindustri al
Ġdyn am
ĠNove mber
1 3
7 0
C on
I A
O h
O ther
U S
W or
b ell
f e
h an
h ouse
i pping
m er
n s
o om
r ad
r ish
t ained
u um
u ous
w art
Ġ /
Ġ ?
Ġt ent
re es
re ement
Ġs alt
at ter
Ġf ires
Ġm ac
Ġp atch
Ġh ence
Ġh ilar
ĠI M
ll a
Ġd ad
Ġd ict
Ġd irty
Ġl inks
ic a
Ġe uro
ut ing
ro ad
Ġst ab
Ġst ip
am ber
Ġwith d
ra ve
ĠM P
ĠM ot
Ġse m
Ġcon ce
Ġmy th
Ġde le
ĠE C
ĠB alk
ĠH el
ĠH enry
ĠD id
Ġr amb
Ġlo vers
ĠL u
ĠL ive
ĠL ist
ĠL ife
ĠL ittle
Ġdis apoint
ĠR a
Ġrec on
Ġrec all
ab ra
Ġact s
Ġwhen ever
Ġcl arity
Ġpr iced
ond o
ount ry
ail s
Ġreal ise
ĠV en
ĠV ideo
Ġtra gic
Ġbl ame
Ġlist ing
Ġob sc
Ġadd ict
Ġdirect ed
Ġpropos ing
Ġexper iment
Ġac qu
Ġexpl icit
Ġkind s
augh ters
Ġstud ying
Ġabs urd
olog ies
aster n
gg ed
AT E
ES S
EN D
ĠAn other
ĠAn ne
Ġmet aph
Ġmem ories
Ġtit les
Ġsuggest ions
Ġresol ve
Ġtax ation
Ġcommun ities
Ġca res
Ġwater proof
Ġinstall ation
Ġstruct ures
Ġrepresent ative
Ġdam n
Ġfoc used
Ġz ero
Ġdecent ral
Ġcapt ure
Ġdeep ly
Ġru ined
Ġoccas ionally
ik u
here nt
Ġdemand s
Ġanim al
Ġanim als
Ġfix ed
ĠIntern ational
Ġtem per
Ġshock ed
Ġlos es
Ġemb arr
ĠSer ies
Ġupd ate
Ġconclud e
Ġfing er
resp ond
Ġec ological
Ġcompat ible
Ġfulf il
Ġagricult ural
Ġcompe lling
ĠAustral ian
Ġsuperv ision
abet es
Ġmonop ol
Comm ission
Ġcamer as
Ġsovereignt y
2 5
B uy
D es
F O
G eneral
K S
M ore
T V
b on
d on
r ich
r ays
s m
s er
v est
y es
Ġt empt
er ior
Ġs al
Ġb ore
it ement
it ably
Ġf ate
Ġf li
Ġf itting
en ess
Ġp an
Ġp il
Ġp unch
an et
Ġd ying
Ġin ade
Ġin ner
ar ian
Ġg rew
al y
al og
et al
et urn
Ġst ere
ay lor
Ġan ch
th ur
ĠC ould
ra ce
ĠM AN
Ġch ick
ĠB ask
Ġab use
ĠW R
ĠW in
ĠH on
ĠH as
ĠH op
um an
reat ive
ĠD IS
Ġv es
Ġv ir
and a
Ġam ate
ĠG ame
ĠG irl
ĠG reen
ĠN os
ĠL ang
ĠL atin
ag n
ĠO ct
Ġgo als
ĠU K
ĠU gly
Ġcont ract
Ġover whel
Ġpe pper
ĠSt r
Ġapp le
Ġapp lying
ĠK inn
ĠY et
Ġri pped
ĠV al
ĠTh ose
Ġaw a
Ġgot ta
Ġrem ix
Ġrem emb
Ġpur s
Ġpur su
Ġfact ory
Ġenjoy ing
Ġob st
Ġtri logy
Ġgl imp
Ġplot s
.... ..
Ġconf usion
Ġel imin
Ġchild birth
Ġappro val
Ġdefin ition
Ġconsider ably
Ġcard board
!!!! !
Ġcor respond
ploy ed
land s
ĠAmeric ans
que em
mm a
Ġmove ments
ici ans
Ġpass ing
Ġprint ed
Ġmar ried
Ġadop ting
vent ions
Ġelect ric
Ġprodu cers
Ġcomb ating
Ġcomb ined
ĠUS A
Ġrepresent ed
Ġtreat ed
Ġsw ing
Ġoper ators
sc ar
Ġtouch ed
Ġremind ed
Ġintrodu cing
Ġcarry ing
Ġscient ists
Ġbal anced
Ġnat urally
Ġredu cing
Ġdownload ed
Ġcin cher
Ġargu ment
Ġdream s
Ġbrief ly
Ġparliament s
ĠMU CH
Ġstrugg le
Ġble nd
ĠBel g
Ġang ry
ĠJul iet
ĠSci ence
ĠRep ort
Ġinspir ing
Ġattract ive
Ġhi king
Ġinvolve ment
ĠSher lock
Ġchem ical
Ġunus ual
ĠAct ually
Ġchann el
ĠDemocr ats
Ġintent ions
Ġrele ases
Ġredeem ing
ĠRich ard
OUN D
App lause
Ġing red
Ġempt y
Ġmagnific ent
Ġdispar ities
Ġcinemat ography
Ġinade qu
ĠKinn ock
Ġrememb ered
B l
B y
B ecause
C R
C OM
E M
M an
O C
a ci
m ble
p in
p od
r ary
r ants
t ical
u v
v in
w ed
w ind
z es
Ġ `
Ġt all
Ġt ick
Ġth read
in ator
re te
Ġs ales
Ġc ash
Ġc roc
Ġf ro
Ġf aced
es ter
es us
Ġh ung
Ġh anging
Ġh idden
an o
Ġl ens
Ġre duction
ic ated
Ġg ay
Th ird
oo ps
ad ly
Ġst able
Ġwas ting
Ġan cient
ĠC o
ĠC GI
ir ms
ĠA c
ĠS C
ĠS P
ĠS ec
Ġpro ves
ul s
ĠP ol
ĠP eter
ĠB ur
ĠB EST
ĠW AY
ĠT aylor
Ġv ul
Ġen emy
Ġr an
ind er
ĠF re
ĠN ic
ĠN ob
itt ees
Ġdis hes
ĠR EC
Ġqu e
Ġrec overy
Ġco al
oy ote
oint ed
ĠJ ew
Ġcl ick
... ]
Ġ2 3
ber g
ond on
te ch
Ġsee king
Ġper f
Ġinc ident
Ġinst antly
Ġsp ark
Ġconc rete
Ġstr ing
oc key
Ġdec ades
Ġ3 2
Ġra w
Ġset t
Ġcr imes
Ġcr ude
Ġown er
Ġsub tit
ian o
Ġsupport s
Ġret ail
Ġinv ent
Ġeconom ies
Ġhand y
Ġcour ts
Ġed ges
Ġdet ect
Ġexp and
Ġfr ank
Ġwa ited
ĠTHE Y
Ġadv oc
Ġcompet itive
rist mas
Ġcontro vers
Ġmind s
Ġval id
ĠPro f
Ġschool s
Ġrespons ibilities
Ġsuper f
Ġpicture d
Ġallow ing
Ġdi versity
Ġfour th
Ġequ ip
Ġvis ible
Ġport s
Ġimag inative
Ġfair y
Ġmill ions
Ġextra ord
Ġlaugh s
Ġlaugh ing
Ġoper ating
ĠEvery one
Ġuni vers
Ġintend s
Ġdraw ing
Ġrad ical
Ġsix th
Ġmult i
Ġbelie f
ett a
Ġident ity
Ġfrustr ation
Ġcontr ast
Ġanim ation
Ġdemonst rated
ĠPh il
ĠPat ten
Ġcommit ments
Ġsatisf ying
ĠKing dom
Ġdoll ar
Ġjour nal
Ġcart rid
Ġmel odies
Ġterrif ying
ĠScar p
ĠDes cent
ĠSw ed
Ġremark able
Ġneighb our
Ġsam ple
ĠSu per
Ex cellent
Ġsurround ing
Qu estion
ĠTom cat
Ġvac ation
Ġoppos ite
ĠAfric a
Ġexcess ive
Ġalloc ated
Ġartic le
Ġbutt ons
Ġperman ent
Ġenterpr ises
ĠWil son
ĠGar cia
Ġhilar ious
" )
) )
. '
B C
L ove
M aybe
T oo
T ech
U RE
d isc
h appy
i q
l im
o ir
r ont
u it
w in
Ã ³
Ġ )
Ġt or
Ġt ur
Ġw itty
Ġb ur
Ġb ab
Ġb row
Ġb ump
at ural
ou st
Ġf u
Ġf alse
en ary
or se
Ġp ed
Ġto oth
ing u
Ġh ose
Ġd ust
Ġd ress
ar row
as ure
Ġn u
Ġg ar
Ġg al
Ġg ard
Ġg ross
le arly
Ġe ating
Ġbe ach
ent ic
ro ph
Ġst or
ke nd
ur ance
Ġan t
Ġan ten
ĠC age
ĠC ave
ĠC ON
Ġbook st
ri an
ĠA re
ie ved
if orn
ill ian
ĠS ure
ĠS ee
Ġsh ots
Ġse am
ĠThe ato
Ġli beral
ĠP ot
ĠE specially
ĠB ack
ĠB ET
Ġsu cked
Ġab st
ĠH ave
ĠH els
Ġme at
ĠT e
ĠD amme
Ġpl enary
Ġv s
Ġr ay
ĠG ive
ĠL is
ĠL arry
ag ine
ag ger
ĠR y
Ġman ages
ink i
Ġimp lic
Ġcont rived
ass ed
form er
Ġi Book
ac les
ac ular
Ġback pack
Ġte le
Ġsp r
Ġsp are
Ġsp ite
Ġsp read
Ġcomm ittees
Ġenjoy s
Ġent itled
Ġbl ur
Ġfun ctions
Ġinter m
Ġfl o
Ġlist s
oun g
In st
Ġtrans ition
Ġcoll ab
cri ption
ath an
Ġexam ine
Ġexp ression
RE E
Ġbat t
Ġhead phones
Ġ200 6
Ġtext s
ĠTr uth
Ġmess ages
Ġpract ically
ĠFr iday
Ġpass ages
Ġinstit utional
Ġimag ery
Ġexcept ion
Ġsuccess fully
Ġprep are
Ġrock et
Ġresearch ed
Ġstrate gies
Ġlab our
Ġsn ow
Ġsend ing
ĠFund amental
Ġaccess ible
Ġwel com
Ġinsight s
Ġselect ions
Ġgovern ance
Ġoccas ion
vere st
Ġguarant ees
Ġspirit ual
Ġvehic le
Ġir re
Ġredu ced
Ġencoura ging
Ġinn oc
Ġsmell s
Am azon
Am erican
Ġfirm ly
ĠSte ve
Ġluck y
Ġthrill er
ĠDes pite
urs day
Ġfol k
Ġconfirm ed
ĠLI KE
Ġsimpl istic
Ġdepart ment
Ġbehav i
ĠEconom ic
Ġtort ure
Ġunint eresting
Ġxenophob ia
Ġreven ge
ĠTot al
Ġsubstant ial
Ġnewsp aper
Ġrefres hing
Ġash amed
Ġvend or
ĠAnth ony
Ġmonopol ies
Commission er
ĠBask erv
Ġanten na
- )
0 10
A ccording
L O
P s
S P
U M
V AB
] .
b al
b les
g le
h op
i able
k in
o oth
t aking
v oid
Ġt ang
re ts
is y
er ved
Ġs an
Ġs om
Ġb ent
ou thern
Ġc ow
Ġf ict
en z
or ter
or ous
es ion
ed ly
ĠI rish
an cial
Ġd er
Ġd omin
Ġin j
Ġre act
om an
Ġn ut
Ġn ations
Ġg y
Ġbe aring
ad v
ro pri
id os
gh ter
Ġyou th
ch ool
Ġha iku
ĠC R
ĠC ity
all el
ĠA D
if ting
ĠS an
ĠS ound
ĠS outh
ĠS umm
Ġpro port
ĠM ount
Ġse es
Ġse ams
em ption
ul ations
ul ating
Ġso ph
ĠP S
Ġch ips
ĠE ric
ĠE astern
ĠE verest
ol k
ĠH ome
ĠT omb
ĠD el
act ive
end ed
ĠF UN
ĠN one
ĠL ight
ĠL OT
ĠL ondon
ous y
Ġdis p
Ġsome body
ĠR oll
Ġqu ote
Ġun fortun
Ġco ff
Ġbu ll
Ġbu ff
ĠJ on
ĠJ abra
ĠJ esus
... "
Ġover view
Ġsc and
Ġar ms
ep ing
ĠSt ay
Ġte a
ĠUn i
Ġfilm ed
Ġrep ut
Ġsp ort
ĠTh ursday
Ġtra in
Ġdec ade
ĠCh ina
ĠCh amber
Ġcons olid
ĠIn c
Ġinter pre
Ġmon etary
cept ion
Wh ere
wh en
Ġprogr ams
Ġiss ued
be it
Ġeffect iveness
ather ine
cil iation
.... ...
Ġsing ers
Ġpolit icians
Ġexpl o
Ġdescri bing
Ġdefin ed
ruct ure
Ġmark s
Ġpresent ing
Ġwee kend
Ġgener ations
Ġexc itement
Ġregard less
Ġcor ner
Ġcreat ivity
-- -
Ġloc ated
Ġlack ed
Ġdri vel
Ġintro duct
Ġcountry side
Ġlead er
Ġann ounced
Ġspeak s
Ġimm ense
Ġsign s
Ġfriends hip
Ġlarge ly
Ġess ence
Ġspend s
ĠCl an
Ġvis iting
pri l
Ġdev oted
Ġtest ed
Ġarri ve
Ġcrit ics
Ġep ic
Ġrecogn ized
ĠLe ft
Ġjud ge
Ġapplic ations
Ġannoy ed
Ġgra ce
Ġgraph ic
Ġhistor ic
Ġheav ily
Ġbelie ves
Ġfoot notes
ĠMin utes
Ġpull ed
Ġoccas ional
Ġrev ol
ĠWH O
enn ium
An other
ĠSocial ist
Ġadvent ures
!!!!!!!! !!!!!!!!
Ġsqu ee
Ġleak s
Ġwood en
Ġmurd er
Ġnation als
Ġconven ience
Ġconven ient
ĠDis ney
Ġoccur red
Ġupd ated
ĠCont rol
Ġbelong s
Ġassoci ated
Ġguest s
Ġvirt ually
Ġagricult ure
Ġcontem porary
Ġstrict ly
ĠCent ral
Ġphr ases
Ġrhy thm
Ġfarm ers
Ġdestroy ed
Ġsli p
Ġboo st
ĠSyri a
ĠLi beral
Ġmax imum
Ġyell ow
ĠBu end
Ġtremend ous
ĠTI ME
ĠKN OW
Ġamate ur
Ġcoal ition
ĠScarp etta
Ġbookst ore
ĠHels inki
3 5
A d
F R
F i
P l
R ead
T M
T O
T wo
T oday
a us
a fter
c omm
c ommend
f iction
h ave
j ud
k er
l ow
l ong
m on
o ber
p o
s ome
v ille
w ord
y e
z ing
z ed
Ġt ie
Ġt ag
Ġth umbs
re ens
Ġw ars
Ġw ond
Ġb its
Ġb omb
Ġf ake
en stein
Ġm icro
Ġp it
Ġp ity
Ġp ays
Ġto ss
es c
as m
Ġl it
om y
om er
Ġn ine
ve t
Ġg ang
Ġg els
ot es
Ġe arned
Ġbe ads
Th ough
ad a
se ts
et ooth
im ents
th ere
ĠC oh
ĠC ode
ĠC OULD
if orm
ĠS am
ĠS ur
ĠS un
ĠS EE
ĠP oor
ĠP aul
ĠB L
Ġsu n
ist a
ist ant
ate ful
est yle
ĠW ish
um ber
ĠD ou
ĠD ID
ĠD olly
ard ed
Ġout let
ĠF ort
Ġam using
ĠN ees
ĠL ong
ĠL ast
ĠL ew
ĠL uck
Ġtime ly
ĠR ules
ĠR eturn
Ġad ap
ĠO UT
Ġun e
Ġun ex
Ġco dec
Ġbu ck
ĠU nder
ĠJ o
Ġcl imate
Ġover ly
Ġres ort
ach ing
od ile
nder ing
ens us
Ġdes ired
ĠUn like
ĠK ate
ub th
ne g
Ġsp ring
ĠV ir
ĠV ersion
Ġgr asp
ĠAm ish
Ġnever theless
we et
velop ment
con t
Ġtrans actions
Ġpers ons
be at
Ġgl ue
Ġgl itches
Ġbr ut
Ġform al
Ġpolit ically
Ġchild hood
Ġhor se
Ġsch ed
Ġgener ated
Ġtop ical
Ġstand ing
Ġ199 4
Ġspec ulation
Ġspec ulative
Ġsty les
OR ING
Ġadm ire
Ġpack aged
Ġplan e
Ġbed s
Ġstrong er
ĠCon stit
Ġpick s
Ġperform ed
Ġur gency
Ġresol utions
Ġmar vel
Ġport able
Ġca using
Ġcheck ing
Ġhon ourable
Ġcontrib utions
Ġkill ing
Ġindust ries
Ġorgan ised
Ġfavour ite
Ġappropri ations
Ġsumm ary
Ġcomplain ts
Ġtransp arent
ĠST AR
** **
enn ifer
Ġlay out
Ġappear ance
Ġemphas ise
Ġnet works
ĠMad onna
Ġflaw s
ĠMus iq
ĠChar ter
Ġcli ps
$$ $$
arth y
Ġparagraph s
Ġteen ager
Ġment al
Ġreject ed
ONE Y
Ġconvin cing
Ġmethod s
Ġpsych ological
Ġdeterm ine
Ġquot es
Ġinspir ation
ĠAS VAB
ĠMon etary
Ġ197 0
Ġconsult ation
ĠAT I
Ġdrug s
Ġwash ed
Ġtack le
Ġsyn th
Ġinspect ion
Ġfif th
Ġimmig rants
Ġfac il
ĠMark et
Ġcyc le
ocol ate
Ġprompt ly
Ġsen ior
Ġreli able
ĠHall oween
Ġcontrad ict
Ġutter ly
Ġintrigu ing
ĠMeg an
Ġmyster ious
ĠWild erness
ĠChild ren
Ġprop ag
Ġmedic ine
Ġcandid ate
ĠiP od
Sub ject
Ġves sels
ĠLang en
Ġglimp se
Ġingred ients
Ġsuperf icial
Ġequip ment
Ã³ n
Ġstor age
iforn ia
ĠNees on
0 7
1 7
1 8
A re
C ons
D ER
E L
M ar
O r
R eg
T W
U P
V ED
W ould
W ill
b i
c ase
c any
d aughter
f all
f ers
l am
m ans
o ving
r ating
s he
Ġ ice
Ġt v
Ġthe ories
Ġw ake
Ġw ider
Ġw arned
Ġs ke
Ġs outh
Ġb reed
it ors
at i
Ġc row
Ġf ly
Ġf ederal
en ced
Ġm ild
Ġp ants
Ġto w
ing er
Ġh arsh
Ġh ockey
ed s
ĠI F
an es
Ġd in
Ġin put
Ġre read
Ġre ward
ion e
Ġn ic
Ġn ud
Ġg ig
Ġg ained
st r
ut er
ent ious
Th en
ad ow
Ġy a
Ġst inks
Ġst unning
ce ived
Ġwe ather
Ġwe aken
ur a
ur ate
ĠC A
ĠC F
ĠC raw
ĠC ulture
ĠC reative
ri ve
ĠA M
ĠA le
ĠA dd
ĠA rab
ĠA pril
Ġpro ph
ust ed
Ġsh r
Ġsh ake
Ġsh ell
ĠM er
Ġse g
il m
Ġex ha
ĠP H
Ġde als
ĠE mp
ĠB ill
Ġsu m
Ġsu ng
ant a
Ġread able
ĠW og
ĠW ERE
ĠH i
ĠH aving
ĠH OW
ĠT im
ĠD ig
Ġv ig
Ġv ague
Ġjust ified
ound ing
ast ered
end ing
ĠG en
ĠG ra
Ġtr ite
Ġthere by
Ġlo ving
Ġlo gic
ĠL ee
ag a
ag an
ĠR ad
ĠR ob
our g
ĠO scar
Ġrec over
Ġun iform
ab ling
ĠJ ud
ĠJ UST
Ġpre view
per ts
Ġ2 8
Ġover look
Ġres erv
orm al
Ġar m
Ġper pet
Ġunder m
Ġunder ne
gr ass
Ġte ars
az e
ĠK ar
ĠTh ink
Ġro lling
Ġgr ateful
Ġfin ance
Ġseem ingly
Ġpur pos
Ġauth entic
Ġent ry
app ropri
Ġho lly
Ġord inary
Ġinter action
Ġhard ware
Ġclass ical
Ġtrans national
ug s
Ġmin i
Ġret ain
Ġunderstand able
Ġleg ally
Ġide al
Ġhand les
Ġed ited
Ġed itions
Ġlet ting
Ġfr anch
Ġhor ribly
Ġdefin itive
Ġ19 50
Ġscen ario
Ġgener ic
Ġbit ter
Ġcompet ence
Ġ199 5
Ġcreat ures
Ġappe aling
Ġsol ve
Ġsol ved
OU T
EA SE
ĠAr thur
Ġdist inct
Ġbro wn
Ġfall en
Ġplan et
ĠCon vention
Ġenvironment ally
Ġ7 5
ĠBe ing
Ġdi abetes
Ġcitiz en
Ġtax p
TH ING
Ġport ion
ann ed
Ġtest ing
Ġphot ograph
ron ics
Ġprep aring
AR D
Ġfire man
ĠZ en
arr is
Ġlaugh able
ĠMar ia
ĠWith out
Ġfeat uring
Ġbudget ary
Ġsuff er
Ġsuff ering
Ġhumor ous
Ġcast le
Ġemot ionally
Ġillustr ated
Ġmed ical
Ġconv ince
Ġweak ness
Ġimmedi ate
Ġcollect or
Ġsequ ence
Ġrev ision
Ġdest ruction
Ġremain ing
Ġbar ri
Ġaim ed
Ġtend s
Ġspo ke
Ġsignific ance
Ġunc ertain
Ġsuspense ful
Ġmer it
Ġincreasing ly
Ġintellig ence
Ġnarr ator
Ġthrill ed
Ġcli p
ĠInt o
ĠIsrael i
Ġmurd ers
ĠComp any
ĠJul ia
ĠWOR K
ĠRep ublic
Ġoblig ation
ĠRec ommend
Ġisland s
Ġgri pping
Ġschem es
Ġfing ers
ĠAg ain
Ġtechni que
boy s
ĠPar is
Ġclim ax
Ġcontem pl
Ġinvestig ation
Ok ay
ĠNor th
eng en
Ġeth nic
Ġvamp ires
Ġbug s
ĠMcC arthy
Ġsevere ly
ĠTus cany
ĠDisc world
ĠOp rah
Ġprosper ity
Ġaband oned
ĠBarn ier
Des pite
ĠHon estly
ĠOct ober
Third ly
Ġunfortun ate
Ġcoff ee
ĠCoh esion
Ġcodec ision
ĠWog au
Ġunderne ath
Ġpurpos es
Ġholly wood
Ġfranch ise
. (
5 5
B ig
C om
E LL
H ING
I nt
N OT
O K
R ep
T ING
W as
W ow
Y our
b a
b ased
c us
c over
d ate
e ep
f rom
g ence
h ile
h arm
i pp
i que
l ers
l aw
m other
m akers
n z
r int
r ical
s hip
u ven
y y
Ã ¼
Ġ +
Ġw is
Ġw arn
er ves
Ġs ized
Ġb arg
it ative
it ute
Ġm ap
Ġm ouse
or a
or ig
Ġp ile
Ġd ump
Ġl es
Ġl unch
Ġn av
Ġg em
Ġg iant
al though
Ġe M
Ġbe ars
ut en
ct ional
ro ck
se us
ook s
Ġwas nt
Ġwe igh
Ġan th
ĠC OM
ĠA W
ĠS D
ĠS at
ĠS im
Ġpro ven
Ġpro sec
Ġsh red
ra int
ĠM al
ĠM ake
ĠM ade
ĠM ONEY
il st
ul ary
ul ates
Ġne ck
Ġch ristmas
ĠE li
ĠE mma
Ġwor ried
ĠB and
ĠB ank
ĠB ORING
Ġj amm
us ic
el ine
rom a
ĠW al
ĠH arry
um er
ĠT ri
ĠT erry
ĠD i
ĠD og
os en
Ġhe ck
Ġtim ber
ĠF P
ĠF ore
ĠF ree
ĠF IN
ĠF arm
Ġno body
ĠG ot
ĠG eneral
ĠN athan
Ġlo aded
ĠL A
ĠL ots
Ġdis e
ag o
ĠR ice
ĠR ab
int age
Ġun w
ĠEurope ans
ab e
ab ulary
pl aced
ĠJ ennifer
Ġpr ime
Ġsc ra
Ġstory tell
Ġdon ors
Ġreg ime
Ġinc lus
Ġend less
Ġfil ter
ĠV ice
Ġaw hile
Ġcomm and
Ġra ck
Ġent re
Ġwhere as
Ġind ex
ĠTH AN
ĠTH ERE
ced ure
Ġmat ure
Wh o
Ġver s
Ġlast ing
Ġref ers
ug ged
Ġpers u
Ġmin imal
Ġcomple ted
Ġche cks
Ġev ol
Ġdet ract
Ġview ers
RE D
Ġhor iz
ĠAs ia
Ġprin ters
Ġpret entious
Ġreason ably
Ġreturn s
Ġabs or
Ġhead s
Ġ200 5
Ġcou ples
Ġsol itude
Ġcover ing
Ġiniti ally
Ġcra ppy
Ġamend ed
ĠCon f
Ġpick ing
ĠBe ar
Ġdi am
ĠFr anc
Ġpar ad
Ġocc up
Ġexcept ionally
Ġlim its
Ġmanufact uring
ĠRe form
ĠAt l
Ġsupposed ly
Ġrecogn ised
ĠSe attle
Ġjud ges
Ġapplic ant
Ġsuff ered
Ġben ch
Ġvol umes
Ġappreci ated
ĠPortug al
Ġdeli vers
Ġvoc al
ĠInst ance
Ġslight est
sequ ently
Ġident ical
Ġadvert ising
Ġaffect s
Ġboot leg
IG IN
Ġexplain ing
ĠHA D
Ġhook s
ĠPat ric
wr iter
erson ally
ĠGu ide
Ġpuzz les
ĠPal aci
Ġprotect ing
Ġdeg rees
Ġremark s
ĠPower book
Ġvisual s
Ġportray al
Ġsurv ive
Ġmechan isms
Ġqual ified
ĠSher i
Ġdistrib uted
Ġimmig ration
ĠAfric an
Ġbehav ior
ĠSimple Tech
Ã¶ r
Ġemer gency
ĠYe ars
Ġobserv ations
Ġrout ine
Ġmir ror
Ġbeg un
kel ter
ĠOdys sey
Ġspect acular
ĠBarb ie
Ġcraft ed
Ġsatisfact ion
Ġprotagon ist
Ġnightm are
Ġalt ogether
ĠHope fully
Ġsubsequ ent
Ġwed ding
Ġtrib ute
Ġexclud ed
ĠBow ie
ĠVictor ian
Ġadvis ers
ĠArgent o
Ġwithd raw
ĠBalk ans
ĠRa ider
ĠVen us
Ġobsc ure
ĠHop kins
Ġoverwhel ming
Ġsubtit les
ĠBET TER
Ġimplic ations
Ġbatt les
ĠCraw ford
ĠPalaci o
2 2
A LL
B ad
D O
D P
D uring
E n
F r
H el
I M
I ES
J ones
N E
N ING
O IN
a a
b ro
c racy
c ountry
d ance
l itt
m ind
p ensive
r am
r un
s chool
u ment
z a
z il
Ġ ..
re ak
Ġthe r
Ġw o
er ball
Ġb ars
Ġb ank
it i
it ical
Ġc ab
Ġf i
Ġm akers
Ġp apers
Ġp iano
Ġin hab
Ġin acc
ar i
as hing
Ġl oo
Ġre n
Ġn arrow
ot hing
Ġe ager
ent ist
Th anks
ver ning
et ition
Ġst ations
Ġha ll
ur is
ĠC L
ri x
ter bury
ir thing
ĠS uch
ĠS kelter
Ġsh irt
Ġsh oe
Ġsh orter
ĠM oon
ĠM othman
Ġcon j
Ġcon vey
Ġli ber
Ġso ap
ck he
Ġne at
Ġne ph
ĠP et
ĠP ur
ĠP ri
ĠP ET
ĠP PE
Ġal beit
Ġch ip
ĠE xt
ĠB D
ĠB O
ĠB R
ĠB o
Ġsu ms
Ġj awbone
Ġdo zen
ist ory
ist ics
ant e
Ġor al
op s
ĠW ed
ĠW AR
ĠW OULD
ĠH u
ĠH and
ĠT re
ĠD utch
Ġpl at
Ġhe aven
Ġjust ify
ast ically
ap ing
ĠF ee
ĠF inn
Ġgood ness
ĠN et
ĠN ap
ĠN ext
ĠL ib
Ġdis adv
ag ement
ĠR os
Ġqu ar
Ġun st
Ġman ip
pl ic
Ġco herent
ission s
ĠU FO
ĠJ oe
ĠJ eff
Ġpre ced
Ġpre hist
Ġpre jud
Ġpr ison
Ġres ist
Ġres ident
ose x
ach es
iz ations
Ġevery time
Ġi pod
Ġinc om
Ġinc est
ac ie
Ġend orse
az litt
ip her
ark s
ĠV ol
ĠTh ought
Ġstr uck
oc a
Ġtra ve
Ġcons ensus
ĠPresident s
app ing
Ġset up
Ġsound ing
Ġext rem
Ġop ens
Ġgame play
Ġtrans lated
Ġref used
lud ing
Ġ5 00
Ġcomple ment
Ġsy m
cri pt
ĠHe art
ted ly
Ġform ed
ĠAl bum
ĠTHE M
Ġdefin ite
Ġsl ot
Ġ19 4
Ġpret end
pr int
Ġcontin ent
Ġhold er
OU S
ĠPro cedure
Ġdr ink
Ġfinan ced
elt ic
Ġpublic ation
ott om
Ġrespect s
old s
Ġentertain ed
Ġdi ary
Ġpar an
Ġbus y
Ġprof it
Ġguess ing
Ġsurpr ises
for ward
Ġdev ices
Ġstay ed
Ġcomb ine
Ġ198 0
Ġfire men
ĠDe velopment
ĠWith in
Ġstra p
Ġsn ap
Ġdraw ings
ĠPe arl
Ġdog s
Ġappreci ation
Ġcast ing
OW N
ĠEx cellent
Ġdead line
Ġpeace ful
Ġdeser ved
Ġpull ing
Ġwarm er
Ġmeaning ful
Ġtravel ing
Ġprevent ing
Ġ: (
Ġconsid ers
Ġbenef its
Ġpat ience
ĠRead ing
Ġfre ak
Ġrecyc led
Ġparticip ate
Ġspo ken
Ġpleas ant
ĠIntern al
Ġsubs id
pre ne
Ġminor ities
Ġfra g
Ġsqu are
Ġindepend ence
Ġprim ary
Ġjump s
Ġfeed ing
Ġconcent ration
urch ased
ĠEn joy
Ġdimension al
Ġearth qu
Ġmass ive
Ġperm it
Ġundert aking
Ġult imate
Ġexclus ively
Ġdisplay ed
ĠGree k
Ġadapt ation
Ġdecl ared
Ġscrew s
Ġportray ed
Ġgif ts
Ġce iling
Ġmechan ism
ĠAB OUT
Ġclich e
Ġincorpor ate
Ġincorpor ated
Ġdub bed
Ġunus able
Ġassum ed
Ġsole ly
ĠDirect ive
Ġdistrib ution
Ġchann els
ĠWW I
Ġdism ant
ĠEconom ics
Ġspl it
Ġbureau cr
Ġbureau cracy
ĠOR IGIN
ĠOdys seus
ZZZZ ZZZZ
Ġaccomp an
Ġaccomp any
Ġtheat re
Ġesc ape
Ġded icated
Ġdeleg ation
ĠChe ck
Ġcondem n
ĠWay ne
Ġjudg ement
Ġignor ant
Ġaccompl ish
Ġsafegu ard
ĠFlore nz
ĠAMAZ ON
Ġlog ical
Ġexplos ions
Ġenforce ment
oub tedly
ĠCal ifornia
Ġcompon ents
Ġinfrast ructure
ĠPalestin ian
Ġdisapoint ed
More over
Ġinadequ ate
Ġfrank ly
Ġextraord inary
ĠBuend ia
ĠLew is
Ġpropag anda
Ġcrow d
Ġnud ity
appropri ate
ĠFP Ãĸ
Ġentre prene
ĠPatric ia
ckhe er
Ġneph ew
ĠFee han
0 1
A g
F F
F oundation
G B
I m
R ec
S IC
S pecial
U D
Y et
b u
b ish
b uster
e le
f ather
h am
k ay
k ind
l ings
m a
m art
t able
v ation
x ic
z ab
Ġ ~
Ġ vel
Ġt ile
Ġt orn
Ġt ips
in ch
in th
on n
Ġw at
Ġw ise
Ġw ides
Ġw aters
Ġs oo
Ġs ought
it ly
Ġo h
at ical
Ġc ere
Ġc ert
Ġm as
or ial
Ġp or
Ġp aced
Ġp orn
es is
Ġh ers
Ġin sec
Ġin equ
as ion
Ġis nt
le an
le ans
al so
st ick
Th ose
et ween
et ime
ay ers
im er
Ġha ck
ur istic
ĠC ast
ĠC amp
ĠC arl
ĠC AP
ĠC atherine
ri or
Ġas ks
Ġas pir
if est
ĠS ir
ĠS ME
Ġbut ter
ĠM akes
em ed
Ġex pend
Ġal ien
Ġde pl
Ġch oo
Ġch oppy
ĠE L
ĠE r
ĠB IG
Ġsu ited
ess ions
Ġj e
Ġj uris
Ġdo ct
ist an
est ic
ĠW ood
ĠW onder
ĠW arn
ĠW estern
ĠH ot
un es
Ġhas s
ĠT ech
ĠD ont
ĠD TS
Ġout er
Ġtim et
Ġr ates
Ġk it
Ġno ises
ĠN az
Ġcomp ly
ĠL ab
ĠL ED
Ġdis se
Ġdis like
ag ers
ĠO ur
Ġun known
Ġbu zz
ĠJ our
Ġcl an
Ġpre f
... )
Ġpart ner
Ġ2 7
Ġover se
Ġspe ll
Ġnew ly
ĠSt ars
Ġte ens
ens ible
Ġser ves
ever al
Ġrep rint
Ġbooks h
Ġri ve
ĠV el
Ġro ot
Ġtra iler
Ġdec or
Ġdec ides
ĠCh apter
Ġcons erv
Ġ3 6
Ġfact ors
ob y
Ġbel t
Ġenjoy ment
Ġbl and
Ġbl own
Ġdef ence
appoint ed
Ġtrans m
ug ust
Ġcoll ar
Ġph ase
Ġdirect ing
Ġsecond ly
Ġhum our
Ġboth ered
Ġform ing
ĠAl most
Ġsur g
RE S
ract ion
ĠAs s
Ġav id
Ġdeb ated
Ġdeb ating
Ġdra gged
Ġbegin ners
ash ed
Ġart istic
Ġhope fully
Ġcontro lled
Ġmind less
Ġ199 0
Ġsk ipped
Ġlight weight
ĠSh ould
ĠSh ort
ĠSh ame
Ġ8 1
ĠNOT HING
Ġcra w
ĠAr t
Ġfinan cing
Ġinvol ves
Ġamazing ly
Ġtit led
Ġsuggest s
Ġess ay
Ġinstit ution
Ġelect ronics
Ġattempt ed
Ġfood s
Ġmill ennium
Ġmodern isation
Ġcontrib uted
Ġpost p
ĠWor th
Ġorgan ized
ĠDe an
Ġmaster ful
ĠSp ider
Ġinfl ate
Ġtouch es
Ġenlarg ed
Ġinvest ments
Ġintrodu ces
ĠPl ay
ĠSch engen
Ġbrand s
Ġconv ention
Not hing
onst ruction
Ġvoc abulary
Ġpull s
Ġadvert is
Ġrefer ring
ĠWH EN
Ġrelev ance
ĠMont i
Ġencoura ged
Ġut il
Ġindic ate
Ġdemonst rates
ĠPat rick
Ġemploy ed
Ġmach ines
ĠSte wart
Ġdelight ed
Ġunc lear
Ġpure ly
Ġvict im
Ġmel od
Ġconsist ently
Ġwide ly
Ġcamp ing
IR ST
reg ional
Ġstri pped
Ġbase ball
Ġvib e
Ġland sc
tr ans
Ġdeterm ined
Ġsucceed ed
Ġopt im
Ġlif estyle
Ġtre nd
Ġadapt or
Ġinnov ation
ĠEm ployment
Ġchem istry
Ġrestrict ed
ĠIm agine
ĠREA L
Ġge ographical
Ġwhe els
Ġcup s
Ġartic les
Ġcas ual
Ġpun ish
ĠRome o
Ġfo am
ĠBra zil
Ġsatisfact ory
Ġlegit imate
IGH T
Ġsle pt
ĠMo vie
Ġenlight ening
Ġinex pensive
Ġmut ual
Ġemp ath
ĠBeat les
Ġacknow led
Ġhous ing
Ġirrit ating
Ġmand ate
Ġinev itably
Ġpattern s
IB LE
ĠBudget ary
Ġpregn ant
ĠSk ip
Ġdefl ate
Ġende av
Ġdele ted
ĠList en
Ġtemper ature
Ġperf ection
Ġinnoc ent
Ġbehavi our
Ġfict ional
ĠMount ain
ĠJon ckheer
ĠVir gin
harm a
ĠPri ze
Ġprehist oric
" ?
1 4
1 6
C OS
F our
H ad
H igh
P urchased
S C
S ure
a ire
b ian
d ed
e k
f in
f it
f ast
f ire
f ting
i pe
i pt
n el
n atural
p aced
r iment
u ing
w ar
Ġ 99
Ġt act
Ġa in
Ġth ro
in ter
re p
Ġthe rap
Ġw rest
Ġw estern
is ive
Ġb irthing
Ġc u
Ġc ell
Ġf uel
or ient
Ġp ressed
Ġp ushing
ing e
ll er
Ġd ud
Ġin appropriate
Ġl id
Ġl one
Ġl au
Ġl iner
Ġre vel
Ġre iter
Ġre verse
Ġn ative
Ġg as
le m
ot land
Ġe ld
Ġe arn
ut ting
ad el
Ġnot ification
Ġan k
Ġan ec
ĠC oyote
ĠA P
ĠA w
ĠS N
ĠS ong
ĠS af
ĠS ounds
Ġsh aring
ra in
il s
il ater
Ġcom ic
Ġli ghter
ĠP en
Ġch ase
Ġch osen
ĠE ar
ĠB Y
ĠB at
Ġj un
ol er
ĠW olf
ĠH IS
un ately
ĠT em
ĠD ur
nt il
ci ence
Ġv in
Ġv intage
and ering
Ġr ational
ast s
ĠF un
Ġam erican
ĠG il
ĠG AME
ĠG reens
ĠN ice
ĠN ational
Ġcomp uls
Ġlo b
Ġlo y
ig ning
ĠL P
ĠL o
ĠL iam
ĠL egal
Ġdis j
ĠComm un
ĠR es
ĠR est
ĠR ings
Ġqu ir
ĠO m
ĠO ld
ĠO ff
ĠO ffice
Ġrec commend
Ġun su
Ġun even
Ġun happy
ĠJ erry
Ġimp ose
per ately
Ġover rated
Ġover night
Ġsc oot
iz er
ep th
Ġbuy ers
og an
Ġoff ering
Ġinc on
ac le
ac ies
Ġte ar
urn ing
Ġapp oint
Ġinst ant
ĠK och
Ġgu ard
Ġri ff
Ġconc ise
ost el
Ġtra ins
Ġke en
Ġra in
Ġthought ful
Ġinter ventions
ign ed
Ġfew er
Ġdef ine
Ġdisc s
Ġlast s
Ġins uff
be ar
Ġgl or
Ġreport ed
man n
Ġorigin als
Ġpropos es
Ġide ology
Ġap olog
Ġperson ality
Ġdet ective
Ġdet riment
Ġview point
Ġexp ense
ont in
Ġturn er
Ġrece ipt
Ġ19 5
pr iced
Ġty pos
Ġrest aur
Ġconsider ations
Ġcur tain
Ġabs ol
Ġopen ness
AT ION
com p
Ġsupp lement
Ġinf erior
Ġ200 1
arge ls
Ġloc ations
Ġprinci p
Ġadm ir
EN ER
ĠAn gel
Ġregul arly
Ġbed room
itch ed
Ġstar ring
ĠTr ust
ĠDon ati
Ġpract ices
Ġlaw y
Ġfail ing
ps on
Ġprint s
TH ER
Ġequ ival
ĠCl ub
Ġexcept ions
for ced
Ġprodu cing
Ġmot ions
Ġsoon er
Ġlow est
ĠCan terbury
set te
Ġrepresent ation
ĠSc ott
Ġstop s
Ġtreat ies
ĠSe a
Ġguid ance
Ġorgan isation
Ġlaugh ed
Ġoper a
Ġoper ational
mb ly
ĠON LY
IT E
Ġrequire ment
Ġconnect or
Ġconnect ing
Ġmen u
Ġproced ural
ĠEx perts
no x
Ġrepe ating
umb led
Ġcapt ures
Ġcapt ured
Ġvot es
Ġcollect ions
Ġselect ed
Ġdeath s
Ġmeaning less
ĠArtic les
Ġsearch ed
Ġru in
ID E
Ġmonit ored
Ġign ored
ĠDO ES
Ġassist ants
ener ation
Ġclos ing
Ġbi kes
Ġtown s
Ġinstrument al
Be fore
Ġcat alog
Ġmer gers
Ġextend ing
Ġpen ny
Ġmil es
Ġbag s
ĠMO RE
Ġguitar ist
umm er
Ġdepend s
Ġstrugg les
Ġpros pect
ĠBel ieve
ĠEd ition
Ġdeterm ination
ĠCol or
Ġ196 3
Ġundert aken
Ġoblig ed
Ġoblig ations
Ġvill ain
Ġaccident s
Ġtarget ed
Ġdecl ar
Ġsurv ival
Ġce le
Ġchart s
Ġassum ing
Ġhur ry
ĠCent ury
Ġexpos ed
Ġphr ase
Any one
Ġlink ed
Ġrepeated ly
quis ite
ĠYe ah
Ġoverd one
ĠBas ically
Ġsurprising ly
Ġcateg ory
Ġcateg ories
ĠBoy s
ĠFrank enstein
ĠAb out
Ġhyp ocr
Last ly
Ġforest ry
Ġenh ance
Ġtast es
atis f
Ġdistract ing
Ġpoo rest
ĠMart in
ĠNeed less
Ġevalu ation
Ġstab il
Ġmetaph ors
Ġhung ry
ĠFre ud
ĠNob el
Ġcontrovers ial
Ġcartrid ge
Ġcollab oration
ĠBaskerv illes
enz el
ĠSumm it
Ġreput ation
Ġinterpre ted
ĠEmp ire
Ġwis dom
Ġbarg ain
ĠNathan iel
oca ust
ĠORIGIN AL
Ag ain
ĠSME s
Ġhass le
Ġanec d
" ...
A G
C ON
C omp
D e
D VD
J ohn
K eep
O rd
P S
P e
S ave
S ION
T ED
T ENER
b ound
c ause
d is
e ve
m ade
m aybe
o ons
p ot
p ower
r um
r ane
s en
s omet
t te
u a
u ate
v i
w ide
x y
z er
Ġ =
Ġa x
in ent
in ations
re c
Ġw et
Ġs ons
Ġb ible
Ġb ath
Ġb esides
it ant
it ars
ou ter
Ġc ents
Ġc ats
Ġf ish
Ġf ence
Ġf light
Ġf isher
Ġm ask
Ġp unk
Ġto dd
es h
ed e
an ium
ll ow
Ġd om
Ġd ummy
Ġd aughters
ar ious
Ġl ol
Ġre ass
ic ago
om n
Ġg oof
Ġg ems
le in
le nd
al ities
Ġon going
ad o
ro g
Ġwh ilst
Ġy ard
et ched
Ġst ance
Ġst ressed
ch o
im ming
Ġwas hing
Ġha mm
Ġnot ch
Ġmo b
Ġmo on
Ġmo ld
th en
pe red
ation ally
ill a
ĠS E
ĠS F
ĠS et
ĠS ister
ĠS OME
Ġsh aking
ĠM at
ĠM oney
ĠM ex
ĠM att
Ġse vent
ul ter
Ġcom ed
Ġal ter
Ġal arm
res pect
ĠE ver
ĠE idos
ĠB en
ĠB aby
ĠB AD
ĠB ACK
ĠB BC
Ġj ew
Ġj ams
Ġall eg
us ive
el ic
est ors
op her
ĠW ic
ĠW ow
ĠW all
ĠW ake
ĠH ound
ĠH ead
ĠH OT
ĠH ester
ĠT W
ĠT est
ĠT ales
ĠT roma
ĠD al
ĠD im
ĠD ill
ĠD ance
Ġlike able
Ġcan cell
Ġpl ed
Ġpl ants
Ġint ens
Ġint oler
Ġv oy
and y
Ġout line
act ers
Ġen rich
Ġr anks
ap se
ĠF iction
ĠF isher
Ġup hold
Ġno v
ĠG O
ĠG ab
ĠG ib
ĠG DP
Ġtr ay
ĠN Y
ĠN ether
ĠL ara
ĠL CD
Ġdis abled
ĠR en
ĠR us
ĠR uth
ĠR itter
Ġfe as
Ġrec ieved
Ġrec onstruction
Ġgo verning
Ġag encies
Ġco inc
ĠJ ose
Ġcl othing
Ġpre v
Ġpre de
Ġchar ming
ond e
Ġye ah
form ation
Ġper cent
Ġper ipher
Ġinc ent
Ġinc ome
ress ive
igh ters
Ġser ved
Ġdes ert
ang o
Ġgu itars
ĠV itor
Ġro ads
Ġgr at
Ġrem in
Ġrem oving
Ġtra ff
ĠCh icago
Ġpos es
Ġcons ists
Ġbeing s
Ġra ve
Ġra ises
Ġfact ual
Ġfound ing
we ar
he av
Ġinter regional
Ġfl ows
Ġmon ot
Ġmon sters
read able
ertain ly
und ant
ty pe
Ġtri als
Ġtri ps
Ġtrans cend
Ġdevelop s
Ġins urance
Ġpo pped
Ġgl oss
Ġgl owing
Ġbo ld
Ġmis er
Ġret ro
ĠHe alth
ĠAnd erson
Ġcour ses
Ġcharacter ization
Ġexp ed
Ġposs ibilities
Ġac quis
Ġrece iver
Ġfan cy
Ġsl ick
Ġfut uristic
Ġbas ics
AN G
Ġgener ate
Ġgener ous
Ġsit es
Ġrest ore
Ġrest ruct
Ġcare d
ĠSh ia
Ġshort ly
Ġhead phone
Ġ6 4
uck y
Ġprocess es
OR Y
Ġprom ising
Ġdist ance
Ġresult ed
Ġdr um
Ġdr inking
Ġscre aming
Ġtechn ological
ĠAn ge
Ġcent res
ov y
ĠFor get
mm mm
Ġ9 8
bs olute
ĠOr leans
Ġteach es
ĠFr aser
Ġpar allel
cu it
Ġill egal
Ġmar ginal
Ġlangu ages
Ġdev ast
Ġsat ire
Ġhon our
Ġinstall ment
Ġbott les
Ġagre es
Ġpost ed
ĠWor ks
ĠSe ems
Ġeng aged
?? ??
Ġ12 0
Ġapproach es
Ġste am
Ġste pped
Ġdocument ation
Ġaware ness
ĠPr ot
Ġpublish ing
Ġkey board
Ġz en
Ġprogress ive
ĠAd v
Ġstrength ened
Ġident ified
Ġcirc le
Ġwal ks
Ġwin ner
Ġguarant eed
Ġrub bish
ĠMc K
Ġprofess or
Ġgrand daughter
Ġaddress es
Ġindic ated
Ġaccur acy
Ġbi ography
Ġviol ent
ĠSand isk
Ġharm ful
ung le
Be ing
Ġund oubtedly
ĠReg ulation
pro v
ĠCar ter
Ġtem p
Ġtem porary
ĠInd ian
umm ies
ĠSer iously
cl assic
Ġdepend ing
ĠSH E
Ġteen agers
Ġhighlight s
Ġsubm it
Ġment ions
Ġunf air
ĠOb viously
Ġtwist ed
Ġemail ed
Ġconsequ ence
Ġexperien cing
Ġscore board
ĠME Ps
ĠPower Book
Ġvill age
Ġtre asure
Ġconstit ute
ĠAmend ments
Ġsam ples
resp ons
Ġworry ing
ĠBook s
OD UC
Ġenth r
Ġrac ist
look ing
Ġreve aled
ĠPR ODUC
Ġamb ition
Ġbul bs
Ġbow ls
Ġproceed ings
ĠEX P
Ġtoler ance
ĠAustral ia
Ġvamp ire
Ġrod s
Ġxenophob ic
ĠAud itors
Ġleaders hip
Ġrig id
ĠRuss ia
ĠRuss ian
Ġrapid ly
Ġacknow ledge
atis fact
Ġprepar ation
Ġexpert ise
Tr ans
Ġrush ed
ĠAp ache
Ġdiscipl ine
Ġenvis aged
Ġwra pped
ĠCost a
ĠBern stein
Ġhorrif ying
Ġapprox imately
Ġdynam ic
Ġanch ovy
Ġcroc odile
ĠAc ad
ĠJew ish
ĠProf ess
ĠSwed en
Ġgard en
ĠLis bon
Inst ead
Ġintroduct ory
Ġexha ust
Ġuncertain ty
Rep ort
orig inal
Ġnav ig
ĠEli zab
Ġdise ase
Ġinclus ion
Ġplat form
ĠLib rary
Ġbureaucr atic
Ġaccompan ied
bu ild
Ġexpend iture
Ġtimet able
Ġvin yl
Ġloy al
Ġequival ent
Ġcele br
ĠNether lands
Ġprede cess
ĠVitor ino
ĠElizab eth
! ),
" ),
: :
C learly
D r
D id
E F
G R
L ook
N e
N ice
N ew
O s
S uch
S te
S omet
b or
b ad
b ur
b ble
b reed
c ro
c ert
d ays
e ly
e ge
f ar
f ield
g rave
h o
h as
i as
i per
i vers
k i
p age
y stop
Ġ ic
Ġt ip
Ġt ons
re ally
Ġthe aters
on ing
on etheless
Ġw rap
er k
er on
Ġs izing
Ġs oooo
Ġb ust
Ġb ree
it ney
it utional
at able
at urally
Ġc ous
Ġc ush
Ġf ond
Ġf rench
Ġf aces
Ġm art
Ġm udd
Ġm others
Ġp ow
es que
Ġh ill
Ġh ates
Ġh itch
ĠI ce
Ġd ies
Ġl ic
Ġn a
Ġg ap
Ġg ather
Ġg reed
le vel
al ong
Ġe er
Ġbe nd
ad er
ly boys
Ġfor um
et ies
Ġst im
Ġst ake
Ġst ink
Ġst amp
ch ant
ch ild
ce ania
am ps
th y
th ought
ĠC S
ĠC eltic
pe ople
ri el
ir ing
ĠA id
ĠA ugust
ĠS l
ĠS il
ĠS ONG
ĠS queem
ĠS outhern
ĠS everal
Ġpro b
Ġpro secutor
Ġpro hib
Ġsh ines
Ġsh ift
Ġsh ares
ĠM et
ĠM il
ĠM ind
ĠM ars
ĠM ond
ĠM other
ĠM AD
ĠM TV
ul gent
Ġex agger
Ġex emption
Ġli able
ĠP ra
ĠP age
Ġch ain
Ġch ore
res ent
ĠE ll
ĠE VEN
ĠB ased
ĠB ob
ĠB ush
ĠB illy
Ġsu it
Ġj aw
Ġdo ors
ive nd
out s
out ing
el ves
op y
op ia
ĠW A
ĠW a
ĠW r
ĠW ats
ĠW ales
ĠW ANT
ĠH ux
ĠH appy
ĠH IGH
ĠH EAR
ĠH omer
um ble
ĠT y
ĠT ell
ĠT urn
ĠT ru
ĠT ried
ĠD a
Ġout put
Ġtim er
Ġr ings
Ġr outer
ast roph
her o
ĠF amily
ĠF ilm
ĠF IRST
Ġup l
Ġlo cks
ig u
ig er
Ġ1 000
ĠL ou
ĠL am
ĠL ess
ĠL and
ĠL ili
ĠR h
ĠR ap
ĠR ule
our se
Ġad ject
Ġfe ars
ĠO S
Ġwhat s
Ġman ifest
pl om
Ġcl ue
Ġpre vention
Ġ2 9
Ġres um
Ġsc rap
Ġsc ores
av ed
Ġar gue
ass es
Ġour s
od ern
Ġreg ister
Ġnew er
Ġinc ons
ĠSt ory
pect ives
ens en
Ġdes perate
Ġdes perately
ĠK ay
ĠK ore
ĠK urt
ĠY oung
Ġsp ots
Ġsp here
ĠV ista
Ġaw ait
Ġsomet ime
Ġfound ed
Ġbel ive
Ġacc ents
Ġacc la
99 99
Ġbl ess
ign ant
Ġhapp ier
Ġhapp iness
Ġdef e
Ġdisc overs
cy cle
Ġtrans formers
Ġref use
Ġpers pectives
Ġcomple t
Ġins omn
Ġgl uten
Ġmis man
Ġmis under
Ġmis placed
Ġunderstand s
Ġconf ront
ath ers
Ġsecond ary
IN K
Ġbr idge
Ġhand ling
Ġsing les
Ġform ation
Ġsur real
Ġexp ired
Ġcar ing
Ġdem o
ĠTHE IR
Ġdefin itions
Ġmain tained
Ġwish ed
Ġdra in
Ġstud ied
Ġabs ence
Ġcompet ent
!!!! !!
Ġregard ed
Ġ199 3
gg er
Ġopen ly
Ġ8 5
Ġmarket ing
Ġhead ed
Ġ200 3
Ġsol ving
ru ption
OU R
Ġcover age
Ġlearn s
Ġcre w
ĠAr ms
OR R
OR T
Ġresult ing
Ġtechn ologies
Ġregul ate
Ġprot est
gan isation
Ġperform ing
oss ip
Ġear b
Ġest e
Ġest im
Ġsuggest ion
ush ed
bo ot
Ġdi ag
Ġdi verse
Ġdi plom
ici ently
Ġess ays
Ġprof ile
Ġport rays
Ġcommun ism
Ġaccept ance
Ġprodu cer
Ġperiod s
Ġdesign s
Ġcoo perate
ĠRe v
Ġstruct ured
Ġcontrib uting
iss ed
Ġpost ing
ĠSc ary
ĠSc otland
Ġcompl iment
AS H
Ġbuild s
Ġfurther more
Ġdoub ts
Ġreach ing
ĠOF F
Ġpred iction
Ġbra ve
Ġsn ug
Ġsn apped
zz y
Ġdark ness
Ġsuff ers
ĠPe ace
Ġaccess ion
IC K
IC T
ĠPl anet
itted ly
Ġsens ible
Ġswe at
Ġcollect ing
Ġcollect ive
ĠTrans former
ĠMac ondo
Ġsetting s
Ġrent ing
Ġrent al
EC T
ID I
Ġtrad itions
Ġrating s
Ġ[ ...]
Ġdro ps
Ġthrow ing
ĠSm all
Ġindic ates
Ġstock s
Am end
Ġwall s
Ġda wn
Ġpriv ile
Ġpleas antly
Ġcat astroph
Ġmel ody
Ġshock ing
Ġinflu enced
ĠInd epend
Ġgrant ing
Ġnotice able
Ġjump ed
Ġreflect s
Ġreflect ion
Ġfeed back
Ġlarg est
ĠInt ex
Ġunlike ly
Ġvib r
ĠJan et
Ġexerc ises
Ġattack s
ĠTur k
Ġodd s
Ġfool ed
Ġundert ake
inc luding
Ġhom osex
Ġlif etime
Ġconclud ed
........ ........
Ġswitch ed
Ġdissapoint ing
ĠAg reement
Ġelement ary
ĠDark ness
ĠRom an
Ġqual ities
ĠAB BA
Ġclich es
Ġdrag on
Ġpartnership s
Ġcompe lled
ĠEl vis
nes day
Ġsus pend
ĠRed grave
Ġassign ment
ĠDoes n
alu able
Ġexec ut
ĠFin ancial
Ġdepart ments
Ġbreath taking
ĠPL EASE
Ġasse mble
Ġrob ots
Ġtextbook s
ww w
yp ical
AST E
Ġclar ify
Ġgenuine ly
Ġdepict s
Ġcontrad iction
Ġidi ot
Ġpoll ution
Ġrig orous
Ġmainstream ing
Ġlaunch ed
Ġenh anced
Ġprotagon ists
Ġbird s
ĠAuthor ity
Ġconfident ial
bre aking
Ġhous es
Ġgun s
Ġrul ing
ixt ure
ĠBeaut y
Ã¨ re
Ġinterf ace
Ġborrow ed
Ġanx ious
ĠMill er
Ġdelic ate
Ġcorpor ate
Other wise
ĠMot or
Ġsem i
Ġramb ling
Ġdecentral ised
Ġembarr assed
Ġpil ot
Ġstere ot
ĠWR ONG
Ġpurs ue
Ġobst acles
Ġcorrespond ing
ĠBelg ium
ĠREC OM
oust ic
Ġwelcom ed
ubth umping
ĠConstit utional
Or well
Ġske pt
ĠDig ital
uven ile
Ã¶r g
Hel ter
iti ative
ĠFinn ish
Ġtrave lling
Ġoverse as
Ġeld er
Ġcompuls ory
Ġdisj ointed
Ġabsol ut
ĠMex ic
ĠGib son
Ġrestruct uring
ĠAcad emy
ĠWats on
ĠHux ley
) ...
0 3
3 00
9 5
A V
B oth
C ould
F UL
H E
H is
H er
H ave
I LE
M C
M ad
M AN
N ote
P r
S V
S p
S orry
T ec
U B
V ES
a ver
a os
b en
b orn
c ue
c oh
c ula
e conom
g on
g ie
i antly
j ah
l on
l tra
m ust
o ided
p ed
p erson
r ous
s ons
s ize
u ce
v il
v ironment
w ire
w ife
Ã Ń
Ġ !!
Ġt ap
Ġth ier
in i
on ly
Ġw ine
Ġb og
Ġb oss
Ġb ike
Ġb udd
Ġo we
ou ble
Ġf t
Ġf ont
Ġf ighter
Ġm uff
Ġm ixture
Ġp our
Ġp ool
Ġp ix
Ġp ale
ĠI ll
an th
an ne
Ġd ign
Ġd imin
Ġd rew
Ġd angers
Ġd entist
Ġd ystop
as ant
Ġl bs
Ġl oop
Ġl ousy
Ġre inst
ion ed
Ġn uts
Ġg oo
Ġg ib
al king
ot o
st ate
ent e
ent ine
oo re
ad y
Ġfor cing
se ud
id a
id ers
Ġst re
Ġst ating
ch arg
ay ing
Ġha m
Ġwe ars
th rough
ĠC a
ĠC ra
ĠC ap
ĠC amb
ĠC ole
ri Ã¨re
if ies
ĠS n
ĠS ar
ĠS leep
ĠS AY
ĠS adly
Ġsh a
ĠM S
ĠM os
ĠM IDI
ĠM oore
Ġex cell
Ġex ceed
Ġli p
Ġli king
ere r
Ġne o
ĠP o
Ġde cept
Ġde af
Ġch or
Ġch ills
Ġch ocolate
ĠE ight
ĠE pson
ĠB etter
ĠB ums
ĠB esides
Ġsu p
ist ur
ist rib
qu ist
ĠW ars
ĠW ise
ĠW aste
ĠH U
ĠH AS
ĠH azlitt
ĠH ostel
ĠT A
ĠT w
ĠT imes
ĠT oday
ĠT ango
omm od
ĠD ell
ĠD ep
ĠD ave
ĠD OWN
Ġpl ate
ood oo
ak is
Ġhe ight
and ler
sion s
Ġout rage
act er
act ing
Ġk ing
Ġk icks
ast y
Ġle an
ĠF ine
ĠF riend
ĠG ol
ack s
ĠN ights
Ġcomp art
Ġlo cked
ĠL as
ĠL aw
ĠL ange
ĠL uc
ud es
Ġqu een
ĠO w
Ġrec ons
Ġun p
Ġun pre
Ġun readable
Ġus ers
Ġus able
pl ess
Ġbu bble
ĠJ er
ĠJ ane
ĠJ Ã¶rg
Ġpart ly
Ġkn ife
Ġchar ter
ond a
Ġres cue
Ġneed ing
Ġar c
ick y
ick ed
od ia
od dy
Ġnew est
Ġtw ent
ount ered
ac key
Ġunder ground
ĠSt one
ĠSt ories
iff erent
pect ed
Ġdes p
ile y
ĠK n
ĠK ouch
ĠK arl
Ġfind ings
ĠTh ings
ĠTh rough
Ġgot hic
Ġcomm end
ost er
Ġgr oo
ĠAm az
Ġrem it
Ġreview ing
oc al
Ġdec iding
Ġdec isive
oth y
ph ia
Ġpoint ing
Ġent ail
Ġacc ent
Ġacc ommod
ĠTH INK
Ġext ract
Ġcr uel
Ġfun ctional
Ġem arker
Ġfl icks
Ġ4 2
Ġhapp ily
Ġclass ification
Ġdef ect
Ġdef lated
velop ed
Ġrel ief
appoint ing
Ġche ated
Ġworld s
Ġpo em
Ġpo pping
be ing
ider ing
Ġsince rely
Ġgl itch
Ġgl ued
Ġcoll apse
Ġdifferent ly
Ġinv aluable
iter rane
Ġhand ed
Ġless er
Ġev olution
Ġtal ents
Ġview ed
Ġsur vey
Ġfr uit
up s
Ġac oustic
Ġexpl oration
ĠAs h
Ġmod est
ollow ing
Ġav oided
Ġwish ing
AN S
ew are
ĠWe b
olog ist
olog ically
Ġcompet ences
arch y
Ġcontro ller
Ġcost ly
Ġcost umes
Ġcontin ually
Ġ8 00
Ġspec ies
wor king
Ġinf ring
Ġsol o
Ġentire ty
ĠPro bably
ĠAr k
Ġcult ures
Ġdist ant
Ġdist ingu
Ġdr unk
Ġdri ll
Ġcol on
ĠBe fore
ĠBe bel
bo ards
Ġill um
lev ant
Ġtax es
ĠCl ar
Ġve get
Ġprodu ces
Ġdev oid
Ġhon or
Ġinstall ing
unk y
Ġscreen play
Ġfight s
Ġfire f
Ġcompl iments
Ġtreat y
Ġeng ross
ĠSp ir
Ġenc ountered
Ġdel ays
Ġsw ift
Ġstra ps
Ġdam aging
Ġfoc uses
Ġrid ing
Ġsort s
IC E
ĠPl ain
Ġz omb
Ġcir cuit
Ġanal og
Ġstick y
Ġbelie ved
Ġexpress ing
Ġcred its
Ġswe eping
Ġcollect ors
inst itutional
Ġhot el
With out
Ġsubst itute
Ġwal ked
Ġdemocr atically
ID S
Ġtight en
aren heit
St ill
Ġ: -)
Ġtrip od
** *
Ġlay ers
Ġgrand son
ĠBrit ain
Ġanim ated
Ġthrow s
Ġut most
Ġtrou bles
Ġindic ator
Ġcritic isms
Ġbi ased
Ġtend er
Ġfirm ware
Ġdiv ided
Ġsignific antly
AP P
Ġtour ism
Ġcart oons
Ġpen al
Ġpen cil
ĠInd ia
off s
Ġcontinu ously
ĠMU SIC
Ġclaim ed
Ã© s
Ġblue grass
Ġscr ut
Ġremote ly
Ġbreat hing
Ġblu etooth
Ġcry ing
ĠGl ad
ĠLook s
Ġdistur bed
Ġdesk top
Sh ould
ĠWOR ST
Ġquot a
Ġadopt ion
ĠAL TENER
Ġgod s
Ġneighb or
ĠWas hing
Ġphilosoph ical
Ġconstit utional
Ġconflict s
Ġdut ies
Ġcomfort ably
Ġfrequ ent
Ġharmon isation
Ġcinem a
ĠDirect orate
Ġsyn c
Ġchair man
Ġlimit ations
Ġvac uum
Ġscratch es
Ġfif teen
cend ing
Ġexec uted
Ġhes itate
Ġiron ic
Ġholid ays
Every one
Ġincomp et
Ġlegit im
Ġconstruct ed
Ġconstruct ive
ĠBer lin
Ġintrigu ed
Ġautom atically
Ġanticip ated
ĠTus can
ĠDan iel
Ġdisappe ar
Ġunanim ously
Ġhint s
Ġinev itable
ĠQue en
ĠJim my
OTH ER
Ġbol ts
ĠDra cula
Con sequently
Wor ks
Ġexperiment al
Ġtempt ed
Ġawa iting
ĠPhil adel
ĠPot ter
Ġirre levant
Ġsoph om
Ġscand al
Ġimmense ly
Ġsquee ze
TM L
ĠeM arker
Ġparad ox
Fr ank
ĠPur itan
ĠWed nesday
Ġaccompany ing
ĠCamp bell
Ġdisse m
Ġsurg ery
ilater al
Ġunsu ccess
Ġanecd otes
ĠRus sell
ĠMcK ell
Ġupl ifting
Ġmisman agement
Ġelder ly
ĠKouch ner
iterrane an
ĠPhiladel phia
% .
2 3
4 5
9 0
: "
A GE
B O
B as
C he
D isc
E l
F ER
G o
G arbage
J ean
L e
M S
M ag
O B
P G
P R
R un
U r
U nder
V C
V I
_ _
b ies
b ourg
c d
c reen
d ri
f r
f un
g en
g irl
h or
h erence
h uman
i ge
m ate
n n
n als
r r
s ed
s sel
s ession
t w
t urn
u h
v a
v iet
y et
Ġ il
Ġt ail
Ġt ied
Ġt ube
Ġa ired
in f
in ity
re f
Ġthe s
on er
Ġw ing
Ġw est
Ġw ave
Ġw itch
Ġw ires
Ġw oke
Ġb om
Ġb ib
Ġb orne
it ating
at ly
Ġc ro
Ġc um
Ġf ed
Ġf est
Ġf irms
Ġm es
or ical
Ġp ink
Ġp ose
Ġp ony
Ġp ads
Ġp seud
an ity
Ġd re
Ġd ome
Ġd arn
Ġd ense
Ġd rown
Ġin eff
ar c
Ġl ap
Ġre ly
Ġre un
Ġre think
Ġre boot
ic ide
om ad
Ġg am
le ts
al a
al most
Ġe ast
Ġe gg
Ġe go
ly ss
ro id
Ġst ro
Ġst argate
am ount
ĠC d
ĠC y
ĠC el
ĠC ob
pe l
Ġsh ed
ĠM arg
ĠM aster
ĠM icro
em ies
il ty
il ted
Ġcom bo
Ġex it
Ġex empt
Ġex cel
Ġli bert
ĠP ER
ĠP iper
Ġal as
Ġal ike
Ġde ce
Ġde gr
Ġch amp
ĠE ither
ĠB all
ĠB rend
ĠB road
Ġsu cc
Ġsu gar
ort ed
ol as
us p
Ġor ange
op ard
op ian
rom e
Ġab ol
Ġwould nt
un te
ĠT ale
ĠD ar
ĠD uring
ĠD AY
ĠD efin
ĠD uke
Ġpl ates
Ġpl acing
Ġv en
Ġout s
Ġtim ing
Ġen abling
Ġr ust
Ġr ising
au cer
Ġle aking
ĠF W
ĠF ro
ĠF ast
ĠF our
ĠF onda
Ġno ir
ĠG R
ĠG U
ĠG al
ĠG ill
ĠG row
ĠG AR
ĠG BA
Ġtr icks
ĠN ich
ĠN ote
ĠN ik
Ġcomp osed
ĠL J
ĠL ead
ĠL iter
ĠL EA
ĠL ET
ĠL yn
ĠL oved
ĠL ackey
ĠR am
ĠR and
ĠR ight
ĠR oth
ĠR ather
ĠR ef
our riÃ¨re
Ġad apters
ud ge
ud os
ĠO ri
ĠO THER
Ġun equ
Ġus age
li er
ab el
are r
Ġthem atic
ĠJ ason
ĠJ ensen
Ġpre ach
Ġpr ide
ber ish
Ġchar gers
Ġover priced
Ġsc ares
Ġpe el
Ġar ise
ach ed
od ing
te a
Ġreg eneration
Ġoff ic
Ġoff ences
Ġtw ins
Ġi book
Ġinc oh
Ġinc lined
ĠSt ud
ĠSt acie
ĠSt enzel
Ġend ure
ens ed
Ġser ving
ĠK y
Ġrep ro
ĠWh itney
Ġgu ilt
ub a
Ġsp ine
Ġreal ised
Ġreal izes
ĠV eg
ĠTh us
Ġaw ake
Ġgr ass
Ġmusic ian
Ġtra pped
ĠCh ris
ĠCh andler
Ġcons cious
Ġ3 3
Ġ3 7
Ġra ising
ĠIn itiative
Ġent ered
Ġbl ows
he ard
Ġind ication
Ġown ing
Ġfun k
Ġinter im
Ġinter governmental
Ġcle ans
Ġfl uff
Ġmon ster
ced es
Ġ4 6
Ġhard core
ave ll
Ġver b
Ġdisc oura
wh y
In c
Ġtri al
Ġcount ing
ee k
lud e
Ġpers istent
Ġmin ister
Ġpo ems
Ġpo ignant
Ġsince re
Ġbo at
Ġmis fortun
Ġret ire
ock ing
Ġconf ig
ĠHe y
Ġexam ining
Ġsmall est
Ġsur p
ĠAs ian
Ġass ass
Ġass ert
Ġass ured
Ġes p
Ġdeb ates
Ġbegin ing
Ġart s
Ġart ific
Ġsk ill
Ġcor ny
Ġcor ruption
gg ing
Ġlight ing
ĠSh ore
com es
Ġ200 4
Ġtrue ly
ĠPro duct
ĠPro gr
ĠAr ch
Ġprom ises
Ġcd s
Ġdep rived
Ġtext ure
Ġdr ums
Ġdri ven
Ġscre ens
Ġ10 1
ott on
ĠAn imal
Ġconst raint
ĠCon ciliation
Ġsoci eties
Ġfree zes
Ġbox ed
ĠBl ood
itiz ens
angu age
Ġaud i
Ġalong side
Ġpain ting
ĠCl int
ann el
dd ie
Ġ20 10
Ġperiod ic
Ġsto pping
erv ice
ĠMem ory
Ġfreedom s
Ġgrow s
ĠGer mans
ĠSp ain
Ġreach es
Ġmist aken
Ġmeet ings
mb l
Ġburn s
Ġsuff iciently
Ġfoc using
Ġdraw s
Ġintegr ity
Ġinvest ing
Ġvol unt
Ġchallen ged
Ġpublish ers
ĠSch ool
ĠSch Ã¼
Ġz one
Ġgra in
tain ing
rit ers
Ġstick s
umb ling
All ow
Ġfle a
Ġrequest s
Ġwarm th
Ġhonest y
Ġstrength ening
Ġru ins
AC T
Ġcompan ion
Ġtrad ing
Ġwin ning
ĠPer fect
ĠST R
Ġnegoti ating
Ġir respons
Ġlay ing
Un less
Ġdro pping
Ġdemand ing
Ġsoul s
Ġrecyc le
Ġfix ing
ĠVER SION
Ġtend ency
Ġcrimin als
ĠSand ra
ĠSte el
Ġspo il
Ġspo iled
Be h
Ġunc le
Ġfield s
Ġnarr ation
Ġaltern ate
ĠLa ura
aff e
Ġleak ed
Ġprim er
cl a
Pro s
Pro duct
Ġsepar ated
ĠSH OULD
Ġstrugg led
Ġconven ing
Ġang le
Ġdimension s
ĠJul ie
Ġattack ing
Ġsmooth ly
ĠLook ing
Ġrespond ed
ĠMed ia
ĠRec ords
Ġdecl are
Ġphys ically
Ġassoci ation
Ġcompat ibility
Ġclich ed
cr ime
Ġreve al
Ġstretch ed
Ġcand y
Ġhur ts
Ġdelay ed
Ġscratch ed
Ġconduct ed
ander th
Ġgrad er
Ġoppos ition
ĠDemocr at
ĠEN D
ĠWW II
Ġdisg race
Ġast on
Ġast ro
Ġsho pping
Ġperman ently
Ġton nes
Ġflag s
Ġincomp reh
Ġenlight en
Ġdepict ed
ĠSoul jah
Ġschol arly
itz er
ĠColl ege
Ġdread ful
Ġconver gence
ĠSA VE
Ġacad emic
OUGH T
Ġstip ulates
ĠVal entine
Ġelimin ate
Ġadvoc ate
Ġneighbour ing
Ġbab ies
Ġsan ctions
Ġtoss ed
ĠDou gl
Ġfacil itate
Reg arding
Ġvig il
Ġtaxp ayers
Ġles bian
ĠSim on
Ġhoriz ont
Ġinacc urate
Ġdisadv ant
Ġunst able
Ġwat ered
Ġdepl ore
Ġjuris d
ĠWonder ful
ĠVirgin ia
Ġjun ior
Ġquir ky
Ġscoot er
Ġriff s
bear able
Ġrestaur ant
Ord ered
Ġfeas ible
bsolute ly
prov oking
Ġcous in
ĠMond ay
ĠTru ly
Ġincons istent
Ġaccla imed
ĠIndepend ent
ĠRECOM M
ĠCamb odia
Ġrecons ider
Ġengross ing
ĠWashing ton
Ġincoh erent
ĠSchÃ¼ ssel
" !
" ;
0 6
2 4
3 3
9 4
D el
E G
F l
F OR
G u
G iven
G uy
M usic
N Y
N ED
O H
R A
S e
S m
S ON
T R
T LE
U p
V P
a ired
a uthor
b ra
b ird
c or
c ol
c ity
c les
c ave
d rop
d epth
e lect
f old
g om
g ot
g iving
i ate
i ams
i pper
k able
l ive
l ove
l aud
m ake
n ual
o qu
o ked
o ont
o kes
p her
r at
s k
s ight
u cks
w ow
w arm
Ġ ll
Ġ Ãĸ
Ġt ant
Ġt read
Ġt ires
Ġt ighter
Ġa erial
Ġth o
Ġth irty
in sell
re l
re r
re lated
re quisite
Ġthe res
on a
on i
is p
is en
Ġs ed
Ġs our
Ġs aga
Ġb in
Ġb anks
it ations
at ures
ou f
ou ri
Ġc yn
Ġf urn
Ġf uss
Ġm ic
Ġm ig
Ġm und
Ġp ul
Ġh arn
ed ing
ĠI V
an i
Ġd ire
Ġd ile
Ġd ating
Ġin qu
Ġin ability
ar ound
Ġl ust
Ġl ift
Ġre per
Ġre actions
Ġre national
ic able
om s
om ic
Ġn iece
Ġn omin
Ġg re
Ġg el
Ġg au
Ġg imm
Ġg olf
al er
al ph
ot ion
ut ter
ent h
Th ree
ro cious
et ch
ld on
Ġst om
Ġst ood
Ġst ack
ay ette
ce ler
am an
am eless
Ġnot ably
ur ies
Ġan te
ĠC ro
ĠC ook
ĠC ard
ĠC ool
ĠC apt
ĠC ena
all ey
ri e
ir us
ĠA A
ĠA void
ĠS en
ĠS ing
ĠS al
ĠS ad
ĠS anta
Ġsh aker
Ġsh oddy
ra k
ra v
ra it
ĠM ir
ĠM ight
ĠM ass
Ġcon form
Ġcom for
Ġex hib
ere nces
Ġso cially
ĠP E
ĠP am
ĠP ell
ĠP UT
Ġal right
Ġal coh
Ġde ar
Ġch uck
Ġch asing
ĠE D
ĠE M
ĠE gy
ĠE sc
ĠB ere
ĠB reat
ĠB ought
Ġsu icide
ate breed
ain e
Ġread ily
Ġor g
qu ality
Ġab ilities
Ġab rupt
ĠW E
ĠW ol
ĠW ON
ĠW ASTE
ĠH it
ĠH ell
ĠH oll
ĠH istory
ĠT or
ĠT op
ĠT ex
ĠT AC
omm y
art et
ĠD or
ĠD ES
ĠD aughter
ĠD anger
ĠD istant
Ġpl aus
Ġby tes
os ing
Ġv o
Ġout lines
act s
act ic
Ġr ude
Ġle ather
ĠF is
ĠF ood
ĠF ell
ĠF red
ĠF ats
Ġup side
Ġup beat
ĠG rand
ĠG ames
ĠG illian
Ġtr uck
Ġwho ever
ĠN OW
Ġcomp r
Ġcomp ression
Ġlo ads
ĠL es
ĠL ind
itt any
Ġdis reg
ĠR ush
ĠR OC
Ġad ore
int egr
ĠO ceania
Ġun ions
Ġun for
Ġact ively
Ġimp er
Ġcl in
Ġher oes
Ġres ign
Ġar rog
ass ics
od d
Ġmake up
Ġoff ices
Ġoff ensive
Ġunder rated
ĠSt and
Ġback ing
Ġapp laud
az y
Ġfilm makers
ang ed
ĠK enn
ĠK night
ĠK insell
ub es
Ġsp an
Ġsp anish
Ġsp lend
ĠV i
Ġro w
Ġgr im
Ġwatch es
ject s
ative ly
Ġtra il
ple x
ĠCh aucer
Ġ3 00
Ġke eper
ob e
Ġdown side
Ġdown right
Ġinter ven
Ġinter ference
Ġinter institutional
ced ented
Ġatt ent
Ġatt rib
ren ce
Ġclass room
oun ters
Ġadd iction
Ġdisc ount
Ġdisc overy
Ġdisc ontin
Ġsub t
pos ed
ian nual
Ġrel atives
Ġtri pe
stand ard
Ġpurch ases
Ġref ill
Ġref uses
Ġcount less
Ġmin s
Ġche ese
Ġche wed
Ġsy ner
aw ay
Ġpres ident
Ġpres cri
ific ations
Ġorigin ality
Ġinv ite
IN E
Ġeconom ically
Ġhand ful
Ġhand led
ĠAl ban
Ġcar ries
Ġappro ving
Ġexpl ored
Ġexpl ores
Ġfan atic
Ġdefin ing
Ġsl ap
Ġsl ide
Ġsl ower
Ġmod er
Ġbas es
Ġmain ten
Ġma j
io let
Ġdra fting
Ġtop s
ĠWe bb
Ġabs ent
Ġcor ners
reme ly
ĠSh op
Ġshort com
Ġcap ita
Ġhead ing
Ġhead ache
Ġinf lation
Ġval ve
ret ty
Ġiniti ate
Ġintern ationally
ĠAr m
Ġdep iction
Ġdep ressed
Ġdep ression
Ġair port
Ġdr ummer
edi ate
Ġscre am
Ġmention ing
Ġprot ocol
Ġ9 4
Ġ9 5
Ġmet als
empt ation
Ġmeas ured
Ġrespect ed
Ġur anium
Ġaccount able
ex ist
ex cept
ric o
Ġdi agn
Ġsign als
ĠFr ont
Ġill ness
Ġaud it
Ġmar ry
Ġpain ted
ĠCl iff
Ġvis ited
Ġrese t
Ġca ution
Ġarri val
Ġproper ty
book s
Ġsad d
Ġsad ness
ĠRe al
ĠCan ada
Ġfant as
ĠAt t
Ġcontrib utes
Ġkill s
Ġpost er
Ġcompl ained
Ġener gies
Ġmor ality
ĠLe ague
ĠSome one
ĠSome how
Ġenc ounters
Ġlab els
use um
Ġsend s
ĠJohn son
Ġdark er
IT Y
ĠNew man
Ġdraw back
Ġste er
Ġintegr al
Ġrapporteur s
Ġvol unte
Ġcustom s
ĠEx pl
ĠEx uv
Ġgra ve
Ġtransport ed
Ġtransport ation
isc ent
Ġstick ing
Ġweak er
Ġsens ual
Ġship own
Ġsumm it
Ġfle as
Ġwarm ing
Ġpu ppy
Ġred istrib
Ġforget ting
Ġsequ els
Ġsubst ances
Ġcomplain ing
Ġrev ised
Ġhy ster
enn on
Ġmanag ers
Ġir reg
ĠWar rior
Ġsmo ke
Un like
Ġgrand child
Ġclos est
Ġsmell ed
Ġcritic ize
Ġcomplex ity
Ġrich ly
Ġobs ess
Ġobs erved
He y
Ġcentral ised
Ġtyp ically
ĠLO VED
Ġbroad cast
Ch ar
ĠPC I
Ġjump ing
Ġreflect ed
ĠInt eresting
ĠNE W
Ġsepar ately
Ġsurf ing
Ġball ads
Ġvib rant
Ġteen age
Ġhighlight ed
Ġfault y
Ġble w
Ġment ally
Ġang les
Ġcoord inate
ĠHol ocaust
Ġcry stal
Ġcontain ing
Ġopt ed
Ġfool s
Ġaccident ally
ĠMed iterranean
Ġconstit u
Ġtarget s
VIE W
Ġfulf illed
Ġrestrict ive
Ġdub ious
ĠWatch ing
Ġclim bing
Ġterror ist
Ġdisag reement
Ġwealth y
Re ally
Ġden ied
ĠGamm el
ĠSomet hing
Ġobserv ation
Ġthous and
Ġcas sette
Ġsho ots
ĠCam era
ĠMag n
ĠMag ic
hh hh
Ġtank er
ĠAud io
Ġcrash es
ĠAge nda
ĠBudd y
Ġschol ars
Ġtotalitarian ism
Ġtremend ously
was her
ĠCons erv
Ġsupr an
Ġunanim ity
Ġphenomen on
Ġerotic a
Ġignor ance
Ġaccompl ished
spe ak
ĠDec ourriÃ¨re
Cl assic
Ġshoot ing
ĠBudget s
ĠTer rible
Ġrat ified
Ġdispos al
Ġpregn ancy
ĠBeaut iful
Ġmotiv ation
Ġdisgust ing
watch able
Ġinterf ere
ĠSol itude
Ġconvers ation
Ġconvers ations
Ġdelic ious
Ġcompens ate
Ġcorpor ations
Ġdict ators
Ġexplicit ly
Ġdecentral isation
Ġstere o
Ġpursu ant
Ġchemical s
Ġvalid ity
Ġbelief s
lim ited
Ġfu zzy
Ġgy m
Ġproport ion
ĠUni versity
Ġconsolid ate
Ġunex pected
Ġdin ner
Ġreserv ations
Ġbarri ers
ĠCOM P
Ġjamm ed
OIN TED
Ġwo ven
Ġincom plete
Ġparan ormal
Ġdismant ling
Ġentreprene urs
Ġsoo o
Ġinsec urity
Ġbooksh elf
Ġrive ting
Ġthro at
Ġcu z
ĠAw esome
ĠSaf ety
Ġlawy ers
Ġdeclar ation
Pe ople
Ġgoof y
ĠMatt el
ĠTW O
ĠDill on
Ġcancell ed
Ġnov ice
Ġmiser ably
ĠPRODUC T
ĠLou is
ĠRap kay
Ġestim ated
Ġprivile ge
Ġskept ical
Ġabsolut ly
ben ef
Ġdign ity
ĠSar ah
ĠHU GE
ĠGol an
ĠLuc as
Ġunpre cedented
ĠSpir it
Ġpseud o
lyss es
ĠBrend an
Ġhorizont al
oont z
ĠÃĸ VP
Ġharn ess
Ġresign ation
ĠKinsell a
Ġshortcom ings
ĠExuv iance
- (
. ),
2 7
7 5
8 8
? ).
A U
A VE
A void
B r
B rad
D is
D ec
D isk
E ver
F E
F ort
F IN
G e
G et
G els
H ard
L F
L S
L ist
L ittle
M uch
N or
N eed
P oor
P ersonally
R em
S O
S c
S ee
S OL
T I
W ar
W atch
[ ...]
a estors
b its
b ling
d ie
d irect
d imension
f irst
f ight
f av
f ace
f amily
g od
h r
h ot
h em
h ism
i j
i ens
i ator
i eth
k ers
l ical
m in
m et
n am
r ams
r Ã³n
s ur
t t
t oo
t ies
t ains
u cing
v on
v als
w a
w ill
w ish
Ġt ummy
in lein
Ġthe ore
on gh
Ġw ound
Ġw ack
Ġw rench
is it
er ving
Ġs ink
Ġs que
Ġs orrow
Ġs queem
Ġs essions
Ġb um
Ġb ond
Ġb arb
it ness
it isation
at ible
Ġc ouncil
Ġf ame
Ġf are
Ġf raction
Ġp ic
Ġp ant
Ġp onder
Ġp ension
Ġp airs
Ġp ounds
Ġp ione
Ġto re
Ġto pper
Ġh ar
Ġh ull
Ġh ier
Ġh itting
ed ar
ed ay
ĠI ra
an ny
an oid
Ġd are
Ġd ates
Ġin so
as her
Ġl am
Ġl ect
Ġl aughter
Ġre bell
ic ion
Ġn erv
Ġn ipp
Ġn erves
Ġn asty
Ġg roc
le ments
ot al
st on
st ed
st one
st ep
st uff
Ġbe ating
Ġbe ef
ad ian
ro k
ver ted
Ġwh ine
Ġfor b
Ġy er
se ction
Ġu pper
Ġst ages
Ġst itch
ch ing
ch et
ch anted
Ġha vent
Ġwe lf
Ġan ger
Ġan gel
th ms
ĠC B
ĠC us
ĠC EN
ĠC old
ĠC arr
ĠC ustom
pe lled
ir able
ir ts
ĠA G
ĠA ction
ĠA hab
ie ces
if i
if ter
ĠS U
ĠS W
ĠS on
ĠS ub
ĠS ug
ĠS ix
ĠS EC
ĠS OUND
ĠS weet
Ġpro g
Ġsh adow
ĠM ED
ĠM erc
ĠM oby
il arly
Ġcon ve
Ġcom f
ere rs
Ġso rely
ĠP G
ĠP ure
ĠP oint
ĠP ark
ĠP OW
Ġal ert
Ġal oud
Ġch illing
ĠE nd
ĠE ve
ĠE ss
ĠB or
ĠB ri
ĠB ab
ĠB ell
ĠB elly
ĠB rok
Ġj eal
Ġj ungle
Ġat rocious
ol by
qu estion
est ed
op oul
ĠW ind
ĠW ick
ĠW omen
ĠW ait
ĠH y
ĠH end
ĠH ild
ĠH arris
Ġme al
Ġme llow
un ts
um ing
um ours
art ing
ĠD U
ĠD et
ĠD am
ĠD ie
ĠD oy
ĠD ub
ĠD harma
Ġcan cer
Ġint im
Ġint ric
os h
os is
ci le
ak y
Ġhe y
Ġen abled
Ġen emies
Ġle ague
ĠF le
ĠF all
ĠF urthermore
ĠF arenheit
Ġno se
ĠG all
ĠG ord
ĠG reg
Ġany ways
Ġcomp assion
ig gy
ĠL ake
ĠL OOK
Ġdis gu
ĠR V
ĠR ose
ĠR iver
ĠR alph
Ġad orable
Ġwork ings
ĠO k
ĠO VER
so ft
Ġag g
ab o
ab etic
pl ays
pl anes
Ġco herence
vel ope
Ġshould er
ĠU ntil
ĠJ e
ĠJ ac
ĠJ azz
Ġimp osed
Ġcl iff
Ġpre cious
Ġcont ra
ell ow
Ġres on
Ġres idence
Ġar ising
Ġstory lines
iz z
Ġspe lling
ick en
ick ing
Ġsa cri
Ġbuy s
Ġbuy er
og en
og ue
Ġper verse
ĠSt reet
gr icult
ord ic
Ġproduct ive
Ġback ed
Ġback up
Ġback wards
Ġback drop
ens ical
Ġser ial
Ġapp alling
Ġafter wards
Ġinst ability
ĠK id
ĠK ill
ĠK now
Ġrep ublic
ĠWh atever
ert o
Ġgu ilty
Ġthr ash
Ġri pping
ĠV amp
ĠV CR
Ġgr inding
Ġgr itty
Ġrem ained
Ġrem astered
Ġfin ale
Ġtra vest
ĠCh em
ĠCh ance
Ġ3 1
Ġ3 4
Ġra ppers
Ġord ers
Ġset tle
Ġcr ises
Ġinter act
Ġinter actions
Ġfl ower
Ġmon ument
Ġsec rets
Ġlist ens
Ġauthor ised
Ġeas iest
Ġ4 8
Wh ich
Wh ite
Ġver se
Ġver tical
Ġob nox
ues ome
Ġtrans fers
Ġgl ance
ock ed
ĠHe inlein
Ġleg acy
IN D
Ġexam ined
Ġbr ick
Ġbr anch
Ġel ab
du ced
Ġlisten able
Ġfr u
Ġac ne
Ġexpl oring
Ġrece ives
Ġdefin et
Ġsl ave
Ġsl asher
ĠBr ittany
pr ing
Ġcur ios
Ġcompet e
light s
Ġcontro lling
Ġ199 1
Ġsk ipping
Ġcor rupt
Ġwriting s
gg y
AT ED
Ġlight ly
ĠNo vel
Ġcap s
Ġ6 5
Ġcou ch
ru ci
Ġloc ally
Ġquick er
OR S
Ġdep ri
Ġfund ament
Ġdri ves
Ġtechn ically
Ġpri ze
Ġpay ments
ott i
Ġcent re
Ġ9 6
Ġpop s
Ġmem oir
ĠCon cert
Ġperform s
Ġfree ze
Ġ7 00
ĠTr ade
ĠOr ganisation
ĠOr rico
arent ly
Ġaccount ability
Ġobject s
ps y
ĠFr ances
Ġmar ine
ĠAustri ans
vent ure
ĠIT S
Ġimag ined
Ġ20 11
tic le
Ġcorrect ed
Ġphot og
de veloped
gu in
ĠUS D
Ġ198 5
iss y
iss ible
Ġexist ed
Ġrecogn ises
Ġfire place
ows hip
ĠSe an
ĠSe ason
Ġorgan ization
Ġmor als
ĠLe in
ĠLe ban
Ġ15 0
mb led
mb uds
sc reen
Ġjud ged
Ġimprove ments
Ġmix ing
yl ie
Ġintegr ating
Ġpositive ly
Ġindivid ually
ĠPr in
ĠBrad ley
Ġapart ment
IC H
ams ung
ĠPl an
ĠEx cept
Ġz ones
Ġmult iannual
Ġgra bs
Ġgra iny
Ġknowledge able
ĠPart on
Ġillustr ation
Ġillustr ate
Ġdead lines
Ġnor thern
Ġsens it
Ġfoot ing
SE LF
Ġopp ose
Ġinsight ful
ett es
rill iant
Ġcirc les
Ġnone x
Ġfront iers
St r
ĠST ORY
Ġmembers hip
Ġpat ient
Ġencoura ges
Ġexch anges
Ġindic ative
Ġappear ances
friend ly
ĠSte ven
Ġmattress es
Ġdiv ision
Ġpriv acy
ĠGu ess
Ġund ers
Ġmer its
ĠCar ib
Ġcord s
Ġaut ob
mark er
ĠInd eed
Ġcontinu ation
Ġcontinu ity
Ġcontinu ous
att ered
Ġflaw ed
Ġflaw lessly
ronic les
Ġstri king
Ġstri kes
Ġforg ive
ĠNE ED
Ġmatch ed
Ġlength y
Ġstrugg ling
Ġble ak
Ġreject ion
ĠEn vironment
ux e
Ġemail s
Ġcompar able
Ġsympath etic
Ġdestro ying
Ġsucceed s
hood s
ĠEuro just
Ġinspir ational
Ġhom es
Ġhom eless
ĠAL B
Ġcris p
Ġmeasure ments
ĠCont in
Ġrandom ly
OD Y
Ġmechan ical
la us
Ġdiscover ies
ĠPar anoid
Ġvirt ue
Ġinterpret ations
Ġsymbol s
Qu ite
Ġdub bing
Ġintri gue
Ġthick er
Ġreve als
ĠNor thern
Ġelectronic a
Ġbon ing
Ġexpos ure
Ġinspect ions
Ġfif ty
Ġmotor cycle
ole on
ĠFin land
Ġknock ed
Ġtoler ate
ĠPL AY
Ġhes itant
ĠCH AR
Ġtort ured
ĠMor ia
Ġafford able
Ġcal c
Ġtank ers
Ġrein force
Ġsil ver
Ġreven ue
ĠBer ger
ĠTot ally
Ġsecure ly
ĠAnt on
Ġmyster ies
Ġschol ar
Ġemp ire
Ġphenomen a
Ġphenomen al
ga ard
ĠMa jor
ĠBar ak
Ġblank et
Ġcommunic ate
Ġcommunic ations
Ġrul ed
Ġtransl ations
Ġisol ation
ĠAMAZ ING
ĠTer rÃ³n
Ġdish washer
ĠRem ember
Ġsubsequ ently
IST EN
Ġrend ition
Ġcompens ation
Ġende aring
atter y
Ġmac ro
Ġstip ulated
Ġmyth ology
Ġrecon cile
Ġaddict ed
Ġfli p
ĠMAN Y
ĠDIS APP
Ġvir us
Ġswing ing
ĠBelg ian
Ġtick et
ĠSec urity
Ġvul ner
Ġvul gar
Ġstring ent
Ġjournal ist
Ġgar age
Ġspr ings
Ġinterm ediate
Ġinj ury
ĠRoll erball
Ġsport s
Ġwond ered
ĠLuck ily
Ġadap ting
Ġbrut al
Ġsched ule
Ġmarvel ous
Mar quez
ĠAle x
Ġphotograph s
ĠMaria h
ĠFore ign
mind ed
Ġcab in
Ġconj unction
Ġquar ter
Ġprejud ice
Ġsubsid ies
Ġcert ific
ĠCast le
Ġje opard
ĠWarn es
Ġoptim istic
Ġacknowled ged
Sure ly
Ġtherap y
Ġwrest ling
Ġlone ly
Ġrevel ation
Ġank le
ĠSN MP
ĠTem ple
Ġlob by
Ġinsuff icient
Comp etition
somet hing
Ġtodd ler
Ġremin iscent
Ġtraff ic
Ġmonot on
Ġexped ition
ĠAdv ance
atisfact ion
ĠProfess or
build ing
Ġbree ze
Ġgather ing
ĠSONG S
ĠLess on
ĠKore an
Ġearb uds
Ġdiplom atic
Ġconfidential ity
ĠMotor ola
Ġgib berish
Ġstre ets
Ġsha ft
Ġchor us
Ġcompart ment
ĠOw en
Bas ically
hor ror
ĠBroad way
ĠVeg as
Ġmisfortun e
Ġartific ial
Ġincompreh ensible
ĠDougl as
Ġdisadvant aged
Ġjurisd iction
ĠRECOMM END
Ġstom ach
Ġcomfor ter
Ġsplend id
Ġdiscontin ued
Ġmainten ance
Ġfantas ies
Ġshipown ers
Ġgrandchild ren
ĠGammel gaard
Ġsupran ational
benef it
Ġgroc ery
Ġwelf are
ĠHild itch
ĠDoy le
ĠDub lin
ĠGord on
Ġsacri f
Ġtravest y
mbuds man
" ).
0 5
2 9
2 50
3 4
6 5
9 8
: )
: /
A dd
B UT
C OD
C ulture
D ont
E xt
E VER
E asy
G M
H H
H or
H ence
H aw
H ello
I K
I AL
L ES
L ET
M O
M e
M o
M ed
M art
M aking
M IT
M ENT
N aturally
O Y
O b
O ut
P A
P P
R om
S imp
T ubthumping
T emptation
U AL
W r
W ish
W AY
W ARE
Y e
a e
a ac
a ccess
a unch
b ly
b ay
b ie
b est
c as
c ut
c orn
d s
d id
d one
d ef
e er
e ath
f a
f o
f est
f its
f etched
g one
g les
h ill
h el
h our
h owever
i at
i ating
i ety
i ries
i ently
k et
l as
l bs
m etal
m ittedly
n i
n on
o ors
p read
r ations
s uch
u j
u gh
u pp
u ase
v or
v an
v ol
v illes
w ered
w riters
y an
y ard
z ens
Ġ 00
Ġt ong
Ġt aped
Ġa unt
Ġth igh
in ers
Ġthe ology
Ġw re
Ġw ow
Ġw ier
Ġw ann
Ġw ander
Ġw itches
is er
is se
is ons
Ġs i
Ġs cept
Ġs oup
Ġb es
Ġb ang
Ġb anned
it ated
it als
it rak
Ġo d
nd rome
at ron
ou ge
Ġc ried
Ġc edar
Ġf ist
Ġf ought
Ġf ade
Ġf athers
en es
Ġm ile
Ġm aker
or ized
or uba
Ġp c
Ġp as
Ġp al
Ġp ci
Ġp ound
Ġp iv
Ġp ark
Ġp itch
Ġto mb
Ġto xic
Ġh ind
Ġh ike
Ġh rs
ed ed
ĠI an
ĠI MP
ĠI CON
an sion
Ġd ens
Ġd aring
Ġd anc
Ġin ject
ar se
as ures
Ġl em
Ġl il
Ġl aser
Ġl azy
Ġre vers
Ġre wind
Ġre ception
Ġre ndering
ic ian
Ġn er
Ġn om
Ġn ail
Ġg ad
Ġg ory
Ġg ear
al ti
Ġe argels
Ġe cho
st e
st ation
st ory
ut her
ent al
Th rough
ad d
ad rill
ro b
Ġwh im
Ġwh ist
Ġwh ale
Ġwh ims
Ġy ield
se mbly
et c
et us
ld om
id o
Ġu ltra
Ġst ir
Ġst ead
Ġst ressing
Ġst ilted
ch or
ch and
ook y
ay ed
im b
im us
im ag
Ġha bit
ce an
ur b
ur day
ur rent
Ġmo istur
Ġan not
th an
ĠC at
ĠC ant
ĠC her
ĠC over
ĠC umm
ĠC learly
ĠC itizens
Ġbook let
Ġare na
ir k
ĠA li
ĠA ng
if iable
ĠS ent
ĠS ide
ĠS oph
ĠS UC
Ġpro active
Ġsh apes
Ġsh aped
Ġsh ifting
ra ble
ra vel
ra wn
ra ged
ĠM B
ĠM ult
ĠM IN
ĠM AT
ĠM ike
ĠM ills
ĠM iles
em bers
em ployed
ul ed
Ġli qu
Ġso re
Ġso fter
ck ets
Ġne pot
ĠP le
ĠP ut
ĠP op
ĠP ack
ĠP agan
ĠP ersonally
Ġal iens
Ġde ff
Ġde ple
Ġch at
Ġch ances
Ġch lor
ĠE lect
ĠE SP
ĠE ddie
ĠB T
ĠB al
ĠB oring
ĠB ox
ĠB OTH
ĠB rian
ĠB reak
ĠB eware
Ġsu ction
ess es
Ġj ail
Ġdo c
Ġdo zens
Ġall us
ist ed
qu in
Ġab uses
ĠW urt
ĠW TO
ĠH alf
ĠH arm
ĠH ARD
ĠH ogan
ĠH ORR
ĠH TML
un ate
un less
um n
um in
ĠT ro
ĠT ER
ĠT erm
ĠT ina
art ney
ĠD ef
ĠD IF
ĠD awn
ĠD ummies
Ġlike wise
Ġcan on
Ġpl ight
Ġpl ague
Ġv ary
ect s
ect ual
Ġout comes
Ġen forced
Ġr h
Ġr ation
Ġr ant
Ġr um
Ġr ank
Ġr anging
Ġr anges
Ġjust ification
Ġle nd
ap so
ĠF M
ĠF ord
ĠF air
ĠF ANT
Ġup coming
Ġno stal
Ġno isy
ĠG B
ĠG ary
ĠG ault
Ġtr oops
ĠN orm
ĠN ick
Ġlo bb
ĠL L
ĠL ap
ĠL og
ĠL ux
ĠL has
Ġdis plays
ĠR od
ĠR ivend
ĠR PG
Ġad here
Ġad ulter
int ell
Ġfe e
ĠO pt
ĠO mbudsman
Ġrec ru
Ġun imp
Ġun pl
Ġun ans
Ġun con
Ġun ited
Ġun ins
Ġun watchable
Ġag ed
uct ion
ish es
Ġman kind
pl ed
pl us
Ġco ck
Ġco des
ine a
ĠU se
ĠU lysses
ĠJ ay
Ġcl ock
Ġpre st
Ġpre requisite
Ġpr ic
Ġpart ial
ell e
Ġover l
Ġar th
ass ing
od a
Ġreg ain
Ġsa x
form ed
Ġsee ks
Ġper sec
Ġi T
ĠSt ra
ĠSt ras
gr ade
ens able
az zy
Ġdes cent
Ġfilm ing
ĠK EE
ĠK elly
ĠK oontz
ĠY EAR
ĠY oruba
Ġri ver
Ġsp ouse
Ġsp ray
ĠV o
ĠV er
Ġaw e
Ġcomm ission
Ġgr ants
Ġgr uesome
red ict
ĠAm y
Ġrem ov
Ġstr ings
ER O
Ġtra um
Ġdec re
ple ase
ĠCh air
Ġ3 9
Ġra ft
Ġra iny
ob by
get s
Ġent ries
Ġind ie
Ġind irect
Ġind isp
amm ing
Ġfun ky
Ġem issions
Ġfl esh
Ġfar ce
Ġsec ular
ft en
Ġhard cover
Wh atever
oun cing
Ġob tained
Ġadd itions
Ġrel uct
Ġtrans action
Ġmin isters
Ġins ane
Ġpo etic
Ġpres erv
Ġgl am
Ġret ros
ĠThere fore
Ġconf ine
Ġconf ined
Ġconf irms
Ġexpect ation
Ġel oqu
ĠSo viet
ix as
Ġword y
Ġdet er
Ġdet erior
Ġform ally
ĠAl t
ĠAl ways
ĠAl ask
Ġlisten er
Ġlisten ers
Ġcar pet
ec ies
Ġhor rors
Ġprice y
Ġac celer
ract ive
its u
Ġdefin itly
Ġsl ides
Ġsl oppy
ĠBr others
Ġass ault
AN GE
AN CE
Ġhist ories
Ġrest ored
Ġart if
olog ne
Ġcare ers
!!!! !!!
Ġbat man
Ġ199 2
Ġsk etch
ĠNot es
ĠSh ep
Ġsupp lies
Ġinf in
Ġhold ers
IS M
ĠChrist ine
Ġkid ding
Ġloc ate
Ġintern ally
ĠPro blem
Ġlive ly
Ġcond es
Ġdist rict
Ġair craft
Ġfund ed
Ġdr astically
aps es
edi um
Ġscre ams
ES OME
Ġpublic ly
ING S
ĠAn chor
Ġcent uries
Ġ9 40
Ġsuper natural
Ġcol our
Ġcol oring
ĠCon n
Ġpick y
istic ated
port s
ĠAll iance
Ġvar ied
ĠBe yond
Ġann ounce
Ġann ivers
ising ly
ex pl
ĠIN ST
Ġobject ions
Ġsell s
Ġsell ers
ici ally
ĠGr anted
Ġpar a
Ġclose t
ift ies
Ġtrack ing
Ġprof its
Ġfour teen
ĠCl ark
ĠCl assic
ĠCl avell
Ġvis ually
ony m
Ġelect oral
Ġelect rical
Ġstat istics
Ġneg lect
ann on
Ġstay ing
Ġcitizens hip
br idge
Ġcrit ique
Ġmanufact ured
ĠCan adian
ĠTO EF
Ġpost s
Ġpost ure
ĠWor ked
Ġansw ered
ĠX mas
ĠX tra
ĠX anth
ĠZ R
ĠZ ero
egr ino
ĠSe ixas
Ġenc ounter
Ġroom s
Ġbra ke
Ġbra ins
Ġpopul ations
Ġpopul arity
Ġplug s
Ġclean er
Ġjo ined
Ġremind er
IT TLE
Ġappropri ately
yl on
Ġben eath
ĠPl ayer
Ġz oom
Ġachieve ment
Ġpress ing
Ġbelie ver
Ġship ment
Ġexpress ly
Ġcred ible
Ġcollect ed
Ġpredict ions
Ġrequest ing
Ġsusp ension
Ġcross ed
St ay
Ġrev olution
Ġrev isit
Ġdiss appointed
enn is
Ġprofess ion
Ġbenef icial
Ġsmo king
An n
ĠRead er
Ġele g
ĠWill iams
Ġstraight forward
Ġaccur ately
Ġdemonst ration
uel a
Ġbi ological
Ġfem inist
Ġstock ings
Ġdownload ing
Ġfeature d
Ġridiculous ly
wr iting
Ġscript ure
Ġemploy ee
Ġsatisf y
Ġmyst ical
Be ouf
Ġrefund ed
Ġund es
Ġ25 6
pro f
pro duct
Ġpush es
ĠCar ol
uss ie
ĠFl ash
Ġregret ted
Ġsubs cri
Ġsubs cription
Ġsold ier
Ġaut o
Ġthrill ing
Ġinflu ential
Ġlos er
Ġconsist ency
Ġattach es
Ġhealth y
Ġsqu ares
ĠMad ame
Ġcompreh end
Ġflaw less
Ġunem ployed
rest ed
Ġloss es
Ġfeed er
cl ass
Ġsust ained
Ġcli ents
Ġdur ability
ĠIsrael is
Ġsav ings
Ġmatch es
Ġmurd ered
ĠQu estion
ĠComp ared
Ġball room
Ġmeant ime
Ġthreat ens
alk er
ĠEn ough
UN K
Ġloose ly
ĠDis appointing
Ġspeech es
Ġoccur ring
ĠGl en
Ġrespond ing
Ġdistur b
ĠCol in
Ġadjust able
Ġperm ission
Ġ196 0
Sh ame
Ġconclud es
Ġtre es
ĠMed ical
Ġneighb ours
ĠRec ently
ode on
Ġmusicians hip
AB LE
Ġpra ising
Ġstrand s
ĠAT T
Ġfat al
Ġassoci ations
Ġdiscover ing
Ġintention al
ĠLI MIT
Ġdrag s
Ġrestrict ions
Ġharmon ious
Ġmaintain ing
Ġstretch es
ĠDirect or
Ġtraged ies
Ġterror ists
,, ,,
ĠEl mo
Ġexpos ition
Ġge ared
imm er
Ġrhy thms
Ġcoast al
Ġbow l
Ġexec ution
ĠSimple tech
Ġtoler able
Ġbound aries
Ġadequ ately
Ġblood y
Ġflav ors
Ġiron y
rupt ed
Ġasse ts
Ġoverd ue
Ġsafe ly
Ġcal m
kel odeon
Ġspect rum
Ar ticle
ĠCam eron
ĠBarb ra
Ġinsert s
II I
Ġrele asing
Ġenterpr ise
ĠSyri an
Ġtheat rical
Ġsil ent
Ġclar ification
ĠTibet an
Ġidi ots
Ġsight ings
ĠBudd hist
ĠBudd hism
Ġautom atic
hand ed
Ġsupr ised
Ġcompos ition
Ġdisappe ared
Ġmath em
Ġprofound ly
Ġengine er
Ġsin ister
ĠDream s
Ġscar ier
heart ed
heart edly
Ġinsult ing
Ġjudg ements
Ġenthusi asm
Ġmand atory
Ġdistort ion
Ġsafegu arding
Ġprosper ous
Ġom itted
Ġisol ate
ĠHor ror
ĠMA K
Ġquant ity
Ġrelax ing
Ġenvis age
inet een
Ġhat red
ĠCur ie
Ġorchest ra
Ġcompon ent
ĠPalestin ians
wart z
Ġacqu ired
Ġmetaph or
Ġpunch es
Ġvir uses
Ġpurs ued
Bl ack
Ġthread s
Ġsett led
Ġunivers ally
Ġbump s
Ġinterm itt
Ġwelcom es
Ġdomin ated
Ġscand als
Ġrevol utionary
comm un
ĠBL U
Ġadap ted
ĠJo an
neg ans
Ġseg ment
Ġseg ments
ĠJud ith
Ġperpet rated
Ġunderm ine
Ġbarri er
ĠRecommend ed
ĠAW ESOME
Ġprosec ution
ĠMal ta
Ġstorytell ing
Ġdiam ond
Ġdiam eter
Ġther m
Ġinhab it
Ġliber ty
ĠWAR NING
ĠNap oleon
ĠRos al
ĠJeff erson
Ġsym pt
Ġearthqu ake
Ġearthqu akes
Ġwides pread
Ġcere al
Ġinequ alities
Ġaspir ations
Ġchoo sing
Ġdoct ors
ĠVel vet
Ġlandsc ape
Ġpunish ment
Ġempath y
Ġtact ics
orient ed
ĠPen guin
ĠEar Gels
Ġincon ven
Ġappoint ment
Ġcatalog ue
atisf ied
rec ord
Ġfisher ies
Ġsevent h
elic ia
ĠWic ca
ĠGab riel
Ġperipher al
Ġdevast ating
Ġenthr alling
Ġpredecess ors
Ġmart ial
Ġna ive
Ġeer ie
ĠMAD E
ĠWa its
Ġmanifest o
Ġinsomn ia
Ġdiag rams
Amend ments
Ġsuspend ed
econom ic
Ġdystop ian
ĠCa an
Ġarc ade
Ġtwent ieth
Ġgroo ve
Ġscrut iny
Ġincompet ence
Ġbib li
Ġmes mer
ĠLiter ature
Ġaudi ob
mbl ance
Ġvolunt ary
Ġirrespons ible
cla imed
Ġvigil ant
gom ery
Ġmund ane
Ġrenational isation
ĠPell egrino
Ġalcoh ol
ĠEgy pt
ĠHit ler
ĠTex as
ĠAlban ians
Ġvolunte ers
dimension al
Ġnerv ous
ĠCus ÃŃ
ĠCarr ot
ĠSug ar
Ġcomf y
opoul os
ĠVamp ire
Ġobnox ious
Ġcurios ity
ruci ating
Ġdepri vation
ĠALB UM
Ġmonoton ous
Ye ah
itrak opoulos
adrill e
chand ise
ĠSoph ie
Ġnepot ism
Ġdeple ted
Ġallus ions
ĠWurt z
apso dy
ĠLhas a
Ġunans wered
ĠStras bourg
Ġindisp ensable
Ġannivers ary
ĠTOEF L
" -
" :
. *
. -
2 10
9 6
B est
B oy
B ottom
B etween
C N
C ES
C oyote
D iane
D efinitely
E U
E ach
E LY
G l
G en
G ot
G od
I O
I Z
I EC
J ack
L ong
L oved
M s
M en
M ay
M othman
N T
N ext
N onetheless
O RE
P C
P art
P ush
P ublic
S adly
T ess
T RE
T ime
V O
W H
a ic
b ow
b ig
b ath
c ents
c ock
e pt
f ol
f eed
f ront
g s
g ive
g un
h is
h ed
h al
h ash
h oot
h ole
i w
l ink
l iter
l ining
m ill
m ese
m aster
n ost
n ormal
o ves
o let
p us
p ired
p arent
p aid
s pecial
u ation
u os
u ence
v y
v ia
w affe
x ual
z ard
Ã ¡
Ã ł
Ġ @
Ġ _
Ġ id
Ġ ive
Ġ ****
Ġt il
Ġt ies
Ġt ab
Ġt ire
Ġa irl
Ġth y
in qu
in ters
in cent
re aching
is ible
er man
Ġs ab
Ġs aves
Ġs outhern
Ġb one
Ġb ik
Ġb anging
it ives
Ġo w
at ics
at ement
Ġc y
Ġc ig
Ġc oup
Ġc aut
Ġc rown
Ġc aves
Ġc otton
Ġf ur
Ġf isc
Ġf ifties
en cing
Ġm al
Ġm alf
Ġm astered
Ġm ugs
or o
or gan
Ġp act
Ġp od
Ġp ending
Ġp ipe
Ġto days
es th
ing o
Ġh ith
Ġh ol
Ġh ott
Ġh urd
Ġh tt
ĠI d
an z
an as
an che
ll or
Ġd il
Ġd ip
Ġd ual
Ġin land
ar ms
as ers
Ġl ion
Ġl ag
Ġl ace
Ġl oun
Ġl aces
Ġl ingu
Ġre ar
Ġre ct
Ġre wr
ic ate
ic op
ic ism
Ġn ude
Ġn urs
Ġn erve
Ġg ut
Ġg aps
Ġg rey
al o
st ood
st yle
Ġbe er
Ġbe ll
ut ton
ad ies
ad ays
ver b
ver sion
ver ine
Ġwh ining
se arch
et wood
et oric
id ad
Ġst er
Ġst ain
Ġst umbled
ch ar
ch ler
im ation
Ġha v
am ous
am iliar
Ġnot ion
Ġnot able
ur able
Ġan c
th ly
ĠC re
ĠC ome
ĠC ong
ĠC ab
ĠC ry
ĠC ass
ĠC ream
ĠC ape
ri lo
ir a
ĠA F
ĠA R
ĠA th
ĠA IDS
ĠA tea
ĠA gricult
ie ving
if ty
if ully
ĠS L
ĠS i
ĠS ic
ĠS ame
ĠS eg
ĠS aint
ĠS amsung
Ġpro ving
ust ry
Ġsh elves
ra ud
ĠM om
ĠM ust
ĠM ix
ĠM ann
ĠM ean
ĠM ule
ĠM arsh
Ġse al
em pl
ul i
pp ert
pp ings
Ġex otic
Ġli bro
ĠP A
ĠP y
ĠP ic
ĠP ad
ĠP ay
ĠP ass
ĠP ost
ĠP AR
ĠP ERS
ĠP ICT
Ġch ains
Ġch ina
Ġch ief
ĠE A
ĠE S
ĠE p
ĠE qu
ĠE ff
ĠE by
ĠE yes
Ġwor ries
ĠB a
ĠB on
ĠB us
ĠB our
ĠB ert
ĠB uff
ĠB isc
ĠB EC
ĠB AND
ĠB attle
ĠB olk
ĠB ottom
ĠB inch
ort ant
Ġj u
Ġj am
Ġj ig
Ġj uvenile
ol n
ol en
ol ved
ol uted
out ed
ant astic
ain ted
us al
el a
el ve
est ions
est ein
op t
Ġab usive
ĠW itch
ĠW OW
ĠH il
ĠH amm
ĠH ann
ĠH olid
ĠH ERE
ĠH oust
ĠH IM
Ġme g
un ge
um ph
ĠT ate
ĠT arget
ĠT ogether
art s
ĠD J
ĠD R
ĠD ad
ĠD own
ĠD aughters
ĠD Ã©s
Ġint r
Ġint u
Ġint imate
os pel
ard less
ak s
Ġv it
Ġv ic
Ġv ice
and i
Ġout fit
Ġen velope
ong s
Ġr ash
Ġr ugged
au f
au de
Ġle ap
Ġmore over
ind ulgent
her n
ĠF E
ĠF an
ĠF em
ĠF ive
ĠF ather
ĠF unny
ĠF REE
ĠF lyboys
Ġam p
Ġam eric
ĠG h
ĠG ard
ĠN AS
ĠN iel
Ġcomp il
Ġlo go
ig uous
imp y
ĠL in
ĠL ow
ĠL os
ĠL ine
ĠL inc
ĠL ONG
ĠL ama
ĠL ady
ĠL ISTEN
ĠL ITTLE
itt ings
Ġdis li
ĠR u
ĠR ing
ĠR ud
ĠR ash
Ġwork book
ĠO per
ĠO OP
so le
Ġrec om
Ġbec uase
Ġun m
Ġun just
Ġun heard
Ġun question
Ġun imag
Ġun ravel
pt ic
uct ive
Ġ- --
Ġman ually
ab out
pl ots
Ġco pe
iv irus
oy ing
ĠJ am
ĠJ ET
Ġimp lies
Ġimp laus
Ġimp etus
Ġcl oud
Ġcl amp
Ġpr one
Ġcont est
Ġher bs
Ġ2 50
ber villes
ell s
ell ar
ell ig
Ġover t
ult ural
Ġres ume
Ġsc ant
ade on
Ġneed le
Ġar my
Ġar bit
Ġar che
ry n
ass y
od ge
te xt
Ġsa c
Ġper cept
Ġper ception
Ġper taining
Ġoff end
Ġunder go
ĠSt ing
ĠSt ock
ord an
ord ered
Ġproduct ivity
Ġend ings
igh th
ens ing
Ġapp et
Ġplay back
ull ed
gin ally
ail ing
ip ed
Ġinst ances
ĠK h
ĠK ids
Ġgu ides
Ġmus h
ub lish
Ġsp ons
Ġreal y
ĠV iv
ĠV ien
ĠV IDE
ĠV oodoo
Ġro se
Ġro oted
Ġaw ards
Ġaw some
Ġgr ind
Ġgr inder
Ġwatch able
Ġstr angers
ER T
oc o
ĠCh ap
ĠCh ocolate
Ġ3 8
Ġke ys
ph a
ph ecies
Ġra ider
Ġproblem atic
ob oda
Ġent ering
Ġdown fall
Ġdown hill
Ġbl owing
Ġold s
he imer
ib les
Ġsm ile
Ġfun n
Ġcle arer
Ġfl op
Ġfl ood
read ing
Ġfar ming
Ġsec ured
Ġatt ain
Ġstart ling
ft waffe
Ġ4 4
Ġ4 7
Ġhard back
Ġhel icop
Ġdef ici
Ġdisc onn
Ġtri be
Ġtrans itions
Ġref usal
Ġ5 12
Ġmin im
Ġche ating
Ġworld wide
Ġpo ison
be an
not e
Ġcoll eg
Ġret arded
Ġprov ider
Ġconf ess
Ġexpect s
Ġdirect ors
arn s
Ġhum ble
IN TER
Ġbr ush
Ġbr others
Ġel astic
ĠSo ld
Ġperson nel
Ġword ing
ĠAl bert
du c
Ġsur ve
Ġexp ansion
Ġchild ish
Ġhor rend
Ġac id
OT E
ĠTHE SE
Ġsl im
Ġsl ack
Ġbas ement
Ġbas ket
Ġnum b
Ġass ent
Ġav al
ON D
pr ot
Ġrest oring
Ġstand out
aut iful
the ir
Ġexc ruciating
Ġpower book
Ġsystem atically
Ġsk ate
Ġmight y
Ġmiss es
AT O
ĠSh ow
Ġ$ $
Ġ8 2
Ġcap ability
Ġspec ify
Ġhead sets
Ġsupp lier
Ġ200 7
Ġappe als
IS H
ĠChrist ina
ĠChrist opher
Ġcra cks
Ġcra cked
Ġlack l
ĠPro phecies
Ġprocess ing
Ġdr astic
Ġadm ission
ah a
Ġpay ment
Ġamend ing
ĠAn cient
Ġstrong est
Ġpick up
Ġrespect ive
Ġrespect able
ĠTr ick
Ġbox es
Ġaff irm
Ġimpro ves
Ġvar ies
ĠBl ah
Ġaccount ing
ĠIN C
Ġpract icing
Ġreform ing
Ġbre ast
Ġmom s
ici ary
Ġfore ns
Ġpar am
Ġill eg
Ġaud iences
Ġheart s
uc id
Ġequ ation
ĠCl assics
Ġelect ro
Ġve gan
for cing
Ġdev ote
Ġcomb ines
ane ously
Ġcoo per
ax y
ograph ic
ĠRe view
ĠRe yn
ĠUS E
ĠIs lam
ĠIs aac
Ġ198 2
ĠAt tic
AR Y
Ġprior it
Ġkill ers
Ġkill ings
Ġscreen writer
Ġep id
Ġpost c
ĠZ eal
ĠZ iggy
Ġbreak down
ĠSe arch
Ġrock ing
Ġresearch ing
Ġorgan ic
Ġorgan ise
AS S
ĠDe ath
Ġbuild ings
ĠLe on
Ġenc l
Ġ15 8
Ġoper ated
Ġoper ations
ĠEvery time
Ġsn aps
Ġapproach ing
sc ale
Ġjud ging
Ġfill s
Ġfill er
Ġmix er
Ġmix es
Ġuseful ness
Ġinstruct ional
gress ive
Ġste ering
Ġstupid ity
Ġconnect ions
ĠQ uality
Ġpersonal ities
ĠPe ck
ĠHow ard
ĠPl ug
ĠPl enty
ĠSch wartz
Ġdoubt less
Ġachieve ments
isc o
Ġnor th
Ġconv oluted
Ġweak est
Ġdeli ber
Ġbelie ving
ĠAd apter
Ġvot ers
Ġwarm ly
Ġpu pp
Ġred undant
With in
sh ifter
Ġcook book
Ġprevent ed
Ġcirc ulation
Ġcross ing
Ġinsp ire
ĠPer iod
ĠPer abo
Ġrev ive
ĠCourt ney
ĠST ILL
ĠWH Y
ĠWH ICH
Ġrub bed
Ġdest ined
ik h
Ġaffect ing
Ġnegoti ate
Ġign oring
Ġcatch es
apan ese
Ġscient ist
unting ton
ĠGood man
Ġbackground s
Ġgrand mother
Ġremain der
ĠMont gomery
Ġpump ing
Ġaddress ing
ĠSm art
Ġclos ure
Ġindic ators
ĠPh ot
ĠPh ill
Ġpill ows
Ġparticip ated
Ġemphas ises
Ġviol in
Ġviol ated
Ġplain ly
Ġformat ting
Ġbored om
Ġobs ession
Ġlaptop s
Ġlegisl ature
Ġund en
Ġpromot ed
Ġtour ist
ĠFl int
Is rael
pre gn
ĠMan on
ĠBE L
Ġstrange ly
mark et
ĠSO L
ĠLa Beouf
ĠPal ance
Ġprotect ed
Ġtransfer red
Ġbroad er
Ch rist
Ġemb ar
Ġemb ark
Ġemb race
Some one
hy thm
Ġreci pe
Ġblock buster
Ġdraft s
Ġcivil ization
Ġstri ve
ĠBay les
Ġdur ation
etter ing
$$ $
Ġfaith ful
Pro bably
Ġsurf aces
ĠQu ite
rid ge
Ġmount ains
ĠComp etition
Ġball et
Ġfault s
Ġthreat s
Ġthreat ened
Ġment ality
Ġwilling ness
Ġassess ing
Ġguarantee ing
ĠSw oboda
Ġarrang ed
su pport
ĠSimp sons
ĠEd ge
ĠUN DER
Ġ196 7
Ġopt imum
Ġfool ish
ĠRep resent
Ġquot ed
Ġexclus ive
ĠSy stem
Ġneighb ors
Ġ197 5
Ġconstit utes
Ġgri ps
ĠRE M
Ġattract ion
Ġscrew ed
Ġrepet ition
Ġsurv ived
OP LE
Ġce ase
Ġpassion ate
Ġdiscr imin
ĠAB C
Ġfulf ill
ĠLI FE
Ġsimpl ify
Ġrecomend ed
Ġclim b
omin ator
Ġinvestig ations
Ġamb itions
Ġeffici ently
nes ia
ĠTR Y
ĠRed ing
Ġbul ky
Ġfashion ed
Ġclub s
Ġgrad ually
Ġgrad uate
Ġdism iss
Ġterrit orial
Ġsli pping
Ġeth ical
Ġalloc ation
Ġgreen house
Ġsecret ly
Ġcaptiv ated
Ġrout e
me at
Ġton ight
Ġcounter part
Ġnons ensical
sell er
ĠCom plete
ĠBra ve
ĠNe anderth
Every thing
rend t
emb ourg
Ġuns ure
ĠANY THING
Ġgrab bed
ĠMcC artney
Ġincomp atible
Ġattend ing
Ġmagaz ines
Ġsil ence
ĠHE L
Ġsubstant ive
Ġhyp oth
Ġmonop oly
Ġforest s
Ġanticip ation
Ġanticip ate
Ġinex plic
iac s
ĠCons umer
ĠEv a
ĠEv ans
Ġsupr ise
Ġunanim ous
Ġcondem ned
Ġfort une
Ġfort unate
ĠColl ins
Ġscar iest
Ġnewsp apers
Ġowners hip
Ġnightm ares
Ġprepar ations
Ġprepar atory
Ġirrit ated
Ġenthusi ast
Ġghost s
list en
Ġlegend s
Ġdistort ions
ĠFlore tte
ixt ies
ĠHor rible
cons cious
Ġrend ered
Ġvent ure
Ġvent rilo
Ġsuspect s
Ġ; )
Ġanx iety
Ġsuck er
ĠFreedom s
Ġpron ounced
Ġacad em
ĠIM O
Ġconce aler
ĠDid n
Ġramb lings
ĠLu ftwaffe
Ġacqu ire
Ġtempt ation
Ġfli pping
ĠCould n
ĠStr ange
Ġremix es
Ġpursu it
uv re
wind ed
Ġfro zen
ĠCo ast
ĠSec ret
ĠBur rough
ĠBur mese
ĠNic olet
Ġretail er
Ġinvent ory
Ġcontrovers y
Ġunivers al
Ġcartrid ges
ĠSwed ish
Ġneighbour hoods
Ġbur nt
ĠLis a
Ġsom eday
Ġdomin ant
Ġbuff s
Ġconsolid ation
Ġamateur ish
Ġwond ers
Ġpit iful
ĠDou g
ĠFort unately
Ġsched uled
$$$$ $$$$
Ġcontradict ions
Ġmild ly
Ġreward ing
Ġreward ed
Ġnic er
ĠAle c
ĠPH ARE
ĠRad ical
Ġrecover ing
Ġreserv ation
ĠKar as
Ġcontempl ating
Int o
ĠSat urday
ĠWal mart
ĠRab bit
ĠRab bi
Ġstorytell er
Ġvers us
ĠAtl antic
En joy
Ġren ov
ĠHu ppert
ĠTre k
Ġquar ters
Ġsym ph
ZZZZZZZZ ZZZZZZZZ
Ġwides creen
Ġinequ ality
ĠCarl ton
Ġchoo ses
Ġouter most
ĠNaz i
Ġconserv ative
Ġadvertis ement
Ġendeav our
High ly
Ġreiter ate
ĠBat man
Ġadmir ation
Ġprospect s
Ġhypocr isy
Ġhamm er
Ġmob ility
ĠDal ai
ĠDim itrakopoulos
Ġintoler able
Ġvoy age
ĠNY C
heav y
Ġnavig ate
Ste ve
bor ah
Ġic on
Ġpow ered
ĠSil ver
ĠMet all
Ġexagger ated
ĠHIGH LY
Ġadject ives
Ġresum ed
Ġvibr ator
Ġhomosex uality
Ġexecut ive
Ġstereot ypical
ĠCra zy
ĠCole man
ĠPo ettering
Ġoutrage ous
ĠAmaz ing
Ġswift ly
Ġzomb ie
Ġlegitim acy
Ġsophom ore
Ġdissem ination
ĠMcKell en
Mag ic
fr ame
Ġthes is
ĠCob ain
ĠKy oto
Ġretire ment
Ġconstraint s
Beh rendt
ĠPE OPLE
ĠEsc adrille
ĠBere nd
ĠFis chler
ĠFell owship
Ġirreg ular
Ġdictators hip
AU SE
Brad bury
Ge orge
fav oured
Ġtheore tical
Ġcouncil s
Ġinso far
ĠAG AIN
ĠFle etwood
Ġelab orate
Ġfundament ally
ĠLein en
ĠLeban on
Ġsensit ivity
Ġnonex istent
ĠContin uum
ĠAnton io
:/ /
Haw thorne
hel p
Ġtong ue
Ġwier d
Ġdens ity
ĠCumm ins
Ġchlor ine
ĠHarm on
umin um
ĠDIF FER
ĠLux embourg
intell ectual
ĠOpt imus
Ġarth rit
ĠKEE P
Ġremov able
Ġcondes cending
Ġdistrict s
Ġcaut ious
Ġhith erto
Ġhtt p
ĠPERS ON
ĠPICT URE
ĠBisc ay
ĠBEC AUSE
ĠBolk estein
ĠBinch y
ĠHolid ay
ĠHoust on
ĠDÃ©s ir
ĠNiel son
ĠLinc oln
ĠVien na
INTER REG
pregn ancy
ĠNicolet ta
! .
" (
) !
) "
) -
+ .
, '
, ...
1 10
2 12
4 4
6 1
6 9
7 8
8 00
: *
? ),
A ustri
A LLY
A bsolutely
B E
B ased
C all
C ount
C ont
C ertainly
D C
D ON
F K
G F
H i
H ope
I EN
L ESS
L adies
M iss
M agn
N G
N one
P h
P ack
P retty
Q L
R ock
S D
S H
S ound
T C
T om
T ry
T urning
U U
Y I
a j
b oth
b uy
c op
c ube
d em
d ig
d ac
d ged
d ening
e ing
e very
e asy
f ut
f ound
f red
f elt
f inding
f illed
f ayette
g ard
g ame
g age
g ently
h ol
h igh
i h
i qu
i ated
k now
l ay
l ane
l imin
l anguage
m oney
n ame
n ever
o en
p ing
p ent
p op
p ire
p oll
p aper
p pend
r ine
s ince
s ided
t u
t ter
t ails
u i
u pt
u ates
v as
w ould
w est
w aves
w ords
Ã ¤
Ã §
Ġ .....
Ġt id
Ġt el
Ġt ones
Ġt anks
Ġa er
Ġa th
Ġa ven
Ġa the
Ġth ou
in ness
in ently
in ction
in arily
re ll
Ġw and
Ġw ade
Ġw icked
is al
er ks
Ġs id
Ġs ne
Ġs its
Ġs ided
Ġs isters
Ġs inking
Ġs arc
Ġb ud
Ġb ones
Ġb unny
it udes
Ġo st
Ġo wing
nd ry
at on
at ant
at omy
Ġc ad
Ġc ri
Ġc ust
Ġc os
Ġc ure
Ġc ement
Ġc ables
Ġc ologne
Ġf og
Ġf itted
Ġf aint
Ġf ighters
en o
Ġm ort
Ġm un
Ġm ish
Ġm aps
Ġm uy
or ia
or ida
Ġp ins
Ġp acing
Ġh ound
Ġh unting
ĠI D
ĠI l
ĠI ve
ĠI de
an cer
ll e
Ġd ement
Ġd war
Ġin ad
ar ios
Ġl imp
Ġl ump
Ġl ux
Ġl aud
Ġl inger
Ġre ck
Ġre wards
Ġre lied
Ġre hash
ic o
om es
Ġn ause
Ġit al
Ġg lean
Ġg ossip
al in
al ien
Ġe g
Ġe cc
Ġe book
st an
st ay
st ars
st ery
ut ors
ct ic
Ġy rs
Ġy awn
et ers
et he
et to
id ences
Ġst em
Ġst ap
Ġst ark
ow ed
ch a
ch air
ch ange
ook ed
im li
Ġwas her
Ġha zard
Ġha ppend
am bo
Ġnot ified
Ġwe ld
Ġan ne
th s
th ese
ĠC ad
ĠC ow
ĠC all
ĠC ir
ĠC ood
ĠC are
ĠC atch
ĠC ount
ĠC ross
ĠC ivil
ĠC ountry
ĠC ertainly
all ation
pe ll
ri a
ri l
ri atic
ir y
ĠA v
ĠA z
ĠA st
ĠA ri
ĠA ust
ĠA cc
ĠA ccording
ĠA ussie
ĠA hern
ie val
ie gel
if ts
ĠS ter
ĠS ue
ĠS ING
ust roph
Ġsh ine
Ġsh ade
Ġsh ades
Ġsh aping
ra ck
ra isal
ĠM I
ĠM ess
ĠM un
ĠM ON
ĠM itch
ĠM oura
ĠM AY
ĠM ode
ĠM odern
Ġse wing
il a
il ight
ĠThe ory
ul arity
Ġcom ical
Ġso cc
ck ing
ĠP an
ĠP ill
ĠP ress
ĠP ony
ĠP sych
Ġde ployed
Ġch ee
Ġch unk
Ġch icks
Ġch aos
ĠE R
ĠE st
ĠE ur
ĠE lla
ĠE AG
Ġwor ship
ĠB B
ĠB ed
ĠB an
ĠB ach
ĠB ost
ĠB less
ĠB AT
ĠB SE
ĠB urg
ĠB DS
ĠB TW
ess ional
ort on
ort al
Ġj ohn
Ġj erk
Ġdo om
Ġdo se
Ġdo ss
ol s
ol ics
ol ta
ge ar
ist ically
ant ages
ant asy
us able
us cript
est s
est ro
est ablish
op in
op en
ich e
Ġab road
ĠW ater
ĠW AT
ĠW alt
ĠW ELL
ĠH at
ĠH undred
ĠH oly
ĠH atebreed
ĠH untington
Ġme als
un n
un s
um bo
um sy
reat ing
ĠT en
ĠT oy
ĠT own
ĠT ony
ĠT AL
ĠT owers
ĠT ene
ĠT UR
ĠD D
ĠD I
ĠD V
ĠD iv
ĠD av
ĠD ull
ĠD ian
ĠD ede
Ġpl od
Ġint ensive
os es
ard ust
ci ation
Ġv ous
Ġhe aling
and o
ect ed
Ġout lined
Ġout law
Ġout raged
act ress
Ġen gin
Ġen ables
Ġen chanted
Ġr ides
Ġr idd
Ġr arity
Ġr att
Ġ( ...)
au x
end o
her d
ap ua
ĠF ra
ĠF act
ĠF ound
ĠF elicia
ĠG I
ĠG as
ĠG RE
ĠG IR
Ġany time
ĠN G
ĠN a
ĠN ame
ĠN ONE
ĠN umber
ĠN omad
Ġthere of
ig an
ĠL ot
ĠL arge
ĠL ex
ĠL ights
ĠL inks
ĠL uke
ĠL illian
ĠL ennon
ĠL uther
Ġdis ple
Ġdis respect
Ġgreat ness
ag le
ag ain
ĠR O
ĠR ick
ĠR AT
int eresting
Ġwork er
Ġwork place
Ġqu iz
Ġqu artet
ĠO EM
Ġrec omm
Ġun a
Ġun av
Ġun ple
Ġun inst
Ġun att
Ġun lock
Ġun bearable
li v
li x
li able
Ġag ent
Ġag ency
Ġyour s
Ġman aging
Ġman oe
ab s
are t
are st
ite x
iv od
Ġthan king
ink y
oy d
Ġshould ers
Ġbu nd
ĠJ U
ĠJ ob
ĠJ ude
ĠJ ordan
ĠJ FK
Ġimp ly
Ġcl umsy
Ġpre ference
Ġpre limin
Ġwr ought
Ġpr ay
Ġbet ray
Ġcont am
Ġher b
Ġpart ially
Ġ2 80
Ġkn ot
Ġkn ight
Ġkn ob
Ġkn ots
ond ition
ell ing
Ġover r
Ġcould nt
Ġsc or
Ġsc ent
Ġsc ifi
Ġpe p
av al
Ġar row
ry che
Ġspe cially
od es
od el
atch es
ict ed
00 2
Ġsa ppy
ac re
ac ific
ĠSt ick
ĠSt ardust
Ġback s
Ġback bone
ree k
Ġapp ar
Ġapp lause
az a
Ġnow adays
Ġplay able
Ġdes cend
Ġdiff er
Ġdiff ers
uth a
ang le
ĠK ent
ĠK irk
Ġrep lied
ĠWh ether
Ġmus cles
Ġsp y
Ġsp ill
Ġsp arse
ĠV iolet
ĠTh in
ĠTh ird
Ġbest seller
Ġhigh school
oc aly
Ġdec line
ĠCh urch
ĠCh ronicles
Ġpos ed
Ġra pe
Ġra ge
Ġra cial
Ġra ces
Ġfound ations
Ġbel oved
Ġent r
Ġent ails
Ġwhere ver
he ld
ĠTH R
ĠTH OUGHT
amm ed
Ġsm ash
Ġcr ud
Ġcr ushed
Ġinter rupted
Ġcle ared
Ġfl u
Ġfl uct
Ġfl ute
Ġfl annel
read s
Ġimport ed
Ġeas tern
Ġter rain
Wh ether
Ġver ify
Ġdisc l
Ġdisc ri
Ġsub standard
wh ite
ues day
less ness
Ġtri o
Ġtri gger
Ġtri umph
Ġiss uing
lic ity
Ġtrans it
ug ging
ee z
icul arly
Ġche w
Ġpo ly
Ġsy ll
be cause
Ġpres erve
Ġpres erving
Ġgl ory
Ġgl uc
Ġmis ery
Ġreport ing
ason ic
Ġori ent
.... .....
Ġsimp licity
Ġprov is
Ġinv asion
Ġinv isible
ĠAnd rew
Ġap ologies
Ġbr u
ĠSo ft
Ġed it
Ġexp ose
Ġcar go
RE C
RE T
Ġhor rid
Ġdem os
Ġdem ag
lect ic
Ġmod ified
Ġ19 11
ruct ive
Ġwhole heartedly
Ġreason ing
ĠBr uck
ĠBr uce
Ġdeb t
Ġdeb un
Ġadv ised
Ġadv ances
Ġadv antages
Ġbit es
Ġart sy
olog ue
Ġhope ful
Ġsystem atic
Ġsk ating
Ġhappen ings
ĠSh el
ĠSh arm
Ġdeal er
Ġmarket ed
bers ome
Ġspec s
Ġspec ified
Ġ6 7
wor thy
Ġsupp lied
-- >
Ġ200 8
IS S
Ġsol os
Ġrecord er
Ġquestion ing
Ġcre am
ĠAr rived
Ġdep ress
ier ce
Ġair waves
Ġdri ft
Ġfinan cially
Ġregul atory
Ġrespons es
Ġbed ding
ĠFor ce
mm m
Ġmem or
Ġavail ability
Ġleft overs
Ġson y
Ġsoci o
Ġrespect ing
Ġimpro v
Ġmess y
Ġhome work
ĠBl ues
ĠAN OTHER
Ġreform ed
Ġbre ach
Ġdi ver
Ġimm ature
Ġfast est
Ġfore most
Ġfore see
ST AND
Ġpass age
Ġmar gins
Ġheart ily
Ġheart breaking
Ġheart felt
Ġpain ts
Ġpain fully
ĠCl aire
Ġvis its
Ġstat ute
Ġcommun ist
Ġaccept s
Ġarri ves
Ġwater ways
TER S
ĠDo ctor
Ġcorrect ness
ron ted
ĠIs land
set t
iss a
iss ive
iss ance
Ġep it
ton es
ĠX box
Ġcompl ac
Ġtreat s
Ġtreat ing
ĠSe ldon
Ġthank ful
Ġthank fully
Ġprec ision
Ġrock ets
Ġorgan ising
ĠDe borah
Ġmaster y
Ġeng age
ĠGer ald
ĠLe an
ĠLe gend
ĠSp ace
ĠMar ie
Ġmist ress
ĠEvery man
Ġbra ce
Ġsn ugg
Ġsn apping
Ġapproach ed
zz le
Ġbudget s
play ed
play able
Ġclean ed
Ġfill ing
Ġjo ining
ien ced
Ġste aling
Ġintegr ate
Ġconnect s
ĠQ U
ĠQ UE
Ġrad iator
Ġcla ustroph
IC S
Ġkey boards
Ġmult if
ĠWell s
back s
ĠHer oes
Ġaccord ed
Ġaccord ingly
ĠGod s
umb ing
Ġsens or
ĠHa unted
ĠGo ing
Ġspir al
Ġcapt ion
ĠAd riatic
ett i
load ed
Ġselect ing
Ġred und
Ġred emption
Ġtravel ers
Ġru ining
ĠINTER EST
Ġcontact ing
ĠApp arently
Ġskin ny
Ġhands ome
Ġtight ly
ĠST UP
Ġ: -(
Ġple asing
Ġhy per
Ġnegoti ation
Ġign ores
Ġmanag er
Ġprofess ors
Ġcatch ing
Ġgrand father
Ġlat in
Ġexch anged
Ġut opia
Ġut opian
Ġlyr ical
Ġdram as
Ġdram atically
Ġavoid ing
Ġbi as
Ġshape wear
ĠPh ilosoph
ĠPat ti
Ġpill ar
Ġparticip ants
Ġemploy ers
Ġemphas ised
Ġharm ony
Ġearli est
Ġbrill iantly
ĠGu inea
ĠGu inness
Ġtruth s
Ġargu ed
Ġdoll s
Ġdepth s
Ġtrash y
ĠReg ion
pro bably
Ġmer chandise
Ġdream ed
ĠBE EN
ĠBE WARE
Ġthrill s
Ġpen et
Ġshock s
ĠInd ustry
ĠLa fayette
Don ald
ĠMO ST
Ġcompreh ensible
Ġcapital ist
Ġroll s
Ġroll er
Ġroll ed
Ġclaim ing
inn ed
Ġwood s
ĠSer b
ĠSer bs
ĠMus lim
Ġstri p
ĠChar acter
Ġwrit en
Ġbreat he
Ġconcent rated
ĠQu aestors
OS S
rid ged
Ġdepend ency
af e
ino chet
Ġball ad
Ġvib ration
Ġsubm itting
Ġthreat ening
rap her
ĠBel va
Ġunf old
ĠBlu etooth
tr ue
ĠSw ord
ĠSw itzer
Ġcoord inated
Ġban al
Ġban ning
Ġrenew ables
Ġarrang ement
ĠDis respect
Ġmass es
ĠCol omb
Ġadjust ed
Ġadjust ment
Ġperm its
Ġodd ly
ĠEuro dac
Ġquot as
Ġsymb olic
ĠAL SO
ĠME P
Ġvill a
Ġsexual ity
Ġswitch es
ĠAS AP
ĠRec ord
Ġconstit ution
Ġgri p
Ġgri ef
ĠMore over
ĠRE VIEW
Ġconsult ing
Ġattract ed
Ġconfirm ation
Ġphys ics
Ġeat en
Ġchart erer
ĠEm ily
Ġrefere n
ĠHard ly
Ġsurround ings
Ġharmon ising
Ġincorpor ation
Ġtack ling
Ġassum es
Ġreve aling
Ġterror ism
Ġmad dening
Ġshop s
Ġamb igu
vis ory
Ġbul ge
Ġgrad ual
ĠDemocr atic
Ġgh etto
ĠFR M
Ġterrit ories
Re ceived
Ġden ominator
ĠDON T
Ġemer ges
ĠObject ives
pack ed
Ġdu plic
cast s
Ġcyc les
cipl inary
Ġtrick ed
Ġspin eless
Ġasse mbly
Ġasse mbled
Ġrout es
Ġgramm atical
Ġrefuge e
hold ers
tit led
ĠNever theless
Ġrob ot
Ġrob bed
Ar t
craft ed
Ġinsert ed
ĠFrank a
Ġrein forced
ĠMel issa
Ġgold en
Ġattend ed
Ġsuperv ise
Ġsen seless
Ġpad ding
Ġarch it
Ġesc apes
rey er
Ġpin ch
rah am
ĠPalest ine
Ġactress es
Ġobtain ing
Ġcrack ing
She ikh
awn ed
Ġwid en
see kers
ĠEv ita
ĠDan ube
Ġcompos er
Ġcompos ers
ĠChe ap
Ġblind ly
Ġengine ering
?! ?!
ĠColl ection
Ġstream s
Ġstream ing
ĠFire wire
ĠOp en
ĠUs her
ĠUs ually
Ġfold ing
Ġaband on
Ġrat io
Ġrot ation
Ġrot ating
Ġdispos ed
Ġdispos able
Ġunre lated
Ġdisgust ed
ĠMA KE
Ġquant itative
Ġdefl ates
Ġ; -)
inet ies
Ġbol t
Ġbread th
ĠSA W
ĠDra gon
Ġpron oun
Ġhorrif ic
Ġacad emy
ĠArgent ine
Ġanaly se
Ġwitness ed
Ġpatch es
Ġwithd rawn
Ġmyth s
ĠEC SC
ĠHel quist
Ġrecon ciliation
Ġaddict ing
sm ith
sm all
Ġchick en
Ġcontract s
Ġelimin ated
Ġelectric ity
Ġfro ze
ĠPol ish
ĠNob ody
Ġinvent ive
Ġtor so
Ġgal actic
Ġgal axy
Ġabst ract
Ġtele phone
Ġblur ry
ĠBaskerv ille
bal anced
Ġreact ors
Ġsoph isticated
Ġbull et
Ġexplo it
Ġexplo itation
Ġintroduct ions
Read ing
ĠPoor ly
ĠConstit ution
Ġbreed ing
Ġtow er
Ġdin os
Ġgig antic
ĠMer cedes
Ġretain ing
Ġtaxp ayer
Com plete
cus sions
Ġlunch box
Ġjamm ing
Ġevol ving
Ġabsor bing
ĠConf ederal
ĠFranc is
ĠFranc isco
Ġwithdraw al
Ġresident s
Ġextrem ism
Ġparan oid
Ġfrag ile
Ġundertaking s
Ġentreprene ur
Rec ently
Ġvel cro
ĠEL SE
RES S
ĠAss ante
Ġcraw l
Ġpostp oned
ĠSpider man
Ġlau ndry
ĠRes olution
Ġglor ious
Ġprincip al
Ġbath room
Ġreass ure
ĠSOME THING
Ġjew el
ĠHead s
Ġpled ge
Ġintoler ance
Ġenrich ing
Ġcoinc idence
Ġincent ives
Ne ither
Somet imes
Ġcush ion
Ġmudd led
Ġgreed y
ĠRh apsody
Ġbless ing
Ġcatastroph e
ĠTurk ish
ĠMexic an
Ġpix el
Ġdimin ish
Ġgoo gle
ĠSn oop
Ġexcell ence
Ġunp redict
Ġinfring ement
Ġdistingu ished
Ġveget arian
Ġtroubles hoot
Ġneighbor hood
Ġscandal ous
Ġunsuccess ful
Ġcum bersome
Ġdre ary
Ġexempt ions
usp ense
ĠDefin ately
ĠGAR P
ĠNik on
ĠLEA ST
Ġconscious ness
Ġcleans ing
ĠProgr amme
ĠClint on
Ġastro logy
Ġenlighten ment
warm ing
Ġtires ome
Ġcyn ical
Ġreper cussions
Ġgre asy
Ġplaus ible
ĠROC KS
Ġimper ative
ĠKenn edy
ĠVi king
Ġinterven e
Ġattent ive
Ġdiagn osed
Ġentrepreneurs hip
Rem ember
min ute
Ġforb idden
ĠCustom er
ĠSU CH
ĠWick ham
Ġintim id
ĠChance llor
Ġfru ition
ĠCarib bean
ĠCHAR AC
ĠDISAPP OINTED
Ġvulner able
Hor rible
Ob viously
Simp ly
access ion
Ġbes ide
Ġod or
Ġdanc ers
Ġlem on
Ġwhims ical
Ġmoistur izer
ĠCher ry
ĠTER R
ĠTerm inator
Ġrh etoric
ĠLap inator
ĠRivend ell
Ġadulter y
Ġrecru it
Ġunins pired
ĠYEAR S
Ġinhabit ants
ĠRosal ind
Ġsympt oms
Ġbibli ography
nost ic
Ġfisc al
organ ized
ĠBuff alo
Ġdisli ked
Ġunimag inative
Ġimplaus ible
ĠVIDE O
Ġhelicop ter
Ġdefici encies
Ġhorrend ous
Ġlackl uster
Ġforens ic
ĠZeal and
ĠLeon ard
ĠRepresent ative
Ġirregular ities
ĠDIFFER ENT
Ġarthrit is
poll uter
Ġcri pp
Ġmun icip
Ġlux ury
Ġsocc er
ĠEAG GF
ĠBost on
ĠBDS M
Ġengin es
ĠLinks ys
Ġmanoe uvre
Ġprelimin ary
Ġgluc ose
ĠBruck heimer
Ġsnugg ly
Ġclaustroph ob
ĠSwitzer land
" --
% ,
) ;
+ ,
0 8
3 2
3 8
4 00
8 5
A b
A c
A part
B I
B S
B ri
B ack
B rit
B etter
B rave
B TW
C ome
D A
D Y
D ay
D avid
E m
E qu
E ff
F in
F ree
F lyboys
F ollowing
G Y
G ET
H A
H D
H on
H aven
I LY
J o
J OY
K en
L a
L ess
L ive
L EADER
M G
M LE
N O
N az
N ordic
P one
P od
P aul
P apua
R es
R ome
R OM
S u
S er
S pe
S em
T ake
T ON
T ION
T AIN
U TH
U ntil
U sed
V ersion
W E
W onder
W ords
X X
] ,
a very
a ise
a ires
b led
b udget
b aby
b attery
c re
c ist
c are
c ases
d en
e z
e ast
f ly
f ish
f ashion
g ement
g row
g ically
h um
h og
h amm
h alf
i u
j a
j et
j our
k k
k ill
l n
l ie
l ab
l ots
l ifer
l anges
m n
m ar
m us
m ight
m ach
m ates
m aker
m oral
m usic
m odern
n old
p ur
p rom
p ieces
r ot
r us
r ational
r ash
r ators
r issy
s ad
s im
s orry
s ounding
t em
t ight
t age
t own
u ity
u ated
v o
v ity
v ideo
w ick
w ave
w ater
w ash
y a
y h
z in
z or
z io
Â ¡
Ã ²
Ã ī
Ã ĳ
Ġ %
Ġ {
Ġ Ã©
Ġt an
Ġt ub
Ġt iger
Ġa esth
in ner
re nder
re gg
on el
on ents
Ġw il
Ġw andering
is qu
er g
Ġs ou
Ġs ard
Ġs ang
Ġs ib
Ġs ansa
Ġs ittings
Ġs ixties
Ġb out
Ġb od
Ġb ills
Ġb inder
Ġb ilateral
Ġb arns
it ious
it ual
Ġo vere
at ar
at ri
at um
at ab
at uring
at oes
at eness
Ġc el
Ġc ub
Ġc oun
Ġc ater
Ġf ract
Ġf ired
Ġf oul
Ġf ores
Ġf aded
Ġf etched
Ġf oster
Ġm s
Ġm ant
Ġm int
or g
or ative
or bo
Ġp a
Ġp am
Ġp omp
Ġp itched
Ġto e
Ġh p
Ġh un
Ġh iding
Ġh unt
Ġh utch
ed uc
ĠI mm
ĠI pod
ĠI RA
an en
an ed
Ġd ere
Ġd ough
Ġd ang
Ġd ug
Ġd ressed
Ġd ances
Ġd ining
Ġd ude
Ġd irt
Ġd ressing
Ġin fect
Ġin ane
Ġin herent
Ġin ept
ar ate
ar ities
ar ians
as ily
Ġl ent
Ġl ately
Ġl ining
Ġl cd
Ġl apses
Ġre j
Ġre w
Ġre iss
Ġre bel
Ġre charge
ic ter
ic ine
ic ations
Ġn urt
Ġn ifty
Ġit unes
ve ll
Ġg est
Ġg ag
Ġg ains
Ġg uts
Ġg ospel
le x
le ft
al ys
ot te
ot ics
Ġe arge
st s
st ill
st aking
st ruction
Ġbe f
Ġbe le
Ġbe ast
Ġbe ac
ent ric
oo s
oo gle
ro lled
Ġwh irl
Ġfor ty
Ġfor ums
Ġy o
Ġy arn
et e
et ically
et tle
Ġst all
Ġst ems
Ġst itches
Ġst olen
Ġyou t
ch ers
Ġwas hes
Ġha bits
Ġnot or
Ġwe aving
Ġwe aves
ke red
ur f
ur ous
ur ry
Ġan atomy
th i
th ank
th anks
th ora
ĠC ut
ĠC ore
ĠC ake
ĠC ash
ĠC urt
ĠC REAT
ĠC resp
ĠC ele
ĠC annon
Ġare nt
ri p
ri ver
Ġas c
ter ing
ĠA ut
ĠA ra
ĠA ward
ĠA way
if ics
ĠS ri
ĠS us
ĠS el
ĠS ER
ĠS aw
ĠS olid
ĠS AME
ĠS low
ĠS UP
Ġpro stit
Ġpro claimed
Ġsh y
Ġsh akes
Ġsh amp
Ġsh iny
Ġsh outing
ra red
ra ined
ra cies
ĠM ous
ĠM ine
ĠM ach
ĠM AR
ĠM useum
Ġse perate
Ġse ldom
em an
em ade
ĠThe a
ĠThe ater
ul ators
Ġcom ics
Ġcom pend
Ġex ert
ĠP a
ĠP ak
ĠP ast
ĠP ink
ĠP ict
ĠP SE
ĠP AY
ĠP enn
ĠP olid
ĠP inochet
Ġal uminum
Ġde ck
Ġde ci
Ġde emed
ers ed
Ġch o
Ġch er
Ġch are
Ġch ron
ĠE V
ĠE nt
ĠE ST
ĠE ID
ĠE lean
ĠE argels
ĠB it
ĠB et
ĠB ass
ĠB ret
ĠB ody
ĠB ander
ĠB abe
ĠB etween
Ġj et
Ġj azzy
Ġdo l
Ġat le
Ġat roc
ol uc
Ġall ev
Ġall iance
ment ioned
us ual
Ġor ph
Ġor ginal
el and
est y
est one
Ġab undant
ĠW on
ĠW es
ĠW ere
ĠW ag
ĠW ave
ĠW OM
ĠW ords
ĠH ay
ĠH ag
ĠH ors
ĠH its
ĠH itch
ĠH of
ĠH yp
ĠH uman
ĠH utton
Ġme andering
un a
un o
un ion
un ct
Ġhas te
ĠT ower
ĠT AP
ĠT olk
ĠT ISM
ĠT uesday
art en
ĠD oc
ĠD over
ĠD ONE
ĠD ictionary
ĠD ario
ĠD rive
ĠD olby
ood y
os y
os ure
nt ax
ci ety
ci ples
Ġv ain
Ġv ign
Ġv ouch
Ġhe ed
Ġhe el
Ġhe ars
Ġhe ating
Ġhe els
ure li
and ra
Ġout right
Ġout fits
Ġen chant
Ġr oof
Ġr ushing
Ġk m
Ġk ings
Ġk iss
Ġk ettle
Ġ( '
ast a
ast ics
ast rich
Ġle af
ind ucing
ap id
ĠF A
ĠF F
ĠF L
ĠF X
ĠF i
ĠF ed
ĠF ar
ĠF ind
ĠF ace
ĠF oot
ĠF ield
ĠF EE
ĠF ederal
ĠF ALL
ĠF AV
Ġup held
ĠG op
ĠG arg
ĠG LA
ĠG OD
ĠG ene
ĠG IVE
ĠG imli
ĠG aza
ĠN am
ĠN av
ĠN ative
ĠN onetheless
Ġcomp ress
Ġcomp aring
Ġthere in
Ġlo ading
Ġlo dged
ig s
ĠL ater
ĠL ank
ĠL iving
ĠL ACK
itt in
Ġdis ks
Ġdis integr
ĠR on
ĠR at
ĠR el
ĠR oy
ĠR og
ĠR ons
ĠR io
ĠR oss
ĠR TS
ĠR angers
ĠR IGHT
ĠR umours
ĠR adeon
ĠR hythm
Ġad s
Ġad am
Ġad ored
Ġad hes
Ġad oles
Ġfe ast
Ġqu il
ĠO ly
ĠO UR
ĠO ften
so cial
Ġrec ieve
Ġrec apt
Ġun in
Ġun ad
Ġun se
Ġun li
Ġun used
Ġun rated
Ġun bel
Ġun cont
Ġun limited
Ġun playable
li p
Ġag ony
Ġag gressive
ab by
are ly
pl ot
pl ane
pl ication
Ġco aster
Ġco exist
oy o
ine es
Ġbu ggy
ĠU C
ĠU l
ĠU mb
ĠU lt
ĠJ ax
ĠJ unk
ĠJ uvenile
ĠJ OB
ĠJ UNK
Ġimp osing
Ġwr itting
Ġchar ism
Ġover used
Ġover sized
Ġres erves
Ġsc ans
Ġtheir s
Ġpe c
Ġpe an
Ġpe ers
av ish
Ġar ray
Ġar med
Ġar isen
ass ment
iz ers
iz able
Ġspe lled
atch ed
ict ions
te c
Ġreg ga
00 8
Ġper ceived
Ġoff ense
Ġoff set
Ġtw e
ac inth
Ġunder gr
Ġunder lined
ĠSt u
ĠSt ere
ĠSt aling
gr oup
ord inate
ident ally
Ġproduct o
Ġproduct ions
Ġback yard
Ġshe ep
Ġte ams
Ġend lessly
ens ation
ens ibly
ens ryche
Ġfil ed
Ġfil th
Ġapp ointed
Ġapp raisal
Ġplay list
Ġdes ires
Ġdes irable
gin ning
ail able
ip id
Ġinst inct
ament s
ĠK inc
ĠK IND
ĠK ylie
Ġlove bird
Ġrep aired
Ġrecommend s
Ġrecommend ing
Ġgu ided
Ġthr ust
ĠY oga
ub l
Ġri val
Ġsp ont
Ġsp ins
Ġsp ooky
Ġtwo fold
Ġgr otes
red g
Ġrem ed
Ġrem akes
Ġrem edy
Ġstr icter
ons ense
oc ation
oc used
oc racies
Ġtra ct
Ġtra ce
Ġreading s
Ġdec orate
Ġsong writer
ĠCh a
ĠCh ron
Ġcons pir
ph is
Ġpur ist
ĠIn n
ĠIn fl
ob ble
get ic
Ġacc use
app ily
Ġbl ond
Ġbl onde
Ġbl atant
Ġwhere by
he im
he he
Ġind ulgent
ĠTH REE
ib al
ib lical
Ġcr inge
Ġfl ies
Ġfl ame
Ġfl our
Ġfl owers
Ġmon ies
Ġsec uring
Ġmat ress
ft y
Ġ4 1
Ġhard ship
Ġtri ple
Ġtri angle
Ġtrans f
Ġtrans former
Ġtrans formation
Ġcount ed
Ġpers ist
Ġche f
Ġche wing
Ġins ipid
Ġinform ing
Ġim pe
Ġpo le
Ġpo ckets
Ġsy ntax
not hing
Ġsupport ive
Ġgl oves
Ġnovel ty
Ġbo ards
Ġbo iling
Ġprogramm er
Ġret ard
Ġdifferent iation
Ġplot less
Ġsimp ler
Ġph ones
Ġorigin s
Ġinv ited
Ġinv itation
Ġinv ented
ĠHe ights
ath etic
Ġide als
IN A
Ġbr ittle
Ġev okes
Ġperson a
ĠAl ice
ĠAl tern
ĠAl fred
Ġsur ge
Ġcharacter istics
Ġchild s
Ġfull est
Ġposs ess
Ġfr idge
Ġcar b
Ġcar ri
ĠMy th
Ġturn out
ract ical
Ġdem ocracies
ĠAs sembly
ese arch
Ġsl iding
Ġ19 30
most ly
Ġav iation
Ġscen arios
Ġdra ins
Ġty ing
ank ind
Ġrest s
Ġrest raint
Ġcur se
Ġart icul
Ġexc er
Ġworks hop
Ġbat cave
Ġmind ed
As imov
Ġsk ips
Ġsk imming
Ġcor ks
Ġcor set
Ġrepl ay
Ġcreat ure
Ġopen er
AT IVE
ef ully
ĠSh ar
ĠSh ipping
ĠNo ble
Ġsocial ism
Ġhead way
Ġhead aches
wor th
Ġinf ant
Ġinf rared
Ġ200 9
Ġcou pled
Ġkid n
EA P
ret urn
Ġcra zed
ustr ated
ĠPro ject
ĠAr c
Ġprocess ed
Ġcond ensed
Ġdist aste
Ġdist inction
Ġamaz e
Ġair planes
Ġdr inks
Ġbeh old
aps ed
Ġdri ed
Ġfall acies
Ġpublic ity
ah olic
Ġcent ers
Ġcent ered
itch shifter
Ġ9 00
Ġpop corn
ale y
Ġcol ored
ĠCon sequently
Ġsoci etal
Ġperform ers
Ġcop ying
oss il
Ġens hr
Ġimpro per
Ġfig uring
ĠAll en
Ġmess ed
Ġear piece
pend ing
ĠBl ock
ĠBl oom
Ġur ging
Ġur gently
Ġsuggest ing
itiz er
Ġobject ion
Ġreplace ments
Ġresol ving
Ġdi vers
Ġdi abetic
Ġsent iment
ĠGr ass
ĠGr amm
Ġpass es
ims on
Ġpar ade
Ġpar ables
Ġbri ghter
Ġhouse hold
arb or
Ġmar gin
Ġmar red
Ġprof itable
Ġprof anity
For ce
Ġpain staking
Ġequ ipped
Ġvis a
Ġelect ion
Ġport fol
Ġstat ist
Ġcommun itisation
Ġrese mble
Ġaccept ing
Ġposition ed
Ġve ter
for get
Ġdev our
Ġdev otion
Ġcomb ining
Ġcopy right
Ġmot ive
Ġlim er
Ġcrit ically
de ath
Ġthird ly
ĠRe con
apt on
ĠUS MLE
Ġsto le
Ġglad ly
Ġsim ilarly
Ġrepresent ing
iss ors
iss apoint
Ġpost age
Ġpost ings
ĠWor st
Ġdialog ues
ĠZ oe
ĠZ ERO
ĠMem phis
rench ed
ĠDe ar
yc le
by e
Ġenl arge
ĠLe von
ĠSome body
ĠSp iegel
ĠMar in
ĠMar ine
ĠMar low
ĠMar lon
Ġdel ves
Ġdel uxe
ĠGroup s
Ġrom p
Ġoper ates
Ġstra w
Ġinfl ates
Ġsn oo
let es
Ġintend ing
sc ope
Ġjud iciary
play er
play ing
ĠJohn ny
Ġsuff ice
Ġinstruct ors
Ġappropri ateness
Ġste al
Ġste als
Ġinvest ed
Ġconnect ors
Ġrad ios
Ġdocument ed
ĠPr im
ĠPr ice
ĠPr ince
Ġaccess ory
Ġaccess ories
IC AL
ĠSch reyer
ĠEx pect
yr s
Ġdoubt ful
inist ry
ĠHer b
Ġdead ly
Ġhistor ian
Ġmed ieval
Ġindividual ity
Ġheav ier
Ġlibr aries
Ġprogress es
umb aw
Ġsens ation
Ġsumm ar
ĠHa ven
Ġopp ression
ĠAd obe
ĠAd mittedly
Ġfle w
Ġswe ar
Ġswe aring
rill er
Ġstrength s
sh ould
Ġident ification
Ġident ifying
Ġcook ie
Ġsubst it
Ġadvert ized
Ġcontact s
Ġcross es
Ġtrad ed
Ġtrad em
Ġwin ners
ĠST AY
ĠST OP
Ġbeat en
Ġple thora
Ġdest ructive
199 8
Ġdiss atisfaction
Ġdiss atisfied
Ġmanag erial
Ġir rational
Ġlay er
ĠWar ning
Ġpat ients
ĠBuy er
Ġdemand ed
ĠBrit ney
ean ing
ĠMost ly
Ġconsum ing
ener ally
Ġindic ations
Ġindic ating
Ġsoul ful
Ġsoul mate
Ġmother hood
Ġrecyc l
Ġcritic ise
Ġterm ed
!!!!!!!! !!!
Ġtend ed
Ġemploy ability
Ġemphas ize
ox ide
ĠSand ers
ĠSte iner
Ġrich er
Ġformat ted
Ġdiv ide
Ġlear nt
Ġsoundtra cks
Ġeduc ated
Ġinstrument ation
Ġpuzz ling
AP H
Ġjour nals
Ġjoint s
Ġjoint ly
Ġpromot es
Ġmer cy
Ġluck ily
Ġvict ory
ĠFl orida
Ġnet working
ĠMan ual
Ġsold iers
ĠGe Force
ev a
Ġinflu ences
ĠInd ians
Ġcompreh ension
Ġterrif ied
Ġcapital ism
Ch arl
Ġloud ly
Ġ18 0
Ġcivil isation
Ġstri ke
ĠThank fully
Ġwarning s
Ġdie hard
ĠQu inn
ĠQu estions
OS ED
Ġdepend ent
ENT S
Ġvib rate
Ġble eding
ĠBel a
Ġunf unny
Ġunf olds
Ġunf amiliar
Ġang st
ĠEn ter
UN D
Ġcamc orders
ĠEd gar
ĠFe el
Ġbrain less
Ġbill ions
Ġpsych ology
Ġconsequ ently
Ġupd ates
ĠGl oria
Ġmass ager
alt ies
ĠCol umb
Ġcompar isons
Ġadjust ing
Ġadjust ments
Ġ196 2
ĠWOR TH
Ġconclud ing
ha ven
ĠRE G
ĠRE L
AB Y
Ġpra ised
Ġstrand ed
ĠAg ency
OP H
eff ective
roc odile
ĠRom antic
bl ue
bl own
ĠEm per
iling ual
ĠPar amount
Ġharmon ies
Ġtack led
Ġcinem atic
Ġunderst atement
Ġinvestig ate
,, ,
MP EG
ĠCath olics
ĠAct ing
ĠNor way
pol itical
Ġoutd oors
Ġinspect ors
Ġlink ing
imm ed
Ġrhy mes
Ġdefend ed
Ġproceed ing
ĠEN JOY
ĠEX CE
ĠEX TRE
ĠFin negans
ĠREAD ING
Ġdepart ure
Ġbreath less
Ġfac inating
Ġfac ilities
Ġgain ing
Ġdu o
Ġdu et
Ġupgr ading
Ġupgr aded
Ġspin ning
Ġdeliver ing
Ġast ron
Ġmir acles
ĠBas que
ĠCam bridge
Ġflash light
ĠANY ONE
mo vie
mo ving
ĠMel ville
Ġcrash ed
++ ++
AST IC
Does n
inal di
Ġtheat res
Ġenlight ened
des pite
Ġidi otic
Ġpoll uting
ĠMeg atron
Ġjack et
ĠDE FIN
Ġautom ated
Ġsovere ign
ĠWil bur
Ġwid th
Ġwid ened
Ġbelly dance
roll er
ĠCons idering
Ġkick ing
Ġcompos itions
Ġdisappe ars
Ġing en
Ġfort unately
ĠMa astrich
ĠBar Ã³n
Ġscar let
spe c
Ġdread ed
Ġdread fully
ĠSecond ly
Ġalt ered
ĠDec ision
Ġlegend ary
ĠUs ed
Ġtransl ate
Ġrefres her
Ġdistract ed
VEN ILE
med ia
Ġom ission
Ġfold s
Ġisol ated
Ġconver sion
Ġunre liable
Ġinsist ing
Ġexplos ion
Ġmotiv ated
Ġcampaign s
cons uming
ĠCor ky
Ġdiscipl inary
Ġquant ities
Ġextensive ly
Ġrelax ed
Ġtrib ulations
ĠSpe aking
Ġorchest rated
Ġevident ly
Ġanaly tical
Ġanaly zing
ĠEVERY ONE
Ġindustrial ised
Ġdynam ics
fe el
Ġtent h
Ġsem in
Ġdele te
ĠBalk an
ĠLu cy
ĠLu Pone
Ġwaterproof ing
Ġsal vation
Ġpil ots
ĠMAN SON
ĠDIS S
ĠStr ong
Ġawa ited
Ġobst ruct
Ġelimin ating
vin cing
Ġtall er
Ġtick ets
Ġexpand ed
Ġadvoc ating
Ġextraord inarily
Ġcontrast s
uit ous
Ġtur key
Ġbrow sing
Ġbrow ser
Ġped est
Ġped antic
Ġant ivirus
Ġliberal isation
Ġabst ain
Ġspr ung
Ġflo at
Ġflo ating
Ġtransition al
Ġbehavi ors
Ġtang led
Ġsan ity
Ġbull ets
Ġreput able
Pl ath
Ġtag s
ĠLuck y
ĠReturn ing
Ġunex pl
neg ie
ĠSTAR S
Ġsynth es
Ġfacil itating
bi ased
mans hip
Ġnic kel
str ong
Ġproph etic
ĠHOW EVER
ĠTim othy
ĠGen esis
ĠGra Ã§
ĠRad io
Ġoverlook ed
Ġphotograph ed
Ġweakness es
Ġcontempl ate
Com ing
ĠeM arks
Ġanth ology
Ġanth rop
ĠAW AY
ĠFIN D
Ġwo efully
Ġinacc ur
Ġloo ph
Ġeager ly
Ġhall oween
ĠExt remely
ĠTre vor
ĠNet work
ĠNap ier
Ġdisadv antage
Ġmanip ulate
Ġpreced ing
Ġresist ance
Ġendorse ment
Ġpretend s
Rec ommend
ĠWarn er
ĠJour nal
Ġpref ered
Ġspell s
ĠStars hip
Ġbooksh elves
ĠArt ist
Ġadvertis ements
Ġmelod ic
Ġlandsc apes
ĠBrazil ian
Ġempath ize
Ġacknowled ges
fin ancial
orient ated
ĠDur an
ĠGil man
ĠCommun ist
Ġguard ian
atisf ying
Ġdom estic
Ġcomed ian
Ġalleg ations
ĠDal i
Ġpled ges
Ġintens ity
ĠRen o
ĠJose ph
Ġprev ents
Ġperipher y
Ġincent ive
Ġgloss ary
ĠAnge les
ĠProt ocol
Ġenthr alled
Trans formers
Ġexhaust ive
Ġpredecess or
Ġstink er
Ġprohib ited
ĠWr iting
ĠWANT ED
9999 9999
Ġcomplet ion
Ġcomplet ly
ĠRev olution
Ġhomosex ual
ĠMexic o
Ġbog ged
charg ed
ĠSleep ing
ĠMos by
ĠEight y
ĠTw ilight
Ġaccommod ate
Ġfiref ighter
Ġfiref ighters
Ġunsuccess fully
dri ven
turn er
Ġineff ective
Ġgam ble
Ġstro ke
Ġexcel ent
Ġlibert ies
Ġlibert arian
Ġdece iving
ĠLead er
ĠRand zio
Ġunequ iv
Ġoffic er
Ġoffic ers
Fl ash
cor rect
col or
elect ronic
Ġfurn iture
Ġdile mma
ĠCapt ain
ĠMass acre
Ġchuck le
ĠEM U
ĠBreat hing
ĠWol verine
ĠTAC IS
Ġvo iced
Ġarrog ant
ĠStand ard
Ġsyner gy
Ġmaj estic
ĠConserv ative
ongh i
ĠIra q
Ġnipp le
stuff s
ĠSix th
Ġprog ressed
ĠHy acinth
Ġintric ate
ĠGall ery
ĠGreg ory
ĠLOOK ING
Ġdisgu ised
Ġrepublic ans
Ġmonument al
Ġcertific ates
ĠRECOMMEND ED
Mo vie
Wr itten
Ġpiv otal
Ġgad get
urb ished
Ġliqu id
Ġration ale
ĠFANT ASTIC
Ġnostal gic
Ġunimp ortant
Ġpric eless
ĠStra uss
ĠVo ivod
Ġdecre ase
Ġreluct antly
Ġpreserv ation
ĠAlt itude
ĠAlask a
Ġartif acts
Ġsketch es
Ġtherm omet
Ġaudiob ook
Gen uine
IEC E
Ġmalf unction
Ġhurd les
Ġloun ge
Ġlingu istic
Ġnurs es
ĠCream er
ĠAgricult ure
ĠSic ily
ĠMarsh all
ĠBour langes
ĠBert oluc
Ġintu itive
ĠGh ost
Ġcompil ations
ĠRash el
Ġunjust ified
Ġarbit rary
ublish ed
ĠViv itar
Ġfunn iest
Ġcolleg es
Ġnumb ered
ĠReyn olds
Ġepid emic
Ġencl osed
ĠPhill ips
Ġunden iable
Ġinexplic able
ĠBurrough s
ĠMetall ica
Austri a
Ġhazard ous
ĠCood er
ĠMitch um
ĠBurg ess
ĠWAT CH
Ġoutlaw ed
ĠNG Os
Ġunple asant
Ġunatt ractive
ĠJU VENILE
ĠJob st
ocaly ptic
Ġflu id
Ġprovis ional
ĠSTUP ID
Ġambigu ity
Ġarchit ect
Ġclaustrophob ic
Rome o
fashion ed
hamm er
lifer ation
Ġpomp ous
Ġdere g
Ġgest ure
Ġearge l
ĠCresp o
Ġshamp oo
Ġcompend ium
ĠPak istan
ĠPolid oro
Ġdeci pher
ĠEID OS
ĠElean or
ĠWag ner
Ġenchant ing
ĠFEE L
ĠFAV OR
ĠGLA D
ĠRons on
Ġadhes ive
Ġunli kable
Ġcoexist ence
ĠStaling rad
ĠKinc aid
Ġgrotes que
ĠMarlow e
ĠEXTRE ME
ĠMaastrich t
ĠGraÃ§ a
ĠBertoluc ci
! (
! ,
' "
) ].
. --
0 2
1 000
2 1
3 6
5 4
6 00
7 2
7 00
A K
A Z
A ct
A verage
A ccord
B ay
B esides
B ODY
C A
C ar
C ER
C ontin
D ark
D ear
E nd
E conom
F C
F I
F orm
F ECT
F YI
G AN
G REE
G ATIVE
H ar
H ot
H ell
H amm
H uman
H azlitt
I ER
I LD
I OUS
J im
J ud
J anet
K Y
K ED
L C
L eg
L yn
L iam
M I
M Y
M c
M ust
M arg
M ean
M embers
N A
N ob
O ri
O thers
O SE
P L
P M
P T
P re
P ort
Q ue
R el
R ather
R AY
R obin
R unning
S l
S an
S im
S ur
S il
S her
S port
S ex
S leep
S weet
T er
T en
T im
T alk
U V
U Y
U gh
U ED
U LL
U MB
V an
V IN
V ING
V III
W R
W AR
W OW
Y oung
Z z
] :
a q
a gh
a ith
b ar
b id
b ul
b ought
b rand
b ps
b urg
c ou
c al
c am
c ope
c rew
c uts
c ubes
d a
d ers
d ge
d ough
d ict
d ream
d oes
d ouble
e u
e em
f an
f em
f ive
f ied
f oot
f ler
f ights
f raud
f lix
g ow
g led
h all
h ind
h ered
h ulled
i ary
i ates
i ography
i ppers
j ack
j ores
j Ã¶
k h
l it
l ore
l ass
l ace
l abel
m ic
m ay
m ith
m ain
m ond
m ount
m atic
n ically
o ire
o ise
o ken
o gear
p c
p ow
p un
p ity
p ets
p oor
r ition
r up
r imin
r ison
r idden
r unning
s l
s n
s it
s ent
s ort
s ong
s imp
s pect
s oul
s che
t ake
t ry
t ail
t ered
t ower
u u
u ld
u ations
u eless
w agon
w oman
w ashed
x ie
y re
y our
y ric
y ards
z id
z el
z art
z uela
z stan
z sche
Ã ±
Ġ ).
Ġ ???
Ġt ar
Ġt ad
Ġt ame
Ġt ilt
Ġt utor
Ġt ables
Ġt oned
Ġa pe
Ġa pt
Ġth s
Ġth ir
Ġth resh
Ġth rive
in ine
in ery
re ne
re commend
re search
Ġw age
Ġw ww
Ġw ipe
is per
er th
Ġs ill
Ġs ap
Ġs ack
Ġs well
Ġs way
Ġs ins
Ġs iding
Ġs ights
Ġb a
Ġb or
Ġb id
Ġb il
Ġb ind
Ġb atch
Ġb ise
Ġb io
Ġb ush
Ġb aked
Ġb uds
Ġb ounce
it ol
it ig
it ically
Ġo o
Ġo z
Ġo un
Ġo cean
nd as
nd um
at ility
at isation
ou k
Ġc ul
Ġc iv
Ġc ue
Ġc ath
Ġc ited
Ġc aving
Ġf ri
Ġf ue
Ġf iddle
Ġf ossil
en i
en ly
en cer
en berg
Ġm m
Ġm im
Ġm ud
Ġm arch
Ġm asc
Ġm asks
Ġm ommy
Ġm useum
or ite
or bed
or illa
Ġp s
Ġp ir
Ġp ist
Ġp ause
Ġp ens
Ġp ets
Ġp iss
Ġp ills
Ġp issed
Ġto es
Ġto ll
Ġto ile
ing y
ing ing
Ġh ire
Ġh ord
Ġh inge
Ġh uh
ed ge
ed ited
ĠI Q
ĠI X
ĠI mp
an os
an ci
an ked
ll i
ll ers
Ġd ot
Ġd ow
Ġd ive
Ġd un
Ġd rib
Ġd uly
Ġd umping
Ġd umber
Ġd ancer
Ġd atab
ar ter
as pl
as ia
as gow
Ġl b
Ġl un
Ġl ite
Ġl ays
Ġl itter
Ġl oops
Ġl iners
Ġre b
Ġre nder
Ġre arr
Ġre hab
Ġre run
ic us
om it
om fort
Ġn i
Ġn aked
Ġn ylon
Ġn ineties
Ġg ull
Ġg ird
Ġg ently
Ġg irth
Ġg ask
Ġg oose
Ġg ulf
Ġg eek
Ġg erman
le en
le ad
le ine
le asing
le quin
al bum
al ked
ot a
ot ing
ot ch
Ġe ct
Ġe ject
Ġe ternal
Ġe bay
Ġe ighth
st ing
st ro
st ere
st ock
Ġbe gging
ut ive
ent in
ent iful
Th us
Th omas
ad le
ad io
ad ows
ad uate
ad venture
se x
se ason
se ctor
et or
ld ous
id ered
Ġst u
Ġst if
Ġst ub
Ġst atic
Ġst ains
Ġst ale
Ġst ored
Ġst ones
Ġst agger
Ġst amps
ch ered
ch anging
im age
im ony
am in
Ġwe ep
ke ep
ur ie
ur ation
Ġan om
Ġan ge
th ou
th ose
th riller
ĠC E
ĠC in
ĠC as
ĠC art
ĠC and
ĠC au
ĠC ock
ĠC any
ĠC ru
ĠC rit
ĠC lear
ĠC ox
ĠC OME
ĠC eline
ĠC opy
all els
pe ak
ri um
ri arch
Ġas set
Ġas pire
ĠA I
ĠA wards
ĠA gu
ĠA zz
ĠA yn
ĠA IR
ĠA UD
ĠA bsolutely
ĠA UTH
ĠA ureli
ie nd
ie land
ill i
ill ard
ill ance
ĠS I
ĠS M
ĠS r
ĠS ant
ĠS av
ĠS od
ĠS ense
ĠS ON
ĠS OU
ĠS pend
ĠS ex
ĠS OO
ĠS elf
ĠS UR
ĠS inger
ĠS IDE
ĠS ervice
ĠS pring
ĠS QL
ĠS jÃ¶
Ġpro be
Ġbut chered
Ġsh aken
Ġsh ameless
ĠM t
ĠM it
ĠM id
ĠM ered
ĠM its
ĠM ero
ĠM etal
ĠM GM
ĠM inistry
Ġse l
Ġse wn
em a
il ated
il ian
Ġcon vert
Ġcon ventions
ĠThe at
ĠThe res
ul ge
Ġcom o
Ġcom edi
Ġex ting
Ġex iting
Ġex quisite
Ġex empl
Ġli kable
ĠP ent
ĠP ap
ĠP ick
ĠP oll
ĠP rem
ĠP ier
ĠP ump
ĠP oss
ĠP ray
ĠP uss
ĠP AIN
ĠP utting
ĠP NY
ĠP ryn
ĠP acific
Ġal ittle
Ġde ploy
Ġde eds
Ġch ir
Ġch ant
Ġch urn
Ġch ock
Ġch oir
ĠE ra
ĠE ner
ĠE mm
ĠE lling
ĠE LD
ĠE FF
ĠE duc
ĠB S
ĠB il
ĠB ul
ĠB un
ĠB os
ĠB ry
ĠB ase
ĠB eth
ĠB rilliant
Ġsu e
Ġsu g
ess a
ess ert
ort s
Ġj ar
Ġj anet
Ġdo pe
Ġat e
ol i
ol in
ol ation
ol era
ge nder
Ġall ey
ist ance
ant is
ant om
ment ed
ain ts
qu et
qu eness
op er
op ol
op ular
ĠW ant
ĠW ard
ĠW ore
ĠW oman
ĠW iley
ĠW alker
ĠH im
ĠH un
ĠH art
ĠH ip
ĠH old
ĠH ands
ĠH ocking
ĠH alti
ĠH odge
Ġme jores
un ition
um per
um bers
reat es
ĠIt em
Ġhas nt
ĠT os
ĠT ree
ĠT akes
ĠT ask
ĠT iny
ĠT une
ĠT ai
ĠT ommy
ĠT aj
ĠT atum
ĠT imson
ĠD ead
ĠD ale
Ġcan cel
Ġpl un
Ġpl astics
Ġpl entiful
one ly
ood ing
Ġint act
Ġint ex
Ġint rest
ard o
ard on
ci ously
ci vil
ak a
Ġv est
Ġv oid
Ġv omit
Ġhe ated
Ġhe aters
Ġhe fty
ect ions
Ġout set
Ġout lets
Ġout lining
Ġtim eline
Ġen se
Ġen velop
Ġr am
Ġr ally
Ġr usted
Ġr itual
Ġk its
Ġk arate
ound ed
au g
Ġle is
Ġle ver
ore r
end hal
ĠF ate
ĠF ab
ĠF ull
ĠF AL
ĠF irth
ĠF asc
ĠF AM
ĠF IL
ĠF IVE
ĠF arris
ĠF OUR
ĠF oster
ĠF ollowing
ĠF ACT
ĠF itness
ĠF ULL
Ġup load
Ġup heav
Ġno on
Ġno pe
Ġno ble
Ġam id
Ġam used
ĠG iven
ĠG raph
ĠG oes
ĠG arth
ĠG onna
ĠG imm
ĠG ama
ĠG nostic
Ġwho lly
ack ing
Ġgood ie
ĠN at
ĠN ON
ĠN ature
ĠN iet
ĠN BC
ĠN IGHT
ĠN ATO
ĠN orton
ĠN anci
Ġcomp li
Ġcomp lying
ig ious
Ġ1 10
Ġ1 40
ĠL it
ĠL at
ĠL en
ĠL or
ĠL ion
ĠL ite
ĠL ost
ĠL eg
ĠL ene
ĠL arre
ĠL ogan
ĠL anguage
ĠL UV
ĠL onely
Ġdis pro
Ġdis belie
Ġdis organized
ĠComm unities
ag en
ĠR D
ĠR ate
ĠR ain
ĠR ack
ĠR ide
ĠR ib
ĠR obin
ĠR inaldi
Ġad vers
Ġad verse
Ġad hered
int ention
ud a
Ġqu a
Ġqu ilt
ĠO cc
ĠO wn
ĠO pport
ĠO LD
ĠO kay
ĠO MG
so ld
Ġrec oll
Ġrec alled
Ġgo dd
Ġun le
Ġun ch
Ġun ity
Ġun ab
Ġun ful
Ġun amb
Ġun original
Ġun prof
Ġun biased
li ver
li ba
pt s
pt on
Ġyour selves
Ġman sion
Ġman uscript
ab er
ab ilities
Ġco ating
iv able
ans as
ĠU seless
ĠJ osh
Ġimp ract
Ġcl ause
Ġcl unky
Ġcl ueless
Ġpre fect
... (
per form
per haps
per ienced
Ġkn ee
Ġkn itting
Ġkn ees
ber y
ber ry
ber ts
ber to
ell a
Ġover coming
Ġover blown
Ġres erve
Ġsc our
Ġsc orn
Ġsc ales
Ġsc roll
Ġsc anned
Ġsc issors
Ġye a
Ġpe ak
Ġpe ice
Ġpe ek
Ġneed less
Ġar du
Ġar rested
iz ard
Ġspe ar
cc a
cc es
cc able
ful ness
Ġreg imes
Ġreg urg
ition ally
Ġsa il
Ġper ce
Ġper cus
Ġoff icially
Ġunder way
Ġunder pin
ĠSt ore
ĠSt ok
ĠSt yle
ĠSt alin
ĠSt endhal
Ġback ward
Ġend ors
ens es
Ġfil ters
Ġapp reh
az ine
Ġplay station
Ġdiff ering
It em
gin a
ail and
ĠUn believable
Ġinst ig
Ġfilm making
ĠK en
ĠK ee
ĠK yr
ĠK under
ĠK han
ĠK lein
ĠK andi
ĠK auf
Ġrep airs
Ġrecommend able
ĠWh ale
ial s
Ġmus hy
ĠY a
ĠY u
ĠY idd
ĠY anks
ĠY ear
ĠY ello
ĠY ellow
ub bed
ne ider
Ġsp ur
Ġsp ice
Ġsp aring
Ġsp aces
Ġsp awned
Ġreal ization
Ġreal istically
ĠV B
ĠV oc
ĠV ision
ĠV imes
ĠV irt
ĠV ivend
ĠV alley
ĠV incent
ĠTh an
ĠTh ys
ĠTh ai
ĠTh under
ĠTh umbs
Ġro ses
Ġcomm ing
Ġgr ades
red ible
ĠAm oco
Ġstr anger
oc ative
Ġdec ay
ĠCh ange
ĠCh uck
ĠCh opin
Ġcons cience
ph ant
ph let
ph abet
Ġra ving
Ġra cing
Ġra ps
Ġpur itan
ĠIn sp
ĠIn side
ĠIn vest
ĠIn formation
Ġent ity
Ġent icing
Ġdown ward
ild red
Ġacc used
Ġbl og
Ġbl ush
Ġbl anks
Ġbl amed
Ġho ot
Ġho ax
Ġho llow
Ġind efinitely
Ġind epth
Ġind ifferent
ib il
amm es
Ġsm ear
Ġsm iling
Ġcr ammed
Ġfl ap
Ġmon t
Ġbefore hand
Ġatt itudes
Ġauthor itative
ince meat
ren ces
ertain ing
Ġ4 9
Ġhard est
Ġclass ified
Ġhel pless
Ġlot ion
Ġob sole
Ġadd itives
Ġdisc arded
Ġdisc omfort
Ġsub ordinate
und i
und ay
In ter
Ġlast ly
pos ition
ĠBut ch
Ġrel ies
ention al
Ġref l
Ġref urbished
cess arily
Ġcount y
Ġcount ies
air y
lud ed
Ġmin us
Ġcomple ting
Ġche er
Ġche at
Ġins ulation
Ġins anity
Ġim itation
Ġim bal
aw are
be ck
be autiful
Ġpres cription
Ġpres erved
not ch
Ġgl ider
Ġgl ove
Ġgl oom
Ġbo om
Ġbo ats
Ġfav oured
Ġprogramm ers
Ġmis led
Ġret ri
Ġret ained
Ġplot ting
Ġplot ted
Ġph arm
Ġph ony
Ġph oned
Ġconf use
Ġleg ality
Ġap ology
Ġhum ming
Ġboth ers
Ġcome back
Ġeconom ical
Ġhand ic
Ġhand book
Ġel ite
Ġless en
Ġev ry
Ġed gy
ix ed
Ġdet ached
ĠAl an
ĠAl as
ĠAl ong
ĠAl pha
Ġcharacter izations
Ġlet down
Ġcar riage
Ġfam ilar
Ġfam ili
ĠMy stere
RE AM
OT S
Ġtell er
ĠAs ide
ĠTHE N
Ġdefin es
Ġsl ice
Ġsl og
Ġsl aves
Ġsl apped
Ġsl avery
Ġmark ings
Ġbas hing
most at
Ġpret ension
ĠBr ooks
ĠBr utha
Ġass urance
vers al
Ġdra gging
AN E
Ġty r
Ġsit com
Ġrest art
Ġrest oration
Ġcur ve
Ġcur ves
Ġcur tains
Ġstand by
ĠWe ber
Ġhope lessly
Ġcame o
arch ical
arg o
arg on
Ġcor pus
Ġrepl ies
Ġrepl aces
Ġmiss pell
Ġspecial ists
Ġopen ings
AT H
ĠSh o
ĠSh ell
ĠSh adow
Ġdeal ings
Ġclear ance
Ġ8 6
ĠNo v
Ġspec ifics
Ġ6 2
Ġ6 6
Ġ6 00
com plete
wor ked
Ġinf amous
Ġappe nd
ĠChrist y
ĠChrist ians
ru ck
OU CH
Ġquestion able
Ġenv oy
Ġcra ve
ĠPro gress
Ġcre ations
ĠAr nold
lus ser
OR D
Ġprom inent
Ġyoung sters
gy zstan
Ġdist ress
ier i
ump ed
Ġage ing
Ġdri p
Ġline up
Ġadm ired
Ġadm itting
Ġadm itted
Ġadm ittedly
Ġpay ed
Ġpack ing
ott a
Ġplan es
EN E
EN ED
EN CE
ĠAn na
Ġcent r
Ġbeautif ull
Ġstar ing
Ġstar ter
Ġ9 1
Ġmet iculous
Ġsuper gl
Ġsuper visory
ale m
Ġaid s
Ġcol oss
ĠCon an
Ġson ic
Ġsaf er
Ġperform er
Ġfree zing
Ġrespect ful
Ġbox set
LL ENT
Ġens ures
ĠDon ald
ĠOr tu
Ġest ate
Ġest imate
ĠBl ake
ĠBe a
ĠBe ach
Ġur ged
Ġann ually
arent s
Ġforward ing
Ġspecific ations
ric ane
Ġpract iced
Ġreform at
Ġfail ures
bo at
Ġsent iments
Ġimm oral
Ġimm inent
Ġteach ings
Ġach e
ST A
Ġcheap est
Ġpar ano
Ġaddition ality
Ġmar ble
Ġmar ath
Ġmar vell
ĠCl aud
ĠCl aus
ĠCl apton
Ġvis as
Ġvis ions
vent ures
work ers
Ġport ions
Ġport ability
Ġport rait
Ġrese mblance
Ġve t
Ġve in
ocr atic
Ġdev ol
Ġdev ise
Ġtest ament
Ġshi pper
Ġ20 12
Ġca pe
Ġca utionary
Ġhuge ly
Ġcomb inations
Ġarri ving
ane ous
Ġmot ives
Ġlim iting
ĠDo or
ĠDo ig
Ġbusiness people
br id
Ġfair ness
Ġhon ors
Ġmill s
ĠRe gina
sw er
Ġsuccess ive
Ġer ad
Ġmodern ise
Ġfant astically
ĠIs ab
Ġ198 3
Ġ198 6
Ġ198 9
AL E
AL S
Ġcool er
ĠTO O
AR K
Ġsim iliar
lo ved
Ġscreen ing
ĠSc ope
ĠSc enes
ĠWor k
Al t
Al ways
Ġey ed
ĠTo zer
Ġrecogn izes
Ġfa cial
Ġfa una
Ġsounds c
ĠX L
ĠX M
ĠX X
ĠZ e
Ġbreak fast
Ġbreak through
Ġguid ing
Ġrock in
AS K
AS Y
ĠDe L
ĠDe ep
Ġener getic
Ġextra v
son ic
ĠMay hem
ĠLe ave
ĠLe arn
ĠSp ice
ĠSp iel
ĠMar io
Ġsw all
Ġsw ords
Ġsw imming
Ġuni versity
Ġuni queness
Ġinfl ating
Ġsn ack
Ġsn ob
Ġsn acks
sc ary
ĠON ES
Ġburn er
amp ant
IT A
IT ED
Ġevent ual
Ġdraw er
yl v
Ġste ep
Ġstupid est
Ġinvest ors
ney ed
Ġmen us
Ġrad ically
Ġrad iation
Ġcla uses
Ġhaven s
Ġsimilar ities
ĠPl ace
ĠPl aspl
ĠSch ure
ĠSch neider
ĠEx it
ĠHer r
isod e
Ġhistor ically
Ġhistor ians
Ġmed ication
Ġdance hall
Ġconv iction
onst ers
Ġstick ers
umb les
Ġcondition ality
Ġsens ational
Ġfoot ball
SE C
ĠAny ways
ĠAny how
ĠMin olta
Ġdeser ving
ĠAd ult
Ġcred ited
Ġdeep ening
Ġforce fully
ĠInst itute
Ġpredict ed
inst ead
Ġred isc
Ġred iculous
Ġtravel s
Ġtravel ed
sh ot
sh ow
Ġcook ed
AC E
Ġcomment ing
Ġcomment ed
Ġsusp ence
Ġsusp icion
Ġinsp ires
Ġdemocr ats
head ed
Ġfront al
Ġmoment um
St and
St argate
St acie
ĠPer ry
ĠWH ILE
Ġspirit uality
ik er
ik istan
ĠMc M
Ġfinal ised
Ġsolid ly
Ġprofess ionally
ĠWhite y
ĠWar craft
Ġpat ron
Ġdro ve
ĠGood bye
ĠRead ers
Ġbar rel
Ġdig est
Ġexplain ation
Ġoffer ings
Ġthin ner
Ġpump s
Ġpump ed
Ġele ven
ĠHA PP
Ġfre aking
Ġtrou bled
Ġclos es
Ġsoul mates
Ġhero ic
Ġdemonst rations
Ġcritic ised
Ġcritic ising
Ġbi ograph
Ġbi ographical
Ġwaist line
Ġfem ales
Ġconcert s
Ġexplan atory
!!!!!!!! !
Am eric
Ġpill ars
Ġwall et
Ġparticip ating
Ġscript s
Ġemphas izes
Ġmach inery
Ġrich est
ĠKing ston
Ġspo on
Ġobs erve
Ġbrill iance
ĠDr ama
ĠGu ards
ĠGu arant
Ġinstrument als
Ġlegisl ate
Ġund one
He art
ĠReg ions
ĠReg ardless
Ġscan ning
pro duced
Ġtour n
Ġtour s
Ġcat aly
Ġmer ger
ĠCar negie
Ġregret table
ĠMan cha
ĠBE FO
ev ille
Ġfab les
Ġmel ted
Ġmel anch
Ġpen alties
Ġshock er
Ġtyp o
Ġmil k
Ġhair y
Ġaltern atives
ĠLa an
ĠLa os
ĠLO ST
ĠLO VES
ĠMad ness
ĠMad ison
ĠMich igan
Ġprotect or
Ġtom e
Ġroll erball
Ġspeed s
Ġemb ra
Ġemb argo
20 11
ĠSer um
Ġ18 00
Ġdraft ed
Ġcivil izations
ĠChar acters
Ġx box
Ġcli ent
ĠInt ro
ĠInt erest
200 1
Pro v
Pro jects
Ġmurd erous
ĠQu ick
Ġmount ed
Ġnation ality
ĠComp act
Ġdepend ence
Ġinterview ed
ENT ION
ĠSH OW
ĠJan Sport
Ġhighlight ing
Ġsubm ission
Ġment or
Ġland l
Ġland ing
Ġconven iently
Ġexerc ising
ĠBOOK S
Ġunf ocused
ĠBlu Ray
Ġreject ing
Ġcoord inating
Ġban king
Ġrenew ed
su per
with out
with standing
Ġfright ened
ĠSimp ly
Ġremark ed
Ġletter box
lock ed
Ġpsych e
Ġpsych o
che ck
ĠGl ory
ĠGl asgow
Ġcontain ers
ĠWho ever
Ġstress es
Ġprem ature
Ġperm e
Ġperm itted
Ġperm issible
Ġsympath ize
Ġ196 5
Ġ196 8
Ġ196 9
Ġvari ations
ĠWOR LD
Ġvan ity
Ġhell o
Ġtrust ed
Ġhom ophob
ĠAL OT
ĠAL WAY
........ ..
Ġdissapoint ment
ĠSy ndrome
ĠMon k
ĠMed icine
Ġdisplay ing
Ġ197 6
Ġ197 7
ha ul
Ġadapt ability
Ġconsult ations
Ġconsult ative
Ġsam pl
Ġfing ern
Ġpassion s
Ġpassion ately
Ġassoci ate
ĠSu f
ĠSu pport
ĠRom ance
ĠRom ania
Ġqual ify
Ġqual itative
bl owers
anc ies
Ġec osy
ĠWould n
Ġcompat able
Ġcompat ability
Ġrefere ndum
Ex p
oop ing
Ġcomfort ing
Ġchem ists
Ġintention ally
Ġvirt uos
Ġsimpl ification
Ġsurround ed
Ġtack y
ĠGet ting
thern et
Ġunus ually
ĠThanks giving
Ġassum ptions
ĠBlue grass
Ġstretch ing
Ġsole mn
ĠNight wish
Ġseek ers
Ġspot light
Ġsteel works
Ġinvestig ated
Ġinvestig ative
MP LE
Ġmad ness
Ġhur ting
ĠIm port
Ġelev ate
ĠEl ton
Ġamb ient
Ġcomprom ised
ene zuela
Ġexpos es
ĠTR ACK
ĠTR AIN
Ġoutd oor
Ġphr asing
Any way
Ġsand ler
Ġbul k
arre l
Ġcoast line
Ġgrad ers
Ġflow ing
Ġbow ed
ald on
ĠWW E
ĠFin al
ĠFin ance
Ġdism ay
Ġdism issed
Ġfarm er
Re al
Ġfac ility
Ġpet ty
Ġtoler ated
Ġemer ge
Ġemer ged
Ġemer gence
Ġmisle ad
Ġsli pp
eng ut
Ġhes itation
ĠCH EAP
place ment
hist orical
Ġiron ically
Ġboo bs
Ġweap on
ĠMor gan
ĠMor ison
Ġvision ary
Ġintellect ually
Ġobserv atory
BA GE
fl ash
Ġpun s
Ġpun ishing
Ġfo resh
ĠCr us
ĠCr ime
ĠNe il
ĠNe ither
Ar m
ĠBarb ara
Ġuns atisfact
Ġuns atisfying
Ġvisit ors
gl ass
hh h
yp se
Ġrein forcing
Ġenorm ously
Ġdivor ced
ĠSyri ans
++ ,
Can on
cle an
Ġsle eper
Ġmail ing
ĠMo vies
ĠMo zart
Ġclar ified
Ġelig ibility
Ġhyp not
Ġpoll uter
ĠCO LD
ĠTra ck
ĠTra vel
ĠTra vis
ĠDE GREE
Ġintense ly
Ġlock ing
co at
uke box
Ġrail ways
Ġextension s
ĠAnn ie
UST R
part um
Ġdeleg ates
ĠEv il
Ġrough ly
ĠUP S
Ġblind s
ĠBeat rix
Ġengine ers
Ġtast y
Ġhint ed
ĠCAN NOT
ĠBar on
Ġvast ly
ĠUp on
Ġenthusi astic
Ġenthusi asts
spe ed
ĠPre lude
ĠHar i
ĠHar per
ĠGold smith
ixt y
Ġom issions
Ġpoo rer
Ġrot ten
ĠRem ind
Ġinsist ed
Ġvend ors
Ġmotiv ations
IP P
Ġrend ers
Ġformula ic
Ġexclud e
ILL ED
Ġwra pping
oub t
ĠCur ve
ĠCur rent
ĠCost ello
unction ality
ĠTry ing
Ġpron ounce
Ġevalu ate
Ġapprox imation
ĠTrue HD
Ġwitness es
Ġwitness ing
Con c
fe it
Ġdict ate
Ġdict ator
Ġeuro s
Ġconce aled
ĠHel m
ĠHel ter
Ġacqu aint
Ġpil gr
Ġvir gin
ĠGirl s
Ġawa its
Ġpursu ing
Ġlens es
ĠAc rob
ĠSC ARY
uls ating
ĠPol ice
ĠNic olas
ĠNic kelodeon
Ġclick ed
Ġsett lement
Ġexpand ing
Ġbur ied
Ġped al
Ġdust y
Ġnu ance
Ġnu ances
Ġgar lic
ĠSee ing
Ġliberal ism
ĠPot ente
Ġabst ained
ĠTe lem
Ġbackpack ing
Ġtele commun
Ġflo ats
010 4
010 5
010 7
Ġcow ork
Ġinj ured
Ġnut rition
ĠCR AP
ĠAD F
ĠSan Disk
Ġproport ions
ĠLight ning
ĠUni versal
!!!!!!!!!!!!!!!! !!!!!!!!!!!!!!!!
Ġrhythm ic
Ġboost ing
Ad opt
TM ENT
comm on
ye ah
Ġmicro phone
ĠSur pr
ĠSur fers
ĠDID N
Ġune ase
Ġune asy
ĠJo anna
Ġresort s
Ġresort ing
Ġbrut ally
Ġlayout s
Ġsynth s
Ġcontradict ory
Cons idering
DER FUL
EL F
fall s
Ġtow ers
Ġstunning ly
Ġweaken ing
Ġproph et
Ġshr ink
Ġexha usted
ĠBill ie
Ġvig orous
ĠGen eva
Ġbitter ness
Int eresting
yy yy
Ġshred ded
ĠMal am
ĠMade leine
Ġneck lace
ĠDog g
ĠFore ver
ĠFIN E
Ġscra ps
Ġvers a
Ġpersu asion
Ġdetract s
Ġabsor b
Ġabsor bed
Ġoccup ied
ĠAtl anta
ram atic
Ġther mostat
Ġcab inet
Ġconj ug
ĠExt ra
ĠBo ard
ĠBo ots
ĠWed ding
ĠHu gh
ĠRos ie
ĠUFO s
Ġpreced ent
Ġprison ers
Ġincom es
Ġsubsid y
Ġcondemn ation
Ġvel vet
Ġhack neyed
Ġaspir ing
Ġdoct rine
ĠWood s
Ġbuzz ing
ĠJour nals
Ġdecor ated
Ġdecor ative
Ġpostp one
Ġmelod r
Ġtrend s
Four thly
Ġthro ats
Ġtherap ist
Ġwestern s
Ġreiter ated
Ġank les
ĠSong s
ĠCommun ism
ĠOm ni
Ġapolog ise
Ġdetriment al
Ġ195 7
Ġlawy er
Ġphrase book
Ġenhance ment
Ġstabil ise
dis ciplinary
Ġfisher men
Ġtodd lers
ĠSE EN
ĠMat rix
ulter ated
Ġintens ify
ĠGab aldon
Ġpercent age
Ġgrat ifying
Ġgrat uitous
Ġdrum ming
Ġmarginal ised
Ġdevast ated
ĠProt ection
Ġloyal ty
:: ::
Somet hing
Ġmudd le
Ġlic ense
Ġstim ulating
ĠCS I
ĠSl ayer
ĠEll es
ĠWA KE
ĠTurn s
ĠTurn er
ĠLam aze
Ġdefe ats
Ġmisunder stand
Ġmisunder standing
Ġ85 00
Ġeste em
Amend ment
................ ................
Could n
Ġbog us
Ġmuff led
ĠIll ustrated
Ġham per
Ġham pered
Ġexcell ant
Ġexceed ed
Ġlip stick
Ġdecept ive
ĠTA Os
ĠDave y
ĠFriend s
ĠLas ch
Ġdesp air
ĠThrough out
ocal ypse
Ġdistingu ish
Ġillum ination
ĠClar ke
ĠClar isse
Ġzomb ies
Ġpenal ty
Ġsophom oric
Ġparadox ical
Frank ly
Frank enstein
ĠMcKell an
Che ck
__ __
rr rr
Ġil k
Ġcum ulative
Ġineff icient
Ġlap inator
Ġegg s
ĠMarg aret
ĠMicro soft
ĠPER FOR
ĠPER FECT
Ġabol ish
Ġven ge
ĠFro do
ĠGill ain
ĠLJ S
ĠLyn n
ĠLyn ne
ĠRef erence
Ġunequ al
Ġpreach y
ĠStud io
Ġdiscoura ge
Ġdiscoura ged
Ġsurp ass
Ġassert ions
Ġaston ishing
Ġaston ished
Ġastro log
Se ems
Sm all
Ġsour dough
Ġmig ration
Ġpul p
Ġinqu iries
Ġgimm ick
ĠSing le
Ġexhib itions
Ġabrupt ly
ĠHoll ies
ĠDor othy
Ġcompr ise
ĠLind en
Ġunfor get
Ġarrog ance
Ġpresident s
Ġmoder ate
ĠArm and
Ġsadd est
ĠAtt ack
Ġobsess ed
Char les
Ġconstitu ency
ĠMagn um
ĠConserv atives
ĠCOMP LET
Br ussels
List en
List ening
SOL UT
fight ing
Ġbarb ar
Ġpant yh
Ġhier archy
Ġhier archical
Ġrebell ious
sted t
Ġstitch ing
ĠSEC OND
ĠMED A
Ġconve ys
ĠEss ential
ĠBell eville
Ġjeal ous
Ġjeal ousy
ĠHend erson
ĠHend rix
Ġcompassion ate
ĠJac ob
Ġcontra vention
ĠKill er
ĠKnow ing
ĠChem istry
White ley
Ġdefinet ly
Ġdefinet ely
Ġphotog rapher
Ġjeopard ise
Med ication
Ġwann abe
Ġscept ical
Ġpal atable
Ġrevers ed
Ġwhist le
urrent ly
ĠPle asant
Ġdeff in
ĠElect ric
ĠBal ance
ĠHORR IBLE
Ġlobb ying
Ġuncon vincing
Ġprest igious
ĠiT unes
Ġindirect ly
Ġretros pective
ĠShep ard
Ġprofession als
Ġmathem atical
ĠMAK ES
Ġintermitt ently
CN S
Ġow es
Ġcoup on
Ġhol ocaust
Ġrewr ite
Ġhav n
ĠCong ress
ĠCry stal
ĠMean while
ĠBus iness
ĠHann ah
ĠFem alien
ĠGard en
ĠRud y
ĠOper a
Ġrecom ment
Ġunquestion ably
Ġsurve illance
Ġpostc ards
ĠPhot os
ĠBEL IE
ĠUNDER STAND
ĠTRY ING
ĠNeanderth al
ĠHEL P
Ġhypoth esis
Ġventrilo quist
ĠSecret ary
Ġrenov ation
Magn on
Ġtel esc
Ġathe ist
ĠIde as
Ġdement ed
Ġdwar f
Ġinad vert
Ġstap le
Ġanne x
ĠCad iz
ĠCow boy
ĠCare y
ĠMun ich
ĠPill ow
ĠBan otti
ĠHat zid
ĠTAL K
ĠDian a
Ġplod ding
ĠGas Ã²
ĠNa ader
abs orbed
Ġoverr iding
Ġscor ched
ĠKent ucky
Ġdiscl osure
Ġdemag og
Ġcomplac ency
Ġbrace let
Ġmultif unctionality
ĠPhilosoph y
Ġpenet rating
Ġdinos aur
Ġtroubleshoot ing
Ġintimid ating
ĠCHARAC TER
Ġcripp led
Ser iously
Sem it
isqu ettes
Ġsard onic
Ġovere x
Ġcel iac
Ġfores ight
Ġpam phlet
alys is
Ġyout ube
ĠSel engut
ĠSUP P
ĠMous itizer
Ġchare ct
ĠBander as
Ġdol by
Ġatle ast
ĠTolk ien
ĠGarg ani
Ġdisintegr ation
Ġquil ts
ĠOly mp
Ġunad ulterated
Ġunbel ieve
Ġpec uli
Ġregga e
ĠStu art
Ġconspir acy
Ġchef s
Ġimpe ccable
Ġcarb oh
Ġexcer pts
Ġcorks crew
Ġenshr ined
ĠBlock buster
Ġportfol io
Ġstatist ical
Ġlimer icks
ĠSpiegel man
Ġtradem ark
Ġrecycl able
ĠEmper or
ĠEXCE LLENT
Ġsemin ars
Ġpedest rian
Ġdereg ulation
ĠEXTREME LY
Accord ingly
Hamm ering
VIII th
pow ered
Ġthresh old
Ġbise xual
Ġoun ce
ĠCany on
ĠSant ana
ĠSjÃ¶ stedt
ĠMered ith
ĠMero ving
Ġcomedi ans
Ġexting u
ĠPoss ibly
ĠPryn ne
ĠEner gy
ĠElling ton
ĠELD R
ĠBos n
ĠTaj ikistan
ĠFAL SE
ĠNiet zsche
ĠLarre a
Ġdisbelie f
ĠOpport unities
Ġunab ridged
Ġimpract icable
Ġardu ous
Ġpercus sion
ĠKyr gyzstan
ĠKunder a
ĠYidd ish
ĠVivend i
ĠThys sen
Ġobsole te
Ġfamili arity
Ġmisspell ings
Ġsupergl ue
Ġcoloss al
ĠOrtu ondo
Ġparano ia
Ġmarvell ous
ĠClaud ia
ĠSpiel berg
ĠBEFO RE
ĠALWAY S
Ġecosy stem
Ġunsatisfact ory
ĠDEGREE Z
ĠAcrob at
Ġpantyh ose
ĠHatzid akis
ĠGasÃ² liba
" "
' )
( #
) ]
) ).
, (
. ?
0 12
0 80
3 1
3 7
3 9
4 1
4 8
4 9
5 8
5 00
6 2
6 4
7 1
7 9
: (
? '
? *
A F
A H
A I
A W
A w
A ir
A ge
A Ãĳ
B R
B u
B al
B el
B ian
B oring
B ED
B ox
B AND
B eware
B rilliant
C ur
C ol
C ast
C ob
C oll
C ru
C lear
C atherine
C ultural
D F
D em
D ue
D ick
D own
D AY
D ATE
D harma
D ouble
D olby
E ight
E ither
E ss
E QUAL
F A
F e
F ind
F ine
F und
F asc
F ina
G L
G i
G reen
G rant
H ill
H op
H ead
H alf
H appy
H arris
H TML
H atebreed
I VER
J oe
J oyce
J apanese
K elly
L ink
L ight
L ife
L ost
L ead
L ots
L ED
L ets
L ooks
L UD
M er
M al
M ich
M ake
M ary
M ac
M ath
M ax
N ally
N orm
N ER
N eg
N BA
N ESS
O LD
P o
P at
P ar
P lus
P IECE
R R
R Y
R o
R ich
R eturn
R yan
S L
S R
S ony
S low
S po
T A
T e
T re
T ra
T ell
T ried
T erry
T IL
U s
U na
U RBAN
U sing
U DE
U FF
V iew
W W
W ay
W ER
W omen
Y ep
Y OU
Y LE
^ ^
^ _
a ing
a umb
a cious
b as
b us
b able
b ach
b urn
b ee
b ted
b ones
b etter
b inding
c ow
c all
c ould
c ord
c iting
c ool
c ulation
c oon
c utting
c ourse
d ess
d ome
d os
d ated
d ered
d ont
d ale
d oor
e arly
e ks
e cy
e enth
e bted
f at
f ed
f ill
f are
f ollow
f ires
g os
g ert
g raph
g ling
g ames
g arity
g reen
h s
h in
h it
h en
h om
h ell
h app
h ov
h aving
h anger
h aha
h agen
i is
i ot
i ors
i ks
i ppy
i versity
i ques
i Bal
j i
j u
j an
j azz
k n
k it
k irt
l en
l ar
l ittle
l ime
l augh
l ists
l over
l asses
m at
m al
m em
m ag
m ission
m uch
m ph
m ath
m aid
m iss
m ills
m eaning
m unition
m onsters
n or
n et
n els
n ette
n umbing
n onsense
o pp
o ven
o pper
p m
p u
p res
p ine
p ress
p ath
p ins
p ublished
r an
r one
r itt
r ics
r ather
r ases
s qu
s ame
s ace
s igh
s ens
s ible
s ides
s ky
s cience
s ervice
s atisfaction
s ylv
t m
t in
t el
t un
t ub
t ales
t alk
t aker
t alking
u f
u k
u z
u er
u ber
u ating
v ably
w er
w an
w ich
w orm
w ild
w rench
w alk
w omen
w arned
x im
y d
y ed
y ah
y ton
y pes
z og
z ech
~ ~
Â Ń
Ã ª
Ã ¸
Ã ļ
Ġ ie
Ġ xt
Ġ !!!!
Ġ !!!
Ġ Ã¨
Ġ ^_
Ġt ide
Ġt arn
Ġt ense
Ġt abling
Ġa y
Ġa fore
Ġa ka
Ġth or
Ġth our
Ġth umb
in art
in av
in beck
re ck
re qu
re ements
Ġthe ological
on ies
on omy
Ġw ig
Ġw are
Ġw ings
Ġw ins
Ġw iped
Ġw izard
is an
is ite
is cu
is pin
er al
er ver
er ge
er ical
er ick
Ġs g
Ġs ir
Ġs ag
Ġs als
Ġs aint
Ġs igning
Ġb rom
Ġb ite
Ġb ick
Ġb aking
Ġb iting
Ġb iod
Ġb ien
Ġb aff
Ġb ait
Ġb obble
Ġb ilingual
it o
it w
it as
it el
it ish
it ates
it ology
it iously
Ġo s
Ġo xy
at ow
at im
at us
at os
at ia
Ġc ite
Ġc age
Ġc ries
Ġc unning
Ġc rop
Ġc ena
Ġc itations
Ġf er
Ġf al
Ġf ad
Ġf et
Ġf ow
Ġf art
Ġf ost
Ġf ug
Ġf reed
Ġf idd
Ġf ading
Ġf ished
Ġf aux
Ġf ierce
en ough
Ġm r
Ġm our
Ġm elt
Ġm erc
Ġm umbling
Ġm itig
or ad
or ph
or ney
or ously
or ganisation
or cist
Ġp es
Ġp all
Ġp ess
Ġp end
Ġp pl
Ġp ac
Ġp ian
Ġp als
Ġp oured
Ġp ounding
Ġp anned
Ġp ulsating
es ful
ing ed
Ġh oo
Ġh ood
Ġh ating
Ġh ob
Ġh ired
Ġh ats
Ġh arb
Ġh ips
Ġh unted
Ġh arrow
Ġh iring
Ġh alti
Ġh obby
ed es
ed elic
Ġof the
ĠI ron
ĠI MA
ĠI gles
ĠI CES
Ġd um
Ġd ice
Ġd orm
Ġd ives
Ġd well
Ġd iving
Ġd anced
Ġd azz
Ġd ummies
Ġd redg
Ġd essert
Ġin just
Ġin aug
ar o
ar ish
ar per
as i
as ive
as ked
Ġl as
Ġl est
Ġl ore
Ġl ick
Ġl ament
Ġl ense
Ġl ying
Ġl ured
Ġl ucid
Ġl avish
Ġl yric
Ġre all
Ġre cept
Ġre lying
Ġre aff
Ġre nown
Ġre charg
ic on
ic le
ic ent
ic les
ic rous
Ġn ay
Ġn ub
Ġn anny
ve lla
Ġg i
Ġg ro
Ġg ases
Ġg aming
le e
le tic
al ot
al beit
ot ional
Ġe urope
st a
st o
st ud
st atic
st arting
Ġbe ige
ut ally
ut ure
ut oyo
ent ions
Th ought
Th ats
oo o
ad en
ad or
ad ition
ad bury
ly nn
ro ve
ro se
ro ved
ro ads
ro pol
ro scope
ver bs
Ġwh as
Ġwh iny
Ġwh ipped
Ġfor ay
et ical
id y
id al
id ant
id ance
id ia
id iculous
Ġu m
Ġst ern
Ġst ove
Ġst ained
Ġst reak
Ġst itched
Ġst unts
Ġst aunch
Ġst ellar
gh an
Ġyou re
ch es
ch ain
ch ief
ay on
im eter
Ġha unt
am as
am os
am orph
Ġwith stand
Ġnot ions
Ġnot ify
Ġnot withstanding
ke ll
ke ys
ke rell
ur se
ur ities
ur ances
ur ban
Ġmo du
Ġan ime
Ġan onym
th ood
th ats
ĠC ou
ĠC le
ĠC reat
ĠC able
ĠC ase
ĠC ities
ĠC ope
ĠC UR
ĠC ARE
ĠC ASH
ĠC reek
ĠC zech
all as
ri ger
ri logy
ter y
ter ior
ir re
ĠA V
ĠA x
ĠA er
ĠA ren
ĠA ges
ĠA OL
ĠA DS
ĠA part
ĠA VC
ĠA ldous
ie m
ie u
ie re
if ted
if ier
ill ion
ĠS S
ĠS a
ĠS it
ĠS ed
ĠS id
ĠS ud
ĠS ab
ĠS per
ĠS ade
ĠS ons
ĠS oup
ĠS ize
ĠS AT
ĠS EA
ĠS uff
ĠS ier
ĠS lo
ĠS ET
ĠS yn
ĠS ugg
ĠS ENT
ĠS MA
ĠS ara
ĠS unday
Ġpro w
Ġpro les
Ġpro ps
Ġpro xim
ust ing
Ġsh am
Ġsh ove
Ġsh ining
Ġsh irts
Ġsh aky
Ġsh ifts
Ġsh arper
ra ine
ra pping
ĠM C
ĠM ur
ĠM ist
ĠM ack
ĠM ission
ĠM ick
ĠM ail
ĠM aking
ĠM ath
ĠM ines
ĠM ah
ĠM aid
ĠM oor
ĠM IA
ĠM edium
ĠM ISS
ĠM bps
Ġse as
Ġse per
Ġse nder
Ġse ats
Ġse mblance
em en
em inate
il itation
il mer
Ġcon qu
ĠThe me
ul z
ul ing
ul as
ul atory
Ġcom itology
pp ly
Ġex h
Ġex ile
Ġex pelled
Ġex terior
Ġli ps
ere s
Ġne uro
Ġne arb
Ġne anderth
Ġne arest
ĠP O
ĠP s
ĠP ers
ĠP rom
ĠP red
ĠP als
ĠP RE
ĠP OR
ĠP ins
ĠP UR
ĠP ai
ĠP IA
ĠP ione
ĠP ICK
ĠP retty
ĠP itchshifter
ĠP arents
Ġal ign
Ġde er
Ġde ed
ers h
ers undi
Ġch a
Ġch rist
Ġch omp
Ġch ronic
Ġch ords
Ġch ipped
Ġch amber
Ġch ops
Ġch urning
res ion
ĠE P
ĠE c
ĠE for
ĠE AR
ĠE no
ĠE LE
ĠE PS
ĠE agle
ĠE thi
ĠE yre
ĠB le
ĠB ong
ĠB ose
ĠB ac
ĠB ang
ĠB read
ĠB ee
ĠB ont
ĠB ird
ĠB EA
ĠB oh
ĠB oot
ĠB irth
ĠB ett
ĠB ino
ĠB erry
ĠB ureau
ĠB ender
ĠB ros
ĠB onde
ĠB ODY
ĠB attery
ĠB iblical
Ġsu its
Ġsu itably
ess ential
Ġj er
Ġj ock
Ġj ava
Ġj umble
Ġj apanese
Ġj argon
Ġj ukebox
Ġdo sen
Ġat las
ol ab
ol ence
Ġall ot
Ġall ig
Ġall usion
ist or
ist ing
ist ine
ist orical
out e
ant es
ment ary
ain able
us k
us o
us ai
el ia
el come
el ope
est eem
op ed
op ic
op ath
op ening
op oly
op agan
rom antic
ich and
Ġab und
Ġab ys
ĠW ent
ĠW end
ĠW AN
ĠW arm
ĠW IT
ĠW ulf
ĠW ieland
ĠH an
ĠH am
ĠH ab
ĠH ung
ĠH UR
ĠH ok
ĠH ATE
ĠH ockey
ĠH ATED
ĠH arbor
ĠH UND
Ġme and
un rated
un ciation
um ably
um ption
um erous
um ns
Ġhas t
ĠT C
ĠT u
ĠT ow
ĠT ook
ĠT all
ĠT az
ĠT rib
ĠT EA
ĠT yc
ĠT urch
ĠT alk
ĠT yp
ĠT win
ĠT iger
ĠT ypical
ĠD M
ĠD u
ĠD er
ĠD ion
ĠD ri
ĠD oll
ĠD rown
ĠD umb
ĠD iam
ĠD CR
ĠD entist
ĠD ifferent
ĠD ennis
ĠD ARK
Ġcan s
Ġcan al
Ġpl a
Ġpl iers
Ġby e
os l
os ion
os ity
os ph
ci ple
ak in
Ġv ile
Ġv angu
Ġv anish
Ġv ino
Ġv ista
Ġv ested
Ġv apid
Ġhe al
ure n
ure gard
and inav
Ġout we
Ġout look
act ed
act ually
act ively
Ġtim id
ong rat
Ġr Ã©
Ġr attle
Ġr arities
Ġjust ifying
Ġjust ifies
Ġjust ifiable
Ġk ern
au er
au ndering
ast or
ast ly
ast rous
ore board
end s
ap ist
ap ocalyptic
ĠF ol
ĠF ig
ĠF orm
ĠF av
ĠF RE
ĠF allen
ĠF IT
ĠF olk
ĠF antastic
ĠF BI
ĠF lusser
ĠF lynn
Ġup right
Ġup sets
Ġno st
Ġno vella
Ġam pl
Ġam munition
ĠG N
ĠG w
ĠG ay
ĠG ore
ĠG ail
ĠG ang
ĠG arm
ĠG ulf
ĠG iver
ĠG race
ĠG ossip
ĠG GM
ĠG uns
ĠG regg
ĠG oogle
Ġtr an
Ġtr ance
Ġtr ully
Ġtr ucks
Ġtr anche
ĠN B
ĠN P
ĠN ation
ĠN ina
ĠN ev
ĠN elly
ĠN atural
ĠN aturally
ĠN PR
ĠN oni
ĠN ineteen
ĠN umbers
Ġcomp ressed
Ġcomp ares
Ġcomp iled
Ġlo vable
ig m
ig ence
ĠL G
ĠL l
ĠL an
ĠL ay
ĠL if
ĠL ag
ĠL ud
ĠL ars
ĠL ink
ĠL ily
ĠL ives
ĠL ately
ĠL orn
ĠL LE
ĠL DS
ĠL AST
ĠL oops
ĠL EG
ous es
ous ed
Ġdis ill
Ġdis ability
Ġdis pose
Ġdis astrous
Ġtime frame
ĠR A
ĠR ent
ĠR ow
ĠR ound
ĠR az
ĠR ub
ĠR ural
ĠR ES
ĠR ains
ĠR imes
ĠR ope
ĠR UN
ĠR AM
ĠR ipper
ĠR esearch
Ġad ren
Ġad jour
int endo
Ġfe ared
Ġwork manship
Ġqu o
Ġqu int
Ġqu asi
ĠO B
ĠO s
ĠO thers
ĠO ui
Ġrec re
Ġrec ur
Ġrec ount
Ġrec overed
Ġrec ourse
Ġbec au
Ġbec use
Ġun ite
Ġun not
Ġun sc
Ġun sy
Ġun belie
Ġun appe
Ġun think
Ġun law
Ġun aware
Ġag ents
Ġ- ,
ish a
Ġman s
Ġman son
are tte
pl enty
Ġco in
Ġco at
Ġco pper
iv or
Ġthan g
Ġthem ed
ue lle
ans hip
ĠU r
ĠU rs
ĠU top
ĠU ltra
ĠU tter
ĠJ r
ĠJ u
ĠJ ap
ĠJ AN
ĠJ ump
ĠJ ungle
ĠJ VC
Ġimp at
Ġimp art
Ġimp rison
Ġcl it
Ġcl own
Ġcl oning
Ġpre text
Ġwr ist
Ġpr ayer
Ġpr ongs
Ġpr istine
Ġbet rays
Ġher os
Ġ2 40
ber ing
Ġover paid
Ġover haul
ult aneously
Ġres ent
Ġres urg
Ġres erved
Ġres urf
Ġsc ars
Ġsc aring
Ġpe at
Ġneed y
av age
av anos
ach us
duct ions
ass ingly
Ġspe edy
od iac
atch et
Ġdon ate
te enth
Ġreg ist
00 18
Ġsa ver
Ġsa iling
form s
form ative
Ġnew born
Ġper ks
Ġper plex
Ġper vas
Ġoff ended
ace ut
Ġtw elve
Ġi phone
Ġinc l
Ġinc umb
ac o
ac er
ac ci
Ġunder ated
Ġunder line
Ġunder gone
ĠSt op
ĠSt ream
ĠSt upid
ĠSt rate
iff s
iff erence
gr am
ord inary
Ġend ured
Ġend anger
ens ored
ens urate
Ġapp alled
az ed
Ġplay set
Ġplay lists
Ġpol ished
ail ed
Ġafter ward
Ġafter math
ĠUn fortun
ĠUn cle
ĠUn limited
ĠUn usual
Ġfilm maker
ang ling
ĠK it
ĠK at
ĠK ur
ĠK ings
ĠK rist
ĠK orn
ĠK ris
ĠK nox
ĠK udos
ĠK ansas
ĠK ilmer
Ġrep ay
Ġrep ack
ĠWh e
Ġmus cle
ĠY out
ĠY az
ub s
Ġri ot
Ġri pp
ne e
ne v
ne ck
ne ys
Ġsp un
Ġsp orad
Ġreal m
Ġreal isation
Ġreal izing
ĠV A
ĠV is
ĠV ince
ĠV AT
ĠV iet
ĠV IE
ĠV allel
ĠV III
ĠV itex
ĠV enezuela
erest ed
ĠTh or
ĠTh ing
ĠTh ailand
Ġro pe
Ġro pes
Ġcomm ensurate
Ġstill s
Ġgr an
Ġgr ay
red ibly
ĠAm b
ĠAm nesia
Ġrem aster
Ġlong est
Ġfin er
Ġstr ay
Ġstr ang
oc ating
Ġtra it
Ġtra cing
Ġtra ined
Ġtra ction
Ġtra gically
Ġeff eminate
Ġseem ing
ĠCh ains
ĠCh icks
Ġcons igned
Ġra gg
Ġra pes
Ġra pper
Ġpur ity
Ġpur ple
Ġpur port
ob ed
Ġbel ts
we ak
Ġent om
Ġent ers
Ġdown er
Ġacc ol
Ġbl ast
Ġbl unt
Ġho ly
Ġsound ly
he w
he ars
Ġind ian
Ġind ebted
ĠTH e
ĠTH ING
ĠTH OUGH
ĠTH INGS
ib e
amm oth
Ġsm ug
Ġsm ashing
Ġcr ust
Ġcr ink
Ġcr ank
Ġcr unch
Ġcr ushing
Ġcr ashing
Ġcr ooked
Ġfun eral
Ġem bed
Ġem arks
Ġem inently
Ġinter fer
Ġinter play
Ġinter ior
Ġinter change
Ġinter sting
Ġfl ush
Ġfl uke
Ġfl ora
Ġmon k
Ġmon o
Ġmon key
Ġmon str
Ġmon oxide
read er
Ġfar ther
Ġatt orne
Ġatt orney
Ġmat ured
Ġlist ings
Ġauthor ise
Ġauthor ising
Ġauthor isation
Ġshow case
Ġshow cases
Ġ4 3
Ġclass y
Ġclass ed
Ġdef en
Ġdef int
Ġdef ense
Ġdef ault
Ġver itable
Ġver bal
Ġdisc o
Ġdisc ern
Ġdisc rep
Ġdisc ourse
Ġsub plots
Ġsub lime
wh atever
pos ure
Ġrel ent
Ġrel ieve
Ġrel ieved
Ġrel aunch
con f
con cept
lic it
lic ation
Ġtrans posed
Ġref in
Ġref ute
Ġref using
Ġref resh
ug en
Ġcount s
lud es
icul ar
Ġ5 5
Ġ5 9
Ġ5 10
Ġmin es
Ġmin istry
Ġcomple tes
Ġche ep
Ġdisappoint ments
Ġins in
Ġins ign
Ġins oles
Ġinform s
Ġgen res
Ġgen ious
Ġgen etic
Ġpo king
Ġpo ets
Ġpo lem
Ġsy nd
Ġsy ndrome
aw a
aw esome
be c
be en
be fore
be cca
Ġpres upp
Ġgl aring
Ġbo ast
Ġeffect ed
Ġfav ors
Ġfav ourable
Ġmis n
Ġmis cast
Ġmis rep
Ġmis label
Ġret ains
ason able
Ġori gan
Ġdifferent iate
Ġplot line
ock et
cri bed
Ġprov in
Ġprov ince
Ġprov iders
Ġph asing
Ġph ases
Ġph ilos
man y
man uelle
Ġconf erences
Ġconf ronted
Ġinv ites
Ġinv itations
ĠHe il
ĠHe aven
Ġdirect s
Ġleg ible
Ġhum ili
Ġhum ankind
IN ES
Ġbr as
Ġbr ass
Ġbr ooding
Ġbr itish
Ġbr adbury
Ġquest o
Ġhand over
ĠSo on
ĠSo ciety
Ġev id
Ġev oke
Ġev oked
Ġsing ular
Ġform ulas
ĠAl ive
ĠAl ert
ĠAl ger
ĠAl avanos
du h
du ce
Ġcharacter ised
Ġpolit ician
Ġexp ort
Ġexp ound
Ġexp ands
Ġexp orted
Ġinteresting ly
Ġta ut
Ġfr ames
Ġfr aming
Ġcar bon
Ġcar pets
Ġfam ine
Ġwa x
ract ed
Ġdem on
Ġdem ol
Ġdem ographic
ĠAs soci
lect ion
Ġdefin atly
Ġfut ures
Ġmod ification
Ġ19 40
ruct ures
Ġmark ing
Ġbas ing
Ġrequ isite
Ġkind ly
Ġkind ling
Ġmain tains
Ġreason ed
Ġnum bing
ĠBr ook
ĠBr am
Ġass im
Ġplace ment
Ġes pecial
Ġcam ps
ied er
pr us
Ġfollow ers
Ġdra ined
AN C
Ġhist oire
ash ville
Ġstud ios
ew s
Ġrest less
Ġrest ock
Ġrest ocking
aut aire
olog ists
Ġhope less
Ġexc uses
Ġpower fully
arch ing
hip s
Ġwar rior
Ġwar ped
Ġcost ing
Ġmind set
Ġsk illed
Ġcor n
Ġspecial s
Ġspecial ist
Ġspecial ized
ef l
ĠSh ape
Ġ$ $$
Ġshort s
Ġshort ed
Ġ8 7
ĠNo Shame
Ġmarket place
Ġcap tain
Ġsocial ist
Ġsocial ists
com b
com pet
Ġmean ings
wor st
Ġsty lus
iron ments
Ġappe aring
IS ION
ĠShe ldon
Ġkid die
Ġlearn ers
Ġenv ironments
Ġcra b
ĠPro duction
Ġcre ase
ĠAr my
ĠAr tec
Ġlive li
Ġschool ers
Ġcond ensation
Ġcult urally
Ġdist ressing
Ġair plane
Ġtext ures
Ġage ndas
Ġbeh ave
Ġbeh aving
Ġline ar
edi os
Ġadm its
Ġadm issible
ES E
ination als
Ġpublic ised
ah aha
Ġpast e
Ġpack s
Ġpack ages
ott le
EN S
EN SE
ĠAn ime
ĠAn ita
Ġregul ated
ov ich
Ġbed time
Ġprot ective
Ġstar red
Ġstar ters
Ġ9 7
Ġmet er
Ġsuper market
ĠWhat s
Ġsubject ed
Ġsubject ive
ale idos
Ġcol umns
Ġfit ness
well s
Ġet ched
Ġmeas uring
line ar
oh istory
Ġcop ied
Ġrespect ively
Ġ7 4
Ġ7 7
ĠTr an
Ġaff ili
Ġaff ords
ats by
ĠOr der
Ġmess es
Ġear l
Ġtit anium
ĠBl air
ĠBl aise
ĠBe an
ĠBe ck
ĠBe ats
Ġincre ases
ex am
ex istent
ex perts
ĠIN TO
Ġpract ition
Ġbre asts
Ġentertain s
bo ats
Ġdi abet
ps ies
ici aries
Ġnational ism
ĠGr ant
ĠGr ish
over ing
Ġfore front
Ġfore warned
ĠFr anz
Ġpass able
Ġpar able
Ġpar ody
Ġill og
Ġaud ible
Ġaud acity
ift on
Ġmar ries
Ġheart ache
Ġadop ts
Ġpaper weight
For get
Ġocc ult
ĠCl ay
ĠCl ose
ĠCl oud
ĠCl imb
ĠCl aude
ĠIT EM
Ġstat ues
Ġcommun autaire
Ġself ish
ann i
Ġsex ism
ocr ity
ocr ats
Ġdev oured
sp ot
sp ace
Ġtest imony
ufact ured
Ġwater ing
Ġwater way
ĠDo one
Ġlow ers
Ġphot oc
de z
de ep
ouch ing
ĠRe ich
ĠRe becca
Ġinstall s
Ġinstall ations
gu ys
gu ided
ĠCan not
ĠUS ING
ĠUS ED
Ġer ased
Ġer gon
ĠIs n
Ġ198 7
Ġcool ing
Ġcool est
Ġdial ouge
ĠTO Y
set ting
Ġcontrib utor
Ġsim ulated
Ġsim ultaneously
Ġprior i
Ġpost ers
Ġpost partum
ĠSc r
ĠSc an
Ġexist ance
Ġexist ential
Al most
Ġansw ering
ĠTo ast
ĠTo efl
Ġrecogn ising
ape l
ĠX uela
ĠZ one
ĠZ oot
Ġtreat ise
Ġprec lude
irm ing
Ġorgan izing
Ġorgan izations
000 4
OO L
ĠDe v
Ġener g
Ġfavour ites
Ġmaster ing
Ġmor ally
Ġmor ons
Ġmor bid
ĠMay or
ĠMay es
Ġdoub les
Ġdoub led
VER S
Ġsleep s
ĠLe o
ĠSome where
eth oven
Ġboy c
oura bly
Ġface less
Ġlaugh ably
imin al
ĠMar itime
Ġdel ve
Ġdel inqu
Ġrom ances
Ġsw ings
Ġ12 8
Ġ12 15
Ġpopul ism
Ġsn ipp
sc oreboard
Ġannoy ance
Ġplug ging
ĠNow here
Ġenlarg ing
Ġhusband s
allen ging
Ġdark est
Ġremind ing
Ġhumor less
IT ION
IT UDE
ĠNew ton
Ġguidel ine
ien e
por al
por aries
Ġste pping
Ġconnect ivity
ĠPe yton
ĠPr int
Ġdiscuss es
di um
Ġsort a
Ġdog fight
Ġdog fights
ĠPl ant
ĠPl ans
ĠPl aces
ĠPl ato
ĠPort rait
ĠSch ulz
Ġkey chain
tra ck
tra ined
ĠEx am
ĠEx ec
ĠEx otics
Ġz ip
Ġz ipper
Ġmult itude
Ġmult inationals
Ġwel coming
Ġ... ,
ĠHer zog
Ġillustr ator
my stery
Ġaccord s
tain ment
ĠGod dess
Ġconv ictions
arant ino
Ġstick er
par ation
Ġsens es
All y
ĠAny thing
Ġsumm ed
Ġspir its
Ġexpress es
Ġexpress ive
Ġimmedi atly
Ġfle et
Ġpull ey
Ġswe pt
Ġpot ent
Ġpot entially
ĠInst alled
ĠInst allation
Ġpredict ing
entle men
Ġselect ive
inst alled
sh op
sh ell
sh irt
Ġident ifies
Ġcook s
Ġforget s
Ġforget able
Ġforget table
ĠMac Ar
ĠMac Ally
Ġru cks
Ġnote book
Ġcomment aries
Ġsusp ic
Ġsusp ens
Ġgovern ed
Ġcirc ular
Ġgentle man
Ġdemocr at
EC TS
Ġground ed
Ġtight ening
head s
Ġfront ier
St ory
St eph
Ġla o
Ġrev ital
ĠST ONE
ĠST UFF
Ġmonit ors
Ġhate ful
Ġspirit ually
199 7
ear th
ik anen
Ġhy d
Ġhy ph
ĠMc Nally
Ġprofess ions
Ġbenef ited
Ġbenef iciaries
Ġir res
Ġlay ered
Ġvi able
Ġvi ability
Ġsmo other
Ġsmo kes
Ġsmo ker
An imal
Un able
Ġ[ $$$
Ġpat ri
orough ly
IG O
ĠRo om
ĠRo xy
ĠRo berts
ĠKe vin
Ġredu ces
Ġconsum ption
Ġele phant
ĠHA VING
Ġfundamental ist
Ġut ility
Ġtun nel
Ġtun nels
Ġfre aked
Ġclos ures
Ġhero ines
Ġsmell ing
ĠPh D
ĠPh ys
Ġstock ing
Ġcomplex ities
Am ong
wr ong
omb a
Ġemphas ising
olly wood
Ġviol ation
Ġviol ate
Ġviol ations
Ġfirm ness
ĠSte inbeck
Ġprefer able
cent ury
Ġdiv inity
udd y
Ġspo iler
Ġspo ils
Ġobs erver
Ġbrill ant
ĠGu ys
Ġargu ably
Ġeduc ate
Ġeduc ators
Ġpleas urable
Ġten ets
Ġfunction ality
AP OINTED
Ġund o
Ġdelight s
Ġdelight fully
Ġ25 5
Ġunc ensored
Ġachie ves
Ġtour ing
Ġcat ag
ĠCar roll
ĠCar uso
ĠFl uke
ĠFl uence
Ġcentral isation
board ing
Ġtem ps
Ġglobal ization
Ġbrief case
Ġaut umn
Ġaut onomy
Ġmel ting
Ġpen chant
Ġtyp ing
mark ed
Ġmil estone
Ġforth right
ĠSO F
ĠLa uren
Ġattach ment
Ġstandard ised
ĠLO L
amb a
amb ling
ĠPal m
umm ed
Ġcapital ize
Ġleak age
ĠFOR M
Ġprim al
Ġtransfer ring
Ġbroad en
Ġbroad ly
Ġbroad est
Ch ristmas
Ġcamp y
19 6
Some where
ĠMus ical
Ġ11 15
Ġfeed s
IR IT
Ġcivil ized
Ġstri ving
ĠDes k
Ġmusical s
cl ick
Ġblue print
Ġshame ful
ĠNE GATIVE
200 5
Pro gr
Pro blem
Ġmurd erers
Ġsepar ation
Ġconcent rates
ĠBUY ING
ĠQu artet
Ġball s
ĠIG N
ĠSH OT
ĠSH IT
ĠSH ORT
Ġvib es
Ġsubm issive
Ġaf ric
Ġdry er
Ġland ed
Ġexerc ised
Ġunf av
Ġassess ed
tr ust
tr uth
Ġtaste ful
ĠSw iss
Ġtwist ing
Ġrap ed
Ġartist ry
mpath etic
UN TING
Ġban anas
Ġrenew al
ĠEd wards
unt il
ĠDis appointed
Ġletter ing
Ġoccur rences
Ġsmooth ie
Ġmethod ology
Ġupd ating
ĠGl ass
ĠGl over
Ġ17 00
Ġcontain er
Ġfresh man
ĠUN M
ĠUN LESS
Ġperm itting
Ġvari ation
Ġdestro ys
Ġsustain ability
Sh ort
Ġtrust ing
Ġundert ook
Ġhom ogen
Ġhom emade
Ġlif ting
Ġlif ted
Ġlif eless
ĠME M
Ġvill ian
Ġvill ains
Ġcircumst ance
Ġtre k
ĠMon ty
Ġ197 9
Ġgri pe
Ġadapt ors
Ġconsult ed
Ġbelong ing
Ġbelong ed
Ġportray als
AB UL
Ġsturd ier
raw ing
resp onse
Ġsurv ivor
Ġwarrant ee
retch ed
eff icient
ĠSu pply
Ġshut s
Ġshut ting
ĠRom a
ĠRom ano
Ġcongrat ulations
Ġcongrat ulating
bl owing
la im
Ġec o
Ġec lectic
Ġchart erers
Ġenth us
ey e
oop ers
Ġvirt ual
Ġvirt uous
ĠLI VE
Ġclich Ã©
ĠCharl otte
Ġsimpl ified
Ġsimpl ifying
Ġdrag ons
Ġfrequ ency
Ġharmon ised
Ġharmon ica
Ġincorpor ates
ĠTom atoes
ĠJean ine
Ġcontem poraries
Ġcommercial s
lin ers
Ġwind s
Ġsyn ops
Ġcand le
Ġmad man
Ġhur l
ĠIm ag
Ġelev ated
Ġcompe l
ĠPR O
Ġamb iguous
Ġcomprom ises
Ġcomplic ations
ustral ian
Ġdistrib utor
ĠCent er
Ġexpos ing
ĠTR ANS
ĠXP S
Ġlabel ed
Ġscratch ing
ok ay
vis ual
arre ll
Ġge orge
Ġconduct or
ĠDick en
Ġcoast s
Ġevil s
Ġsuperb ly
Ġimmig rant
ĠEN OUGH
ĠEX ACT
Ġjoy s
ĠHig gin
Yes terday
der man
Ã¶ m
Ġcens or
Ġcens ored
Ġpet ite
eder ation
Ġden ounce
ĠSince rely
Ġexcess ively
eng lish
Ġdu h
Ġeth ics
rol gel
ĠCH E
Ġupset ting
Ġunne cessarily
Ġflav our
ĠScarlet ti
hist ory
Ġspl inters
Ġcyc l
Ġcyc ling
ĠMor atin
Ġatmos pher
Ġobserv ance
fl ate
top s
Ġstaff ing
ĠAC T
Ġsho vel
Ġsho pped
Ġrout ines
aph ael
Ġproud ly
Ġafford ed
ĠShakespeare an
UL T
tit les
Ġfo il
Ġmir acle
Ġdumb est
Ġbeg s
Ġbeg gin
urg ical
ĠCom ing
ĠCom fortable
ĠBas sets
ĠBra in
Ġunint ention
Ġunint ellig
Ġrepair ing
Ġrob bery
Ġcateg orized
ĠMag ical
ĠMag gie
ĠMag azine
ĠDen ver
Ġflash y
Ġflash es
Ġflash backs
ĠFrank ly
Per fect
yp ed
Ġairbed s
IGH TS
Ġsle e
Ġpad d
Ġreli ability
ĠAb raham
ĠLi ikanen
Ġarch ae
Ġarch aic
Ġesc aped
Ġdepict ing
Ġdepict ions
Ġhyp n
ĠTibet ans
Ġtension s
Ġsight ing
Ġpin point
rah ame
ĠMeg aman
ĠTra vi
ĠDE P
Ġquiet ly
Ġcourage ous
THE Y
Ġlaunch ing
Comm unity
pir ing
Ġinex perienced
ĠDisc ount
Ġvivid ly
Ġround ed
Ġcompetit ors
Ġcampa igning
Ġwid est
Ġwid ening
Ġwild life
Ġwild erness
Ġded ication
roll s
Ġdisappe aring
ĠRock y
bre x
hard core
Ġtast ed
ĠMa eve
ĠMiss ouri
ĠBar cel
ĠDream ers
ĠUp date
Ġaward ed
Ġinsult ed
Ġnightm arish
Ġcommunic ated
Ġcommunic ates
Ġmedic ations
Ġmedic ines
ĠYOUR SELF
Ġenthusi astically
do ing
tell ing
Ġ.... .....
Ġmission s
Ġstream lined
ĠPre p
ĠHar lequin
ĠFire men
ĠGold en
Ġtransl ates
Ġtransl ator
Ġdistort s
Ġdistort ed
Ġdistract ion
ĠQue ensryche
ĠQue bec
Cl an
Tr ust
Ġpoo ch
ĠTer ror
Ġrat ify
Ġrot ate
Ġcompact flash
Ġdish on
Ġdispos ing
ĠRem edios
Ġunre leased
Ġunre asonable
Ġeditor ial
ĠBeaut ifully
cons idered
mail ed
watch ing
Ġwed ge
Ġhide ous
ĠAp atow
ĠMA G
ĠHD MI
Ġdiscipl ines
Ġworkout s
Ġquant um
Ġsuspect ed
Sub s
Ġanx iously
ĠCur se
ĠAir bed
ĠSA ID
ĠSpe ed
ĠSpe ars
ĠSpe aker
ĠSol ana
ĠMill ennium
ĠBern ie
Ġorchest ration
ĠVictor ia
Ġsubtle ty
Ġadvis ors
Ġinfrast ructural
Ġinfrast ructures
Ġanaly ze
atter ing
Ġpatch ed
ĠIM F
Ġdad dy
Ġlinks ys
ĠMot own
Ġconce ive
Ġconce ived
ĠList ening
Ġdisapoint ing
Ġdisapoint ment
Ġrecon cil
ĠVen ice
Ġobsc ured
ĠAnne x
Ġtemper atures
sm art
ser ious
Ġpan el
Ġpan ning
Ġpan els
Ġanch or
ĠWR ITE
ĠWin ter
ĠHas bro
Ġves sel
ĠGame boy
ĠGame cube
Ġoverwhel med
ĠStr anger
Ġobst acle
Ġglimp ses
Ġingred ient
Bl ood
Bl ue
OC K
Ġ` `
Ġsales man
ĠSP IRIT
ĠSec rets
ĠPol itical
ĠWAY NE
Ġvul garity
ĠJew s
ĠJew el
Ġsett lers
Ġdetect or
Ġdetect ed
Ġdetect ives
Ġadvoc ates
Ġfairy god
Ġtor que
Ġtur tle
Ġdress es
Ġgard ener
ĠRy der
Ġblur ay
Ġexpression s
Ġinnoc ence
Ġfolk lore
Ġtang o
Ġtang ible
Ġsom ber
Ġcow boy
enz ie
Ġder iv
Ġnut shell
Ġgy psy
Ġgy roscope
ĠAD D
ĠSan ter
ĠSumm er
ĠDel ors
ĠLOT R
Ġdisp ute
Ġdisp utes
Ġbuff oon
ĠUni verse
Ġinterpre ting
Ġgrace ful
Ġrevol ved
ĠWHO LE
Ġsquee zing
Ġsquee zed
ĠBuend ias
mon th
esc ap
Ġgang sters
ĠSur round
ĠReturn ed
ĠUnder ground
Ġresort ed
ubth umper
neg ative
cont rol
Ġbrut ality
Ġadmire r
Ġmarvel ously
**** *
17 7
lam ation
Ġfederal ist
Ġtow els
Ġinput s
str Ã¶m
ĠCF A
ĠAdd itionally
Ġproph ecy
ĠMer ritt
ĠPH IL
ĠGen ius
ĠRob b
ĠRob ot
ĠRob bie
Ġpreview s
Ġperpet ual
Ġperpet rators
Ġunderm ines
Ġunderm ined
Ġmini ature
Ġideal istic
Ġdistinct ive
ĠWORK ED
Ġdump s
Ġdump ed
Ġdump ster
Ġweigh s
Ġweigh ing
ĠSat an
Ġprosec uted
Ġprosec utors
Ġshred ding
umer ia
ĠDi abetes
ĠDi abetic
ĠFore st
Ġdise ases
Ġunw illing
Ġscra pped
Ġscra pping
Ġpersu aded
Ġminimal ist
Ġevol ved
Ġevol ves
Ġhoriz ons
ĠFranc o
Ġoccup ation
ĠAtl antis
Ġbench mark
Hel p
NE GAN
OIN TMENT
Ġbank rupt
Ġfi asc
Ġinhab ited
ari at
Ġloo ses
Ġconvey ed
Ġliber als
ĠPet erson
ĠBO X
ĠBO RE
ĠBO RED
ĠWAR NED
Ġmanip ulation
Ġprejud ices
ĠVol ume
ĠThought s
ĠAlbum s
Ġ194 8
Ġ194 9
Ġfreak y
Ġfreak in
Ġfrag ility
Ġdismant le
Ġaccomplish es
Ġnephew s
Im agine
Ġwise ly
Ġcert ification
Ġmas och
Ġporn ography
Ġinsec ure
ĠNaz is
ĠNaz ism
Ġdisse ct
ĠJour ney
Ġreprint ed
ĠVel cro
Ġconserv ation
Ġconserv atives
Ġtransm ission
Ġcraw ling
Ġpostp oning
Ġmelod ramatic
Ġoptim ism
fire man
Ġlau ndering
ĠBat cave
ĠGil berto
ĠCommun ication
ĠOff icial
Ġinsuff er
Ġapolog ize
Ġ195 6
Ġrestaur ants
ATION S
Ġsupplement ary
Ġprincip ally
Ġadmir able
ĠDOES N
Ġdeclar ations
Ġstabil ising
power ing
somet imes
Ġax e
Ġmold s
Ġmold ed
Ġsevent een
Ġjew ish
Ġalleg ed
ĠWic can
ĠWall strÃ¶m
Ġvoy eur
ĠFisher ies
ĠRen ie
Ġgrat itude
Ġremin is
Ġtraff icking
Ġtranscend s
Ġmiser able
Ġretro active
Ġretro actively
Ġacquis itions
ĠAnge ls
ĠAnge la
Ġmarginal isation
???? ????
ĠAdv anced
ĠPRODUC TS
ĠProfess ional
Ġnavig ation
Ġloyal ists
Ġcelebr ate
Ġcelebr ated
GR APH
Look ing
Ġcush ions
Ġpow der
ĠIce land
Ġlic ensing
Ġeer ily
Ġstake holders
ĠCS S
ĠMil an
ĠMind crime
ĠPra gue
ĠPra etor
Ġchore ography
ĠTy pe
ĠLam bert
Ġadject ive
Ġresum ption
ĠKore a
Ġsphere s
Ġdefe at
Ġmisunder stood
Ġconfront ation
Ġearb ud
Ġdiag ram
ĠRev lon
Ġsnug ly
Ġsweat y
Ġcatastroph ic
Ġexecut ives
ĠMotor head
Her land
Sp ider
UB BED
ĠIll um
Ġreinst all
ĠMS I
Ġsup reme
ĠTw ain
Ġunp opular
ĠJer ome
ĠJer sey
Ġtwent ies
Ġglitch y
Ġfruit ful
ANS A
Ġillum inated
Ġscrut in
Ġincompet ent
BO X
Le ave
Ur bervilles
VI OUS
fun ctional
Ġbom bs
Ġfest ive
Ġreun ion
Ġreboot ing
omad ic
Ġstro king
ĠCy prus
ĠCel ia
ĠMarg ret
ĠBall et
Ġsucc inct
Ġsucc esful
Ġabol ished
ĠGR AND
ĠGAR BAGE
ĠNich ols
ĠLEA VE
ĠRam bo
Ġpeel ing
Ġrepro duced
Ġ46 00
Ġverb atim
Ġminister ial
Ġconfig ure
Ġsurp assed
Ġassass in
ĠBlood y
Ġpainting s
Ġmistaken ly
ĠSTR ONG
Beh ind
Ġdisgrace ful
OH N
bra iner
sight ed
Ġtant rum
Ġtant amount
Ġsed uctive
Ġpul se
Ġinqu iry
Ġnomin ated
Ġgau dy
ĠMir age
Ġconform ity
ĠPam ela
ĠBreat h
Ġorg asm
ĠWON DERFUL
Ġbytes Disc
Ġbytes Average
ĠLes lie
Ġunfor giving
Ġclin ical
ĠKenn eth
Ġattrib uted
Ġsubt raction
Ġprescri bed
ĠShop aholic
ĠAtt empt
Ġredistrib ution
Ġhyster ical
Ġobsess ive
Char acters
Ġscholars hip
Dis appointed
Need less
See ing
direct or
Ġwrench ing
Ġbond s
Ġponder ous
Ġpione ering
Ġhull s
Ġlam est
Ġlect ure
Ġnipp les
Ġwhine y
ĠMED IA
ĠMerc an
Ġconve ying
ĠPOW ER
ĠBor ner
ĠBri o
ĠBab ylon
Ġdisgu ise
Ġagg rav
Ġflower y
ĠPrin cess
Str ong
Str anger
ĠAlex ander
Ġcabin ets
Ġcertific ate
Ġsacrif icing
HH HH
MO ST
cas us
did n
uj itsu
Ġwre ck
Ġwann ab
Ġnom inees
Through out
Ġstead y
Ġannot ated
ĠAli ens
ĠMult i
ĠMIN UT
ĠPagan ism
ĠESP AÃĳ
ĠDef ence
Ġvary ing
ĠFair y
ĠRPG s
Ġcock tail
Ġprest o
Ġpersec ution
Ġtraum atic
ĠChair man
Ġflesh ed
Ġretros pect
Ġeloqu ent
Ġeloqu ently
Ġdeter rent
Ġdeterior ated
ĠShep herd
Ġinfin ite
Ġundes irable
Ġsubscri ber
class ical
ĠDirector ates
Ġintermitt ent
Ġinconven ient
Ġmesmer izing
feed ing
Ġthy roid
Ġbik ers
Ġhott est
Ġstain less
Ġanc estors
ĠCre b
ĠAF TER
ĠAR T
ĠMann i
ĠPic kerell
ĠPass age
ĠPAR T
ĠEA X
ĠEqu al
ĠBa al
Ġjig gle
ĠHil ton
ĠHamm ett
Ġintr ins
Ġvit ally
Ġameric a
Ġameric ans
ĠNAS A
ĠLin us
Ġsac red
Ġpercept ions
ĠStock hol
Ġspons or
Ġspons ored
ĠChap man
Ġdisconn ect
Ġpoison ing
ĠSold iers
Ġbasket ball
Ġaval anche
prot ect
ĠINC LUD
Ġparam eter
Ġparam eters
Ġcooper ative
ĠIslam ic
Ġpriorit ise
Israel i
Christ ian
Ġdiscrimin ated
Ġcounterpart s
Ġsymph ony
Ġsymph onic
Cont rolgel
Hope fully
IEN DS
Miss ing
dig ital
oen ix
Ġtid bits
Ġsarc astic
Ġost ensibly
Ġcust ody
Ġlinger ie
Ġital ian
Ġecc entric
ĠSING LE
ĠPan asonic
ĠER DF
Ġdoss iers
ĠToy s
ĠDD R
ĠDiv o
ĠDav ies
actress es
ĠGIR L
ĠLex ar
Ġdisple asure
Ġdisrespect ful
ĠRO OM
Ġunav oid
Ġbund led
Ġbetray al
Ġknob s
Ġpep pered
aval ry
Ġarrow s
Ġspill age
ĠTHR OUGH
Ġdiscri ption
Ġsyll ables
Ġdebun ked
Ġdrift ed
Ġmemor ize
Ġepit ome
ĠColomb ia
Ġreferen ced
Ġduplic ate
Ġentrepreneur ial
Ġpixel ated
ĠSnoop y
Ġunpredict able
ĠCherry h
ĠTERR IBLE
Bri en
Brit ish
Equ ally
Jo an
Su per
mus ical
might y
mach os
pur pose
Ãī S
Ġaesth etic
Ġmant ra
ĠImm ortal
Ġinfect ious
Ġreiss ued
ĠCurt is
ĠCele brex
ĠMach ine
ĠPict ure
ĠPenn sylv
Ġatroc ity
ĠHitch cock
Ġvign ettes
asta cia
ĠLank a
Ġadoles cent
Ġrecapt ure
ĠUmb ra
Ġpean uts
Ġtwe aking
Ġinstinct s
ĠChron o
Ġretard ants
Ġcarri er
Ġworkshop s
ĠShar on
return able
Ġdistaste ful
Ġpainstaking ly
ĠMarin ho
umbaw amba
Charl ie
ĠEnter tainment
ĠREL EASE
spec ific
Ġinaccur acies
Ġlooph oles
Ġunequiv oc
Ġarchitect ure
Contin uum
Har lem
Nob ody
Rel ating
WAR NING
Zz Zz
fem ale
Ġapt ly
Ġthir teen
Ġsill iness
Ġcath olic
Ġmasc ul
Ġtoile t
Ġdow nt
Ġdrib ble
Ġdatab ase
Ġrehab ilitation
Ġstagger ing
ĠCau casus
ĠAureli ano
iend o
ĠSOO OO
ĠMit utoyo
ĠMits uda
ĠTheat re
ĠPoll ution
ĠEmm ons
ĠEFF ECTS
ĠBun yan
ĠBase ball
ĠTos hib
Ġleis ure
ĠFAM ILY
Ġupheav al
ĠGimm e
ĠNat al
Ġcompli ance
ĠLite cubes
intention ed
Ġgodd esses
Ġunle ashed
Ġunamb iguous
Ġunprof essional
Ġscour ge
Ġperce ive
ĠStok er
Ġendors ed
ĠKee ble
ĠKauf man
ĠVision eer
Ġrefl ux
Ġpharm aceut
Ġtyr anny
Ġcentr ally
ĠBea uregard
Ġerad icate
ĠXM L
ĠXX VIIIth
ĠDeL onghi
Ġextrav ag
ĠPlaspl ugs
Ġredisc overed
Ġbiograph ies
ĠIntro duction
Ġsampl ing
ĠSuf ism
Ġpilgr image
Ġtelecommun ications
Adopt ion
ĠExtra ordinary
Ġmelodr ama
Ġmisunderstand ings
Ġcumulative ly
Ġunforget table
SOLUT ELY
ĠBELIE VE
Ġinadvert ently
ĠSUPP OSED
Ġunbelieve able
ĠMeroving ian
Aw esome
Age nda
Math ies
Norm ally
Ro bert
Rich ard
Spo iler
Us ually
aumb urg
wrench ing
Ġ^_ ^
Ġafore mentioned
Ġsals a
Ġbrom inated
Ġbick ering
Ġmerc ury
Ġpess im
Ġharrow ing
Ġinjust ice
Ġrecept ive
Ġstaunch ly
Ġmodu le
ĠCope land
ĠSugg est
ĠSMA LL
Ġproxim ity
ĠMbps Dolby
Ġnearb y
ĠPai ge
ĠPIA A
ĠPione er
ĠEfor city
ĠEPS ON
ĠEthi opia
ĠBEA UT
ĠBett ie
ĠBino che
ĠHok usai
ĠTurch in
Ġvangu ard
Ġoutwe igh
ĠLars son
ĠLorn a
Ġadjour ned
Ġunsy mpathetic
Ġunappe aling
Ġunthink able
Ġunlaw ful
ĠUrs ula
Ġresurg ence
Ġincumb ent
ĠVallel ersundi
Ġmonstr ous
Ġattorne ys
Ġpresupp oses
aleidos cope
Ġdiabet ics
Ġdelinqu ency
Ġsnipp ets
ĠMacAr thur
Ġsynops is
ĠMoratin os
Ġatmospher ic
ĠTravi ata
ĠBarcel ona
ĠESPAÃĳ OL
ĠStockhol m
! ?
" ..
" ....
" .....
% ^
& #
' !
' ?
' ...
) ?
. ).
0 4
0 9
0 11
0 35
1 40
4 6
4 10
6 55
7 3
8 9
: -
A X
A id
A IR
A dam
A uthor
B B
B N
B T
B Y
B on
B ill
B ain
B ub
B ug
B ont
B arb
B aby
B IG
B illy
B EL
B reak
B UY
C I
C U
C ent
C ity
C ore
C ap
C ry
C atch
C ities
C ock
C ross
C UT
C ENT
C reative
C afe
C rocodile
D am
D ance
D irect
D olly
D awn
D issapoint
D iary
E I
E P
E Y
E ng
E ON
E arth
E ddie
E lements
F L
F W
F ive
F un
F ast
F ore
F air
F riend
F ats
F aced
F rench
F UN
F ours
F iles
F unny
F amily
F IRST
F arenheit
G b
G s
G al
G ive
G ab
G ary
G ave
G IN
G rand
G old
G LY
G REAT
G ossip
G erman
G enerally
G entlemen
H L
H O
H om
H ood
H AN
H enry
H istory
H ostel
I r
I AN
I ANT
I RED
I VO
J M
J e
J ul
J ava
J erry
J ECT
K N
K ind
K ylie
K zin
L W
L o
L im
L ord
L ER
L iter
L ear
L af
L arry
M H
M a
M on
M ot
M il
M ine
M ach
M ark
M ember
M aster
M ike
M arl
M arker
M etal
N ational
N IC
N ineteen
N appily
O p
O ld
O VER
O real
O LAF
O EM
P U
P ut
P am
P ain
P ass
P ull
P ix
P ING
P ushing
Q uality
R C
R G
R I
R O
R S
R W
R a
R ent
R est
R and
R ight
R oll
R ev
R oman
R umours
R ATED
R OCK
S X
S y
S ing
S ch
S ust
S un
S ide
S aw
S ec
S SE
S af
S onic
S OUND
S pin
S everal
S cience
S HE
S AVE
S andra
T P
T y
T ur
T ill
T urn
T aking
T IN
T erm
T een
T itan
T EST
T EL
T otal
U LA
U lt
U GH
V A
V e
V al
V ID
V OL
V ILL
V IES
V arious
V ICE
V incent
V idia
W S
W ant
W ide
W ild
W ater
W ELL
X P
X T
a un
a ison
a head
b reat
b ite
b ug
b ility
b row
b ored
b ett
b lock
b acc
b aked
b inder
b etween
c en
c ar
c ion
c ra
c os
c ute
c ream
c ogn
c ode
c ulture
c ongrat
d ist
d ep
d og
d ark
d eg
d oh
d rive
d ifferent
e ous
e ber
e king
e ither
e arned
e astern
f u
f le
f ood
f ue
f ict
f les
f air
f uly
f ederal
f unny
f iger
f athers
f erences
f antasy
g b
g i
g ment
g ore
g ap
g iv
g ass
g ren
g ues
g ia
g iven
g io
g olin
h ook
h ome
h os
h ough
h ence
h orn
h usband
h oe
h rs
h ours
h orse
i Ã
i ology
i ological
i Ã¶
i ographical
j o
j in
j unk
j itsu
k ke
k ner
k ok
l ot
l um
l ity
l ast
l ame
l int
l ific
l ater
l arg
l ified
l ength
l ene
l eness
m is
m ot
m ad
m el
m ood
m ong
m ite
m ire
m od
m ix
m ash
m ov
m na
m inist
m ium
m atter
m odel
n en
n ut
n ie
n ect
n ap
n ology
o em
o ak
o ine
o cc
o vies
o aster
o ete
p a
p i
p ers
p ost
p ool
p ressed
p ush
p unk
p ainted
r in
r ust
r ite
r icul
r ings
r iction
r atic
r ising
r anging
r imination
s is
s ic
s ch
s ay
s ess
s ound
s ert
s ave
s ense
s port
s ats
s izing
s uspense
t is
t al
t ens
t ip
t ably
t ale
t imes
t old
t ape
t ried
t aste
u is
u ces
u ery
u zz
u zzle
v ab
v ador
w oo
w all
w ere
w ond
w ool
w onder
w ah
w ann
w aste
w ait
w erk
w alking
w reck
x in
x on
x ford
x anne
y o
y ers
y te
y thm
z ip
z ef
z mann
z ona
} .
º C
Â ºC
Ã º
Ã ĵ
Ġ <
Ġ \
Ġ ich
Ġ ??
Ġ ........
Ġ igu
Ġ Ãł
Ġt in
Ġt is
Ġt at
Ġt ut
Ġt out
Ġt and
Ġt int
Ġt ens
Ġt ug
Ġt uck
Ġt att
Ġt urg
Ġt apping
Ġt edium
Ġt ennis
Ġt outed
Ġa h
Ġa ver
Ġa qu
Ġa uct
Ġa ces
Ġa ug
Ġa kin
Ġa ura
Ġa usp
Ġth a
Ġth irst
Ġth irt
Ġth umping
in ion
in el
in ci
in able
in ning
in ational
in ology
in ished
in formation
in idad
re view
re lease
re lation
re quis
re place
re lla
re ndering
re leasing
on nt
on ial
on ca
Ġw oo
Ġw ir
Ġw if
Ġw ally
Ġw ol
Ġw ich
Ġw ick
Ġw ip
Ġw aking
Ġw ool
Ġw its
Ġw ired
Ġw olf
Ġw iring
Ġw impy
Ġw retched
is ance
is ical
is ational
is ively
er ment
er ade
er red
er ating
er gy
er ox
er idge
Ġs d
Ġs ce
Ġs ine
Ġs ont
Ġs ledge
Ġs inks
Ġs issy
Ġs aints
Ġb c
Ġb is
Ġb ou
Ġb ic
Ġb ots
Ġb idd
Ġb anish
Ġb aker
Ġb ounds
Ġb usted
Ġb umbling
Ġb ouncing
Ġb ollywood
it le
it ment
it ake
it ters
it lement
it utions
it ially
it amin
Ġo l
Ġo v
Ġo od
Ġo ily
Ġo cil
Ġo pend
Ġo sc
Ġo dys
Ġo wed
nd ing
nd oubtedly
at as
at om
at ble
at iv
at ern
at ories
at ley
at oli
ou ver
Ġc et
Ġc ie
Ġc ough
Ġc iting
Ġc ott
Ġc yl
Ġc gi
Ġf x
Ġf res
Ġf able
Ġf ert
Ġf ates
Ġf aking
Ġf ib
Ġf ren
Ġf ave
Ġf als
Ġf ath
Ġf ury
Ġf ox
Ġf ades
Ġf usion
Ġf iance
Ġf udge
Ġf izz
en ch
en act
en ated
en ote
en cers
en co
en chanted
en burg
Ġm i
Ġm t
Ġm all
Ġm ate
Ġm ars
Ġm ics
Ġm ute
Ġm ales
Ġm aze
Ġm ammoth
or is
or ce
or and
or io
or rect
or bit
or thy
Ġp is
Ġp ere
Ġp au
Ġp ig
Ġp ans
Ġp ine
Ġp uch
Ġp iz
Ġp ious
Ġp ave
Ġp und
Ġp ics
Ġp aw
Ġp ots
Ġp uff
Ġp ains
Ġp enn
Ġp oop
Ġp iled
Ġp aved
Ġp ige
Ġp aired
Ġp onies
Ġp iÃ
Ġto ken
Ġto dos
Ġto bacc
es ed
es se
es ame
es per
es ia
Ġh r
Ġh al
Ġh em
Ġh ive
Ġh ub
Ġh ark
Ġh ors
Ġh oney
Ġh oc
Ġh ires
Ġh ems
Ġh alt
Ġh arp
Ġh atin
Ġh mmmm
ed ers
ed ies
ed ged
ĠI mb
ĠI za
ĠI van
ĠI Pod
ĠI ogear
an ion
an other
an ley
an aly
an za
ll ite
Ġd d
Ġd im
Ġd if
Ġd ong
Ġd ab
Ġd iz
Ġd ia
Ġd ys
Ġd ime
Ġd io
Ġd ash
Ġd uck
Ġd iction
Ġd ross
Ġd itch
Ġd ivid
Ġd Ã©
Ġd amme
Ġin ert
Ġin und
Ġin ward
Ġin quis
ar able
ar ach
as se
as ue
as ph
as ement
as ury
as sembly
Ġl en
Ġl ake
Ġl ud
Ġl atch
Ġl ined
Ġl ung
Ġl urch
Ġl onel
Ġre em
Ġre ap
Ġre work
Ġre bound
Ġre build
Ġre open
Ġre organisation
ic an
ic one
ic onder
ic atble
om on
om ing
om ed
om ent
om ix
om ination
om pson
ion ic
ion age
ion aire
Ġn in
Ġn ap
Ġn ull
Ġn uff
Ġn aming
Ġn ails
Ġn inth
Ġn arc
Ġn iche
Ġn urse
Ġit ch
ve lled
Ġg ir
Ġg ate
Ġg ee
Ġg arn
Ġg ung
Ġg room
Ġg reet
Ġg orilla
le arn
al ous
al ine
al ty
al tern
ot age
ot ry
ot omy
Ġe ve
Ġe ch
Ġe ur
Ġe Bay
Ġe thernet
Ġe licit
st ra
st ant
st age
st own
st ones
st airs
st icks
st reet
st hom
Ġbe re
Ġbe ad
Ġbe et
Ġbe ans
Ġbe ep
Ġbe eping
ut r
ent a
ent ing
ent ary
ent ertaining
Ġon ion
Ġon set
Th ings
oo h
ct urn
ct ane
ad as
ad ay
ad ers
ad os
ad ise
ad ia
ad owing
ad ded
ad akis
ad ventures
ly n
ro v
ver ing
ver ter
ver ment
Ġwh os
Ġwh ack
Ġwh ites
Ġwh isper
Ġfor ge
Ġfor te
Ġfor ged
se ct
se ver
se am
se xual
et ly
et end
et ics
et erm
id on
id ation
id el
id ies
Ġu ppers
Ġst un
Ġst ong
Ġst are
Ġst ile
Ġst air
Ġst ats
Ġst unk
Ġst unt
Ġst oned
Ġst agn
Ġst umble
Ġst oner
Ġst alker
Ġst alked
Ġst umped
Ġst umbles
gh ly
ow itz
ch on
ch am
ch ism
ch ron
ch ology
ch airs
ch mann
ch iÃ¶
ook ing
ay ann
im aging
im bing
ith ful
Ġwas t
Ġwas tes
Ġha w
Ġha ph
Ġha pless
The ir
am i
am az
am aged
am eron
am pton
am enco
Ġwith hold
Ġwith stood
Ġnot ices
Ġnot icing
Ġwe eping
Ġwe aved
ke lly
ur ay
ur sion
ur land
ur mount
Ġmo s
Ġmo v
Ġmo or
Ġmo ck
Ġmo res
Ġmo sh
Ġan s
Ġan ach
Ġan arch
Ġan emic
th o
th on
th row
th ew
th orn
th rop
th inking
th emed
ĠC C
ĠC G
ĠC M
ĠC U
ĠC Z
ĠC e
ĠC ure
ĠC li
ĠC ars
ĠC arly
ĠC ute
ĠC arn
ĠC row
ĠC rist
ĠC arb
ĠC AR
ĠC ards
ĠC omb
ĠC rap
ĠC ounter
ĠC OP
ĠC ube
ĠC AME
ĠC oral
ĠC IP
ĠC otton
ĠC open
ĠC ondition
ĠC rocodile
ĠC uddy
ĠC PU
ĠC eders
all e
Ġbook mark
pe g
pe lin
ri r
ri que
Ġas vab
ter ies
ir ical
ir ting
ir ca
ĠA ch
ĠA uth
ĠA rist
ĠA ired
ĠA ccess
ĠA bb
ĠA FF
ĠA VO
ĠA kk
ĠA USTR
ie ves
ĠS K
ĠS X
ĠS om
ĠS ul
ĠS qu
ĠS au
ĠS pl
ĠS ull
ĠS ail
ĠS IN
ĠS ny
ĠS AN
ĠS any
ĠS mas
ĠS ources
ĠS OM
ĠS IT
ĠS ales
ĠS udd
ĠS now
ĠS UN
ĠS imm
ĠS URE
ĠS ensus
ĠS aga
ĠS aved
ĠS assy
ĠS orbo
ĠS alem
ĠS ixty
ĠS ELF
ĠS ANSA
Ġpro log
Ġpro long
Ġpro verb
Ġpro liferation
Ġpro lific
ust ers
Ġsh es
Ġsh ep
Ġsh ave
Ġsh uff
Ġsh eds
Ġsh adows
ra ci
ra iment
ra bbit
ĠM K
ĠM ut
ĠM ort
ĠM end
ĠM od
ĠM oc
ĠM ove
ĠM ature
ĠM uff
ĠM urd
ĠM unch
ĠM ises
ĠM onst
ĠM olly
ĠM alk
ĠM alt
ĠM asters
ĠM AST
ĠM andy
ĠM ennon
ĠM ambo
ĠM ildred
Ġse ed
Ġse iz
Ġse ated
Ġse ens
Ġse ism
Ġse ized
Ġse aling
Ġse ga
em ing
em porary
il ter
il ib
il ia
il era
il itating
Ġcon duc
ul k
ul in
ul se
ul ity
ul itzer
.. !
Ġcom ically
Ġex ited
Ġex iled
Ġex uber
Ġex acer
Ġli b
Ġli k
Ġli ed
Ġli ar
Ġli aison
ere my
Ġso ck
Ġso ars
Ġso oth
Ġso les
Ġso othing
Ġso viet
Ġso fa
Ġso dium
Ġne aring
ĠP ain
ĠP ound
ĠP itt
ĠP ars
ĠP EA
ĠP unch
ĠP AL
ĠP oul
ĠP erson
ĠP oe
ĠP OS
ĠP OP
ĠP OL
ĠP arker
ĠP iano
ĠP VC
ĠP aine
ĠP OSS
ĠP athetic
ĠP ractical
ĠP aley
ĠP UED
Ġal ia
Ġal bl
Ġal bul
Ġal phabet
Ġde pt
Ġde form
Ġde ities
Ġde ux
Ġde ception
ers hip
Ġch ic
Ġch ill
Ġch ess
Ġch imp
Ġch ass
Ġch ases
Ġch ival
Ġch oral
Ġch unky
Ġch rome
Ġch eek
Ġch ronicles
res se
res so
ĠE t
ĠE go
ĠE CH
ĠE ternal
ĠE co
ĠE PP
ĠE bay
ĠE asily
Ġwor ms
ĠB F
ĠB re
ĠB oo
ĠB ess
ĠB ast
ĠB ond
ĠB od
ĠB urn
ĠB row
ĠB uck
ĠB ED
ĠB orn
ĠB IT
ĠB anks
ĠB omb
ĠB orders
ĠB aker
ĠB Ã¶
ĠB arker
ĠB urning
ĠB OTHER
ĠB OUGHT
ĠB ASS
ĠB ABY
ĠB ouk
ĠB ottle
ĠB ionic
Ġsu x
ess ant
ort ing
ort ion
Ġj ett
Ġj umbled
Ġj erks
Ġdo d
Ġdo gged
ol gy
Ġall y
Ġall ies
ist as
ist le
ate llite
ant or
ant ique
ain less
us a
us on
us ers
Ġor gin
el is
el ong
qu i
qu al
qu ire
est or
est ry
op ers
op lane
op fler
ich i
ich er
Ġab er
Ġab ide
Ġab used
Ġab rid
Ġab orted
ĠW oo
ĠW id
ĠW ord
ĠW EA
ĠW att
ĠW rest
ĠW EE
ĠW MA
ĠW MP
ĠW ye
ĠW riters
ĠW itness
ĠW itw
ĠH om
ĠH oo
ĠH ook
ĠH um
ĠH ong
ĠH ud
ĠH ence
ĠH uck
ĠH AL
ĠH off
ĠH idden
ĠH AND
ĠH OME
ĠH arsh
ĠH emic
ĠH UM
ĠH Ã¤
ĠH mmm
ĠH aley
ĠH istorical
Ġme ld
Ġme ag
Ġme ats
Ġme ga
um a
um ate
ĠT Y
ĠT i
ĠT on
ĠT ar
ĠT ag
ĠT ool
ĠT ape
ĠT ora
ĠT ubthumping
ĠT OUCH
ĠT ouching
ĠT arantino
ĠT ubthumper
ĠT sats
ĠT iconder
art ist
art icul
art ets
ĠD C
ĠD ul
ĠD ist
ĠD un
ĠD one
ĠD and
ĠD ud
ĠD ue
ĠD ry
ĠD ays
ĠD ual
ĠD ern
ĠD ee
ĠD ash
ĠD ots
ĠD elt
ĠD ah
ĠD ying
ĠD ane
ĠD oul
ĠD imension
ĠD ancing
ĠD DS
ĠD VI
ĠD ucks
ĠD unn
ĠD REAM
ĠD allas
ĠD rawing
Ġcan ce
Ġcan ister
Ġcan non
Ġpl ac
Ġpl unge
Ġpl umeria
Ġint imately
Ġint rested
os er
os cop
ard ian
ard ieu
Ġv id
Ġv ents
Ġv ox
Ġv ault
Ġv ida
Ġv alley
Ġv itex
Ġv hs
Ġv raiment
Ġhe ap
Ġhe ights
Ġhe aped
Ġhe eded
ect er
Ġout ing
Ġout ro
Ġout back
Ġout cast
Ġen oy
Ġen comp
Ġen acting
Ġen forcing
Ġr ans
Ġr uth
Ġr ang
Ġr ug
Ġr ampant
Ġr ythm
Ġk g
Ġk ay
Ġk ins
Ġk ara
Ġk udos
Ġk auf
Ġk inky
ound hog
Ġ( $
Ġ( ?)
ast ical
Ġle aps
ough ly
ven e
ven ce
ven ge
ap y
ap les
ĠF I
ĠF o
ĠF ag
ĠF ish
ĠF ans
ĠF ry
ĠF ern
ĠF AN
ĠF ew
ĠF urther
ĠF AR
ĠF ear
ĠF ishing
ĠF LA
ĠF aded
ĠF ok
ĠF aul
ĠF itz
ĠF alse
ĠF ATE
ĠF OUND
ĠF RES
ĠF ANS
ĠF SOL
ĠF LES
ĠF uj
ĠF antasy
ĠF erg
ĠF aith
ĠF uture
ĠF urland
Ġup s
Ġup ward
ake y
Ġam ore
Ġam use
Ġam nesia
ĠG F
ĠG H
ĠG T
ĠG y
ĠG or
ĠG ro
ĠG ould
ĠG ri
ĠG one
ĠG iff
ĠG oll
ĠG OT
ĠG EN
ĠG ains
ĠG ins
ĠG rill
ĠG iant
ĠG ald
ĠG rey
ĠG asp
ĠG ros
ĠG rab
ĠG uter
ĠG eneration
ĠG AVE
ĠG omes
ĠG raham
ĠG enerally
ĠG rahame
Ġtr u
Ġtr as
Ġtr im
Ġtr un
Ġtr ough
Ġtr ump
Ġtr ashing
Ġtr udge
ĠN T
ĠN i
ĠN on
ĠN ell
ĠN uclear
ĠN CE
ĠN ancy
ĠN ordic
ĠN UMB
ĠN intendo
ĠN ashville
ĠN HL
Ġcomp lied
Ġcomp rable
Ġcomp ounded
Ġlo v
Ġlo an
Ġlo ans
[...]
