{
  "version": "1.0",
  "truncation": null,
  "padding": null,
  "added_tokens": [
    {
      "id": 2,
      "content": "<pad>",
      "single_word": false,
      "lstrip": false,
      "rstrip": false,
      "normalized": false,
      "special": true
    },
    {
      "id": 3,
      "content": "<unk>",
      "single_word": false,
      "lstrip": false,
      "rstrip": false,
      "normalized": false,
      "special": true
    },
    {
      "id": 32000,
      "content": "<sep>",
      "single_word": false,
      "lstrip": false,
      "rstrip": false,
      "normalized": false,
      "special": true
    },
    {
      "id": 32001,
      "content": "<cls>",
      "single_word": false,
      "lstrip": false,
      "rstrip": false,
      "normalized": false,
      "special": true
    },
    {
      "id": 32002,
      "content": "<mask>",
      "single_word": false,
      "lstrip": false,
      "rstrip": false,
      "normalized": false,
      "special": true
    }
  ],
  "normalizer": null,
  "pre_tokenizer": {
    "type": "ByteLevel",
    "add_prefix_space": false,
    "trim_offsets": true,
    "use_regex": true
  },
  "post_processor": {
    "type": "ByteLevel",
    "add_prefix_space": true,
    "trim_offsets": false,
    "use_regex": true
  },
  "decoder": {
    "type": "ByteLevel",
    "add_prefix_space": true,
    "trim_offsets": true,
    "use_regex": true
  },
  "model": {
    "type": "BPE",
    "dropout": null,
    "unk_token": null,
    "continuing_subword_prefix": "",
    "end_of_word_suffix": "",
    "fuse_unk": false,
    "byte_fallback": false,
    "ignore_merges": false,
    "vocab": {
      "<s>": 0,
      "</s>": 1,
      "<pad>": 2,
      "<unk>": 3,
      "!": 4,
      "\"": 5,
      "#": 6,
      "$": 7,
      "%": 8,
      "&": 9,
      "'": 10,
      "(": 11,
      ")": 12,
      "*": 13,
      "+": 14,
      ",": 15,
      "-": 16,
      ".": 17,
      "/": 18,
      "0": 19,
      "1": 20,
      "2": 21,
      "3": 22,
      "4": 23,
      "5": 24,
      "6": 25,
      "7": 26,
      "8": 27,
      "9": 28,
      ":": 29,
      ";": 30,
      "<": 31,
      "=": 32,
      ">": 33,
      "?": 34,
      "@": 35,
      "A": 36,
      "B": 37,
      "C": 38,
      "D": 39,
      "E": 40,
      "F": 41,
      "G": 42,
      "H": 43,
      "I": 44,
      "J": 45,
      "K": 46,
      "L": 47,
      "M": 48,
      "N": 49,
      "O": 50,
      "P": 51,
      "Q": 52,
      "R": 53,
      "S": 54,
      "T": 55,
      "U": 56,
      "V": 57,
      "W": 58,
      "X": 59,
      "Y": 60,
      "Z": 61,
      "[": 62,
      "\\": 63,
      "]": 64,
      "^": 65,
      "_": 66,
      "`": 67,
      "a": 68,
      "b": 69,
      "c": 70,
      "d": 71,
      "e": 72,
      "f": 73,
      "g": 74,
      "h": 75,
      "i": 76,
      "j": 77,
      "k": 78,
      "l": 79,
      "m": 80,
      "n": 81,
      "o": 82,
      "p": 83,
      "q": 84,
      "r": 85,
      "s": 86,
      "t": 87,
      "u": 88,
      "v": 89,
      "w": 90,
      "x": 91,
      "y": 92,
      "z": 93,
      "{": 94,
      "|": 95,
      "}": 96,
      "~": 97,
      "¡": 98,
      "¢": 99,
      "£": 100,
      "¤": 101,
      "¥": 102,
      "¦": 103,
      "§": 104,
      "¨": 105,
      "©": 106,
      "ª": 107,
      "«": 108,
      "¬": 109,
      "®": 110,
      "¯": 111,
      "°": 112,
      "±": 113,
      "²": 114,
      "³": 115,
      "´": 116,
      "µ": 117,
      "¶": 118,
      "·": 119,
      "¸": 120,
      "¹": 121,
      "º": 122,
      "»": 123,
      "¼": 124,
      "½": 125,
      "¾": 126,
      "¿": 127,
      "À": 128,
      "Á": 129,
      "Â": 130,
      "Ã": 131,
      "Ä": 132,
      "Å": 133,
      "Æ": 134,
      "Ç": 135,
      "È": 136,
      "É": 137,
      "Ê": 138,
      "Ë": 139,
      "Ì": 140,
      "Í": 141,
      "Î": 142,
      "Ï": 143,
      "Ð": 144,
      "Ñ": 145,
      "Ò": 146,
      "Ó": 147,
      "Ô": 148,
      "Õ": 149,
      "Ö": 150,
      "×": 151,
      "Ø": 152,
      "Ù": 153,
      "Ú": 154,
      "Û": 155,
      "Ü": 156,
      "Ý": 157,
      "Þ": 158,
      "ß": 159,
      "à": 160,
      "á": 161,
      "â": 162,
      "ã": 163,
      "ä": 164,
      "å": 165,
      "æ": 166,
      "ç": 167,
      "è": 168,
      "é": 169,
      "ê": 170,
      "ë": 171,
      "ì": 172,
      "í": 173,
      "î": 174,
      "ï": 175,
      "ð": 176,
      "ñ": 177,
      "ò": 178,
      "ó": 179,
      "ô": 180,
      "õ": 181,
      "ö": 182,
      "÷": 183,
      "ø": 184,
      "ù": 185,
      "ú": 186,
      "û": 187,
      "ü": 188,
      "ý": 189,
      "þ": 190,
      "ÿ": 191,
      "Ā": 192,
      "ā": 193,
      "Ă": 194,
      "ă": 195,
      "Ą": 196,
      "ą": 197,
      "Ć": 198,
      "ć": 199,
      "Ĉ": 200,
      "ĉ": 201,
      "Ċ": 202,
      "ċ": 203,
      "Č": 204,
      "č": 205,
      "Ď": 206,
      "ď": 207,
      "Đ": 208,
      "đ": 209,
      "Ē": 210,
      "ē": 211,
      "Ĕ": 212,
      "ĕ": 213,
      "Ė": 214,
      "ė": 215,
      "Ę": 216,
      "ę": 217,
      "Ě": 218,
      "ě": 219,
      "Ĝ": 220,
      "ĝ": 221,
      "Ğ": 222,
      "ğ": 223,
      "Ġ": 224,
      "ġ": 225,
      "Ģ": 226,
      "ģ": 227,
      "Ĥ": 228,
      "ĥ": 229,
      "Ħ": 230,
      "ħ": 231,
      "Ĩ": 232,
      "ĩ": 233,
      "Ī": 234,
      "ī": 235,
      "Ĭ": 236,
      "ĭ": 237,
      "Į": 238,
      "į": 239,
      "İ": 240,
      "ı": 241,
      "Ĳ": 242,
      "ĳ": 243,
      "Ĵ": 244,
      "ĵ": 245,
      "Ķ": 246,
      "ķ": 247,
      "ĸ": 248,
      "Ĺ": 249,
      "ĺ": 250,
      "Ļ": 251,
      "ļ": 252,
      "Ľ": 253,
      "ľ": 254,
      "Ŀ": 255,
      "ŀ": 256,
      "Ł": 257,
      "ł": 258,
      "Ń": 259,
      "Ġt": 260,
      "Ġa": 261,
      "Ġth": 262,
      "in": 263,
      "re": 264,
      "Ġthe": 265,
      "on": 266,
      "Ġw": 267,
      "is": 268,
      "er": 269,
      "Ġs": 270,
      "Ġb": 271,
      "it": 272,
      "Ġo": 273,
      "nd": 274,
      "at": 275,
      "ou": 276,
      "Ġc": 277,
      "Ġf": 278,
      "en": 279,
      "Ġm": 280,
      "or": 281,
      "Ġp": 282,
      "Ġto": 283,
      "es": 284,
      "ing": 285,
      "Ġh": 286,
      "ed": 287,
      "Ġand": 288,
      "Ġof": 289,
      "ĠI": 290,
      "an": 291,
      "ll": 292,
      "Ġd": 293,
      "Ġin": 294,
      "ar": 295,
      "as": 296,
      "Ġl": 297,
      "Ġre": 298,
      "ic": 299,
      "om": 300,
      "ion": 301,
      "Ġis": 302,
      "Ġn": 303,
      "Ġit": 304,
      "ve": 305,
      "Ġg": 306,
      "le": 307,
      "al": 308,
      "ot": 309,
      "Ġe": 310,
      "st": 311,
      "Ġbe": 312,
      "ut": 313,
      "ent": 314,
      "Ġon": 315,
      "Th": 316,
      "oo": 317,
      "Ġthis": 318,
      "ct": 319,
      "ad": 320,
      "ly": 321,
      "ro": 322,
      "Ġthat": 323,
      "ver": 324,
      "Ġwh": 325,
      "Ġfor": 326,
      "Ġy": 327,
      "se": 328,
      "et": 329,
      "ld": 330,
      "id": 331,
      "Ġu": 332,
      "Ġst": 333,
      "gh": 334,
      "ow": 335,
      "Ġyou": 336,
      "ch": 337,
      "ook": 338,
      "ay": 339,
      "im": 340,
      "ith": 341,
      "Ġwas": 342,
      "Ġha": 343,
      "ce": 344,
      "The": 345,
      "am": 346,
      "Ġwith": 347,
      "Ġnot": 348,
      "Ġwe": 349,
      "ke": 350,
      "ur": 351,
      "Ġmo": 352,
      "Ġan": 353,
      "th": 354,
      "ĠC": 355,
      "all": 356,
      "Ġbook": 357,
      "pe": 358,
      "ould": 359,
      "Ġare": 360,
      "ri": 361,
      "Ġas": 362,
      "ter": 363,
      "ir": 364,
      "Ġhave": 365,
      "ĠA": 366,
      "ie": 367,
      "if": 368,
      "ation": 369,
      "ill": 370,
      "ĠS": 371,
      "Ġpro": 372,
      "Ġbut": 373,
      "ust": 374,
      "'s": 375,
      "Ġsh": 376,
      "ra": 377,
      "ĠM": 378,
      "Ġse": 379,
      "em": 380,
      "il": 381,
      "Ġcon": 382,
      "ble": 383,
      "ĠThe": 384,
      "ul": 385,
      "..": 386,
      "ght": 387,
      "Ġcom": 388,
      "'t": 389,
      "pp": 390,
      "Ġex": 391,
      "Ġli": 392,
      "Ġmy": 393,
      "ere": 394,
      "Ġso": 395,
      "ck": 396,
      "Ġne": 397,
      "ĠP": 398,
      "Ġal": 399,
      "very": 400,
      "ally": 401,
      "Ġde": 402,
      "ers": 403,
      "Ġch": 404,
      "res": 405,
      "ĠE": 406,
      "Ġwor": 407,
      "ĠB": 408,
      "Ġsu": 409,
      "ess": 410,
      "ort": 411,
      "This": 412,
      "Ġj": 413,
      "Ġdo": 414,
      "Ġat": 415,
      "ol": 416,
      "ge": 417,
      "Ġall": 418,
      "ive": 419,
      "ist": 420,
      "Ġone": 421,
      "out": 422,
      "ate": 423,
      "ant": 424,
      "ment": 425,
      "ain": 426,
      "Ġread": 427,
      "us": 428,
      "vie": 429,
      "Ġor": 430,
      "el": 431,
      "qu": 432,
      "est": 433,
      "op": 434,
      "rom": 435,
      "ich": 436,
      "Ġab": 437,
      "ĠW": 438,
      "Ġwould": 439,
      "ĠH": 440,
      "Ġme": 441,
      "un": 442,
      "ome": 443,
      "um": 444,
      "reat": 445,
      "ĠIt": 446,
      "ies": 447,
      "Ġwill": 448,
      "Ġhas": 449,
      "ĠT": 450,
      "omm": 451,
      "art": 452,
      "ĠD": 453,
      "Ġlike": 454,
      "Ġ\"": 455,
      "ity": 456,
      "Ġcan": 457,
      "Ġpl": 458,
      "one": 459,
      "ood": 460,
      "Ġwhich": 461,
      "Ġint": 462,
      "Ġby": 463,
      "os": 464,
      "ard": 465,
      "nt": 466,
      "ci": 467,
      "ak": 468,
      "Ġv": 469,
      "Ġfrom": 470,
      "Ġhe": 471,
      "ure": 472,
      "and": 473,
      "sion": 474,
      "Ġvery": 475,
      "ect": 476,
      "Ġabout": 477,
      "Ġout": 478,
      "act": 479,
      "Ġtim": 480,
      "Ġen": 481,
      "ong": 482,
      "Ġr": 483,
      "Ġjust": 484,
      "Ġk": 485,
      "ound": 486,
      "Ġ(": 487,
      "au": 488,
      "ast": 489,
      "Ġle": 490,
      "ough": 491,
      "ame": 492,
      "Ġthey": 493,
      "Ġmore": 494,
      "ind": 495,
      "ore": 496,
      "ven": 497,
      "end": 498,
      "her": 499,
      "ap": 500,
      "ĠF": 501,
      "Ġup": 502,
      "ake": 503,
      "Ġno": 504,
      "Ġam": 505,
      "ĠG": 506,
      "Ġtr": 507,
      "Ġany": 508,
      "Ġget": 509,
      "Ġwho": 510,
      "ack": 511,
      "able": 512,
      "Ġgood": 513,
      "ĠN": 514,
      "Ġcomp": 515,
      "Ġthere": 516,
      "Ġlo": 517,
      "ig": 518,
      "imp": 519,
      "Ġ1": 520,
      "Ġmovie": 521,
      "ĠL": 522,
      "ous": 523,
      "itt": 524,
      "ice": 525,
      "Ġdis": 526,
      "Ġgreat": 527,
      "Ġsome": 528,
      "Ġtime": 529,
      "ĠComm": 530,
      "ag": 531,
      "ĠR": 532,
      "our": 533,
      "Ġad": 534,
      "Ġhad": 535,
      "Ġif": 536,
      "int": 537,
      "ud": 538,
      "Ġfe": 539,
      "Ġwork": 540,
      "Ġqu": 541,
      "ĠO": 542,
      "so": 543,
      "Ġwhat": 544,
      "uro": 545,
      "ions": 546,
      "ide": 547,
      "Ġrec": 548,
      "ther": 549,
      "Ġbec": 550,
      "Ġonly": 551,
      "ory": 552,
      "Ġgo": 553,
      "Ġun": 554,
      "Ġus": 555,
      "li": 556,
      "urope": 557,
      "pt": 558,
      "Ġag": 559,
      "Ġyour": 560,
      "uct": 561,
      "Ġ-": 562,
      "ff": 563,
      "ĠEurope": 564,
      "ish": 565,
      "Ġman": 566,
      "ab": 567,
      "are": 568,
      "Ġact": 569,
      "ause": 570,
      "ite": 571,
      "pl": 572,
      "Ġwhen": 573,
      "Ġco": 574,
      "vel": 575,
      "ire": 576,
      "iv": 577,
      "ars": 578,
      "Ġthan": 579,
      "Ġdid": 580,
      "Ġbeen": 581,
      "Ġthem": 582,
      "irst": 583,
      "ission": 584,
      "ink": 585,
      "ought": 586,
      "oy": 587,
      "ue": 588,
      "ans": 589,
      "Ġother": 590,
      "!!": 591,
      "Ġshould": 592,
      "ine": 593,
      "ĠThis": 594,
      "Ġbu": 595,
      "ĠU": 596,
      "oint": 597,
      "ĠJ": 598,
      "Ġimp": 599,
      "Ġcl": 600,
      "Ġpre": 601,
      "Ġwr": 602,
      "Ġpr": 603,
      "ĠCommission": 604,
      "Ġalso": 605,
      "Ġbet": 606,
      "Ġhis": 607,
      "Ġcont": 608,
      "Ġbecause": 609,
      "uch": 610,
      "Ġher": 611,
      "ight": 612,
      "...": 613,
      "Ġpart": 614,
      "Ġdoes": 615,
      "per": 616,
      "Ġ2": 617,
      "Ġkn": 618,
      "age": 619,
      "Ġfirst": 620,
      "ber": 621,
      "Ġchar": 622,
      "ond": 623,
      "Ġreally": 624,
      "ell": 625,
      "Ġover": 626,
      "Ġhow": 627,
      "ult": 628,
      "Ġcould": 629,
      "Ġwere": 630,
      "Ġmuch": 631,
      "Ġres": 632,
      "orm": 633,
      "Ġsc": 634,
      "Ġtheir": 635,
      "Ġtoo": 636,
      "Ġthese": 637,
      "ance": 638,
      "ose": 639,
      "view": 640,
      "Ġye": 641,
      "ary": 642,
      "hing": 643,
      "ade": 644,
      "Ġpe": 645,
      "ical": 646,
      "fter": 647,
      "Ġthink": 648,
      "Ġeven": 649,
      "Ġwant": 650,
      "Ġneed": 651,
      "Ġwell": 652,
      "av": 653,
      "Ġlook": 654,
      "ĠEuropean": 655,
      "Ġar": 656,
      "Ġknow": 657,
      "ach": 658,
      "duct": 659,
      "Ġstory": 660,
      "ry": 661,
      "ass": 662,
      "iz": 663,
      "Ġspe": 664,
      "ated": 665,
      "Ġinto": 666,
      "Ġour": 667,
      "ep": 668,
      "Ġits": 669,
      "ase": 670,
      "ick": 671,
      "Ġevery": 672,
      "Ġmust": 673,
      "ays": 674,
      "cc": 675,
      "od": 676,
      "ful": 677,
      "nder": 678,
      "atch": 679,
      "sel": 680,
      "ict": 681,
      "Ġdon": 682,
      "te": 683,
      "ious": 684,
      "Ġmake": 685,
      "Ġreg": 686,
      "ople": 687,
      "ition": 688,
      "00": 689,
      "ations": 690,
      "Ġsa": 691,
      "form": 692,
      "Ġnew": 693,
      "Ġbuy": 694,
      "Ġsee": 695,
      "og": 696,
      "Ġper": 697,
      "fore": 698,
      "Ġoff": 699,
      "ace": 700,
      "Ġtw": 701,
      "Ġway": 702,
      "Ġi": 703,
      "ount": 704,
      "cial": 705,
      "Ġinc": 706,
      "ac": 707,
      "Ġunder": 708,
      "ĠSt": 709,
      "Ġpeople": 710,
      "ence": 711,
      "ress": 712,
      "iff": 713,
      "gr": 714,
      "ord": 715,
      "Ġthing": 716,
      "ident": 717,
      "Ġproduct": 718,
      "wn": 719,
      "ved": 720,
      "Ġback": 721,
      "ree": 722,
      "Ġshe": 723,
      "Ġte": 724,
      "Ġend": 725,
      "igh": 726,
      "pect": 727,
      "Ġsay": 728,
      "ens": 729,
      "Ġser": 730,
      "urn": 731,
      "Ġfil": 732,
      "Ġcharact": 733,
      "Ġbetter": 734,
      "Ġapp": 735,
      "Ġmost": 736,
      "Ġagain": 737,
      "az": 738,
      "Ġmany": 739,
      "Ġnow": 740,
      "Ġplay": 741,
      "Ġdes": 742,
      "ever": 743,
      "Ġdiff": 744,
      "Ġuse": 745,
      "It": 746,
      "ull": 747,
      "gin": 748,
      "Ġpol": 749,
      "ail": 750,
      "ip": 751,
      "ile": 752,
      "Ġafter": 753,
      "Ġmade": 754,
      "Ġthen": 755,
      "ise": 756,
      "ommend": 757,
      "ĠUn": 758,
      "Ġinst": 759,
      "other": 760,
      "Ġfilm": 761,
      "own": 762,
      "uth": 763,
      "ang": 764,
      "ament": 765,
      "ĠK": 766,
      "Ġlove": 767,
      "Ġrep": 768,
      "Ġrecommend": 769,
      "Ġbooks": 770,
      "akes": 771,
      "ĠWh": 772,
      "ial": 773,
      "Ġfind": 774,
      "ife": 775,
      "ert": 776,
      "ĠIf": 777,
      "ittle": 778,
      "Ġgu": 779,
      "Ġmus": 780,
      "Ġthr": 781,
      "ĠY": 782,
      "ub": 783,
      "We": 784,
      "Ġri": 785,
      "ark": 786,
      "ĠPres": 787,
      "ĠMr": 788,
      "ne": 789,
      "Ġsp": 790,
      "'m": 791,
      "Ġreal": 792,
      "ible": 793,
      "ĠV": 794,
      "arli": 795,
      "ased": 796,
      "erest": 797,
      "ĠTh": 798,
      "omet": 799,
      "ces": 800,
      "ting": 801,
      "Ġro": 802,
      "Ġlittle": 803,
      "Ġaw": 804,
      "Ġthrough": 805,
      "Ġtwo": 806,
      "Ġgot": 807,
      "Ġcomm": 808,
      "self": 809,
      "xt": 810,
      "Ġconc": 811,
      "ost": 812,
      "Ġstill": 813,
      "Ġbest": 814,
      "Ġgr": 815,
      "pport": 816,
      "ates": 817,
      "Ġput": 818,
      "Ġwatch": 819,
      "red": 820,
      "ĠAm": 821,
      "ject": 822,
      "Ġrem": 823,
      "Ġlong": 824,
      "Ġreview": 825,
      "Ġinterest": 826,
      "ving": 827,
      "ors": 828,
      "ative": 829,
      "Ġyears": 830,
      "Ġfin": 831,
      "oney": 832,
      "Ġstr": 833,
      "ons": 834,
      "Ġmusic": 835,
      "ER": 836,
      "Ġnever": 837,
      "'ve": 838,
      "Ġhigh": 839,
      "oc": 840,
      "Ġtra": 841,
      "ments": 842,
      "Ġreading": 843,
      "arliament": 844,
      "Ġeff": 845,
      "Ġsomet": 846,
      "ating": 847,
      "bum": 848,
      "Ġdec": 849,
      "ple": 850,
      "Ġsong": 851,
      "Ġseem": 852,
      "ĠCh": 853,
      "blem": 854,
      "Ġpos": 855,
      "Ġcons": 856,
      "Ġ3": 857,
      "oth": 858,
      "Ġmoney": 859,
      "Ġbeing": 860,
      "joy": 861,
      "ves": 862,
      "Ġke": 863,
      "ph": 864,
      "Ġra": 865,
      "Ġpur": 866,
      "ĠIn": 867,
      "ning": 868,
      "Ġsame": 869,
      "Ġauth": 870,
      "Ġalbum": 871,
      "Ġproblem": 872,
      "ĠPresident": 873,
      "ual": 874,
      "ually": 875,
      "Ġfact": 876,
      "Ġfound": 877,
      "ob": 878,
      "Ġbel": 879,
      "Ġpoint": 880,
      "Ġbought": 881,
      "aking": 882,
      "Ġenjoy": 883,
      "get": 884,
      "we": 885,
      "Ġent": 886,
      "Ġdown": 887,
      "ild": 888,
      "Ġthose": 889,
      "Ġacc": 890,
      "Ġmay": 891,
      "Ġever": 892,
      "99": 893,
      "app": 894,
      "Ġbl": 895,
      "Ġold": 896,
      "Ġtake": 897,
      "Ġho": 898,
      "Ġright": 899,
      "Ġord": 900,
      "Ġset": 901,
      "Ġsuch": 902,
      "ember": 903,
      "Ġsound": 904,
      "Ġwhere": 905,
      "thing": 906,
      "he": 907,
      "Ġlife": 908,
      "Ġthought": 909,
      "ures": 910,
      "Ġind": 911,
      "ĠTH": 912,
      "ib": 913,
      "ily": 914,
      "arly": 915,
      "amm": 916,
      "Ġext": 917,
      "Ġfeel": 918,
      "Ġsm": 919,
      "Ġcr": 920,
      "Ġbad": 921,
      "Ġown": 922,
      "Ġfun": 923,
      "Ġem": 924,
      "Ġinter": 925,
      "Ġcle": 926,
      "Ġfl": 927,
      "ality": 928,
      "Ġmon": 929,
      "Ġbefore": 930,
      "Ġdidn": 931,
      "ĠParliament": 932,
      "ign": 933,
      "read": 934,
      "Ġfar": 935,
      "Ġfew": 936,
      "Ġsec": 937,
      "ced": 938,
      "Ġatt": 939,
      "Ġmat": 940,
      "Ġlist": 941,
      "les": 942,
      "Ġop": 943,
      "ents": 944,
      "Ġauthor": 945,
      "ince": 946,
      "Ġstart": 947,
      "Ġimport": 948,
      "Ġeas": 949,
      ").": 950,
      "Ġshow": 951,
      "ren": 952,
      "ft": 953,
      "ks": 954,
      "ertain": 955,
      "ered": 956,
      "ieve": 957,
      "cept": 958,
      "Ġ4": 959,
      "Ġhard": 960,
      "ave": 961,
      "Ġhapp": 962,
      "Ġclass": 963,
      "ern": 964,
      "Ġgame": 965,
      "Ġsomething": 966,
      "Ġhere": 967,
      "Ġter": 968,
      "ĠUnion": 969,
      "Ġhel": 970,
      "Ġlot": 971,
      "Wh": 972,
      "oun": 973,
      "Ġdef": 974,
      "Ġver": 975,
      "Ġob": 976,
      "Ġadd": 977,
      "iting": 978,
      "Ġgive": 979,
      "Ġdisc": 980,
      "Ġsub": 981,
      "und": 982,
      "wh": 983,
      "ues": 984,
      "Ġhelp": 985,
      "In": 986,
      "less": 987,
      "Ġlast": 988,
      "velop": 989,
      "oll": 990,
      "ty": 991,
      "ia": 992,
      "Ġprogr": 993,
      "Ġtry": 994,
      "Ġdiffere": 995,
      "pos": 996,
      "ics": 997,
      "ĠBut": 998,
      "cy": 999,
      "Ġgoing": 1000,
      "VD": 1001,
      "ĠCD": 1002,
      "ian": 1003,
      "Ġrel": 1004,
      "ention": 1005,
      "Ġtri": 1006,
      "Ġanother": 1007,
      "stand": 1008,
      "con": 1009,
      "Ġworth": 1010,
      "Ġcharacters": 1011,
      "ĠDVD": 1012,
      "appoint": 1013,
      "Ġiss": 1014,
      "Ġpurch": 1015,
      "lic": 1016,
      "Ġtrans": 1017,
      "ives": 1018,
      "Ġref": 1019,
      "ug": 1020,
      "cess": 1021,
      "Ġcount": 1022,
      "Ġdevelop": 1023,
      "Ġused": 1024,
      "ility": 1025,
      "air": 1026,
      "ee": 1027,
      "lud": 1028,
      "Ġpers": 1029,
      "day": 1030,
      "icul": 1031,
      "ute": 1032,
      "Ġ5": 1033,
      "Ġmin": 1034,
      "Ġcomple": 1035,
      "ool": 1036,
      "Ġche": 1037,
      "Ġdisappoint": 1038,
      "Ġins": 1039,
      "Ġworld": 1040,
      "itten": 1041,
      "Ġinform": 1042,
      "Ġgen": 1043,
      "Ġim": 1044,
      "Ġyear": 1045,
      "Ġversion": 1046,
      "Ġpo": 1047,
      "Ġsy": 1048,
      "Ġwithout": 1049,
      "aw": 1050,
      "be": 1051,
      "Ġpres": 1052,
      "irect": 1053,
      "ities": 1054,
      "Ġsaid": 1055,
      "Ġwhy": 1056,
      "ward": 1057,
      "lish": 1058,
      "Ġquality": 1059,
      "ution": 1060,
      "ider": 1061,
      "onder": 1062,
      "not": 1063,
      "Ġsupport": 1064,
      "Ġsince": 1065,
      "Ġgl": 1066,
      "Ġnovel": 1067,
      "Ġbo": 1068,
      "Ġmakes": 1069,
      "als": 1070,
      "ng": 1071,
      "ific": 1072,
      "Ġcoll": 1073,
      "Ġeffect": 1074,
      "ement": 1075,
      "fort": 1076,
      "Ġfav": 1077,
      "Ġprogramm": 1078,
      "ather": 1079,
      "Ġmis": 1080,
      "Ġret": 1081,
      "Ġreport": 1082,
      "ings": 1083,
      "conom": 1084,
      "ately": 1085,
      "ween": 1086,
      "ason": 1087,
      "ead": 1088,
      "Ġimportant": 1089,
      "Ġbelieve": 1090,
      "Ġpolic": 1091,
      "ote": 1092,
      "Ġwritten": 1093,
      "Ġdoesn": 1094,
      "Ġori": 1095,
      "Ġhim": 1096,
      "ower": 1097,
      "owever": 1098,
      "Ġdifferent": 1099,
      "Ġplot": 1100,
      "Ġbetween": 1101,
      "ock": 1102,
      "Ġ'": 1103,
      "ably": 1104,
      "Ġunderstand": 1105,
      "cil": 1106,
      "oup": 1107,
      "....": 1108,
      "Ġtimes": 1109,
      "Ġwonder": 1110,
      "Ġsimp": 1111,
      "ĠThere": 1112,
      "ational": 1113,
      "cri": 1114,
      "Ġenough": 1115,
      "Ġprov": 1116,
      "Ġph": 1117,
      "Ġwhile": 1118,
      "man": 1119,
      "ĠThey": 1120,
      "Ġanyone": 1121,
      "ural": 1122,
      "Ġorigin": 1123,
      "Ġlooking": 1124,
      "Ġconf": 1125,
      "Ġinv": 1126,
      "Ġexpect": 1127,
      "azon": 1128,
      "riend": 1129,
      "ater": 1130,
      "ĠHe": 1131,
      "Ġdirect": 1132,
      "arn": 1133,
      "If": 1134,
      "vern": 1135,
      "ĠAnd": 1136,
      "ath": 1137,
      "ense": 1138,
      "Ġnothing": 1139,
      "ways": 1140,
      "iter": 1141,
      "ange": 1142,
      "Ġwom": 1143,
      "ĠMember": 1144,
      "Ġleg": 1145,
      "ism": 1146,
      "Ġsecond": 1147,
      "nce": 1148,
      "Ġpropos": 1149,
      "Ġide": 1150,
      "Ġap": 1151,
      "Ġday": 1152,
      "led": 1153,
      "ised": 1154,
      "ked": 1155,
      "Ġhum": 1156,
      "IN": 1157,
      "Ġboth": 1158,
      "ize": 1159,
      "Ġexam": 1160,
      "Ġkeep": 1161,
      "Ġcome": 1162,
      "Ġbr": 1163,
      "ted": 1164,
      "Ġeconom": 1165,
      "Ġorder": 1166,
      "unity": 1167,
      "Ġquest": 1168,
      "'ll": 1169,
      "Ġhand": 1170,
      "Ġinclud": 1171,
      "Ġel": 1172,
      "Ġable": 1173,
      "Ġthings": 1174,
      "Ġless": 1175,
      "ouncil": 1176,
      "ouse": 1177,
      "row": 1178,
      "Ġparticul": 1179,
      "ery": 1180,
      "ĠSo": 1181,
      "Ġcour": 1182,
      "Ġev": 1183,
      "ĠYou": 1184,
      "Ġperson": 1185,
      "ready": 1186,
      "Ġtal": 1187,
      "Mr": 1188,
      "Ġed": 1189,
      "oring": 1190,
      "ny": 1191,
      "Ġsmall": 1192,
      "ix": 1193,
      "Ġword": 1194,
      "Ġdet": 1195,
      "Ġalready": 1196,
      "ages": 1197,
      "Ġmonth": 1198,
      "Ġthough": 1199,
      "Ġsing": 1200,
      "Ġform": 1201,
      "ĠCouncil": 1202,
      "ety": 1203,
      "Ġview": 1204,
      "ĠAl": 1205,
      "Ġactually": 1206,
      "du": 1207,
      "Ġsur": 1208,
      "ection": 1209,
      "cell": 1210,
      "Ġcharacter": 1211,
      "Ġpolit": 1212,
      "vies": 1213,
      "Ġlet": 1214,
      "Ġexp": 1215,
      "Ġvide": 1216,
      "Ġchild": 1217,
      "Ġaction": 1218,
      "Ġinteresting": 1219,
      "Ġsongs": 1220,
      "Ġlisten": 1221,
      "ited": 1222,
      "ters": 1223,
      "Ġsure": 1224,
      "Ġfull": 1225,
      "Ġseries": 1226,
      "Ġposs": 1227,
      "ĠStates": 1228,
      "king": 1229,
      "Ġcomplete": 1230,
      "Ġalways": 1231,
      "Ġinformation": 1232,
      "Ġta": 1233,
      "Ġmovies": 1234,
      "Ġbig": 1235,
      "Ġfr": 1236,
      "icult": 1237,
      "Ġexper": 1238,
      "Ġcar": 1239,
      "Ġfam": 1240,
      "ec": 1241,
      "Ġpub": 1242,
      "ĠMy": 1243,
      "RE": 1244,
      "ont": 1245,
      "Ġhor": 1246,
      "Ġprice": 1247,
      "Ġappro": 1248,
      "up": 1249,
      "ional": 1250,
      "Ġac": 1251,
      "Ġexpl": 1252,
      "Ġturn": 1253,
      "Ġwa": 1254,
      "OT": 1255,
      "ract": 1256,
      "its": 1257,
      "Ġaround": 1258,
      "Ġtell": 1259,
      "Ġdem": 1260,
      "Ġeasy": 1261,
      "Ġcertain": 1262,
      "Ġrece": 1263,
      "Ġdescri": 1264,
      "Ġfan": 1265,
      "ĠAs": 1266,
      "ĠTHE": 1267,
      "vious": 1268,
      "Ġpict": 1269,
      "lect": 1270,
      "Ġwaste": 1271,
      "Ġdefin": 1272,
      "ys": 1273,
      "ese": 1274,
      "cks": 1275,
      "Ġsl": 1276,
      "Ġfut": 1277,
      "ime": 1278,
      "Ġseen": 1279,
      "Ġmod": 1280,
      "Ġ19": 1281,
      "Ġprin": 1282,
      "ruct": 1283,
      "Ġmark": 1284,
      "Ġitem": 1285,
      "alf": 1286,
      "Ġnext": 1287,
      "cellent": 1288,
      "ĠAmazon": 1289,
      "Ġoriginal": 1290,
      "Ġbas": 1291,
      "Ġrequ": 1292,
      "Ġeach": 1293,
      "most": 1294,
      "Ġpolicy": 1295,
      "Ġkind": 1296,
      "Ġpret": 1297,
      "rem": 1298,
      "Ġmain": 1299,
      "ollow": 1300,
      "Ġwhole": 1301,
      "Ġreason": 1302,
      "Ġwithin": 1303,
      "Ġresp": 1304,
      "Ġnum": 1305,
      "augh": 1306,
      "Ġreturn": 1307,
      "lease": 1308,
      "cially": 1309,
      "Ġquite": 1310,
      "uring": 1311,
      "Ġsch": 1312,
      "ĠBr": 1313,
      "),": 1314,
      "Ġseems": 1315,
      "Ġfriend": 1316,
      "Ġass": 1317,
      "Ġplace": 1318,
      "Ġav": 1319,
      "Ġwish": 1320,
      "Ġfuture": 1321,
      "Ġcannot": 1322,
      "Ġscen": 1323,
      "Ġes": 1324,
      "ision": 1325,
      "Ġdeb": 1326,
      "iven": 1327,
      "ically": 1328,
      "Ġvideo": 1329,
      "ove": 1330,
      "'re": 1331,
      "Ġma": 1332,
      "Ġlevel": 1333,
      "Ġcourse": 1334,
      "Ġcam": 1335,
      "Ġdone": 1336,
      "ON": 1337,
      "ature": 1338,
      "vers": 1339,
      "Ġtherefore": 1340,
      "io": 1341,
      "ied": 1342,
      "Ġaway": 1343,
      "Ġpresent": 1344,
      "pr": 1345,
      "Ġfollow": 1346,
      "Ġreviews": 1347,
      "Ġcall": 1348,
      "Ġdra": 1349,
      "AN": 1350,
      "Ġjob": 1351,
      "Ġconcern": 1352,
      "Ġdisappointed": 1353,
      "vernment": 1354,
      "Ġty": 1355,
      "ank": 1356,
      "Ġbegin": 1357,
      "Ġwee": 1358,
      "Ġhist": 1359,
      "Ġgener": 1360,
      "ash": 1361,
      "Ġstud": 1362,
      "ness": 1363,
      "raph": 1364,
      "Ġadv": 1365,
      "\".": 1366,
      "Ġsit": 1367,
      "ories": 1368,
      "Ġtop": 1369,
      "Ġyet": 1370,
      "Ġdifficult": 1371,
      "Ġtoday": 1372,
      "ew": 1373,
      "ten": 1374,
      "pecially": 1375,
      "Ġrest": 1376,
      "Ġbit": 1377,
      "Ġconsider": 1378,
      "Ġcur": 1379,
      "Ġstand": 1380,
      "though": 1381,
      "rible": 1382,
      "pped": 1383,
      "Ġleast": 1384,
      "Ġthree": 1385,
      "stem": 1386,
      "ĠWe": 1387,
      "Ġexcellent": 1388,
      "Ġcard": 1389,
      "There": 1390,
      "aut": 1391,
      "Ġpie": 1392,
      "Ġart": 1393,
      "Ġonce": 1394,
      "Ġabs": 1395,
      "the": 1396,
      "olog": 1397,
      "Ġhope": 1398,
      "Ġcame": 1399,
      "Ġexc": 1400,
      "aper": 1401,
      "Ġcompet": 1402,
      "Ġpower": 1403,
      "arch": 1404,
      "Ġworks": 1405,
      "Ġproblems": 1406,
      "Ġfavor": 1407,
      "ines": 1408,
      "Ġcare": 1409,
      "Ġdevelopment": 1410,
      "Ġpretty": 1411,
      "My": 1412,
      "rist": 1413,
      "Ġ&": 1414,
      "Ġtoget": 1415,
      "Ġtogether": 1416,
      "!!!!": 1417,
      "Ġregard": 1418,
      "hip": 1419,
      "Ġbat": 1420,
      "Ġanything": 1421,
      "Ġsystem": 1422,
      "light": 1423,
      "Ġwar": 1424,
      "ries": 1425,
      "Ġcontro": 1426,
      "any": 1427,
      "Ġrather": 1428,
      "Ġcost": 1429,
      "Ġboring": 1430,
      "ided": 1431,
      "ner": 1432,
      "utes": 1433,
      "Ġcontin": 1434,
      "Ġcase": 1435,
      "Ġopin": 1436,
      "ience": 1437,
      "arg": 1438,
      "aster": 1439,
      "ither": 1440,
      "fect": 1441,
      "Ġmind": 1442,
      "Ġnice": 1443,
      "Ġhaving": 1444,
      "Ġ199": 1445,
      "Ġpoor": 1446,
      "As": 1447,
      "Ġelse": 1448,
      "aken": 1449,
      "Ġsk": 1450,
      "Ġmight": 1451,
      "Ġcor": 1452,
      "Ġhour": 1453,
      "Ġrepl": 1454,
      "rand": 1455,
      "Ġwriting": 1456,
      "ploy": 1457,
      "bably": 1458,
      "Ġgroup": 1459,
      "ms": 1460,
      "Ġcreat": 1461,
      "ss": 1462,
      "Ġinit": 1463,
      "ared": 1464,
      "Ġissue": 1465,
      "ts": 1466,
      "gg": 1467,
      "Ġhappen": 1468,
      "Ġmiss": 1469,
      "reme": 1470,
      "Ġspecial": 1471,
      "ĠNot": 1472,
      "Ġalmost": 1473,
      "Ġago": 1474,
      "Ġopen": 1475,
      "AT": 1476,
      "Ġlight": 1477,
      "Ġpurchased": 1478,
      "Ġpolitical": 1479,
      "ef": 1480,
      "ĠSh": 1481,
      "Ġusing": 1482,
      "Ġ$": 1483,
      "lement": 1484,
      "ists": 1485,
      "eric": 1486,
      "Ġshort": 1487,
      "Ġdeal": 1488,
      "Ġclear": 1489,
      "Ġ8": 1490,
      "ĠNo": 1491,
      "Ġhowever": 1492,
      "Ġeverything": 1493,
      "Ġmarket": 1494,
      "Ġstars": 1495,
      "ird": 1496,
      "Ġmonths": 1497,
      "Ġcap": 1498,
      "bers": 1499,
      "Ġsocial": 1500,
      "ived": 1501,
      "Ġspec": 1502,
      "Ġcomes": 1503,
      "Ġhead": 1504,
      "Ġgiven": 1505,
      "Ġpossible": 1506,
      "Ġespecially": 1507,
      "Ġ6": 1508,
      "com": 1509,
      "erence": 1510,
      "Ġmean": 1511,
      "Ġopinion": 1512,
      "wor": 1513,
      "Ġsty": 1514,
      "iron": 1515,
      "Ġsupp": 1516,
      "ittee": 1517,
      "Ġextreme": 1518,
      "Ġtried": 1519,
      "Ġinf": 1520,
      "irl": 1521,
      "ired": 1522,
      "--": 1523,
      "ency": 1524,
      "Ġtrying": 1525,
      "rib": 1526,
      "ully": 1527,
      "Ġhold": 1528,
      "Ġprobably": 1529,
      "Ġ200": 1530,
      "Ġappe": 1531,
      "IS": 1532,
      "Ġcou": 1533,
      "ĠShe": 1534,
      "Ġmaking": 1535,
      "Ġsol": 1536,
      "Ġval": 1537,
      "Ġperfect": 1538,
      "Ġprogramme": 1539,
      "era": 1540,
      "Ġtot": 1541,
      "arge": 1542,
      "ently": 1543,
      "ĠChrist": 1544,
      "ru": 1545,
      "thers": 1546,
      "Ġworst": 1547,
      "ĠHowever": 1548,
      "Ġtech": 1549,
      "OU": 1550,
      "Ġkid": 1551,
      "Ġtrue": 1552,
      "Ġgetting": 1553,
      "ling": 1554,
      "Ġrecord": 1555,
      "Ġcover": 1556,
      "Ġwonderful": 1557,
      "Ġquestion": 1558,
      "Ġbeaut": 1559,
      "Ġareas": 1560,
      "tern": 1561,
      "osed": 1562,
      "Ġlearn": 1563,
      "Ġloc": 1564,
      "itely": 1565,
      "Ġagainst": 1566,
      "'d": 1567,
      "ots": 1568,
      "Ġhalf": 1569,
      "ĠNOT": 1570,
      "itive": 1571,
      "Ġothers": 1572,
      "Ġenv": 1573,
      "EA": 1574,
      "reed": 1575,
      "veral": 1576,
      "ret": 1577,
      "olute": 1578,
      "Ġloved": 1579,
      "Ġentire": 1580,
      "Ġiniti": 1581,
      "jor": 1582,
      "Ġcra": 1583,
      "ury": 1584,
      "uff": 1585,
      "Ġwon": 1586,
      "ustr": 1587,
      "Ġintern": 1588,
      "Ġwomen": 1589,
      "eg": 1590,
      "Ġlack": 1591,
      "Ġunt": 1592,
      "Ġseveral": 1593,
      "ĠPro": 1594,
      "ody": 1595,
      "Ġclassic": 1596,
      "uck": 1597,
      "Ġcre": 1598,
      "Ġenjoyed": 1599,
      "Ġidea": 1600,
      "ĠAr": 1601,
      "iction": 1602,
      "Ġdetail": 1603,
      "Ġnumber": 1604,
      "Ġdebate": 1605,
      "Ġwent": 1606,
      "Ġprocess": 1607,
      "pping": 1608,
      "Ġquick": 1609,
      "lus": 1610,
      "Ġitself": 1611,
      "Ġminutes": 1612,
      "Ġcontrol": 1613,
      "OR": 1614,
      "ror": 1615,
      "Ġprom": 1616,
      "ĠEU": 1617,
      "Ġhighly": 1618,
      "Ġcd": 1619,
      "Ġarea": 1620,
      "Ġlive": 1621,
      "Ġdep": 1622,
      "ption": 1623,
      "Ġreceived": 1624,
      "Ġschool": 1625,
      "Ġyoung": 1626,
      "ĠCommunity": 1627,
      "ĠCommissioner": 1628,
      "Ġcond": 1629,
      "Ġexample": 1630,
      "gy": 1631,
      "Ġtaken": 1632,
      "Ġisn": 1633,
      "Ġgets": 1634,
      "!!!": 1635,
      "Ġcouldn": 1636,
      "Ġfamily": 1637,
      "land": 1638,
      "Ġcult": 1639,
      "Ġdist": 1640,
      "Ġsect": 1641,
      "Ġrun": 1642,
      "astic": 1643,
      "Ġamaz": 1644,
      "Ġresult": 1645,
      "Ġserv": 1646,
      "Ġcountries": 1647,
      "ier": 1648,
      "Ġair": 1649,
      "Ġhear": 1650,
      "Ġheard": 1651,
      "Ġmajor": 1652,
      "Ġsitu": 1653,
      "Ġbro": 1654,
      "Ġfund": 1655,
      "ump": 1656,
      "Ġtext": 1657,
      "fortun": 1658,
      "Ġprinci": 1659,
      "ged": 1660,
      "Ġage": 1661,
      "Ġsize": 1662,
      "Ġpages": 1663,
      "Ġdr": 1664,
      "Ġbeh": 1665,
      "Ġcomput": 1666,
      "Ġwords": 1667,
      "Ġabsolute": 1668,
      "atic": 1669,
      "aps": 1670,
      "ibility": 1671,
      "Ġdri": 1672,
      "Ġline": 1673,
      "Ġmatter": 1674,
      "Ġstyle": 1675,
      "edi": 1676,
      "ether": 1677,
      "Ġadm": 1678,
      "Ġscre": 1679,
      "ĠAmeric": 1680,
      "Ġtechn": 1681,
      "ES": 1682,
      "ination": 1683,
      "Ġsci": 1684,
      "que": 1685,
      "Ġworking": 1686,
      "Ġserious": 1687,
      "Ġinstead": 1688,
      "Ġfinan": 1689,
      "\",": 1690,
      "Ġmention": 1691,
      "Ġpri": 1692,
      "elt": 1693,
      "Ġsomeone": 1694,
      "Ġeconomic": 1695,
      "Ġfall": 1696,
      "ized": 1697,
      "Ġdays": 1698,
      "ross": 1699,
      "Ġwasn": 1700,
      "ames": 1701,
      "Ġ10": 1702,
      "Ġuntil": 1703,
      "Ġfine": 1704,
      "Ġwanted": 1705,
      "Ġhuman": 1706,
      "Ġpublic": 1707,
      "ah": 1708,
      "Ġpay": 1709,
      "Ġpast": 1710,
      "Ġliked": 1711,
      "Ġsimply": 1712,
      "Ġtakes": 1713,
      "Ġpack": 1714,
      "Ġtook": 1715,
      "ING": 1716,
      "ott": 1717,
      "Ġplan": 1718,
      "Ġamend": 1719,
      "ĠWhen": 1720,
      "Ġwatching": 1721,
      "ironment": 1722,
      ".\"": 1723,
      "EN": 1724,
      "Ġgave": 1725,
      "Ġstories": 1726,
      "Ġnight": 1727,
      "ĠAn": 1728,
      "Ġconst": 1729,
      "ressed": 1730,
      "Ġcent": 1731,
      "Ġeither": 1732,
      "Ġregul": 1733,
      "Ġrespons": 1734,
      "ov": 1735,
      "Ġbed": 1736,
      "Ġmyself": 1737,
      "Ġintro": 1738,
      "ĠFor": 1739,
      "mm": 1740,
      "itch": 1741,
      "ices": 1742,
      "Ġprot": 1743,
      "cing": 1744,
      "apter": 1745,
      "Ġfavorite": 1746,
      "Ġbeautif": 1747,
      "rent": 1748,
      "Ġstar": 1749,
      "ains": 1750,
      "What": 1751,
      "Ġbatter": 1752,
      "Ġ9": 1753,
      "Ġmet": 1754,
      "Ġpop": 1755,
      "Ġgirl": 1756,
      "Ġsuper": 1757,
      "Ġneeded": 1758,
      "ĠWhat": 1759,
      "Ġstrong": 1760,
      "Ġissues": 1761,
      "Ġinvol": 1762,
      "Ġmem": 1763,
      "Ġsubject": 1764,
      "Ġcompletely": 1765,
      "Ġextremely": 1766,
      "ale": 1767,
      "Ġaid": 1768,
      "Ġcol": 1769,
      "ĠCon": 1770,
      "empt": 1771,
      "Ġwrong": 1772,
      "Ġfinish": 1773,
      "Ġeffects": 1774,
      "Ġavail": 1775,
      "Ġfit": 1776,
      "Ġordered": 1777,
      "Ġdiscus": 1778,
      "mas": 1779,
      "Ġenvironment": 1780,
      "uly": 1781,
      "well": 1782,
      "ides": 1783,
      "Ġregions": 1784,
      "Ġcountry": 1785,
      "Ġpicture": 1786,
      "eed": 1787,
      "ger": 1788,
      "Ġsense": 1789,
      "Ġlead": 1790,
      "Ġleft": 1791,
      "Ġcommon": 1792,
      "gan": 1793,
      "Ġson": 1794,
      "Ġpick": 1795,
      "Ġet": 1796,
      "iness": 1797,
      "Ġsoci": 1798,
      "fully": 1799,
      "istic": 1800,
      "Ġmeas": 1801,
      "Ġacting": 1802,
      "Ġsaf": 1803,
      "Ġperform": 1804,
      "imes": 1805,
      "Ġhistory": 1806,
      "bs": 1807,
      "line": 1808,
      "oh": 1809,
      "Ġband": 1810,
      "Ġcop": 1811,
      "Ġfree": 1812,
      "oss": 1813,
      "Ġimplement": 1814,
      "Ġrespect": 1815,
      "Ġeveryone": 1816,
      "Ġparticular": 1817,
      "Ġ7": 1818,
      "leased": 1819,
      "utions": 1820,
      "ĠTr": 1821,
      "Ġbuying": 1822,
      "Ġbox": 1823,
      "Ġdefinitely": 1824,
      "Ġcomputer": 1825,
      "ED": 1826,
      "fact": 1827,
      "Ġ.": 1828,
      "Ġstate": 1829,
      "ital": 1830,
      "Ġexperience": 1831,
      "LL": 1832,
      "port": 1833,
      "Ġaff": 1834,
      "Ġmove": 1835,
      "Ġens": 1836,
      "Ġimpro": 1837,
      "Ġpiece": 1838,
      "ats": 1839,
      "Ġtoy": 1840,
      "ĠDon": 1841,
      "Ġneeds": 1842,
      "fortunately": 1843,
      "Ġfig": 1844,
      "ĠAll": 1845,
      "ustri": 1846,
      "ĠOr": 1847,
      "bed": 1848,
      "uge": 1849,
      "Ġmess": 1850,
      "Ġduring": 1851,
      "ĠAfter": 1852,
      "Ġabsolutely": 1853,
      "ĠThat": 1854,
      "oice": 1855,
      "Ġchang": 1856,
      "Ġcompetition": 1857,
      "Ġavailable": 1858,
      "way": 1859,
      "ying": 1860,
      "ential": 1861,
      "Ġvar": 1862,
      "Ġbecome": 1863,
      "Ġhours": 1864,
      "Ġamazing": 1865,
      "itions": 1866,
      "Ġear": 1867,
      "Ġreader": 1868,
      "Ġgoes": 1869,
      "Ġcouple": 1870,
      "Ġest": 1871,
      "Ġcut": 1872,
      "Ġallow": 1873,
      "Ġtit": 1874,
      "Ġfelt": 1875,
      "Ġhome": 1876,
      "pend": 1877,
      "Ġproject": 1878,
      "ĠBl": 1879,
      "Ġsingle": 1880,
      "ĠEng": 1881,
      "ĠBe": 1882,
      "rect": 1883,
      "Ġliter": 1884,
      "Ġur": 1885,
      "Ġann": 1886,
      "Ġsugg": 1887,
      "Ġincre": 1888,
      "Ġparticularly": 1889,
      "Ġchildren": 1890,
      "Ġsuggest": 1891,
      "old": 1892,
      "itiz": 1893,
      "ĠAN": 1894,
      "Ġstarted": 1895,
      "ins": 1896,
      "ising": 1897,
      "Ġconn": 1898,
      "ability": 1899,
      "arent": 1900,
      "Ġaccount": 1901,
      "Ġfinancial": 1902,
      "ex": 1903,
      "ĠIN": 1904,
      "Ġforward": 1905,
      "ensive": 1906,
      "Ġpurchase": 1907,
      "Ġspecific": 1908,
      "ric": 1909,
      "Ġpract": 1910,
      "Ġlaw": 1911,
      "Ġreform": 1912,
      "Ġnon": 1913,
      "Ġchange": 1914,
      "ush": 1915,
      "Ġobject": 1916,
      "Ġtype": 1917,
      "Ġcurrent": 1918,
      "Ġthinking": 1919,
      "aughter": 1920,
      "Ġbre": 1921,
      "Ġfail": 1922,
      "Ġsaw": 1923,
      "Ġentertain": 1924,
      "Ġmom": 1925,
      "Ġsell": 1926,
      "Ġspeak": 1927,
      "Ġreplace": 1928,
      "ployment": 1929,
      "bo": 1930,
      "Ġresol": 1931,
      "angu": 1932,
      "Ġcamera": 1933,
      "come": 1934,
      "go": 1935,
      "Ġdi": 1936,
      "adam": 1937,
      "Ġdoing": 1938,
      "Ġeffort": 1939,
      "where": 1940,
      "cessary": 1941,
      "ps": 1942,
      "Ġsent": 1943,
      "Ġfive": 1944,
      "Ġ--": 1945,
      "ples": 1946,
      "ĠJust": 1947,
      "Ġimm": 1948,
      "Ġetc": 1949,
      "However": 1950,
      "Ġsign": 1951,
      "Ġpage": 1952,
      "Ġteach": 1953,
      "Ġsituation": 1954,
      "Ġach": 1955,
      "Ġbased": 1956,
      "Ġdou": 1957,
      "ici": 1958,
      "Ġnational": 1959,
      "els": 1960,
      "ĠGr": 1961,
      "Ġfriends": 1962,
      "haps": 1963,
      "over": 1964,
      "Ġfast": 1965,
      "Ġfore": 1966,
      "used": 1967,
      "ĠFr": 1968,
      "selves": 1969,
      "Ġsociety": 1970,
      "ST": 1971,
      "Ġhappy": 1972,
      "Ġcheap": 1973,
      "Ġcollection": 1974,
      "Ġpass": 1975,
      "Ġoften": 1976,
      "ances": 1977,
      "Ġlarge": 1978,
      "Ġname": 1979,
      "Ġtruly": 1980,
      "ĠCommittee": 1981,
      "ĠOne": 1982,
      "leep": 1983,
      "That": 1984,
      "idd": 1985,
      "ined": 1986,
      "Ġgives": 1987,
      "ims": 1988,
      "Ġlost": 1989,
      "Ġlooks": 1990,
      "fortable": 1991,
      "ream": 1992,
      "Ġpar": 1993,
      "Ġclose": 1994,
      "Ġprevious": 1995,
      "aced": 1996,
      "Ġkids": 1997,
      "cu": 1998,
      "Ġill": 1999,
      "Ġess": 2000,
      "Ġbri": 2001,
      "Ġbus": 2002,
      "ets": 2003,
      "Ġask": 2004,
      "Ġgovernment": 2005,
      "Ġinstit": 2006,
      "lf": 2007,
      "Ġaud": 2008,
      "erial": 2009,
      "Ġhouse": 2010,
      "aring": 2011,
      "ĠTreat": 2012,
      "iving": 2013,
      "Ġbeautiful": 2014,
      "lation": 2015,
      "Ġtaking": 2016,
      "arb": 2017,
      "ift": 2018,
      "Ġagree": 2019,
      "Ġparts": 2020,
      "Ġaddition": 2021,
      "Ġlocal": 2022,
      "Ġcitiz": 2023,
      "lev": 2024,
      "Ġprint": 2025,
      "ccess": 2026,
      "Ġtrack": 2027,
      "ware": 2028,
      "Ġmar": 2029,
      "Ġside": 2030,
      "Ġwhether": 2031,
      "urd": 2032,
      "Ġprof": 2033,
      "ured": 2034,
      "peration": 2035,
      "Ġattention": 2036,
      "Ġterms": 2037,
      "Ġcertainly": 2038,
      "iod": 2039,
      "isation": 2040,
      "Ġhop": 2041,
      "Ġlangu": 2042,
      "Ġguess": 2043,
      "wards": 2044,
      "Ġwoman": 2045,
      "Ġproposal": 2046,
      "Ġscenes": 2047,
      "ĠChristmas": 2048,
      "aid": 2049,
      "Ġshall": 2050,
      "unch": 2051,
      "Ġrepres": 2052,
      "Ġtax": 2053,
      "oot": 2054,
      "arm": 2055,
      "Ġalong": 2056,
      "Ġheart": 2057,
      "Ġadop": 2058,
      "uc": 2059,
      "Ġfour": 2060,
      "Ġpaper": 2061,
      "urther": 2062,
      "Ġmaybe": 2063,
      "Ġfunny": 2064,
      "But": 2065,
      "For": 2066,
      "ences": 2067,
      "ĠAustri": 2068,
      "Ġspend": 2069,
      "Ġwait": 2070,
      "Ġslow": 2071,
      "TH": 2072,
      "Ġocc": 2073,
      "Ġpain": 2074,
      "Ġequ": 2075,
      "Ġlonger": 2076,
      "Ġshows": 2077,
      "Ġlegis": 2078,
      "ĠCl": 2079,
      "Ġvis": 2080,
      "Ġclearly": 2081,
      "vent": 2082,
      "ony": 2083,
      "ĠIT": 2084,
      "Ġelect": 2085,
      "Ġmeans": 2086,
      "Ġsurpr": 2087,
      "work": 2088,
      "uy": 2089,
      "Ġport": 2090,
      "Ġstat": 2091,
      "Ġstuff": 2092,
      "ained": 2093,
      "ored": 2094,
      "Ġyourself": 2095,
      "Ġcommun": 2096,
      "Ġattempt": 2097,
      "Ġimag": 2098,
      "10": 2099,
      "ining": 2100,
      "ension": 2101,
      "Ġrese": 2102,
      "Ġexcept": 2103,
      "ĠHouse": 2104,
      "Ġworked": 2105,
      "ĠMrs": 2106,
      "Ġaccept": 2107,
      "pri": 2108,
      "Ġself": 2109,
      "Ġneg": 2110,
      "like": 2111,
      "Ġplaying": 2112,
      "Ġrole": 2113,
      "Ġposition": 2114,
      "Ġsimple": 2115,
      "gth": 2116,
      "ann": 2117,
      "Ġsex": 2118,
      "ablish": 2119,
      "Ġplayer": 2120,
      "Ġgeneral": 2121,
      "ĠEnglish": 2122,
      "Ġve": 2123,
      "orn": 2124,
      "eless": 2125,
      "Ġending": 2126,
      "ocr": 2127,
      "Ġmaterial": 2128,
      "fer": 2129,
      "for": 2130,
      "ging": 2131,
      "ler": 2132,
      "Ġprodu": 2133,
      "Ġdev": 2134,
      "dd": 2135,
      "sp": 2136,
      "Ġtest": 2137,
      "Ġsat": 2138,
      "Ġshi": 2139,
      "Ġwouldn": 2140,
      "Ġ20": 2141,
      "Ġdecided": 2142,
      "Ġweek": 2143,
      "reedom": 2144,
      "Ġservice": 2145,
      "Ġbattery": 2146,
      "Madam": 2147,
      "Ġperiod": 2148,
      "Ġca": 2149,
      "Ġones": 2150,
      "Ġensure": 2151,
      "Ġlanguage": 2152,
      "ufact": 2153,
      "Ġhuge": 2154,
      "asing": 2155,
      "Ġstay": 2156,
      "Ġcomb": 2157,
      "Ġarri": 2158,
      "Ġlater": 2159,
      "ĠOn": 2160,
      "Ġobvious": 2161,
      "Ġquickly": 2162,
      "Ġcopy": 2163,
      "Ġcitizens": 2164,
      "Ġsays": 2165,
      "Ġconcerned": 2166,
      "Ġinitiative": 2167,
      "Ġ,": 2168,
      "Ġwater": 2169,
      "ane": 2170,
      "Ġsoft": 2171,
      "Ġdocu": 2172,
      "Ġprogrammes": 2173,
      "Ġprinciple": 2174,
      "Ġestablish": 2175,
      "TER": 2176,
      "ases": 2177,
      "Ġnecessary": 2178,
      "Ġterrible": 2179,
      "Ġtitle": 2180,
      "Ġfood": 2181,
      "Ġmot": 2182,
      "Ġlim": 2183,
      "ĠDo": 2184,
      "Ġcompany": 2185,
      "Ġplayed": 2186,
      "Ġdesign": 2187,
      "Ġbusiness": 2188,
      "br": 2189,
      "tic": 2190,
      "Ġsoon": 2191,
      "ources": 2192,
      "ĠVery": 2193,
      "Ġcrit": 2194,
      "Ġcorrect": 2195,
      "wise": 2196,
      "ises": 2197,
      "ator": 2198,
      "Ġcoo": 2199,
      "Ġmag": 2200,
      "Ġlow": 2201,
      "udget": 2202,
      "Ġmanufact": 2203,
      "aving": 2204,
      "VE": 2205,
      "You": 2206,
      "ax": 2207,
      "ges": 2208,
      "Ġfair": 2209,
      "Ġdaughter": 2210,
      "Ġproper": 2211,
      "ograph": 2212,
      "anger": 2213,
      "Ġcheck": 2214,
      "Ġphot": 2215,
      "book": 2216,
      "de": 2217,
      "ouch": 2218,
      "Ġhon": 2219,
      "Ġremember": 2220,
      "Ġpictures": 2221,
      "Ġmeasures": 2222,
      "ron": 2223,
      "Ġthird": 2224,
      "Ġsad": 2225,
      "Ġmill": 2226,
      "Ġtold": 2227,
      "ĠRe": 2228,
      "Ġinstall": 2229,
      "gu": 2230,
      "sw": 2231,
      "side": 2232,
      "ĠCan": 2233,
      "Ġsuccess": 2234,
      "apt": 2235,
      "ĠUS": 2236,
      "When": 2237,
      "ĠAlso": 2238,
      "Ġer": 2239,
      "Ġsto": 2240,
      "unk": 2241,
      "Ġstruct": 2242,
      "Ġtracks": 2243,
      "Ġmodern": 2244,
      "Ġfant": 2245,
      "ĠIs": 2246,
      "Ġexact": 2247,
      "Ġalthough": 2248,
      "ivid": 2249,
      "Ġkept": 2250,
      "Ġ198": 2251,
      "Ġcalled": 2252,
      "Ġweeks": 2253,
      "AL": 2254,
      "Ġcool": 2255,
      "Ġdial": 2256,
      "ĠAt": 2257,
      "ilar": 2258,
      "ĠTO": 2259,
      "Ġprep": 2260,
      "Ġglad": 2261,
      "Ġbeginning": 2262,
      "Ġbott": 2263,
      "Ġopport": 2264,
      "set": 2265,
      "Ġcontrib": 2266,
      "Ġfinally": 2267,
      "Ġeasily": 2268,
      "Ġedition": 2269,
      "AR": 2270,
      "Ġsim": 2271,
      "itting": 2272,
      "Ġagre": 2273,
      "Ġprior": 2274,
      "Ġrepresent": 2275,
      "ires": 2276,
      "lo": 2277,
      "atives": 2278,
      "omp": 2279,
      "this": 2280,
      "Ġkill": 2281,
      "ogn": 2282,
      "Ġscreen": 2283,
      "Ġsafety": 2284,
      "pose": 2285,
      "iss": 2286,
      "Ġrelease": 2287,
      "Ġep": 2288,
      "ude": 2289,
      "order": 2290,
      "Ġmissing": 2291,
      "Ġtotally": 2292,
      "OM": 2293,
      "Ġpost": 2294,
      "ĠSc": 2295,
      "ules": 2296,
      "Ġexist": 2297,
      "aged": 2298,
      "Ġdirective": 2299,
      "Ġsupposed": 2300,
      "ton": 2301,
      "erv": 2302,
      "Ġstep": 2303,
      "ĠWor": 2304,
      "ards": 2305,
      "Ġexpected": 2306,
      "ohn": 2307,
      "Al": 2308,
      "oid": 2309,
      "ĠIS": 2310,
      "using": 2311,
      "Ġindust": 2312,
      "Ġamendments": 2313,
      "Ġinstitutions": 2314,
      "ĠTreaty": 2315,
      "ET": 2316,
      "oul": 2317,
      "Ġfight": 2318,
      "Ġey": 2319,
      "Ġansw": 2320,
      "ĠTo": 2321,
      "Ġamount": 2322,
      "Ġrecogn": 2323,
      "Ġeffective": 2324,
      "Ġlegal": 2325,
      "ology": 2326,
      "So": 2327,
      "to": 2328,
      "Ġfa": 2329,
      "Ġfire": 2330,
      "ster": 2331,
      "Ġstop": 2332,
      "Ġsounds": 2333,
      "Ġhorrible": 2334,
      "Ġdialog": 2335,
      "ape": 2336,
      "kes": 2337,
      "ĠX": 2338,
      "ĠZ": 2339,
      "Ġcompl": 2340,
      "Ġquestions": 2341,
      "Ġbreak": 2342,
      "egr": 2343,
      "Ġtreat": 2344,
      "arr": 2345,
      "ows": 2346,
      "ĠSe": 2347,
      "ĠMem": 2348,
      "ume": 2349,
      "Ġthank": 2350,
      "Ġprec": 2351,
      "Ġguid": 2352,
      "Ġrock": 2353,
      "rench": 2354,
      "Ġrelations": 2355,
      "Ġcontinue": 2356,
      "Ġresearch": 2357,
      "Ġfreedom": 2358,
      "Ġtowards": 2359,
      "irm": 2360,
      "Ġorgan": 2361,
      "Ġvote": 2362,
      "000": 2363,
      "Ġincred": 2364,
      "Ġseemed": 2365,
      "ibly": 2366,
      "ĠAND": 2367,
      "AS": 2368,
      "OO": 2369,
      "ike": 2370,
      "men": 2371,
      "ction": 2372,
      "Ġstore": 2373,
      "ĠDe": 2374,
      "Ġener": 2375,
      "Ġextra": 2376,
      "Ġfavour": 2377,
      "son": 2378,
      "yc": 2379,
      "Ġmaster": 2380,
      "idency": 2381,
      "ements": 2382,
      "Ġbuild": 2383,
      "Ġlooked": 2384,
      "Ġinterested": 2385,
      "Ġideas": 2386,
      "Ġvarious": 2387,
      "but": 2388,
      "nda": 2389,
      "Ġmor": 2390,
      "arity": 2391,
      "Ġgrow": 2392,
      "ĠMay": 2393,
      "Ġcomfortable": 2394,
      "Ġeng": 2395,
      "ĠGer": 2396,
      "Ġwrite": 2397,
      "Ġdecision": 2398,
      "Ġbring": 2399,
      "ĠAmerican": 2400,
      "Ġcolor": 2401,
      "by": 2402,
      "band": 2403,
      "Ġfurther": 2404,
      "Ġearly": 2405,
      "Ġenl": 2406,
      "Ġpoints": 2407,
      "Ġdoub": 2408,
      "Ġcooperation": 2409,
      "VER": 2410,
      "Ġsleep": 2411,
      "ĠLe": 2412,
      "??": 2413,
      "ĠSome": 2414,
      "Ġspent": 2415,
      "Ġrights": 2416,
      "Ġcolle": 2417,
      "Ġprovide": 2418,
      "bury": 2419,
      "ister": 2420,
      "icial": 2421,
      "These": 2422,
      "eth": 2423,
      "ĠSp": 2424,
      "Ġenc": 2425,
      "Ġstrate": 2426,
      "Ġincluded": 2427,
      "Ġ2000": 2428,
      "Ġculture": 2429,
      "ference": 2430,
      "isions": 2431,
      "Ġboy": 2432,
      "oud": 2433,
      "oura": 2434,
      "Ġface": 2435,
      "Ġlab": 2436,
      "Ġlaugh": 2437,
      "Ġreach": 2438,
      "imin": 2439,
      "ĠMar": 2440,
      "Ġ15": 2441,
      "ĠOF": 2442,
      "Ġroom": 2443,
      "Ġincluding": 2444,
      "Ġinvolved": 2445,
      "Ġmist": 2446,
      "Ġdel": 2447,
      "Ġworse": 2448,
      "ĠWith": 2449,
      "Ġris": 2450,
      "Ġhorror": 2451,
      "ĠGroup": 2452,
      ",\"": 2453,
      "On": 2454,
      "Ġrom": 2455,
      "Ġsw": 2456,
      "Ġok": 2457,
      "Ġoper": 2458,
      "orry": 2459,
      "Ġconcept": 2460,
      "ĠEven": 2461,
      "antly": 2462,
      "Ġstra": 2463,
      "ĠEvery": 2464,
      "Ġfell": 2465,
      "Ġuni": 2466,
      "Ġpred": 2467,
      "Ġoverall": 2468,
      "Ġregional": 2469,
      "ledge": 2470,
      "EAD": 2471,
      "eur": 2472,
      "Ġbra": 2473,
      "Ġdue": 2474,
      "rown": 2475,
      "usband": 2476,
      "Ġ12": 2477,
      "Ġdescription": 2478,
      "Ġinfl": 2479,
      "Ġpopul": 2480,
      "use": 2481,
      "ones": 2482,
      "Ġsn": 2483,
      "Ġdam": 2484,
      "Ġgift": 2485,
      "let": 2486,
      "ried": 2487,
      "ified": 2488,
      "Ġmeet": 2489,
      "Ġintend": 2490,
      "Ġloves": 2491,
      "Ġfeat": 2492,
      "Ġapproach": 2493,
      "mb": 2494,
      "pite": 2495,
      "sc": 2496,
      "yond": 2497,
      "right": 2498,
      "Ġjud": 2499,
      "ants": 2500,
      "Ġapplic": 2501,
      "Ġsometimes": 2502,
      "Ġimportance": 2503,
      "what": 2504,
      "upid": 2505,
      "Ġcreate": 2506,
      "Ġannoy": 2507,
      "Ġmanufacture": 2508,
      "ral": 2509,
      "ray": 2510,
      "Ġtouch": 2511,
      "Ġsend": 2512,
      "Ġplug": 2513,
      "ĠFund": 2514,
      "ĠOrwell": 2515,
      "Ġmessage": 2516,
      "zz": 2517,
      "Ġbudget": 2518,
      "ley": 2519,
      "alth": 2520,
      "ustom": 2521,
      "ĠBU": 2522,
      "Ġvoice": 2523,
      "ĠGreat": 2524,
      "ĠNow": 2525,
      "ĠON": 2526,
      "play": 2527,
      "Ġwrote": 2528,
      "Ġindustry": 2529,
      "Ġenlarg": 2530,
      "Ġburn": 2531,
      "Ġhusband": 2532,
      "iced": 2533,
      "allen": 2534,
      "irth": 2535,
      "ili": 2536,
      "ĠJohn": 2537,
      "Ġthroughout": 2538,
      "Ġclean": 2539,
      "Ġimprove": 2540,
      "Ġentertaining": 2541,
      "And": 2542,
      "Ġfill": 2543,
      "Ġmix": 2544,
      "esome": 2545,
      "Ġdark": 2546,
      "Ġsuff": 2547,
      "ĠTV": 2548,
      "Ġuseful": 2549,
      "Ġinstruct": 2550,
      "ĠThese": 2551,
      "gress": 2552,
      "more": 2553,
      "tle": 2554,
      "itar": 2555,
      "amp": 2556,
      "Ġwear": 2557,
      "Ġjo": 2558,
      "Ġremind": 2559,
      "airs": 2560,
      "Ġhumor": 2561,
      "Ġbasis": 2562,
      "Ġprojects": 2563,
      "IT": 2564,
      "reci": 2565,
      "ering": 2566,
      "Ġfoc": 2567,
      "ask": 2568,
      "Ġaspect": 2569,
      "Ġlives": 2570,
      "Ġamong": 2571,
      "ĠNew": 2572,
      "Ġunit": 2573,
      "Ġcontent": 2574,
      "Ġwatched": 2575,
      "Ġevent": 2576,
      "Ġappropri": 2577,
      "Ġrequire": 2578,
      "Ġdraw": 2579,
      "iddle": 2580,
      "Ġarrived": 2581,
      "Ġguidel": 2582,
      "Ġmanufacturer": 2583,
      "ien": 2584,
      "por": 2585,
      "yl": 2586,
      "ening": 2587,
      "ication": 2588,
      "Ġgiving": 2589,
      "Ġste": 2590,
      "Ġstupid": 2591,
      "urity": 2592,
      "oph": 2593,
      "Ġintegr": 2594,
      "pporteur": 2595,
      "Ġpositive": 2596,
      "Ġinvest": 2597,
      "Ġlistening": 2598,
      "Ġvalue": 2599,
      "Ġtotal": 2600,
      "Ġconnect": 2601,
      "Ġresolution": 2602,
      "Ġfiction": 2603,
      "Ġlad": 2604,
      "Ġcoming": 2605,
      "Ġrid": 2606,
      "ney": 2607,
      "ĠTHIS": 2608,
      "Ġagenda": 2609,
      "Ġenergy": 2610,
      "na": 2611,
      "ĠQ": 2612,
      "Ġmen": 2613,
      "Ġrad": 2614,
      "Ġrules": 2615,
      "Ġresources": 2616,
      "Ġpersonal": 2617,
      "Ġbasic": 2618,
      "Ġscene": 2619,
      "Ġdocument": 2620,
      "ior": 2621,
      "Ġpleased": 2622,
      "Ġactors": 2623,
      "Ġaware": 2624,
      "Ġconclus": 2625,
      "Ġrapporteur": 2626,
      "Ġindivid": 2627,
      "Ġemployment": 2628,
      "Ġproposals": 2629,
      "arbage": 2630,
      "Ġguidelines": 2631,
      "ope": 2632,
      "Ġben": 2633,
      "Ġpaid": 2634,
      "ĠPe": 2635,
      "ĠPr": 2636,
      "ĠHow": 2637,
      "Ġvol": 2638,
      "Ġjustice": 2639,
      "Ġupon": 2640,
      "aging": 2641,
      "Ġcla": 2642,
      "Ġfilms": 2643,
      "Ġaccess": 2644,
      "ĠBrad": 2645,
      "Ġintrodu": 2646,
      "Ġdiscuss": 2647,
      "di": 2648,
      "pes": 2649,
      "ration": 2650,
      "Ġsort": 2651,
      "ites": 2652,
      "Ġbeyond": 2653,
      "Ġhaven": 2654,
      "Ġchapter": 2655,
      "Ġdog": 2656,
      "Ġsave": 2657,
      "aces": 2658,
      "Ġappreci": 2659,
      "Ġapart": 2660,
      "Ġsimilar": 2661,
      "ĠMembers": 2662,
      "IC": 2663,
      "Ġcast": 2664,
      "ams": 2665,
      "Ġusually": 2666,
      "Ġdont": 2667,
      "Ġemot": 2668,
      "Ġ1999": 2669,
      "Ġfans": 2670,
      "Ġdanger": 2671,
      "asons": 2672,
      "Ġproced": 2673,
      "ĠPl": 2674,
      "ĠPort": 2675,
      "Ġchallen": 2676,
      "Ġactual": 2677,
      "Ġwriter": 2678,
      "Ġrecommended": 2679,
      "Ġtalking": 2680,
      "Ġpublish": 2681,
      "Ġhappened": 2682,
      "Ġinternal": 2683,
      "ĠGerman": 2684,
      "OW": 2685,
      "body": 2686,
      "Ġcustom": 2687,
      "oose": 2688,
      "ĠSch": 2689,
      "ression": 2690,
      "ĠHis": 2691,
      "Ġrural": 2692,
      "Ġthemselves": 2693,
      "Ġscary": 2694,
      "Ġproduction": 2695,
      "Ġkey": 2696,
      "Ġindeed": 2697,
      "tra": 2698,
      "vd": 2699,
      "arl": 2700,
      "vert": 2701,
      "idence": 2702,
      "ĠEx": 2703,
      "Ġunless": 2704,
      "aves": 2705,
      "duction": 2706,
      "Ġ30": 2707,
      "Ġresponsibility": 2708,
      "One": 2709,
      "yr": 2710,
      "Ġz": 2711,
      "Ġsix": 2712,
      "Ġmult": 2713,
      "Ġgra": 2714,
      "ĠWell": 2715,
      "Ġknowledge": 2716,
      "Ġinstru": 2717,
      "Ġdecent": 2718,
      "Ġscience": 2719,
      "Ġmentioned": 2720,
      "Ġfigure": 2721,
      "Ġdoubt": 2722,
      "back": 2723,
      "no": 2724,
      "Ġplease": 2725,
      "asc": 2726,
      "Ġwel": 2727,
      "ĠPart": 2728,
      "Ġplastic": 2729,
      "Ġcharge": 2730,
      "Ġperhaps": 2731,
      "Ġ45": 2732,
      "Ġtransport": 2733,
      "Ġpieces": 2734,
      "ĠConference": 2735,
      "Ġenvironmental": 2736,
      "First": 2737,
      "Ġ...": 2738,
      "inist": 2739,
      "Ġgraph": 2740,
      "Ġgames": 2741,
      "ĠHer": 2742,
      "itted": 2743,
      "ĠPresidency": 2744,
      "Ġprinter": 2745,
      "government": 2746,
      "Ġachieve": 2747,
      "Ġillustr": 2748,
      "Ġsatis": 2749,
      "After": 2750,
      "ext": 2751,
      "my": 2752,
      "oes": 2753,
      "isod": 2754,
      "Ġmedi": 2755,
      "anks": 2756,
      "Ġrepe": 2757,
      "Ġdead": 2758,
      "ptions": 2759,
      "Ġknown": 2760,
      "Ġaccord": 2761,
      "Ġframe": 2762,
      "Ġhistor": 2763,
      "Ġbehind": 2764,
      "Ġessential": 2765,
      "ians": 2766,
      "tain": 2767,
      "isc": 2768,
      "Ġcir": 2769,
      "Ġmed": 2770,
      "Ġdvd": 2771,
      "Ġanal": 2772,
      "ify": 2773,
      "Ġfeeling": 2774,
      "Ġreplacement": 2775,
      "Ġfeatures": 2776,
      "Ġindividual": 2777,
      "governmental": 2778,
      "just": 2779,
      "Ġbrand": 2780,
      "Ġpress": 2781,
      "Ġheav": 2782,
      "ĠGod": 2783,
      "Ġpeace": 2784,
      "ground": 2785,
      "Ġsaying": 2786,
      "Ġtape": 2787,
      "Ġturned": 2788,
      "Ġliterature": 2789,
      "Ġexactly": 2790,
      "Ġdialogue": 2791,
      "ech": 2792,
      "rit": 2793,
      "Ġdance": 2794,
      "Ġnor": 2795,
      "Ġconv": 2796,
      "Ġlibr": 2797,
      "Ġintell": 2798,
      "ĠState": 2799,
      "Ġ50": 2800,
      "Ġeconomy": 2801,
      "Ġdiscussion": 2802,
      "ĠPortug": 2803,
      "Not": 2804,
      "onst": 2805,
      "Ġcause": 2806,
      "arant": 2807,
      "Ġstick": 2808,
      "Ġweak": 2809,
      "Ġprogress": 2810,
      "Ġdeli": 2811,
      "umb": 2812,
      "Ġgreater": 2813,
      "Ġbecom": 2814,
      "Ġwants": 2815,
      "Ġbelie": 2816,
      "Ġblack": 2817,
      "Ġcondition": 2818,
      "Ġsoftware": 2819,
      "Ġenlargement": 2820,
      "oor": 2821,
      "par": 2822,
      "Ġsens": 2823,
      "Ġfoot": 2824,
      "ceed": 2825,
      "They": 2826,
      "Ġship": 2827,
      "Ġliving": 2828,
      "Ġchance": 2829,
      "ĠFrench": 2830,
      "Ġcharger": 2831,
      "amental": 2832,
      "Ġawesome": 2833,
      "Ġshipping": 2834,
      "All": 2835,
      "SE": 2836,
      "ners": 2837,
      "Ġcars": 2838,
      "ĠAny": 2839,
      "ĠMin": 2840,
      "ilt": 2841,
      "Ġsumm": 2842,
      "ĠHa": 2843,
      "Ġvoc": 2844,
      "ĠGo": 2845,
      "Ġdeser": 2846,
      "Ġspir": 2847,
      "Ġexpress": 2848,
      "Ġtale": 2849,
      "Ġcapt": 2850,
      "Ġimmedi": 2851,
      "ĠBradbury": 2852,
      "hic": 2853,
      "inally": 2854,
      "Ġopp": 2855,
      "Ġdate": 2856,
      "Ġstren": 2857,
      "ĠAd": 2858,
      "Ġvot": 2859,
      "Ġinsight": 2860,
      "Ġevents": 2861,
      "Ġepisod": 2862,
      "AY": 2863,
      "bit": 2864,
      "Ġcred": 2865,
      "Ġfle": 2866,
      "Ġpull": 2867,
      "ett": 2868,
      "Ġdeep": 2869,
      "uses": 2870,
      "Ġabove": 2871,
      "ĠOver": 2872,
      "Ġproposed": 2873,
      "Ġlegislation": 2874,
      "Ġopportunity": 2875,
      "LE": 2876,
      "ring": 2877,
      "Ġswe": 2878,
      "Ġbody": 2879,
      "Ġpot": 2880,
      "Ġforce": 2881,
      "etic": 2882,
      "rill": 2883,
      "Ġleave": 2884,
      "Ġadult": 2885,
      "ĠInst": 2886,
      "Ġcollect": 2887,
      "Ġinclude": 2888,
      "load": 2889,
      "Ġpredict": 2890,
      "ban": 2891,
      "Ġslight": 2892,
      "asy": 2893,
      "entle": 2894,
      "ield": 2895,
      "Ġselect": 2896,
      "Ġdeath": 2897,
      "ĠUnfortunately": 2898,
      "Ġguy": 2899,
      "ĠYOU": 2900,
      "Ġalbums": 2901,
      "Ġmodel": 2902,
      "Ġrequest": 2903,
      "Ġconcerns": 2904,
      "Ġwarm": 2905,
      "Ġmeaning": 2906,
      "ĠArtic": 2907,
      "ĠTrans": 2908,
      "Ġadopted": 2909,
      "Ġhonest": 2910,
      "Ġstrength": 2911,
      "ees": 2912,
      "ken": 2913,
      "inst": 2914,
      "Ġpu": 2915,
      "Ġhot": 2916,
      "Ġred": 2917,
      "sequ": 2918,
      "Ġparty": 2919,
      "ĠKind": 2920,
      "Ġtravel": 2921,
      "Ġpoorly": 2922,
      "Ġgroups": 2923,
      "Ġperformance": 2924,
      "ĠAustria": 2925,
      "Ġ1984": 2926,
      "Ġrelationship": 2927,
      "Ġannoying": 2928,
      "Ġlibrary": 2929,
      "With": 2930,
      "sh": 2931,
      "Ġident": 2932,
      "Ġcook": 2933,
      "Ġforget": 2934,
      "ĠMac": 2935,
      "Ġsequ": 2936,
      "Ġsearch": 2937,
      "Ġru": 2938,
      "Ġprevent": 2939,
      "Ġsetting": 2940,
      "Ġsubst": 2941,
      "Ġpolicies": 2942,
      "Ġresults": 2943,
      "Ġprotection": 2944,
      "ĠINTER": 2945,
      "AC": 2946,
      "Ġrent": 2947,
      "Ġnote": 2948,
      "rif": 2949,
      "Ġcomment": 2950,
      "Ġadvert": 2951,
      "Ġcontact": 2952,
      "ĠInter": 2953,
      "Ġsecurity": 2954,
      "REG": 2955,
      "Ġobjectives": 2956,
      "Ġrisk": 2957,
      "ued": 2958,
      "ĠApp": 2959,
      "Ġsusp": 2960,
      "ourt": 2961,
      "Ġgovern": 2962,
      "Ġproducts": 2963,
      "ruction": 2964,
      "Ġskin": 2965,
      "Ġhoping": 2966,
      "Ġmillion": 2967,
      "Ġcomplain": 2968,
      "Ġcirc": 2969,
      "bing": 2970,
      "inating": 2971,
      "Ġwal": 2972,
      "Ġcross": 2973,
      "Ġparent": 2974,
      "Ġtool": 2975,
      "Ġnature": 2976,
      "Ġgentle": 2977,
      "lying": 2978,
      "ĠWhile": 2979,
      "Ġreality": 2980,
      "Ġhelpful": 2981,
      "Ġreference": 2982,
      "Ġinsp": 2983,
      "Ġtalent": 2984,
      "Ġdemocr": 2985,
      "ography": 2986,
      "Ġagreement": 2987,
      "EC": 2988,
      "ID": 2989,
      "gic": 2990,
      "hes": 2991,
      "ison": 2992,
      "olic": 2993,
      "ĠItal": 2994,
      "Ġcompan": 2995,
      "ĠOf": 2996,
      "Ġrecently": 2997,
      "Ġground": 2998,
      "Ġtransp": 2999,
      "Ġhands": 3000,
      "Ġrequired": 3001,
      "Ġaudio": 3002,
      "Ġoccas": 3003,
      "Ġfantastic": 3004,
      "of": 3005,
      "zy": 3006,
      "Ġtight": 3007,
      "orge": 3008,
      "orrow": 3009,
      "Ġnone": 3010,
      "enty": 3011,
      "key": 3012,
      "Ġtrad": 3013,
      "Ġ100": 3014,
      "Ġrecent": 3015,
      "aren": 3016,
      "head": 3017,
      "Ġfully": 3018,
      "Ġfront": 3019,
      "Ġwaiting": 3020,
      "Ġmoment": 3021,
      "St": 3022,
      "sy": 3023,
      "Ġwin": 3024,
      "Ġways": 3025,
      "vere": 3026,
      "ĠPer": 3027,
      "Ġgreatest": 3028,
      "Ġsomewhat": 3029,
      "Ġactiv": 3030,
      "Ġrefer": 3031,
      "Ġfrustr": 3032,
      "Ġregarding": 3033,
      "ĠMaybe": 3034,
      "iny": 3035,
      "Ġla": 3036,
      "Ġlate": 3037,
      "Ġrev": 3038,
      "Ġreleased": 3039,
      "ĠCourt": 3040,
      "Ġasked": 3041,
      "ĠST": 3042,
      "Ġknew": 3043,
      "Ġguys": 3044,
      "Ġguarant": 3045,
      "Ġspace": 3046,
      "Ġmonit": 3047,
      "iculous": 3048,
      "Ġdisappointment": 3049,
      "Ġinside": 3050,
      "Ġnovels": 3051,
      "Ġacross": 3052,
      "Ġreturned": 3053,
      "ĠProdi": 3054,
      "mp": 3055,
      "Ġ:": 3056,
      "outh": 3057,
      "Ġhate": 3058,
      "oti": 3059,
      "Ġbeat": 3060,
      "irt": 3061,
      "ĠWH": 3062,
      "Ġrub": 3063,
      "Ġtrip": 3064,
      "ological": 3065,
      "rew": 3066,
      "Ġple": 3067,
      "ĠII": 3068,
      "Ġdest": 3069,
      "Ġyes": 3070,
      "ills": 3071,
      "Ġalone": 3072,
      "aby": 3073,
      "ĠThen": 3074,
      "Ġconsid": 3075,
      "Ġauthorities": 3076,
      "Ġlots": 3077,
      "Ġfollowing": 3078,
      "Ġstudy": 3079,
      "Ġvalues": 3080,
      "ĠWorld": 3081,
      "Ġspirit": 3082,
      "199": 3083,
      "ear": 3084,
      "ik": 3085,
      "iant": 3086,
      "wood": 3087,
      "reen": 3088,
      "Ġwife": 3089,
      "Ġhy": 3090,
      "lling": 3091,
      "verage": 3092,
      "Ġdiss": 3093,
      "Ġcommittee": 3094,
      "Ġauthority": 3095,
      "uese": 3096,
      "Ġrunning": 3097,
      "Ġmajority": 3098,
      "Ġaffect": 3099,
      "Ġnegoti": 3100,
      "Ġstopped": 3101,
      "ĠINTERREG": 3102,
      "**": 3103,
      "50": 3104,
      "Ġign": 3105,
      "enn": 3106,
      "Ġnorm": 3107,
      "ĠMc": 3108,
      "ĠDO": 3109,
      "ource": 3110,
      "Ġmanag": 3111,
      "Ġotherwise": 3112,
      "ĠJack": 3113,
      "Ġfinal": 3114,
      "Ġpurpose": 3115,
      "Ġboots": 3116,
      "ification": 3117,
      "Ġtalk": 3118,
      "Ġcarry": 3119,
      "Ġadvice": 3120,
      "Ġsolid": 3121,
      "Ġadminist": 3122,
      "Ġseriously": 3123,
      "Ġprofess": 3124,
      "Ġvehic": 3125,
      "Ġbottom": 3126,
      "Ġbenef": 3127,
      "ĠPortuguese": 3128,
      "At": 3129,
      "ze": 3130,
      "Ġir": 3131,
      "Ġcatch": 3132,
      "anced": 3133,
      "Ġheld": 3134,
      "Ġadapter": 3135,
      "Ġcontr": 3136,
      "ĠWhite": 3137,
      "Ġdecisions": 3138,
      "which": 3139,
      "Ġ80": 3140,
      "Ġappears": 3141,
      "Ġbroke": 3142,
      "Ġseller": 3143,
      "Ġhit": 3144,
      "Ġlay": 3145,
      "Ġreasons": 3146,
      "Ġweight": 3147,
      "ĠWar": 3148,
      "Ġvi": 3149,
      "Ġrating": 3150,
      "aste": 3151,
      "apan": 3152,
      "Ġseeing": 3153,
      "Ġputting": 3154,
      "Ġsmo": 3155,
      "Ġhappens": 3156,
      "Ġprovided": 3157,
      "Ġassist": 3158,
      "Ġlearned": 3159,
      "Ġinternational": 3160,
      "Ġscient": 3161,
      "Ġresponsible": 3162,
      "Ġmembers": 3163,
      "Ġimplementation": 3164,
      "Ġsurprised": 3165,
      "An": 3166,
      "Un": 3167,
      "Ġ[": 3168,
      "reh": 3169,
      "Ġpat": 3170,
      "Ġdro": 3171,
      "icip": 3172,
      "Ġshare": 3173,
      "ĠBuy": 3174,
      "unting": 3175,
      "ĠIts": 3176,
      "ĠGood": 3177,
      "ĠRead": 3178,
      "ĠOther": 3179,
      "Ġuses": 3180,
      "Ġbackground": 3181,
      "Ġtraining": 3182,
      "Ġboot": 3183,
      "Ġbrought": 3184,
      "Ġexpensive": 3185,
      "Ġincrease": 3186,
      "Ġpractice": 3187,
      "Ġobviously": 3188,
      "Ġappropriate": 3189,
      "Ġwelcome": 3190,
      "ĠArticle": 3191,
      "ĠIntergovernmental": 3192,
      ".)": 3193,
      "how": 3194,
      "here": 3195,
      "rated": 3196,
      "Ġbirth": 3197,
      "itude": 3198,
      "Ġfasc": 3199,
      "orough": 3200,
      "Ġgrand": 3201,
      "oof": 3202,
      "sec": 3203,
      "iece": 3204,
      "racy": 3205,
      "Ġreaders": 3206,
      "apters": 3207,
      "Ġended": 3208,
      "Ġremain": 3209,
      "Ġolder": 3210,
      "Ġdemand": 3211,
      "ĠBrit": 3212,
      "Ġexcited": 3213,
      "Ġsector": 3214,
      "Ġchanged": 3215,
      "Ġeyes": 3216,
      "Ġanswer": 3217,
      "Ġladies": 3218,
      "ĠKindle": 3219,
      "IG": 3220,
      "ean": 3221,
      "ti": 3222,
      "Ġbar": 3223,
      "Ġbal": 3224,
      "ators": 3225,
      "Ġmiddle": 3226,
      "Ġdig": 3227,
      "Ġnat": 3228,
      "ĠRo": 3229,
      "Ġimposs": 3230,
      "Ġknows": 3231,
      "ĠKe": 3232,
      "Ġflat": 3233,
      "Ġstarts": 3234,
      "Ġexplain": 3235,
      "Ġfinished": 3236,
      "Ġchanges": 3237,
      "Ġdangerous": 3238,
      "Ġgraphics": 3239,
      "Great": 3240,
      "yn": 3241,
      "onse": 3242,
      "Ġmine": 3243,
      "orne": 3244,
      "Ġredu": 3245,
      "Ġrelev": 3246,
      "Ġanim": 3247,
      "ĠMost": 3248,
      "ĠMont": 3249,
      ".....": 3250,
      "pper": 3251,
      "atever": 3252,
      "Ġoutside": 3253,
      "Ġoffer": 3254,
      "ĠUnited": 3255,
      "Ġconsum": 3256,
      "Ġenjoyable": 3257,
      "ĠSocial": 3258,
      "Ġpresented": 3259,
      "Ġdetails": 3260,
      "icient": 3261,
      "Ġencoura": 3262,
      "bel": 3263,
      "rate": 3264,
      "Ġtable": 3265,
      "Ġthin": 3266,
      "Ġthrow": 3267,
      "ener": 3268,
      "Ġpump": 3269,
      "edy": 3270,
      "Ġlat": 3271,
      "Ġlines": 3272,
      "Ġele": 3273,
      "Ġstates": 3274,
      "urt": 3275,
      "Ġexch": 3276,
      "ĠWill": 3277,
      "ĠHA": 3278,
      "Ġinterests": 3279,
      "Ġaddress": 3280,
      "ugg": 3281,
      "Ġconditions": 3282,
      "Ġcultural": 3283,
      "Ġfundamental": 3284,
      "Ġadmit": 3285,
      "Ġstraight": 3286,
      "EADER": 3287,
      "Ġheavy": 3288,
      "iet": 3289,
      "Ġut": 3290,
      "Ġtun": 3291,
      "Ġaim": 3292,
      "Ġfre": 3293,
      "arily": 3294,
      "Ġlyr": 3295,
      "amed": 3296,
      "ĠSm": 3297,
      "Ġtrou": 3298,
      "Ġclos": 3299,
      "Ġtwice": 3300,
      "Ġdespite": 3301,
      "Ġawful": 3302,
      "Ġindic": 3303,
      "Ġdram": 3304,
      "Ġlimited": 3305,
      "ĠParty": 3306,
      "ME": 3307,
      "Ġthorough": 3308,
      "Ġsoul": 3309,
      "Ġmother": 3310,
      "Ġpair": 3311,
      "anish": 3312,
      "Ġinn": 3313,
      "Ġcomments": 3314,
      "antic": 3315,
      "ective": 3316,
      "Ġrecyc": 3317,
      "Ġhero": 3318,
      "Ġaccur": 3319,
      "Ġsmell": 3320,
      "Ġconfusing": 3321,
      "Ġdemonst": 3322,
      "Ġavoid": 3323,
      "Ġcosts": 3324,
      "Ġbehalf": 3325,
      "Ġpackage": 3326,
      "Ġefforts": 3327,
      "Ġcritic": 3328,
      "Ġappreciate": 3329,
      "Ġ451": 3330,
      "Ġimmediately": 3331,
      "Ġgentlemen": 3332,
      "Ġcompanies": 3333,
      "Ġimpossible": 3334,
      "RB": 3335,
      "epend": 3336,
      "uel": 3337,
      "Ġaverage": 3338,
      "real": 3339,
      "Ġsorry": 3340,
      "Ġbi": 3341,
      "Ġtown": 3342,
      "Ġhook": 3343,
      "ales": 3344,
      "Ġwhite": 3345,
      "iding": 3346,
      "Ġmoving": 3347,
      "illy": 3348,
      "Ġshape": 3349,
      "ĠPh": 3350,
      "apoint": 3351,
      "ĠFirst": 3352,
      "anson": 3353,
      "azz": 3354,
      "ĠWhy": 3355,
      "Ġmatt": 3356,
      "While": 3357,
      "Ġgenre": 3358,
      "Ġhimself": 3359,
      "Ġwaist": 3360,
      "ĠAmerica": 3361,
      "Ġcommunication": 3362,
      "LD": 3363,
      "Ġsitting": 3364,
      "Ġcable": 3365,
      "Ġfem": 3366,
      "Ġfix": 3367,
      "Ġstock": 3368,
      "ript": 3369,
      "ĠPat": 3370,
      "Ġwhose": 3371,
      "ĠNO": 3372,
      "ously": 3373,
      "ĠJapan": 3374,
      "Ġcommit": 3375,
      "Ġconcert": 3376,
      "phas": 3377,
      "Ġdownload": 3378,
      "Ġcrime": 3379,
      "Ġterm": 3380,
      "Ġdifference": 3381,
      "Ġcomplex": 3382,
      "Ġexplan": 3383,
      "Ġadvent": 3384,
      "!!!!!!!!": 3385,
      "Ġcreated": 3386,
      "Ġsection": 3387,
      "Ġmetal": 3388,
      "Am": 3389,
      "Ġpill": 3390,
      "uted": 3391,
      "ague": 3392,
      "Ġfeature": 3393,
      "Ġcontext": 3394,
      "acing": 3395,
      "ĠVER": 3396,
      "Ġauthors": 3397,
      "Ġexamples": 3398,
      "ĠAlthough": 3399,
      "Ġresponse": 3400,
      "Ġappear": 3401,
      "Ġperfectly": 3402,
      "Ġtechnical": 3403,
      "Ġconnection": 3404,
      "Ġridiculous": 3405,
      "Ġparents": 3406,
      "LY": 3407,
      "friend": 3408,
      "gent": 3409,
      "vable": 3410,
      "wr": 3411,
      "Ġtend": 3412,
      "Ġwall": 3413,
      "erc": 3414,
      "erm": 3415,
      "ened": 3416,
      "Ġda": 3417,
      "omb": 3418,
      "lear": 3419,
      "Ġstated": 3420,
      "olid": 3421,
      "ĠWI": 3422,
      "ĠHP": 3423,
      "Ġrate": 3424,
      "Ġactions": 3425,
      "Ġparticip": 3426,
      "Ġscript": 3427,
      "Ġcrimin": 3428,
      "Ġemploy": 3429,
      "Ġemphas": 3430,
      "olly": 3431,
      "Ġstandards": 3432,
      "Ġfunds": 3433,
      "Ġintroduction": 3434,
      "Ġconclusion": 3435,
      "Ġsatisf": 3436,
      "Ġviol": 3437,
      "ient": 3438,
      "ox": 3439,
      "Ġbunch": 3440,
      "Ġcin": 3441,
      "Ġfirm": 3442,
      "Ġmach": 3443,
      "Ġgarbage": 3444,
      "verse": 3445,
      "Ġstuck": 3446,
      "ĠSand": 3447,
      "ĠSte": 3448,
      "Ġmyst": 3449,
      "erson": 3450,
      "Ġplain": 3451,
      "Ġrich": 3452,
      "Ġfear": 3453,
      "Ġprefer": 3454,
      "ights": 3455,
      "seless": 3456,
      "ĠKing": 3457,
      "Ġeasier": 3458,
      "Ġ40": 3459,
      "Ġformat": 3460,
      "Although": 3461,
      "Ġpublished": 3462,
      "ĠApple": 3463,
      "Ġdemocratic": 3464,
      "Ġmattress": 3465,
      "Finally": 3466,
      "Well": 3467,
      "cent": 3468,
      "ium": 3469,
      "time": 3470,
      "Ġbored": 3471,
      "Ġharm": 3472,
      "Ġdiv": 3473,
      "Ġearli": 3474,
      "Ġseason": 3475,
      "Ġplays": 3476,
      "Ġlear": 3477,
      "ĠLEADER": 3478,
      "udd": 3479,
      "Ġregion": 3480,
      "Ġincor": 3481,
      "Ġspo": 3482,
      "Ġreviewers": 3483,
      "obal": 3484,
      "heit": 3485,
      "Ġobs": 3486,
      "econd": 3487,
      "Ġstudents": 3488,
      "Ġpriv": 3489,
      "Ġcentury": 3490,
      "Ġsignific": 3491,
      "Ġbrill": 3492,
      "aptop": 3493,
      "Ġprepared": 3494,
      "Ġprecise": 3495,
      "1999": 3496,
      "IE": 3497,
      "To": 3498,
      "ming": 3499,
      "Ġdull": 3500,
      "Ġlaptop": 3501,
      "ads": 3502,
      "ĠManson": 3503,
      "Ġready": 3504,
      "ung": 3505,
      "ĠDr": 3506,
      "aught": 3507,
      "ĠGu": 3508,
      "Ġtruth": 3509,
      "Ġargu": 3510,
      "Ġsoundtra": 3511,
      "ĠTHAT": 3512,
      "Ġeduc": 3513,
      "Ġdescribed": 3514,
      "Ġlevels": 3515,
      "Ġcurrently": 3516,
      "Ġfairly": 3517,
      "Ġfocus": 3518,
      "Ġinstrument": 3519,
      "Ġpuzz": 3520,
      "Ġpleas": 3521,
      "Ġconsidered": 3522,
      "Ġlyrics": 3523,
      "Be": 3524,
      "Ġten": 3525,
      "ina": 3526,
      "erning": 3527,
      "ulation": 3528,
      "ppy": 3529,
      "Ġdoll": 3530,
      "Ġanyway": 3531,
      "Ġdisaster": 3532,
      "Ġfeet": 3533,
      "Ġcontains": 3534,
      "ĠYes": 3535,
      "new": 3536,
      "Ġfunction": 3537,
      "Ġmatters": 3538,
      "undred": 3539,
      "Ġrefund": 3540,
      "Ġdepth": 3541,
      "Ġservices": 3542,
      "Ġregular": 3543,
      "Ġlegisl": 3544,
      "Ġframework": 3545,
      "Ġhistorical": 3546,
      "arency": 3547,
      "AP": 3548,
      "nces": 3549,
      "Ġbother": 3550,
      "Ġgone": 3551,
      "Ġund": 3552,
      "Ġdelight": 3553,
      "Ġchapters": 3554,
      "Ġjour": 3555,
      "Ġjoint": 3556,
      "indows": 3557,
      "Ġ25": 3558,
      "Ġourselves": 3559,
      "ublic": 3560,
      "Ġprogram": 3561,
      "Ġdisappointing": 3562,
      "Ġkeeps": 3563,
      "Ġexpressed": 3564,
      "Ġbasically": 3565,
      "OOK": 3566,
      "Ġunique": 3567,
      "Ġradio": 3568,
      "Ġfascinating": 3569,
      "RBAN": 3570,
      "40": 3571,
      "He": 3572,
      "ky": 3573,
      "Ġcases": 3574,
      "ionally": 3575,
      "Ġwebs": 3576,
      "ĠSony": 3577,
      "Ġchoice": 3578,
      "ĠFrom": 3579,
      "Ġtrash": 3580,
      "ĠReg": 3581,
      "Ġunc": 3582,
      "Ġbuilt": 3583,
      "bert": 3584,
      "Ġscan": 3585,
      "Ġsets": 3586,
      "Ġunderstanding": 3587,
      "ecause": 3588,
      "Ġpowerful": 3589,
      "Ġpromot": 3590,
      "Ġpicked": 3591,
      "Ġurban": 3592,
      "Ġachie": 3593,
      "Ġstatement": 3594,
      "Ġsuspense": 3595,
      "Ġtransparency": 3596,
      "ZZ": 3597,
      "equ": 3598,
      "pro": 3599,
      "Ġtour": 3600,
      "Ġcat": 3601,
      "Ġcart": 3602,
      "Ġmer": 3603,
      "Ġpure": 3604,
      "Ġpush": 3605,
      "Ġdream": 3606,
      "Ġluck": 3607,
      "Ġforced": 3608,
      "Ġstage": 3609,
      "ĠCar": 3610,
      "Ġnearly": 3611,
      "uss": 3612,
      "Ġvict": 3613,
      "ĠFl": 3614,
      "ĠLove": 3615,
      "icks": 3616,
      "Ġregret": 3617,
      "Ġgrade": 3618,
      "ĠIntern": 3619,
      "Ġsubs": 3620,
      "Ġexpecting": 3621,
      "Ġjobs": 3622,
      "Ġcreative": 3623,
      "Ġbroken": 3624,
      "Ġprinciples": 3625,
      "Ġcentral": 3626,
      "Ġregulations": 3627,
      "Ġincreasing": 3628,
      "board": 3629,
      "Ġincredible": 3630,
      "Ġstrategy": 3631,
      "Ġanalys": 3632,
      "Ġintellig": 3633,
      "Ġbecomes": 3634,
      "ĠOverall": 3635,
      "Ġpotential": 3636,
      "Is": 3637,
      "bone": 3638,
      "een": 3639,
      "oon": 3640,
      "pre": 3641,
      "Ġtem": 3642,
      "Ġcord": 3643,
      "Ġfield": 3644,
      "Ġnet": 3645,
      "Ġnarr": 3646,
      "idi": 3647,
      "owers": 3648,
      "imate": 3649,
      "ĠMan": 3650,
      "Ġsold": 3651,
      "Ġnear": 3652,
      "ĠPaper": 3653,
      "Ġalot": 3654,
      "resh": 3655,
      "ĠBE": 3656,
      "ĠGe": 3657,
      "ĠRay": 3658,
      "lied": 3659,
      "Ġends": 3660,
      "Ġguide": 3661,
      "Ġextend": 3662,
      "Ġminute": 3663,
      "Ġglobal": 3664,
      "Ġcreating": 3665,
      "ĠFrance": 3666,
      "Ġbrief": 3667,
      "Ġromance": 3668,
      "Ġlearning": 3669,
      "ev": 3670,
      "oe": 3671,
      "piece": 3672,
      "ta": 3673,
      "Ġaut": 3674,
      "Ġthrill": 3675,
      "isher": 3676,
      "Ġfab": 3677,
      "Ġmel": 3678,
      "Ġpen": 3679,
      "vered": 3680,
      "iment": 3681,
      "imension": 3682,
      "Ġwasted": 3683,
      "Ġshock": 3684,
      "rael": 3685,
      "ĠWAS": 3686,
      "ĠHaw": 3687,
      "Ġleaves": 3688,
      "Ġbecame": 3689,
      "ivil": 3690,
      "inks": 3691,
      "ĠURBAN": 3692,
      "ressing": 3693,
      "Ġrealize": 3694,
      "Ġcommunity": 3695,
      "Ġconcerning": 3696,
      "Ġstrange": 3697,
      "standing": 3698,
      "Ġprovides": 3699,
      "Ġreceive": 3700,
      "Ġtyp": 3701,
      "Ġexciting": 3702,
      "Ġmemory": 3703,
      "Ġinflu": 3704,
      "Ġflex": 3705,
      "Ġearlier": 3706,
      "Ġsoundtrack": 3707,
      "Ġwebsite": 3708,
      "CH": 3709,
      "mark": 3710,
      "rant": 3711,
      "rors": 3712,
      "vention": 3713,
      "Ġmil": 3714,
      "ingly": 3715,
      "ĠInd": 3716,
      "Ġlos": 3717,
      "ading": 3718,
      "Ġforth": 3719,
      "Ġhair": 3720,
      "ĠSO": 3721,
      "Ġshot": 3722,
      "Ġaltern": 3723,
      "ĠLa": 3724,
      "abled": 3725,
      "acy": 3726,
      "Ġapply": 3727,
      "Ġconsist": 3728,
      "Ġfacts": 3729,
      "Ġattach": 3730,
      "Ġminor": 3731,
      "Ġstandard": 3732,
      "ĠAustrian": 3733,
      "Ġproperly": 3734,
      "ĠCanon": 3735,
      "Ġvehicles": 3736,
      "Don": 3737,
      "off": 3738,
      "Ġwide": 3739,
      "Ġbag": 3740,
      "Ġbaby": 3741,
      "Ġfra": 3742,
      "Ġparliament": 3743,
      "Ġaren": 3744,
      "ĠMO": 3745,
      "ĠBig": 3746,
      "Ġjunk": 3747,
      "ively": 3748,
      "Ġplaces": 3749,
      "Ġhealth": 3750,
      "ĠLO": 3751,
      "Ġusual": 3752,
      "ization": 3753,
      "odies": 3754,
      "formers": 3755,
      "Ġguitar": 3756,
      "ocracy": 3757,
      "Ġrare": 3758,
      "Ġadded": 3759,
      "Ġphone": 3760,
      "Ġpolitics": 3761,
      "Ġturns": 3762,
      "Ġtelling": 3763,
      "Ġdescriptions": 3764,
      "Ġcontinu": 3765,
      "Ġrecording": 3766,
      "Ġinitiatives": 3767,
      "Ġmovement": 3768,
      "Ġincredibly": 3769,
      "Ġmedium": 3770,
      "ĠBritish": 3771,
      "aff": 3772,
      "Ġsqu": 3773,
      "itan": 3774,
      "att": 3775,
      "Ġfits": 3776,
      "ength": 3777,
      "Ġhundred": 3778,
      "amb": 3779,
      "ĠMU": 3780,
      "ĠMad": 3781,
      "ĠMich": 3782,
      "ĠPal": 3783,
      "ĠPlease": 3784,
      "ĠHigh": 3785,
      "umm": 3786,
      "Ġlikely": 3787,
      "Ġcompreh": 3788,
      "ishing": 3789,
      "Ġimpressed": 3790,
      "Ġgrant": 3791,
      "Ġindepend": 3792,
      "Ġflaw": 3793,
      "Ġterrif": 3794,
      "Ġhelps": 3795,
      "Ġdeveloped": 3796,
      "ructural": 3797,
      "Ġcapital": 3798,
      "Ġprotect": 3799,
      "Ġteacher": 3800,
      "Ġforever": 3801,
      "Ġmorning": 3802,
      "Ġvolume": 3803,
      "Ġslightly": 3804,
      "Ġgovernments": 3805,
      "Ġmanagement": 3806,
      "Ġpath": 3807,
      "Ġtom": 3808,
      "aling": 3809,
      "imov": 3810,
      "Ġnotice": 3811,
      "thorne": 3812,
      "ĠAff": 3813,
      "ĠMax": 3814,
      "Ġlikes": 3815,
      "Ġability": 3816,
      "Ġrice": 3817,
      "Ġleak": 3818,
      "ĠFOR": 3819,
      "Ġunfortunately": 3820,
      "Ġcovers": 3821,
      "Ġcovered": 3822,
      "Ġprim": 3823,
      "Ġstoryline": 3824,
      "Ġroll": 3825,
      "Ġfeels": 3826,
      "Ġtransfer": 3827,
      "Ġsmaller": 3828,
      "Ġtells": 3829,
      "Ġbroad": 3830,
      "Ġmotion": 3831,
      "ronic": 3832,
      "Ġclaim": 3833,
      "Ġprocedure": 3834,
      "Ġillustrations": 3835,
      "Ġpredictable": 3836,
      "Ġrelevant": 3837,
      "Ġcriminal": 3838,
      "Ch": 3839,
      "ding": 3840,
      "oved": 3841,
      "inn": 3842,
      "Ġwood": 3843,
      "ana": 3844,
      "Ġloud": 3845,
      "Ġuseless": 3846,
      "imum": 3847,
      "alled": 3848,
      "ĠPC": 3849,
      "Ġjump": 3850,
      "Ġunem": 3851,
      "izes": 3852,
      "Ġspeed": 3853,
      "Ġoffers": 3854,
      "Ġemb": 3855,
      "Ġreflect": 3856,
      "Ġdirection": 3857,
      "Ġitems": 3858,
      "Ġcamp": 3859,
      "Ġopened": 3860,
      "Ġsolution": 3861,
      "Ġplanning": 3862,
      "ĠScar": 3863,
      "Ġmistake": 3864,
      "ĠFunds": 3865,
      "iliar": 3866,
      "Ġfilled": 3867,
      "Ġaspects": 3868,
      "ĠVERY": 3869,
      "19": 3870,
      "20": 3871,
      "How": 3872,
      "Our": 3873,
      "Some": 3874,
      "UT": 3875,
      "hy": 3876,
      "val": 3877,
      "Ã©": 3878,
      "Ġtask": 3879,
      "rest": 3880,
      "Ġloss": 3881,
      "Ġreci": 3882,
      "Ġnoticed": 3883,
      "ĠSer": 3884,
      "ĠMs": 3885,
      "ĠMus": 3886,
      "ilos": 3887,
      "Ġ11": 3888,
      "Ġ18": 3889,
      "agraph": 3890,
      "Ġfeed": 3891,
      "Ġpartners": 3892,
      "Ġarr": 3893,
      "Ġapparent": 3894,
      "Ġblock": 3895,
      "Why": 3896,
      "Ġhelped": 3897,
      "Ġpersonally": 3898,
      "Ġdraft": 3899,
      "Ġstudent": 3900,
      "Ġconsidering": 3901,
      "Ġcrap": 3902,
      "Ġnegative": 3903,
      "Ġphotos": 3904,
      "Ġanalysis": 3905,
      "ĠAffairs": 3906,
      "IR": 3907,
      "ION": 3908,
      "LA": 3909,
      "QU": 3910,
      "cer": 3911,
      "Ġahead": 3912,
      "reg": 3913,
      "Ġcivil": 3914,
      "Ġlarg": 3915,
      "Ġwhatever": 3916,
      "Ġstri": 3917,
      "ular": 3918,
      "Ġcomedy": 3919,
      "ĠBay": 3920,
      "ĠDes": 3921,
      "action": 3922,
      "Ġ14": 3923,
      "ished": 3924,
      "Ġmusical": 3925,
      "ĠChar": 3926,
      "renheit": 3927,
      "utionary": 3928,
      "Ġconfidence": 3929,
      "Ġmissed": 3930,
      "ahrenheit": 3931,
      "Ġobjective": 3932,
      "Ġcollege": 3933,
      "Ġeventually": 3934,
      "Ġvocals": 3935,
      "Ġelements": 3936,
      "cl": 3937,
      "ius": 3938,
      "lt": 3939,
      "Ġx": 3940,
      "Ġsust": 3941,
      "Ġbare": 3942,
      "Ġcli": 3943,
      "ĠInt": 3944,
      "lly": 3945,
      "Ġdur": 3946,
      "Ġinch": 3947,
      "assion": 3948,
      "leg": 3949,
      "Thank": 3950,
      "Ġforg": 3951,
      "etter": 3952,
      "Ġtrade": 3953,
      "Ġunlike": 3954,
      "pective": 3955,
      "Ġrealistic": 3956,
      "ĠThank": 3957,
      "Ġblue": 3958,
      "utional": 3959,
      "Ġsinging": 3960,
      "Ġdemocracy": 3961,
      "Ġwarning": 3962,
      "Ġfailed": 3963,
      "ĠIsrael": 3964,
      "ĠPeople": 3965,
      "Ġnegotiations": 3966,
      "Ġnatural": 3967,
      "Ġfemale": 3968,
      "$$": 3969,
      "Ġsav": 3970,
      "Ġbase": 3971,
      "Ġdie": 3972,
      "Ġdied": 3973,
      "arth": 3974,
      "otic": 3975,
      "Ġshame": 3976,
      "ems": 3977,
      "ilities": 3978,
      "ulf": 3979,
      "Ġdeg": 3980,
      "Ġreads": 3981,
      "ĠNE": 3982,
      "Ġ13": 3983,
      "Ġwrit": 3984,
      "Ġcharging": 3985,
      "Ġscr": 3986,
      "ava": 3987,
      "Ġofficial": 3988,
      "ĠStructural": 3989,
      "ips": 3990,
      "Ġremote": 3991,
      "Ġhigher": 3992,
      "Ġdirector": 3993,
      "Ġpractical": 3994,
      "Ġfaith": 3995,
      "Ġintended": 3996,
      "Ġcustomer": 3997,
      "ĠInstead": 3998,
      "Ġtrouble": 3999,
      "'.": 4000,
      "200": 4001,
      "Pro": 4002,
      "Very": 4003,
      "ael": 4004,
      "rict": 4005,
      "inary": 4006,
      "Ġsite": 4007,
      "Ġbreat": 4008,
      "Ġmatch": 4009,
      "Ġmurd": 4010,
      "Ġonline": 4011,
      "Ġanti": 4012,
      "Ġsepar": 4013,
      "Ġunable": 4014,
      "accept": 4015,
      "Ġrealized": 4016,
      "Ġconcent": 4017,
      "Ġenter": 4018,
      "Ġstarting": 4019,
      "Ġrelig": 4020,
      "awbone": 4021,
      "Ġincludes": 4022,
      "Ġsurf": 4023,
      "Ġelsewhere": 4024,
      "Ġcrazy": 4025,
      "Ġdetailed": 4026,
      "ĠEUR": 4027,
      "Ġparagraph": 4028,
      "Ġimagine": 4029,
      "Ġstructure": 4030,
      "ĠBUY": 4031,
      "ĠQu": 4032,
      "sych": 4033,
      "Ġexchange": 4034,
      "Just": 4035,
      "OS": 4036,
      "ball": 4037,
      "dam": 4038,
      "iam": 4039,
      "rid": 4040,
      "round": 4041,
      "Ġ!": 4042,
      "atory": 4043,
      "Ġmount": 4044,
      "arget": 4045,
      "Ġlength": 4046,
      "Ġnation": 4047,
      "urs": 4048,
      "urch": 4049,
      "ĠComp": 4050,
      "Ġdepend": 4051,
      "oundation": 4052,
      "Ġlose": 4053,
      "Ġherself": 4054,
      "izing": 4055,
      "anging": 4056,
      "Ġinterview": 4057,
      "Ġlisted": 4058,
      "Ġnumbers": 4059,
      "ENT": 4060,
      "Ġgirls": 4061,
      "Ġspecifically": 4062,
      "Ġmystery": 4063,
      "af": 4064,
      "ares": 4065,
      "mber": 4066,
      "now": 4067,
      "ino": 4068,
      "Ġball": 4069,
      "Ġmere": 4070,
      "ĠIG": 4071,
      "Ġwearing": 4072,
      "Ġmoves": 4073,
      "pecial": 4074,
      "ĠSH": 4075,
      "ĠEVER": 4076,
      "ession": 4077,
      "ola": 4078,
      "Ġmeant": 4079,
      "Ġvib": 4080,
      "Ġrange": 4081,
      "Ġamazon": 4082,
      "Ġanymore": 4083,
      "Ġgoods": 4084,
      "Ġmanner": 4085,
      "Ġactor": 4086,
      "ĠJan": 4087,
      "sels": 4088,
      "Ġoffice": 4089,
      "Ġteen": 4090,
      "Ġmostly": 4091,
      "Ġstrugg": 4092,
      "Ġhighlight": 4093,
      "Ġcru": 4094,
      "Ġsubm": 4095,
      "Ġinformative": 4096,
      "ĠAsimov": 4097,
      "Ġreplaced": 4098,
      "efin": 4099,
      "Ġcontrols": 4100,
      "Ġbatteries": 4101,
      "Ġproduce": 4102,
      "Ġfault": 4103,
      "Ġdamage": 4104,
      "Ġsummer": 4105,
      "Ġaccurate": 4106,
      "ilosoph": 4107,
      "No": 4108,
      "Ġaf": 4109,
      "Ġthreat": 4110,
      "Ġble": 4111,
      "Ġment": 4112,
      "lled": 4113,
      "Ġdry": 4114,
      "Ġland": 4115,
      "imately": 4116,
      "Ġpros": 4117,
      "rap": 4118,
      "Ġconven": 4119,
      "Ġexerc": 4120,
      "ĠBel": 4121,
      "ĠBOOK": 4122,
      "Ġwilling": 4123,
      "osov": 4124,
      "Ġunf": 4125,
      "Ġcohes": 4126,
      "Ġroad": 4127,
      "Ġraised": 4128,
      "while": 4129,
      "Ġrelative": 4130,
      "Ġtranslation": 4131,
      "Ġversions": 4132,
      "Ġlistened": 4133,
      "Ġassess": 4134,
      "coming": 4135,
      "Ġfalls": 4136,
      "Ġmeth": 4137,
      "ĠBlu": 4138,
      "Ġmanufacturers": 4139,
      "Ġguarantee": 4140,
      "ĠHawthorne": 4141,
      "Let": 4142,
      "gly": 4143,
      "oices": 4144,
      "tr": 4145,
      "Ġtaste": 4146,
      "onna": 4147,
      "itable": 4148,
      "Ġoil": 4149,
      "Ġfather": 4150,
      "Ġreject": 4151,
      "omas": 4152,
      "alk": 4153,
      "Ġang": 4154,
      "theless": 4155,
      "ĠALL": 4156,
      "ĠSw": 4157,
      "ĠEn": 4158,
      "Ġsuc": 4159,
      "Ġjazz": 4160,
      "ĠOb": 4161,
      "Ġcoord": 4162,
      "Ġtwist": 4163,
      "Ġreviewer": 4164,
      "Ġrap": 4165,
      "Ġblu": 4166,
      "Ġthoughts": 4167,
      "ONE": 4168,
      "Ġfollows": 4169,
      "Ġdrawn": 4170,
      "Ġartist": 4171,
      "Ġdrive": 4172,
      "quez": 4173,
      "Ġdevice": 4174,
      "Ġerrors": 4175,
      "Ġmasterpiece": 4176,
      "Ġmeeting": 4177,
      "Ġapplication": 4178,
      "Ġconvin": 4179,
      "Ġepisode": 4180,
      "Ġtradition": 4181,
      "mpath": 4182,
      "Ġrubber": 4183,
      "Ġadventure": 4184,
      "Ġbrilliant": 4185,
      "Ġlegislative": 4186,
      "Ġtomorrow": 4187,
      "Ġunemployment": 4188,
      "!)": 4189,
      "UN": 4190,
      "ein": 4191,
      "lig": 4192,
      "ux": 4193,
      "Ġthus": 4194,
      "Ġban": 4195,
      "Ġfol": 4196,
      "Ġdimension": 4197,
      "Ġloose": 4198,
      "Ġrenew": 4199,
      "Ġasking": 4200,
      "ulate": 4201,
      "Ġchoose": 4202,
      "ĠHol": 4203,
      "Ġunaccept": 4204,
      "Ġcold": 4205,
      "ĠJul": 4206,
      "Ġimpact": 4207,
      "Ġimpression": 4208,
      "Ġplayers": 4209,
      "ĠKosov": 4210,
      "Ġattack": 4211,
      "Ġglass": 4212,
      "Ġreasonable": 4213,
      "Ġcamc": 4214,
      "Ġentirely": 4215,
      "Ġcaused": 4216,
      "Ġrequirements": 4217,
      "Ġcircum": 4218,
      "Ġnormal": 4219,
      "Ġscientific": 4220,
      "Ġarrang": 4221,
      "ores": 4222,
      "su": 4223,
      "wo": 4224,
      "with": 4225,
      "erous": 4226,
      "Ġcity": 4227,
      "Ġfright": 4228,
      "ĠSimp": 4229,
      "ĠEd": 4230,
      "unt": 4231,
      "ĠDis": 4232,
      "Ġoutstanding": 4233,
      "ĠFe": 4234,
      "Ġcompared": 4235,
      "Ġ16": 4236,
      "Ġthanks": 4237,
      "Ġspeech": 4238,
      "Ġremark": 4239,
      "Ġemail": 4240,
      "Ġfloor": 4241,
      "Ġexpectations": 4242,
      "Ġletter": 4243,
      "Ġcards": 4244,
      "Ġsuppose": 4245,
      "Ġearth": 4246,
      "Ġmoments": 4247,
      "Ġdouble": 4248,
      "Ġoccur": 4249,
      "Ġshipped": 4250,
      "Ġbuilding": 4251,
      "Ġbrain": 4252,
      "ĠBUT": 4253,
      "Ġmultip": 4254,
      "Ġactivities": 4255,
      "Ġsmooth": 4256,
      "Ġprecisely": 4257,
      "Ġcohesion": 4258,
      "Ġmethod": 4259,
      "ially": 4260,
      "lict": 4261,
      "lock": 4262,
      "ned": 4263,
      "pret": 4264,
      "Ġbill": 4265,
      "Ġcry": 4266,
      "Ġpsych": 4267,
      "Ġled": 4268,
      "Ġbear": 4269,
      "aded": 4270,
      "room": 4271,
      "che": 4272,
      "ĠSci": 4273,
      "Ġshown": 4274,
      "Ġconsequ": 4275,
      "ula": 4276,
      "cked": 4277,
      "unities": 4278,
      "ĠTur": 4279,
      "Ġplenty": 4280,
      "Ġupd": 4281,
      "ĠGl": 4282,
      "Ġ17": 4283,
      "ĠLook": 4284,
      "ĠOK": 4285,
      "Ġcontain": 4286,
      "ĠWho": 4287,
      "Ġfinding": 4288,
      "Ġshowing": 4289,
      "Ġhardly": 4290,
      "Ġdeterm": 4291,
      "Ġexperien": 4292,
      "Ġcarried": 4293,
      "Ġrespond": 4294,
      "ĠBrother": 4295,
      "Ġopening": 4296,
      "Ġdistur": 4297,
      "Ġhearing": 4298,
      "Ġconstantly": 4299,
      "Ġconstruction": 4300,
      "Ġ90": 4301,
      "Ġimagination": 4302,
      "Ġsuccessful": 4303,
      "Ġcontribution": 4304,
      "Ġinstructions": 4305,
      "Ġchallenge": 4306,
      "Ġdigital": 4307,
      "ĠIGC": 4308,
      "!\"": 4309,
      "lated": 4310,
      "log": 4311,
      "Ġtough": 4312,
      "Ġfresh": 4313,
      "Ġmass": 4314,
      "alt": 4315,
      "Ġstress": 4316,
      "ĠCol": 4317,
      "term": 4318,
      "ĠBy": 4319,
      "ĠToo": 4320,
      "apes": 4321,
      "Ġcompar": 4322,
      "Ġadjust": 4323,
      "ĠUN": 4324,
      "ĠJames": 4325,
      "ĠJava": 4326,
      "Ġprem": 4327,
      "Ġperm": 4328,
      "Ġdesk": 4329,
      "Ġrelation": 4330,
      "Ġsympath": 4331,
      "Ġvideos": 4332,
      "Ġfamiliar": 4333,
      "Ġapproved": 4334,
      "Ġ196": 4335,
      "Ġhappening": 4336,
      "Ġlacking": 4337,
      "Ġcreation": 4338,
      "Ġpromote": 4339,
      "Ġsituations": 4340,
      "Ġimplemented": 4341,
      "Ġvari": 4342,
      "Ġdesigned": 4343,
      "ĠUSB": 4344,
      "sterdam": 4345,
      "Ġadvertised": 4346,
      "Ġcomplaint": 4347,
      "Ġdestro": 4348,
      "Ġadministration": 4349,
      "belie": 4350,
      "Ġsustain": 4351,
      "Ġsucceed": 4352,
      "Ġunacceptable": 4353,
      "Sh": 4354,
      "even": 4355,
      "hood": 4356,
      "lies": 4357,
      "reet": 4358,
      "Ġwire": 4359,
      "Ġsource": 4360,
      "Ġopt": 4361,
      "Ġodd": 4362,
      "Ġcute": 4363,
      "Ġfool": 4364,
      "Ġmid": 4365,
      "omen": 4366,
      "utor": 4367,
      "ades": 4368,
      "Ġbutton": 4369,
      "ĠEuro": 4370,
      "ĠWOR": 4371,
      "une": 4372,
      "Ġplus": 4373,
      "Ġvan": 4374,
      "Ġhell": 4375,
      "Ġtrust": 4376,
      "ĠRep": 4377,
      "Ġquot": 4378,
      "ĠOh": 4379,
      "soci": 4380,
      "Ġimpress": 4381,
      "Ġclosed": 4382,
      "Ġparties": 4383,
      "Ġscore": 4384,
      "Ġundert": 4385,
      "Ġdecide": 4386,
      "obin": 4387,
      "Ġoblig": 4388,
      "Ġsymb": 4389,
      "Ġedge": 4390,
      "REAT": 4391,
      "overed": 4392,
      "Ġfollowed": 4393,
      "ĠNothing": 4394,
      "Ġadopt": 4395,
      "Ġequal": 4396,
      "Ġcombat": 4397,
      "Ġstructural": 4398,
      "Ġpopulation": 4399,
      "Ġinspir": 4400,
      "Ġassistance": 4401,
      "Ġbalance": 4402,
      "ĠGeorge": 4403,
      "Ġrecipes": 4404,
      "QUAL": 4405,
      "ĠKosovo": 4406,
      "',": 4407,
      "AD": 4408,
      "EE": 4409,
      "Europe": 4410,
      "MA": 4411,
      "ls": 4412,
      "life": 4413,
      "mes": 4414,
      "you": 4415,
      "year": 4416,
      "inc": 4417,
      "Ġhom": 4418,
      "ancing": 4419,
      "Ġlif": 4420,
      "Ġears": 4421,
      "Ġult": 4422,
      "chan": 4423,
      "Ġnotes": 4424,
      "ĠAL": 4425,
      "Ġpropose": 4426,
      "ĠME": 4427,
      "ĠPower": 4428,
      "Ġvill": 4429,
      "ĠLike": 4430,
      "ager": 4431,
      "agues": 4432,
      "Ġgod": 4433,
      "Ġ24": 4434,
      "iously": 4435,
      "ighb": 4436,
      "gins": 4437,
      "Ġconclud": 4438,
      "Ġputs": 4439,
      "Ġaccident": 4440,
      "Ġcris": 4441,
      "Ġrelate": 4442,
      "Ġimage": 4443,
      "........": 4444,
      "Ġpossibly": 4445,
      "iveness": 4446,
      "Ġconsideration": 4447,
      "Ġexclus": 4448,
      "Ġyounger": 4449,
      "EST": 4450,
      "Ġpackaging": 4451,
      "Ġamendment": 4452,
      "ĠJustice": 4453,
      "Ġsexual": 4454,
      "Ġreached": 4455,
      "Ġswitch": 4456,
      "Ġrepeat": 4457,
      "Ġdissapoint": 4458,
      "Ġbenefit": 4459,
      "Ġthoroughly": 4460,
      "ĠMichael": 4461,
      "Ġcircumst": 4462,
      "Of": 4463,
      "TS": 4464,
      "dy": 4465,
      "Ġtre": 4466,
      "Ġborder": 4467,
      "itor": 4468,
      "ndom": 4469,
      "Ġnames": 4470,
      "Ġbeats": 4471,
      "Ġweb": 4472,
      "Ġweird": 4473,
      "terday": 4474,
      "ĠAS": 4475,
      "ĠSy": 4476,
      "ĠMon": 4477,
      "ĠMed": 4478,
      "Ġneighb": 4479,
      "ĠBecause": 4480,
      "oles": 4481,
      "ĠWas": 4482,
      "cious": 4483,
      "inding": 4484,
      "Ġanywhere": 4485,
      "Ġdisplay": 4486,
      "ĠRec": 4487,
      "Ġbucks": 4488,
      "avid": 4489,
      "Ġdesire": 4490,
      "Ġgotten": 4491,
      "ĠAmsterdam": 4492,
      "Ġphilosoph": 4493,
      "Ġconfused": 4494,
      "Ġtalks": 4495,
      "Ġ197": 4496,
      "Ġreturning": 4497,
      "Ġartists": 4498,
      "argate": 4499,
      "Ġmarkets": 4500,
      "Ġfunding": 4501,
      "Ġconstit": 4502,
      "Ġstrongly": 4503,
      "Ġmeasure": 4504,
      "Ġvisual": 4505,
      "ĠOnly": 4506,
      "Ġromantic": 4507,
      "Ġpopular": 4508,
      "ĠONE": 4509,
      "Ġpressure": 4510,
      "Ġsweet": 4511,
      "Ġprofessional": 4512,
      "ĠMontag": 4513,
      "ĠSmith": 4514,
      "Ġbarely": 4515,
      "Ġcamcorder": 4516,
      "11": 4517,
      "?)": 4518,
      "Do": 4519,
      "GE": 4520,
      "ha": 4521,
      "Ġtarget": 4522,
      "ero": 4523,
      "aters": 4524,
      "Ġisland": 4525,
      "Ġgri": 4526,
      "ĠCont": 4527,
      "ĠMore": 4528,
      "Ġneither": 4529,
      "ĠWinst": 4530,
      "ĠGree": 4531,
      "ĠRE": 4532,
      "Ġadapt": 4533,
      "ables": 4534,
      "Ġspeaking": 4535,
      "ode": 4536,
      "ĠAmend": 4537,
      "Ġmusicians": 4538,
      "ERE": 4539,
      "Ġdecl": 4540,
      "Ġconsult": 4541,
      "Ġrandom": 4542,
      "Ġbelong": 4543,
      "Ġflick": 4544,
      "Ġattract": 4545,
      "Ġdeveloping": 4546,
      "Ġconfirm": 4547,
      "Ġconflict": 4548,
      "Ġbrother": 4549,
      "Ġsinger": 4550,
      "Ġviews": 4551,
      "Ġrequires": 4552,
      "Ġschem": 4553,
      "Ġmale": 4554,
      "Ġsections": 4555,
      "Ġscrew": 4556,
      "Ġsubjects": 4557,
      "uclear": 4558,
      "Ġportray": 4559,
      "Ġproduced": 4560,
      "Ġpriority": 4561,
      "Ġexisting": 4562,
      "Ġfighting": 4563,
      "Ġeye": 4564,
      "Ġpreca": 4565,
      "Ġintegration": 4566,
      "Ġaccording": 4567,
      "ĠGovernment": 4568,
      "ĠItaly": 4569,
      "ĠPerhaps": 4570,
      "Ġinnov": 4571,
      "Ġpillow": 4572,
      "Ġpuzzle": 4573,
      "Ġintelligent": 4574,
      "Ġwriters": 4575,
      "12": 4576,
      "AB": 4577,
      "Book": 4578,
      "Second": 4579,
      "gest": 4580,
      "Ġtired": 4581,
      "ercial": 4582,
      "Ġsam": 4583,
      "Ġsilly": 4584,
      "Ġfing": 4585,
      "Ġmouth": 4586,
      "Ġpra": 4587,
      "esy": 4588,
      "arry": 4589,
      "Ġgif": 4590,
      "Ġstrand": 4591,
      "Ġsturd": 4592,
      "ĠAT": 4593,
      "ĠAg": 4594,
      "raw": 4595,
      "resp": 4596,
      "ĠEQUAL": 4597,
      "Ġworry": 4598,
      "ĠBook": 4599,
      "Ġsudd": 4600,
      "elf": 4601,
      "ivity": 4602,
      "Ġtheme": 4603,
      "ords": 4604,
      "Ġrepet": 4605,
      "ounter": 4606,
      "Ġgenius": 4607,
      "Ġphys": 4608,
      "Ġeconomics": 4609,
      "Ġsurv": 4610,
      "Ġwarrant": 4611,
      "Ġskip": 4612,
      "retch": 4613,
      "Ġtechni": 4614,
      "Ġfigured": 4615,
      "Ġanswers": 4616,
      "Ġdeserves": 4617,
      "Ġvoted": 4618,
      "Ġcontacted": 4619,
      "Ġrecycling": 4620,
      "Ġmachine": 4621,
      "Ġprivate": 4622,
      "Ġlarger": 4623,
      "Ġprecautionary": 4624,
      "Ġsudden": 4625,
      "KE": 4626,
      "OD": 4627,
      "OP": 4628,
      "eff": 4629,
      "fi": 4630,
      "making": 4631,
      "isters": 4632,
      "Ġsides": 4633,
      "Ġoption": 4634,
      "Ġce": 4635,
      "Ġfat": 4636,
      "Ġpassion": 4637,
      "Ġhi": 4638,
      "Ġdut": 4639,
      "Ġelement": 4640,
      "roc": 4641,
      "Ġassoci": 4642,
      "ĠSu": 4643,
      "Ġshut": 4644,
      "Ġcongr": 4645,
      "ĠPlus": 4646,
      "Ġdoor": 4647,
      "Ġmechan": 4648,
      "ĠDem": 4649,
      "ĠDark": 4650,
      "Ġplaced": 4651,
      "Ġnoise": 4652,
      "Ġdisk": 4653,
      "ĠRom": 4654,
      "Ġqual": 4655,
      "Ġuncom": 4656,
      "beral": 4657,
      "Ġguest": 4658,
      "Ġdiscr": 4659,
      "Ġperspective": 4660,
      "Ġformer": 4661,
      "Ġmainly": 4662,
      "Ġgenerally": 4663,
      "ashion": 4664,
      "Ġcarefully": 4665,
      "OULD": 4666,
      "Ġdrug": 4667,
      "Ġtechnology": 4668,
      "Ġliterary": 4669,
      "Ġaudience": 4670,
      "Ġestablished": 4671,
      "Ġbottle": 4672,
      "Ġsteps": 4673,
      "Ġgrowing": 4674,
      "Ġintroduced": 4675,
      "Firstly": 4676,
      "Ġepisodes": 4677,
      "Ġvictims": 4678,
      "Ġtypical": 4679,
      "Ġalternative": 4680,
      "Ġcrucial": 4681,
      "Ġmultiple": 4682,
      "ĠWinston": 4683,
      "Ġcongrat": 4684,
      "Parliament": 4685,
      "Since": 4686,
      "VIE": 4687,
      "bl": 4688,
      "dom": 4689,
      "eper": 4690,
      "la": 4691,
      "erry": 4692,
      "Ġcave": 4693,
      "anc": 4694,
      "Ġlame": 4695,
      "Ġec": 4696,
      "Ġeat": 4697,
      "ctor": 4698,
      "eter": 4699,
      "charge": 4700,
      "irley": 4701,
      "ĠAB": 4702,
      "raid": 4703,
      "Ġchart": 4704,
      "ĠEm": 4705,
      "ĠWould": 4706,
      "ĠHolly": 4707,
      "Ġleaving": 4708,
      "Ġcompat": 4709,
      "Ġcompare": 4710,
      "Ġcode": 4711,
      "Ġthemes": 4712,
      "Ġsheets": 4713,
      "ĠYour": 4714,
      "ĠThomas": 4715,
      "Ġenth": 4716,
      "Ġextent": 4717,
      "Ġclasses": 4718,
      "Ġdiscover": 4719,
      "iane": 4720,
      "Ġrefere": 4721,
      "Ġboard": 4722,
      "Ġwishes": 4723,
      "Ġfavorites": 4724,
      "Ġinvolve": 4725,
      "Ġallowed": 4726,
      "Ġinstalled": 4727,
      "Ġrepresentatives": 4728,
      "ĠHaider": 4729,
      "Ġyesterday": 4730,
      "Ġexplanation": 4731,
      "Ġindependent": 4732,
      "Ġforgot": 4733,
      "Ġcircumstances": 4734,
      "30": 4735,
      "Ex": 4736,
      "HS": 4737,
      "Now": 4738,
      "boy": 4739,
      "down": 4740,
      "ey": 4741,
      "rd": 4742,
      "ricult": 4743,
      "Ġera": 4744,
      "Ġcities": 4745,
      "Ġfulf": 4746,
      "Ġpowers": 4747,
      "Ġhits": 4748,
      "asks": 4749,
      "oop": 4750,
      "Ġwash": 4751,
      "ĠSher": 4752,
      "emy": 4753,
      "iling": 4754,
      "Ġcomfort": 4755,
      "ĠPar": 4756,
      "Ġchem": 4757,
      "ĠHard": 4758,
      "unted": 4759,
      "omend": 4760,
      "Ġplans": 4761,
      "Ġintention": 4762,
      "Ġvirt": 4763,
      "ĠLI": 4764,
      "ival": 4765,
      "oyce": 4766,
      "Ġclich": 4767,
      "eresting": 4768,
      "Ġremove": 4769,
      "ĠCharl": 4770,
      "Ġrac": 4771,
      "Ġbelow": 4772,
      "Ġinterpret": 4773,
      "Ġlasted": 4774,
      "Ġrelating": 4775,
      "ĠDVDs": 4776,
      "Ġpurchasing": 4777,
      "Ġcheaper": 4778,
      "Ġreports": 4779,
      "Ġsimpl": 4780,
      "arned": 4781,
      "Ġsurround": 4782,
      "Ġbiggest": 4783,
      "Ġdrag": 4784,
      "Ġtypes": 4785,
      "Ġdifficulties": 4786,
      "Ġrestrict": 4787,
      "ribly": 4788,
      "Ġholds": 4789,
      "Ġappeal": 4790,
      "ĠChristian": 4791,
      "Ġrecorded": 4792,
      "ternal": 4793,
      "Ġregulation": 4794,
      "Ġperformances": 4795,
      "Ġattempts": 4796,
      "Ġmagic": 4797,
      "Ġcolleagues": 4798,
      "Ġcredit": 4799,
      "ĠTransformers": 4800,
      "Ġaffected": 4801,
      "Ġsolidarity": 4802,
      "Unfortunately": 4803,
      "Ġfrequ": 4804,
      "Ġcommitment": 4805,
      "Ġharmon": 4806,
      "Ġincorpor": 4807,
      "Ġsignificant": 4808,
      "Ġcomprehensive": 4809,
      "Ġdurable": 4810,
      "Ġsymbol": 4811,
      "Qu": 4812,
      "bes": 4813,
      "put": 4814,
      "Ġtack": 4815,
      "reland": 4816,
      "oned": 4817,
      "orable": 4818,
      "Ġdub": 4819,
      "Ġonto": 4820,
      "Ġstorm": 4821,
      "imination": 4822,
      "urally": 4823,
      "rage": 4824,
      "Ġliability": 4825,
      "ĠWatch": 4826,
      "ĠWindows": 4827,
      "ĠTom": 4828,
      "ĠTess": 4829,
      "Ġintri": 4830,
      "akers": 4831,
      "ĠGet": 4832,
      "Ġworkers": 4833,
      "Ġrecomend": 4834,
      "thern": 4835,
      "Ġunus": 4836,
      "Ġagricult": 4837,
      "ffice": 4838,
      "ĠJean": 4839,
      "Ġclim": 4840,
      "Ġcontem": 4841,
      "Ġscared": 4842,
      "orders": 4843,
      "Ġteeth": 4844,
      "ĠThanks": 4845,
      "Ġcommercial": 4846,
      "Ġstrict": 4847,
      "Ġcriter": 4848,
      "Ġflims": 4849,
      "who": 4850,
      "Ġpresents": 4851,
      "Ġwondering": 4852,
      "Ġexplained": 4853,
      "Ġmaintain": 4854,
      "Ġassum": 4855,
      "ONG": 4856,
      "Ġsystems": 4857,
      "Ġskills": 4858,
      "Ġpaying": 4859,
      "ĠBlue": 4860,
      "Ġadditional": 4861,
      "Ġstores": 4862,
      "Ġopportunities": 4863,
      "Ġlabor": 4864,
      "Ġokay": 4865,
      "Ġfellow": 4866,
      "Ġdelivery": 4867,
      "Ġsatisfied": 4868,
      "Ġcinem": 4869,
      "Ġfraud": 4870,
      "Ġafraid": 4871,
      "Even": 4872,
      "OL": 4873,
      "cr": 4874,
      "ka": 4875,
      "lin": 4876,
      "look": 4877,
      "ses": 4878,
      "ught": 4879,
      "Ġtiny": 4880,
      "Ġthick": 4881,
      "Ġwind": 4882,
      "ĠIreland": 4883,
      "Ġreve": 4884,
      "omin": 4885,
      "Ġnuclear": 4886,
      "etary": 4887,
      "Ġstretch": 4888,
      "ĠSave": 4889,
      "Ġsole": 4890,
      "ĠDirect": 4891,
      "aker": 4892,
      "ĠFoundation": 4893,
      "ĠNight": 4894,
      "Ġnews": 4895,
      "Ġseek": 4896,
      "Ġunderst": 4897,
      "ĠStill": 4898,
      "Ġapplied": 4899,
      "Ġspot": 4900,
      "Ġremains": 4901,
      "Ġtraged": 4902,
      "Ġfactor": 4903,
      "Ġterror": 4904,
      "Ġsyn": 4905,
      "Ġregards": 4906,
      "Ġ1997": 4907,
      "Ġ60": 4908,
      "Ġinfo": 4909,
      "Ġbands": 4910,
      "Ġentertainment": 4911,
      "Ġspeakers": 4912,
      "Ġhopes": 4913,
      "Ġcauses": 4914,
      "ĠMarquez": 4915,
      "Ġjoke": 4916,
      "Ġsteel": 4917,
      "Ġinvestig": 4918,
      "ĠItalian": 4919,
      "ĠJapanese": 4920,
      "Ġdaily": 4921,
      "ĠWITH": 4922,
      "Ġpartnership": 4923,
      ",,": 4924,
      "15": 4925,
      "MP": 4926,
      "Ok": 4927,
      "gn": 4928,
      "oking": 4929,
      "wing": 4930,
      "Ġbodies": 4931,
      "atically": 4932,
      "Ġcand": 4933,
      "Ġfishing": 4934,
      "Ġmad": 4935,
      "Ġmood": 4936,
      "Ġhur": 4937,
      "ĠIm": 4938,
      "Ġelev": 4939,
      "stein": 4940,
      "Ġwhom": 4941,
      "ĠCath": 4942,
      "ĠAct": 4943,
      "iel": 4944,
      "Ġshop": 4945,
      "Ġcompe": 4946,
      "ĠPR": 4947,
      "Ġchair": 4948,
      "ĠEl": 4949,
      "ĠBest": 4950,
      "Ġsucks": 4951,
      "ivered": 4952,
      "ĠTobin": 4953,
      "ĠDavid": 4954,
      "Ġamb": 4955,
      "ĠNor": 4956,
      "Ġcomprom": 4957,
      "Ġcomplic": 4958,
      "Ġdisag": 4959,
      "Ġsomehow": 4960,
      "agon": 4961,
      "Ġscope": 4962,
      "uthor": 4963,
      "Ġeffici": 4964,
      "Ġrelated": 4965,
      "Ġprovision": 4966,
      "Ġoriginally": 4967,
      "Ġhandle": 4968,
      "Ġexperts": 4969,
      "Ġfamous": 4970,
      "versity": 4971,
      "Ġpresentation": 4972,
      "Ġcurren": 4973,
      "Ġbattle": 4974,
      "ĠShirley": 4975,
      "ustral": 4976,
      "Ġdistrib": 4977,
      "Ġdriver": 4978,
      "Ġfalling": 4979,
      "Ġ70": 4980,
      "box": 4981,
      "Ġpassed": 4982,
      "Ġelectronic": 4983,
      "Ġmaterials": 4984,
      "Ġdocuments": 4985,
      "Ġlimit": 4986,
      "Ġbusinesses": 4987,
      "Ġmagn": 4988,
      "Ġconclusions": 4989,
      "Ġclaims": 4990,
      "Ġadults": 4991,
      "Ġmerely": 4992,
      "efinitely": 4993,
      "Secondly": 4994,
      "Ġuncomfortable": 4995,
      "ĠHollywood": 4996,
      "Ġflimsy": 4997,
      "Like": 4998,
      "fric": 4999,
      "mos": 5000,
      "nes": 5001,
      "pol": 5002,
      "rough": 5003,
      "Ġtabled": 5004,
      "Ġtheory": 5005,
      "Ġsick": 5006,
      "Ġbon": 5007,
      "ene": 5008,
      "aries": 5009,
      "Ġnamed": 5010,
      "Ġwealth": 5011,
      "ĠCent": 5012,
      "rived": 5013,
      "ĠMe": 5014,
      "Ġexpos": 5015,
      "Ġsus": 5016,
      "estion": 5017,
      "Ġhasn": 5018,
      "ĠTR": 5019,
      "ĠTitan": 5020,
      "Ġvac": 5021,
      "Ġoutd": 5022,
      "Ġrated": 5023,
      "ounds": 5024,
      "ĠGREAT": 5025,
      "ĠLane": 5026,
      "ĠRed": 5027,
      "ĠREA": 5028,
      "ĠOnce": 5029,
      "Ġunreal": 5030,
      "Ġmanaged": 5031,
      "ĠJawbone": 5032,
      "ĠJoyce": 5033,
      "Ġcloth": 5034,
      "Ġeveryday": 5035,
      "akespe": 5036,
      "ĠVan": 5037,
      "ĠVHS": 5038,
      "appy": 5039,
      "Ġshowed": 5040,
      "Ġinspect": 5041,
      "Ġphr": 5042,
      "Ġassign": 5043,
      "Ġcontinues": 5044,
      "Ġ1998": 5045,
      "Ġfigures": 5046,
      "Ġincreased": 5047,
      "Ġpainful": 5048,
      "force": 5049,
      "ĠDoes": 5050,
      "Ġpriorities": 5051,
      "ĠXP": 5052,
      "Ġstrategic": 5053,
      "Ġlabel": 5054,
      "Ġmistakes": 5055,
      "Ġdelay": 5056,
      "Ġdelivered": 5057,
      "Ġmonitoring": 5058,
      "Ġbirthday": 5059,
      "Ġconsumer": 5060,
      "eneral": 5061,
      "ĠHAVE": 5062,
      "Ġjourney": 5063,
      "Ġscanner": 5064,
      "Ġachieved": 5065,
      "Ġscratch": 5066,
      "believable": 5067,
      "Ġcrisis": 5068,
      "Ġcriteria": 5069,
      "Any": 5070,
      "Never": 5071,
      "UR": 5072,
      "cies": 5073,
      "iation": 5074,
      "ok": 5075,
      "rs": 5076,
      "uine": 5077,
      "vis": 5078,
      "Ġtone": 5079,
      "Ġtree": 5080,
      "Ġtasks": 5081,
      "Ġsand": 5082,
      "Ġbul": 5083,
      "Ġcaught": 5084,
      "Ġfif": 5085,
      "Ġfashion": 5086,
      "ork": 5087,
      "arp": 5088,
      "arre": 5089,
      "Ġlink": 5090,
      "Ġge": 5091,
      "ctions": 5092,
      "Ġwhe": 5093,
      "imm": 5094,
      "Ġprose": 5095,
      "iled": 5096,
      "Ġconduct": 5097,
      "Ġchann": 5098,
      "ĠBrand": 5099,
      "usion": 5100,
      "ques": 5101,
      "ĠDick": 5102,
      "ands": 5103,
      "ander": 5104,
      "Ġring": 5105,
      "Ġrhy": 5106,
      "Ġcoast": 5107,
      "Ġdidnt": 5108,
      "Ġclub": 5109,
      "Ġscare": 5110,
      "Ġthinks": 5111,
      "Ġwanting": 5112,
      "acity": 5113,
      "Ġtelev": 5114,
      "ube": 5115,
      "Ġgrad": 5116,
      "Ġflow": 5117,
      "Ġdefend": 5118,
      "Ġworthwhile": 5119,
      "Ġimages": 5120,
      "isms": 5121,
      "Ġevil": 5122,
      "Ġexplains": 5123,
      "Ġturning": 5124,
      "Ġnumerous": 5125,
      "ANT": 5126,
      "Ġbegins": 5127,
      "Ġstands": 5128,
      "Ġcareful": 5129,
      "Ġcreep": 5130,
      "Ġdepressing": 5131,
      "Ġbeautifully": 5132,
      "Ġsuperb": 5133,
      "Ġcolors": 5134,
      "Ġallows": 5135,
      "Ġurge": 5136,
      "Ġfails": 5137,
      "Ġselling": 5138,
      "Ġimmig": 5139,
      "idden": 5140,
      "Ġspending": 5141,
      "Ġstatus": 5142,
      "Ġmotor": 5143,
      "Ġfantasy": 5144,
      "Ġagreements": 5145,
      "Ġgrowth": 5146,
      "Ġsleeping": 5147,
      "etheless": 5148,
      "Ġboys": 5149,
      "Ġconcepts": 5150,
      "Ġdiscussions": 5151,
      "Ġoppos": 5152,
      "Ġtunes": 5153,
      "Ġparticipation": 5154,
      "Ġarrangements": 5155,
      "Ġvariety": 5156,
      "Ġsturdy": 5157,
      "ĠDemocr": 5158,
      "ĠCharlie": 5159,
      "CE": 5160,
      "ai": 5161,
      "ole": 5162,
      "sized": 5163,
      "Ġwit": 5164,
      "Ġbow": 5165,
      "oration": 5166,
      "anch": 5167,
      "Ġgh": 5168,
      "ald": 5169,
      "alu": 5170,
      "cher": 5171,
      "cend": 5172,
      "ĠAfric": 5173,
      "ifying": 5174,
      "Ġproceed": 5175,
      "Ġexec": 5176,
      "Ġchose": 5177,
      "ĠEN": 5178,
      "ĠEX": 5179,
      "ĠBrown": 5180,
      "Ġjoy": 5181,
      "ĠWW": 5182,
      "ĠHig": 5183,
      "ureau": 5184,
      "ĠFR": 5185,
      "ĠFin": 5186,
      "Ġdism": 5187,
      "ĠREAD": 5188,
      "Ġagreed": 5189,
      "Ġknock": 5190,
      "Ġfirstly": 5191,
      "Ġfinds": 5192,
      "Ġpointed": 5193,
      "Ġfarm": 5194,
      "Ġterrit": 5195,
      "Ġdefective": 5196,
      "Ġdiscovered": 5197,
      "Ġtries": 5198,
      "Ġworthy": 5199,
      "Ġsupported": 5200,
      "Ġprogramming": 5201,
      "Ġlesson": 5202,
      "Ġlessons": 5203,
      "Ġmode": 5204,
      "AND": 5205,
      "Ġstudio": 5206,
      "Ġtopic": 5207,
      "ĠShakespe": 5208,
      "Ġdepart": 5209,
      "Ġbehav": 5210,
      "Ġforeign": 5211,
      "Ġeffectively": 5212,
      "ophob": 5213,
      "Ġsensitive": 5214,
      "ĠHaunting": 5215,
      "Ġrule": 5216,
      "Ġtalented": 5217,
      "Ġcloser": 5218,
      "ĠSandler": 5219,
      "Ġsaved": 5220,
      "Ġbreath": 5221,
      "ĠSimple": 5222,
      "Ġdestroy": 5223,
      "Ġcurrency": 5224,
      "?\"": 5225,
      "Over": 5226,
      "Re": 5227,
      "Yes": 5228,
      "border": 5229,
      "der": 5230,
      "dys": 5231,
      "iest": 5232,
      "ios": 5233,
      "lisher": 5234,
      "ras": 5235,
      "Ã¶": 5236,
      "Ġ#": 5237,
      "iner": 5238,
      "Ġwore": 5239,
      "isations": 5240,
      "itary": 5241,
      "itime": 5242,
      "Ġought": 5243,
      "Ġcens": 5244,
      "Ġcup": 5245,
      "Ġfac": 5246,
      "Ġpet": 5247,
      "Ġtoys": 5248,
      "Ġtoler": 5249,
      "eder": 5250,
      "Ġden": 5251,
      "Ġgain": 5252,
      "entially": 5253,
      "irty": 5254,
      "ĠSince": 5255,
      "Ġshoes": 5256,
      "raft": 5257,
      "ĠMany": 5258,
      "Ġsea": 5259,
      "Ġseat": 5260,
      "Ġexcess": 5261,
      "Ġlived": 5262,
      "ĠPL": 5263,
      "ĠPolic": 5264,
      "ĠEach": 5265,
      "Ġworn": 5266,
      "gend": 5267,
      "ums": 5268,
      "ĠDON": 5269,
      "ĠDiane": 5270,
      "actions": 5271,
      "ours": 5272,
      "Ġages": 5273,
      "Ġweren": 5274,
      "oga": 5275,
      "ibilities": 5276,
      "Ġemer": 5277,
      "Ġclassics": 5278,
      "Ġcheesy": 5279,
      "Ġsupporting": 5280,
      "Ġmisle": 5281,
      "Ġdirectly": 5282,
      "Ġpossibility": 5283,
      "Ġexcuse": 5284,
      "Ġdealing": 5285,
      "Ġdrivers": 5286,
      "itches": 5287,
      "Ġchanging": 5288,
      "Ġliterally": 5289,
      "Ġteaching": 5290,
      "anna": 5291,
      "Ġjudicial": 5292,
      "Ġimprovement": 5293,
      "itarian": 5294,
      "Ġinstruments": 5295,
      "Ġrepeated": 5296,
      "Ġsubstance": 5297,
      "Ġlatest": 5298,
      "Ġarguments": 5299,
      "Ġdollars": 5300,
      "ĠObject": 5301,
      "Ġexperienced": 5302,
      "Ġdiscrimination": 5303,
      "Ġtelevision": 5304,
      "Please": 5305,
      "bru": 5306,
      "gency": 5307,
      "iences": 5308,
      "pack": 5309,
      "Ġthrown": 5310,
      "Ġsli": 5311,
      "Ġsister": 5312,
      "Ġbound": 5313,
      "ita": 5314,
      "Ġcate": 5315,
      "eng": 5316,
      "Ġhes": 5317,
      "Ġhos": 5318,
      "ancy": 5319,
      "Ġdu": 5320,
      "ara": 5321,
      "asters": 5322,
      "Ġlower": 5323,
      "Ġeth": 5324,
      "Ġbegan": 5325,
      "rol": 5326,
      "that": 5327,
      "ĠCH": 5328,
      "Ġaside": 5329,
      "ĠARE": 5330,
      "ĠAustral": 5331,
      "ille": 5332,
      "ĠMark": 5333,
      "ilies": 5334,
      "cket": 5335,
      "ĠEconom": 5336,
      "gel": 5337,
      "Ġalloc": 5338,
      "ussels": 5339,
      "quis": 5340,
      "Ġintent": 5341,
      "cient": 5342,
      "Ġheat": 5343,
      "Ġrise": 5344,
      "appe": 5345,
      "Ġupgr": 5346,
      "Ġupset": 5347,
      "ĠGamm": 5348,
      "ĠLola": 5349,
      "Ġdisg": 5350,
      "Ġadequ": 5351,
      "Ġhadn": 5352,
      "Ġunne": 5353,
      "Ġactive": 5354,
      "place": 5355,
      "Ġpolice": 5356,
      "ĠYe": 5357,
      "Ġremoved": 5358,
      "Ġblood": 5359,
      "Ġflav": 5360,
      "Ġbrings": 5361,
      "Ġtopics": 5362,
      "Ġartic": 5363,
      "Ġinitial": 5364,
      "Ġbeauty": 5365,
      "Ġimplementing": 5366,
      "LLY": 5367,
      "Ġaffairs": 5368,
      "Ġimproved": 5369,
      "Ġnamely": 5370,
      "ĠTreaties": 5371,
      "Ġacceptable": 5372,
      "Ġcorrectly": 5373,
      "ĠReally": 5374,
      "OOD": 5375,
      "Ġenglish": 5376,
      "porary": 5377,
      "yla": 5378,
      "Ġconnected": 5379,
      "Ġdiscussed": 5380,
      "ĠGermany": 5381,
      "Ġaccordance": 5382,
      "ĠMinister": 5383,
      "Ġfrustrating": 5384,
      "secutor": 5385,
      "written": 5386,
      "Ġinfluence": 5387,
      "ĠLOVE": 5388,
      "ĠScarlet": 5389,
      "198": 5390,
      "ĠTurkey": 5391,
      "logy": 5392,
      "Ġsustainable": 5393,
      "Ġwireless": 5394,
      "Ġwarranty": 5395,
      "ĠPolicy": 5396,
      "bruary": 5397,
      ".,": 5398,
      "80": 5399,
      "Bought": 5400,
      "From": 5401,
      "cast": 5402,
      "gies": 5403,
      "hist": 5404,
      "ipped": 5405,
      "pet": 5406,
      "point": 5407,
      "Ġiron": 5408,
      "Ġted": 5409,
      "Ġtort": 5410,
      "Ġspl": 5411,
      "Ġsources": 5412,
      "Ġboo": 5413,
      "Ġcyc": 5414,
      "Ġholid": 5415,
      "Ġrede": 5416,
      "Ġgreen": 5417,
      "sey": 5418,
      "imal": 5419,
      "ama": 5420,
      "Ġweap": 5421,
      "ĠAuel": 5422,
      "ĠSomet": 5423,
      "ĠMor": 5424,
      "ulous": 5425,
      "Ġatmos": 5426,
      "olf": 5427,
      "istent": 5428,
      "ĠHill": 5429,
      "unning": 5430,
      "cipl": 5431,
      "Ġvision": 5432,
      "Ġvamp": 5433,
      "Ġtrick": 5434,
      "Ġdischarge": 5435,
      "Ġgreatly": 5436,
      "Ġwhatso": 5437,
      "Ġunbelievable": 5438,
      "Ġmanual": 5439,
      "ansa": 5440,
      "Ġbug": 5441,
      "Ġcontained": 5442,
      "Ġspin": 5443,
      "Ġrod": 5444,
      "ocol": 5445,
      "Ġsecret": 5446,
      "Ġattitude": 5447,
      "Ġworthless": 5448,
      "Ġwonderfully": 5449,
      "Ġproviding": 5450,
      "Therefore": 5451,
      "erican": 5452,
      "works": 5453,
      "rupt": 5454,
      "Ġinternet": 5455,
      "Ġsectors": 5456,
      "Ġintellect": 5457,
      "Ġdeliver": 5458,
      "Ġcaptiv": 5459,
      "Ġreferred": 5460,
      "Ġobserv": 5461,
      "Ġterrific": 5462,
      "Ġinterviews": 5463,
      "Ġcomplicated": 5464,
      "BA": 5465,
      "ait": 5466,
      "fl": 5467,
      "lor": 5468,
      "sing": 5469,
      "top": 5470,
      "Ġast": 5471,
      "Ġthous": 5472,
      "Ġoperation": 5473,
      "atin": 5474,
      "Ġcas": 5475,
      "Ġcant": 5476,
      "Ġpun": 5477,
      "Ġlaid": 5478,
      "oted": 5479,
      "rop": 5480,
      "Ġforces": 5481,
      "Ġstaff": 5482,
      "Ġnoted": 5483,
      "alling": 5484,
      "Ġasse": 5485,
      "ĠAC": 5486,
      "ĠAyla": 5487,
      "Ġbutt": 5488,
      "Ġsho": 5489,
      "ĠTheir": 5490,
      "Ġexternal": 5491,
      "olution": 5492,
      "Ġvia": 5493,
      "Ġrout": 5494,
      "ender": 5495,
      "aph": 5496,
      "itty": 5497,
      "ĠRome": 5498,
      "ĠOut": 5499,
      "Ġwrites": 5500,
      "Ġproud": 5501,
      "Ġdoesnt": 5502,
      "Ġoverd": 5503,
      "Ġscale": 5504,
      "eph": 5505,
      "Ġperman": 5506,
      "Ġcommitted": 5507,
      "Ġgramm": 5508,
      "phere": 5509,
      "Ġpointless": 5510,
      "Ġrefuge": 5511,
      "Ġseconds": 5512,
      "Ġkeeping": 5513,
      "Ġfamilies": 5514,
      "Ġpublisher": 5515,
      "Ġdescribe": 5516,
      "Ġnicely": 5517,
      "Ġdealt": 5518,
      "Ġholding": 5519,
      "ictionary": 5520,
      "Ġprompt": 5521,
      "Ġsafe": 5522,
      "Ġafford": 5523,
      "ĠBlack": 5524,
      "comend": 5525,
      "urthermore": 5526,
      "Ġcritical": 5527,
      "Ġphoto": 5528,
      "Also": 5529,
      "Ġtreatment": 5530,
      "Ġmixed": 5531,
      "Ġintegrated": 5532,
      "Ġdiscussing": 5533,
      "Ġprocedures": 5534,
      "Ġbecoming": 5535,
      "Ġselection": 5536,
      "ĠJackson": 5537,
      "Ġadministr": 5538,
      "ĠOtherwise": 5539,
      "Ġreduce": 5540,
      "Ġhooked": 5541,
      "Ġsubsidi": 5542,
      "ĠMOVIE": 5543,
      "Ġdegree": 5544,
      "ĠNEVER": 5545,
      "Ġconvinced": 5546,
      "ĠHolmes": 5547,
      "Ġfrightening": 5548,
      "ĠFebruary": 5549,
      "Ġcomparison": 5550,
      "Ġcongratulate": 5551,
      "ĠHiggins": 5552,
      "ĠShakespeare": 5553,
      "Ġwhatsoever": 5554,
      "Ind": 5555,
      "UL": 5556,
      "bb": 5557,
      "great": 5558,
      "hold": 5559,
      "iver": 5560,
      "iance": 5561,
      "me": 5562,
      "night": 5563,
      "overy": 5564,
      "tit": 5565,
      "under": 5566,
      "yle": 5567,
      "Ġ*": 5568,
      "Ġton": 5569,
      "Ġbureau": 5570,
      "Ġcal": 5571,
      "Ġcounter": 5572,
      "Ġfo": 5573,
      "enophob": 5574,
      "Ġmir": 5575,
      "Ġhurt": 5576,
      "Ġdumb": 5577,
      "Ġnons": 5578,
      "stream": 5579,
      "Ġbeg": 5580,
      "sell": 5581,
      "Ġstation": 5582,
      "aybe": 5583,
      "kel": 5584,
      "urg": 5585,
      "ĠCr": 5586,
      "ĠCom": 5587,
      "Ġasleep": 5588,
      "ulated": 5589,
      "ĠEast": 5590,
      "ĠBas": 5591,
      "ĠBra": 5592,
      "ushing": 5593,
      "umes": 5594,
      "Ġride": 5595,
      "ĠGuy": 5596,
      "ĠNe": 5597,
      "ĠNever": 5598,
      "Ġsomewhere": 5599,
      "ĠOR": 5600,
      "ĠOdys": 5601,
      "Ġreccomend": 5602,
      "Ġunint": 5603,
      "Ġspect": 5604,
      "Ġrepair": 5605,
      "ĠThough": 5606,
      "Ġrob": 5607,
      "phone": 5608,
      "Ġflag": 5609,
      "Ġminimum": 5610,
      "Ġinformed": 5611,
      "Ġpoet": 5612,
      "Ġprovisions": 5613,
      "Ġcreates": 5614,
      "world": 5615,
      "Ġhumanity": 5616,
      "Ġpacked": 5617,
      "Ġreforms": 5618,
      "Ġfailure": 5619,
      "Ġbright": 5620,
      "Ġpaint": 5621,
      "Ġsurprise": 5622,
      "Ġsurprising": 5623,
      "Ġcontribute": 5624,
      "Ġsufficient": 5625,
      "Ġemotional": 5626,
      "Ġmedioc": 5627,
      "Ġmedia": 5628,
      "Ġdeserve": 5629,
      "ACK": 5630,
      "Ġwalk": 5631,
      "Ġcatchy": 5632,
      "Ġencourage": 5633,
      "Ġnarrative": 5634,
      "ĠHighly": 5635,
      "Ġgranted": 5636,
      "Ġapparently": 5637,
      "LAF": 5638,
      "Ġxenophob": 5639,
      "Ġrelatively": 5640,
      "Ġassessment": 5641,
      "Ġtraditional": 5642,
      "Ġpremise": 5643,
      "ĠAmendment": 5644,
      "Ġduty": 5645,
      "Ġtragedy": 5646,
      "Ġefficiency": 5647,
      "Ġcateg": 5648,
      "Ar": 5649,
      "Every": 5650,
      "Having": 5651,
      "craft": 5652,
      "nown": 5653,
      "Ġ0": 5654,
      "rend": 5655,
      "Ġborders": 5656,
      "itation": 5657,
      "Ġpace": 5658,
      "Ġhated": 5659,
      "Ġdated": 5660,
      "uts": 5661,
      "Ġthats": 5662,
      "owing": 5663,
      "Ġantic": 5664,
      "ĠCam": 5665,
      "irv": 5666,
      "iful": 5667,
      "ĠMag": 5668,
      "emb": 5669,
      "ĠPublic": 5670,
      "ĠBoy": 5671,
      "ĠBarb": 5672,
      "usi": 5673,
      "Ġmeets": 5674,
      "ĠDen": 5675,
      "ĠFahrenheit": 5676,
      "Ġuns": 5677,
      "ĠCommissioners": 5678,
      "Ġcharm": 5679,
      "Ġknowing": 5680,
      "ccord": 5681,
      "Ġtwists": 5682,
      "ĠStar": 5683,
      "ĠStargate": 5684,
      "arker": 5685,
      "Ġraise": 5686,
      "Ġfoundation": 5687,
      "Ġfeelings": 5688,
      "Ġflash": 5689,
      "ounced": 5690,
      "Ġhelping": 5691,
      "Ġinsert": 5692,
      "Ġforms": 5693,
      "Ġletters": 5694,
      "Ġbigger": 5695,
      "Ġkinda": 5696,
      "Ġbeginner": 5697,
      "they": 5698,
      "Ġrecordings": 5699,
      "Ġcraft": 5700,
      "Ġlacks": 5701,
      "Ġtextbook": 5702,
      "Ġsuggested": 5703,
      "ĠANY": 5704,
      "Ġsignal": 5705,
      "ĠFrank": 5706,
      "Ġmaritime": 5707,
      "Ġvisit": 5708,
      "Ġestablishing": 5709,
      "ĠSept": 5710,
      "Ġmoral": 5711,
      "ylum": 5712,
      "Ġgrab": 5713,
      "Ġsatisfact": 5714,
      "ĠMcC": 5715,
      "Ġcontrary": 5716,
      "Ġlatter": 5717,
      "Ġpleasure": 5718,
      "ZZZZ": 5719,
      "Ġrarely": 5720,
      "Ġofficials": 5721,
      "Ġfolks": 5722,
      "Ġsympathy": 5723,
      "Ġimpressive": 5724,
      "Ġrepetitive": 5725,
      "ĠCatholic": 5726,
      "Ġmisleading": 5727,
      "Ġhosp": 5728,
      "1984": 5729,
      "Ġtedious": 5730,
      "Indeed": 5731,
      "Ġmediocre": 5732,
      "AM": 5733,
      "DS": 5734,
      "II": 5735,
      "Per": 5736,
      "gl": 5737,
      "hh": 5738,
      "hab": 5739,
      "mo": 5740,
      "ww": 5741,
      "yp": 5742,
      "zen": 5743,
      "Ġtrem": 5744,
      "Ġtank": 5745,
      "ata": 5746,
      "Ġtoward": 5747,
      "estern": 5748,
      "Ġdancing": 5749,
      "Ġrein": 5750,
      "Ġrele": 5751,
      "Ġstays": 5752,
      "cember": 5753,
      "riage": 5754,
      "ĠAud": 5755,
      "iew": 5756,
      "ĠSorry": 5757,
      "ĠMel": 5758,
      "ilation": 5759,
      "Ġnecess": 5760,
      "antage": 5761,
      "oples": 5762,
      "Ġenorm": 5763,
      "ĠGET": 5764,
      "ĠLord": 5765,
      "ĠRights": 5766,
      "Ġgold": 5767,
      "Ġuser": 5768,
      "Ġproof": 5769,
      "elly": 5770,
      "Ġovercome": 5771,
      "Ġresource": 5772,
      "Ġpeoples": 5773,
      "atchett": 5774,
      "Ġincomp": 5775,
      "Ġteam": 5776,
      "Ġnowhere": 5777,
      "Ġrecommendations": 5778,
      "Ġaccomp": 5779,
      "Ġcrash": 5780,
      "Ġbadly": 5781,
      "Ġattend": 5782,
      "lessly": 5783,
      "Ġlegit": 5784,
      "Ġevidence": 5785,
      "ĠBrussels": 5786,
      "Ġairbed": 5787,
      "Ġnights": 5788,
      "Ġconstruct": 5789,
      "Ġsuperv": 5790,
      "Ġsuperior": 5791,
      "Ġleaders": 5792,
      "Ġclosely": 5793,
      "Ġaccepted": 5794,
      "Ġestablishment": 5795,
      "Ġmagaz": 5796,
      "Ġchecked": 5797,
      "Ġrecognise": 5798,
      "ĠSpanish": 5799,
      "Only": 5800,
      "Ġplugged": 5801,
      "Ġintroduce": 5802,
      "Ġemotion": 5803,
      "ĠAnyone": 5804,
      "ĠAdam": 5805,
      "Ġvoting": 5806,
      "Ġsequel": 5807,
      "Ġinspired": 5808,
      "Ġactivity": 5809,
      "Ġmonitor": 5810,
      "ĠIII": 5811,
      "IGH": 5812,
      "ĠRobert": 5813,
      "ĠKeep": 5814,
      "Ġdrama": 5815,
      "Ġdivor": 5816,
      "Ġeducation": 5817,
      "Ġforthcoming": 5818,
      "Ġenterpr": 5819,
      "Ġexercise": 5820,
      "Ġconsequences": 5821,
      "ĠSyri": 5822,
      "Ġphilosophy": 5823,
      "ĠTitanic": 5824,
      "ederal": 5825,
      "Ġatmosphere": 5826,
      "Ġsubsidiarity": 5827,
      "irvana": 5828,
      "++": 5829,
      "AST": 5830,
      "Can": 5831,
      "Does": 5832,
      "Good": 5833,
      "Once": 5834,
      "UC": 5835,
      "aven": 5836,
      "can": 5837,
      "cle": 5838,
      "lines": 5839,
      "ule": 5840,
      "inal": 5841,
      "Ġtheat": 5842,
      "Ġsen": 5843,
      "Ġsle": 5844,
      "Ġsil": 5845,
      "Ġsaving": 5846,
      "itate": 5847,
      "ato": 5848,
      "attle": 5849,
      "oured": 5850,
      "Ġcore": 5851,
      "enomen": 5852,
      "Ġmail": 5853,
      "Ġmember": 5854,
      "Ġpad": 5855,
      "anim": 5856,
      "Ġreven": 5857,
      "Ġreli": 5858,
      "oooo": 5859,
      "eta": 5860,
      "aming": 5861,
      "thm": 5862,
      "Ġasylum": 5863,
      "ĠAb": 5864,
      "illed": 5865,
      "Ġsharp": 5866,
      "ĠMo": 5867,
      "iler": 5868,
      "ĠBer": 5869,
      "ĠBoth": 5870,
      "ĠHE": 5871,
      "ĠHall": 5872,
      "ĠTot": 5873,
      "ĠTib": 5874,
      "ĠTime": 5875,
      "osi": 5876,
      "Ġenlight": 5877,
      "ĠGarbage": 5878,
      "ĠLi": 5879,
      "ĠLetter": 5880,
      "Ġdisasters": 5881,
      "abet": 5882,
      "Ġclar": 5883,
      "perate": 5884,
      "Ġarch": 5885,
      "assic": 5886,
      "oday": 5887,
      "Ġsale": 5888,
      "ĠKer": 5889,
      "Ġremake": 5890,
      "others": 5891,
      "uality": 5892,
      "amme": 5893,
      "Ġowned": 5894,
      "Ġsecure": 5895,
      "ĠCDs": 5896,
      "Ġgenuine": 5897,
      "Ġelig": 5898,
      "Ġcourt": 5899,
      "Ġdescribes": 5900,
      "Ġdefinately": 5901,
      "Ġesc": 5902,
      "Ġmax": 5903,
      "Ġcareer": 5904,
      "Ġlights": 5905,
      "Ġcapacity": 5906,
      "Ġdepict": 5907,
      "Ġinvolving": 5908,
      "Ġsentences": 5909,
      "Ġhoped": 5910,
      "Ġshallow": 5911,
      "Ġequally": 5912,
      "Ġstatements": 5913,
      "Ġkilled": 5914,
      "???": 5915,
      "Ġjoin": 5916,
      "ĠPrime": 5917,
      "Ġhonestly": 5918,
      "Ġrelationships": 5919,
      "Ġsequences": 5920,
      "Ġsubstant": 5921,
      "Ġwalking": 5922,
      "Ġhyp": 5923,
      "Ġcontrad": 5924,
      "ĠKeel": 5925,
      "Ġutter": 5926,
      "Ġdramatic": 5927,
      "ĠRegional": 5928,
      "Ġcartoon": 5929,
      "Ġflexible": 5930,
      "Ġmilitary": 5931,
      "Ġultimately": 5932,
      "Ġpraise": 5933,
      "Ġreferences": 5934,
      "Ġintrigu": 5935,
      "Ġunderstood": 5936,
      "Ġunrealistic": 5937,
      "ĠObjective": 5938,
      "Ġredeem": 5939,
      "Ġweapons": 5940,
      "ĠTibet": 5941,
      "Here": 5942,
      "IF": 5943,
      "Last": 5944,
      "Ray": 5945,
      "aul": 5946,
      "cers": 5947,
      "des": 5948,
      "gers": 5949,
      "national": 5950,
      "och": 5951,
      "oke": 5952,
      "uary": 5953,
      "Ġidi": 5954,
      "Ġtension": 5955,
      "inct": 5956,
      "rey": 5957,
      "Ġsight": 5958,
      "Ġsizes": 5959,
      "Ġbiz": 5960,
      "Ġborn": 5961,
      "Ġpin": 5962,
      "Ġpoll": 5963,
      "Ġlie": 5964,
      "icro": 5965,
      "vey": 5966,
      "Ġgorge": 5967,
      "verty": 5968,
      "Ġyell": 5969,
      "idge": 5970,
      "Ġugly": 5971,
      "Ġmoved": 5972,
      "ĠCO": 5973,
      "ĠAge": 5974,
      "ĠAnt": 5975,
      "ĠSoul": 5976,
      "ĠSpecial": 5977,
      "rah": 5978,
      "ĠMeg": 5979,
      "Ġsevere": 5980,
      "Ġmyster": 5981,
      "Ġalive": 5982,
      "ĠEri": 5983,
      "ĠEarth": 5984,
      "ĠBudd": 5985,
      "Ġjack": 5986,
      "ĠTra": 5987,
      "ĠDE": 5988,
      "Ġintense": 5989,
      "Ġvon": 5990,
      "Ġlock": 5991,
      "ĠRich": 5992,
      "Ġquiet": 5993,
      "Ġgoal": 5994,
      "liosi": 5995,
      "inking": 5996,
      "ighter": 5997,
      "Ġserve": 5998,
      "Ġrig": 5999,
      "Ġrocks": 6000,
      "Ġaccom": 6001,
      "Ġclever": 6002,
      "Ġmonop": 6003,
      "Ġpoverty": 6004,
      "Ġmainstream": 6005,
      "Ġheadset": 6006,
      "Ġcourage": 6007,
      "egal": 6008,
      "Ġamazed": 6009,
      "Ġgirlfriend": 6010,
      "Ġforest": 6011,
      "THE": 6012,
      "Ġerror": 6013,
      "OME": 6014,
      "Ġorganisations": 6015,
      "Ġbringing": 6016,
      "Ġreminds": 6017,
      "ĠPratchett": 6018,
      "bitious": 6019,
      "Ġgrounds": 6020,
      "Ġlaunch": 6021,
      "ĠWilliam": 6022,
      "Ġheroine": 6023,
      "Ġautom": 6024,
      "Ġparliamentary": 6025,
      "ĠPalest": 6026,
      "ĠJanuary": 6027,
      "Ġcoordination": 6028,
      "Ġdisturbing": 6029,
      "Ġdissapointed": 6030,
      "Ġinnovative": 6031,
      "Ġcompromise": 6032,
      "Ġadministrative": 6033,
      "Ġanticip": 6034,
      "ĠSeptember": 6035,
      "AME": 6036,
      "Comm": 6037,
      "IL": 6038,
      "co": 6039,
      "ford": 6040,
      "gar": 6041,
      "gue": 6042,
      "hand": 6043,
      "pir": 6044,
      "uke": 6045,
      "Ġoptions": 6046,
      "Ġflying": 6047,
      "enry": 6048,
      "orate": 6049,
      "esides": 6050,
      "Ġdictionary": 6051,
      "Ġinex": 6052,
      "aser": 6053,
      "Ġgonna": 6054,
      "star": 6055,
      "Ġbeware": 6056,
      "ched": 6057,
      "Ġhaunted": 6058,
      "Ġprove": 6059,
      "ĠMY": 6060,
      "ĠMuch": 6061,
      "ĠMiddle": 6062,
      "Ġsovere": 6063,
      "ĠBu": 6064,
      "ĠBug": 6065,
      "ĠWil": 6066,
      "ĠHult": 6067,
      "ummy": 6068,
      "ĠTus": 6069,
      "ĠDisc": 6070,
      "cia": 6071,
      "Ġvivid": 6072,
      "Ġoutcome": 6073,
      "Ġenh": 6074,
      "Ġround": 6075,
      "aud": 6076,
      "Ġanybody": 6077,
      "ĠRuss": 6078,
      "ĠOLAF": 6079,
      "ideo": 6080,
      "ptive": 6081,
      "Ġacted": 6082,
      "Ġactress": 6083,
      "arsh": 6084,
      "Ġ21": 6085,
      "ulture": 6086,
      "Ġevening": 6087,
      "teen": 6088,
      "ogether": 6089,
      "Ġrail": 6090,
      "weight": 6091,
      "Ġhole": 6092,
      "Ġextension": 6093,
      "Ġshower": 6094,
      "Ġobtain": 6095,
      "Ġaddressed": 6096,
      "Ġconference": 6097,
      "Ġediting": 6098,
      "Ġmodels": 6099,
      "Ġschol": 6100,
      "Ġdebut": 6101,
      "Ġcalling": 6102,
      "Ġstudies": 6103,
      "Ġcompetit": 6104,
      "Ġcontinued": 6105,
      "Ġcrack": 6106,
      "Ġruns": 6107,
      "Ġdriving": 6108,
      "Ġplanned": 6109,
      "ĠAnn": 6110,
      "Ġprotagon": 6111,
      "Ġcuts": 6112,
      "ĠEngland": 6113,
      "Ġspeaker": 6114,
      "Ġteachers": 6115,
      "Ġkiller": 6116,
      "Ġengaging": 6117,
      "Ġcolorful": 6118,
      "Ġboyfriend": 6119,
      "Ġapplicable": 6120,
      "Ġtouching": 6121,
      "Ġamongst": 6122,
      "Ġinvestment": 6123,
      "Ġtotalitarian": 6124,
      "noon": 6125,
      "Ġbelievable": 6126,
      "Ġcooking": 6127,
      "Ġtools": 6128,
      "Ġ:)": 6129,
      "Ġconsumers": 6130,
      "Ġemphasis": 6131,
      "Ġincorrect": 6132,
      "ĠInternet": 6133,
      "Ġflexibility": 6134,
      "Ġattached": 6135,
      "Ġpathetic": 6136,
      "Ġcampa": 6137,
      "ĠCharles": 6138,
      "Ġseparate": 6139,
      "Ġrapid": 6140,
      "Ġrenewable": 6141,
      "Ġsuddenly": 6142,
      "Ġclothes": 6143,
      "Ġhospital": 6144,
      "Ġtremend": 6145,
      "Ġgorgeous": 6146,
      "ĠHulten": 6147,
      "GH": 6148,
      "IVE": 6149,
      "MB": 6150,
      "Office": 6151,
      "She": 6152,
      "UST": 6153,
      "awn": 6154,
      "bbit": 6155,
      "cat": 6156,
      "iac": 6157,
      "known": 6158,
      "lause": 6159,
      "nal": 6160,
      "oly": 6161,
      "overs": 6162,
      "part": 6163,
      "was": 6164,
      "Ãĸ": 6165,
      "Ġack": 6166,
      "Ġthrew": 6167,
      "Ġwid": 6168,
      "Ġwild": 6169,
      "Ġsession": 6170,
      "Ġbass": 6171,
      "Ġbird": 6172,
      "Ġburd": 6173,
      "Ġfaster": 6174,
      "encies": 6175,
      "Ġmut": 6176,
      "oric": 6177,
      "Ġholes": 6178,
      "Ġded": 6179,
      "asp": 6180,
      "icit": 6181,
      "stit": 6182,
      "Ġbelly": 6183,
      "roll": 6184,
      "see": 6185,
      "Ġstability": 6186,
      "Ġstreet": 6187,
      "ĠCons": 6188,
      "ĠCorn": 6189,
      "pere": 6190,
      "ĠAuthor": 6191,
      "ĠSansa": 6192,
      "Ġseven": 6193,
      "Ġdeleg": 6194,
      "Ġdeeper": 6195,
      "ĠEv": 6196,
      "Ġsupr": 6197,
      "aint": 6198,
      "ĠWild": 6199,
      "ĠDan": 6200,
      "ĠDefinitely": 6201,
      "Ġvital": 6202,
      "Ġrough": 6203,
      "Ġkick": 6204,
      "aped": 6205,
      "Ġambitious": 6206,
      "ĠNirvana": 6207,
      "Ġcompos": 6208,
      "Ġdisappe": 6209,
      "ĠRock": 6210,
      "Ġquit": 6211,
      "Ġunanim": 6212,
      "Ġmanage": 6213,
      "ĠUP": 6214,
      "Ġprices": 6215,
      "Ġcharges": 6216,
      "ache": 6217,
      "ĠSteph": 6218,
      "Ġapplies": 6219,
      "ĠUnless": 6220,
      "Ġthru": 6221,
      "ERS": 6222,
      "Ġhighest": 6223,
      "ĠChe": 6224,
      "ĠChild": 6225,
      "Ġblind": 6226,
      "Ġsounded": 6227,
      "Ġemp": 6228,
      "Ġmath": 6229,
      "Ġdifferences": 6230,
      "Ġphenomen": 6231,
      "Ġconfident": 6232,
      "Ġlegs": 6233,
      "Ġhumans": 6234,
      "Ġordering": 6235,
      "Ġtales": 6236,
      "Ġdifficulty": 6237,
      "Ġopinions": 6238,
      "Ġsupply": 6239,
      "OUN": 6240,
      "Ġcondem": 6241,
      "Ġcenter": 6242,
      "Ġleading": 6243,
      "ĠBeat": 6244,
      "Ġbreaking": 6245,
      "Ġprofound": 6246,
      "Ġerotic": 6247,
      "ĠDecember": 6248,
      "Ġengine": 6249,
      "ĠEverything": 6250,
      "Ġburning": 6251,
      "Ġcleaning": 6252,
      "Ġopposed": 6253,
      "Ġrequested": 6254,
      "ĠTransport": 6255,
      "Ġfrustrated": 6256,
      "Ġdrop": 6257,
      "ĠWILL": 6258,
      "Ġglobalisation": 6259,
      "Ġfabric": 6260,
      "Ġfabulous": 6261,
      "Ġhundreds": 6262,
      "Ġprimarily": 6263,
      "Ġblocks": 6264,
      "Ġbillion": 6265,
      "ĠGreece": 6266,
      "Ġgifted": 6267,
      "Ġelevator": 6268,
      "Nevertheless": 6269,
      "Ġadequate": 6270,
      "Ġacknow": 6271,
      "?!": 6272,
      "App": 6273,
      "DE": 6274,
      "bre": 6275,
      "eal": 6276,
      "ga": 6277,
      "hard": 6278,
      "hib": 6279,
      "iers": 6280,
      "oppy": 6281,
      "Ġing": 6282,
      "Ġtast": 6283,
      "inative": 6284,
      "Ġsin": 6285,
      "itz": 6286,
      "iture": 6287,
      "atis": 6288,
      "ouac": 6289,
      "oral": 6290,
      "Ġhous": 6291,
      "Ġhint": 6292,
      "Ġgun": 6293,
      "aled": 6294,
      "Ġfort": 6295,
      "Ġyoga": 6296,
      "imed": 6297,
      "ĠColl": 6298,
      "ĠCAN": 6299,
      "Ġprop": 6300,
      "ĠMa": 6301,
      "ĠMiss": 6302,
      "ulative": 6303,
      "Ġexists": 6304,
      "ĠBar": 6305,
      "istry": 6306,
      "anted": 6307,
      "ĠWay": 6308,
      "ĠHad": 6309,
      "ĠTam": 6310,
      "ĠTwo": 6311,
      "ĠDream": 6312,
      "Ġvast": 6313,
      "Ġheater": 6314,
      "ĠGOOD": 6315,
      "Ġunion": 6316,
      "Ġunits": 6317,
      "ĠUp": 6318,
      "Ġcontents": 6319,
      "Ġscar": 6320,
      "Ġnewsp": 6321,
      "Ġsheet": 6322,
      "Ġinstance": 6323,
      "Ġlovely": 6324,
      "Ġreply": 6325,
      "Ġaward": 6326,
      "orship": 6327,
      "plete": 6328,
      "Ġrace": 6329,
      "Ġblade": 6330,
      "Ġblank": 6331,
      "Ġrightly": 6332,
      "heart": 6333,
      "Ġsmart": 6334,
      "Ġowners": 6335,
      "Ġharder": 6336,
      "Ġinsult": 6337,
      "Ġdirectives": 6338,
      "Ġtalked": 6339,
      "Ġexperiences": 6340,
      "Ġscenery": 6341,
      "proof": 6342,
      "Ġcalls": 6343,
      "Ġconsiderable": 6344,
      "EAR": 6345,
      "egu": 6346,
      "Ġpromised": 6347,
      "Ġnightm": 6348,
      "Ġensuring": 6349,
      "Ġurgent": 6350,
      "Ġpreviously": 6351,
      "THIS": 6352,
      "Ġelections": 6353,
      "Ġcommunic": 6354,
      "Ġcombination": 6355,
      "Ġprepar": 6356,
      "Ġexistence": 6357,
      "ĠZeta": 6358,
      "Ġcolleague": 6359,
      "Ġrisks": 6360,
      "Ġjudg": 6361,
      "iliation": 6362,
      "Ġdocumentary": 6363,
      "Ġemotions": 6364,
      "Ġcustomers": 6365,
      "Ġmedic": 6366,
      "ĠAnyway": 6367,
      "ĠYOUR": 6368,
      "Ġstrengthen": 6369,
      "Ġcommentary": 6370,
      "Ġwinter": 6371,
      "Ġignor": 6372,
      "Ġignore": 6373,
      "Ġirrit": 6374,
      "Ġpromotion": 6375,
      "Ġnetwork": 6376,
      "ĠMUST": 6377,
      "ĠMusic": 6378,
      "Ġscheme": 6379,
      "Ġtechniques": 6380,
      "Ġenthusi": 6381,
      "ĠBrando": 6382,
      "Ġcreepy": 6383,
      "Ġghost": 6384,
      "Ġunnecessary": 6385,
      "Ġrefugees": 6386,
      "ccording": 6387,
      "Ġaccompl": 6388,
      "ĠBugliosi": 6389,
      "AIN": 6390,
      "Fahrenheit": 6391,
      "ault": 6392,
      "acc": 6393,
      "core": 6394,
      "called": 6395,
      "do": 6396,
      "ients": 6397,
      "kward": 6398,
      "list": 6399,
      "lined": 6400,
      "spe": 6401,
      "tell": 6402,
      "Ġ....": 6403,
      "Ġ000": 6404,
      "Ġtill": 6405,
      "Ġtaught": 6406,
      "inate": 6407,
      "inese": 6408,
      "rely": 6409,
      "isk": 6410,
      "itter": 6411,
      "Ġmp": 6412,
      "Ġmand": 6413,
      "Ġmission": 6414,
      "especially": 6415,
      "Ġhang": 6416,
      "ania": 6417,
      "Ġdread": 6418,
      "Ġinev": 6419,
      "Ġreaction": 6420,
      "Ġgender": 6421,
      "stop": 6422,
      "ented": 6423,
      "Ġyr": 6424,
      "ids": 6425,
      "Ġstream": 6426,
      "oween": 6427,
      "ayer": 6428,
      "Ġhaunting": 6429,
      "illing": 6430,
      "ĠSecond": 6431,
      "uster": 6432,
      "ĠMadam": 6433,
      "ppers": 6434,
      "Ġlies": 6435,
      "ĠPre": 6436,
      "Ġalt": 6437,
      "ĠBible": 6438,
      "Ġdoctor": 6439,
      "ĠWest": 6440,
      "ĠHar": 6441,
      "ĠTour": 6442,
      "ĠDec": 6443,
      "ĠDanish": 6444,
      "aked": 6445,
      "Ġtimeless": 6446,
      "Ġrul": 6447,
      "Ġlegend": 6448,
      "ĠFire": 6449,
      "ĠGar": 6450,
      "ĠGold": 6451,
      "ĠNations": 6452,
      "Ġload": 6453,
      "ĠRun": 6454,
      "ĠOp": 6455,
      "ĠUs": 6456,
      "Ġeverywhere": 6457,
      "Ġoffered": 6458,
      "Ġtwin": 6459,
      "Ġafternoon": 6460,
      "angers": 6461,
      "Ġrecommendation": 6462,
      "ĠView": 6463,
      "ĠThree": 6464,
      "Ġroles": 6465,
      "Ġawkward": 6466,
      "phones": 6467,
      "Ġblues": 6468,
      "Ġempt": 6469,
      "Ġtransl": 6470,
      "Ġrefres": 6471,
      "Ġpresidency": 6472,
      "Ġimportantly": 6473,
      "Ġviewing": 6474,
      "Ġexpert": 6475,
      "Ġapprove": 6476,
      "viously": 6477,
      "Ġadvanced": 6478,
      "Ġcostume": 6479,
      "Ġreplacing": 6480,
      "Ġappeared": 6481,
      "Ġlocation": 6482,
      "Ġdistort": 6483,
      "Ġdistract": 6484,
      "Ġtechno": 6485,
      "itchen": 6486,
      "Ġsafegu": 6487,
      "Ġimproving": 6488,
      "Ġaccounts": 6489,
      "Ġnonetheless": 6490,
      "Ġequality": 6491,
      "Ġelected": 6492,
      "Ġattempting": 6493,
      "Ġmagical": 6494,
      "Ġamounts": 6495,
      "ourable": 6496,
      "Ġjokes": 6497,
      "ĠQue": 6498,
      "ĠMinisters": 6499,
      "Ġpattern": 6500,
      "Ġemployees": 6501,
      "Ġviolence": 6502,
      "Ġpromoting": 6503,
      "ĠFlore": 6504,
      "Ġinches": 6505,
      "2006": 6506,
      "Ġreligion": 6507,
      "Ġreligious": 6508,
      "Ġprosper": 6509,
      "MAZ": 6510,
      "Ġfrequently": 6511,
      "Ġmagnific": 6512,
      "Ġoutdated": 6513,
      "Ġcensorship": 6514,
      "Ġcaptivating": 6515,
      "ĠDenmark": 6516,
      "Ġenormous": 6517,
      "ĠKerouac": 6518,
      "Ġeligible": 6519,
      "ĠErika": 6520,
      "ĠTampere": 6521,
      "100": 6522,
      "CD": 6523,
      "Cl": 6524,
      "Furthermore": 6525,
      "IB": 6526,
      "PE": 6527,
      "Tr": 6528,
      "VEN": 6529,
      "dec": 6530,
      "good": 6531,
      "ixt": 6532,
      "kins": 6533,
      "med": 6534,
      "rast": 6535,
      "inated": 6536,
      "itled": 6537,
      "Ġom": 6538,
      "Ġfold": 6539,
      "Ġfacing": 6540,
      "ena": 6541,
      "Ġpoo": 6542,
      "Ġhip": 6543,
      "edter": 6544,
      "ario": 6545,
      "icing": 6546,
      "Ġisol": 6547,
      "Ġeight": 6548,
      "roedter": 6549,
      "ette": 6550,
      "chest": 6551,
      "Ġash": 6552,
      "ĠAMAZ": 6553,
      "Ġshoot": 6554,
      "Ġshelf": 6555,
      "ĠMary": 6556,
      "Ġconver": 6557,
      "ersion": 6558,
      "Ġchoices": 6559,
      "ĠBad": 6560,
      "ĠBudget": 6561,
      "Ġaband": 6562,
      "ĠHor": 6563,
      "ĠHere": 6564,
      "ĠHope": 6565,
      "umbs": 6566,
      "ĠTI": 6567,
      "ĠTer": 6568,
      "ĠDay": 6569,
      "Ġvoices": 6570,
      "Ġrat": 6571,
      "Ġrot": 6572,
      "Ġrush": 6573,
      "apers": 6574,
      "Ġcompact": 6575,
      "Ġlog": 6576,
      "Ġlover": 6577,
      "Ġdish": 6578,
      "Ġdispos": 6579,
      "Ġdispar": 6580,
      "ĠRem": 6581,
      "Ġunre": 6582,
      "ĠJim": 6583,
      "Ġpregn": 6584,
      "Ġeverybody": 6585,
      "ictor": 6586,
      "Ġfiles": 6587,
      "Ġreviewed": 6588,
      "Ġefficient": 6589,
      "othman": 6590,
      "apped": 6591,
      "Ġblow": 6592,
      "Ġindustri": 6593,
      "Ġextras": 6594,
      "Ġintervention": 6595,
      "Ġsubsequ": 6596,
      "whel": 6597,
      "Ġrelates": 6598,
      "Ġinsist": 6599,
      "Ġpocket": 6600,
      "Ġpresence": 6601,
      "Ġexamination": 6602,
      "Mrs": 6603,
      "Ġeditor": 6604,
      "Ġexplos": 6605,
      "OTH": 6606,
      "Ġdescriptive": 6607,
      "Ġkindle": 6608,
      "Ġgeneration": 6609,
      "Ġadvantage": 6610,
      "Ġ1996": 6611,
      "Ġcapable": 6612,
      "IST": 6613,
      "Ġsolutions": 6614,
      "Ġconstant": 6615,
      "Ġmemorable": 6616,
      "ĠBeaut": 6617,
      "Ġsigned": 6618,
      "Ġessentially": 6619,
      "Ġprinting": 6620,
      "Ġrepresents": 6621,
      "Ġpaperback": 6622,
      "Ġexceptional": 6623,
      "Ġsexy": 6624,
      "Ġvend": 6625,
      "Ġtests": 6626,
      "Ġmotiv": 6627,
      "ographical": 6628,
      "Ġrecognition": 6629,
      "Ġoperate": 6630,
      "Ġuniverse": 6631,
      "Ġburned": 6632,
      "Ġchallenges": 6633,
      "Ġindividuals": 6634,
      "Ġships": 6635,
      "Ġoccasions": 6636,
      "Ġhype": 6637,
      "Ġtune": 6638,
      "Ġcriticism": 6639,
      "Ġpreferred": 6640,
      "Ġfunctioning": 6641,
      "Ġextended": 6642,
      "Ġconcentrate": 6643,
      "Ġsurface": 6644,
      "Ġmountain": 6645,
      "Ġsubmitted": 6646,
      "Ġphysical": 6647,
      "Ġforgotten": 6648,
      "Ġsymbolism": 6649,
      "Ġwindow": 6650,
      "Ġcandid": 6651,
      "Ġdisagree": 6652,
      "Ġdisgust": 6653,
      "Ġintellectual": 6654,
      "Ġnonsense": 6655,
      "Ġpoetry": 6656,
      "Ġdivorce": 6657,
      "Ġcampaign": 6658,
      "ĠStephen": 6659,
      "):": 6660,
      "2000": 6661,
      "GI": 6662,
      "IP": 6663,
      "Pres": 6664,
      "UE": 6665,
      "aur": 6666,
      "birth": 6667,
      "ca": 6668,
      "cons": 6669,
      "full": 6670,
      "mail": 6671,
      "nic": 6672,
      "ris": 6673,
      "tes": 6674,
      "uable": 6675,
      "watch": 6676,
      "Ã¨": 6677,
      "Ġaims": 6678,
      "Ġtheater": 6679,
      "Ġwed": 6680,
      "Ġwindows": 6681,
      "Ġwanna": 6682,
      "Ġsake": 6683,
      "Ġcake": 6684,
      "Ġhide": 6685,
      "Ġhost": 6686,
      "Ġdyn": 6687,
      "Ġink": 6688,
      "Ġrend": 6689,
      "Ġgore": 6690,
      "Ġgrown": 6691,
      "alse": 6692,
      "stal": 6693,
      "sters": 6694,
      "utch": 6695,
      "ros": 6696,
      "cel": 6697,
      "think": 6698,
      "ĠCor": 6699,
      "ĠAp": 6700,
      "illes": 6701,
      "ĠSG": 6702,
      "ĠSk": 6703,
      "Ġproved": 6704,
      "Ġshared": 6705,
      "rab": 6706,
      "ĠMA": 6707,
      "ĠMart": 6708,
      "ĠMarch": 6709,
      "iles": 6710,
      "erent": 6711,
      "Ġsocks": 6712,
      "Ġchest": 6713,
      "Ġchurch": 6714,
      "ĠBarn": 6715,
      "ĠHD": 6716,
      "unny": 6717,
      "arding": 6718,
      "Ġvent": 6719,
      "Ġenforce": 6720,
      "ĠNeed": 6721,
      "ĠLet": 6722,
      "Ġdiscipl": 6723,
      "uds": 6724,
      "Ġworkout": 6725,
      "Ġquant": 6726,
      "Ġshouldn": 6727,
      "ĠJones": 6728,
      "Ġ26": 6729,
      "Ġtwenty": 6730,
      "ĠiP": 6731,
      "Ġunderlying": 6732,
      "Its": 6733,
      "Ġrealism": 6734,
      "Ġfinest": 6735,
      "Ġ35": 6736,
      "Ġrabbit": 6737,
      "Ġblah": 6738,
      "Ġextensive": 6739,
      "Ġinterf": 6740,
      "Ġ400": 6741,
      "Ġterribly": 6742,
      "ounce": 6743,
      "Ġdefl": 6744,
      "Ġadding": 6745,
      "Ġrelax": 6746,
      "Ġtrib": 6747,
      "notes": 6748,
      "Ġprovoking": 6749,
      "Ġformula": 6750,
      "Ġviewer": 6751,
      "Ġlets": 6752,
      "Ġfriendly": 6753,
      "Ġassure": 6754,
      "Ġassume": 6755,
      "Ġcamer": 6756,
      "Ġadvise": 6757,
      "Ġcurious": 6758,
      "Ġartwork": 6759,
      "Ġexclud": 6760,
      "Ġ2002": 6761,
      "Ġvaluable": 6762,
      "Ġenvis": 6763,
      "Ġcomputers": 6764,
      "ĠAnth": 6765,
      "Ġleads": 6766,
      "Ġaffair": 6767,
      "Ġresolved": 6768,
      "going": 6769,
      "Ġsentence": 6770,
      "Ġcheaply": 6771,
      "Ġslowly": 6772,
      "Ġrecognize": 6773,
      "Ġdamaged": 6774,
      "Ġinstruction": 6775,
      "Ġlady": 6776,
      "ĠSchroedter": 6777,
      "Ġfootage": 6778,
      "ĠMacally": 6779,
      "Ġsearching": 6780,
      "ĠWHAT": 6781,
      "ĠSocialists": 6782,
      "Ġdemonstrate": 6783,
      "Ġexplanations": 6784,
      "Ġeducational": 6785,
      "Ġachieving": 6786,
      "Ġconsistent": 6787,
      "Ġcontinuing": 6788,
      "Ġglasses": 6789,
      "Ġexclusion": 6790,
      "Ġracism": 6791,
      "Ġsuspect": 6792,
      "ĠDickens": 6793,
      "Ġterritory": 6794,
      "Overall": 6795,
      "Ġupgrade": 6796,
      "ĠGammell": 6797,
      "Ġflavor": 6798,
      "Ġthousands": 6799,
      "Perhaps": 6800,
      "Ġnecessarily": 6801,
      "Ġmagazine": 6802,
      "Ġcompetitiveness": 6803,
      "Ġburden": 6804,
      "ĠTourism": 6805,
      "President": 6806,
      "!).": 6807,
      "60": 6808,
      "ARE": 6809,
      "ILL": 6810,
      "Most": 6811,
      "Many": 6812,
      "Sub": 6813,
      "free": 6814,
      "rick": 6815,
      "rates": 6816,
      "specially": 6817,
      "Ġ;": 6818,
      "Ġtapes": 6819,
      "inet": 6820,
      "onic": 6821,
      "Ġwra": 6822,
      "Ġwont": 6823,
      "erve": 6824,
      "Ġsings": 6825,
      "Ġbol": 6826,
      "Ġbread": 6827,
      "Ġborrow": 6828,
      "Ġbinding": 6829,
      "itage": 6830,
      "oub": 6831,
      "Ġfile": 6832,
      "Ġhat": 6833,
      "Ġdata": 6834,
      "Ġease": 6835,
      "iday": 6836,
      "Ġstone": 6837,
      "Ġstiff": 6838,
      "amily": 6839,
      "Ġanx": 6840,
      "ĠCal": 6841,
      "ĠCur": 6842,
      "ĠCost": 6843,
      "ĠAir": 6844,
      "ief": 6845,
      "ifer": 6846,
      "ĠSA": 6847,
      "ĠSpe": 6848,
      "ĠSol": 6849,
      "ĠMen": 6850,
      "ĠMill": 6851,
      "Ġseasons": 6852,
      "emic": 6853,
      "Ġconvers": 6854,
      "Ġdelic": 6855,
      "ĠEasy": 6856,
      "ĠBow": 6857,
      "ĠBern": 6858,
      "Ġsuck": 6859,
      "Ġsuitable": 6860,
      "Ġorchest": 6861,
      "estly": 6862,
      "ĠHER": 6863,
      "unction": 6864,
      "ĠTake": 6865,
      "ĠTry": 6866,
      "ĠDra": 6867,
      "Ġplant": 6868,
      "Ġenable": 6869,
      "Ġkitchen": 6870,
      "Ġ(\"": 6871,
      "ĠFreedom": 6872,
      "ĠFinally": 6873,
      "ĠFox": 6874,
      "ĠNove": 6875,
      "Ġcompon": 6876,
      "Ġcompens": 6877,
      "Ġcompilation": 6878,
      "ignt": 6879,
      "ĠJuly": 6880,
      "ĠJune": 6881,
      "Ġpron": 6882,
      "Ġheritage": 6883,
      "Ġ22": 6884,
      "Ġcharged": 6885,
      "ello": 6886,
      "Ġsheer": 6887,
      "Ġende": 6888,
      "ginal": 6889,
      "anges": 6890,
      "ĠKN": 6891,
      "ĠWhere": 6892,
      "ĠWhich": 6893,
      "ĠYork": 6894,
      "Ġrip": 6895,
      "ĠVictor": 6896,
      "Ġroots": 6897,
      "Ġconciliation": 6898,
      "ĠChinese": 6899,
      "Ġpositions": 6900,
      "erness": 6901,
      "Ġadds": 6902,
      "Ġsubtle": 6903,
      "Ġdevelopments": 6904,
      "Ġdirections": 6905,
      "Ġevident": 6906,
      "Ġevalu": 6907,
      "Ġsurely": 6908,
      "Ġhorrif": 6909,
      "Ġapprox": 6910,
      "Ġacad": 6911,
      "Ġexplore": 6912,
      "Ġcertainty": 6913,
      "Ġreceiving": 6914,
      "Ġmarked": 6915,
      "Ġadvis": 6916,
      "Ġadvance": 6917,
      "Ġcorpor": 6918,
      "Ġinfrast": 6919,
      "OUGH": 6920,
      "Ġrecords": 6921,
      "Ġhalfway": 6922,
      "ĠProsecutor": 6923,
      "ĠArgent": 6924,
      "Ġpromise": 6925,
      "umping": 6926,
      "Ġfinishing": 6927,
      "Ġcopies": 6928,
      "ĠTrue": 6929,
      "Ġcutting": 6930,
      "Ġannual": 6931,
      "Ġlaws": 6932,
      "Ġdiet": 6933,
      "Ġmarriage": 6934,
      "Ġphotography": 6935,
      "Ġsadly": 6936,
      "Ġbreaks": 6937,
      "Ġinflated": 6938,
      "Ġinstructor": 6939,
      "Ġchallenging": 6940,
      "Ġanaly": 6941,
      "Ġcredibility": 6942,
      "Ġidentify": 6943,
      "Ġcooker": 6944,
      "Ġrented": 6945,
      "Ġnormally": 6946,
      "Ġdropped": 6947,
      "ĠRoad": 6948,
      "Ġdelightful": 6949,
      "Ġpushed": 6950,
      "Ġlosing": 6951,
      "Ġminority": 6952,
      "ĠEVERY": 6953,
      "ĠEuropol": 6954,
      "European": 6955,
      "ĠHardy": 6956,
      "Ġinterpretation": 6957,
      "Ġstorms": 6958,
      "Ġcinemat": 6959,
      "Ġbonus": 6960,
      "ĠREALLY": 6961,
      "Ġassigned": 6962,
      "Ġwheel": 6963,
      "Ġwitness": 6964,
      "ĠFROM": 6965,
      "Ġholiday": 6966,
      "ĠSometimes": 6967,
      "Ġgrammar": 6968,
      "Ġbizarre": 6969,
      "ĠPalestin": 6970,
      "Ġsovereignt": 6971,
      "ĠCornwell": 6972,
      "Ġindustrial": 6973,
      "Ġdynam": 6974,
      "ĠNovember": 6975,
      "13": 6976,
      "70": 6977,
      "Con": 6978,
      "IA": 6979,
      "Oh": 6980,
      "Other": 6981,
      "US": 6982,
      "Wor": 6983,
      "bell": 6984,
      "fe": 6985,
      "han": 6986,
      "house": 6987,
      "ipping": 6988,
      "mer": 6989,
      "ns": 6990,
      "oom": 6991,
      "rad": 6992,
      "rish": 6993,
      "tained": 6994,
      "uum": 6995,
      "uous": 6996,
      "wart": 6997,
      "Ġ/": 6998,
      "Ġ?": 6999,
      "Ġtent": 7000,
      "rees": 7001,
      "reement": 7002,
      "Ġsalt": 7003,
      "atter": 7004,
      "Ġfires": 7005,
      "Ġmac": 7006,
      "Ġpatch": 7007,
      "Ġhence": 7008,
      "Ġhilar": 7009,
      "ĠIM": 7010,
      "lla": 7011,
      "Ġdad": 7012,
      "Ġdict": 7013,
      "Ġdirty": 7014,
      "Ġlinks": 7015,
      "ica": 7016,
      "Ġeuro": 7017,
      "uting": 7018,
      "road": 7019,
      "Ġstab": 7020,
      "Ġstip": 7021,
      "amber": 7022,
      "Ġwithd": 7023,
      "rave": 7024,
      "ĠMP": 7025,
      "ĠMot": 7026,
      "Ġsem": 7027,
      "Ġconce": 7028,
      "Ġmyth": 7029,
      "Ġdele": 7030,
      "ĠEC": 7031,
      "ĠBalk": 7032,
      "ĠHel": 7033,
      "ĠHenry": 7034,
      "ĠDid": 7035,
      "Ġramb": 7036,
      "Ġlovers": 7037,
      "ĠLu": 7038,
      "ĠLive": 7039,
      "ĠList": 7040,
      "ĠLife": 7041,
      "ĠLittle": 7042,
      "Ġdisapoint": 7043,
      "ĠRa": 7044,
      "Ġrecon": 7045,
      "Ġrecall": 7046,
      "abra": 7047,
      "Ġacts": 7048,
      "Ġwhenever": 7049,
      "Ġclarity": 7050,
      "Ġpriced": 7051,
      "ondo": 7052,
      "ountry": 7053,
      "ails": 7054,
      "Ġrealise": 7055,
      "ĠVen": 7056,
      "ĠVideo": 7057,
      "Ġtragic": 7058,
      "Ġblame": 7059,
      "Ġlisting": 7060,
      "Ġobsc": 7061,
      "Ġaddict": 7062,
      "Ġdirected": 7063,
      "Ġproposing": 7064,
      "Ġexperiment": 7065,
      "Ġacqu": 7066,
      "Ġexplicit": 7067,
      "Ġkinds": 7068,
      "aughters": 7069,
      "Ġstudying": 7070,
      "Ġabsurd": 7071,
      "ologies": 7072,
      "astern": 7073,
      "gged": 7074,
      "ATE": 7075,
      "ESS": 7076,
      "END": 7077,
      "ĠAnother": 7078,
      "ĠAnne": 7079,
      "Ġmetaph": 7080,
      "Ġmemories": 7081,
      "Ġtitles": 7082,
      "Ġsuggestions": 7083,
      "Ġresolve": 7084,
      "Ġtaxation": 7085,
      "Ġcommunities": 7086,
      "Ġcares": 7087,
      "Ġwaterproof": 7088,
      "Ġinstallation": 7089,
      "Ġstructures": 7090,
      "Ġrepresentative": 7091,
      "Ġdamn": 7092,
      "Ġfocused": 7093,
      "Ġzero": 7094,
      "Ġdecentral": 7095,
      "Ġcapture": 7096,
      "Ġdeeply": 7097,
      "Ġruined": 7098,
      "Ġoccasionally": 7099,
      "iku": 7100,
      "herent": 7101,
      "Ġdemands": 7102,
      "Ġanimal": 7103,
      "Ġanimals": 7104,
      "Ġfixed": 7105,
      "ĠInternational": 7106,
      "Ġtemper": 7107,
      "Ġshocked": 7108,
      "Ġloses": 7109,
      "Ġembarr": 7110,
      "ĠSeries": 7111,
      "Ġupdate": 7112,
      "Ġconclude": 7113,
      "Ġfinger": 7114,
      "respond": 7115,
      "Ġecological": 7116,
      "Ġcompatible": 7117,
      "Ġfulfil": 7118,
      "Ġagricultural": 7119,
      "Ġcompelling": 7120,
      "ĠAustralian": 7121,
      "Ġsupervision": 7122,
      "abetes": 7123,
      "Ġmonopol": 7124,
      "Commission": 7125,
      "Ġcameras": 7126,
      "Ġsovereignty": 7127,
      "25": 7128,
      "Buy": 7129,
      "Des": 7130,
      "FO": 7131,
      "General": 7132,
      "KS": 7133,
      "More": 7134,
      "TV": 7135,
      "bon": 7136,
      "don": 7137,
      "rich": 7138,
      "rays": 7139,
      "sm": 7140,
      "ser": 7141,
      "vest": 7142,
      "yes": 7143,
      "Ġtempt": 7144,
      "erior": 7145,
      "Ġsal": 7146,
      "Ġbore": 7147,
      "itement": 7148,
      "itably": 7149,
      "Ġfate": 7150,
      "Ġfli": 7151,
      "Ġfitting": 7152,
      "eness": 7153,
      "Ġpan": 7154,
      "Ġpil": 7155,
      "Ġpunch": 7156,
      "anet": 7157,
      "Ġdying": 7158,
      "Ġinade": 7159,
      "Ġinner": 7160,
      "arian": 7161,
      "Ġgrew": 7162,
      "aly": 7163,
      "alog": 7164,
      "etal": 7165,
      "eturn": 7166,
      "Ġstere": 7167,
      "aylor": 7168,
      "Ġanch": 7169,
      "thur": 7170,
      "ĠCould": 7171,
      "race": 7172,
      "ĠMAN": 7173,
      "Ġchick": 7174,
      "ĠBask": 7175,
      "Ġabuse": 7176,
      "ĠWR": 7177,
      "ĠWin": 7178,
      "ĠHon": 7179,
      "ĠHas": 7180,
      "ĠHop": 7181,
      "uman": 7182,
      "reative": 7183,
      "ĠDIS": 7184,
      "Ġves": 7185,
      "Ġvir": 7186,
      "anda": 7187,
      "Ġamate": 7188,
      "ĠGame": 7189,
      "ĠGirl": 7190,
      "ĠGreen": 7191,
      "ĠNos": 7192,
      "ĠLang": 7193,
      "ĠLatin": 7194,
      "agn": 7195,
      "ĠOct": 7196,
      "Ġgoals": 7197,
      "ĠUK": 7198,
      "ĠUgly": 7199,
      "Ġcontract": 7200,
      "Ġoverwhel": 7201,
      "Ġpepper": 7202,
      "ĠStr": 7203,
      "Ġapple": 7204,
      "Ġapplying": 7205,
      "ĠKinn": 7206,
      "ĠYet": 7207,
      "Ġripped": 7208,
      "ĠVal": 7209,
      "ĠThose": 7210,
      "Ġawa": 7211,
      "Ġgotta": 7212,
      "Ġremix": 7213,
      "Ġrememb": 7214,
      "Ġpurs": 7215,
      "Ġpursu": 7216,
      "Ġfactory": 7217,
      "Ġenjoying": 7218,
      "Ġobst": 7219,
      "Ġtrilogy": 7220,
      "Ġglimp": 7221,
      "Ġplots": 7222,
      "......": 7223,
      "Ġconfusion": 7224,
      "Ġelimin": 7225,
      "Ġchildbirth": 7226,
      "Ġapproval": 7227,
      "Ġdefinition": 7228,
      "Ġconsiderably": 7229,
      "Ġcardboard": 7230,
      "!!!!!": 7231,
      "Ġcorrespond": 7232,
      "ployed": 7233,
      "lands": 7234,
      "ĠAmericans": 7235,
      "queem": 7236,
      "mma": 7237,
      "Ġmovements": 7238,
      "icians": 7239,
      "Ġpassing": 7240,
      "Ġprinted": 7241,
      "Ġmarried": 7242,
      "Ġadopting": 7243,
      "ventions": 7244,
      "Ġelectric": 7245,
      "Ġproducers": 7246,
      "Ġcombating": 7247,
      "Ġcombined": 7248,
      "ĠUSA": 7249,
      "Ġrepresented": 7250,
      "Ġtreated": 7251,
      "Ġswing": 7252,
      "Ġoperators": 7253,
      "scar": 7254,
      "Ġtouched": 7255,
      "Ġreminded": 7256,
      "Ġintroducing": 7257,
      "Ġcarrying": 7258,
      "Ġscientists": 7259,
      "Ġbalanced": 7260,
      "Ġnaturally": 7261,
      "Ġreducing": 7262,
      "Ġdownloaded": 7263,
      "Ġcincher": 7264,
      "Ġargument": 7265,
      "Ġdreams": 7266,
      "Ġbriefly": 7267,
      "Ġparliaments": 7268,
      "ĠMUCH": 7269,
      "Ġstruggle": 7270,
      "Ġblend": 7271,
      "ĠBelg": 7272,
      "Ġangry": 7273,
      "ĠJuliet": 7274,
      "ĠScience": 7275,
      "ĠReport": 7276,
      "Ġinspiring": 7277,
      "Ġattractive": 7278,
      "Ġhiking": 7279,
      "Ġinvolvement": 7280,
      "ĠSherlock": 7281,
      "Ġchemical": 7282,
      "Ġunusual": 7283,
      "ĠActually": 7284,
      "Ġchannel": 7285,
      "ĠDemocrats": 7286,
      "Ġintentions": 7287,
      "Ġreleases": 7288,
      "Ġredeeming": 7289,
      "ĠRichard": 7290,
      "OUND": 7291,
      "Applause": 7292,
      "Ġingred": 7293,
      "Ġempty": 7294,
      "Ġmagnificent": 7295,
      "Ġdisparities": 7296,
      "Ġcinematography": 7297,
      "Ġinadequ": 7298,
      "ĠKinnock": 7299,
      "Ġremembered": 7300,
      "Bl": 7301,
      "By": 7302,
      "Because": 7303,
      "CR": 7304,
      "COM": 7305,
      "EM": 7306,
      "Man": 7307,
      "OC": 7308,
      "aci": 7309,
      "mble": 7310,
      "pin": 7311,
      "pod": 7312,
      "rary": 7313,
      "rants": 7314,
      "tical": 7315,
      "uv": 7316,
      "vin": 7317,
      "wed": 7318,
      "wind": 7319,
      "zes": 7320,
      "Ġ`": 7321,
      "Ġtall": 7322,
      "Ġtick": 7323,
      "Ġthread": 7324,
      "inator": 7325,
      "rete": 7326,
      "Ġsales": 7327,
      "Ġcash": 7328,
      "Ġcroc": 7329,
      "Ġfro": 7330,
      "Ġfaced": 7331,
      "ester": 7332,
      "esus": 7333,
      "Ġhung": 7334,
      "Ġhanging": 7335,
      "Ġhidden": 7336,
      "ano": 7337,
      "Ġlens": 7338,
      "Ġreduction": 7339,
      "icated": 7340,
      "Ġgay": 7341,
      "Third": 7342,
      "oops": 7343,
      "adly": 7344,
      "Ġstable": 7345,
      "Ġwasting": 7346,
      "Ġancient": 7347,
      "ĠCo": 7348,
      "ĠCGI": 7349,
      "irms": 7350,
      "ĠAc": 7351,
      "ĠSC": 7352,
      "ĠSP": 7353,
      "ĠSec": 7354,
      "Ġproves": 7355,
      "uls": 7356,
      "ĠPol": 7357,
      "ĠPeter": 7358,
      "ĠBur": 7359,
      "ĠBEST": 7360,
      "ĠWAY": 7361,
      "ĠTaylor": 7362,
      "Ġvul": 7363,
      "Ġenemy": 7364,
      "Ġran": 7365,
      "inder": 7366,
      "ĠFre": 7367,
      "ĠNic": 7368,
      "ĠNob": 7369,
      "ittees": 7370,
      "Ġdishes": 7371,
      "ĠREC": 7372,
      "Ġque": 7373,
      "Ġrecovery": 7374,
      "Ġcoal": 7375,
      "oyote": 7376,
      "ointed": 7377,
      "ĠJew": 7378,
      "Ġclick": 7379,
      "...]": 7380,
      "Ġ23": 7381,
      "berg": 7382,
      "ondon": 7383,
      "tech": 7384,
      "Ġseeking": 7385,
      "Ġperf": 7386,
      "Ġincident": 7387,
      "Ġinstantly": 7388,
      "Ġspark": 7389,
      "Ġconcrete": 7390,
      "Ġstring": 7391,
      "ockey": 7392,
      "Ġdecades": 7393,
      "Ġ32": 7394,
      "Ġraw": 7395,
      "Ġsett": 7396,
      "Ġcrimes": 7397,
      "Ġcrude": 7398,
      "Ġowner": 7399,
      "Ġsubtit": 7400,
      "iano": 7401,
      "Ġsupports": 7402,
      "Ġretail": 7403,
      "Ġinvent": 7404,
      "Ġeconomies": 7405,
      "Ġhandy": 7406,
      "Ġcourts": 7407,
      "Ġedges": 7408,
      "Ġdetect": 7409,
      "Ġexpand": 7410,
      "Ġfrank": 7411,
      "Ġwaited": 7412,
      "ĠTHEY": 7413,
      "Ġadvoc": 7414,
      "Ġcompetitive": 7415,
      "ristmas": 7416,
      "Ġcontrovers": 7417,
      "Ġminds": 7418,
      "Ġvalid": 7419,
      "ĠProf": 7420,
      "Ġschools": 7421,
      "Ġresponsibilities": 7422,
      "Ġsuperf": 7423,
      "Ġpictured": 7424,
      "Ġallowing": 7425,
      "Ġdiversity": 7426,
      "Ġfourth": 7427,
      "Ġequip": 7428,
      "Ġvisible": 7429,
      "Ġports": 7430,
      "Ġimaginative": 7431,
      "Ġfairy": 7432,
      "Ġmillions": 7433,
      "Ġextraord": 7434,
      "Ġlaughs": 7435,
      "Ġlaughing": 7436,
      "Ġoperating": 7437,
      "ĠEveryone": 7438,
      "Ġunivers": 7439,
      "Ġintends": 7440,
      "Ġdrawing": 7441,
      "Ġradical": 7442,
      "Ġsixth": 7443,
      "Ġmulti": 7444,
      "Ġbelief": 7445,
      "etta": 7446,
      "Ġidentity": 7447,
      "Ġfrustration": 7448,
      "Ġcontrast": 7449,
      "Ġanimation": 7450,
      "Ġdemonstrated": 7451,
      "ĠPhil": 7452,
      "ĠPatten": 7453,
      "Ġcommitments": 7454,
      "Ġsatisfying": 7455,
      "ĠKingdom": 7456,
      "Ġdollar": 7457,
      "Ġjournal": 7458,
      "Ġcartrid": 7459,
      "Ġmelodies": 7460,
      "Ġterrifying": 7461,
      "ĠScarp": 7462,
      "ĠDescent": 7463,
      "ĠSwed": 7464,
      "Ġremarkable": 7465,
      "Ġneighbour": 7466,
      "Ġsample": 7467,
      "ĠSuper": 7468,
      "Excellent": 7469,
      "Ġsurrounding": 7470,
      "Question": 7471,
      "ĠTomcat": 7472,
      "Ġvacation": 7473,
      "Ġopposite": 7474,
      "ĠAfrica": 7475,
      "Ġexcessive": 7476,
      "Ġallocated": 7477,
      "Ġarticle": 7478,
      "Ġbuttons": 7479,
      "Ġpermanent": 7480,
      "Ġenterprises": 7481,
      "ĠWilson": 7482,
      "ĠGarcia": 7483,
      "Ġhilarious": 7484,
      "\")": 7485,
      "))": 7486,
      ".'": 7487,
      "BC": 7488,
      "Love": 7489,
      "Maybe": 7490,
      "Too": 7491,
      "Tech": 7492,
      "URE": 7493,
      "disc": 7494,
      "happy": 7495,
      "iq": 7496,
      "lim": 7497,
      "oir": 7498,
      "ront": 7499,
      "uit": 7500,
      "win": 7501,
      "Ã³": 7502,
      "Ġ)": 7503,
      "Ġtor": 7504,
      "Ġtur": 7505,
      "Ġwitty": 7506,
      "Ġbur": 7507,
      "Ġbab": 7508,
      "Ġbrow": 7509,
      "Ġbump": 7510,
      "atural": 7511,
      "oust": 7512,
      "Ġfu": 7513,
      "Ġfalse": 7514,
      "enary": 7515,
      "orse": 7516,
      "Ġped": 7517,
      "Ġtooth": 7518,
      "ingu": 7519,
      "Ġhose": 7520,
      "Ġdust": 7521,
      "Ġdress": 7522,
      "arrow": 7523,
      "asure": 7524,
      "Ġnu": 7525,
      "Ġgar": 7526,
      "Ġgal": 7527,
      "Ġgard": 7528,
      "Ġgross": 7529,
      "learly": 7530,
      "Ġeating": 7531,
      "Ġbeach": 7532,
      "entic": 7533,
      "roph": 7534,
      "Ġstor": 7535,
      "kend": 7536,
      "urance": 7537,
      "Ġant": 7538,
      "Ġanten": 7539,
      "ĠCage": 7540,
      "ĠCave": 7541,
      "ĠCON": 7542,
      "Ġbookst": 7543,
      "rian": 7544,
      "ĠAre": 7545,
      "ieved": 7546,
      "iforn": 7547,
      "illian": 7548,
      "ĠSure": 7549,
      "ĠSee": 7550,
      "Ġshots": 7551,
      "Ġseam": 7552,
      "ĠTheato": 7553,
      "Ġliberal": 7554,
      "ĠPot": 7555,
      "ĠEspecially": 7556,
      "ĠBack": 7557,
      "ĠBET": 7558,
      "Ġsucked": 7559,
      "Ġabst": 7560,
      "ĠHave": 7561,
      "ĠHels": 7562,
      "Ġmeat": 7563,
      "ĠTe": 7564,
      "ĠDamme": 7565,
      "Ġplenary": 7566,
      "Ġvs": 7567,
      "Ġray": 7568,
      "ĠGive": 7569,
      "ĠLis": 7570,
      "ĠLarry": 7571,
      "agine": 7572,
      "agger": 7573,
      "ĠRy": 7574,
      "Ġmanages": 7575,
      "inki": 7576,
      "Ġimplic": 7577,
      "Ġcontrived": 7578,
      "assed": 7579,
      "former": 7580,
      "ĠiBook": 7581,
      "acles": 7582,
      "acular": 7583,
      "Ġbackpack": 7584,
      "Ġtele": 7585,
      "Ġspr": 7586,
      "Ġspare": 7587,
      "Ġspite": 7588,
      "Ġspread": 7589,
      "Ġcommittees": 7590,
      "Ġenjoys": 7591,
      "Ġentitled": 7592,
      "Ġblur": 7593,
      "Ġfunctions": 7594,
      "Ġinterm": 7595,
      "Ġflo": 7596,
      "Ġlists": 7597,
      "oung": 7598,
      "Inst": 7599,
      "Ġtransition": 7600,
      "Ġcollab": 7601,
      "cription": 7602,
      "athan": 7603,
      "Ġexamine": 7604,
      "Ġexpression": 7605,
      "REE": 7606,
      "Ġbatt": 7607,
      "Ġheadphones": 7608,
      "Ġ2006": 7609,
      "Ġtexts": 7610,
      "ĠTruth": 7611,
      "Ġmessages": 7612,
      "Ġpractically": 7613,
      "ĠFriday": 7614,
      "Ġpassages": 7615,
      "Ġinstitutional": 7616,
      "Ġimagery": 7617,
      "Ġexception": 7618,
      "Ġsuccessfully": 7619,
      "Ġprepare": 7620,
      "Ġrocket": 7621,
      "Ġresearched": 7622,
      "Ġstrategies": 7623,
      "Ġlabour": 7624,
      "Ġsnow": 7625,
      "Ġsending": 7626,
      "ĠFundamental": 7627,
      "Ġaccessible": 7628,
      "Ġwelcom": 7629,
      "Ġinsights": 7630,
      "Ġselections": 7631,
      "Ġgovernance": 7632,
      "Ġoccasion": 7633,
      "verest": 7634,
      "Ġguarantees": 7635,
      "Ġspiritual": 7636,
      "Ġvehicle": 7637,
      "Ġirre": 7638,
      "Ġreduced": 7639,
      "Ġencouraging": 7640,
      "Ġinnoc": 7641,
      "Ġsmells": 7642,
      "Amazon": 7643,
      "American": 7644,
      "Ġfirmly": 7645,
      "ĠSteve": 7646,
      "Ġlucky": 7647,
      "Ġthriller": 7648,
      "ĠDespite": 7649,
      "ursday": 7650,
      "Ġfolk": 7651,
      "Ġconfirmed": 7652,
      "ĠLIKE": 7653,
      "Ġsimplistic": 7654,
      "Ġdepartment": 7655,
      "Ġbehavi": 7656,
      "ĠEconomic": 7657,
      "Ġtorture": 7658,
      "Ġuninteresting": 7659,
      "Ġxenophobia": 7660,
      "Ġrevenge": 7661,
      "ĠTotal": 7662,
      "Ġsubstantial": 7663,
      "Ġnewspaper": 7664,
      "Ġrefreshing": 7665,
      "Ġashamed": 7666,
      "Ġvendor": 7667,
      "ĠAnthony": 7668,
      "Ġmonopolies": 7669,
      "Commissioner": 7670,
      "ĠBaskerv": 7671,
      "Ġantenna": 7672,
      "-)": 7673,
      "010": 7674,
      "According": 7675,
      "LO": 7676,
      "Ps": 7677,
      "SP": 7678,
      "UM": 7679,
      "VAB": 7680,
      "].": 7681,
      "bal": 7682,
      "bles": 7683,
      "gle": 7684,
      "hop": 7685,
      "iable": 7686,
      "kin": 7687,
      "ooth": 7688,
      "taking": 7689,
      "void": 7690,
      "Ġtang": 7691,
      "rets": 7692,
      "isy": 7693,
      "erved": 7694,
      "Ġsan": 7695,
      "Ġsom": 7696,
      "Ġbent": 7697,
      "outhern": 7698,
      "Ġcow": 7699,
      "Ġfict": 7700,
      "enz": 7701,
      "orter": 7702,
      "orous": 7703,
      "esion": 7704,
      "edly": 7705,
      "ĠIrish": 7706,
      "ancial": 7707,
      "Ġder": 7708,
      "Ġdomin": 7709,
      "Ġinj": 7710,
      "Ġreact": 7711,
      "oman": 7712,
      "Ġnut": 7713,
      "Ġnations": 7714,
      "Ġgy": 7715,
      "Ġbearing": 7716,
      "adv": 7717,
      "ropri": 7718,
      "idos": 7719,
      "ghter": 7720,
      "Ġyouth": 7721,
      "chool": 7722,
      "Ġhaiku": 7723,
      "ĠCR": 7724,
      "ĠCity": 7725,
      "allel": 7726,
      "ĠAD": 7727,
      "ifting": 7728,
      "ĠSan": 7729,
      "ĠSound": 7730,
      "ĠSouth": 7731,
      "ĠSumm": 7732,
      "Ġproport": 7733,
      "ĠMount": 7734,
      "Ġsees": 7735,
      "Ġseams": 7736,
      "emption": 7737,
      "ulations": 7738,
      "ulating": 7739,
      "Ġsoph": 7740,
      "ĠPS": 7741,
      "Ġchips": 7742,
      "ĠEric": 7743,
      "ĠEastern": 7744,
      "ĠEverest": 7745,
      "olk": 7746,
      "ĠHome": 7747,
      "ĠTomb": 7748,
      "ĠDel": 7749,
      "active": 7750,
      "ended": 7751,
      "ĠFUN": 7752,
      "ĠNone": 7753,
      "ĠLight": 7754,
      "ĠLOT": 7755,
      "ĠLondon": 7756,
      "ousy": 7757,
      "Ġdisp": 7758,
      "Ġsomebody": 7759,
      "ĠRoll": 7760,
      "Ġquote": 7761,
      "Ġunfortun": 7762,
      "Ġcoff": 7763,
      "Ġbull": 7764,
      "Ġbuff": 7765,
      "ĠJon": 7766,
      "ĠJabra": 7767,
      "ĠJesus": 7768,
      "...\"": 7769,
      "Ġoverview": 7770,
      "Ġscand": 7771,
      "Ġarms": 7772,
      "eping": 7773,
      "ĠStay": 7774,
      "Ġtea": 7775,
      "ĠUni": 7776,
      "Ġfilmed": 7777,
      "Ġreput": 7778,
      "Ġsport": 7779,
      "ĠThursday": 7780,
      "Ġtrain": 7781,
      "Ġdecade": 7782,
      "ĠChina": 7783,
      "ĠChamber": 7784,
      "Ġconsolid": 7785,
      "ĠInc": 7786,
      "Ġinterpre": 7787,
      "Ġmonetary": 7788,
      "ception": 7789,
      "Where": 7790,
      "when": 7791,
      "Ġprograms": 7792,
      "Ġissued": 7793,
      "beit": 7794,
      "Ġeffectiveness": 7795,
      "atherine": 7796,
      "ciliation": 7797,
      ".......": 7798,
      "Ġsingers": 7799,
      "Ġpoliticians": 7800,
      "Ġexplo": 7801,
      "Ġdescribing": 7802,
      "Ġdefined": 7803,
      "ructure": 7804,
      "Ġmarks": 7805,
      "Ġpresenting": 7806,
      "Ġweekend": 7807,
      "Ġgenerations": 7808,
      "Ġexcitement": 7809,
      "Ġregardless": 7810,
      "Ġcorner": 7811,
      "Ġcreativity": 7812,
      "---": 7813,
      "Ġlocated": 7814,
      "Ġlacked": 7815,
      "Ġdrivel": 7816,
      "Ġintroduct": 7817,
      "Ġcountryside": 7818,
      "Ġleader": 7819,
      "Ġannounced": 7820,
      "Ġspeaks": 7821,
      "Ġimmense": 7822,
      "Ġsigns": 7823,
      "Ġfriendship": 7824,
      "Ġlargely": 7825,
      "Ġessence": 7826,
      "Ġspends": 7827,
      "ĠClan": 7828,
      "Ġvisiting": 7829,
      "pril": 7830,
      "Ġdevoted": 7831,
      "Ġtested": 7832,
      "Ġarrive": 7833,
      "Ġcritics": 7834,
      "Ġepic": 7835,
      "Ġrecognized": 7836,
      "ĠLeft": 7837,
      "Ġjudge": 7838,
      "Ġapplications": 7839,
      "Ġannoyed": 7840,
      "Ġgrace": 7841,
      "Ġgraphic": 7842,
      "Ġhistoric": 7843,
      "Ġheavily": 7844,
      "Ġbelieves": 7845,
      "Ġfootnotes": 7846,
      "ĠMinutes": 7847,
      "Ġpulled": 7848,
      "Ġoccasional": 7849,
      "Ġrevol": 7850,
      "ĠWHO": 7851,
      "ennium": 7852,
      "Another": 7853,
      "ĠSocialist": 7854,
      "Ġadventures": 7855,
      "!!!!!!!!!!!!!!!!": 7856,
      "Ġsquee": 7857,
      "Ġleaks": 7858,
      "Ġwooden": 7859,
      "Ġmurder": 7860,
      "Ġnationals": 7861,
      "Ġconvenience": 7862,
      "Ġconvenient": 7863,
      "ĠDisney": 7864,
      "Ġoccurred": 7865,
      "Ġupdated": 7866,
      "ĠControl": 7867,
      "Ġbelongs": 7868,
      "Ġassociated": 7869,
      "Ġguests": 7870,
      "Ġvirtually": 7871,
      "Ġagriculture": 7872,
      "Ġcontemporary": 7873,
      "Ġstrictly": 7874,
      "ĠCentral": 7875,
      "Ġphrases": 7876,
      "Ġrhythm": 7877,
      "Ġfarmers": 7878,
      "Ġdestroyed": 7879,
      "Ġslip": 7880,
      "Ġboost": 7881,
      "ĠSyria": 7882,
      "ĠLiberal": 7883,
      "Ġmaximum": 7884,
      "Ġyellow": 7885,
      "ĠBuend": 7886,
      "Ġtremendous": 7887,
      "ĠTIME": 7888,
      "ĠKNOW": 7889,
      "Ġamateur": 7890,
      "Ġcoalition": 7891,
      "ĠScarpetta": 7892,
      "Ġbookstore": 7893,
      "ĠHelsinki": 7894,
      "35": 7895,
      "Ad": 7896,
      "FR": 7897,
      "Fi": 7898,
      "Pl": 7899,
      "Read": 7900,
      "TM": 7901,
      "TO": 7902,
      "Two": 7903,
      "Today": 7904,
      "aus": 7905,
      "after": 7906,
      "comm": 7907,
      "commend": 7908,
      "fiction": 7909,
      "have": 7910,
      "jud": 7911,
      "ker": 7912,
      "low": 7913,
      "long": 7914,
      "mon": 7915,
      "ober": 7916,
      "po": 7917,
      "some": 7918,
      "ville": 7919,
      "word": 7920,
      "ye": 7921,
      "zing": 7922,
      "zed": 7923,
      "Ġtie": 7924,
      "Ġtag": 7925,
      "Ġthumbs": 7926,
      "reens": 7927,
      "Ġwars": 7928,
      "Ġwond": 7929,
      "Ġbits": 7930,
      "Ġbomb": 7931,
      "Ġfake": 7932,
      "enstein": 7933,
      "Ġmicro": 7934,
      "Ġpit": 7935,
      "Ġpity": 7936,
      "Ġpays": 7937,
      "Ġtoss": 7938,
      "esc": 7939,
      "asm": 7940,
      "Ġlit": 7941,
      "omy": 7942,
      "omer": 7943,
      "Ġnine": 7944,
      "vet": 7945,
      "Ġgang": 7946,
      "Ġgels": 7947,
      "otes": 7948,
      "Ġearned": 7949,
      "Ġbeads": 7950,
      "Though": 7951,
      "ada": 7952,
      "sets": 7953,
      "etooth": 7954,
      "iments": 7955,
      "there": 7956,
      "ĠCoh": 7957,
      "ĠCode": 7958,
      "ĠCOULD": 7959,
      "iform": 7960,
      "ĠSam": 7961,
      "ĠSur": 7962,
      "ĠSun": 7963,
      "ĠSEE": 7964,
      "ĠPoor": 7965,
      "ĠPaul": 7966,
      "ĠBL": 7967,
      "Ġsun": 7968,
      "ista": 7969,
      "istant": 7970,
      "ateful": 7971,
      "estyle": 7972,
      "ĠWish": 7973,
      "umber": 7974,
      "ĠDou": 7975,
      "ĠDID": 7976,
      "ĠDolly": 7977,
      "arded": 7978,
      "Ġoutlet": 7979,
      "ĠFort": 7980,
      "Ġamusing": 7981,
      "ĠNees": 7982,
      "ĠLong": 7983,
      "ĠLast": 7984,
      "ĠLew": 7985,
      "ĠLuck": 7986,
      "Ġtimely": 7987,
      "ĠRules": 7988,
      "ĠReturn": 7989,
      "Ġadap": 7990,
      "ĠOUT": 7991,
      "Ġune": 7992,
      "Ġunex": 7993,
      "Ġcodec": 7994,
      "Ġbuck": 7995,
      "ĠUnder": 7996,
      "ĠJo": 7997,
      "Ġclimate": 7998,
      "Ġoverly": 7999,
      "Ġresort": 8000,
      "aching": 8001,
      "odile": 8002,
      "ndering": 8003,
      "ensus": 8004,
      "Ġdesired": 8005,
      "ĠUnlike": 8006,
      "ĠKate": 8007,
      "ubth": 8008,
      "neg": 8009,
      "Ġspring": 8010,
      "ĠVir": 8011,
      "ĠVersion": 8012,
      "Ġgrasp": 8013,
      "ĠAmish": 8014,
      "Ġnevertheless": 8015,
      "weet": 8016,
      "velopment": 8017,
      "cont": 8018,
      "Ġtransactions": 8019,
      "Ġpersons": 8020,
      "beat": 8021,
      "Ġglue": 8022,
      "Ġglitches": 8023,
      "Ġbrut": 8024,
      "Ġformal": 8025,
      "Ġpolitically": 8026,
      "Ġchildhood": 8027,
      "Ġhorse": 8028,
      "Ġsched": 8029,
      "Ġgenerated": 8030,
      "Ġtopical": 8031,
      "Ġstanding": 8032,
      "Ġ1994": 8033,
      "Ġspeculation": 8034,
      "Ġspeculative": 8035,
      "Ġstyles": 8036,
      "ORING": 8037,
      "Ġadmire": 8038,
      "Ġpackaged": 8039,
      "Ġplane": 8040,
      "Ġbeds": 8041,
      "Ġstronger": 8042,
      "ĠConstit": 8043,
      "Ġpicks": 8044,
      "Ġperformed": 8045,
      "Ġurgency": 8046,
      "Ġresolutions": 8047,
      "Ġmarvel": 8048,
      "Ġportable": 8049,
      "Ġcausing": 8050,
      "Ġchecking": 8051,
      "Ġhonourable": 8052,
      "Ġcontributions": 8053,
      "Ġkilling": 8054,
      "Ġindustries": 8055,
      "Ġorganised": 8056,
      "Ġfavourite": 8057,
      "Ġappropriations": 8058,
      "Ġsummary": 8059,
      "Ġcomplaints": 8060,
      "Ġtransparent": 8061,
      "ĠSTAR": 8062,
      "****": 8063,
      "ennifer": 8064,
      "Ġlayout": 8065,
      "Ġappearance": 8066,
      "Ġemphasise": 8067,
      "Ġnetworks": 8068,
      "ĠMadonna": 8069,
      "Ġflaws": 8070,
      "ĠMusiq": 8071,
      "ĠCharter": 8072,
      "Ġclips": 8073,
      "$$$$": 8074,
      "arthy": 8075,
      "Ġparagraphs": 8076,
      "Ġteenager": 8077,
      "Ġmental": 8078,
      "Ġrejected": 8079,
      "ONEY": 8080,
      "Ġconvincing": 8081,
      "Ġmethods": 8082,
      "Ġpsychological": 8083,
      "Ġdetermine": 8084,
      "Ġquotes": 8085,
      "Ġinspiration": 8086,
      "ĠASVAB": 8087,
      "ĠMonetary": 8088,
      "Ġ1970": 8089,
      "Ġconsultation": 8090,
      "ĠATI": 8091,
      "Ġdrugs": 8092,
      "Ġwashed": 8093,
      "Ġtackle": 8094,
      "Ġsynth": 8095,
      "Ġinspection": 8096,
      "Ġfifth": 8097,
      "Ġimmigrants": 8098,
      "Ġfacil": 8099,
      "ĠMarket": 8100,
      "Ġcycle": 8101,
      "ocolate": 8102,
      "Ġpromptly": 8103,
      "Ġsenior": 8104,
      "Ġreliable": 8105,
      "ĠHalloween": 8106,
      "Ġcontradict": 8107,
      "Ġutterly": 8108,
      "Ġintriguing": 8109,
      "ĠMegan": 8110,
      "Ġmysterious": 8111,
      "ĠWilderness": 8112,
      "ĠChildren": 8113,
      "Ġpropag": 8114,
      "Ġmedicine": 8115,
      "Ġcandidate": 8116,
      "ĠiPod": 8117,
      "Subject": 8118,
      "Ġvessels": 8119,
      "ĠLangen": 8120,
      "Ġglimpse": 8121,
      "Ġingredients": 8122,
      "Ġsuperficial": 8123,
      "Ġequipment": 8124,
      "Ã³n": 8125,
      "Ġstorage": 8126,
      "ifornia": 8127,
      "ĠNeeson": 8128,
      "07": 8129,
      "17": 8130,
      "18": 8131,
      "Are": 8132,
      "Cons": 8133,
      "DER": 8134,
      "EL": 8135,
      "Mar": 8136,
      "Or": 8137,
      "Reg": 8138,
      "TW": 8139,
      "UP": 8140,
      "VED": 8141,
      "Would": 8142,
      "Will": 8143,
      "bi": 8144,
      "case": 8145,
      "cany": 8146,
      "daughter": 8147,
      "fall": 8148,
      "fers": 8149,
      "lam": 8150,
      "mans": 8151,
      "oving": 8152,
      "rating": 8153,
      "she": 8154,
      "Ġice": 8155,
      "Ġtv": 8156,
      "Ġtheories": 8157,
      "Ġwake": 8158,
      "Ġwider": 8159,
      "Ġwarned": 8160,
      "Ġske": 8161,
      "Ġsouth": 8162,
      "Ġbreed": 8163,
      "itors": 8164,
      "ati": 8165,
      "Ġcrow": 8166,
      "Ġfly": 8167,
      "Ġfederal": 8168,
      "enced": 8169,
      "Ġmild": 8170,
      "Ġpants": 8171,
      "Ġtow": 8172,
      "inger": 8173,
      "Ġharsh": 8174,
      "Ġhockey": 8175,
      "eds": 8176,
      "ĠIF": 8177,
      "anes": 8178,
      "Ġdin": 8179,
      "Ġinput": 8180,
      "Ġreread": 8181,
      "Ġreward": 8182,
      "ione": 8183,
      "Ġnic": 8184,
      "Ġnud": 8185,
      "Ġgig": 8186,
      "Ġgained": 8187,
      "str": 8188,
      "uter": 8189,
      "entious": 8190,
      "Then": 8191,
      "adow": 8192,
      "Ġya": 8193,
      "Ġstinks": 8194,
      "Ġstunning": 8195,
      "ceived": 8196,
      "Ġweather": 8197,
      "Ġweaken": 8198,
      "ura": 8199,
      "urate": 8200,
      "ĠCA": 8201,
      "ĠCF": 8202,
      "ĠCraw": 8203,
      "ĠCulture": 8204,
      "ĠCreative": 8205,
      "rive": 8206,
      "ĠAM": 8207,
      "ĠAle": 8208,
      "ĠAdd": 8209,
      "ĠArab": 8210,
      "ĠApril": 8211,
      "Ġproph": 8212,
      "usted": 8213,
      "Ġshr": 8214,
      "Ġshake": 8215,
      "Ġshell": 8216,
      "ĠMer": 8217,
      "Ġseg": 8218,
      "ilm": 8219,
      "Ġexha": 8220,
      "ĠPH": 8221,
      "Ġdeals": 8222,
      "ĠEmp": 8223,
      "ĠBill": 8224,
      "Ġsum": 8225,
      "Ġsung": 8226,
      "anta": 8227,
      "Ġreadable": 8228,
      "ĠWog": 8229,
      "ĠWERE": 8230,
      "ĠHi": 8231,
      "ĠHaving": 8232,
      "ĠHOW": 8233,
      "ĠTim": 8234,
      "ĠDig": 8235,
      "Ġvig": 8236,
      "Ġvague": 8237,
      "Ġjustified": 8238,
      "ounding": 8239,
      "astered": 8240,
      "ending": 8241,
      "ĠGen": 8242,
      "ĠGra": 8243,
      "Ġtrite": 8244,
      "Ġthereby": 8245,
      "Ġloving": 8246,
      "Ġlogic": 8247,
      "ĠLee": 8248,
      "aga": 8249,
      "agan": 8250,
      "ĠRad": 8251,
      "ĠRob": 8252,
      "ourg": 8253,
      "ĠOscar": 8254,
      "Ġrecover": 8255,
      "Ġuniform": 8256,
      "abling": 8257,
      "ĠJud": 8258,
      "ĠJUST": 8259,
      "Ġpreview": 8260,
      "perts": 8261,
      "Ġ28": 8262,
      "Ġoverlook": 8263,
      "Ġreserv": 8264,
      "ormal": 8265,
      "Ġarm": 8266,
      "Ġperpet": 8267,
      "Ġunderm": 8268,
      "Ġunderne": 8269,
      "grass": 8270,
      "Ġtears": 8271,
      "aze": 8272,
      "ĠKar": 8273,
      "ĠThink": 8274,
      "Ġrolling": 8275,
      "Ġgrateful": 8276,
      "Ġfinance": 8277,
      "Ġseemingly": 8278,
      "Ġpurpos": 8279,
      "Ġauthentic": 8280,
      "Ġentry": 8281,
      "appropri": 8282,
      "Ġholly": 8283,
      "Ġordinary": 8284,
      "Ġinteraction": 8285,
      "Ġhardware": 8286,
      "Ġclassical": 8287,
      "Ġtransnational": 8288,
      "ugs": 8289,
      "Ġmini": 8290,
      "Ġretain": 8291,
      "Ġunderstandable": 8292,
      "Ġlegally": 8293,
      "Ġideal": 8294,
      "Ġhandles": 8295,
      "Ġedited": 8296,
      "Ġeditions": 8297,
      "Ġletting": 8298,
      "Ġfranch": 8299,
      "Ġhorribly": 8300,
      "Ġdefinitive": 8301,
      "Ġ1950": 8302,
      "Ġscenario": 8303,
      "Ġgeneric": 8304,
      "Ġbitter": 8305,
      "Ġcompetence": 8306,
      "Ġ1995": 8307,
      "Ġcreatures": 8308,
      "Ġappealing": 8309,
      "Ġsolve": 8310,
      "Ġsolved": 8311,
      "OUT": 8312,
      "EASE": 8313,
      "ĠArthur": 8314,
      "Ġdistinct": 8315,
      "Ġbrown": 8316,
      "Ġfallen": 8317,
      "Ġplanet": 8318,
      "ĠConvention": 8319,
      "Ġenvironmentally": 8320,
      "Ġ75": 8321,
      "ĠBeing": 8322,
      "Ġdiabetes": 8323,
      "Ġcitizen": 8324,
      "Ġtaxp": 8325,
      "THING": 8326,
      "Ġportion": 8327,
      "anned": 8328,
      "Ġtesting": 8329,
      "Ġphotograph": 8330,
      "ronics": 8331,
      "Ġpreparing": 8332,
      "ARD": 8333,
      "Ġfireman": 8334,
      "ĠZen": 8335,
      "arris": 8336,
      "Ġlaughable": 8337,
      "ĠMaria": 8338,
      "ĠWithout": 8339,
      "Ġfeaturing": 8340,
      "Ġbudgetary": 8341,
      "Ġsuffer": 8342,
      "Ġsuffering": 8343,
      "Ġhumorous": 8344,
      "Ġcastle": 8345,
      "Ġemotionally": 8346,
      "Ġillustrated": 8347,
      "Ġmedical": 8348,
      "Ġconvince": 8349,
      "Ġweakness": 8350,
      "Ġimmediate": 8351,
      "Ġcollector": 8352,
      "Ġsequence": 8353,
      "Ġrevision": 8354,
      "Ġdestruction": 8355,
      "Ġremaining": 8356,
      "Ġbarri": 8357,
      "Ġaimed": 8358,
      "Ġtends": 8359,
      "Ġspoke": 8360,
      "Ġsignificance": 8361,
      "Ġuncertain": 8362,
      "Ġsuspenseful": 8363,
      "Ġmerit": 8364,
      "Ġincreasingly": 8365,
      "Ġintelligence": 8366,
      "Ġnarrator": 8367,
      "Ġthrilled": 8368,
      "Ġclip": 8369,
      "ĠInto": 8370,
      "ĠIsraeli": 8371,
      "Ġmurders": 8372,
      "ĠCompany": 8373,
      "ĠJulia": 8374,
      "ĠWORK": 8375,
      "ĠRepublic": 8376,
      "Ġobligation": 8377,
      "ĠRecommend": 8378,
      "Ġislands": 8379,
      "Ġgripping": 8380,
      "Ġschemes": 8381,
      "Ġfingers": 8382,
      "ĠAgain": 8383,
      "Ġtechnique": 8384,
      "boys": 8385,
      "ĠParis": 8386,
      "Ġclimax": 8387,
      "Ġcontempl": 8388,
      "Ġinvestigation": 8389,
      "Okay": 8390,
      "ĠNorth": 8391,
      "engen": 8392,
      "Ġethnic": 8393,
      "Ġvampires": 8394,
      "Ġbugs": 8395,
      "ĠMcCarthy": 8396,
      "Ġseverely": 8397,
      "ĠTuscany": 8398,
      "ĠDiscworld": 8399,
      "ĠOprah": 8400,
      "Ġprosperity": 8401,
      "Ġabandoned": 8402,
      "ĠBarnier": 8403,
      "Despite": 8404,
      "ĠHonestly": 8405,
      "ĠOctober": 8406,
      "Thirdly": 8407,
      "Ġunfortunate": 8408,
      "Ġcoffee": 8409,
      "ĠCohesion": 8410,
      "Ġcodecision": 8411,
      "ĠWogau": 8412,
      "Ġunderneath": 8413,
      "Ġpurposes": 8414,
      "Ġhollywood": 8415,
      "Ġfranchise": 8416,
      ".(": 8417,
      "55": 8418,
      "Big": 8419,
      "Com": 8420,
      "ELL": 8421,
      "HING": 8422,
      "Int": 8423,
      "NOT": 8424,
      "OK": 8425,
      "Rep": 8426,
      "TING": 8427,
      "Was": 8428,
      "Wow": 8429,
      "Your": 8430,
      "ba": 8431,
      "based": 8432,
      "cus": 8433,
      "cover": 8434,
      "date": 8435,
      "eep": 8436,
      "from": 8437,
      "gence": 8438,
      "hile": 8439,
      "harm": 8440,
      "ipp": 8441,
      "ique": 8442,
      "lers": 8443,
      "law": 8444,
      "mother": 8445,
      "makers": 8446,
      "nz": 8447,
      "rint": 8448,
      "rical": 8449,
      "ship": 8450,
      "uven": 8451,
      "yy": 8452,
      "Ã¼": 8453,
      "Ġ+": 8454,
      "Ġwis": 8455,
      "Ġwarn": 8456,
      "erves": 8457,
      "Ġsized": 8458,
      "Ġbarg": 8459,
      "itative": 8460,
      "itute": 8461,
      "Ġmap": 8462,
      "Ġmouse": 8463,
      "ora": 8464,
      "orig": 8465,
      "Ġpile": 8466,
      "Ġdump": 8467,
      "Ġles": 8468,
      "Ġlunch": 8469,
      "Ġnav": 8470,
      "Ġgem": 8471,
      "Ġgiant": 8472,
      "although": 8473,
      "ĠeM": 8474,
      "Ġbears": 8475,
      "uten": 8476,
      "ctional": 8477,
      "rock": 8478,
      "seus": 8479,
      "ooks": 8480,
      "Ġwasnt": 8481,
      "Ġweigh": 8482,
      "Ġanth": 8483,
      "ĠCOM": 8484,
      "ĠAW": 8485,
      "ĠSD": 8486,
      "ĠSat": 8487,
      "ĠSim": 8488,
      "Ġproven": 8489,
      "Ġprosec": 8490,
      "Ġshred": 8491,
      "raint": 8492,
      "ĠMal": 8493,
      "ĠMake": 8494,
      "ĠMade": 8495,
      "ĠMONEY": 8496,
      "ilst": 8497,
      "ulary": 8498,
      "ulates": 8499,
      "Ġneck": 8500,
      "Ġchristmas": 8501,
      "ĠEli": 8502,
      "ĠEmma": 8503,
      "Ġworried": 8504,
      "ĠBand": 8505,
      "ĠBank": 8506,
      "ĠBORING": 8507,
      "Ġjamm": 8508,
      "usic": 8509,
      "eline": 8510,
      "roma": 8511,
      "ĠWal": 8512,
      "ĠHarry": 8513,
      "umer": 8514,
      "ĠTri": 8515,
      "ĠTerry": 8516,
      "ĠDi": 8517,
      "ĠDog": 8518,
      "osen": 8519,
      "Ġheck": 8520,
      "Ġtimber": 8521,
      "ĠFP": 8522,
      "ĠFore": 8523,
      "ĠFree": 8524,
      "ĠFIN": 8525,
      "ĠFarm": 8526,
      "Ġnobody": 8527,
      "ĠGot": 8528,
      "ĠGeneral": 8529,
      "ĠNathan": 8530,
      "Ġloaded": 8531,
      "ĠLA": 8532,
      "ĠLots": 8533,
      "Ġdise": 8534,
      "ago": 8535,
      "ĠRice": 8536,
      "ĠRab": 8537,
      "intage": 8538,
      "Ġunw": 8539,
      "ĠEuropeans": 8540,
      "abe": 8541,
      "abulary": 8542,
      "placed": 8543,
      "ĠJennifer": 8544,
      "Ġprime": 8545,
      "Ġscra": 8546,
      "Ġstorytell": 8547,
      "Ġdonors": 8548,
      "Ġregime": 8549,
      "Ġinclus": 8550,
      "Ġendless": 8551,
      "Ġfilter": 8552,
      "ĠVice": 8553,
      "Ġawhile": 8554,
      "Ġcommand": 8555,
      "Ġrack": 8556,
      "Ġentre": 8557,
      "Ġwhereas": 8558,
      "Ġindex": 8559,
      "ĠTHAN": 8560,
      "ĠTHERE": 8561,
      "cedure": 8562,
      "Ġmature": 8563,
      "Who": 8564,
      "Ġvers": 8565,
      "Ġlasting": 8566,
      "Ġrefers": 8567,
      "ugged": 8568,
      "Ġpersu": 8569,
      "Ġminimal": 8570,
      "Ġcompleted": 8571,
      "Ġchecks": 8572,
      "Ġevol": 8573,
      "Ġdetract": 8574,
      "Ġviewers": 8575,
      "RED": 8576,
      "Ġhoriz": 8577,
      "ĠAsia": 8578,
      "Ġprinters": 8579,
      "Ġpretentious": 8580,
      "Ġreasonably": 8581,
      "Ġreturns": 8582,
      "Ġabsor": 8583,
      "Ġheads": 8584,
      "Ġ2005": 8585,
      "Ġcouples": 8586,
      "Ġsolitude": 8587,
      "Ġcovering": 8588,
      "Ġinitially": 8589,
      "Ġcrappy": 8590,
      "Ġamended": 8591,
      "ĠConf": 8592,
      "Ġpicking": 8593,
      "ĠBear": 8594,
      "Ġdiam": 8595,
      "ĠFranc": 8596,
      "Ġparad": 8597,
      "Ġoccup": 8598,
      "Ġexceptionally": 8599,
      "Ġlimits": 8600,
      "Ġmanufacturing": 8601,
      "ĠReform": 8602,
      "ĠAtl": 8603,
      "Ġsupposedly": 8604,
      "Ġrecognised": 8605,
      "ĠSeattle": 8606,
      "Ġjudges": 8607,
      "Ġapplicant": 8608,
      "Ġsuffered": 8609,
      "Ġbench": 8610,
      "Ġvolumes": 8611,
      "Ġappreciated": 8612,
      "ĠPortugal": 8613,
      "Ġdelivers": 8614,
      "Ġvocal": 8615,
      "ĠInstance": 8616,
      "Ġslightest": 8617,
      "sequently": 8618,
      "Ġidentical": 8619,
      "Ġadvertising": 8620,
      "Ġaffects": 8621,
      "Ġbootleg": 8622,
      "IGIN": 8623,
      "Ġexplaining": 8624,
      "ĠHAD": 8625,
      "Ġhooks": 8626,
      "ĠPatric": 8627,
      "writer": 8628,
      "ersonally": 8629,
      "ĠGuide": 8630,
      "Ġpuzzles": 8631,
      "ĠPalaci": 8632,
      "Ġprotecting": 8633,
      "Ġdegrees": 8634,
      "Ġremarks": 8635,
      "ĠPowerbook": 8636,
      "Ġvisuals": 8637,
      "Ġportrayal": 8638,
      "Ġsurvive": 8639,
      "Ġmechanisms": 8640,
      "Ġqualified": 8641,
      "ĠSheri": 8642,
      "Ġdistributed": 8643,
      "Ġimmigration": 8644,
      "ĠAfrican": 8645,
      "Ġbehavior": 8646,
      "ĠSimpleTech": 8647,
      "Ã¶r": 8648,
      "Ġemergency": 8649,
      "ĠYears": 8650,
      "Ġobservations": 8651,
      "Ġroutine": 8652,
      "Ġmirror": 8653,
      "Ġbegun": 8654,
      "kelter": 8655,
      "ĠOdyssey": 8656,
      "Ġspectacular": 8657,
      "ĠBarbie": 8658,
      "Ġcrafted": 8659,
      "Ġsatisfaction": 8660,
      "Ġprotagonist": 8661,
      "Ġnightmare": 8662,
      "Ġaltogether": 8663,
      "ĠHopefully": 8664,
      "Ġsubsequent": 8665,
      "Ġwedding": 8666,
      "Ġtribute": 8667,
      "Ġexcluded": 8668,
      "ĠBowie": 8669,
      "ĠVictorian": 8670,
      "Ġadvisers": 8671,
      "ĠArgento": 8672,
      "Ġwithdraw": 8673,
      "ĠBalkans": 8674,
      "ĠRaider": 8675,
      "ĠVenus": 8676,
      "Ġobscure": 8677,
      "ĠHopkins": 8678,
      "Ġoverwhelming": 8679,
      "Ġsubtitles": 8680,
      "ĠBETTER": 8681,
      "Ġimplications": 8682,
      "Ġbattles": 8683,
      "ĠCrawford": 8684,
      "ĠPalacio": 8685,
      "22": 8686,
      "ALL": 8687,
      "Bad": 8688,
      "DO": 8689,
      "DP": 8690,
      "During": 8691,
      "En": 8692,
      "Fr": 8693,
      "Hel": 8694,
      "IM": 8695,
      "IES": 8696,
      "Jones": 8697,
      "NE": 8698,
      "NING": 8699,
      "OIN": 8700,
      "aa": 8701,
      "bro": 8702,
      "cracy": 8703,
      "country": 8704,
      "dance": 8705,
      "litt": 8706,
      "mind": 8707,
      "pensive": 8708,
      "ram": 8709,
      "run": 8710,
      "school": 8711,
      "ument": 8712,
      "za": 8713,
      "zil": 8714,
      "Ġ..": 8715,
      "reak": 8716,
      "Ġther": 8717,
      "Ġwo": 8718,
      "erball": 8719,
      "Ġbars": 8720,
      "Ġbank": 8721,
      "iti": 8722,
      "itical": 8723,
      "Ġcab": 8724,
      "Ġfi": 8725,
      "Ġmakers": 8726,
      "Ġpapers": 8727,
      "Ġpiano": 8728,
      "Ġinhab": 8729,
      "Ġinacc": 8730,
      "ari": 8731,
      "ashing": 8732,
      "Ġloo": 8733,
      "Ġren": 8734,
      "Ġnarrow": 8735,
      "othing": 8736,
      "Ġeager": 8737,
      "entist": 8738,
      "Thanks": 8739,
      "verning": 8740,
      "etition": 8741,
      "Ġstations": 8742,
      "Ġhall": 8743,
      "uris": 8744,
      "ĠCL": 8745,
      "rix": 8746,
      "terbury": 8747,
      "irthing": 8748,
      "ĠSuch": 8749,
      "ĠSkelter": 8750,
      "Ġshirt": 8751,
      "Ġshoe": 8752,
      "Ġshorter": 8753,
      "ĠMoon": 8754,
      "ĠMothman": 8755,
      "Ġconj": 8756,
      "Ġconvey": 8757,
      "Ġliber": 8758,
      "Ġsoap": 8759,
      "ckhe": 8760,
      "Ġneat": 8761,
      "Ġneph": 8762,
      "ĠPet": 8763,
      "ĠPur": 8764,
      "ĠPri": 8765,
      "ĠPET": 8766,
      "ĠPPE": 8767,
      "Ġalbeit": 8768,
      "Ġchip": 8769,
      "ĠExt": 8770,
      "ĠBD": 8771,
      "ĠBO": 8772,
      "ĠBR": 8773,
      "ĠBo": 8774,
      "Ġsums": 8775,
      "Ġjawbone": 8776,
      "Ġdozen": 8777,
      "istory": 8778,
      "istics": 8779,
      "ante": 8780,
      "Ġoral": 8781,
      "ops": 8782,
      "ĠWed": 8783,
      "ĠWAR": 8784,
      "ĠWOULD": 8785,
      "ĠHu": 8786,
      "ĠHand": 8787,
      "ĠTre": 8788,
      "ĠDutch": 8789,
      "Ġplat": 8790,
      "Ġheaven": 8791,
      "Ġjustify": 8792,
      "astically": 8793,
      "aping": 8794,
      "ĠFee": 8795,
      "ĠFinn": 8796,
      "Ġgoodness": 8797,
      "ĠNet": 8798,
      "ĠNap": 8799,
      "ĠNext": 8800,
      "ĠLib": 8801,
      "Ġdisadv": 8802,
      "agement": 8803,
      "ĠRos": 8804,
      "Ġquar": 8805,
      "Ġunst": 8806,
      "Ġmanip": 8807,
      "plic": 8808,
      "Ġcoherent": 8809,
      "issions": 8810,
      "ĠUFO": 8811,
      "ĠJoe": 8812,
      "ĠJeff": 8813,
      "Ġpreced": 8814,
      "Ġprehist": 8815,
      "Ġprejud": 8816,
      "Ġprison": 8817,
      "Ġresist": 8818,
      "Ġresident": 8819,
      "osex": 8820,
      "aches": 8821,
      "izations": 8822,
      "Ġeverytime": 8823,
      "Ġipod": 8824,
      "Ġincom": 8825,
      "Ġincest": 8826,
      "acie": 8827,
      "Ġendorse": 8828,
      "azlitt": 8829,
      "ipher": 8830,
      "arks": 8831,
      "ĠVol": 8832,
      "ĠThought": 8833,
      "Ġstruck": 8834,
      "oca": 8835,
      "Ġtrave": 8836,
      "Ġconsensus": 8837,
      "ĠPresidents": 8838,
      "apping": 8839,
      "Ġsetup": 8840,
      "Ġsounding": 8841,
      "Ġextrem": 8842,
      "Ġopens": 8843,
      "Ġgameplay": 8844,
      "Ġtranslated": 8845,
      "Ġrefused": 8846,
      "luding": 8847,
      "Ġ500": 8848,
      "Ġcomplement": 8849,
      "Ġsym": 8850,
      "cript": 8851,
      "ĠHeart": 8852,
      "tedly": 8853,
      "Ġformed": 8854,
      "ĠAlbum": 8855,
      "ĠTHEM": 8856,
      "Ġdefinite": 8857,
      "Ġslot": 8858,
      "Ġ194": 8859,
      "Ġpretend": 8860,
      "print": 8861,
      "Ġcontinent": 8862,
      "Ġholder": 8863,
      "OUS": 8864,
      "ĠProcedure": 8865,
      "Ġdrink": 8866,
      "Ġfinanced": 8867,
      "eltic": 8868,
      "Ġpublication": 8869,
      "ottom": 8870,
      "Ġrespects": 8871,
      "olds": 8872,
      "Ġentertained": 8873,
      "Ġdiary": 8874,
      "Ġparan": 8875,
      "Ġbusy": 8876,
      "Ġprofit": 8877,
      "Ġguessing": 8878,
      "Ġsurprises": 8879,
      "forward": 8880,
      "Ġdevices": 8881,
      "Ġstayed": 8882,
      "Ġcombine": 8883,
      "Ġ1980": 8884,
      "Ġfiremen": 8885,
      "ĠDevelopment": 8886,
      "ĠWithin": 8887,
      "Ġstrap": 8888,
      "Ġsnap": 8889,
      "Ġdrawings": 8890,
      "ĠPearl": 8891,
      "Ġdogs": 8892,
      "Ġappreciation": 8893,
      "Ġcasting": 8894,
      "OWN": 8895,
      "ĠExcellent": 8896,
      "Ġdeadline": 8897,
      "Ġpeaceful": 8898,
      "Ġdeserved": 8899,
      "Ġpulling": 8900,
      "Ġwarmer": 8901,
      "Ġmeaningful": 8902,
      "Ġtraveling": 8903,
      "Ġpreventing": 8904,
      "Ġ:(": 8905,
      "Ġconsiders": 8906,
      "Ġbenefits": 8907,
      "Ġpatience": 8908,
      "ĠReading": 8909,
      "Ġfreak": 8910,
      "Ġrecycled": 8911,
      "Ġparticipate": 8912,
      "Ġspoken": 8913,
      "Ġpleasant": 8914,
      "ĠInternal": 8915,
      "Ġsubsid": 8916,
      "prene": 8917,
      "Ġminorities": 8918,
      "Ġfrag": 8919,
      "Ġsquare": 8920,
      "Ġindependence": 8921,
      "Ġprimary": 8922,
      "Ġjumps": 8923,
      "Ġfeeding": 8924,
      "Ġconcentration": 8925,
      "urchased": 8926,
      "ĠEnjoy": 8927,
      "Ġdimensional": 8928,
      "Ġearthqu": 8929,
      "Ġmassive": 8930,
      "Ġpermit": 8931,
      "Ġundertaking": 8932,
      "Ġultimate": 8933,
      "Ġexclusively": 8934,
      "Ġdisplayed": 8935,
      "ĠGreek": 8936,
      "Ġadaptation": 8937,
      "Ġdeclared": 8938,
      "Ġscrews": 8939,
      "Ġportrayed": 8940,
      "Ġgifts": 8941,
      "Ġceiling": 8942,
      "Ġmechanism": 8943,
      "ĠABOUT": 8944,
      "Ġcliche": 8945,
      "Ġincorporate": 8946,
      "Ġincorporated": 8947,
      "Ġdubbed": 8948,
      "Ġunusable": 8949,
      "Ġassumed": 8950,
      "Ġsolely": 8951,
      "ĠDirective": 8952,
      "Ġdistribution": 8953,
      "Ġchannels": 8954,
      "ĠWWI": 8955,
      "Ġdismant": 8956,
      "ĠEconomics": 8957,
      "Ġsplit": 8958,
      "Ġbureaucr": 8959,
      "Ġbureaucracy": 8960,
      "ĠORIGIN": 8961,
      "ĠOdysseus": 8962,
      "ZZZZZZZZ": 8963,
      "Ġaccompan": 8964,
      "Ġaccompany": 8965,
      "Ġtheatre": 8966,
      "Ġescape": 8967,
      "Ġdedicated": 8968,
      "Ġdelegation": 8969,
      "ĠCheck": 8970,
      "Ġcondemn": 8971,
      "ĠWayne": 8972,
      "Ġjudgement": 8973,
      "Ġignorant": 8974,
      "Ġaccomplish": 8975,
      "Ġsafeguard": 8976,
      "ĠFlorenz": 8977,
      "ĠAMAZON": 8978,
      "Ġlogical": 8979,
      "Ġexplosions": 8980,
      "Ġenforcement": 8981,
      "oubtedly": 8982,
      "ĠCalifornia": 8983,
      "Ġcomponents": 8984,
      "Ġinfrastructure": 8985,
      "ĠPalestinian": 8986,
      "Ġdisapointed": 8987,
      "Moreover": 8988,
      "Ġinadequate": 8989,
      "Ġfrankly": 8990,
      "Ġextraordinary": 8991,
      "ĠBuendia": 8992,
      "ĠLewis": 8993,
      "Ġpropaganda": 8994,
      "Ġcrowd": 8995,
      "Ġnudity": 8996,
      "appropriate": 8997,
      "ĠFPÃĸ": 8998,
      "Ġentreprene": 8999,
      "ĠPatricia": 9000,
      "ckheer": 9001,
      "Ġnephew": 9002,
      "ĠFeehan": 9003,
      "01": 9004,
      "Ag": 9005,
      "FF": 9006,
      "Foundation": 9007,
      "GB": 9008,
      "Im": 9009,
      "Rec": 9010,
      "SIC": 9011,
      "Special": 9012,
      "UD": 9013,
      "Yet": 9014,
      "bu": 9015,
      "bish": 9016,
      "buster": 9017,
      "ele": 9018,
      "father": 9019,
      "ham": 9020,
      "kay": 9021,
      "kind": 9022,
      "lings": 9023,
      "ma": 9024,
      "mart": 9025,
      "table": 9026,
      "vation": 9027,
      "xic": 9028,
      "zab": 9029,
      "Ġ~": 9030,
      "Ġvel": 9031,
      "Ġtile": 9032,
      "Ġtorn": 9033,
      "Ġtips": 9034,
      "inch": 9035,
      "inth": 9036,
      "onn": 9037,
      "Ġwat": 9038,
      "Ġwise": 9039,
      "Ġwides": 9040,
      "Ġwaters": 9041,
      "Ġsoo": 9042,
      "Ġsought": 9043,
      "itly": 9044,
      "Ġoh": 9045,
      "atical": 9046,
      "Ġcere": 9047,
      "Ġcert": 9048,
      "Ġmas": 9049,
      "orial": 9050,
      "Ġpor": 9051,
      "Ġpaced": 9052,
      "Ġporn": 9053,
      "esis": 9054,
      "Ġhers": 9055,
      "Ġinsec": 9056,
      "Ġinequ": 9057,
      "asion": 9058,
      "Ġisnt": 9059,
      "lean": 9060,
      "leans": 9061,
      "also": 9062,
      "stick": 9063,
      "Those": 9064,
      "etween": 9065,
      "etime": 9066,
      "ayers": 9067,
      "imer": 9068,
      "Ġhack": 9069,
      "uristic": 9070,
      "ĠCast": 9071,
      "ĠCamp": 9072,
      "ĠCarl": 9073,
      "ĠCAP": 9074,
      "ĠCatherine": 9075,
      "rior": 9076,
      "Ġasks": 9077,
      "Ġaspir": 9078,
      "ifest": 9079,
      "ĠSir": 9080,
      "ĠSME": 9081,
      "Ġbutter": 9082,
      "ĠMakes": 9083,
      "emed": 9084,
      "Ġexpend": 9085,
      "Ġalien": 9086,
      "Ġdepl": 9087,
      "Ġchoo": 9088,
      "Ġchoppy": 9089,
      "ĠEL": 9090,
      "ĠEr": 9091,
      "ĠBIG": 9092,
      "Ġsuited": 9093,
      "essions": 9094,
      "Ġje": 9095,
      "Ġjuris": 9096,
      "Ġdoct": 9097,
      "istan": 9098,
      "estic": 9099,
      "ĠWood": 9100,
      "ĠWonder": 9101,
      "ĠWarn": 9102,
      "ĠWestern": 9103,
      "ĠHot": 9104,
      "unes": 9105,
      "Ġhass": 9106,
      "ĠTech": 9107,
      "ĠDont": 9108,
      "ĠDTS": 9109,
      "Ġouter": 9110,
      "Ġtimet": 9111,
      "Ġrates": 9112,
      "Ġkit": 9113,
      "Ġnoises": 9114,
      "ĠNaz": 9115,
      "Ġcomply": 9116,
      "ĠLab": 9117,
      "ĠLED": 9118,
      "Ġdisse": 9119,
      "Ġdislike": 9120,
      "agers": 9121,
      "ĠOur": 9122,
      "Ġunknown": 9123,
      "Ġbuzz": 9124,
      "ĠJour": 9125,
      "Ġclan": 9126,
      "Ġpref": 9127,
      "...)": 9128,
      "Ġpartner": 9129,
      "Ġ27": 9130,
      "Ġoverse": 9131,
      "Ġspell": 9132,
      "Ġnewly": 9133,
      "ĠStars": 9134,
      "Ġteens": 9135,
      "ensible": 9136,
      "Ġserves": 9137,
      "everal": 9138,
      "Ġreprint": 9139,
      "Ġbooksh": 9140,
      "Ġrive": 9141,
      "ĠVel": 9142,
      "Ġroot": 9143,
      "Ġtrailer": 9144,
      "Ġdecor": 9145,
      "Ġdecides": 9146,
      "ĠChapter": 9147,
      "Ġconserv": 9148,
      "Ġ36": 9149,
      "Ġfactors": 9150,
      "oby": 9151,
      "Ġbelt": 9152,
      "Ġenjoyment": 9153,
      "Ġbland": 9154,
      "Ġblown": 9155,
      "Ġdefence": 9156,
      "appointed": 9157,
      "Ġtransm": 9158,
      "ugust": 9159,
      "Ġcollar": 9160,
      "Ġphase": 9161,
      "Ġdirecting": 9162,
      "Ġsecondly": 9163,
      "Ġhumour": 9164,
      "Ġbothered": 9165,
      "Ġforming": 9166,
      "ĠAlmost": 9167,
      "Ġsurg": 9168,
      "RES": 9169,
      "raction": 9170,
      "ĠAss": 9171,
      "Ġavid": 9172,
      "Ġdebated": 9173,
      "Ġdebating": 9174,
      "Ġdragged": 9175,
      "Ġbeginners": 9176,
[...]
