<unk>	0
<pad>	0
<s>	0
</s>	0
.	-3.13778
▁the	-3.19088
,	-3.40169
▁to	-3.82381
▁and	-3.85314
▁of	-3.92416
▁I	-3.97361
▁a	-3.97953
s	-4.08319
▁is	-4.24369
▁it	-4.36431
'	-4.4184
▁in	-4.44053
▁this	-4.52228
▁that	-4.64622
▁for	-4.80725
▁was	-5.10974
▁on	-5.13472
t	-5.15567
▁not	-5.22124
▁you	-5.2217
▁with	-5.22682
▁have	-5.26572
▁be	-5.28017
ing	-5.32641
▁The	-5.32786
▁are	-5.33702
▁book	-5.34017
▁but	-5.44055
▁as	-5.5036
-	-5.52612
▁my	-5.65617
ed	-5.73245
▁one	-5.77507
▁It	-5.79193
▁This	-5.8035
▁all	-5.86258
▁	-5.88674
!	-5.92001
▁we	-5.92612
▁so	-5.94381
▁would	-5.94593
▁"	-5.9609
▁will	-5.96517
▁like	-5.97025
▁has	-5.97032
▁an	-5.98933
▁at	-5.99325
▁which	-6.00941
▁by	-6.01394
▁from	-6.06696
▁very	-6.08338
▁about	-6.10741
ly	-6.10809
"	-6.11106
▁can	-6.114
▁or	-6.12923
▁(	-6.18338
▁read	-6.21289
d	-6.22511
▁more	-6.22921
▁just	-6.23479
▁me	-6.23505
▁out	-6.24128
▁they	-6.24864
▁good	-6.30058
▁movie	-6.30251
▁time	-6.36124
▁if	-6.38763
▁up	-6.40262
▁had	-6.40586
▁what	-6.43231
▁only	-6.43606
▁who	-6.46568
▁great	-6.47646
▁there	-6.49157
▁when	-6.53292
▁get	-6.53625
m	-6.55129
▁been	-6.56118
▁your	-6.57084
▁no	-6.5763
▁do	-6.57833
▁-	-6.57927
)	-6.60507
▁some	-6.61382
▁should	-6.64013
y	-6.6493
▁also	-6.657
▁his	-6.6591
▁other	-6.66123
▁because	-6.66931
▁than	-6.69215
▁really	-6.72088
▁first	-6.72633
e	-6.73553
▁much	-6.73649
?	-6.73862
▁them	-6.7581
▁were	-6.76524
▁their	-6.76739
▁these	-6.7905
▁her	-6.80501
▁well	-6.81426
▁he	-6.81477
▁European	-6.81507
I	-6.82351
▁even	-6.8245
▁A	-6.86144
▁Commission	-6.8622
▁into	-6.86491
▁am	-6.87238
▁must	-6.88467
▁i	-6.8896
▁any	-6.88967
...	-6.90048
▁If	-6.91423
▁We	-6.91651
▁make	-6.91913
ve	-6.92862
▁story	-6.93096
▁could	-6.93466
▁our	-6.93593
▁work	-6.94579
▁s	-6.96118
er	-6.96363
▁how	-6.96541
▁too	-6.96838
▁way	-6.969
▁Mr	-6.97907
▁think	-6.98995
▁people	-6.99416
▁new	-7.0135
:	-7.01438
▁over	-7.01502
▁don	-7.0221
▁see	-7.06474
▁better	-7.07995
▁many	-7.0849
▁its	-7.09865
▁did	-7.1057
▁want	-7.10956
▁made	-7.12675
▁now	-7.13281
▁does	-7.13555
▁most	-7.13925
▁she	-7.1437
▁know	-7.14519
▁say	-7.15718
▁then	-7.16238
▁In	-7.1644
▁after	-7.16662
▁buy	-7.16964
▁love	-7.18445
▁back	-7.20699
▁need	-7.22794
▁use	-7.22995
▁little	-7.2582
▁find	-7.2645
▁two	-7.27618
▁product	-7.27863
▁still	-7.28308
al	-7.28526
▁best	-7.30292
▁film	-7.30494
▁books	-7.30889
▁years	-7.32353
n	-7.32947
The	-7.33467
▁got	-7.33814
re	-7.3385
▁reading	-7.34115
▁put	-7.34184
▁never	-7.34314
▁money	-7.35412
▁President	-7.35661
▁same	-7.36275
▁bought	-7.39038
▁being	-7.39226
▁recommend	-7.39332
▁music	-7.39787
▁off	-7.39854
▁go	-7.40018
▁again	-7.40285
▁those	-7.40318
;	-7.40445
▁take	-7.41184
▁But	-7.41271
▁ever	-7.41637
a	-7.4174
▁us	-7.42407
▁through	-7.42788
▁found	-7.42913
▁such	-7.43465
▁life	-7.43606
▁There	-7.4362
▁where	-7.4387
S	-7.43987
▁Parliament	-7.45214
/	-7.47826
▁didn	-7.48021
▁before	-7.4907
▁My	-7.49562
▁album	-7.49813
ll	-7.50779
▁few	-7.51252
▁2	-7.5152
▁bad	-7.51855
▁down	-7.5428
▁something	-7.5458
▁give	-7.54929
▁Union	-7.55166
▁thought	-7.55223
▁thing	-7.55232
▁game	-7.55296
▁far	-7.55436
▁here	-7.55575
▁long	-7.55682
▁old	-7.5585
▁end	-7.56822
▁own	-7.59781
▁every	-7.61307
▁going	-7.61462
▁fact	-7.61474
▁hard	-7.62275
▁another	-7.62299
▁point	-7.64014
▁characters	-7.64444
▁CD	-7.65278
▁used	-7.66791
se	-7.67015
▁You	-7.6819
▁right	-7.68259
▁year	-7.69009
▁They	-7.69099
es	-7.69103
i	-7.69118
▁last	-7.69505
▁DVD	-7.70221
▁lot	-7.70263
▁world	-7.71023
▁may	-7.7119
▁part	-7.71378
▁without	-7.71532
▁said	-7.72251
▁why	-7.7226
in	-7.72655
r	-7.72753
▁Europe	-7.73305
A	-7.73705
▁quality	-7.73867
).	-7.73902
▁believe	-7.74973
▁As	-7.75927
▁And	-7.75969
▁look	-7.76538
▁real	-7.77182
▁since	-7.78975
▁makes	-7.79228
▁set	-7.7931
▁doesn	-7.79729
▁written	-7.79827
▁version	-7.80645
▁between	-7.8096
▁feel	-7.81143
▁B	-7.82114
▁enough	-7.82523
▁C	-7.82773
▁while	-7.83323
▁3	-7.83499
▁anyone	-7.83527
▁important	-7.84483
▁Member	-7.84645
▁looking	-7.85042
▁plot	-7.85458
▁different	-7.85699
▁worth	-7.85982
▁day	-7.86119
▁nothing	-7.8614
▁author	-7.87249
▁come	-7.87747
▁report	-7.88264
▁He	-7.88788
th	-7.88835
▁So	-7.892
▁S	-7.89468
▁times	-7.89598
▁sound	-7.90144
▁original	-7.90293
▁However	-7.90311
▁watch	-7.9073
▁support	-7.9139
▁able	-7.91869
▁though	-7.92956
▁both	-7.92964
▁already	-7.93762
▁things	-7.93783
▁order	-7.93834
▁novel	-7.93839
▁Council	-7.93968
▁'	-7.94172
▁action	-7.9418
▁actually	-7.94277
▁under	-7.9431
▁problem	-7.95192
▁interesting	-7.96166
c	-7.96664
▁series	-7.96876
▁information	-7.97106
able	-7.97284
▁States	-7.97334
▁songs	-7.97394
▁second	-7.97716
▁always	-7.97788
▁5	-7.98009
▁character	-7.98226
▁him	-7.98718
▁What	-7.98982
▁re	-7.99195
▁price	-7.99476
and	-7.99816
▁play	-8.00098
▁easy	-8.00816
▁around	-8.00879
▁waste	-8.01054
▁understand	-8.01715
▁Amazon	-8.02009
▁seen	-8.0218
▁sure	-8.02278
▁That	-8.0322
▁1	-8.0382
▁seem	-8.04096
▁next	-8.04175
▁each	-8.04667
▁policy	-8.04909
▁place	-8.06055
▁course	-8.06402
▁high	-8.06812
▁THE	-8.06884
▁within	-8.06901
▁quite	-8.06907
o	-8.07075
▁whole	-8.07237
▁movies	-8.07339
▁future	-8.07401
▁video	-8.07497
▁fan	-8.07516
us	-8.07737
▁enjoy	-8.08043
p	-8.08316
▁cannot	-8.08718
▁For	-8.08757
▁seems	-8.09405
D	-8.09975
▁small	-8.10123
▁start	-8.10332
▁away	-8.1068
▁No	-8.10689
▁therefore	-8.10733
▁done	-8.10879
▁When	-8.11027
▁less	-8.12185
▁today	-8.12269
▁disappointed	-8.12591
▁help	-8.12665
▁song	-8.12845
▁reviews	-8.12889
▁fun	-8.13171
▁4	-8.13645
▁yet	-8.13653
▁keep	-8.14912
g	-8.15014
T	-8.15159
or	-8.15449
▁three	-8.1554
▁least	-8.15545
▁excellent	-8.15814
l	-8.16413
▁show	-8.16953
▁P	-8.17114
▁once	-8.17115
▁E	-8.17597
▁development	-8.17755
▁kind	-8.18028
▁un	-8.18076
▁came	-8.18588
▁bit	-8.19144
▁pretty	-8.19446
▁tell	-8.19593
▁together	-8.19734
▁She	-8.20308
▁anything	-8.20315
▁&	-8.20354
▁let	-8.20658
▁case	-8.2066
▁big	-8.20863
▁rather	-8.21171
▁problems	-8.21307
▁boring	-8.21458
▁item	-8.21496
▁having	-8.23232
▁works	-8.23344
▁issue	-8.24026
▁might	-8.24105
▁try	-8.2424
▁reason	-8.2466
▁writing	-8.24709
▁full	-8.24868
ic	-8.24924
▁wish	-8.2523
▁hope	-8.26071
▁clear	-8.27412
▁almost	-8.27448
▁ago	-8.27721
▁Not	-8.27767
▁After	-8.27768
▁political	-8.27838
▁special	-8.27882
▁purchased	-8.28202
on	-8.2948
▁using	-8.29527
▁however	-8.29639
▁won	-8.29967
▁everything	-8.30259
▁G	-8.30375
▁opinion	-8.30798
en	-8.30862
▁level	-8.31145
ok	-8.31233
▁months	-8.31326
▁de	-8.31344
▁possible	-8.31849
▁especially	-8.31879
▁given	-8.31989
▁review	-8.31997
▁stars	-8.32046
▁social	-8.32094
▁extreme	-8.32172
▁programme	-8.32213
▁tried	-8.33163
st	-8.3363
▁job	-8.33768
▁nice	-8.33858
▁comes	-8.34152
▁trying	-8.34337
▁probably	-8.34465
▁man	-8.34726
▁mind	-8.34812
▁Commissioner	-8.34846
M	-8.34932
▁D	-8.35084
▁making	-8.35172
▁question	-8.35456
),	-8.35637
the	-8.35882
▁wonderful	-8.35918
▁worst	-8.36129
it	-8.3618
▁true	-8.36478
▁getting	-8.36922
▁view	-8.37232
▁main	-8.37485
▁short	-8.37494
▁listen	-8.37584
▁debate	-8.37632
▁against	-8.3791
▁number	-8.38205
▁difficult	-8.38361
▁system	-8.38553
▁classic	-8.39223
▁areas	-8.39418
▁women	-8.39548
▁idea	-8.39583
▁loved	-8.40234
▁several	-8.40952
▁card	-8.41187
▁enjoyed	-8.41753
ers	-8.42268
▁add	-8.42269
▁live	-8.42319
▁One	-8.4251
▁went	-8.42534
▁itself	-8.42789
▁example	-8.42848
▁couldn	-8.42887
▁power	-8.43153
▁minutes	-8.43187
▁area	-8.4346
▁received	-8.43507
▁highly	-8.43768
▁Community	-8.43811
▁cd	-8.43903
▁size	-8.44137
▁line	-8.4423
▁economic	-8.44691
▁matter	-8.44698
▁NOT	-8.44717
▁else	-8.44907
▁family	-8.44913
ion	-8.44951
▁All	-8.44973
▁style	-8.45061
▁regard	-8.45082
▁taken	-8.45094
▁countries	-8.45271
▁heard	-8.45821
▁working	-8.46365
▁isn	-8.4673
▁fine	-8.46842
▁cover	-8.47255
▁pages	-8.47724
▁words	-8.4783
▁process	-8.47836
▁instead	-8.47888
▁until	-8.47989
▁T	-8.48017
▁someone	-8.48307
!!	-8.48511
▁To	-8.48618
▁half	-8.48739
▁others	-8.49056
!!!	-8.49481
▁Don	-8.49583
▁simply	-8.49791
▁past	-8.4984
▁top	-8.50099
▁wasn	-8.50341
This	-8.50674
▁wanted	-8.50709
▁school	-8.50833
▁fit	-8.50892
▁stories	-8.50954
▁gave	-8.50964
▁either	-8.51356
▁watching	-8.51454
an	-8.5146
▁favorite	-8.51631
▁light	-8.5172
▁myself	-8.5215
▁days	-8.52207
▁poor	-8.52306
▁liked	-8.5231
(	-8.52339
".	-8.52772
▁son	-8.53098
b	-8.53508
ary	-8.53655
▁market	-8.53953
▁present	-8.54111
▁wrong	-8.54126
▁aid	-8.54326
▁class	-8.54533
▁completely	-8.54702
u	-8.54776
▁sense	-8.54923
ar	-8.5499
▁takes	-8.55266
▁needed	-8.55335
▁effects	-8.5571
▁ordered	-8.55946
▁common	-8.56166
▁issues	-8.56408
▁state	-8.56452
▁regions	-8.56727
▁gets	-8.56839
▁person	-8.56887
▁10	-8.57035
C	-8.57099
▁particular	-8.57172
▁computer	-8.5737
▁piece	-8.57397
▁M	-8.57408
▁experience	-8.57591
ation	-8.57819
▁acting	-8.58032
▁everyone	-8.58248
▁history	-8.58249
It	-8.58356
▁single	-8.58658
B	-8.58849
▁couple	-8.59063
▁definitely	-8.59091
▁left	-8.59503
▁purchase	-8.59723
▁star	-8.5976
▁public	-8.5989
--	-8.60714
▁home	-8.60715
▁return	-8.60848
▁buying	-8.61108
▁hand	-8.61321
▁dur	-8.61406
▁competition	-8.61643
▁become	-8.61725
▁absolutely	-8.62116
▁deal	-8.6213
est	-8.62132
▁available	-8.62957
▁reader	-8.63193
▁financial	-8.634
▁human	-8.63471
▁group	-8.63493
▁F	-8.63823
▁goes	-8.63999
▁hours	-8.64195
▁picture	-8.64639
▁box	-8.64696
▁collection	-8.64731
▁felt	-8.64734
▁change	-8.65096
▁control	-8.65147
▁Madam	-8.65176
▁Very	-8.65202
le	-8.65204
▁consider	-8.65235
▁children	-8.65626
▁country	-8.65642
▁rest	-8.65685
▁particularly	-8.65871
▁large	-8.66033
▁national	-8.66143
▁young	-8.66162
P	-8.66287
▁started	-8.66655
▁camera	-8.66686
▁type	-8.66835
▁forward	-8.67137
▁hear	-8.67324
▁free	-8.67583
▁needs	-8.67632
▁stay	-8.67928
ting	-8.68005
▁perfect	-8.68131
▁agree	-8.68157
▁saw	-8.68375
▁car	-8.68443
▁situation	-8.69025
▁page	-8.69059
▁entire	-8.6907
▁etc	-8.69425
▁6	-8.69985
▁EU	-8.7009
▁five	-8.70263
▁thinking	-8.70578
▁amazing	-8.70965
▁--	-8.71024
▁house	-8.71235
▁based	-8.7128
▁side	-8.71567
▁society	-8.71673
is	-8.71892
▁ask	-8.72039
▁Committee	-8.72156
▁happy	-8.72163
up	-8.72356
▁beautiful	-8.72419
h	-8.72572
▁truly	-8.72645
▁government	-8.7308
▁Just	-8.73141
▁Great	-8.73153
▁often	-8.73163
▁cost	-8.73179
▁learn	-8.73291
▁lost	-8.73647
▁air	-8.73687
▁local	-8.73866
▁doing	-8.73907
▁track	-8.74401
▁kids	-8.74709
▁fast	-8.74981
▁On	-8.74995
▁bed	-8.75407
▁toy	-8.75576
▁With	-8.75586
▁taking	-8.75595
▁proposal	-8.75913
▁mean	-8.76083
▁W	-8.76125
E	-8.76222
▁attention	-8.76588
▁Christmas	-8.76591
ity	-8.76684
▁pay	-8.76922
as	-8.76929
▁subject	-8.76932
ies	-8.77025
▁whether	-8.77094
▁woman	-8.77094
▁certainly	-8.77316
▁certain	-8.77369
▁looks	-8.77607
▁usual	-8.77744
Y	-8.77776
▁terms	-8.77789
▁wait	-8.77815
▁Mrs	-8.7798
▁language	-8.7812
▁complete	-8.78209
▁scenes	-8.78342
▁along	-8.7839
▁maybe	-8.78665
▁title	-8.78813
ness	-8.78843
▁care	-8.78867
▁text	-8.78873
▁band	-8.79079
▁funny	-8.79146
▁gives	-8.79232
▁expect	-8.79341
▁At	-8.79455
▁hold	-8.79602
▁J	-8.79996
▁non	-8.80018
▁night	-8.80122
▁bring	-8.80231
▁parts	-8.80437
▁longer	-8.80505
▁clearly	-8.81082
▁role	-8.81122
▁position	-8.81124
▁simple	-8.8118
▁ending	-8.8136
▁wouldn	-8.81517
▁R	-8.81695
L	-8.81746
▁stuff	-8.81757
▁yourself	-8.81767
f	-8.81802
▁player	-8.81881
▁general	-8.82066
▁House	-8.82289
▁ensure	-8.82292
▁respect	-8.82762
▁service	-8.82763
▁daughter	-8.82831
▁self	-8.82847
▁shows	-8.82887
ri	-8.82896
▁means	-8.83009
▁r	-8.8307
▁week	-8.83303
3	-8.83348
▁English	-8.83362
▁friends	-8.83722
▁face	-8.83924
▁playing	-8.83943
▁heart	-8.84
▁Do	-8.84408
▁worked	-8.8443
▁open	-8.84496
▁battery	-8.85004
▁decided	-8.85103
▁Some	-8.85411
R	-8.85575
▁cheap	-8.85773
▁initiative	-8.86086
▁law	-8.86091
▁Well	-8.8652
▁principle	-8.86644
▁huge	-8.8665
▁Even	-8.8669
▁later	-8.86695
▁guess	-8.86707
▁reform	-8.87208
▁copy	-8.87218
▁quickly	-8.87322
▁head	-8.87355
▁concerned	-8.88075
▁close	-8.88241
▁include	-8.88748
▁major	-8.88887
▁terrible	-8.88906
▁necessary	-8.88912
▁Also	-8.88956
▁turn	-8.89125
▁company	-8.89479
▁While	-8.89502
▁remember	-8.89721
▁interest	-8.8987
▁IT	-8.89967
▁played	-8.9027
ish	-8.90288
▁previous	-8.90401
out	-8.90947
O	-8.91075
▁account	-8.91231
▁word	-8.91262
▁programmes	-8.91308
If	-8.91588
▁follow	-8.91652
▁name	-8.9206
▁measures	-8.92231
▁third	-8.92382
▁told	-8.92394
▁How	-8.92408
▁citizens	-8.9259
▁strong	-8.92633
▁L	-8.92725
▁child	-8.92962
▁although	-8.93001
▁period	-8.93024
▁serious	-8.93352
▁near	-8.93607
▁edition	-8.93659
kept	-8.93729
▁De	-8.93889
▁e	-8.93961
▁concern	-8.93966
▁pictures	-8.94012
▁stand	-8.94047
nt	-8.94078
ie	-8.9419
▁result	-8.94296
▁called	-8.94514
▁lack	-8.94681
▁glad	-8.9477
▁beginning	-8.94772
▁cool	-8.94781
1	-8.95022
el	-8.95042
▁slow	-8.95067
to	-8.95147
▁release	-8.95313
less	-8.95319
▁easily	-8.95376
▁paper	-8.95499
▁finally	-8.95501
",	-8.95597
▁tracks	-8.95616
▁cut	-8.95666
▁form	-8.95773
▁weeks	-8.9605
▁directive	-8.96136
▁legal	-8.96385
▁safety	-8.96601
at	-8.97274
▁totally	-8.97367
▁missing	-8.97463
▁Of	-8.97478
▁says	-8.97535
x	-8.97578
....	-8.97784
▁culture	-8.97845
▁write	-8.97987
▁store	-8.98029
te	-8.98181
▁four	-8.98428
▁friend	-8.98453
▁shall	-8.98467
▁specific	-8.98513
▁lead	-8.98551
▁expected	-8.98857
H	-8.99015
▁Treaty	-8.99092
▁horrible	-8.99092
▁institutions	-8.99279
▁food	-8.99379
▁amendments	-8.99679
▁amount	-8.99732
▁continue	-8.99745
▁7	-8.99786
▁vote	-8.99926
no	-8.99953
▁water	-9.00034
▁soon	-9.00163
▁addition	-9.00292
▁Now	-9.0033
N	-9.0051
▁TO	-9.00707
ur	-9.00844
▁girl	-9.01277
▁American	-9.01321
W	-9.02025
▁freedom	-9.02299
▁THIS	-9.02313
▁horror	-9.02314
▁Although	-9.02322
▁AND	-9.02338
▁decision	-9.02587
▁towards	-9.02695
▁...	-9.02707
▁fair	-9.02828
▁thank	-9.02936
▁fall	-9.0347
▁screen	-9.0363
▁call	-9.03754
▁interested	-9.03981
w	-9.041
▁provide	-9.04205
▁vario	-9.0423
▁Orwell	-9.04272
▁questions	-9.04273
▁comfortable	-9.04279
but	-9.04423
▁20	-9.04552
▁low	-9.04769
▁looked	-9.04771
k	-9.04938
▁cooperation	-9.04938
▁due	-9.05006
▁spend	-9.05128
▁early	-9.05152
▁8	-9.05346
▁essential	-9.05608
▁room	-9.0563
man	-9.06155
▁spent	-9.06287
▁worse	-9.06289
▁happen	-9.06523
▁voice	-9.06632
▁wear	-9.06786
▁ideas	-9.06832
▁realize	-9.07102
ive	-9.0712
▁included	-9.07206
▁mention	-9.07504
▁Unfortunately	-9.07674
▁gift	-9.07674
▁including	-9.07678
▁involved	-9.07706
2	-9.07927
▁stop	-9.08064
▁First	-9.08133
▁sounds	-9.08249
▁Group	-9.08339
▁modern	-9.08648
▁description	-9.08745
▁overall	-9.09075
▁create	-9.09256
▁run	-9.09472
▁unit	-9.09545
▁regional	-9.09773
▁wonder	-9.09921
G	-9.10147
▁month	-9.10186
▁supposed	-9.10292
▁send	-9.10348
com	-9.10355
spite	-9.10862
▁message	-9.1087
▁material	-9.10885
z	-9.11157
▁develop	-9.11237
ance	-9.11381
▁IS	-9.11631
▁save	-9.11662
▁p	-9.11852
▁importance	-9.11862
▁favour	-9.11871
▁points	-9.12012
▁sometimes	-9.12033
."	-9.12267
▁content	-9.12334
▁move	-9.125
▁tax	-9.12515
▁rights	-9.13152
▁industry	-9.13305
▁wrote	-9.13305
▁budget	-9.13316
F	-9.13358
▁throughout	-9.13379
ment	-9.13407
ra	-9.13527
v	-9.13603
▁current	-9.13813
▁age	-9.13853
▁husband	-9.1404
▁entertaining	-9.14092
▁ear	-9.14107
▁TV	-9.14139
ural	-9.1414
il	-9.14492
▁value	-9.14576
▁further	-9.14768
▁agenda	-9.14771
▁speak	-9.14939
▁basic	-9.15269
▁resolution	-9.15291
▁color	-9.15333
▁basis	-9.15511
▁arrived	-9.15564
▁sent	-9.15588
ant	-9.15705
de	-9.15837
▁list	-9.15881
▁K	-9.15892
▁scene	-9.15927
4	-9.16009
nd	-9.1602
▁similar	-9.1626
▁among	-9.16281
▁coming	-9.16389
▁listening	-9.16579
▁projects	-9.16639
▁dance	-9.16951
▁fiction	-9.1699
▁giving	-9.17016
▁allow	-9.17396
▁watched	-9.17404
▁print	-9.1742
▁research	-9.17437
ch	-9.17481
▁OF	-9.17765
▁energy	-9.17766
▁His	-9.18262
▁talk	-9.18685
▁production	-9.18745
▁suggest	-9.18767
▁useful	-9.18874
▁extra	-9.18944
▁resources	-9.19007
▁chapter	-9.19163
lo	-9.19218
▁rules	-9.19283
▁guidelines	-9.19299
▁rapporteur	-9.19299
▁employment	-9.19306
▁Why	-9.19354
▁pleased	-9.19491
▁lives	-9.19819
▁finish	-9.20049
▁paid	-9.20093
▁justice	-9.20136
▁actors	-9.20138
▁art	-9.20463
▁upon	-9.20489
▁tape	-9.20607
▁rock	-9.20769
ism	-9.20774
▁writer	-9.20796
▁beyond	-9.20855
▁1984	-9.2087
▁sort	-9.20898
▁pick	-9.21048
▁detail	-9.21213
▁actual	-9.21422
▁internal	-9.21475
▁effort	-9.21545
▁plastic	-9.21643
▁haven	-9.21721
▁charger	-9.21725
▁proposals	-9.21916
5	-9.22052
▁approach	-9.22387
▁chance	-9.22438
▁New	-9.22457
▁disc	-9.22512
age	-9.22569
▁happened	-9.22817
▁talking	-9.22944
▁figure	-9.22962
▁positive	-9.23002
▁9	-9.23049
▁please	-9.23061
▁stupid	-9.2322
▁themselves	-9.23236
▁indeed	-9.2324
▁replacement	-9.23251
▁science	-9.23253
▁scary	-9.23262
▁loves	-9.2329
▁Members	-9.23488
▁charge	-9.23695
▁business	-9.24
▁dialogue	-9.24044
▁responsibility	-9.24046
▁unless	-9.241
▁pre	-9.24279
▁recommended	-9.24485
▁sad	-9.24506
▁remind	-9.24656
▁date	-9.24702
▁personal	-9.2475
▁Conference	-9.24856
▁perhaps	-9.24866
▁John	-9.24869
▁hate	-9.2488
▁printer	-9.24881
▁mentioned	-9.25256
▁environmental	-9.25507
▁Bo	-9.25638
ce	-9.25661
▁per	-9.26132
▁State	-9.26495
▁Bradbury	-9.26502
▁Presidency	-9.26502
ne	-9.26716
▁dont	-9.2717
▁behind	-9.27336
um	-9.2779
▁fans	-9.27857
like	-9.27865
▁known	-9.27919
▁doubt	-9.28086
▁dvd	-9.28176
▁check	-9.28198
▁hop	-9.28235
▁apart	-9.28474
▁break	-9.28524
▁feeling	-9.28581
▁turned	-9.28657
▁cause	-9.28879
▁literature	-9.29023
▁pieces	-9.29045
▁exactly	-9.29115
▁features	-9.29265
▁30	-9.29286
▁c	-9.29369
▁O	-9.2958
U	-9.2974
▁economy	-9.29878
ING	-9.29975
▁correct	-9.30177
ter	-9.30365
▁war	-9.30391
ist	-9.30496
▁black	-9.30741
▁enlargement	-9.30741
▁software	-9.30743
▁tale	-9.30771
▁effective	-9.31413
▁humor	-9.31602
▁shipping	-9.31612
▁French	-9.31616
▁living	-9.31616
▁awesome	-9.31618
▁effect	-9.31684
▁films	-9.31814
ad	-9.31825
▁aware	-9.31854
▁15	-9.31997
ous	-9.32028
▁saying	-9.32338
▁greater	-9.32345
▁Austria	-9.32392
▁Article	-9.32498
▁condition	-9.32573
▁guy	-9.32606
▁God	-9.32677
ul	-9.32705
co	-9.32938
▁Love	-9.3305
▁N	-9.33213
by	-9.33239
▁knowledge	-9.33342
ro	-9.33394
▁leave	-9.33472
▁b	-9.33474
▁Thank	-9.33508
▁model	-9.33519
▁ones	-9.33849
▁attempt	-9.33873
▁party	-9.34024
▁step	-9.34224
▁events	-9.34264
▁above	-9.34265
▁opportunity	-9.34265
▁legislation	-9.34278
▁Maybe	-9.34299
▁proposed	-9.34364
ach	-9.34377
▁express	-9.34764
▁dark	-9.35055
am	-9.35133
▁sleep	-9.35149
▁men	-9.35206
▁body	-9.3523
▁risk	-9.35285
▁performance	-9.35307
▁reference	-9.35449
▁cars	-9.35709
ent	-9.35778
▁games	-9.36197
▁adopted	-9.36288
do	-9.36594
K	-9.36674
▁design	-9.3678
▁late	-9.36931
▁library	-9.36996
▁annoying	-9.37012
▁space	-9.37127
▁hour	-9.37204
▁act	-9.37346
▁poorly	-9.37514
▁achieve	-9.37761
▁policies	-9.37918
▁pull	-9.37922
▁protection	-9.3793
ntergovernmental	-9.37969
▁adapter	-9.37973
ry	-9.38179
▁helpful	-9.38211
me	-9.3829
▁g	-9.38512
▁force	-9.38623
▁12	-9.38625
▁Then	-9.38652
▁concerns	-9.38659
▁plan	-9.38708
▁environment	-9.38776
▁beat	-9.38813
▁fantastic	-9.38833
▁contact	-9.38852
▁security	-9.38853
▁key	-9.38881
▁agreement	-9.3907
▁hit	-9.39207
ian	-9.39359
ful	-9.39857
▁objectives	-9.39987
▁test	-9.40145
▁results	-9.40543
▁groups	-9.40546
▁dog	-9.40715
▁INTERREG	-9.40748
▁nature	-9.40749
▁disappointment	-9.40751
▁Finally	-9.40767
▁reality	-9.40829
▁seller	-9.40879
▁recently	-9.40968
▁record	-9.41039
▁fire	-9.41099
▁U	-9.41335
▁An	-9.41507
ia	-9.4151
▁total	-9.41694
▁admit	-9.417
▁audio	-9.41705
▁required	-9.4183
▁million	-9.4195
▁begin	-9.42052
▁recent	-9.42469
▁Most	-9.42479
▁welcome	-9.42487
8	-9.42492
▁Prodi	-9.42682
▁Good	-9.42705
▁u	-9.42799
▁plug	-9.42842
▁brand	-9.42935
▁fully	-9.43152
▁hot	-9.43211
of	-9.43318
▁waiting	-9.43619
fi	-9.43624
▁peace	-9.43653
▁From	-9.43704
▁somewhat	-9.43707
▁Yes	-9.43726
▁pop	-9.43817
▁greatest	-9.44017
un	-9.44085
▁2000	-9.44199
li	-9.44268
▁sex	-9.44405
▁appropriate	-9.44415
▁knew	-9.44652
▁except	-9.44653
▁pair	-9.44654
▁fear	-9.44663
▁wife	-9.44686
▁across	-9.44737
if	-9.44859
▁practice	-9.44929
▁clean	-9.44943
▁released	-9.44978
▁bother	-9.45255
▁transport	-9.45292
ir	-9.45324
▁concept	-9.45326
▁asked	-9.45329
▁returned	-9.45405
▁Be	-9.45588
▁skin	-9.4568
▁inside	-9.45708
ate	-9.45893
▁committee	-9.45965
▁moment	-9.45986
▁th	-9.46027
▁w	-9.4613
▁study	-9.46168
▁guys	-9.46571
▁nor	-9.46585
▁progress	-9.46605
ta	-9.4663
▁alone	-9.46664
▁World	-9.46665
▁answer	-9.46666
▁decent	-9.46669
▁authorities	-9.46679
▁wants	-9.46947
▁note	-9.46968
ought	-9.47004
▁purpose	-9.47006
▁50	-9.47104
▁albums	-9.47431
▁increase	-9.47481
▁following	-9.4751
la	-9.47581
▁co	-9.47643
▁stopped	-9.4769
▁running	-9.477
▁majority	-9.4771
▁ok	-9.47741
▁metal	-9.47742
▁authority	-9.47759
▁Dr	-9.47786
▁accept	-9.48395
▁Every	-9.48523
▁broke	-9.48661
▁Portuguese	-9.48712
▁advice	-9.48712
▁communication	-9.48713
▁bottom	-9.48717
▁otherwise	-9.48728
▁carry	-9.48731
▁Her	-9.48934
V	-9.4895
▁pass	-9.48989
▁values	-9.48999
▁seriously	-9.49102
▁prevent	-9.49233
ty	-9.49258
▁mine	-9.49296
▁focus	-9.49628
▁ten	-9.49673
▁six	-9.49714
▁held	-9.49755
▁weight	-9.49982
▁boots	-9.50034
▁death	-9.50154
▁setting	-9.50258
LY	-9.50324
▁cross	-9.50477
which	-9.5053
▁international	-9.50573
▁replace	-9.50595
▁table	-9.50669
▁German	-9.50685
▁Court	-9.50804
▁expensive	-9.50807
▁cultural	-9.50808
▁responsible	-9.50809
▁implementation	-9.50816
▁appears	-9.50826
▁Please	-9.50862
▁surprised	-9.50887
ine	-9.50936
▁shape	-9.51066
▁provided	-9.51125
ally	-9.51133
▁fight	-9.51213
ling	-9.51238
▁sector	-9.51259
▁learned	-9.51515
half	-9.51593
be	-9.5161
▁Go	-9.51836
▁background	-9.51871
▁brought	-9.51872
▁awful	-9.51872
▁Kindle	-9.51873
▁White	-9.51886
▁training	-9.52028
▁obviously	-9.52081
▁access	-9.52236
ted	-9.52236
▁happens	-9.52365
▁guide	-9.52413
▁decisions	-9.52477
▁novels	-9.52501
▁improve	-9.52708
▁hands	-9.5273
▁excited	-9.52946
▁ladies	-9.52946
▁connection	-9.52972
▁trip	-9.52975
▁cable	-9.52991
▁share	-9.53193
▁none	-9.53377
▁changed	-9.53427
rs	-9.53457
▁older	-9.53624
▁final	-9.53689
+	-9.5373
▁package	-9.53835
In	-9.54012
▁middle	-9.54034
▁dangerous	-9.54037
▁response	-9.54045
▁fell	-9.54046
▁sitting	-9.54052
▁dead	-9.54058
▁Unite	-9.54076
▁enjoyable	-9.54181
▁outside	-9.54249
▁la	-9.54324
▁graphics	-9.54491
▁finished	-9.54491
▁products	-9.54706
▁quick	-9.5481
▁Buy	-9.54854
▁America	-9.55062
▁introduction	-9.55134
▁genre	-9.55136
▁War	-9.55141
▁heavy	-9.55152
▁white	-9.55163
▁ended	-9.55307
▁forget	-9.5544
▁eyes	-9.55565
▁Read	-9.55661
▁project	-9.55677
▁presented	-9.56029
▁throw	-9.56179
▁front	-9.56238
▁pump	-9.56245
▁Like	-9.56267
▁anyway	-9.5629
▁contain	-9.56315
ED	-9.56585
▁seeing	-9.56587
▁H	-9.56785
side	-9.56817
▁reasons	-9.56889
▁lots	-9.56908
▁appreciate	-9.57165
▁sit	-9.57289
▁NO	-9.57305
read	-9.5735
▁twice	-9.57366
▁stage	-9.57374
▁Party	-9.57397
▁1999	-9.57405
▁details	-9.57513
▁limited	-9.57522
▁average	-9.57617
▁Un	-9.5781
▁readers	-9.57831
▁travel	-9.5798
one	-9.57995
▁cast	-9.58066
▁changes	-9.58194
%	-9.58197
▁conditions	-9.58391
▁success	-9.58493
▁companies	-9.58503
▁gentlemen	-9.58503
▁impossible	-9.58505
▁confusing	-9.58511
▁immediately	-9.58553
▁explain	-9.58772
▁avoid	-9.59074
▁difference	-9.59109
▁crime	-9.5913
▁section	-9.59149
not	-9.59187
▁proper	-9.59438
▁thin	-9.59467
ER	-9.59545
▁interests	-9.59551
▁offer	-9.59588
▁LEADER	-9.59652
▁radio	-9.59652
▁France	-9.59655
▁himself	-9.59657
▁moving	-9.59673
▁sorry	-9.59674
▁comments	-9.59869
for	-9.60049
*	-9.60216
▁document	-9.60252
▁rate	-9.60331
▁fundamental	-9.60524
▁exchange	-9.60717
▁concert	-9.60815
▁efforts	-9.6096
▁Let	-9.61147
▁created	-9.6115
▁individual	-9.61217
▁starts	-9.61357
▁conclusion	-9.61482
▁lines	-9.61506
▁receive	-9.61747
▁technical	-9.6176
▁obvious	-9.61768
▁con	-9.61866
▁context	-9.61992
▁ridiculous	-9.61997
▁Our	-9.62013
▁historical	-9.62075
▁Ray	-9.62142
▁parents	-9.62427
▁costs	-9.62516
▁perfectly	-9.62565
▁members	-9.6269
▁stick	-9.62912
▁states	-9.62961
▁grade	-9.6306
▁HP	-9.632
▁flat	-9.63218
▁phone	-9.63233
▁Austrian	-9.63316
ac	-9.63486
▁DO	-9.63513
▁relate	-9.63631
▁V	-9.6376
▁stated	-9.63766
▁funds	-9.63832
▁region	-9.6385
▁mother	-9.63883
▁season	-9.63913
▁democratic	-9.64382
▁garbage	-9.64387
▁stuck	-9.64387
▁bunch	-9.64389
▁Apple	-9.6439
▁easier	-9.64392
▁waist	-9.644
ical	-9.64458
▁published	-9.64464
▁standards	-9.64613
▁powerful	-9.64633
so	-9.64674
▁remain	-9.64791
▁bear	-9.65023
▁program	-9.65114
▁rating	-9.65165
▁term	-9.65357
▁regular	-9.65376
▁tight	-9.65435
▁framework	-9.65609
▁Manson	-9.6561
▁century	-9.65619
▁Since	-9.65639
▁warm	-9.65716
▁Overall	-9.65729
▁prepared	-9.65777
ag	-9.65997
▁Only	-9.66188
▁mix	-9.66389
▁disaster	-9.66391
▁insight	-9.66572
▁miss	-9.66812
▁combat	-9.66841
▁laptop	-9.66841
▁potential	-9.66841
▁trash	-9.66843
▁soundtrack	-9.66843
▁THAT	-9.66846
▁straight	-9.66847
mo	-9.66852
▁dull	-9.66866
▁lyrics	-9.66916
▁storyline	-9.66932
▁reviewers	-9.66968
▁described	-9.67026
os	-9.67029
▁students	-9.67052
▁reach	-9.67216
▁currently	-9.67222
▁search	-9.67625
▁examples	-9.67662
▁weak	-9.67712
▁considered	-9.67757
▁40	-9.67792
▁ways	-9.6781
▁Re	-9.67893
▁refund	-9.68091
▁romance	-9.68091
▁urban	-9.68111
▁depth	-9.68146
▁feet	-9.68176
ca	-9.68706
▁La	-9.68793
▁choice	-9.68929
▁statement	-9.68967
▁deep	-9.69024
ence	-9.69151
▁unique	-9.69344
▁ourselves	-9.69357
▁hair	-9.69362
▁basically	-9.6937
▁Sony	-9.69396
▁fascinating	-9.69404
▁disappointing	-9.69473
▁gone	-9.69502
creating	-9.69608
▁joint	-9.69747
▁expressed	-9.69819
▁contains	-9.69982
▁Who	-9.69996
▁meaning	-9.70099
ha	-9.701
▁uses	-9.70228
▁draft	-9.70312
▁Can	-9.70418
ray	-9.70484
▁IN	-9.7051
▁dis	-9.70544
▁YOU	-9.70637
▁built	-9.70639
▁transparency	-9.70639
▁website	-9.70639
▁Paper	-9.7064
▁incredible	-9.70783
▁ready	-9.70975
▁picked	-9.71175
▁d	-9.7122
▁wide	-9.71566
▁minute	-9.71593
6	-9.71626
▁451	-9.71674
▁strategy	-9.71937
▁creative	-9.71938
▁URBAN	-9.71943
▁Instead	-9.7195
▁trade	-9.71967
▁broken	-9.7202
▁services	-9.72106
▁director	-9.7213
▁pure	-9.7213
▁chapters	-9.72168
▁forced	-9.72235
▁trouble	-9.72342
▁feature	-9.72528
▁format	-9.7269
▁actions	-9.72694
▁truth	-9.72977
▁regulations	-9.73027
▁expecting	-9.73179
▁became	-9.73253
▁bar	-9.73255
▁boot	-9.73266
▁crap	-9.73272
▁plays	-9.73295
▁cord	-9.73314
▁understanding	-9.73325
▁levels	-9.73565
▁alot	-9.73678
▁draw	-9.73708
▁en	-9.739
▁matters	-9.74017
▁knows	-9.74132
▁100	-9.74151
he	-9.74151
ver	-9.74156
rew	-9.74158
▁US	-9.7418
▁address	-9.74215
▁relationship	-9.74235
▁shot	-9.74258
line	-9.74277
▁m	-9.74408
▁authors	-9.74568
▁WAS	-9.74585
▁memory	-9.74587
▁exciting	-9.74587
▁community	-9.74588
▁learning	-9.74589
▁earlier	-9.7459
▁People	-9.74596
▁[	-9.74605
▁prove	-9.74663
▁Big	-9.7468
▁seek	-9.74787
▁80	-9.75453
▁By	-9.75475
▁apply	-9.75479
▁repeat	-9.75608
▁movement	-9.75613
▁discussion	-9.75621
▁kid	-9.75621
▁baby	-9.75667
▁office	-9.75706
hei	-9.75842
7	-9.75896
▁college	-9.75938
▁Because	-9.75952
▁principles	-9.75952
▁speed	-9.75956
▁Perhaps	-9.75963
▁Canon	-9.75983
▁High	-9.75986
▁bored	-9.76009
▁carrie	-9.76043
▁properly	-9.76202
▁recording	-9.76297
ol	-9.76332
▁vehicles	-9.76463
There	-9.76606
▁provides	-9.76656
▁wasted	-9.76658
▁volume	-9.76971
▁anti	-9.77011
▁manufacturer	-9.77011
▁teacher	-9.77056
▁strange	-9.77062
▁becomes	-9.77117
▁leaves	-9.77152
▁incredibl	-9.77154
▁spirit	-9.77207
▁mattress	-9.77258
▁decide	-9.77261
▁super	-9.77301
▁relative	-9.77316
▁junk	-9.77317
▁Max	-9.77321
▁British	-9.77323
▁medium	-9.77349
▁politics	-9.77391
▁keeps	-9.77518
▁transfer	-9.77655
▁range	-9.7785
▁build	-9.7787
▁f	-9.77985
time	-9.78233
▁plain	-9.78291
▁mistake	-9.78337
▁adopt	-9.78348
▁criminal	-9.78351
▁motion	-9.78374
▁procedure	-9.78402
▁task	-9.78405
▁objective	-9.78416
▁town	-9.7842
▁direction	-9.78425
▁cases	-9.78435
▁v	-9.78606
▁script	-9.78685
▁morning	-9.78697
▁management	-9.78705
▁female	-9.7871
▁translation	-9.78712
▁negative	-9.78719
▁slightly	-9.78755
▁impressed	-9.78777
▁jobs	-9.78837
▁FOR	-9.78886
▁forever	-9.79181
▁Too	-9.79252
old	-9.79337
▁developed	-9.79383
▁telling	-9.79719
▁solution	-9.79823
▁ground	-9.79829
▁standard	-9.79887
▁comment	-9.79914
this	-9.7995
▁drive	-9.79974
▁complex	-9.80085
▁relevant	-9.80105
▁rice	-9.80113
▁predictable	-9.80119
▁unfortunately	-9.80173
▁ability	-9.80301
▁illustrations	-9.80338
▁smaller	-9.80622
▁descriptions	-9.80696
▁aren	-9.80891
▁tool	-9.81092
over	-9.81177
▁Funds	-9.81264
▁student	-9.8129
▁covered	-9.81342
em	-9.8141
!!!!	-9.81432
▁turns	-9.81445
▁planning	-9.8154
▁VERY	-9.81548
▁loud	-9.81549
▁father	-9.81556
▁initiatives	-9.81574
et	-9.81745
my	-9.81792
▁filled	-9.81819
ng	-9.81947
▁request	-9.82135
!)	-9.82305
▁opened	-9.82398
▁useless	-9.82434
▁meet	-9.82473
▁sets	-9.82678
What	-9.82703
▁photos	-9.82736
▁Affairs	-9.82983
▁Structur	-9.82983
▁Hawthorne	-9.82993
▁comedy	-9.83017
▁OK	-9.83026
▁musical	-9.83108
▁analysis	-9.83109
ton	-9.83115
▁noticed	-9.83166
▁aspects	-9.8321
▁Was	-9.83315
▁loss	-9.83316
▁push	-9.83316
▁die	-9.83406
▁personally	-9.83412
▁governments	-9.83639
AR	-9.837
▁offers	-9.83935
▁brilliant	-9.84453
Fahren	-9.84454
▁confidence	-9.84454
▁eventually	-9.8447
▁choose	-9.84509
▁Once	-9.84531
▁whatever	-9.84569
▁considering	-9.8459
▁wall	-9.84623
▁helped	-9.84788
▁missed	-9.84849
▁vocals	-9.84873
rd	-9.84906
▁fits	-9.84909
▁ahead	-9.85317
▁elements	-9.85383
▁master	-9.85493
▁natural	-9.85738
▁adult	-9.85756
▁customer	-9.85778
▁Brother	-9.85946
▁remote	-9.85946
▁democracy	-9.85952
▁jazz	-9.85961
▁realistic	-9.85963
▁ex	-9.86017
▁Ms	-9.86057
▁warning	-9.8609
▁negotiations	-9.86114
▁burn	-9.86143
▁failed	-9.8616
▁14	-9.86196
▁singing	-9.86453
▁building	-9.8651
▁covers	-9.86639
▁sell	-9.86845
ud	-9.86912
▁places	-9.87047
▁touch	-9.87081
▁structure	-9.87106
▁rich	-9.87129
▁taste	-9.87183
▁practical	-9.87249
▁imagine	-9.87275
▁smell	-9.87282
▁double	-9.87339
all	-9.87351
▁boy	-9.87439
▁Amendment	-9.87461
▁charging	-9.87462
▁manner	-9.87462
▁load	-9.87465
▁Nothing	-9.87509
▁Look	-9.87516
▁site	-9.87622
▁intended	-9.87719
ma	-9.87738
▁helps	-9.87909
▁died	-9.87939
?)	-9.87964
▁higher	-9.88037
sh	-9.88207
▁sub	-9.88422
▁eye	-9.88501
▁produce	-9.88586
▁lose	-9.88844
▁field	-9.88846
▁aim	-9.88865
▁aspect	-9.88867
▁ends	-9.88933
▁ship	-9.88945
▁BUY	-9.89
▁population	-9.89007
▁elsewhere	-9.89008
▁crazy	-9.89021
▁Many	-9.89123
▁pain	-9.89187
▁unable	-9.89191
▁post	-9.89209
▁likely	-9.8941
ber	-9.89499
▁detailed	-9.89644
▁online	-9.89691
▁wearing	-9.90124
▁items	-9.90218
▁soul	-9.90221
▁t	-9.90339
▁promote	-9.9035
▁damage	-9.90392
▁health	-9.90427
▁stock	-9.90436
9	-9.90447
▁benefit	-9.90468
▁Mac	-9.90524
▁11	-9.90526
land	-9.90534
▁masterpiece	-9.90563
▁George	-9.90563
▁length	-9.90578
▁mystery	-9.90578
▁summer	-9.9058
▁specifically	-9.90581
▁Asimov	-9.90582
▁herself	-9.90586
▁13	-9.90596
▁Other	-9.90616
▁shame	-9.90707
▁oil	-9.90758
j	-9.90768
mm	-9.90811
ley	-9.90821
My	-9.90889
▁prefer	-9.90954
▁actor	-9.90956
▁mis	-9.91128
▁pro	-9.91227
▁listed	-9.91253
▁facts	-9.91295
▁happening	-9.917
▁talent	-9.91706
▁protect	-9.91783
▁honest	-9.9179
▁professional	-9.91811
▁guarantee	-9.91835
&	-9.91869
▁accurate	-9.91914
▁regret	-9.92021
▁road	-9.92051
▁batteries	-9.92151
▁operation	-9.92153
▁amazon	-9.92156
▁informative	-9.92158
▁ALL	-9.92167
▁creation	-9.92179
▁anymore	-9.92188
10	-9.92189
▁Oh	-9.92266
▁replaced	-9.92453
ck	-9.9246
▁sing	-9.92671
▁laugh	-9.92833
ex	-9.93055
▁count	-9.93106
▁feels	-9.93128
▁King	-9.9319
ble	-9.93322
J	-9.93433
▁opening	-9.93596
▁device	-9.93673
▁application	-9.93682
▁episode	-9.9371
▁adventure	-9.93716
▁legislati	-9.9374
▁floor	-9.93762
▁familiar	-9.93792
ite	-9.93806
▁dry	-9.93815
▁raised	-9.93885
▁central	-9.94088
X	-9.94132
▁reviewer	-9.94184
▁meeting	-9.94199
son	-9.94256
▁exist	-9.94378
ut	-9.9442
ge	-9.94491
▁ON	-9.94511
▁Me	-9.94546
▁install	-9.94547
▁EUR	-9.94623
▁girls	-9.9475
▁SO	-9.9493
▁appear	-9.9503
▁download	-9.95071
▁normal	-9.9522
▁favor	-9.95401
▁tomorrow	-9.95402
▁brother	-9.95402
▁unemployment	-9.95403
▁pillow	-9.95403
▁scientific	-9.95404
▁rubber	-9.95411
▁digital	-9.95418
▁Bay	-9.95446
▁drawn	-9.95483
▁hearing	-9.95514
▁sold	-9.95519
ized	-9.95684
▁manufacturers	-9.95773
▁mostly	-9.95862
▁Your	-9.96178
mp	-9.96235
▁o	-9.96322
▁errors	-9.96355
▁cave	-9.96472
ot	-9.96567
▁accord	-9.96577
▁equal	-9.96827
▁moves	-9.96841
▁desire	-9.96866
ns	-9.96887
▁suppose	-9.96895
▁camcorder	-9.97068
▁impact	-9.9707
▁LOVE	-9.97071
▁impression	-9.97078
▁cold	-9.9708
▁shipped	-9.97082
▁administration	-9.97083
▁Jack	-9.97094
▁thus	-9.97122
▁notice	-9.97164
▁reasonable	-9.97265
▁requirements	-9.97518
▁caused	-9.97578
▁brain	-9.97661
off	-9.97695
▁entirely	-9.97878
▁falls	-9.97995
ably	-9.98198
ative	-9.98231
▁controls	-9.98294
▁mess	-9.98347
▁claim	-9.98444
▁influence	-9.98488
▁loose	-9.98528
For	-9.98551
▁numbers	-9.98564
▁challenge	-9.98566
▁balance	-9.98572
▁require	-9.98578
▁audience	-9.98763
▁activities	-9.98764
▁imagination	-9.98765
▁cohesion	-9.98767
▁contribution	-9.9877
▁email	-9.98771
▁fresh	-9.98775
▁structural	-9.98778
▁code	-9.98784
▁source	-9.98784
▁pressure	-9.9879
▁outstanding	-9.9879
ated	-9.98793
▁BUT	-9.98809
▁rule	-9.98814
▁Would	-9.98816
▁city	-9.98846
▁precisely	-9.9885
▁relation	-9.98859
▁Save	-9.98882
ke	-9.98948
term	-9.98987
▁compared	-9.98989
▁expectations	-9.99013
▁asking	-9.99033
IN	-9.9906
▁Man	-9.99176
▁kill	-9.99303
▁tough	-9.99459
▁h	-9.99471
well	-9.99485
▁skip	-9.99587
▁ONE	-9.99628
ru	-9.99667
▁inter	-9.99991
▁connect	-10.0005
But	-10.0023
right	-10.0025
▁follows	-10.0026
▁successful	-10.0028
▁16	-10.0046
▁Kosovo	-10.0049
▁Michael	-10.0049
▁IGC	-10.0049
▁construction	-10.0049
▁James	-10.005
▁soft	-10.005
▁plenty	-10.0051
And	-10.0052
▁suspense	-10.0052
▁edge	-10.0053
▁Will	-10.0055
▁constantly	-10.006
▁mom	-10.0062
▁complaint	-10.0071
▁cute	-10.0072
▁shown	-10.0098
▁n	-10.012
dy	-10.0121
we	-10.0129
▁stress	-10.0141
hi	-10.0146
0	-10.0153
▁instructions	-10.0155
▁moments	-10.0166
▁fill	-10.0172
▁appeal	-10.0174
pe	-10.0182
▁PC	-10.0187
.....	-10.0194
▁increasing	-10.0201
▁unacceptable	-10.0225
▁Java	-10.0225
▁advertised	-10.0227
▁USB	-10.0227
▁disk	-10.0227
▁male	-10.0229
▁18	-10.023
tion	-10.0234
▁mid	-10.0239
▁approved	-10.0241
▁implemented	-10.0251
▁credit	-10.0251
▁border	-10.0254
▁players	-10.0271
▁button	-10.0286
▁designed	-10.0288
om	-10.0292
▁artist	-10.0299
▁puzzle	-10.0312
▁Mo	-10.0323
▁thanks	-10.0328
]	-10.0333
▁BOOK	-10.0347
book	-10.0347
▁foot	-10.0353
▁25	-10.0356
▁capital	-10.0357
▁showing	-10.036
▁demand	-10.0362
▁lacking	-10.0369
year	-10.0381
ise	-10.0381
▁propose	-10.0391
▁Hav	-10.04
▁EQUAL	-10.0403
▁alternative	-10.0403
▁intelligent	-10.0403
▁assistance	-10.0403
▁trust	-10.0408
▁guitar	-10.041
▁board	-10.0414
tic	-10.0415
▁amendment	-10.0416
▁image	-10.0416
▁consideration	-10.0419
▁parties	-10.0419
▁y	-10.0421
▁van	-10.0424
▁recipes	-10.0426
▁plus	-10.0429
▁led	-10.0435
▁sp	-10.0448
you	-10.0465
▁closed	-10.0467
va	-10.0491
▁followed	-10.0504
▁paint	-10.0508
▁Though	-10.0527
▁lame	-10.0533
▁treat	-10.0534
LE	-10.0534
▁bag	-10.0535
ure	-10.0535
▁Here	-10.0541
▁manage	-10.0573
▁packaging	-10.0585
▁possibly	-10.0585
▁Amsterdam	-10.0585
▁Justice	-10.0586
▁enter	-10.0587
▁instrument	-10.059
▁thoroughly	-10.0598
▁option	-10.0605
▁letter	-10.0605
mb	-10.0609
▁younger	-10.0623
▁reached	-10.0636
▁finding	-10.0653
her	-10.0658
▁Co	-10.0674
life	-10.0697
▁roll	-10.0698
▁19	-10.0715
ig	-10.072
▁cards	-10.0723
▁discover	-10.0727
making	-10.0742
▁red	-10.0749
▁serve	-10.0751
▁di	-10.0754
▁compare	-10.0754
▁broad	-10.0767
▁popular	-10.0768
▁weird	-10.077
▁Montag	-10.077
▁neither	-10.077
▁romantic	-10.0772
▁Christian	-10.0772
▁confused	-10.0773
▁anywhere	-10.0775
▁barely	-10.0775
▁gotten	-10.0777
▁machine	-10.0784
▁flick	-10.0785
▁era	-10.0792
▁singer	-10.0799
▁funding	-10.0799
▁tend	-10.08
ph	-10.0804
▁sea	-10.0832
▁strongly	-10.0841
men	-10.086
▁walk	-10.0875
▁situations	-10.0881
▁Blue	-10.0886
▁prior	-10.0887
▁versions	-10.0893
▁web	-10.0894
▁faith	-10.0898
▁join	-10.0901
▁im	-10.0917
▁pack	-10.0931
▁ears	-10.0932
op	-10.0938
▁unlike	-10.0942
▁hero	-10.0945
▁artists	-10.0948
▁Government	-10.0958
▁crucial	-10.0958
▁precaution	-10.0958
▁tree	-10.0959
▁integration	-10.0959
▁Winston	-10.0959
▁Thomas	-10.0959
▁Tess	-10.096
▁priority	-10.096
na	-10.096
▁Italy	-10.0961
▁moral	-10.0961
▁!	-10.0972
▁bottle	-10.0977
▁dream	-10.0982
▁returning	-10.0985
▁according	-10.0991
▁produced	-10.0996
▁bucks	-10.0997
So	-10.1001
ron	-10.1006
ten	-10.1011
▁introduce	-10.1015
▁existing	-10.1015
▁blu	-10.1016
▁Firstly	-10.1021
▁Blu	-10.1032
▁heat	-10.1038
▁meant	-10.104
▁mo	-10.105
▁fighting	-10.105
tor	-10.1055
▁door	-10.1076
▁speaking	-10.1086
▁base	-10.1095
▁beats	-10.1115
▁maintain	-10.1117
▁affect	-10.1118
io	-10.1126
▁fault	-10.1137
▁Does	-10.114
▁requires	-10.1148
▁Smith	-10.1151
▁genius	-10.1151
▁mouth	-10.1151
▁recycling	-10.1151
▁sudden	-10.1151
▁technology	-10.1151
▁private	-10.1151
▁silly	-10.1151
▁intend	-10.1152
▁urge	-10.1152
▁strand	-10.1152
▁Plus	-10.1152
▁tired	-10.1155
▁Jean	-10.1156
▁Foundation	-10.1157
▁improvement	-10.1157
▁event	-10.1158
▁Get	-10.1161
▁1/2	-10.1162
▁larger	-10.117
▁More	-10.117
▁perspective	-10.1173
▁lay	-10.1183
nna	-10.1185
▁blue	-10.1186
▁talks	-10.1188
▁noise	-10.1189
▁factor	-10.1196
▁Transformers	-10.1197
▁figured	-10.1205
▁24	-10.1206
▁relat	-10.1208
▁voted	-10.1212
▁sections	-10.1241
▁Al	-10.1256
go	-10.1265
who	-10.1266
▁establish	-10.1266
ier	-10.1267
ious	-10.127
▁deserves	-10.1277
▁St	-10.1281
▁visit	-10.1297
ors	-10.1304
▁BE	-10.1305
▁X	-10.1315
Z	-10.1318
▁names	-10.1319
▁typical	-10.1324
▁brief	-10.1324
▁smooth	-10.1324
▁encourage	-10.1326
One	-10.1329
ick	-10.1336
▁views	-10.1341
▁strength	-10.1344
▁literary	-10.1347
▁extent	-10.1347
▁multiple	-10.1347
▁fellow	-10.1347
▁labor	-10.1347
▁okay	-10.1348
▁independent	-10.1349
▁sweet	-10.1349
work	-10.1351
▁Still	-10.1354
oo	-10.1355
▁shut	-10.1359
▁Or	-10.1362
▁carefully	-10.1368
▁explanation	-10.1376
▁writers	-10.1378
▁par	-10.1379
▁established	-10.138
▁growing	-10.139
▁introduced	-10.1394
▁victims	-10.1403
IT	-10.1422
▁generally	-10.1431
ily	-10.1448
▁17	-10.1449
ug	-10.145
▁former	-10.1451
▁fix	-10.1464
▁press	-10.1469
▁l	-10.1471
▁videos	-10.1472
▁answers	-10.1478
▁hell	-10.1513
▁placed	-10.1516
with	-10.1519
ba	-10.1521
▁remove	-10.1527
▁magic	-10.1531
ions	-10.1536
▁notes	-10.1538
▁speech	-10.1542
▁sat	-10.1543
▁Haider	-10.1547
▁yesterday	-10.1547
▁Italian	-10.1547
▁leaving	-10.1547
▁Region	-10.1547
▁Anyone	-10.1547
▁Marquez	-10.1551
▁episodes	-10.1554
▁circumstances	-10.1559
.00	-10.156
ial	-10.1567
▁classes	-10.1571
▁Best	-10.1573
▁wishes	-10.1579
▁commitment	-10.158
ory	-10.1581
▁thoughts	-10.1582
▁regulation	-10.1583
▁markets	-10.1583
▁installed	-10.1588
▁subjects	-10.1611
▁allowed	-10.1635
▁representatives	-10.1639
vi	-10.164
!"	-10.1654
▁sheets	-10.1656
OR	-10.166
▁discuss	-10.1666
▁rent	-10.1683
ability	-10.1684
▁flow	-10.1723
▁steps	-10.1726
▁significant	-10.1729
▁exact	-10.1729
▁solidarity	-10.1751
▁teeth	-10.1751
▁purchasing	-10.1751
▁repair	-10.1751
▁comprehensive	-10.1752
▁cities	-10.1752
▁Watch	-10.1754
▁Bas	-10.1754
▁difficulties	-10.176
▁bigge	-10.1761
▁Secondly	-10.1764
▁durable	-10.1767
▁below	-10.1778
▁affected	-10.1786
▁cheaper	-10.1786
▁highlight	-10.1788
di	-10.1788
▁info	-10.1793
▁Fund	-10.1798
▁blow	-10.1805
ES	-10.1807
ating	-10.1811
▁lower	-10.1813
▁recorded	-10.1821
▁seat	-10.1837
▁Y	-10.1847
po	-10.1853
▁colleagues	-10.1859
▁catch	-10.1875
▁themes	-10.1877
▁refer	-10.1921
▁joke	-10.1923
▁luck	-10.1928
▁gain	-10.193
▁function	-10.1944
▁mode	-10.1945
ning	-10.1956
▁afraid	-10.1959
▁opportunities	-10.1959
▁solid	-10.1959
▁Ireland	-10.1959
▁liability	-10.1959
▁birthday	-10.196
▁scanner	-10.196
▁Windows	-10.196
▁painful	-10.1961
▁sister	-10.1961
▁Japanese	-10.1961
▁fraud	-10.1962
▁sexual	-10.1962
▁commercial	-10.1962
▁frame	-10.1963
▁satisfied	-10.1964
▁wood	-10.1966
▁presentation	-10.1969
▁delivery	-10.197
▁firm	-10.1975
▁additional	-10.198
▁scared	-10.1988
star	-10.1989
ities	-10.2
▁skills	-10.2001
ail	-10.2006
▁lock	-10.2012
▁explained	-10.2019
▁workers	-10.2021
ast	-10.2022
Another	-10.2048
ster	-10.2049
▁sides	-10.2068
red	-10.2072
ho	-10.2081
▁economics	-10.2083
per	-10.2093
▁label	-10.2097
▁Ra	-10.2105
▁wondering	-10.2107
▁tone	-10.2111
mon	-10.2123
▁hits	-10.2127
▁plans	-10.2128
▁studio	-10.2133
You	-10.2133
▁respond	-10.214
▁performances	-10.2142
hose	-10.2144
▁attempts	-10.2147
▁lasted	-10.2149
▁willing	-10.2162
▁paying	-10.2166
▁onto	-10.2171
▁danger	-10.2171
▁Hollywood	-10.2172
▁Shirley	-10.2172
▁WITH	-10.2172
▁nuclear	-10.2172
▁steel	-10.2172
▁Therefore	-10.2172
▁police	-10.2172
▁entertainment	-10.2172
▁daily	-10.2172
▁applied	-10.2173
▁strategic	-10.2173
▁thick	-10.2173
▁Work	-10.2174
▁tiny	-10.2175
▁Lane	-10.2175
▁suit	-10.2176
▁David	-10.2176
▁careful	-10.2177
He	-10.2179
▁Really	-10.2183
▁yes	-10.2186
▁twist	-10.2186
▁handle	-10.2204
▁UN	-10.2208
▁provision	-10.2211
▁battle	-10.2217
▁teaching	-10.222
▁driver	-10.2226
ab	-10.2226
▁theme	-10.2227
▁Ca	-10.2233
ay	-10.2268
▁Any	-10.2274
▁hat	-10.2298
▁speakers	-10.2299
▁implement	-10.2305
▁eat	-10.2329
ping	-10.2331
▁sci	-10.2332
▁journey	-10.2389
▁Tobin	-10.2389
▁flimsy	-10.2389
▁uncomfortable	-10.239
▁excuse	-10.239
▁mood	-10.239
▁bodies	-10.239
▁Jawbone	-10.239
▁GREAT	-10.239
▁scope	-10.2391
▁rise	-10.2392
▁famous	-10.2393
▁born	-10.2397
▁somehow	-10.2398
▁dumb	-10.2399
▁businesses	-10.2402
▁represent	-10.2404
▁fishing	-10.2411
▁Had	-10.2411
▁dealing	-10.2417
ak	-10.2438
▁consumer	-10.2441
▁holds	-10.2442
▁experts	-10.2444
▁favorites	-10.2451
▁Van	-10.2453
▁passed	-10.2459
▁sucks	-10.246
▁k	-10.2463
▁prose	-10.2468
▁related	-10.247
▁remains	-10.2474
▁cat	-10.248
▁teach	-10.2483
▁Pro	-10.2495
▁stores	-10.2543
ped	-10.2552
▁mark	-10.2554
▁falling	-10.2555
ap	-10.2559
▁birth	-10.2561
▁ho	-10.2562
▁match	-10.2573
rely	-10.2576
▁display	-10.2579
▁ride	-10.258
▁fashion	-10.2586
▁Thanks	-10.2596
▁Over	-10.2606
▁grow	-10.2608
▁claims	-10.2609
▁causes	-10.261
▁relations	-10.261
▁Public	-10.2612
▁VHS	-10.2612
▁criteria	-10.2612
▁crisis	-10.2612
▁comparison	-10.2612
▁Indeed	-10.2612
▁HAVE	-10.2612
▁priorities	-10.2612
▁evil	-10.2612
▁desk	-10.2613
▁Charlie	-10.2613
▁Joyce	-10.2614
▁Diane	-10.2615
▁everyday	-10.2616
▁center	-10.2618
▁attitude	-10.2618
▁Guy	-10.2623
▁sick	-10.2623
▁critical	-10.2624
ize	-10.2628
▁da	-10.2628
▁XP	-10.2632
▁adults	-10.2639
▁delivered	-10.2641
▁managed	-10.2643
▁measure	-10.265
▁hasn	-10.265
▁scare	-10.2654
▁monitoring	-10.2656
▁increased	-10.2656
▁tabled	-10.2658
▁rated	-10.266
▁70	-10.2663
▁paragraph	-10.2667
▁achieved	-10.2681
▁named	-10.2689
▁types	-10.2697
putting	-10.2704
▁conclusions	-10.2709
▁documents	-10.2713
▁assume	-10.2755
▁strengthen	-10.2808
When	-10.2811
our	-10.2816
We	-10.2818
▁fail	-10.2818
that	-10.2826
ties	-10.2829
▁drama	-10.283
sp	-10.2832
▁portray	-10.2832
▁Social	-10.2838
▁participation	-10.2839
▁sturdy	-10.2839
▁variety	-10.2839
▁status	-10.2839
▁television	-10.2839
▁numerous	-10.2839
▁discharge	-10.2839
▁programming	-10.2839
▁REAL	-10.2839
▁caught	-10.2839
▁Sandler	-10.2839
▁club	-10.284
▁worthwhile	-10.284
▁Garbage	-10.2841
▁fantasy	-10.2841
▁saving	-10.2841
▁superb	-10.2842
▁growth	-10.2843
▁joy	-10.2843
▁defend	-10.2843
▁scale	-10.2844
▁Otherwise	-10.2845
▁90	-10.2847
▁depressing	-10.2847
▁media	-10.2851
▁William	-10.2852
Don	-10.2855
▁photo	-10.2857
▁bra	-10.286
▁boys	-10.2863
▁arrangements	-10.2865
▁May	-10.2868
▁foundation	-10.2872
▁presents	-10.2879
▁showed	-10.288
▁musicians	-10.2884
▁mistakes	-10.2887
▁hurt	-10.2896
▁bands	-10.2898
▁ring	-10.29
▁topic	-10.291
▁selling	-10.2914
▁lesson	-10.2924
▁materials	-10.2924
▁beautifully	-10.2946
▁tour	-10.2948
▁sleeping	-10.2964
▁shop	-10.2969
▁tunes	-10.2972
▁powers	-10.2989
▁career	-10.3
▁spending	-10.3009
▁fails	-10.3009
CH	-10.3011
back	-10.303
▁turning	-10.3039
▁whom	-10.3039
▁grant	-10.3041
▁systems	-10.3042
▁random	-10.3048
▁seven	-10.3049
sized	-10.3049
▁images	-10.3056
▁chose	-10.3066
é	-10.3068
▁compromise	-10.3071
▁currency	-10.3071
▁Catholic	-10.3071
▁judicial	-10.3071
▁Turkey	-10.3071
▁defective	-10.3072
▁failure	-10.3072
▁Brown	-10.3072
▁reduce	-10.3073
▁foreign	-10.3073
▁sensitive	-10.3074
▁tries	-10.3074
▁Where	-10.3074
▁2.0	-10.3075
▁Two	-10.3078
▁Haunting	-10.3079
▁win	-10.3083
▁closer	-10.309
▁theory	-10.3091
▁figures	-10.3097
▁Germany	-10.31
led	-10.3112
▁discovered	-10.3113
▁fat	-10.3115
▁talented	-10.312
▁tasks	-10.3121
void	-10.3126
▁discussions	-10.3129
▁effectively	-10.3132
▁substance	-10.3133
▁target	-10.3133
▁saved	-10.3138
▁Minister	-10.3138
▁spot	-10.3139
▁score	-10.3141
▁shoes	-10.3147
ard	-10.3151
▁Out	-10.3153
▁scan	-10.3157
▁upset	-10.3162
ler	-10.3166
▁civil	-10.3167
▁agreed	-10.3174
▁explains	-10.3183
mer	-10.3198
use	-10.3205
▁regards	-10.3206
▁DON	-10.3208
ever	-10.3216
▁continues	-10.3226
▁worthy	-10.3228
▁concepts	-10.3232
▁lessons	-10.3245
▁begins	-10.3247
▁agreements	-10.3261
border	-10.3282
▁involve	-10.3289
▁capture	-10.3289
▁Ha	-10.3302
▁ha	-10.3307
▁safe	-10.3307
▁obtain	-10.331
▁MOVIE	-10.331
▁Objective	-10.331
▁cheesy	-10.331
▁possibility	-10.331
▁worn	-10.331
▁discrimination	-10.331
▁literally	-10.3311
▁global	-10.3311
▁Lola	-10.3311
▁wore	-10.3311
▁headset	-10.3312
▁dramatic	-10.3312
▁treatment	-10.3312
▁changing	-10.3313
▁1998	-10.3315
▁outcome	-10.3315
con	-10.3316
▁latest	-10.3319
▁team	-10.332
▁Give	-10.3323
▁directly	-10.3331
ible	-10.3349
▁allows	-10.3365
▁colors	-10.3373
▁exercise	-10.3379
▁Ma	-10.338
▁congratulate	-10.339
▁Tri	-10.3404
▁dollars	-10.3407
▁arguments	-10.3412
▁experienced	-10.3426
▁weren	-10.343
way	-10.3431
▁supported	-10.3436
even	-10.3438
▁lived	-10.3445
▁hopes	-10.3449
▁pet	-10.3456
00	-10.3487
bit	-10.3491
▁Time	-10.3497
▁drivers	-10.3501
bo	-10.3502
▁stands	-10.3506
▁aside	-10.351
ised	-10.3512
ade	-10.3517
written	-10.3526
▁initial	-10.3531
▁Book	-10.3533
▁instruments	-10.3534
▁Star	-10.3536
▁absolute	-10.3538
RE	-10.354
▁hadn	-10.3541
ea	-10.3549
▁exam	-10.3553
▁Policy	-10.3553
▁Question	-10.3553
▁Treaties	-10.3553
▁evidence	-10.3553
▁beauty	-10.3553
▁frustrating	-10.3553
▁external	-10.3554
▁Scarlet	-10.3554
▁finance	-10.3554
▁wireless	-10.3554
▁began	-10.3554
▁premise	-10.3554
▁assessment	-10.3554
▁remake	-10.3554
▁Robert	-10.3555
▁english	-10.3556
▁warranty	-10.3556
▁Unless	-10.3556
▁doctor	-10.3559
▁reports	-10.356
▁acceptable	-10.3563
▁ARE	-10.3564
▁Higgins	-10.3565
▁thrown	-10.3568
▁earth	-10.357
qui	-10.3572
▁removed	-10.3578
▁active	-10.3579
▁deliver	-10.3584
▁discussed	-10.3593
▁improved	-10.36
ue	-10.36
▁connected	-10.36
▁killer	-10.3604
▁implementing	-10.3609
▁correctly	-10.3618
▁Night	-10.3629
▁conflict	-10.363
▁hundred	-10.3633
▁namely	-10.3648
▁direct	-10.3665
ki	-10.3667
▁affairs	-10.3671
▁introduc	-10.3672
erry	-10.3691
▁monitor	-10.3722
▁topics	-10.3736
▁praise	-10.3754
od	-10.3763
▁recomend	-10.3769
▁manual	-10.3782
▁READ	-10.3802
▁honour	-10.3803
▁NEVER	-10.3803
▁providing	-10.3803
▁terrific	-10.3803
▁Shakespeare	-10.3803
▁Auel	-10.3803
▁complicated	-10.3803
▁internet	-10.3804
▁impressive	-10.3804
▁unbelievable	-10.3804
▁Jackson	-10.3804
▁Adam	-10.3805
▁renewable	-10.3805
▁green	-10.3806
▁pleasure	-10.3807
▁Black	-10.3809
ny	-10.3809
▁Hill	-10.3812
▁Keep	-10.3812
▁referred	-10.3819
▁worthless	-10.382
▁Ro	-10.3829
cy	-10.383
All	-10.3832
▁mere	-10.3852
▁land	-10.3856
▁describe	-10.3876
▁supporting	-10.3876
uff	-10.3877
▁via	-10.3881
▁didnt	-10.3886
▁degree	-10.3887
▁publisher	-10.3888
▁ages	-10.3889
▁selection	-10.389
▁interviews	-10.3906
▁firstly	-10.3913
ga	-10.3921
▁Their	-10.3924
istic	-10.3931
set	-10.3935
ker	-10.3945
▁DVDs	-10.3955
▁wonderfully	-10.3975
▁charm	-10.402
play	-10.4025
▁East	-10.4027
▁vision	-10.4029
▁cap	-10.4032
▁concentrate	-10.4032
▁holding	-10.4046
▁Israel	-10.4055
▁sources	-10.4057
▁Japan	-10.406
▁Nevertheless	-10.406
▁families	-10.406
▁frightening	-10.406
▁whatsoever	-10.406
▁Holmes	-10.406
▁sharp	-10.406
▁Ayla	-10.406
▁drink	-10.406
▁narrative	-10.406
▁instance	-10.406
▁staff	-10.406
▁committed	-10.406
▁laid	-10.4061
▁Yet	-10.4061
▁proud	-10.4061
▁Brussels	-10.4061
▁February	-10.4061
▁Stargate	-10.4061
▁Excellent	-10.4062
▁Much	-10.4063
▁spin	-10.4066
▁Sorry	-10.4067
▁Music	-10.4067
▁traditional	-10.4069
▁convinced	-10.4071
▁integrated	-10.4072
?"	-10.4072
▁Are	-10.4074
day	-10.4078
▁hooked	-10.4085
ill	-10.4086
▁becoming	-10.4092
act	-10.4097
id	-10.4115
▁limit	-10.4117
▁pointless	-10.4121
▁discussing	-10.4122
▁mixed	-10.4129
▁gra	-10.4129
▁surprise	-10.413
▁contribute	-10.413
▁deserve	-10.4134
As	-10.4134
▁station	-10.4151
▁race	-10.4168
pr	-10.4207
▁sectors	-10.4214
▁nicely	-10.4239
▁award	-10.4241
▁earn	-10.4264
bi	-10.4295
However	-10.4295
▁sufficient	-10.43
thing	-10.43
▁$1	-10.4301
▁emotional	-10.4307
▁bright	-10.4314
▁ignore	-10.4316
▁asleep	-10.4323
▁efficiency	-10.4323
▁minimum	-10.4323
▁reccomend	-10.4323
▁tragedy	-10.4323
▁tedious	-10.4323
▁surface	-10.4323
ward	-10.4323
▁repetitive	-10.4323
▁Report	-10.4324
▁duty	-10.4324
▁heroine	-10.4324
▁establishment	-10.4325
▁overcome	-10.4326
▁Three	-10.4326
▁Dark	-10.4326
▁billion	-10.4327
▁toys	-10.433
▁somewhere	-10.4332
▁humanity	-10.4333
▁*	-10.4334
▁leak	-10.4335
▁passion	-10.4336
▁stone	-10.4339
▁catchy	-10.434
▁apparently	-10.4341
▁Bad	-10.4343
▁Q	-10.4346
▁perform	-10.4352
▁informed	-10.4354
▁granted	-10.436
???	-10.4367
▁packed	-10.4375
▁ti	-10.4377
▁Pre	-10.4378
▁procedures	-10.4379
▁Mar	-10.4388
To	-10.4397
▁raise	-10.4399
gh	-10.4402
▁abuse	-10.4412
▁ra	-10.4412
▁dealt	-10.4414
ring	-10.4418
▁beginner	-10.442
▁network	-10.4421
▁element	-10.4422
▁signal	-10.4423
▁resource	-10.4425
den	-10.4429
▁electronic	-10.4442
▁user	-10.4448
▁emphasis	-10.4471
ee	-10.4477
▁Ne	-10.4482
▁du	-10.4488
▁provisions	-10.4534
▁keeping	-10.4541
▁worry	-10.4543
▁grab	-10.4545
▁classics	-10.4551
▁pace	-10.4574
▁secure	-10.4576
▁rare	-10.4578
▁II	-10.4587
efinitely	-10.4588
▁conference	-10.4593
▁flavor	-10.4593
▁mediocre	-10.4593
▁sympathy	-10.4593
▁contrary	-10.4593
▁maritime	-10.4593
▁vital	-10.4594
▁latter	-10.4594
▁knock	-10.4595
▁Charles	-10.4595
▁urgent	-10.4596
▁Total	-10.4598
▁misleading	-10.4599
▁forces	-10.4601
▁bigger	-10.4602
▁Take	-10.4615
▁rarely	-10.4616
▁Si	-10.462
▁Z	-10.4628
▁po	-10.4628
▁yr	-10.4631
ice	-10.4654
▁Sp	-10.4658
▁establishing	-10.4662
▁dated	-10.4663
▁murder	-10.4664
▁folks	-10.4667
▁recognise	-10.4674
they	-10.4675
▁sand	-10.4684
▁Con	-10.4691
▁emotion	-10.4692
▁sequel	-10.4695
▁sale	-10.4701
▁explore	-10.4706
▁Le	-10.4711
▁suggested	-10.4711
▁instruction	-10.4715
40	-10.4732
ger	-10.4733
▁officials	-10.4752
▁writes	-10.4787
▁twists	-10.4811
▁threat	-10.4827
▁separate	-10.4828
▁Hi	-10.483
▁comfort	-10.4845
▁rap	-10.4845
▁letters	-10.4851
EN	-10.4853
▁borders	-10.4858
▁AC	-10.4862
▁education	-10.4865
▁EVER	-10.487
▁OLAF	-10.4871
▁advantage	-10.4871
▁atmosphere	-10.4871
▁hospital	-10.4871
▁magazine	-10.4871
▁redeem	-10.4871
▁superior	-10.4871
▁voting	-10.4871
▁shallow	-10.4871
▁clever	-10.4871
▁subsidiarity	-10.4871
▁forthcoming	-10.4871
▁Spanish	-10.4871
▁combination	-10.4871
▁Lord	-10.4872
▁plugged	-10.4872
▁mountain	-10.4872
▁Could	-10.4872
▁philosophy	-10.4872
▁Everyone	-10.4873
▁Furthermore	-10.4873
▁Titanic	-10.4874
▁dancing	-10.4876
ology	-10.4876
▁Anyway	-10.4877
▁GET	-10.4877
▁Have	-10.4877
▁Never	-10.4878
▁inspired	-10.4878
▁nowhere	-10.4881
▁god	-10.4884
▁intention	-10.4889
▁III	-10.4891
▁activity	-10.4892
▁Make	-10.4899
▁Th	-10.4901
▁airbed	-10.4901
ell	-10.4903
▁heater	-10.4912
▁lie	-10.492
-1	-10.4923
▁doesnt	-10.4924
▁toward	-10.4926
▁meets	-10.4927
tra	-10.4931
")	-10.4937
▁Rights	-10.4937
▁recordings	-10.4941
▁consequences	-10.4942
▁le	-10.4944
▁se	-10.4955
▁odd	-10.4958
▁accepted	-10.4961
▁visual	-10.4963
uck	-10.4971
▁checked	-10.4981
▁cartoon	-10.4982
▁closely	-10.4984
▁greatly	-10.4985
▁creates	-10.4989
ey	-10.4989
AL	-10.4993
▁member	-10.4994
▁recommendations	-10.5015
ual	-10.5022
lin	-10.5023
▁inch	-10.5026
ide	-10.5026
▁chair	-10.504
EC	-10.5041
50	-10.505
▁switch	-10.5106
ff	-10.511
▁helping	-10.5113
what	-10.5115
▁goal	-10.5121
▁destroy	-10.5124
Re	-10.513
▁conclude	-10.5136
▁operate	-10.5138
▁quit	-10.5146
▁coast	-10.5147
light	-10.5149
▁capacity	-10.5157
▁enormous	-10.5157
▁flexible	-10.5157
▁genuine	-10.5157
▁involving	-10.5157
▁asylum	-10.5157
▁unrealistic	-10.5157
▁pathetic	-10.5157
▁definately	-10.5157
▁Steph	-10.5157
▁pocket	-10.5157
▁military	-10.5157
▁Keel	-10.5157
▁blade	-10.5158
▁Prime	-10.5158
▁understood	-10.5158
▁reforms	-10.5159
▁Letter	-10.516
▁feelings	-10.5167
▁MY	-10.5168
▁debut	-10.5168
▁round	-10.5168
▁ultimately	-10.5168
▁Special	-10.517
▁Did	-10.5173
▁bound	-10.5173
▁weapons	-10.5179
▁mail	-10.5187
▁equally	-10.5196
▁honestly	-10.5198
▁hip	-10.52
▁killed	-10.5212
▁attack	-10.5225
▁walking	-10.5235
▁sequences	-10.526
▁nation	-10.5271
fe	-10.5275
▁court	-10.5278
▁method	-10.5278
▁inform	-10.5279
▁official	-10.528
▁error	-10.5281
▁tune	-10.5281
der	-10.5287
▁sentences	-10.531
▁badly	-10.532
▁shower	-10.5328
▁dress	-10.533
▁path	-10.5332
▁port	-10.5337
get	-10.5343
▁describes	-10.5354
▁sustain	-10.5358
20	-10.5358
▁crack	-10.5365
cut	-10.5369
▁Bar	-10.5389
▁lacks	-10.5389
isation	-10.5393
▁cry	-10.5409
down	-10.5422
▁advance	-10.5432
▁forth	-10.5437
▁wealth	-10.5438
▁cons	-10.5439
ned	-10.544
▁Last	-10.5442
▁Lo	-10.5447
▁administrati	-10.5449
▁core	-10.545
▁According	-10.5451
▁Greece	-10.5451
▁January	-10.5451
▁Middle	-10.5451
▁Pratchett	-10.5451
▁coordination	-10.5451
▁gorgeous	-10.5451
▁innovative	-10.5451
▁poverty	-10.5451
▁quiet	-10.5451
▁Transport	-10.5451
▁intense	-10.5451
▁extension	-10.5451
▁ugly	-10.5451
▁severe	-10.5451
▁September	-10.5451
▁girlfriend	-10.5451
▁tension	-10.5451
▁elevator	-10.5451
▁leg	-10.5451
▁Earth	-10.5452
▁parliamentary	-10.5452
▁Sansa	-10.5452
▁dissapointed	-10.5452
▁eight	-10.5453
▁Ok	-10.5456
▁upgrade	-10.5457
▁forms	-10.5457
▁amazed	-10.5457
▁disturbing	-10.5459
▁intellectual	-10.5459
▁enable	-10.5462
▁:)	-10.5466
▁hoped	-10.5466
que	-10.5468
nes	-10.5481
DE	-10.5494
▁Live	-10.5498
.1	-10.5502
▁Brando	-10.5528
▁relationships	-10.553
▁Christ	-10.553
che	-10.5532
▁moved	-10.5534
▁delay	-10.5545
▁organisations	-10.5547
▁statements	-10.5552
▁disasters	-10.5561
▁alive	-10.5579
▁partnership	-10.558
▁investment	-10.5582
▁divorce	-10.5584
▁session	-10.5588
▁45	-10.5596
▁hole	-10.56
▁file	-10.5615
▁speaker	-10.5623
▁fa	-10.5639
▁HE	-10.564
von	-10.5648
▁21	-10.565
nto	-10.5654
les	-10.5667
lly	-10.567
ake	-10.5675
▁tie	-10.5709
▁Da	-10.5711
▁references	-10.5712
▁thorough	-10.5732
▁knowing	-10.5733
▁recognize	-10.5741
▁afford	-10.575
▁disagree	-10.5751
▁dialog	-10.5754
▁identify	-10.5754
▁Hulten	-10.5754
▁Internet	-10.5754
▁ambitious	-10.5754
▁campaign	-10.5754
▁dictionary	-10.5754
▁engaging	-10.5754
▁fabric	-10.5754
▁fabulous	-10.5754
▁promotion	-10.5754
▁flexibility	-10.5754
▁Nirvana	-10.5754
▁driving	-10.5754
▁boyfriend	-10.5754
▁vivid	-10.5754
▁compilation	-10.5754
▁planned	-10.5755
▁believable	-10.5755
▁WILL	-10.5755
▁England	-10.5755
▁applicable	-10.5755
▁clothes	-10.5756
▁instructor	-10.5756
▁supply	-10.5756
▁blame	-10.5756
▁Today	-10.5756
▁grand	-10.5757
▁colorful	-10.5757
▁studies	-10.5758
▁smart	-10.5758
▁haunted	-10.576
▁Miss	-10.576
ang	-10.5768
▁editing	-10.5769
Not	-10.577
▁tech	-10.5773
▁anybody	-10.5779
▁religion	-10.5779
▁beware	-10.5779
▁owned	-10.5783
▁flying	-10.5784
kin	-10.5785
▁incorrect	-10.5786
▁attached	-10.5789
▁cooking	-10.5792
▁nights	-10.5806
▁grounds	-10.5814
▁addressed	-10.583
▁trick	-10.5837
▁sustainabl	-10.5851
▁continued	-10.5852
▁touching	-10.5854
▁burning	-10.5855
▁acted	-10.5864
▁secret	-10.5867
▁island	-10.5868
▁Commissioners	-10.5871
pin	-10.5884
▁street	-10.5892
▁recall	-10.5893
▁screw	-10.5893
▁drop	-10.5894
▁kick	-10.5894
▁drug	-10.5894
▁finger	-10.5895
▁Sci	-10.5895
▁Being	-10.5905
▁Car	-10.591
bl	-10.5915
▁1997	-10.5926
▁Run	-10.5933
▁twin	-10.5946
ification	-10.5949
verything	-10.5956
cent	-10.5957
king	-10.596
ky	-10.5962
have	-10.5977
▁ban	-10.5978
▁calling	-10.5986
▁shock	-10.5986
▁consumers	-10.5993
▁pin	-10.6006
gu	-10.6011
▁hang	-10.6025
▁attach	-10.6029
▁select	-10.603
▁confirm	-10.6031
Q	-10.6038
Office	-10.6038
Also	-10.6038
house	-10.6039
▁religio	-10.6041
▁options	-10.6042
▁adequate	-10.6043
log	-10.6046
▁rid	-10.6047
▁blood	-10.6053
▁approve	-10.6056
▁update	-10.6061
▁thru	-10.6063
▁applies	-10.6066
▁burden	-10.6066
▁universe	-10.6066
▁frustrated	-10.6066
▁pleasant	-10.6066
▁stability	-10.6067
▁Sometimes	-10.6067
▁profound	-10.6067
▁View	-10.6067
▁glass	-10.6067
▁Bugliosi	-10.6067
▁primarily	-10.6067
▁globalisation	-10.6067
▁motor	-10.6067
▁rough	-10.6067
▁Wow	-10.6067
▁winter	-10.6068
▁December	-10.6069
▁mental	-10.607
▁delightful	-10.6075
▁Bible	-10.6076
▁opposed	-10.6078
▁insist	-10.608
▁fi	-10.6082
▁afternoon	-10.6082
ign	-10.6084
▁annual	-10.6087
▁fund	-10.6088
▁Day	-10.6089
▁highest	-10.609
▁deeper	-10.609
▁bass	-10.6107
▁rocks	-10.6111
▁magical	-10.6113
▁editor	-10.6118
ization	-10.6127
▁faster	-10.6128
▁tools	-10.6136
▁requested	-10.6139
▁collect	-10.6143
▁teachers	-10.6144
▁sign	-10.6151
▁0	-10.616
rk	-10.6161
▁seconds	-10.6166
▁met	-10.6174
▁Rock	-10.6184
▁difficulty	-10.6187
▁formula	-10.6192
port	-10.62
▁viewing	-10.621
▁blocks	-10.6212
▁scheme	-10.6216
head	-10.6217
▁colleague	-10.6219
▁gifted	-10.6219
▁sentence	-10.6223
▁cleaning	-10.6224
▁union	-10.6238
▁sheet	-10.6239
▁holes	-10.6246
▁legs	-10.6247
▁breaking	-10.6259
▁belong	-10.6262
▁pe	-10.627
▁hundreds	-10.6285
▁extend	-10.6306
▁Lot	-10.6315
▁wa	-10.6321
ong	-10.6327
▁drag	-10.6336
▁Vi	-10.6336
lic	-10.6337
▁models	-10.6356
▁del	-10.6362
▁apparent	-10.6367
▁Up	-10.6378
▁consist	-10.6389
▁Zeta	-10.6389
▁Erika	-10.6389
▁GOOD	-10.6389
▁examination	-10.6389
▁ghost	-10.6389
▁ensuring	-10.6389
▁newspaper	-10.6389
▁yoga	-10.6389
▁unnecessary	-10.639
▁vast	-10.639
▁existence	-10.639
▁lights	-10.639
▁MUST	-10.6391
▁proof	-10.6392
▁scenery	-10.6393
▁commentary	-10.6394
▁creepy	-10.6394
▁documentary	-10.6395
▁bomb	-10.6395
▁tea	-10.6396
2.	-10.64
▁transition	-10.6403
▁cake	-10.6403
▁promised	-10.6407
promoting	-10.6409
▁reply	-10.641
▁cooker	-10.6411
tro	-10.6415
▁surrounding	-10.6418
▁elections	-10.642
▁Mary	-10.6422
▁refugees	-10.6426
▁el	-10.643
On	-10.6434
▁ME	-10.6441
zz	-10.6459
rate	-10.6461
bu	-10.6468
ified	-10.6479
cu	-10.65
▁techniques	-10.65
efore	-10.6505
▁reflect	-10.6509
▁succeed	-10.6511
▁previously	-10.6519
▁train	-10.6522
▁runs	-10.6526
▁dimension	-10.654
called	-10.6544
▁differences	-10.6545
▁costume	-10.6547
▁reaction	-10.6548
▁depend	-10.6548
▁location	-10.6549
▁imp	-10.6559
▁rip	-10.6569
▁sounded	-10.657
ters	-10.6587
▁emotions	-10.6592
▁sizes	-10.6595
▁recommendation	-10.6601
▁mp	-10.6603
hich	-10.6605
end	-10.6631
▁cuts	-10.6643
lter	-10.6649
how	-10.6671
iness	-10.6671
▁preferr	-10.6682
▁delight	-10.6683
`	-10.6693
just	-10.6694
▁blues	-10.6698
▁CO	-10.6699
▁pr	-10.67
especially	-10.6705
ship	-10.6706
▁tales	-10.6707
▁Denmark	-10.6722
▁Kerouac	-10.6722
▁Tampere	-10.6722
▁awkward	-10.6722
▁captivating	-10.6722
▁improving	-10.6722
▁nonetheless	-10.6722
▁presidency	-10.6722
▁replacing	-10.6722
▁safeguard	-10.6722
▁violence	-10.6722
▁tragic	-10.6722
▁unusual	-10.6722
▁censorship	-10.6722
▁devote	-10.6722
▁outdated	-10.6722
▁taught	-10.6723
▁eligible	-10.6723
▁legend	-10.6723
▁000	-10.6723
▁symbolism	-10.6723
▁techno	-10.6724
▁Richard	-10.6724
▁minor	-10.6724
▁Such	-10.6724
▁gender	-10.6726
▁equality	-10.6726
▁elected	-10.6726
▁mad	-10.6727
▁everywhere	-10.6727
▁installation	-10.6729
▁rain	-10.673
▁rocket	-10.6732
▁exists	-10.6732
▁frequently	-10.6733
▁CAN	-10.6734
▁sake	-10.6734
▁haunting	-10.6734
▁sight	-10.6743
▁mission	-10.6744
▁advanced	-10.6745
▁Mad	-10.6753
▁charges	-10.6755
▁customers	-10.6767
▁employees	-10.6772
ney	-10.6774
▁appeared	-10.679
▁ordering	-10.6804
used	-10.6805
▁inches	-10.6807
??	-10.6815
▁offered	-10.6821
▁rightly	-10.6833
▁Nations	-10.6855
▁hook	-10.6865
Fi	-10.6871
▁timeless	-10.689
▁intervention	-10.6893
▁generation	-10.6895
▁criticism	-10.6896
▁guest	-10.6897
▁window	-10.6897
▁sh	-10.6911
▁attempting	-10.6911
▁Com	-10.6917
hop	-10.6924
gen	-10.6932
ah	-10.6933
▁lies	-10.6935
▁3-	-10.6942
▁listing	-10.6949
▁Ministers	-10.6968
▁multi	-10.6972
rr	-10.6979
▁al	-10.6991
▁lo	-10.7001
▁pi	-10.7002
und	-10.7006
ins	-10.7009
ou	-10.7018
▁risks	-10.7021
ments	-10.7034
vo	-10.7036
▁attend	-10.7038
▁achiev	-10.7039
▁physical	-10.7044
▁constant	-10.7045
▁consistent	-10.7045
good	-10.7046
▁Sea	-10.7049
▁exceptional	-10.7051
▁efficient	-10.7052
▁courage	-10.7057
▁lover	-10.7059
▁arrive	-10.706
▁hype	-10.7061
mail	-10.7064
▁crash	-10.7065
▁permit	-10.7066
▁gold	-10.7067
▁Schroedter	-10.7067
▁descriptive	-10.7067
▁ecological	-10.7067
▁recognition	-10.7067
▁retain	-10.7067
▁presence	-10.7067
▁pepper	-10.7067
▁marriage	-10.7067
▁1996	-10.7067
▁subsequent	-10.7067
▁radical	-10.7067
▁forgotten	-10.7067
▁poetry	-10.7068
▁facing	-10.7068
▁z	-10.7068
▁fold	-10.7069
▁paperback	-10.7069
▁shelf	-10.7069
▁escape	-10.707
▁memorable	-10.707
▁rabbit	-10.707
▁salt	-10.707
▁Macally	-10.707
▁Life	-10.7071
▁nonsense	-10.7071
▁everybody	-10.7072
▁glasses	-10.7073
▁Easy	-10.7074
▁Little	-10.7074
▁submitted	-10.7075
▁su	-10.7084
▁SG	-10.7086
si	-10.7087
▁kindle	-10.7089
▁Dickens	-10.7097
▁extended	-10.7103
▁signed	-10.7111
▁importantly	-10.7112
▁sexy	-10.7113
▁jokes	-10.7128
▁lovely	-10.713
▁que	-10.7134
mi	-10.7139
▁lit	-10.7141
▁burned	-10.7144
▁functioning	-10.715
▁Mi	-10.7155
▁emphasise	-10.7158
top	-10.7162
▁jump	-10.7165
▁killing	-10.7169
▁West	-10.7171
▁contents	-10.719
▁See	-10.7196
ile	-10.7197
▁min	-10.72
▁cycle	-10.7205
▁occasions	-10.7205
hard	-10.7213
▁units	-10.7214
ect	-10.7228
▁link	-10.723
▁demonstrate	-10.723
▁hi	-10.7231
▁diet	-10.7237
▁Li	-10.7244
▁accident	-10.725
▁clip	-10.7252
▁theater	-10.7254
▁affair	-10.7254
ON	-10.7258
▁400	-10.7263
▁calls	-10.7265
▁files	-10.7266
lan	-10.7268
▁Ga	-10.7277
bb	-10.7297
▁printing	-10.7298
don	-10.7301
4.	-10.7311
▁ne	-10.7312
▁news	-10.733
▁directives	-10.7337
▁trans	-10.734
▁represents	-10.7341
▁ink	-10.7343
▁shouldn	-10.7346
▁AN	-10.735
▁viewer	-10.7352
▁evening	-10.7354
▁prepar	-10.7357
▁humans	-10.7358
▁Cor	-10.7363
▁predict	-10.7364
wing	-10.7375
▁adjust	-10.7379
▁reject	-10.7385
▁fate	-10.7391
capable	-10.7395
▁feed	-10.7395
▁advise	-10.7402
▁assure	-10.7405
▁Second	-10.7406
▁bore	-10.741
cc	-10.7413
rlock	-10.7416
▁challenges	-10.7422
▁proceed	-10.7423
▁gu	-10.7424
▁wanna	-10.7424
▁jack	-10.7424
▁Gammell	-10.7424
▁Europol	-10.7424
▁Tourism	-10.7424
▁continuing	-10.7424
▁desperate	-10.7424
▁exclusion	-10.7424
▁extensive	-10.7424
▁terribly	-10.7424
▁valuable	-10.7424
▁vendor	-10.7424
▁church	-10.7424
▁twenty	-10.7424
▁True	-10.7424
▁territory	-10.7424
▁Latin	-10.7424
▁Freedom	-10.7424
▁curious	-10.7424
▁racism	-10.7425
▁flash	-10.7425
▁conciliation	-10.7425
▁investigation	-10.7425
▁FROM	-10.7425
▁excessive	-10.7425
▁cash	-10.7425
▁blah	-10.7425
▁socks	-10.7425
▁competitiveness	-10.7426
▁March	-10.7426
▁WHAT	-10.7426
▁lady	-10.7426
▁artwork	-10.7426
▁footage	-10.7426
▁expand	-10.7426
▁spare	-10.7427
▁lens	-10.7427
▁2002	-10.7427
▁apple	-10.7427
▁chest	-10.7428
▁cincher	-10.7428
▁necessarily	-10.7429
▁binding	-10.7429
▁suspect	-10.7429
▁reviewed	-10.7432
▁Hardy	-10.7432
▁Clan	-10.7433
▁grown	-10.7435
▁Peter	-10.7435
▁educational	-10.7436
▁provoking	-10.7436
▁approval	-10.7438
▁Try	-10.7438
▁Jones	-10.7443
▁realism	-10.7444
▁counter	-10.7447
▁resolved	-10.745
▁finest	-10.7458
▁ships	-10.7459
▁Air	-10.7467
▁Age	-10.7468
▁Mel	-10.7477
▁workout	-10.7486
▁damaged	-10.7486
▁thousands	-10.7491
▁shared	-10.7492
▁rep	-10.7496
▁proved	-10.7496
▁solutions	-10.7497
UST	-10.7498
▁plant	-10.7506
▁MU	-10.751
long	-10.7513
specially	-10.7538
▁Men	-10.7546
▁choices	-10.7547
▁Socialists	-10.7561
▁slowly	-10.7561
▁friendly	-10.7566
▁searching	-10.7569
▁cheaply	-10.7574
▁pot	-10.7576
▁Got	-10.7579
▁individuals	-10.7587
▁Gra	-10.7589
▁promise	-10.7599
▁windows	-10.7605
▁mu	-10.7605
ane	-10.7611
▁wash	-10.7618
▁holiday	-10.762
▁interpretation	-10.762
▁sample	-10.7621
▁block	-10.7625
▁representative	-10.7625
▁li	-10.7626
▁ran	-10.763
▁ill	-10.7659
▁fr	-10.7673
qu	-10.7702
she	-10.7703
▁tests	-10.7712
▁occur	-10.7726
▁bo	-10.7726
▁fu	-10.7732
▁explanations	-10.774
anish	-10.7753
▁accounts	-10.7756
ec	-10.7757
ear	-10.7758
▁conduct	-10.7759
ack	-10.7761
free	-10.7767
That	-10.7767
lying	-10.7789
▁mount	-10.7795
▁Cornwell	-10.7795
▁Fox	-10.7795
▁November	-10.7795
▁Prosecutor	-10.7795
▁bizarre	-10.7795
▁challenging	-10.7795
▁credibility	-10.7795
▁kitchen	-10.7795
▁receiving	-10.7795
▁convenient	-10.7795
▁nightmare	-10.7795
▁York	-10.7795
▁freak	-10.7795
▁frustration	-10.7795
▁heritage	-10.7795
▁damn	-10.7795
▁convey	-10.7795
▁stiff	-10.7795
▁borrow	-10.7795
▁drain	-10.7795
▁dropped	-10.7795
▁Light	-10.7795
▁ease	-10.7796
▁June	-10.7796
▁grammar	-10.7796
▁Road	-10.7796
▁data	-10.7796
▁Chinese	-10.7796
▁photography	-10.7796
▁minority	-10.7796
▁snap	-10.7797
▁bonus	-10.7797
▁Actually	-10.7797
▁evident	-10.7797
▁bread	-10.7798
▁100%	-10.7798
▁halfway	-10.7798
IS	-10.7798
▁compliment	-10.7798
▁Control	-10.7798
▁Mega	-10.7798
▁Poor	-10.7798
▁dozen	-10.7799
▁gore	-10.7799
▁click	-10.7799
▁YOUR	-10.7799
▁certainty	-10.7801
▁July	-10.7804
▁cutting	-10.7807
▁assigned	-10.7808
▁None	-10.7811
▁experiences	-10.7813
▁$	-10.7815
▁losing	-10.7817
▁spiritual	-10.782
▁inflated	-10.7821
▁copies	-10.7825
▁normally	-10.7847
ze	-10.7849
▁marked	-10.785
can	-10.7856
▁rented	-10.7856
▁Ch	-10.7859
ging	-10.7865
▁ta	-10.7866
▁tapes	-10.7866
▁extras	-10.7871
▁roles	-10.7873
▁pen	-10.7873
▁charged	-10.789
TER	-10.789
▁aims	-10.7892
SE	-10.7896
▁opinions	-10.79
▁sadly	-10.79
▁sheer	-10.7902
▁35	-10.7905
low	-10.7915
▁storms	-10.7929
▁sole	-10.793
▁60	-10.7938
▁roots	-10.7956
VE	-10.7971
ire	-10.7973
▁voices	-10.798
▁na	-10.7991
▁channel	-10.8006
▁flag	-10.8006
▁animal	-10.8008
ction	-10.8008
till	-10.8016
ux	-10.8031
▁finishing	-10.8038
▁employ	-10.806
▁Has	-10.8081
No	-10.8119
core	-10.8124
where	-10.8132
▁fulfil	-10.8138
▁stretch	-10.8142
▁strict	-10.8146
General	-10.8151
$	-10.8151
Why	-10.8151
With	-10.8152
COM	-10.8154
▁surely	-10.8158
▁resolve	-10.8162
▁agricultur	-10.8167
▁realise	-10.8168
▁map	-10.8169
▁shake	-10.8169
▁Sure	-10.8171
▁Africa	-10.8173
▁actress	-10.8174
▁bill	-10.8175
▁holder	-10.8177
▁kit	-10.8179
▁International	-10.8179
▁Larry	-10.8179
▁Video	-10.8179
▁absurd	-10.8179
▁childbirth	-10.8179
▁clarity	-10.8179
▁empty	-10.8179
▁participate	-10.8179
▁proposing	-10.8179
▁scenario	-10.8179
▁supervision	-10.8179
▁zero	-10.8179
▁opposite	-10.8179
▁Home	-10.8179
▁communities	-10.8179
▁waterproof	-10.8179
▁Series	-10.8179
▁sovereignty	-10.818
▁magnificent	-10.818
▁exclusive	-10.818
▁memories	-10.818
oyote	-10.818
▁crude	-10.818
They	-10.818
▁attractive	-10.818
▁reduction	-10.818
▁consultation	-10.8181
▁Henry	-10.8182
▁dirty	-10.8183
▁Should	-10.8183
▁Steve	-10.8183
▁govern	-10.8184
▁combine	-10.8184
▁Australian	-10.8184
▁Nice	-10.8185
▁hence	-10.8185
▁compatible	-10.8189
▁taxation	-10.819
vel	-10.8192
▁substantial	-10.8193
▁During	-10.8198
▁outlet	-10.8198
▁occasionally	-10.8199
▁ball	-10.8204
▁whenever	-10.8204
▁compelling	-10.8208
▁ruined	-10.8209
ists	-10.8211
▁Within	-10.8212
real	-10.8213
2)	-10.8217
▁Har	-10.8218
▁shocked	-10.822
▁rank	-10.8221
▁vi	-10.8227
▁directed	-10.8231
▁Eric	-10.8236
▁subtle	-10.8241
▁LA	-10.8244
▁fixed	-10.8244
▁sings	-10.8245
▁deeply	-10.825
▁repeated	-10.8252
1)	-10.8256
▁directions	-10.8266
are	-10.8267
▁virtual	-10.827
▁26	-10.8273
▁suggestions	-10.8273
▁j	-10.8277
Do	-10.8281
▁Democrats	-10.8306
▁focused	-10.8312
▁meat	-10.8312
▁ga	-10.8329
ita	-10.8332
▁Green	-10.8335
cing	-10.8339
▁seasons	-10.834
its	-10.8342
▁animals	-10.8354
15	-10.8355
▁studying	-10.8373
ither	-10.8377
▁plane	-10.8379
body	-10.8388
▁Pe	-10.8389
▁struggle	-10.8389
▁lovers	-10.8403
▁definition	-10.8406
▁Economic	-10.8407
▁root	-10.8408
▁argument	-10.8409
▁graphic	-10.8413
▁cup	-10.8416
▁rod	-10.842
▁22	-10.8423
▁Se	-10.8424
ces	-10.8436
za	-10.8439
▁ma	-10.8442
▁leads	-10.8457
▁gr	-10.8457
DS	-10.8469
▁cook	-10.8478
▁records	-10.8485
▁mat	-10.85
▁priced	-10.8525
30	-10.8527
▁adapt	-10.8545
point	-10.8549
_	-10.855
Parliament	-10.8551
Now	-10.8552
▁MP	-10.8554
▁blind	-10.8555
▁permanent	-10.8556
hold	-10.8556
▁demands	-10.8558
,000	-10.8561
▁examine	-10.8561
▁accomplish	-10.8571
▁reduc	-10.8576
▁chick	-10.8578
▁blank	-10.8578
▁euro	-10.8579
▁Angel	-10.8579
Applause	-10.8579
▁Garcia	-10.8579
▁Kinnock	-10.8579
▁behavior	-10.8579
▁cinematography	-10.8579
▁disparities	-10.8579
▁glimpse	-10.8579
▁vacation	-10.8579
▁Girl	-10.8579
▁hilarious	-10.8579
▁operators	-10.8579
▁amateur	-10.8579
▁correspond	-10.8579
▁medicine	-10.8579
▁Ugly	-10.8579
▁blend	-10.8579
▁angry	-10.8579
▁confusion	-10.8579
▁compact	-10.8579
▁hiking	-10.858
▁filter	-10.858
▁ripped	-10.858
▁dying	-10.858
▁await	-10.858
▁epic	-10.858
▁breaks	-10.858
▁trilogy	-10.8581
▁involvement	-10.8581
▁cardboard	-10.8581
▁contract	-10.8581
▁married	-10.8582
▁favourite	-10.8582
▁Super	-10.8583
▁UK	-10.8583
▁Science	-10.8583
▁considerably	-10.8584
▁Paul	-10.8584
▁snow	-10.8584
▁2006	-10.8586
▁differ	-10.8586
▁raw	-10.8589
▁portion	-10.8589
▁Again	-10.8592
▁USA	-10.8593
▁Bra	-10.8596
▁prepare	-10.8597
▁Cave	-10.8597
▁Free	-10.8598
▁fitting	-10.86
▁thriller	-10.8602
▁temp	-10.8602
mas	-10.8605
fiction	-10.8607
▁Anne	-10.8607
▁CDs	-10.8607
▁Juliet	-10.8607
▁combined	-10.8609
▁inspiring	-10.8612
▁factory	-10.8617
▁loses	-10.8622
▁refuse	-10.8623
▁briefly	-10.8626
▁structures	-10.8628
▁et	-10.8629
▁scientists	-10.8633
▁sin	-10.8636
▁thinks	-10.8639
▁balanced	-10.8639
▁represented	-10.8641
▁naturally	-10.8641
▁ancient	-10.8642
▁hanging	-10.8644
net	-10.8652
▁treated	-10.8653
▁belly	-10.8655
▁prices	-10.8658
▁parliaments	-10.8661
▁downloaded	-10.8661
art	-10.8669
▁producers	-10.8679
▁touched	-10.8681
RA	-10.8691
▁inner	-10.8694
▁laughing	-10.8706
very	-10.8714
▁fo	-10.873
▁applying	-10.873
▁pad	-10.873
▁assum	-10.8733
ern	-10.8733
▁ya	-10.8734
▁Sa	-10.8738
▁mass	-10.8747
▁printed	-10.8759
▁passing	-10.8776
van	-10.8778
!).	-10.8792
▁slip	-10.8796
▁Ex	-10.8813
▁remembered	-10.8817
app	-10.8818
▁article	-10.8823
▁dollar	-10.8826
▁interview	-10.8827
▁intentions	-10.8829
br	-10.8833
▁TH	-10.8841
▁goals	-10.8855
izing	-10.8888
▁DE	-10.8893
▁fires	-10.8895
ink	-10.8896
ature	-10.8921
▁acts	-10.8927
▁Us	-10.8931
▁dreams	-10.895
▁condemn	-10.8961
After	-10.8967
Overall	-10.8968
Buy	-10.8968
American	-10.8968
some	-10.8968
▁torture	-10.8975
Well	-10.898
▁drawing	-10.898
▁recover	-10.8983
▁hide	-10.8992
▁import	-10.8994
▁competitive	-10.8994
▁maxim	-10.8996
responsibilities	-10.8996
▁Anthony	-10.8996
▁Taylor	-10.8996
▁WHO	-10.8996
▁Wilson	-10.8996
▁animation	-10.8996
▁candidate	-10.8996
▁cartridge	-10.8996
▁concrete	-10.8996
▁contrast	-10.8996
▁economies	-10.8996
▁enemy	-10.8996
▁identity	-10.8996
▁melodies	-10.8996
▁regime	-10.8996
▁simplistic	-10.8996
▁superficial	-10.8996
▁command	-10.8996
▁CGI	-10.8996
▁Descent	-10.8996
▁Next	-10.8996
▁mysterious	-10.8996
▁valid	-10.8996
▁imaginative	-10.8996
▁labour	-10.8996
▁Tomcat	-10.8996
▁Kingdom	-10.8996
▁hidden	-10.8996
▁loop	-10.8996
▁Okay	-10.8996
▁Centr	-10.8997
▁visible	-10.8997
▁Under	-10.8997
▁breath	-10.8997
▁Moreover	-10.8997
▁Patten	-10.8997
▁deflate	-10.8997
▁HER	-10.8998
▁theatre	-10.8998
▁operating	-10.8998
▁stable	-10.8998
▁Think	-10.8998
▁Basically	-10.8998
▁Dolly	-10.8998
▁Damme	-10.8998
▁remarkable	-10.8999
▁allocated	-10.8999
▁dislike	-10.8999
▁terrifying	-10.8999
▁dishes	-10.8999
▁diversity	-10.8999
▁BEST	-10.9
▁Version	-10.9
▁horse	-10.9001
▁Fire	-10.9003
▁Movie	-10.9003
▁tall	-10.9004
▁wild	-10.9005
▁Wish	-10.9008
▁Long	-10.9009
▁quota	-10.9009
▁recovery	-10.9009
▁chew	-10.9009
▁boost	-10.901
▁instantly	-10.9011
▁mature	-10.9011
▁gay	-10.9011
▁sixth	-10.9012
▁Stay	-10.9013
▁satisfying	-10.9014
▁Bear	-10.9015
▁HD	-10.9015
more	-10.9016
▁/	-10.9019
▁Cage	-10.9019
▁laws	-10.902
▁demonstrated	-10.902
▁computers	-10.9022
▁fourth	-10.9022
▁General	-10.9027
lock	-10.9029
▁demo	-10.9043
▁amend	-10.905
au	-10.9053
▁enterprises	-10.906
▁hose	-10.9063
▁dust	-10.9073
!!!!!	-10.9075
▁mini	-10.9077
vid	-10.9078
▁owner	-10.9081
▁positions	-10.9086
▁movements	-10.9106
▁ray	-10.9114
ka	-10.9117
▁x	-10.9122
▁handy	-10.9125
uring	-10.9131
▁assist	-10.9134
▁decades	-10.9163
▁interi	-10.9164
ENT	-10.9167
200	-10.9188
▁pictured	-10.919
ight	-10.9196
coming	-10.9215
▁fool	-10.9219
fa	-10.9221
▁ruin	-10.9222
▁ST	-10.9228
LO	-10.9231
▁alter	-10.9243
▁courts	-10.9246
▁ports	-10.9246
▁rack	-10.9248
▁occasion	-10.9252
▁department	-10.9256
▁exception	-10.9258
▁strap	-10.9258
▁decade	-10.9259
▁wheel	-10.9259
▁textbook	-10.926
▁vehicle	-10.9261
▁chart	-10.9261
▁Sound	-10.9267
▁Nation	-10.9271
▁Su	-10.9272
De	-10.9276
▁waited	-10.9276
ged	-10.9278
▁Roman	-10.928
.......	-10.9284
▁Ann	-10.9297
▁RE	-10.9298
IR	-10.9314
stitutional	-10.9324
▁South	-10.9331
▁Boy	-10.9333
sta	-10.9346
▁com	-10.9352
▁commitments	-10.936
▁Leg	-10.9361
tes	-10.9365
▁23	-10.9374
▁intends	-10.9376
▁UP	-10.9386
▁disappear	-10.9396
las	-10.9402
Great	-10.9403
▁opera	-10.9404
ua	-10.9404
▁precise	-10.9409
▁buttons	-10.9414
▁tackle	-10.942
▁edges	-10.9421
▁Ever	-10.9428
▁Power	-10.943
▁Mc	-10.943
▁2000-2006	-10.9431
▁Barbie	-10.9431
▁Friday	-10.9431
▁Honestly	-10.9431
▁Jabra	-10.9431
▁LIKE	-10.9431
▁Liberal	-10.9431
▁London	-10.9431
▁Musiq	-10.9431
▁TIME	-10.9431
▁Truth	-10.9431
▁climate	-10.9431
▁constitute	-10.9431
▁contrived	-10.9431
▁dynamic	-10.9431
▁encouraging	-10.9431
▁intrigue	-10.9431
▁mirror	-10.9431
▁plenary	-10.9431
▁routine	-10.9431
▁strategies	-10.9431
▁xenophobia	-10.9431
▁Oscar	-10.9431
▁phase	-10.9431
▁ambition	-10.9431
▁monetar	-10.9431
▁bookstore	-10.9431
▁ashamed	-10.9431
▁antenna	-10.9431
▁garden	-10.9431
▁revenge	-10.9431
▁Yeah	-10.9431
▁yellow	-10.9431
▁Theato	-10.9431
▁monopolies	-10.9431
▁witty	-10.9432
▁uninteresting	-10.9432
▁divide	-10.9432
▁gross	-10.9432
▁governance	-10.9432
▁accessible	-10.9432
▁false	-10.9432
▁spread	-10.9432
▁imagery	-10.9433
▁speculation	-10.9433
▁preparation	-10.9433
▁entitled	-10.9433
▁backpack	-10.9434
▁iBook	-10.9434
▁rail	-10.9435
▁Code	-10.9436
▁math	-10.9437
▁ab	-10.9438
▁Culture	-10.9438
▁refreshing	-10.9439
▁AT	-10.9443
▁portrayal	-10.9444
▁inflate	-10.9446
▁seeming	-10.9447
let	-10.9447
▁laughs	-10.9456
▁32	-10.9457
▁lucky	-10.9458
▁sucked	-10.9459
▁expression	-10.9462
▁qua	-10.9462
▁confirmed	-10.9477
▁firmly	-10.9479
▁passages	-10.9481
rising	-10.9486
▁cla	-10.9487
▁successfully	-10.949
▁practically	-10.9497
turn	-10.95
▁planet	-10.9505
▁reduced	-10.9505
▁Tom	-10.9522
▁:	-10.9524
▁pan	-10.9527
▁eating	-10.9535
▁headphones	-10.9543
▁AS	-10.9547
▁titles	-10.9558
tory	-10.9578
gg	-10.9594
▁arm	-10.9598
▁cares	-10.9604
yr	-10.9606
MB	-10.9609
▁spite	-10.9613
She	-10.9615
▁researched	-10.9627
▁argue	-10.9629
ax	-10.9634
▁?	-10.9636
▁tooth	-10.9639
ept	-10.9643
▁crimes	-10.9646
▁....	-10.9647
ery	-10.9662
▁obscure	-10.9669
ional	-10.967
▁flaw	-10.9677
▁owners	-10.9679
dical	-10.9686
▁quote	-10.9692
▁judge	-10.9694
ain	-10.9696
▁tradition	-10.9697
▁chips	-10.9713
▁Socialist	-10.9716
▁Americans	-10.9717
▁leaks	-10.9719
▁spell	-10.9727
US	-10.9728
▁selections	-10.9733
▁cameras	-10.975
▁parent	-10.9761
▁Hu	-10.9771
▁millions	-10.9773
.........	-10.9776
▁comic	-10.9781
wa	-10.9782
▁leader	-10.9783
ash	-10.9784
▁releases	-10.9789
▁des	-10.9796
▁functions	-10.9798
▁reveal	-10.9799
▁En	-10.9806
▁beach	-10.9821
ina	-10.9825
▁insult	-10.9834
▁describ	-10.9842
▁wh	-10.9849
▁camp	-10.985
board	-10.9854
European	-10.9858
▁historic	-10.9859
Ray	-10.986
▁tremendous	-10.9862
▁surprising	-10.9862
▁acknowledge	-10.9864
▁solve	-10.9866
▁ch	-10.9869
▁Syria	-10.9869
▁incorporate	-10.9869
▁occasional	-10.987
▁tank	-10.9874
▁Tomb	-10.9875
▁Product	-10.9878
▁commit	-10.9883
▁Tibet	-10.9883
▁define	-10.9884
▁nine	-10.9884
▁Buendia	-10.9885
▁Convention	-10.9885
▁Greek	-10.9885
▁Helsinki	-10.9885
▁Madonna	-10.9885
▁Obviously	-10.9885
▁Subject	-10.9885
▁applicant	-10.9885
▁coalition	-10.9885
▁creativity	-10.9885
▁heavily	-10.9885
▁intriguing	-10.9885
▁professor	-10.9885
▁rambling	-10.9885
▁senior	-10.9885
▁essence	-10.9885
▁footnotes	-10.9885
▁Minutes	-10.9885
▁psychological	-10.9885
▁revision	-10.9885
▁guilt	-10.9885
▁Jesus	-10.9885
▁Julia	-10.9885
▁Chamber	-10.9885
▁haiku	-10.9885
albeit	-10.9885
▁excitement	-10.9885
▁Disney	-10.9885
▁contemporary	-10.9885
▁convenience	-10.9885
▁pretend	-10.9885
▁Left	-10.9885
▁split	-10.9886
▁Return	-10.9886
▁Scarpetta	-10.9886
▁Thursday	-10.9886
▁Irish	-10.9886
▁keyboard	-10.9886
▁Monet	-10.9886
▁vibe	-10.9887
▁Everest	-10.9887
night	-10.9887
▁KNOW	-10.9887
▁weekend	-10.9887
▁China	-10.9888
▁farmers	-10.9888
▁friendship	-10.9888
▁80%	-10.9889
▁thread	-10.9889
▁ethnic	-10.9889
▁contradiction	-10.9889
▁Langen	-10.9889
ette	-10.989
▁gap	-10.9891
▁wooden	-10.9891
▁overview	-10.9891
▁Kate	-10.9891
▁sta	-10.9892
▁Romeo	-10.9892
▁annoyed	-10.9892
▁announced	-10.9892
▁shirt	-10.9893
▁countryside	-10.9893
▁located	-10.9893
▁Add	-10.9893
▁effectiveness	-10.9894
▁drivel	-10.9895
▁infrastructure	-10.9896
▁ATI	-10.9897
live	-10.9899
▁occurred	-10.9899
▁Terry	-10.9899
▁agriculture	-10.99
▁somebody	-10.9901
▁regardless	-10.9902
▁es	-10.9903
▁justify	-10.9903
▁slot	-10.9906
▁nu	-10.9909
▁comply	-10.9909
▁wit	-10.991
▁connector	-10.9911
ION	-10.9912
▁strictly	-10.9912
ssed	-10.9913
▁politicians	-10.9914
▁chase	-10.9917
▁guarantees	-10.9917
▁updated	-10.9921
▁pile	-10.9922
▁recognized	-10.9923
▁City	-10.9923
▁ideal	-10.9925
new	-10.9929
▁dad	-10.993
▁forgot	-10.9934
unch	-10.9936
▁destroyed	-10.9939
▁smells	-10.9942
▁defined	-10.9943
then	-10.9947
▁erotic	-10.9951
▁Easter	-10.9953
▁cant	-10.9954
▁$10	-10.996
▁phrases	-10.9971
▁critics	-10.9972
ium	-10.9973
vis	-10.9975
▁vs	-10.9985
atory	-10.9985
▁visiting	-11.0003
▁PS	-11.0005
▁shots	-11.0013
▁partners	-11.0019
ILL	-11.0029
▁seams	-11.0035
▁Thought	-11.0038
▁AM	-11.0039
▁tested	-11.0053
truck	-11.0057
▁insights	-11.0062
▁arms	-11.0064
cast	-11.0073
▁Gu	-11.0074
CE	-11.0082
▁suffer	-11.0102
▁incident	-11.0103
▁links	-11.011
---	-11.0112
▁generations	-11.0118
▁guests	-11.0118
▁Sha	-11.0119
▁belongs	-11.0135
▁consult	-11.0135
▁signs	-11.0136
▁200	-11.0142
▁lacked	-11.0143
▁insert	-11.0151
ened	-11.0152
▁Wo	-11.0158
▁nations	-11.016
Un	-11.0166
▁profit	-11.0183
▁inspection	-11.0185
▁spring	-11.0185
▁appearance	-11.0188
▁teenager	-11.019
▁sequence	-11.0191
▁citizen	-11.0192
▁storm	-11.0195
ov	-11.0198
..."	-11.0204
▁committees	-11.021
-3	-11.0217
TH	-11.0219
▁issued	-11.0219
boy	-11.0224
eek	-11.0227
onic	-11.0233
▁marks	-11.0246
▁thrill	-11.0257
▁sweat	-11.0261
▁tag	-11.0288
dle	-11.0294
?!	-11.0307
rick	-11.0308
▁bent	-11.0311
▁caus	-11.0312
▁Listen	-11.0314
▁singers	-11.0326
▁gas	-11.0327
ement	-11.033
▁("	-11.0337
▁convince	-11.0341
▁determine	-11.0343
▁glue	-11.0343
Lo	-11.0344
▁survive	-11.0345
pi	-11.0347
▁inspiration	-11.0354
▁Rome	-11.0358
▁speculati	-11.036
▁totalitarian	-11.036
ohesion	-11.0361
▁SEE	-11.0361
▁south	-11.0361
▁ASVAB	-11.0361
▁Charter	-11.0361
▁McCarthy	-11.0361
▁Neeson	-11.0361
▁OUT	-11.0361
▁Portugal	-11.0361
▁Wilderness	-11.0361
▁convincing	-11.0361
▁curtain	-11.0361
▁fifth	-11.0361
▁inadequate	-11.0361
▁intelligence	-11.0361
▁storage	-11.0361
▁urgency	-11.0361
▁vague	-11.0361
▁assess	-11.0361
▁iPod	-11.0361
▁nevertheless	-11.0361
▁giant	-11.0361
▁transnational	-11.0362
▁Children	-11.0362
▁steal	-11.0362
▁temperature	-11.0362
Probably	-11.0362
▁appropriations	-11.0362
▁transparent	-11.0362
▁codecision	-11.0362
▁equipment	-11.0362
▁Almost	-11.0362
▁Halloween	-11.0362
▁1970	-11.0362
▁industries	-11.0362
ón	-11.0362
▁winner	-11.0362
▁summary	-11.0362
▁smoke	-11.0362
▁generic	-11.0362
▁childhood	-11.0362
▁grasp	-11.0362
▁delegation	-11.0362
▁dump	-11.0362
▁amusing	-11.0363
▁Amish	-11.0363
▁Venus	-11.0363
▁fake	-11.0363
▁exemption	-11.0364
▁reliable	-11.0364
▁resort	-11.0364
▁adaptation	-11.0364
▁COULD	-11.0364
▁mask	-11.0364
▁EVERY	-11.0365
▁glitches	-11.0365
▁layout	-11.0365
▁indicator	-11.0365
▁invite	-11.0365
▁Bank	-11.0366
▁fuel	-11.0366
▁lift	-11.0366
▁beads	-11.0366
bra	-11.0367
▁belt	-11.0367
▁portable	-11.0367
▁Enjoy	-11.0368
▁mill	-11.0368
▁Clearly	-11.0369
▁gear	-11.0369
▁adaptor	-11.0371
▁developments	-11.0371
▁castle	-11.0372
▁Back	-11.0374
▁Classic	-11.0375
▁utterly	-11.0377
▁generated	-11.0379
▁Part	-11.0379
▁Red	-11.038
▁owe	-11.038
▁instrumental	-11.038
▁promptly	-11.0381
▁Seem	-11.0382
▁Dan	-11.0383
▁organised	-11.0385
▁topical	-11.0385
▁featur	-11.0385
▁adventures	-11.0386
▁applications	-11.0386
▁pity	-11.0389
▁bow	-11.039
▁weaken	-11.039
classic	-11.039
▁reverse	-11.0391
▁immigrants	-11.0391
▁ingredients	-11.0391
▁vessels	-11.0391
▁farm	-11.0392
▁discipline	-11.0399
▁thumbs	-11.04
▁tighten	-11.04
▁formal	-11.0404
▁rejected	-11.0406
▁washed	-11.0408
))	-11.0415
▁Te	-11.0419
▁desired	-11.0421
▁performed	-11.0422
▁Band	-11.0429
▁Indian	-11.0429
▁transactions	-11.0434
AM	-11.0437
▁stronger	-11.0441
rn	-11.0442
▁gels	-11.0451
▁packaged	-11.0455
lit	-11.0458
▁Pa	-11.0472
▁Rules	-11.0477
▁br	-11.0485
EST	-11.0489
ries	-11.049
▁lists	-11.0498
ola	-11.0506
3.	-11.0527
▁dr	-11.0529
▁str	-11.0536
▁industrial	-11.0545
▁quotes	-11.0546
▁flaws	-11.0546
rock	-11.055
og	-11.0554
▁messages	-11.0556
▁programs	-11.0556
ball	-11.0559
▁leaders	-11.0563
▁offering	-11.0577
fer	-11.0584
▁Bu	-11.0589
try	-11.0593
▁clips	-11.0597
▁shopp	-11.0601
▁2000.	-11.0604
▁menu	-11.0608
▁$40	-11.0625
▁Jo	-11.0626
DO	-11.0627
▁drugs	-11.0632
▁Arab	-11.0644
Man	-11.0649
▁methods	-11.065
▁checking	-11.0653
▁defin	-11.0655
▁liner	-11.0657
ega	-11.0668
▁IF	-11.0669
▁San	-11.0675
▁networks	-11.0676
......	-11.0677
ama	-11.0683
▁merit	-11.0686
▁interaction	-11.0686
▁competence	-11.0687
▁obligation	-11.0688
▁bike	-11.0689
ET	-11.0689
▁technique	-11.069
▁collector	-11.0691
▁Israeli	-11.0698
▁gun	-11.0701
5%	-11.0722
▁politically	-11.0727
ank	-11.073
▁paragraphs	-11.0737
Catherine	-11.075
▁opt	-11.0751
▁rec	-11.0759
▁scrap	-11.0763
AND	-11.0768
▁wrap	-11.0772
▁sum	-11.0789
rous	-11.0791
▁def	-11.0797
▁debat	-11.0805
▁shift	-11.081
▁cop	-11.081
▁mainstream	-11.0811
ren	-11.0813
▁fe	-11.0815
word	-11.0818
row	-11.0822
▁logic	-11.0822
▁scratch	-11.0823
▁Market	-11.0826
▁launch	-11.0829
#	-11.0833
power	-11.0833
great	-11.0833
▁ob	-11.0834
▁fish	-11.0839
▁unfortunate	-11.084
▁rush	-11.084
▁immediate	-11.0845
▁idiot	-11.0848
ella	-11.0851
▁complaints	-11.0852
▁kinds	-11.0854
▁spoke	-11.0855
ATE	-11.0856
▁Fundamental	-11.0857
▁distinct	-11.0858
▁terror	-11.0859
▁chain	-11.0859
▁contributions	-11.0861
>	-11.0861
▁Argento	-11.0861
▁Arthur	-11.0861
▁BORING	-11.0861
▁Barnier	-11.0861
▁Beautiful	-11.0861
▁Company	-11.0861
▁Jennifer	-11.0861
▁October	-11.0861
▁Oprah	-11.0861
▁Purchase	-11.0861
▁Reform	-11.0861
▁Wogau	-11.0861
▁authentic	-11.0861
▁bootleg	-11.0861
▁climax	-11.0861
▁coffee	-11.0861
▁disease	-11.0861
▁franchise	-11.0861
▁grateful	-11.0861
▁hockey	-11.0861
▁hollywood	-11.0861
▁identical	-11.0861
▁schedule	-11.0861
▁significance	-11.0861
▁spectacular	-11.0861
▁uniform	-11.0861
▁entail	-11.0861
▁honor	-11.0862
▁legitimate	-11.0862
▁ordinary	-11.0862
▁destruction	-11.0862
▁Discworld	-11.0862
▁revolution	-11.0862
▁WERE	-11.0862
▁pilot	-11.0862
▁Directive	-11.0862
▁treasure	-11.0862
▁renew	-11.0862
▁confine	-11.0862
▁harsh	-11.0862
▁weather	-11.0862
▁narrator	-11.0862
▁definitive	-11.0862
▁1950	-11.0862
▁prosperity	-11.0862
▁gripping	-11.0862
▁detective	-11.0862
▁preview	-11.0862
▁Paris	-11.0863
▁Harry	-11.0863
▁pants	-11.0863
▁theories	-11.0863
▁underneath	-11.0863
▁trite	-11.0863
▁horribly	-11.0863
▁wake	-11.0864
▁diabetes	-11.0864
▁Through	-11.0864
▁villain	-11.0864
▁April	-11.0864
▁suspenseful	-11.0864
▁village	-11.0864
▁american	-11.0864
++	-11.0865
▁Hopefully	-11.0865
▁hardware	-11.0866
▁Creative	-11.0866
▁WHE	-11.0866
▁brown	-11.0866
▁Rice	-11.0866
▁entry	-11.0866
▁tv	-11.0866
▁Zen	-11.0867
▁humorous	-11.0867
▁Check	-11.0867
▁stunning	-11.0868
▁THERE	-11.0868
▁Tuscany	-11.087
▁exit	-11.087
▁Thirdly	-11.0873
▁laughable	-11.0873
▁sung	-11.0873
▁fireman	-11.0873
bound	-11.0874
▁ANY	-11.0875
▁suitabl	-11.0875
▁wise	-11.0875
▁abandoned	-11.0876
▁reread	-11.0877
▁36	-11.0878
▁wider	-11.0879
▁illustrated	-11.088
▁solved	-11.0884
ured	-11.0884
▁publication	-11.0885
iz	-11.0885
▁edited	-11.0885
▁Lee	-11.0887
▁loving	-11.0887
▁quest	-11.0887
▁Sun	-11.0889
▁Soul	-11.089
▁28	-11.089
▁Sheri	-11.0891
▁warned	-11.0895
▁justified	-11.0896
▁thrilled	-11.0897
▁rave	-11.0898
▁sink	-11.0899
▁masterful	-11.0899
▁Hand	-11.09
▁tent	-11.0901
▁WAY	-11.0903
▁fly	-11.0904
▁op	-11.0904
▁clan	-11.0904
▁`	-11.0905
▁emotionally	-11.0907
How	-11.0908
▁Office	-11.0908
▁creatures	-11.0911
▁logical	-11.0914
▁suffering	-11.0915
▁soap	-11.0925
lie	-11.0928
▁increasingly	-11.0928
▁income	-11.093
▁input	-11.0932
▁understandable	-11.0937
▁OR	-11.0942
▁gained	-11.0943
▁stinks	-11.0947
par	-11.0963
air	-11.0964
part	-11.0967
IE	-11.0972
▁aimed	-11.0972
▁classical	-11.0974
▁ice	-11.0979
oke	-11.0985
▁vampires	-11.0992
NE	-11.0993
▁rolling	-11.1
cat	-11.1007
ris	-11.1008
▁environmentally	-11.1009
▁bugs	-11.1011
▁texts	-11.1012
▁appealing	-11.1013
TO	-11.1015
rai	-11.1017
pping	-11.1024
▁posting	-11.1027
▁tears	-11.1029
▁Game	-11.1031
▁Jew	-11.1033
▁pol	-11.1035
▁solo	-11.1039
▁schools	-11.1039
▁legally	-11.1055
ify	-11.1059
fully	-11.1064
▁tile	-11.1073
▁Economics	-11.1083
▁Ho	-11.1092
iff	-11.1112
55	-11.1133
hic	-11.1133
▁testing	-11.1134
▁fighter	-11.1134
▁schemes	-11.1137
▁minds	-11.1137
▁ver	-11.1145
stro	-11.1145
▁fingers	-11.1147
▁islands	-11.1156
▁shell	-11.116
ration	-11.1166
▁Nos	-11.1176
▁sales	-11.1182
▁murders	-11.1184
▁suck	-11.1193
ase	-11.1206
▁protagonist	-11.1213
▁Democrat	-11.1216
▁chip	-11.1217
▁square	-11.122
▁youth	-11.1221
▁organisation	-11.1223
win	-11.1223
▁admir	-11.1225
▁gem	-11.1226
▁tear	-11.1241
▁complain	-11.1244
▁clue	-11.1253
ST	-11.1261
▁bank	-11.1269
▁handles	-11.128
hand	-11.1282
▁filmed	-11.1293
DA	-11.1296
▁disappoint	-11.1305
under	-11.1317
▁weigh	-11.1323
▁seam	-11.1327
▁readable	-11.1329
ob	-11.1331
▁Author	-11.1335
equ	-11.134
▁depict	-11.1345
stop	-11.1347
▁swing	-11.1352
▁render	-11.1354
@	-11.1358
mark	-11.1358
Please	-11.136
speak	-11.136
watch	-11.136
based	-11.1361
box	-11.1362
▁surf	-11.1365
from	-11.1365
▁warn	-11.1366
▁Na	-11.1373
ther	-11.1373
Oh	-11.1375
3)	-11.1376
▁Art	-11.1377
▁spark	-11.1379
▁withdraw	-11.1381
▁bon	-11.1382
▁slight	-11.1383
case	-11.1384
▁patch	-11.1384
FR	-11.1386
▁WORK	-11.1387
▁BETTER	-11.1388
▁Consequently	-11.1388
▁Crawford	-11.1388
▁Empire	-11.1388
▁Hopkins	-11.1388
▁MONEY	-11.1388
▁Mountain	-11.1388
▁Palacio	-11.1388
▁Procedure	-11.1388
▁Raider	-11.1388
▁UFO	-11.1388
▁advertising	-11.1388
▁ceiling	-11.1388
▁emergency	-11.1388
▁illegal	-11.1388
▁implications	-11.1388
▁piano	-11.1388
▁pretentious	-11.1388
▁register	-11.1388
▁solitude	-11.1388
▁supplement	-11.1388
▁universal	-11.1388
▁worried	-11.1388
▁Emma	-11.1388
▁Instance	-11.1388
▁SimpleTech	-11.1388
▁manufacturing	-11.1388
▁distance	-11.1388
▁christmas	-11.1388
▁altogether	-11.1388
▁wander	-11.1388
▁Odyssey	-11.1388
www	-11.1388
▁Seattle	-11.1388
▁crappy	-11.1388
▁steer	-11.1388
▁immigration	-11.1388
▁timber	-11.1388
▁Guide	-11.1388
▁Powerbook	-11.1388
▁tribute	-11.1388
▁evaluation	-11.1388
▁concentration	-11.1388
▁stamp	-11.1388
▁GO	-11.1389
▁index	-11.1389
▁mouse	-11.1389
▁Needless	-11.1389
▁prime	-11.1389
▁foam	-11.1389
▁advisers	-11.1389
▁Victorian	-11.1389
▁HAD	-11.1389
▁FUN	-11.1389
▁forum	-11.1389
▁slightest	-11.139
▁2005	-11.139
▁neat	-11.139
▁Bowie	-11.139
▁qualified	-11.139
▁fence	-11.139
▁Vice	-11.1391
▁Short	-11.1392
▁Imagine	-11.1392
▁collapse	-11.1392
rey	-11.1392
▁lifestyle	-11.1393
▁satisfaction	-11.1393
▁distributed	-11.1394
everal	-11.1396
▁bench	-11.1396
▁subtitles	-11.1397
▁excluded	-11.1398
▁African	-11.1398
▁Shame	-11.1399
▁Heart	-11.1402
▁Farm	-11.1402
▁overwhelming	-11.1403
▁trailer	-11.1405
ches	-11.1407
▁Asia	-11.1407
▁nobody	-11.1407
▁SP	-11.1408
▁Pol	-11.1409
▁wedding	-11.1409
▁dreadful	-11.141
▁endless	-11.1411
▁begun	-11.1413
▁detract	-11.1415
▁donors	-11.1416
▁SH	-11.1419
▁exceptionally	-11.1424
▁suffered	-11.1426
▁Les	-11.1426
▁heck	-11.1426
▁Sam	-11.1428
pre	-11.1428
▁crafted	-11.1428
▁Years	-11.1431
▁$2	-11.1432
▁Ri	-11.1433
▁amended	-11.1434
▁recognised	-11.1435
▁Bett	-11.1437
ör	-11.1437
▁Balkans	-11.144
▁Far	-11.144
ompetition	-11.145
▁meaningful	-11.1453
▁initially	-11.1455
▁Plan	-11.1457
▁si	-11.1459
IC	-11.1463
▁SD	-11.1468
▁picks	-11.1479
Bo	-11.1479
▁observations	-11.1487
▁appreciated	-11.1489
▁Sir	-11.1492
ending	-11.1496
▁failing	-11.1506
▁dig	-11.1515
▁texture	-11.1517
▁remarks	-11.1519
▁Che	-11.1529
▁+	-11.1531
▁resolutions	-11.1549
▁CF	-11.1551
▁mac	-11.1553
▁awhile	-11.1554
▁mechanisms	-11.1554
▁referr	-11.1555
▁tr	-11.1563
▁supposedly	-11.1564
▁covering	-11.1565
harma	-11.1571
ven	-11.1585
▁judges	-11.1595
▁Joe	-11.1595
▁Fun	-11.1598
ually	-11.1606
lum	-11.1613
▁completed	-11.1617
▁mandate	-11.1618
▁host	-11.1626
AGE	-11.1648
▁hooks	-11.1661
▁viewers	-11.1688
ute	-11.17
▁overly	-11.1719
▁visuals	-11.1719
after	-11.1722
COS	-11.1727
▁Hey	-11.1733
▁artistic	-11.1743
tter	-11.1743
▁limits	-11.1748
▁cliche	-11.175
▁thoughtful	-11.1753
▁degrees	-11.1757
▁purposes	-11.176
any	-11.1762
▁Dream	-11.1762
▁Palestinian	-11.1765
▁judgement	-11.1767
▁corner	-11.1767
▁Budget	-11.1767
▁shoe	-11.1768
▁delivers	-11.1769
▁custom	-11.1769
▁deadline	-11.1769
▁alien	-11.1769
▁mechanism	-11.1771
▁hint	-11.1773
▁bird	-11.1778
▁nationals	-11.178
▁symbol	-11.1791
▁sized	-11.1797
HE	-11.18
▁Am	-11.1802
▁institution	-11.181
sk	-11.1811
▁battles	-11.1826
▁starr	-11.1835
Mo	-11.1838
▁refers	-11.1839
▁2-	-11.1843
▁Ten	-11.1844
▁Ar	-11.1851
▁bump	-11.1853
llow	-11.1857
▁bin	-11.1878
▁surround	-11.1894
fo	-11.1901
▁wars	-11.1901
▁electric	-11.1902
▁origin	-11.1904
▁impress	-11.1906
▁interpret	-11.1908
print	-11.1912
Jones	-11.1915
country	-11.1915
when	-11.1916
▁prompt	-11.1921
▁ultimate	-11.1921
▁puzzles	-11.1921
▁rapid	-11.1921
TE	-11.1921
▁generate	-11.1923
▁Ben	-11.1924
AC	-11.1927
▁definite	-11.1928
GB	-11.193
▁WWI	-11.1937
▁confident	-11.1943
▁Jim	-11.1943
▁accompani	-11.1943
▁Feehan	-11.1943
▁ABOUT	-11.1943
▁AMAZON	-11.1943
▁Album	-11.1943
▁Chapter	-11.1943
▁Development	-11.1943
▁Employment	-11.1943
▁FPÖ	-11.1943
▁Florenz	-11.1943
▁Jonckheer	-11.1943
▁Odysseus	-11.1943
▁Patricia	-11.1943
▁Pearl	-11.1943
▁Regulation	-11.1943
▁Schengen	-11.1943
▁Skelter	-11.1943
▁bureaucracy	-11.1943
▁consensus	-11.1943
▁crowd	-11.1943
▁dedicated	-11.1943
▁disapointed	-11.1943
▁geographic	-11.1943
▁innovation	-11.1943
▁nephew	-11.1943
▁prosecutor	-11.1943
▁bargain	-11.1943
▁collar	-11.1943
▁communicate	-11.1943
▁eager	-11.1943
▁accompany	-11.1943
▁anxious	-11.1943
▁unusable	-11.1943
▁innocent	-11.1943
▁Finn	-11.1943
▁Lewis	-11.1943
▁casual	-11.1943
▁mutual	-11.1943
▁patience	-11.1943
▁propaganda	-11.1943
▁independence	-11.1943
▁jawbone	-11.1943
▁Martin	-11.1943
▁ipod	-11.1943
▁anchov	-11.1943
▁Dutch	-11.1943
▁Skip	-11.1944
▁appreciation	-11.1944
▁narrow	-11.1944
▁1995	-11.1944
▁coherent	-11.1944
▁Edition	-11.1944
▁SOME	-11.1944
▁substitute	-11.1944
▁1980	-11.1944
▁Koch	-11.1944
▁distribution	-11.1944
▁ignorant	-11.1944
▁LOT	-11.1944
▁minorities	-11.1944
▁nudity	-11.1944
▁enforcement	-11.1944
▁defence	-11.1944
▁California	-11.1944
▁WOULD	-11.1944
slept	-11.1945
▁undertaking	-11.1945
▁lightweight	-11.1945
▁coordinate	-11.1945
▁massive	-11.1945
▁incest	-11.1945
▁PPE	-11.1945
▁GAME	-11.1946
▁emerge	-11.1946
▁heaven	-11.1946
▁firemen	-11.1946
▁:(	-11.1946
▁PET	-11.1947
▁extraordinary	-11.1947
▁float	-11.1948
▁manufacture	-11.1948
▁dragon	-11.1948
▁peaceful	-11.1948
▁Wayne	-11.1948
▁dubbed	-11.1949
▁Seriously	-11.1949
▁Forget	-11.195
▁diary	-11.195
▁busy	-11.195
▁progressive	-11.195
▁slick	-11.195
▁continent	-11.1951
▁frankly	-11.1951
▁guitarist	-11.1951
▁Moon	-11.1951
▁EX	-11.1953
▁spoken	-11.1955
▁regulate	-11.1955
▁gameplay	-11.1955
▁Mothman	-11.1956
▁recycled	-11.1957
▁prehistor	-11.1957
▁LP	-11.1961
▁everytime	-11.1964
▁declared	-11.1965
▁translated	-11.1967
▁academic	-11.1967
▁~	-11.1969
aste	-11.197
▁dimensional	-11.1971
▁entertained	-11.1971
▁incorporated	-11.1971
▁pc	-11.1972
▁intent	-11.1973
▁pour	-11.1975
▁lid	-11.1978
▁solely	-11.1979
Go	-11.1982
▁Janet	-11.1987
made	-11.199
▁warmer	-11.1991
▁setup	-11.1994
▁refused	-11.1994
▁resident	-11.1997
▁THEM	-11.1998
▁explosions	-11.1998
▁deserved	-11.1998
een	-11.2006
▁bla	-11.2008
aster	-11.2017
▁exp	-11.2019
ez	-11.202
▁feeding	-11.2023
rid	-11.2024
▁components	-11.2029
▁displayed	-11.2029
▁BD	-11.2035
▁adhere	-11.2041
▁Doesn	-11.2041
▁Lu	-11.2045
▁primar	-11.2052
▁stepp	-11.2057
▁ni	-11.2057
▁fairy	-11.2058
tech	-11.2071
nternal	-11.2077
▁volumes	-11.2084
ela	-11.209
ew	-11.2091
▁makers	-11.2094
▁shorter	-11.2106
▁500	-11.2107
rie	-11.2117
▁60'	-11.213
▁mar	-11.2132
19	-11.2132
▁sums	-11.2139
there	-11.215
▁pays	-11.2152
▁bat	-11.2152
LA	-11.2155
▁goodness	-11.2155
rrow	-11.2171
▁drawings	-11.2181
▁bears	-11.219
▁traveling	-11.2197
▁casting	-11.2198
▁channels	-11.2201
▁preventing	-11.2221
▁jumps	-11.2224
01	-11.2236
▁indication	-11.2239
▁Ni	-11.2245
state	-11.2251
▁Ru	-11.2254
ugh	-11.2254
▁Lia	-11.2259
▁screws	-11.2262
▁butter	-11.2276
▁formed	-11.2291
▁bug	-11.2295
▁CA	-11.2302
▁tri	-11.2318
▁react	-11.2322
▁stations	-11.2324
▁surprises	-11.2325
Thank	-11.2329
▁mindless	-11.2334
▁indicate	-11.2341
▁Fe	-11.2342
train	-11.2346
▁rhythm	-11.235
lot	-11.2354
▁essay	-11.2357
▁partner	-11.2359
▁vocal	-11.236
▁Di	-11.2361
▁victim	-11.2362
tical	-11.2371
oul	-11.238
▁journal	-11.2382
also	-11.2386
du	-11.2392
▁buck	-11.2401
▁advocate	-11.2418
▁pose	-11.2421
▁grip	-11.2424
▁Hot	-11.2431
cle	-11.2434
▁wind	-11.2438
▁editions	-11.2441
▁craft	-11.2443
place	-11.2443
gue	-11.2456
▁convention	-11.2457
pend	-11.2463
▁peoples	-11.2465
▁North	-11.2469
▁guessing	-11.2469
▁Mon	-11.2473
▁Hol	-11.2475
▁engine	-11.2477
▁stream	-11.248
▁disgust	-11.2481
▁wire	-11.249
Special	-11.2503
While	-11.2503
President	-11.2504
▁scholar	-11.2508
although	-11.2509
Big	-11.251
▁endure	-11.2512
▁Turn	-11.2521
▁Terr	-11.2525
▁Bill	-11.2526
▁impose	-11.2527
▁undertake	-11.2528
▁remix	-11.2528
etween	-11.2531
▁optim	-11.2531
▁Agreement	-11.2532
▁Apache	-11.2532
▁Believe	-11.2532
▁Brazil	-11.2532
▁Prize	-11.2532
▁Stewart	-11.2532
▁approximate	-11.2532
▁behaviour	-11.2532
▁chemistry	-11.2532
▁choppy	-11.2532
▁expense	-11.2532
▁inappropriate	-11.2532
▁inclusion	-11.2532
▁inevitably	-11.2532
▁inexpensive	-11.2532
▁irritating	-11.2532
▁patient	-11.2532
▁pregnant	-11.2532
▁relevance	-11.2532
▁satisfactory	-11.2532
▁violent	-11.2532
▁vocabulary	-11.2532
▁Plain	-11.2532
▁SMEs	-11.2532
▁clarify	-11.2532
▁steam	-11.2532
▁suprise	-11.2532
▁DTS	-11.2532
▁financing	-11.2532
▁housing	-11.2532
vintage	-11.2532
▁Patrick	-11.2532
▁technological	-11.2532
▁Nathaniel	-11.2532
▁humour	-11.2532
▁millennium	-11.2532
▁Beatles	-11.2532
▁stripped	-11.2532
▁1990	-11.2532
▁crocodile	-11.2532
▁trend	-11.2532
▁closing	-11.2532
▁1994	-11.2532
▁Directorate	-11.2532
▁Western	-11.2532
▁keen	-11.2532
▁Wood	-11.2532
▁NOTHING	-11.2532
▁guard	-11.2532
▁audit	-11.2532
▁Rather	-11.2532
▁baseball	-11.2532
▁headache	-11.2533
▁Quite	-11.2533
▁rust	-11.2533
▁unclear	-11.2533
▁generous	-11.2534
▁modernisation	-11.2534
▁gang	-11.2534
▁Personally	-11.2534
▁Scott	-11.2534
▁parallel	-11.2534
▁Color	-11.2534
▁unknown	-11.2534
▁Monti	-11.2534
▁dish	-11.2535
▁reprint	-11.2535
▁queen	-11.2536
▁Worth	-11.2536
▁BIG	-11.2536
▁bland	-11.2536
▁representation	-11.2537
▁Order	-11.2537
▁Frankenstein	-11.2538
▁Trust	-11.2538
▁cell	-11.2538
▁liberal	-11.2538
▁uneven	-11.2539
▁motivation	-11.254
▁Russian	-11.254
▁hassle	-11.254
▁dragged	-11.2541
▁deleted	-11.2541
▁stain	-11.2543
▁hopefully	-11.2544
▁enlightening	-11.2545
▁checks	-11.2546
▁adore	-11.2546
▁ego	-11.2546
▁tray	-11.2546
▁enlarged	-11.2547
▁organized	-11.2547
▁boat	-11.2549
▁acquire	-11.2549
▁controlled	-11.255
▁LED	-11.255
▁bitter	-11.2551
▁Dean	-11.2552
▁rental	-11.2554
▁Sadly	-11.2555
▁skipped	-11.2557
▁enjoyment	-11.2558
▁perfection	-11.256
▁oh	-11.2561
▁Aid	-11.2563
▁determined	-11.2564
▁pill	-11.2564
▁devices	-11.2565
▁restricted	-11.2565
▁consistently	-11.2572
▁Lastly	-11.2578
▁persons	-11.2581
▁Mark	-11.2586
▁benefits	-11.2586
▁fictional	-11.2588
▁delighted	-11.2592
▁succeeded	-11.2593
▁sought	-11.2593
▁encouraged	-11.2594
▁camping	-11.2597
▁paced	-11.2605
▁contributed	-11.2607
▁printers	-11.2607
▁Books	-11.2615
▁grader	-11.2619
▁Ti	-11.2622
▁shocking	-11.2628
than	-11.2634
▁admire	-11.2635
▁Hard	-11.2636
▁Sal	-11.2638
▁notification	-11.264
oven	-11.2641
▁directing	-11.2654
▁Abou	-11.2662
▁cu	-11.2663
▁patterns	-11.2665
hole	-11.2667
▁hike	-11.2673
▁plots	-11.2676
▁Win	-11.2683
▁bust	-11.2685
▁teens	-11.2686
▁tips	-11.2686
▁bars	-11.271
▁turner	-11.272
ets	-11.2723
ana	-11.2731
▁tap	-11.2742
▁Fi	-11.2749
▁sounding	-11.2756
MORE	-11.2758
AME	-11.2762
▁wheels	-11.2773
UN	-11.2782
▁articles	-11.2784
raft	-11.2791
▁arch	-11.2791
▁har	-11.2792
▁factual	-11.2793
▁cups	-11.2795
▁MI	-11.2796
rio	-11.2798
▁Ke	-11.28
non	-11.2808
▁Str	-11.2811
▁amazingly	-11.2827
▁demonstrates	-11.2828
▁torn	-11.2832
gle	-11.2833
100	-11.2841
▁por	-11.2842
car	-11.2848
▁Fan	-11.2858
▁PR	-11.2871
▁foods	-11.2874
▁TR	-11.2874
▁investments	-11.2882
▁wasnt	-11.289
▁Cha	-11.2894
▁EC	-11.29
▁beds	-11.2901
mate	-11.2907
▁styles	-11.2909
▁neo	-11.2912
▁electronics	-11.2925
▁beginners	-11.2926
▁shoot	-11.2929
while	-11.293
▁Put	-11.2931
/99)	-11.2934
▁debated	-11.2942
▁attract	-11.2956
other	-11.2963
▁comp	-11.2964
▁invent	-11.297
ware	-11.2973
wood	-11.2976
fin	-11.298
▁folk	-11.2986
▁requirement	-11.2991
▁oral	-11.3019
▁produc	-11.3023
▁centralis	-11.3025
▁dogs	-11.3028
paced	-11.3041
▁pla	-11.3042
▁spoil	-11.3053
imp	-11.3053
▁publish	-11.3062
characterization	-11.3062
▁pursu	-11.3072
▁noises	-11.3081
▁OS	-11.3084
▁lasting	-11.3089
▁deals	-11.3092
▁factors	-11.3099
▁machines	-11.3108
▁sun	-11.3114
q	-11.3121
~	-11.3128
world	-11.3128
▁grace	-11.3128
depth	-11.3128
From	-11.3128
Very	-11.313
known	-11.3132
level	-11.3132
▁1999.	-11.3135
▁instant	-11.3137
▁pros	-11.3139
06	-11.3141
▁route	-11.3151
ibility	-11.3153
▁punch	-11.3154
inancial	-11.3154
▁Republic	-11.3154
▁timely	-11.3155
hether	-11.3157
è	-11.3157
▁1963	-11.3157
▁Century	-11.3157
▁Club	-11.3157
▁Experts	-11.3157
▁FIRST	-11.3157
▁Interesting	-11.3157
▁Stacie	-11.3157
▁Summit	-11.3157
▁categories	-11.3157
▁caution	-11.3157
▁complement	-11.3157
▁concise	-11.3157
▁controversial	-11.3157
▁deprive	-11.3157
▁equivalent	-11.3157
▁hurry	-11.3157
▁ideology	-11.3157
▁inferior	-11.3157
▁obliged	-11.3157
▁procedural	-11.3157
▁reccommend	-11.3157
▁receipt	-11.3157
▁reputation	-11.3157
▁restaurant	-11.3157
▁throat	-11.3157
▁wisdom	-11.3157
▁glowing	-11.3157
▁platform	-11.3157
▁Bernstein	-11.3157
▁Donati	-11.3157
▁Freud	-11.3157
▁ORIGINAL	-11.3157
▁secondly	-11.3157
▁Rabbi	-11.3157
▁assistants	-11.3157
Bottom	-11.3157
▁tolerance	-11.3157
▁Recently	-11.3157
▁granddaughter	-11.3157
▁cheat	-11.3157
▁Wolf	-11.3157
▁category	-11.3157
▁alarm	-11.3157
▁expenditure	-11.3157
▁profile	-11.3157
▁forestry	-11.3157
▁Ritter	-11.3157
▁lobby	-11.3157
▁sharing	-11.3157
▁desert	-11.3157
▁western	-11.3157
▁interface	-11.3157
▁decisive	-11.3157
▁constructive	-11.3157
▁collaboration	-11.3157
▁guidance	-11.3157
▁hungry	-11.3157
Celtic	-11.3157
▁elder	-11.3157
▁penny	-11.3157
▁sugar	-11.3157
▁racist	-11.3158
▁survival	-11.3158
▁unhappy	-11.3158
▁bedroom	-11.3158
▁Troma	-11.3158
▁Wonderful	-11.3158
▁native	-11.3158
▁yard	-11.3159
▁ticket	-11.3159
▁Canterbury	-11.3159
▁Sister	-11.3159
▁timetable	-11.3159
▁ONLY	-11.316
▁Nobel	-11.316
▁2001	-11.316
▁determination	-11.316
▁Wake	-11.316
▁viewpoint	-11.316
▁Anderson	-11.316
▁survey	-11.316
▁Carter	-11.3161
▁HIS	-11.3161
▁Small	-11.3161
▁Hound	-11.3162
▁collective	-11.3162
▁treaties	-11.3162
▁SHE	-11.3163
▁HAS	-11.3163
▁overrated	-11.3164
▁endorse	-11.3164
▁yeah	-11.3164
▁undertaken	-11.3164
▁bible	-11.3164
▁Thus	-11.3164
▁installment	-11.3164
▁Homer	-11.3164
nchor	-11.3165
▁50%	-11.3165
irty	-11.3165
▁overdone	-11.3165
▁commend	-11.3165
▁Stone	-11.3166
▁Whatever	-11.3166
▁Rings	-11.3167
▁melt	-11.3167
▁crew	-11.3167
▁crawl	-11.3168
Until	-11.3168
▁heads	-11.3168
▁Tell	-11.3169
▁personality	-11.3169
▁overnight	-11.3169
▁[...]	-11.3171
▁Someone	-11.3172
▁partial	-11.3174
▁chosen	-11.3175
▁lowest	-11.3175
▁openness	-11.3175
▁controller	-11.3177
▁exposed	-11.318
▁auto	-11.318
▁pursue	-11.3182
▁Head	-11.3185
▁cr	-11.3187
▁distracting	-11.3187
▁surprisingly	-11.3189
Yes	-11.3189
▁Ant	-11.3192
▁repeatedly	-11.3194
▁interpreted	-11.3195
▁moon	-11.3195
▁refill	-11.3196
ich	-11.3199
▁associat	-11.3202
▁lol	-11.3205
▁Dance	-11.3205
▁Mor	-11.3206
▁Old	-11.3207
▁mergers	-11.3208
▁Wi	-11.321
▁captured	-11.3212
▁linked	-11.3217
▁Gar	-11.3218
▁typos	-11.3219
▁ignored	-11.3223
▁selected	-11.3225
▁Mars	-11.3229
cer	-11.3229
▁Baskervilles	-11.3231
▁Rand	-11.3231
was	-11.3232
▁pic	-11.3233
▁cre	-11.3234
ctic	-11.3234
▁monitored	-11.3243
▁Mil	-11.3247
▁metaphors	-11.3253
▁undermine	-11.3253
▁resist	-11.3254
ological	-11.3254
▁miles	-11.3255
▁sooner	-11.3255
▁extending	-11.3257
TA	-11.3262
via	-11.3269
▁regularly	-11.3278
▁pressed	-11.3278
dom	-11.3283
ung	-11.3289
▁laughed	-11.3291
▁Shar	-11.3296
▁brave	-11.3298
▁birthing	-11.3302
gged	-11.3309
▁buyers	-11.3312
ock	-11.3314
▁gar	-11.3316
oc	-11.3316
▁lighter	-11.3316
ith	-11.3319
▁Phil	-11.3332
OS	-11.3339
▁$20	-11.3346
▁meaningless	-11.3347
dium	-11.3357
▁king	-11.3357
▁intro	-11.3359
▁semi	-11.3374
vol	-11.3376
▁bikes	-11.3379
▁obligations	-11.3379
▁pushing	-11.338
▁prop	-11.338
▁span	-11.3381
▁submit	-11.3384
Co	-11.3385
▁Ya	-11.3391
▁Whi	-11.3393
too	-11.3407
▁squeeze	-11.3411
▁Boys	-11.3414
▁Sounds	-11.3414
▁charts	-11.3415
▁exceptions	-11.3417
0%	-11.3427
END	-11.3431
bad	-11.3432
etic	-11.3434
▁Greens	-11.3439
▁struggles	-11.3441
▁net	-11.3444
Some	-11.3448
▁Gold	-11.3452
gging	-11.3455
istant	-11.3467
▁rates	-11.3469
▁99	-11.3471
▁Nor	-11.3471
▁accidents	-11.3472
▁slipp	-11.3476
▁gifts	-11.3478
▁interventions	-11.3484
▁locations	-11.3496
▁depends	-11.3496
▁trains	-11.3497
▁invest	-11.3506
THE	-11.3521
▁wing	-11.354
▁27	-11.354
TING	-11.3569
ime	-11.3581
▁fewer	-11.3598
page	-11.3603
bel	-11.3604
ouch	-11.3607
ctor	-11.3608
▁SF	-11.3612
▁Bre	-11.3613
ASH	-11.3617
▁ro	-11.3623
▁bab	-11.3631
13	-11.3633
▁scar	-11.3635
▁tempt	-11.3638
▁te	-11.3643
▁circle	-11.3646
▁vampire	-11.3651
▁headphone	-11.3653
▁consequence	-11.3653
▁expert	-11.3653
▁brands	-11.3654
▁para	-11.3657
date	-11.3659
vin	-11.3665
titled	-11.3674
▁tip	-11.3674
▁Kar	-11.3685
▁Ste	-11.3689
▁papers	-11.369
▁teen	-11.3691
ELL	-11.3694
ically	-11.3705
ston	-11.3709
ential	-11.3711
▁plate	-11.3712
▁decid	-11.3715
looking	-11.3718
▁proportion	-11.3718
▁outline	-11.3728
▁sur	-11.3733
▁entertain	-11.3743
▁touche	-11.375
ump	-11.3752
▁Sand	-11.3757
4)	-11.3764
▁Ka	-11.3771
▁Wal	-11.3774
lash	-11.3776
▁bags	-11.3784
▁witness	-11.3785
▁restrict	-11.3789
▁returns	-11.3789
style	-11.3789
▁considerations	-11.3792
▁bits	-11.3792
▁proposes	-11.3793
Amazon	-11.3795
Just	-11.3795
▁120	-11.3796
Even	-11.3797
▁retail	-11.3798
/1999	-11.3799
▁explicit	-11.38
▁restore	-11.3809
▁charter	-11.3809
▁rational	-11.381
▁detect	-11.381
bur	-11.3812
▁wave	-11.3812
▁whil	-11.3813
▁Russia	-11.3813
▁experiment	-11.3816
uality	-11.3817
▁STAR	-11.3818
erial	-11.3818
OUND	-11.3819
▁Australia	-11.3819
▁prison	-11.3821
▁exploit	-11.3821
▁brutal	-11.3822
▁gentle	-11.3822
▁punish	-11.3822
▁slave	-11.3822
targate	-11.3823
▁ALTENER	-11.3823
▁Auditors	-11.3823
▁Chicago	-11.3823
▁Daniel	-11.3823
▁Elizabeth	-11.3823
▁Family	-11.3823
▁Library	-11.3823
▁Lisbon	-11.3823
▁Netherlands	-11.3823
▁Orleans	-11.3823
▁PRODUCT	-11.3823
▁Sandisk	-11.3823
▁Scotland	-11.3823
▁Squeem	-11.3823
▁Sweden	-11.3823
▁Vitorino	-11.3823
▁accuracy	-11.3823
▁agencies	-11.3823
▁assignment	-11.3823
▁bubble	-11.3823
▁bureaucratic	-11.3823
▁companion	-11.3823
▁corporate	-11.3823
▁eMarker	-11.3823
▁experiencing	-11.3823
▁insurance	-11.3823
▁interregional	-11.3823
▁landscape	-11.3823
▁promising	-11.3823
▁reconstruction	-11.3823
▁reserve	-11.3823
▁rigid	-11.3823
▁rigorous	-11.3823
▁toddler	-11.3823
▁vinyl	-11.3823
▁xenophobic	-11.3823
▁Digital	-11.3823
▁GDP	-11.3823
▁horrifying	-11.3823
▁BBC	-11.3823
▁enrich	-11.3823
▁Eidos	-11.3823
▁reiterate	-11.3823
▁rescue	-11.3823
▁BAD	-11.3823
▁disabled	-11.3823
▁composition	-11.3823
▁EVEN	-11.3823
▁Health	-11.3823
▁possibilities	-11.3823
▁PowerBook	-11.3823
▁froze	-11.3823
▁Fraser	-11.3823
▁prejudice	-11.3823
▁Agenda	-11.3823
▁Qui	-11.3823
▁undoubtedly	-11.3823
▁Peace	-11.3823
▁shaking	-11.3823
▁Fiction	-11.3823
▁uncertainty	-11.3824
▁Film	-11.3824
▁rubbish	-11.3824
▁Happy	-11.3824
▁dummy	-11.3824
▁compensate	-11.3824
▁Vista	-11.3824
▁slim	-11.3824
▁expertise	-11.3824
▁declaration	-11.3824
▁leadership	-11.3824
▁wrapped	-11.3824
▁bridge	-11.3824
▁harmful	-11.3824
▁communism	-11.3824
▁unfair	-11.3824
▁organization	-11.3824
▁satire	-11.3824
▁stance	-11.3824
▁pledge	-11.3824
▁Planet	-11.3824
▁Shia	-11.3824
ODY	-11.3824
▁MAKE	-11.3824
▁fanatic	-11.3824
▁dropping	-11.3824
▁neck	-11.3824
▁Queen	-11.3824
▁BACK	-11.3824
▁LCD	-11.3825
▁Money	-11.3825
▁WANT	-11.3825
▁flight	-11.3825
▁removing	-11.3825
▁proceedings	-11.3825
▁Steel	-11.3825
▁soldier	-11.3825
▁HOT	-11.3825
▁Mind	-11.3826
▁temporary	-11.3826
▁SAVE	-11.3826
▁fright	-11.3826
▁competent	-11.3826
▁Costa	-11.3826
▁futuristic	-11.3826
stood	-11.3826
▁mold	-11.3826
▁shade	-11.3827
▁Kind	-11.3827
▁principal	-11.3827
▁grain	-11.3827
▁Ruth	-11.3828
▁bold	-11.3828
▁Hazlitt	-11.3828
▁Besides	-11.3828
▁dissapointing	-11.3829
▁besides	-11.3829
▁diverse	-11.3829
▁Joan	-11.3829
▁cooperate	-11.3829
▁alternate	-11.383
▁biography	-11.383
▁Lara	-11.383
▁Beat	-11.383
▁Simple	-11.383
▁scoreboard	-11.3831
▁Story	-11.3831
***	-11.3831
▁router	-11.3831
▁reflection	-11.3831
▁hotel	-11.3832
▁recieved	-11.3832
▁fancy	-11.3833
▁engineer	-11.3833
▁punk	-11.3833
▁tolerate	-11.3834
▁depiction	-11.3834
▁documentation	-11.3835
▁Way	-11.3835
▁awareness	-11.3836
▁Edg	-11.3836
▁Du	-11.3836
▁identified	-11.3836
dispens	-11.3836
▁Fine	-11.3836
▁Hester	-11.3837
▁modest	-11.3838
▁couples	-11.3838
▁engaged	-11.384
▁sew	-11.384
▁envisaged	-11.3842
▁zen	-11.3842
▁coverage	-11.3843
▁Real	-11.3844
▁Spe	-11.3845
▁Song	-11.3846
pu	-11.3846
▁=	-11.3846
▁Syrian	-11.3848
▁addresses	-11.3849
▁Page	-11.3849
▁64	-11.385
▁receiver	-11.385
▁rapidly	-11.3851
▁98	-11.3851
▁uphold	-11.3852
▁lifetime	-11.3854
▁Young	-11.3854
▁bulbs	-11.3854
▁pale	-11.3856
▁acquis	-11.3857
▁Made	-11.3858
▁popped	-11.3858
▁compell	-11.3858
▁conven	-11.386
▁indicated	-11.3861
▁tender	-11.3861
▁clothing	-11.3864
▁ongoing	-11.3864
▁Test	-11.3865
▁Set	-11.3865
▁approaches	-11.3866
▁truck	-11.3866
▁formation	-11.3867
▁screaming	-11.3868
▁Ash	-11.3868
▁rushed	-11.3869
▁revealed	-11.3873
▁publishing	-11.3878
▁Call	-11.3878
▁Sen	-11.3881
▁remark	-11.3899
▁served	-11.3899
esque	-11.3901
▁MEPs	-11.3902
▁studi	-11.3903
▁Need	-11.3905
▁belive	-11.3908
▁tastes	-11.3908
dding	-11.3909
lations	-11.391
▁guaranteed	-11.3912
▁processes	-11.3913
▁eliminate	-11.3919
lessness	-11.3919
▁washing	-11.3922
▁strengthened	-11.3925
▁bowls	-11.3927
▁twisted	-11.3931
cal	-11.3934
**	-11.3934
hr	-11.3934
▁jams	-11.3937
!!!!!!!!!!!!!!!!	-11.3938
▁cents	-11.394
nstitutional	-11.3945
stand	-11.3946
take	-11.3948
▁worrying	-11.3951
▁respects	-11.3951
▁Je	-11.3955
▁stressed	-11.3956
Ro	-11.3956
▁charming	-11.3958
▁centres	-11.3963
▁monsters	-11.3964
▁trials	-11.3964
▁Note	-11.397
An	-11.3971
▁posted	-11.3973
▁Tales	-11.3976
▁suggests	-11.3982
▁towns	-11.3985
▁motions	-11.3985
▁journalist	-11.3996
▁Ph	-11.3996
Le	-11.4009
▁poses	-11.4023
▁poster	-11.4024
employed	-11.4026
hood	-11.4046
ft	-11.4048
ONE	-11.4049
▁bone	-11.4049
▁gems	-11.405
▁div	-11.406
▁teenagers	-11.4075
▁fed	-11.4078
ole	-11.408
17	-11.4087
▁#1	-11.4104
FUL	-11.4108
vent	-11.4114
▁rods	-11.4124
▁interact	-11.4144
▁samples	-11.4149
▁plants	-11.4161
Tec	-11.4171
ching	-11.4174
▁minimal	-11.418
type	-11.4181
OT	-11.4182
▁organ	-11.4194
25	-11.4196
note	-11.4198
▁Dia	-11.42
▁Bob	-11.4203
▁dar	-11.4207
▁Reader	-11.4214
▁pu	-11.4224
▁rely	-11.4226
▁object	-11.4228
far	-11.4235
▁reported	-11.4247
▁newly	-11.4261
ogue	-11.4269
▁deaths	-11.427
did	-11.4274
▁raises	-11.4276
ral	-11.4283
▁persisten	-11.4287
▁shortly	-11.43
▁Chris	-11.4302
pot	-11.4306
▁Sh	-11.4308
rating	-11.4311
Com	-11.4311
▁spec	-11.4329
inal	-11.4333
▁practices	-11.4333
mar	-11.4346
▁Tim	-11.4348
▁timer	-11.4349
▁neighbour	-11.4359
▁chemical	-11.4361
▁conversation	-11.4362
▁prediction	-11.4364
▁Mu	-11.4367
▁Rule	-11.4367
▁Transformer	-11.4368
ANT	-11.4368
NOT	-11.4369
▁Right	-11.4369
▁cats	-11.4376
uous	-11.438
▁preserv	-11.4382
▁prov	-11.4387
▁El	-11.4387
▁suggestion	-11.4387
▁popp	-11.4391
enhei	-11.4394
▁producer	-11.4402
round	-11.4402
Cons	-11.4408
view	-11.4413
▁highlights	-11.4415
▁flows	-11.4418
ks	-11.4422
▁ankle	-11.4427
▁DID	-11.4427
▁string	-11.4429
▁prob	-11.443
size	-11.4434
lab	-11.4437
▁MAN	-11.4439
▁sometime	-11.4442
▁facilitate	-11.4455
▁criticize	-11.4462
▁Disc	-11.4466
▁bottles	-11.4466
bby	-11.4473
▁contribut	-11.4473
▁awake	-11.4477
▁associate	-11.4483
self	-11.4484
tch	-11.4484
▁hunt	-11.4485
▁Baby	-11.4503
▁guitars	-11.4505
screen	-11.4509
Although	-11.4509
maybe	-11.4509
including	-11.4511
phone	-11.4511
▁plac	-11.4511
▁frequent	-11.4515
▁trail	-11.4515
▁assemble	-11.4518
sight	-11.4519
▁WORS	-11.4522
▁tho	-11.4525
▁Med	-11.4526
nitiative	-11.4527
▁Play	-11.4528
▁stitch	-11.4532
▁stipulat	-11.4533
▁glitch	-11.4533
▁arise	-11.4534
▁cinema	-11.4535
▁consolidat	-11.4535
▁orchestra	-11.4536
▁excess	-11.4536
▁utter	-11.4537
▁Euro	-11.4537
▁August	-11.4538
▁happier	-11.4538
▁sensation	-11.4538
▁ABBA	-11.4538
▁Advance	-11.4538
▁Audio	-11.4538
▁Beauty	-11.4538
▁Belgium	-11.4538
▁Gibson	-11.4538
▁Huxley	-11.4538
▁PLEASE	-11.4538
▁Potter	-11.4538
▁Puritan	-11.4538
▁Redgrave	-11.4538
▁Stories	-11.4538
▁Watson	-11.4538
▁chocolate	-11.4538
▁compulsory	-11.4538
▁decentralised	-11.4538
▁delicate	-11.4538
▁demonstration	-11.4538
▁disjointed	-11.4538
▁endeavour	-11.4538
▁happiness	-11.4538
▁hesitate	-11.4538
▁junior	-11.4538
▁misplaced	-11.4538
▁restructuring	-11.4538
▁scooter	-11.4538
▁technologies	-11.4538
▁vacuum	-11.4538
▁cousin	-11.4538
▁dentist	-11.4538
▁melody	-11.4538
▁sphere	-11.4538
▁Truly	-11.4538
▁absence	-11.4538
ifteen	-11.4538
▁Kurt	-11.4538
▁ruling	-11.4538
▁overseas	-11.4538
▁sensual	-11.4538
▁breathtaking	-11.4538
▁lousy	-11.4538
▁:-)	-11.4538
▁puppy	-11.4538
▁Horrible	-11.4538
▁embarrassed	-11.4538
▁gluten	-11.4538
▁french	-11.4538
ensible	-11.4538
▁Elvis	-11.4538
▁surreal	-11.4538
▁snug	-11.4538
▁cease	-11.4538
▁Macondo	-11.4538
▁Miller	-11.4538
▁drill	-11.4538
▁qualities	-11.4538
▁combo	-11.4538
▁feedback	-11.4538
▁snapped	-11.4538
▁Korea	-11.4538
▁mechanic	-11.4538
▁evoke	-11.4538
▁Bush	-11.4538
▁Bebel	-11.4538
▁jaw	-11.4538
▁outfit	-11.4539
TWO	-11.4539
Push	-11.4539
▁grandson	-11.4539
▁emarker	-11.4539
▁MTV	-11.4539
▁HOW	-11.4539
▁cruel	-11.4539
▁exploration	-11.4539
▁Lili	-11.4539
▁pollution	-11.4539
▁furthermore	-11.4539
▁fond	-11.454
▁Things	-11.454
▁Authority	-11.454
▁knot	-11.454
▁hack	-11.454
▁Mother	-11.454
▁protest	-11.4541
▁2003	-11.4541
▁Perfect	-11.4541
▁peel	-11.4541
▁Follow	-11.4541
▁advertisement	-11.4541
▁screenplay	-11.4541
▁solving	-11.4541
effective	-11.4541
▁weakness	-11.4542
▁Nick	-11.4542
▁Constitutional	-11.4542
▁Darkness	-11.4542
▁constitutional	-11.4542
▁travelling	-11.4543
▁Academy	-11.4543
▁Cla	-11.4543
▁Remember	-11.4543
▁WRONG	-11.4543
▁Wales	-11.4543
▁elementary	-11.4543
▁lean	-11.4543
▁Fast	-11.4544
▁Spider	-11.4544
▁Intex	-11.4544
▁liable	-11.4545
▁Scary	-11.4548
▁OFF	-11.4549
▁marvelous	-11.4549
▁hammer	-11.4549
▁darkness	-11.4551
▁handling	-11.4551
▁stake	-11.4553
▁noticeable	-11.4553
▁prevention	-11.4554
▁output	-11.4554
▁enhanced	-11.4555
▁1000	-11.4556
▁sizing	-11.4556
▁Kay	-11.4556
▁angel	-11.4558
▁cult	-11.4558
▁FW	-11.4558
▁Billy	-11.4559
▁dawn	-11.4559
▁pitch	-11.456
▁Four	-11.456
▁expired	-11.4564
▁acceptance	-11.4568
▁tra	-11.457
▁composer	-11.457
▁tube	-11.4571
CO	-11.4574
THEY	-11.4575
Li	-11.4579
retty	-11.458
▁Tech	-11.4582
▁obstacles	-11.4583
].	-11.4584
▁launched	-11.4586
▁concluded	-11.4591
ape	-11.4595
▁fooled	-11.4595
▁roads	-11.4596
▁ironic	-11.46
▁MS	-11.4604
80	-11.4605
▁jumped	-11.4608
▁transformers	-11.4611
▁mainstreaming	-11.4611
see	-11.4614
▁Ark	-11.4619
▁Land	-11.462
▁cra	-11.462
▁resign	-11.4623
▁cared	-11.4624
▁shines	-11.4624
▁unlikely	-11.4628
▁switched	-11.4632
▁overlook	-11.4636
▁robots	-11.4636
▁privilege	-11.4639
▁dear	-11.4645
▁likeable	-11.4645
▁discs	-11.4647
▁structured	-11.4647
▁Park	-11.4648
▁je	-11.4654
▁collecting	-11.4655
mart	-11.466
▁sites	-11.4666
▁maintained	-11.4667
▁performing	-11.4676
SH	-11.468
lk	-11.4694
▁Arms	-11.4699
ament	-11.47
▁accents	-11.4702
▁welcomed	-11.4704
▁pat	-11.4704
GE	-11.4713
CD	-11.472
▁Ry	-11.4722
▁renting	-11.4722
Thanks	-11.4727
cho	-11.4729
cin	-11.4731
▁prints	-11.4731
▁pa	-11.4734
erson	-11.4736
ace	-11.474
(1999)	-11.4747
ford	-11.4753
▁essays	-11.4755
yes	-11.4756
▁seal	-11.4756
▁indicates	-11.4758
▁birds	-11.4768
▁cliches	-11.4769
▁AP	-11.477
"...	-11.4772
NT	-11.478
▁protagonists	-11.4782
PS	-11.4782
acy	-11.4782
▁teache	-11.4794
▁Card	-11.4796
▁guns	-11.4798
▁che	-11.4802
▁suffers	-11.4811
hal	-11.4814
OW	-11.4816
▁exc	-11.482
▁traditions	-11.4822
oh	-11.4834
▁departments	-11.4835
▁textbooks	-11.4835
▁chairman	-11.4843
lec	-11.4845
▁800	-11.4852
ough	-11.4853
▁openly	-11.4855
sort	-11.4857
▁definitions	-11.4862
▁intentional	-11.4868
94	-11.4876
marker	-11.4879
▁reasonab	-11.488
▁Ver	-11.4889
▁$30	-11.4889
▁stops	-11.4904
▁theaters	-11.4905
VC	-11.4906
done	-11.4907
22	-11.4908
▁reflects	-11.4931
▁harmonis	-11.4932
ppy	-11.4936
ently	-11.4953
▁drops	-11.4957
▁partnerships	-11.497
ique	-11.4971
ility	-11.4977
600	-11.4979
▁beg	-11.4984
▁trips	-11.4986
▁attacks	-11.4986
▁Arm	-11.4992
▁odds	-11.4999
▁asks	-11.5014
▁dome	-11.5026
▁42	-11.5038
woke	-11.5049
▁votes	-11.5063
▁29	-11.5067
▁verse	-11.5078
▁exercises	-11.508
▁scream	-11.5082
ja	-11.5089
▁BR	-11.509
▁scores	-11.5093
▁spots	-11.5093
MC	-11.5094
▁THAN	-11.511
▁cha	-11.5113
matic	-11.5117
▁rings	-11.5122
imated	-11.5123
▁belief	-11.513
▁poem	-11.5133
▁accent	-11.5133
▁pattern	-11.5133
▁Tale	-11.514
▁bend	-11.5145
▁reli	-11.515
▁locks	-11.5162
▁angle	-11.5177
▁eliminat	-11.5197
▁India	-11.5198
▁pound	-11.52
ige	-11.5205
yra	-11.5205
though	-11.5215
▁margin	-11.5215
▁perspectives	-11.5218
je	-11.5218
Po	-11.5219
▁relax	-11.522
fun	-11.5233
.99	-11.5233
▁regarded	-11.5237
▁periodic	-11.5239
▁Magic	-11.5248
▁nut	-11.5248
▁EL	-11.5251
▁initiate	-11.5251
▁breed	-11.5255
▁climb	-11.5256
▁damag	-11.5257
▁enthusiast	-11.5259
▁Jane	-11.526
▁micro	-11.5264
▁iron	-11.5269
direct	-11.527
▁ur	-11.5271
weight	-11.5276
▁Friend	-11.5277
session	-11.5278
Maybe	-11.5279
wife	-11.5279
Unfortunately	-11.5279
DVD	-11.5279
Good	-11.5279
New	-11.528
now	-11.5281
must	-11.5282
▁absolut	-11.5285
▁inspire	-11.5287
▁dud	-11.5288
▁doors	-11.5291
▁bare	-11.5292
stick	-11.5292
music	-11.5293
▁Tuscan	-11.5294
▁creep	-11.5294
▁suspens	-11.5295
▁declare	-11.5296
▁Lange	-11.53
▁educat	-11.5304
▁distort	-11.5304
▁exhaust	-11.5306
▁Regard	-11.5306
▁defect	-11.5306
▁preced	-11.5306
▁synth	-11.5306
▁buzz	-11.5307
▁disseminat	-11.5307
ntegral	-11.5307
▁Amazing	-11.5307
▁Campbell	-11.5307
▁Dracula	-11.5307
▁Epson	-11.5307
▁Kouchner	-11.5307
▁League	-11.5307
▁MUSIC	-11.5307
▁Philadelphia	-11.5307
▁Russell	-11.5307
▁THINK	-11.5307
▁Tango	-11.5307
▁Wednesday	-11.5307
▁acoustic	-11.5307
▁anecdotes	-11.5307
▁bluegrass	-11.5307
▁celebrat	-11.5307
▁circuit	-11.5307
▁cushion	-11.5307
▁dismiss	-11.5307
▁drunk	-11.5307
▁executed	-11.5307
▁happily	-11.5307
▁inevitable	-11.5307
▁invaluable	-11.5307
▁irrelevant	-11.5307
▁knife	-11.5307
▁mismanagement	-11.5307
▁pencil	-11.5307
▁rendition	-11.5307
▁sanction	-11.5307
▁twentie	-11.5307
▁underground	-11.5307
▁unfold	-11.5307
▁zombie	-11.5307
▁Berlin	-11.5307
▁Food	-11.5307
▁niece	-11.5307
▁unreadable	-11.5307
▁utmost	-11.5307
▁MIDI	-11.5307
▁compartment	-11.5307
▁mixture	-11.5307
▁uplifting	-11.5307
▁Consider	-11.5307
▁Glad	-11.5307
▁Moore	-11.5307
▁deaf	-11.5307
▁incentive	-11.5307
▁philosophical	-11.5307
▁carpet	-11.5307
▁exceed	-11.5307
▁opposition	-11.5307
▁smash	-11.5307
▁Chandler	-11.5307
▁motorcycle	-11.5307
▁limitations	-11.5307
▁defeat	-11.5307
▁Britain	-11.5307
▁remit	-11.5307
▁timing	-11.5307
▁Tower	-11.5307
▁smile	-11.5307
▁chills	-11.5307
▁Piper	-11.5307
▁surgery	-11.5307
▁Terrible	-11.5307
▁firmware	-11.5307
▁bluetooth	-11.5307
▁Hope	-11.5307
▁liking	-11.5307
▁automatically	-11.5307
▁cassette	-11.5307
▁desktop	-11.5308
▁civilization	-11.5308
▁distant	-11.5308
▁relief	-11.5308
▁Bums	-11.5308
▁duties	-11.5308
▁leap	-11.5308
▁narration	-11.5308
▁WASTE	-11.5308
▁stem	-11.5308
▁Simon	-11.5308
▁cheese	-11.5308
▁comfortably	-11.5308
▁pool	-11.5308
▁species	-11.5309
▁History	-11.5309
▁tripod	-11.5309
▁bullet	-11.5309
▁harmonisation	-11.5309
▁passionate	-11.5309
▁font	-11.531
along	-11.531
▁Awesome	-11.531
▁distinguish	-11.531
▁evolution	-11.531
▁Tibetan	-11.531
▁stating	-11.531
▁tourism	-11.5311
▁Kill	-11.5311
▁compli	-11.5311
▁swear	-11.5311
▁Certainly	-11.5311
▁continually	-11.5311
▁democratically	-11.5312
▁Johnson	-11.5312
▁poet	-11.5312
▁spectr	-11.5313
▁Hostel	-11.5313
▁sweeping	-11.5313
fire	-11.5313
▁Jimmy	-11.5313
idden	-11.5314
▁boss	-11.5314
make	-11.5314
▁Dick	-11.5314
▁scratches	-11.5314
:1.	-11.5315
▁Character	-11.5315
▁Animal	-11.5315
▁Sleep	-11.5315
OUR	-11.5315
▁disagreement	-11.5315
▁hitch	-11.5316
▁experimental	-11.5316
▁Show	-11.5317
▁shadow	-11.5317
▁Wise	-11.532
game	-11.532
▁unanimously	-11.5321
▁Nazi	-11.5321
▁Know	-11.5321
▁entirety	-11.5322
▁disturbed	-11.5322
▁darn	-11.5322
▁immensely	-11.5323
▁wow	-11.5323
▁Allow	-11.5323
▁adjustment	-11.5324
▁constructed	-11.5324
▁continuously	-11.5324
▁biased	-11.5327
▁rose	-11.5328
▁Los	-11.5328
▁reconsider	-11.533
▁encountered	-11.533
▁anticipated	-11.5331
His	-11.5334
▁Virginia	-11.5335
▁OTHER	-11.5336
▁grim	-11.5337
▁scholarly	-11.5337
▁functional	-11.5341
▁sincerely	-11.5344
onciliation	-11.5346
▁analyz	-11.5346
▁SI	-11.5348
▁cheated	-11.5349
▁Val	-11.5351
▁prize	-11.5351
▁preach	-11.5351
▁CAP	-11.5351
▁analog	-11.5353
▁wine	-11.5355
▁analyse	-11.5355
▁glued	-11.5356
▁reinforce	-11.5356
LESS	-11.5357
▁Pam	-11.5359
▁deflated	-11.5361
▁taxes	-11.5362
▁Cook	-11.5365
▁treaty	-11.5365
rent	-11.5368
▁pun	-11.5371
▁shooting	-11.5371
▁adoption	-11.5371
▁caring	-11.5372
▁upper	-11.5375
illi	-11.5376
person	-11.5379
▁stocks	-11.5386
▁Dell	-11.539
▁lbs	-11.5391
▁sticky	-11.5396
▁significantly	-11.5397
▁wished	-11.5398
▁pink	-11.5402
▁breathing	-11.5402
▁char	-11.5405
▁awaiting	-11.5406
ev	-11.5409
▁bolts	-11.5413
mat	-11.5435
▁riding	-11.5435
▁walls	-11.5439
▁crying	-11.5444
Gillian	-11.545
▁walked	-11.545
▁layers	-11.5452
▁em	-11.5453
▁Serb	-11.5454
BTW	-11.5458
hardcore	-11.5469
▁claimed	-11.547
▁Lab	-11.5473
▁harmon	-11.5477
outhern	-11.5478
ena	-11.5478
▁dies	-11.5482
▁newest	-11.5482
▁nuts	-11.5485
NG	-11.5488
SV	-11.5491
▁builds	-11.5505
▁Cap	-11.5506
▁SAY	-11.5511
▁Sad	-11.5512
▁marketing	-11.5512
mini	-11.5513
vil	-11.5519
une	-11.5521
▁usable	-11.5526
▁cru	-11.5528
OTHER	-11.5544
▁avoided	-11.5546
ison	-11.555
▁hints	-11.5554
got	-11.5554
▁installing	-11.5556
▁app	-11.5557
▁basics	-11.5564
▁faithful	-11.5565
udge	-11.5585
▁competences	-11.5586
▁collectors	-11.5587
MENT	-11.5588
▁porn	-11.5589
▁extract	-11.5591
▁194	-11.5619
HA	-11.5622
▁develops	-11.5629
▁straps	-11.563
▁2)	-11.5633
▁Sho	-11.5639
▁USE	-11.5639
▁Son	-11.5642
▁ratings	-11.5644
▁mothers	-11.5658
▁1997.	-11.5669
▁Web	-11.567
nny	-11.5676
minded	-11.5678
▁SE	-11.5686
lick	-11.5686
▁holidays	-11.5688
▁costly	-11.5694
▁LI	-11.5696
▁ft	-11.5698
▁Sch	-11.5704
▁skipp	-11.5705
len	-11.5709
▁criticisms	-11.5717
▁coat	-11.5718
love	-11.5728
▁costumes	-11.5732
▁las	-11.5732
▁den	-11.5732
▁$5	-11.5737
▁thematic	-11.5745
▁gods	-11.5747
▁compete	-11.5748
andra	-11.5752
ously	-11.5753
ERS	-11.5755
▁kicks	-11.5757
▁freeze	-11.5759
lip	-11.5759
▁delays	-11.5778
ques	-11.5792
▁shares	-11.5792
bre	-11.5801
▁cartoons	-11.5806
▁tricks	-11.5815
name	-11.5822
mber	-11.5832
▁settings	-11.5834
▁spine	-11.5837
CR	-11.5838
▁notch	-11.5839
.2.	-11.584
illa	-11.5842
bro	-11.5845
▁33	-11.5849
▁Tro	-11.585
▁!!	-11.5854
▁offend	-11.5855
gone	-11.5857
▁vers	-11.5869
▁Nu	-11.587
▁tur	-11.587
hour	-11.5873
atu	-11.5875
hero	-11.5877
▁conflicts	-11.588
▁Nights	-11.588
▁sync	-11.5881
▁Ab	-11.5893
▁Times	-11.5894
hen	-11.591
▁rang	-11.5911
inner	-11.5913
original	-11.5919
▁#	-11.5924
▁federal	-11.5925
▁dare	-11.5925
▁Chi	-11.5929
▁skill	-11.593
ado	-11.5942
itut	-11.5946
verage	-11.5951
nner	-11.5956
AX	-11.5956
list	-11.5959
▁Sta	-11.596
▁Wait	-11.5964
▁minister	-11.5964
▁flea	-11.5964
▁zone	-11.5965
▁association	-11.5965
▁parliament	-11.5966
▁monster	-11.5966
▁refus	-11.5973
▁trial	-11.5977
disc	-11.5989
▁bud	-11.5997
▁centre	-11.5999
88	-11.6
▁Use	-11.6008
▁pit	-11.6012
▁flip	-11.6018
▁noir	-11.602
duct	-11.602
ett	-11.6021
90	-11.6027
rine	-11.6027
▁musician	-11.6028
▁EN	-11.6028
▁designs	-11.6032
tho	-11.6037
▁enabl	-11.6037
run	-11.6043
NES	-11.6043
▁heading	-11.6055
think	-11.6055
▁users	-11.6057
IF	-11.6065
give	-11.6066
▁flicks	-11.607
▁Santa	-11.6074
▁harm	-11.6078
▁Julie	-11.6081
▁cloth	-11.6087
▁AA	-11.609
heart	-11.6098
▁cow	-11.6098
▁mega	-11.6101
▁manager	-11.6101
beat	-11.6106
▁wo	-11.6107
62	-11.6108
school	-11.6109
▁pray	-11.611
THING	-11.6111
=	-11.6111
provoking	-11.6112
Keep	-11.6112
Foundation	-11.6112
developed	-11.6112
girl	-11.6112
through	-11.6112
born	-11.6113
Other	-11.6114
Once	-11.6116
rtu	-11.6116
▁height	-11.6117
▁Recommend	-11.6117
titude	-11.6118
▁enhance	-11.6118
▁engage	-11.612
▁credits	-11.612
▁recycle	-11.6121
warm	-11.6123
▁fade	-11.6124
thank	-11.6126
▁marvel	-11.6127
ndependent	-11.613
▁viewed	-11.6132
▁mild	-11.6132
loved	-11.6134
OULD	-11.6134
▁teenage	-11.6136
▁avail	-11.6136
▁illustrate	-11.6138
▁confront	-11.6138
▁oppose	-11.6138
ATION	-11.6139
town	-11.614
Tubthumping	-11.614
▁Prince	-11.614
▁1993	-11.614
▁Berger	-11.614
▁Cambodia	-11.614
▁Chaucer	-11.614
▁College	-11.614
▁Decourrière	-11.614
▁Except	-11.614
▁Fonda	-11.614
▁HIGH	-11.614
▁Jazz	-11.614
▁Jensen	-11.614
▁Rapkay	-11.614
▁Receiv	-11.614
▁Safety	-11.614
▁School	-11.614
▁Schüssel	-11.614
▁Souljah	-11.614
▁VERSION	-11.614
▁Valentine	-11.614
▁Washington	-11.614
▁Whitney	-11.614
▁artificial	-11.614
▁aspiration	-11.614
▁breeze	-11.614
▁closure	-11.614
▁compatibility	-11.614
▁conservative	-11.614
▁convergence	-11.614
▁critique	-11.614
▁division	-11.614
▁engrossing	-11.614
▁executive	-11.614
▁feasible	-11.614
▁firefighter	-11.614
▁inaccurate	-11.614
▁inconsistent	-11.614
▁integrity	-11.614
▁jurisdiction	-11.614
▁league	-11.614
▁lesbian	-11.614
▁misfortune	-11.614
▁overpriced	-11.614
▁poignant	-11.614
▁quirky	-11.614
▁revenue	-11.614
▁simplify	-11.614
▁societies	-11.614
▁unexpected	-11.614
▁violin	-11.614
▁Absolutely	-11.614
▁incoherent	-11.614
▁pseudo	-11.614
▁quilt	-11.614
▁Jason	-11.614
▁novice	-11.614
▁raising	-11.614
▁reboot	-11.614
▁revelation	-11.614
▁unstable	-11.614
▁Stenzel	-11.614
▁Open	-11.614
▁drown	-11.614
▁examining	-11.614
▁expedition	-11.614
▁orange	-11.614
▁horizontal	-11.614
▁Douglas	-11.614
▁Lackey	-11.614
▁trading	-11.614
▁breast	-11.614
▁Guess	-11.614
▁trapped	-11.614
▁Half	-11.614
▁wound	-11.614
▁dubious	-11.614
▁insufficient	-11.614
▁corny	-11.614
▁regeneration	-11.614
ABLE	-11.614
▁jerk	-11.6141
▁tonnes	-11.6141
▁Monday	-11.6141
▁Compare	-11.6141
▁Spain	-11.6141
▁Duke	-11.6141
▁lunch	-11.6141
ounce	-11.6141
▁colour	-11.6141
▁offences	-11.6141
▁pride	-11.6141
▁perception	-11.6141
▁River	-11.6141
▁Media	-11.6141
▁pony	-11.6141
▁dinner	-11.6141
▁summit	-11.6141
▁Season	-11.6141
▁marine	-11.6142
▁winning	-11.6142
▁corruption	-11.6142
▁totalitarianism	-11.6142
▁accuse	-11.6142
▁remainder	-11.6142
▁2.5	-11.6142
▁brush	-11.6142
▁uncle	-11.6143
▁Chance	-11.6143
▁egg	-11.6143
▁addiction	-11.6143
▁arrival	-11.6143
▁tendency	-11.6143
▁Laura	-11.6143
▁tire	-11.6143
▁GBA	-11.6143
▁rethink	-11.6144
▁Somehow	-11.6144
▁Nonetheless	-11.6144
▁Always	-11.6144
▁Might	-11.6144
▁Memory	-11.6144
▁90%	-11.6144
▁Boring	-11.6144
▁Grow	-11.6145
▁2004	-11.6145
▁nail	-11.6145
▁acclaimed	-11.6145
opher	-11.6145
▁Luck	-11.6145
▁deplore	-11.6145
▁PA	-11.6145
▁whine	-11.6145
▁stopping	-11.6145
▁dense	-11.6146
▁valve	-11.6146
▁stipulates	-11.6146
▁Complete	-11.6146
▁fluff	-11.6147
▁2010	-11.6147
▁pillar	-11.6147
▁Shore	-11.6147
parent	-11.6148
▁curve	-11.6148
▁Anton	-11.6149
▁Naturally	-11.6149
▁negotiating	-11.6149
▁grass	-11.615
▁inclined	-11.615
fest	-11.6151
▁findings	-11.6153
▁Roth	-11.6153
▁primer	-11.6154
▁rejection	-11.6155
▁serving	-11.6155
▁composed	-11.6157
▁fee	-11.6157
▁WWII	-11.6157
▁fuss	-11.6158
▁Roll	-11.616
▁expose	-11.616
▁marti	-11.616
▁tower	-11.6161
▁respective	-11.6162
▁countless	-11.6163
▁shipment	-11.6166
▁funk	-11.6166
▁warmth	-11.6168
▁east	-11.617
▁convert	-11.6171
▁cliched	-11.6172
▁101	-11.6173
▁underline	-11.6173
▁grave	-11.6174
05	-11.6176
▁doubts	-11.618
▁virtue	-11.618
▁END	-11.6182
▁mistaken	-11.6182
▁strip	-11.6184
▁demon	-11.6185
▁spoiled	-11.6186
shed	-11.6188
▁Lake	-11.6188
▁permanently	-11.619
▁assured	-11.6191
▁ibook	-11.6192
▁Surely	-11.6193
▁Asian	-11.6194
▁riffs	-11.6194
▁depicted	-11.6195
▁rising	-11.6197
Donald	-11.6197
▁scratched	-11.6198
▁fulfill	-11.6198
▁physically	-11.6198
▁driven	-11.6198
ripping	-11.62
yet	-11.6202
▁realised	-11.6202
ansa	-11.6205
▁investing	-11.6206
▁whim	-11.6206
wash	-11.6206
▁usage	-11.6208
▁socio	-11.6208
▁separated	-11.6209
▁honesty	-11.6213
▁struggled	-11.6213
▁disgusting	-11.6214
▁Webb	-11.6215
▁stretched	-11.6216
▁sufficiently	-11.6216
▁talents	-11.6217
▁conducted	-11.6219
ography	-11.622
▁simulat	-11.6227
)...	-11.623
▁anger	-11.623
▁los	-11.623
▁cancel	-11.6231
▁delayed	-11.6238
classification	-11.6239
▁Records	-11.6241
▁taxpayers	-11.6241
▁smoothly	-11.6243
▁typically	-11.6243
quality	-11.6244
▁challenged	-11.6246
▁hates	-11.6249
▁leaked	-11.6251
▁produces	-11.6253
▁slide	-11.6254
era	-11.6254
▁differently	-11.6263
▁candy	-11.6264
▁flipp	-11.6265
▁glove	-11.6268
▁upside	-11.6275
▁Project	-11.6277
▁responded	-11.6278
▁believed	-11.6283
▁Haven	-11.6286
▁drums	-11.6288
▁Patt	-11.6291
▁attacking	-11.6292
▁shed	-11.6303
▁leaking	-11.6306
-4	-11.631
▁officer	-11.6311
▁App	-11.6318
▁hire	-11.632
▁freezes	-11.6323
▁poems	-11.6335
▁visa	-11.6341
▁bases	-11.6341
put	-11.6347
MS	-11.6359
ggy	-11.636
▁fixing	-11.6362
▁plates	-11.6365
▁75	-11.6366
room	-11.6367
will	-11.6369
ache	-11.6371
▁diplomat	-11.6378
rated	-11.6381
▁provider	-11.6385
▁demanding	-11.6389
▁Pi	-11.639
ulf	-11.6391
PE	-11.6393
▁RA	-11.6393
▁painting	-11.6397
▁wires	-11.6397
▁jo	-11.64
look	-11.6407
▁Shop	-11.6408
▁counting	-11.6417
▁Rec	-11.642
sad	-11.6422
▁sincere	-11.643
▁cri	-11.6445
▁Cover	-11.6446
cket	-11.6448
law	-11.6454
▁DAY	-11.6473
eather	-11.6478
grade	-11.6489
▁ruins	-11.6494
uld	-11.6505
link	-11.6508
▁DIS	-11.6509
ental	-11.6512
▁pads	-11.6512
▁qu	-11.6517
being	-11.6535
70	-11.6536
IST	-11.654
▁flags	-11.6541
16	-11.6543
away	-11.6543
inary	-11.6546
▁alas	-11.6557
▁promises	-11.6557
del	-11.6558
ara	-11.6565
▁ge	-11.6567
▁explor	-11.6573
alo	-11.6579
▁reminder	-11.6586
key	-11.6599
▁COM	-11.6601
▁begining	-11.6605
▁dimensions	-11.6605
drew	-11.6607
▁watered	-11.661
arious	-11.6624
▁degrad	-11.6629
▁twins	-11.6634
35	-11.6646
▁Wars	-11.6647
ona	-11.6649
▁Come	-11.6655
governmental	-11.6664
▁fights	-11.6704
full	-11.6705
▁critic	-11.671
AP	-11.6717
High	-11.6726
▁thi	-11.6727
▁cor	-11.6731
▁Ju	-11.6734
uf	-11.6735
▁trac	-11.6735
utter	-11.6736
▁publishers	-11.6754
▁$15	-11.6757
▁aired	-11.6767
ko	-11.6772
▁skat	-11.6772
AG	-11.6808
▁hurts	-11.6816
wo	-11.682
▁rape	-11.6823
▁grows	-11.6837
▁transferr	-11.684
▁scares	-11.684
pp	-11.6856
▁Mont	-11.6859
ICK	-11.686
▁believer	-11.6863
▁300	-11.6865
▁Daughter	-11.6871
▁terrorist	-11.6873
▁observation	-11.6876
▁thousand	-11.6878
▁firms	-11.6878
▁phrase	-11.6881
▁blows	-11.6881
▁tanker	-11.6892
BB	-11.69
▁sport	-11.6903
▁erotica	-11.6915
oriented	-11.693
▁Games	-11.6932
nce	-11.6934
▁slap	-11.6938
▁Dam	-11.6943
rung	-11.6944
▁gel	-11.6944
ville	-11.6954
▁entrepreneur	-11.6958
▁Om	-11.6971
▁DOES	-11.6973
human	-11.6977
▁approv	-11.698
most	-11.6982
▁LET	-11.6983
ada	-11.6985
▁Die	-11.6989
hip	-11.699
▁pur	-11.6994
ench	-11.7004
▁flop	-11.7006
!!!!!!	-11.7009
▁absorb	-11.7009
lice	-11.7016
▁dread	-11.7016
ark	-11.7017
related	-11.7018
conscious	-11.7019
piece	-11.7019
Again	-11.7021
face	-11.7021
benefit	-11.7021
except	-11.7021
why	-11.7021
standard	-11.7021
Would	-11.7022
almost	-11.7028
▁amaze	-11.7029
around	-11.7029
▁fruit	-11.7031
cult	-11.7033
▁Blood	-11.7035
▁Clark	-11.7037
▁envisage	-11.7038
▁detriment	-11.7042
▁Micro	-11.7045
▁navigat	-11.7047
▁capita	-11.7047
▁Fisher	-11.7047
▁monopol	-11.7048
▁traffic	-11.7049
▁hung	-11.7049
▁habit	-11.7049
▁DOWN	-11.7049
▁Dillon	-11.7049
▁Exuviance	-11.7049
▁Hogan	-11.7049
▁Louis	-11.7049
▁abstain	-11.7049
▁diminish	-11.7049
▁stereo	-11.7049
▁Belgian	-11.7049
▁Beyond	-11.7049
▁Bradley	-11.7049
▁Brendan	-11.7049
▁Brilliant	-11.7049
▁Brittany	-11.7049
▁Camera	-11.7049
▁Conservative	-11.7049
▁Disappointing	-11.7049
▁Holocaust	-11.7049
▁Kinsella	-11.7049
▁Koontz	-11.7049
▁Oceania	-11.7049
▁Organisation	-11.7049
▁Professor	-11.7049
▁Programme	-11.7049
▁Solitude	-11.7049
▁University	-11.7049
▁Warrior	-11.7049
▁applaud	-11.7049
▁assassin	-11.7049
▁bookshelf	-11.7049
▁continuity	-11.7049
▁delicious	-11.7049
▁diagnos	-11.7049
▁dignity	-11.7049
▁discount	-11.7049
▁dismantling	-11.7049
▁disregard	-11.7049
▁emphasize	-11.7049
▁energies	-11.7049
▁envelope	-11.7049
▁evolve	-11.7049
▁fuzzy	-11.7049
▁glance	-11.7049
▁graduate	-11.7049
▁hesitant	-11.7049
▁historian	-11.7049
▁insecurity	-11.7049
▁intimate	-11.7049
▁perceive	-11.7049
▁protocol	-11.7049
▁reassure	-11.7049
▁redistribut	-11.7049
▁riveting	-11.7049
▁shoddy	-11.7049
▁stomach	-11.7049
▁suicide	-11.7049
▁supranational	-11.7049
▁unanimity	-11.7049
▁unprecedented	-11.7049
▁unravel	-11.7049
▁uranium	-11.7049
▁vibrant	-11.7049
▁ÖVP	-11.7049
▁Finland	-11.7049
▁Malta	-11.7049
▁PUT	-11.7049
▁alcohol	-11.7049
▁allocation	-11.7049
▁inhabit	-11.7049
▁ratified	-11.7049
▁rewind	-11.7049
decentralisation	-11.7049
▁Lucas	-11.7049
▁denied	-11.7049
▁empire	-11.7049
▁motive	-11.7049
▁rude	-11.7049
▁slasher	-11.7049
▁absent	-11.7049
▁Front	-11.7049
▁conjuncti	-11.7049
▁jammed	-11.7049
▁river	-11.7049
▁president	-11.7049
TTLE	-11.7049
continuation	-11.7049
▁HUGE	-11.7049
▁saga	-11.7049
▁Nichol	-11.7049
▁goofy	-11.7049
▁comedian	-11.7049
▁paranormal	-11.7049
▁shortcomings	-11.7049
▁Number	-11.7049
▁chilling	-11.7049
▁whale	-11.7049
▁embrace	-11.7049
▁commission	-11.7049
▁cereal	-11.7049
▁Albert	-11.7049
▁fraction	-11.7049
▁plague	-11.7049
▁knee	-11.7049
▁grocer	-11.7049
▁vertical	-11.7049
▁corporations	-11.705
▁nurse	-11.705
▁omission	-11.705
▁interference	-11.705
▁residence	-11.705
▁revised	-11.705
▁Security	-11.705
▁cancelled	-11.705
▁drummer	-11.705
▁leather	-11.705
▁Brok	-11.705
▁attain	-11.705
▁outdoor	-11.705
▁isolation	-11.705
▁distress	-11.705
▁prerequisite	-11.705
▁Canada	-11.705
▁Trade	-11.705
▁soulmate	-11.705
▁ignorance	-11.705
mediate	-11.705
▁broadcast	-11.705
▁Sarah	-11.705
14	-11.705
▁Lesson	-11.705
▁Mattel	-11.705
▁yell	-11.705
ethical	-11.705
▁stack	-11.705
▁$50	-11.705
▁crisp	-11.7051
War	-11.7051
▁phenomenon	-11.7051
▁appointment	-11.7051
▁inflation	-11.7051
▁restrictive	-11.7051
▁compression	-11.7051
▁alright	-11.7051
▁skeptical	-11.7051
▁cuz	-11.7051
▁echo	-11.7051
▁vibrator	-11.7051
emptation	-11.7051
▁chorus	-11.7051
▁Golan	-11.7051
▁Journal	-11.7051
▁accidentally	-11.7051
▁classroom	-11.7051
▁nuance	-11.7052
▁harness	-11.7052
▁caption	-11.7052
▁drawback	-11.7052
▁brick	-11.7052
▁Glen	-11.7052
▁lust	-11.7052
▁Cool	-11.7052
▁spanish	-11.7052
▁blanket	-11.7052
▁Fair	-11.7053
▁automatic	-11.7053
Foreign	-11.7053
▁Karl	-11.7053
▁underrated	-11.7053
▁illness	-11.7053
▁WARNING	-11.7053
▁abilities	-11.7053
▁Environment	-11.7053
▁Mediterranean	-11.7053
▁Rollerball	-11.7053
▁crystal	-11.7054
▁exposure	-11.7054
▁miserably	-11.7054
▁max	-11.7054
▁Buddy	-11.7054
▁Vol	-11.7054
▁Master	-11.7054
▁golf	-11.7054
▁airport	-11.7054
▁Cena	-11.7054
▁disposal	-11.7054
▁Beware	-11.7055
▁depression	-11.7055
▁reconcile	-11.7055
▁bio	-11.7056
▁Lean	-11.7056
▁property	-11.7056
▁Wild	-11.7057
▁Fats	-11.7057
▁Novel	-11.7057
▁offensive	-11.7057
▁Women	-11.7057
▁morality	-11.7057
▁marry	-11.7057
blew	-11.7058
▁Rick	-11.7058
▁observed	-11.7058
▁groove	-11.7058
▁meander	-11.7059
▁Sweet	-11.7059
▁sympathetic	-11.7059
▁Owe	-11.7059
▁fame	-11.706
▁Fred	-11.706
▁Vince	-11.706
▁complexity	-11.706
▁shaker	-11.7061
▁dating	-11.7061
▁NOW	-11.7061
▁Jam	-11.7061
▁Fall	-11.7062
▁jar	-11.7062
▁phenomenal	-11.7062
▁crashes	-11.7063
ineteen	-11.7064
▁Newman	-11.7064
ilateral	-11.7064
▁estimated	-11.7064
▁Pop	-11.7064
▁NEW	-11.7065
▁interfere	-11.7066
▁chore	-11.7066
▁150	-11.7066
▁forgetting	-11.7067
▁rebel	-11.7067
▁sucker	-11.7067
▁milk	-11.7067
▁transportation	-11.7068
▁sadness	-11.7068
▁handful	-11.7068
▁upbeat	-11.7068
▁Mean	-11.7068
▁economically	-11.707
▁Herb	-11.707
▁Rose	-11.7071
▁pregnancy	-11.7071
▁agent	-11.7071
RY	-11.7073
▁yo	-11.7073
▁depressed	-11.7074
▁heroes	-11.7074
▁Dog	-11.7075
▁weave	-11.7076
talk	-11.7079
▁Action	-11.708
rthern	-11.7081
▁explicitly	-11.7082
▁dire	-11.7087
▁fulfilled	-11.7087
▁Award	-11.7087
▁blur	-11.7088
rack	-11.709
pelled	-11.709
▁calm	-11.7092
▁wealthy	-11.7092
▁cancer	-11.7094
show	-11.7095
▁sail	-11.7097
▁tremendously	-11.7097
RS	-11.7099
▁craz	-11.7099
▁expir	-11.71
▁Cd	-11.71
▁incomplete	-11.7103
0,000	-11.7104
▁row	-11.7105
▁accountable	-11.7108
▁complained	-11.711
▁climbing	-11.711
▁PCI	-11.7111
▁filmmakers	-11.7114
▁whoever	-11.7115
▁faulty	-11.7115
El	-11.7116
▁meetings	-11.7117
▁discovery	-11.7118
▁bytes	-11.712
▁dro	-11.7122
▁originality	-11.7123
true	-11.7123
▁comforter	-11.7124
▁weaker	-11.7124
▁tighter	-11.7126
▁lawyers	-11.7126
step	-11.7127
▁separately	-11.7129
▁park	-11.7129
▁Lind	-11.7129
▁End	-11.713
thought	-11.7131
▁charterer	-11.7132
98	-11.7134
▁Edi	-11.7138
▁surfing	-11.7139
▁actively	-11.714
▁complaining	-11.714
▁cott	-11.7141
▁bang	-11.7141
▁CB	-11.7144
▁forgive	-11.7144
▁reflected	-11.7147
▁measured	-11.7149
▁handled	-11.7149
▁readily	-11.7152
▁darker	-11.7153
▁explored	-11.7157
▁souls	-11.7159
▁tripe	-11.716
▁Pet	-11.7165
▁fields	-11.7167
▁ballads	-11.7177
▁reservations	-11.7177
▁sooo	-11.7179
▁Key	-11.718
▁burns	-11.7181
▁sn	-11.7182
uge	-11.7186
▁jumping	-11.7187
ridge	-11.7187
mbient	-11.7192
▁fatal	-11.7194
▁barriers	-11.7194
▁encounters	-11.7195
▁richly	-11.7196
▁WE	-11.72
▁slower	-11.7204
oid	-11.7217
▁sports	-11.7229
force	-11.7235
▁prais	-11.7237
▁sentiment	-11.7237
enberg	-11.7238
▁communist	-11.7244
▁fleas	-11.7246
▁451"	-11.7247
▁managers	-11.725
▁makeup	-11.7255
▁Cut	-11.7257
▁internationally	-11.7261
▁conce	-11.7262
▁angles	-11.7262
▁beliefs	-11.7263
▁west	-11.7268
city	-11.7271
▁widen	-11.7272
▁bulge	-11.7275
ancing	-11.7277
▁chemicals	-11.728
▁conversations	-11.728
▁Item	-11.7282
▁criminals	-11.7287
▁outlines	-11.7299
zer	-11.731
▁shoots	-11.7317
antly	-11.7323
▁sch	-11.7328
▁lighting	-11.7331
▁Hell	-11.7333
ref	-11.7345
▁Budgets	-11.735
▁corners	-11.735
▁customs	-11.735
▁Lis	-11.7362
▁banks	-11.7366
▁transported	-11.7377
▁Par	-11.7381
▁Scar	-11.7381
▁Lama	-11.7384
▁Eve	-11.7387
tex	-11.7389
▁reminisce	-11.7393
▁keeper	-11.7397
▁Fle	-11.7402
chasing	-11.7415
story	-11.7419
IES	-11.7433
▁fools	-11.7439
▁Ty	-11.744
abo	-11.745
LL	-11.7453
ku	-11.7459
▁Maria	-11.7463
▁37	-11.7467
▁rant	-11.7472
▁delve	-11.7472
▁cav	-11.7475
nam	-11.7485
▁sticks	-11.7491
▁enforce	-11.7502
etter	-11.751
▁mins	-11.7526
▁preserve	-11.7531
ples	-11.7532
ANCE	-11.7537
▁rub	-11.7552
media	-11.7552
MAN	-11.7555
URE	-11.7556
▁reactions	-11.7562
▁dystopia	-11.7565
▁700	-11.7566
!!!!!!!!!!!	-11.7583
Mak	-11.7585
▁ante	-11.759
lane	-11.7592
▁unions	-11.7594
come	-11.7599
cla	-11.7601
pass	-11.7629
75	-11.763
cd	-11.7633
ancy	-11.7644
ledge	-11.7667
▁sequels	-11.7669
▁respected	-11.7672
▁signals	-11.7687
▁Jud	-11.7687
lude	-11.7692
oil	-11.7697
▁1)	-11.7699
▁contributes	-11.7713
▁reset	-11.7713
wan	-11.7722
▁abus	-11.7744
▁Stars	-11.7748
OH	-11.7749
▁programmer	-11.7752
▁ba	-11.7756
tress	-11.776
▁stumble	-11.7777
▁substances	-11.7777
▁targets	-11.7777
▁mentioning	-11.7782
AY	-11.7797
▁edit	-11.7802
▁defi	-11.7813
▁CEN	-11.7817
amp	-11.7821
▁fin	-11.7828
▁focuse	-11.783
▁commun	-11.7835
▁Cat	-11.7841
▁mandat	-11.7854
▁Ford	-11.7855
▁labels	-11.7859
▁stink	-11.7866
▁buff	-11.7873
▁quarter	-11.7874
▁drum	-11.7875
works	-11.788
▁illustration	-11.7881
ondo	-11.7883
▁31	-11.7884
▁canon	-11.7887
▁lace	-11.7892
lent	-11.7894
▁seperate	-11.7903
95	-11.7912
lover	-11.7915
▁cent	-11.7915
▁wording	-11.7917
▁Act	-11.7921
ieve	-11.7928
▁LL	-11.7929
▁Fra	-11.7929
▁Cliff	-11.7936
emic	-11.7943
▁layer	-11.7945
still	-11.7949
▁believ	-11.795
▁integrat	-11.798
▁threaten	-11.7981
▁electronica	-11.7983
▁impos	-11.7989
▁struggl	-11.7998
economic	-11.7999
hearted	-11.8
▁65	-11.8001
▁ja	-11.8002
▁definit	-11.8008
UE	-11.8009
▁transcend	-11.801
▁insomnia	-11.8015
dimensional	-11.802
Classic	-11.802
Sorry	-11.8021
John	-11.8021
please	-11.8021
horror	-11.8021
First	-11.8021
family	-11.8021
BUT	-11.8021
course	-11.8021
support	-11.8021
Since	-11.8021
white	-11.8021
metal	-11.8022
little	-11.8022
check	-11.8023
political	-11.8023
listen	-11.8024
worthy	-11.8024
Read	-11.8025
Four	-11.8025
▁continuous	-11.8026
USE	-11.8026
▁Third	-11.8026
plot	-11.8027
Look	-11.8028
▁resume	-11.8028
▁shred	-11.8029
say	-11.8033
▁phenomena	-11.8035
section	-11.8035
itz	-11.8036
friendly	-11.8037
tric	-11.8037
eye	-11.8039
udy	-11.8044
Bad	-11.8044
▁easie	-11.8045
/2000)	-11.8045
▁corrupt	-11.8047
▁anticipate	-11.8047
▁advert	-11.8047
▁witch	-11.8047
▁vulgar	-11.8047
▁silver	-11.8048
▁prosper	-11.8048
pleted	-11.8049
▁Heinlein	-11.8049
▁abolish	-11.8049
▁diabetic	-11.8049
▁1985	-11.8049
▁1991	-11.8049
▁AMAZING	-11.8049
▁Adapter	-11.8049
▁Agricultur	-11.8049
▁Broadway	-11.8049
▁Buddhist	-11.8049
▁Consumer	-11.8049
▁Custom	-11.8049
▁Gammelgaard	-11.8049
▁Gordon	-11.8049
▁Hatebreed	-11.8049
▁Hilditch	-11.8049
▁Horror	-11.8049
▁Literature	-11.8049
▁Major	-11.8049
▁Motorola	-11.8049
▁Napoleon	-11.8049
▁Orrico	-11.8049
▁Point	-11.8049
▁SNMP	-11.8049
▁Street	-11.8049
▁Together	-11.8049
▁Vampire	-11.8049
▁Velvet	-11.8049
▁airplane	-11.8049
▁arcade	-11.8049
▁atrocious	-11.8049
▁attentive	-11.8049
▁backdrop	-11.8049
▁certificate	-11.8049
▁clarification	-11.8049
▁coherence	-11.8049
▁comprehend	-11.8049
▁confess	-11.8049
▁credible	-11.8049
▁dishwasher	-11.8049
▁enemies	-11.8049
▁fantasies	-11.8049
▁grandchildren	-11.8049
▁gritty	-11.8049
▁hamper	-11.8049
▁invitation	-11.8049
▁maintenance	-11.8049
▁monotonous	-11.8049
▁multiannual	-11.8049
▁nervous	-11.8049
▁nipple	-11.8049
▁obnoxious	-11.8049
▁perverse	-11.8049
▁quartet	-11.8049
▁shipowners	-11.8049
▁splendid	-11.8049
▁squeem	-11.8049
▁striking	-11.8049
▁subsidies	-11.8049
▁thrash	-11.8049
▁travesty	-11.8049
▁welfare	-11.8049
▁GIVE	-11.8049
▁Mercedes	-11.8049
▁Paranoid	-11.8049
▁Ralph	-11.8049
▁adorable	-11.8049
▁devour	-11.8049
▁dubbing	-11.8049
▁hull	-11.8049
▁injury	-11.8049
▁jungle	-11.8049
▁memoir	-11.8049
▁outrageous	-11.8049
▁ultra	-11.8049
▁wrestling	-11.8049
▁Dublin	-11.8049
▁NEED	-11.8049
▁Vegas	-11.8049
▁bleak	-11.8049
▁fourteen	-11.8049
▁monument	-11.8049
▁pertain	-11.8049
▁pioneer	-11.8049
▁regain	-11.8049
▁1/4	-11.8049
▁Ahab	-11.8049
▁Concert	-11.8049
▁mysteries	-11.8049
▁revisit	-11.8049
▁spouse	-11.8049
▁Doyle	-11.8049
▁attribute	-11.8049
▁infringement	-11.8049
▁drift	-11.8049
▁transmit	-11.8049
▁nasty	-11.8049
▁privacy	-11.8049
▁endearing	-11.8049
▁wicked	-11.8049
▁miracle	-11.8049
▁Jefferson	-11.8049
▁Place	-11.8049
▁Saint	-11.8049
▁shaft	-11.8049
▁Judith	-11.8049
▁aloud	-11.8049
▁surpass	-11.8049
▁neighbourhood	-11.8049
▁Archi	-11.8049
▁compensation	-11.8049
▁crises	-11.8049
▁Simpletech	-11.8049
▁instability	-11.8049
▁pension	-11.8049
▁Scene	-11.8049
▁Talk	-11.8049
▁branch	-11.8049
▁snack	-11.8049
▁intervene	-11.8049
▁crank	-11.805
▁Jeff	-11.805
▁Eurojust	-11.805
▁precious	-11.805
TV	-11.805
▁legacy	-11.805
▁chunk	-11.805
▁fifty	-11.805
▁Extreme	-11.805
▁dispute	-11.805
▁humble	-11.805
▁Luckily	-11.805
▁afterwards	-11.805
▁tummy	-11.805
▁optimistic	-11.805
▁confidentiality	-11.805
▁Barbra	-11.805
▁repetition	-11.805
▁fortune	-11.805
▁therapy	-11.805
▁knight	-11.805
▁Cheap	-11.805
▁VCR	-11.805
▁acne	-11.805
▁clause	-11.805
▁Soviet	-11.805
▁foster	-11.805
▁Temple	-11.805
▁measurements	-11.805
▁cookbook	-11.805
▁beef	-11.805
▁stringent	-11.805
▁Barak	-11.805
▁Mike	-11.8051
▁Moria	-11.8051
▁fireplace	-11.8051
▁Xtra	-11.8051
▁Colin	-11.8051
▁garage	-11.8051
▁membership	-11.8051
▁macro	-11.8051
▁discontinued	-11.8051
▁gibberish	-11.8051
▁Chair	-11.8051
▁Mariah	-11.8051
▁vibration	-11.8051
▁tick	-11.8051
▁SONGS	-11.8051
▁couch	-11.8052
▁recharge	-11.8052
▁Find	-11.8052
▁electora	-11.8052
▁Warnes	-11.8052
▁Christine	-11.8052
▁brake	-11.8052
▁naive	-11.8052
▁Brian	-11.8053
▁spray	-11.8053
▁punishment	-11.8053
▁wack	-11.8053
▁POW	-11.8053
▁playlist	-11.8054
lazy	-11.8054
▁Spirit	-11.8054
▁eerie	-11.8054
COD	-11.8054
▁Eddie	-11.8054
▁Gabriel	-11.8054
▁STORY	-11.8054
▁blockbuster	-11.8054
▁inject	-11.8054
▁pact	-11.8054
▁alert	-11.8054
▁Moby	-11.8055
▁storyteller	-11.8055
5/5	-11.8055
▁Rush	-11.8055
▁Parton	-11.8056
▁laughter	-11.8056
▁clamp	-11.8056
▁accountability	-11.8056
▁insightful	-11.8057
▁comparable	-11.8057
▁unreal	-11.8057
▁Castle	-11.8057
▁PLAY	-11.8057
▁virus	-11.8058
▁supplier	-11.8059
▁discoveries	-11.8059
▁acid	-11.8059
▁Hence	-11.806
lenty	-11.806
▁Law	-11.8061
▁Harris	-11.8061
▁affordable	-11.8062
▁pinch	-11.8062
▁Must	-11.8062
▁lonely	-11.8063
▁translate	-11.8063
▁2011	-11.8063
▁apartment	-11.8063
▁venture	-11.8064
▁inspirational	-11.8065
▁RV	-11.8065
▁Player	-11.8065
itive	-11.8065
▁serial	-11.8065
▁disadvantaged	-11.8066
▁deck	-11.8066
▁tourist	-11.8067
▁Jay	-11.8068
▁breach	-11.8068
▁appalling	-11.8068
▁Side	-11.8068
olby	-11.807
▁Steven	-11.807
▁grainy	-11.807
▁DV	-11.807
▁remastered	-11.807
▁flawlessly	-11.807
▁grinder	-11.8071
▁Island	-11.8071
...............	-11.8074
▁distract	-11.8076
▁tele	-11.8076
▁Granted	-11.8077
▁Citizens	-11.8078
▁Jan	-11.8078
▁electro	-11.8078
▁authorised	-11.8079
▁gathering	-11.8079
▁grinding	-11.8079
▁cringe	-11.8079
▁Cold	-11.8081
▁cite	-11.8082
▁compil	-11.8082
▁48	-11.8082
▁mythology	-11.8083
▁catastrophe	-11.8086
▁mattresses	-11.8087
ury	-11.8088
▁organise	-11.809
lessly	-11.8091
▁knowledgeable	-11.8092
reaching	-11.8092
▁Mine	-11.8093
▁PG	-11.8093
▁bond	-11.8094
▁Five	-11.8096
▁lip	-11.8096
▁acknowledged	-11.8097
▁Pra	-11.8097
▁sorrow	-11.8099
▁tortured	-11.8101
▁examined	-11.8103
uch	-11.8103
trust	-11.8106
pop	-11.8111
▁heap	-11.8111
▁photographs	-11.8112
▁earbuds	-11.8115
▁rappers	-11.8115
▁frontiers	-11.8115
▁jam	-11.8118
shot	-11.8119
▁imposed	-11.812
▁scr	-11.8123
▁electrical	-11.8124
▁judged	-11.8125
▁_	-11.8126
▁flawed	-11.8128
something	-11.8129
▁addicted	-11.813
▁hill	-11.8133
▁34	-11.8133
seekers	-11.8134
▁backwards	-11.8135
▁icon	-11.8135
RB	-11.8142
▁piss	-11.8142
▁quicker	-11.8144
▁Miles	-11.8144
action	-11.8144
incomprehensible	-11.8144
▁swinging	-11.815
pack	-11.815
really	-11.8153
going	-11.8153
▁eargels	-11.8153
▁strikes	-11.8153
▁randomly	-11.8155
▁spice	-11.8155
▁una	-11.8156
▁listenable	-11.8161
▁enabled	-11.8165
▁ITS	-11.8167
▁spelling	-11.8168
▁finale	-11.8171
▁productive	-11.8174
▁VI	-11.8174
▁booklet	-11.8179
▁roller	-11.8179
enie	-11.8183
▁mag	-11.8184
Too	-11.8185
▁rage	-11.819
▁nerves	-11.8191
▁payments	-11.8196
AVE	-11.82
SC	-11.8209
▁matched	-11.8211
▁imagined	-11.8218
▁backup	-11.8221
stone	-11.8227
▁cal	-11.8228
▁mono	-11.8229
▁Manu	-11.8233
▁topper	-11.8237
Northern	-11.8238
Run	-11.8238
▁Frank	-11.8241
LOW	-11.8242
static	-11.8243
▁grabb	-11.8245
▁tankers	-11.8254
▁3-4	-11.8254
wed	-11.8257
▁technically	-11.826
gel	-11.8261
▁individually	-11.8261
▁bann	-11.8262
▁chat	-11.8264
▁zones	-11.8268
▁existed	-11.8269
kind	-11.8273
PA	-11.8274
Let	-11.8275
▁bid	-11.8276
▁pounds	-11.8285
▁cleaner	-11.8285
▁sha	-11.8308
▁objects	-11.831
twood	-11.8316
▁circles	-11.8326
▁comical	-11.8333
▁remained	-11.8348
▁Ol	-11.8353
▁footing	-11.8354
▁positively	-11.8361
▁Ven	-11.8363
imit	-11.8366
▁indie	-11.8376
▁deadlines	-11.8384
▁Strange	-11.8385
enne	-11.8387
▁prospect	-11.8413
PT	-11.8417
▁merits	-11.8423
▁interactions	-11.8423
▁Ride	-11.8427
▁reache	-11.8428
nationalisation	-11.8428
▁Israelis	-11.843
▁appearances	-11.8442
▁springs	-11.8442
▁inspections	-11.8442
nda	-11.8464
▁corrected	-11.8474
SON	-11.8474
dance	-11.8477
▁Ram	-11.8489
▁pole	-11.8499
▁undergo	-11.8511
▁wage	-11.8522
▁Tu	-11.8527
▁forbid	-11.8543
▁pushe	-11.8543
east	-11.8546
▁interpretations	-11.856
▁locally	-11.8565
▁Mode	-11.8571
▁Gras	-11.8572
uit	-11.8572
▁Plug	-11.8577
▁stabilis	-11.8605
▁FE	-11.8614
crime	-11.8617
▁succeeds	-11.8622
NO	-11.8627
▁Count	-11.8629
▁Cant	-11.8637
▁les	-11.8644
▁negotiate	-11.8648
▁streets	-11.8659
▁cur	-11.866
▁secrets	-11.8661
▁Cro	-11.8661
▁tin	-11.8673
▁Pain	-11.8679
▁sessions	-11.868
▁HA	-11.8684
▁gal	-11.8685
wit	-11.8689
▁hor	-11.8695
▁lightly	-11.8697
aw	-11.8703
▁indicati	-11.8723
order	-11.8727
▁Mann	-11.873
▁Rod	-11.8731
▁recognises	-11.8743
▁performs	-11.8745
handed	-11.8749
lva	-11.8754
▁der	-11.8754
!!!!!!!!	-11.8756
▁Sei	-11.8785
▁BOTH	-11.8788
oca	-11.879
tude	-11.8801
▁mas	-11.8808
unrated	-11.8813
▁Wind	-11.8819
▁fri	-11.883
▁fl	-11.8836
only	-11.8837
cl	-11.8848
▁dealer	-11.8848
AST	-11.8857
45	-11.8865
BO	-11.8866
▁mi	-11.8881
77	-11.8881
▁Dis	-11.889
!!!!!!!	-11.8897
▁reliev	-11.8902
war	-11.891
org	-11.8912
▁bus	-11.8916
▁prim	-11.8919
ims	-11.8922
▁psycho	-11.8924
▁SUC	-11.8927
▁chi	-11.893
/1	-11.8932
▁manag	-11.8933
gun	-11.8941
script	-11.8942
▁encounter	-11.895
▁Hun	-11.8955
cion	-11.8958
▁Grand	-11.8963
▁segment	-11.8982
▁earthquake	-11.8982
▁barrier	-11.8984
▁distortion	-11.8984
FA	-11.8985
▁Kid	-11.8986
▁metaphor	-11.8987
▁component	-11.8987
▁transaction	-11.8988
▁enterprise	-11.8988
▁employee	-11.899
▁bowl	-11.8994
▁achievement	-11.8996
▁mile	-11.8998
correct	-11.9011
▁gro	-11.9027
▁expectation	-11.9035
ender	-11.9037
▁voluntar	-11.9038
thology	-11.9041
▁analy	-11.9043
Pap	-11.9062
lead	-11.9063
prone	-11.9064
▁wrench	-11.9071
▁Wall	-11.9075
▁Walt	-11.9077
xas	-11.9082
cause	-11.9083
▁instruct	-11.9095
▁Myster	-11.9096
▁diff	-11.9106
▁pollut	-11.9108
▁tub	-11.9108
▁satisfy	-11.9111
▁figur	-11.9111
▁choos	-11.9116
DC	-11.9118
field	-11.9122
open	-11.9124
bone	-11.9124
▁arrang	-11.9126
▁abandon	-11.9127
search	-11.9128
fetched	-11.913
Europe	-11.913
▁dive	-11.9131
Disc	-11.9131
▁rever	-11.9131
compatible	-11.9132
efficient	-11.9132
satisfied	-11.9132
Jean	-11.9132
Otherwise	-11.9132
first	-11.9132
lbs	-11.9133
THIS	-11.9133
however	-11.9133
Music	-11.9134
▁settle	-11.9134
forward	-11.9135
spel	-11.9135
Two	-11.9136
▁immense	-11.9137
record	-11.9138
boat	-11.9138
Long	-11.9139
▁isolate	-11.9139
common	-11.9139
▁locate	-11.914
stock	-11.914
▁flawless	-11.914
rush	-11.9142
plus	-11.9143
▁Wicca	-11.9143
▁possess	-11.9145
▁Fran	-11.9145
▁criticise	-11.9148
unless	-11.9149
scale	-11.915
Still	-11.9152
Mad	-11.9152
54	-11.9153
etc	-11.9154
▁Eight	-11.9154
fall	-11.9155
color	-11.9156
neath	-11.9157
▁democrat	-11.9158
▁Titan	-11.9158
▁gloss	-11.9158
▁Found	-11.9158
▁HEAR	-11.9159
▁Brit	-11.9159
ROM	-11.9159
▁3.5	-11.916
ritten	-11.916
▁censor	-11.916
▁persecut	-11.916
▁Dragon	-11.916
▁HARD	-11.916
▁aircraft	-11.916
▁conviction	-11.916
▁curiosity	-11.916
▁recruit	-11.916
▁skimm	-11.916
▁varied	-11.916
elaborate	-11.916
misunderstanding	-11.916
▁1992	-11.916
▁ALBUM	-11.916
▁AWESOME	-11.916
▁Admittedly	-11.916
▁Buddhism	-11.916
▁Canadian	-11.916
▁Chocolat	-11.916
▁Cobain	-11.916
▁Confedera	-11.916
▁Cummins	-11.916
▁Cusí	-11.916
▁Decision	-11.916
▁Dimitrakopoulos	-11.916
▁EarGels	-11.916
▁Essential	-11.916
▁FREE	-11.916
▁Fortunately	-11.916
▁HTML	-11.916
▁Kylie	-11.916
▁LIFE	-11.916
▁LIMIT	-11.916
▁Lhasa	-11.916
▁MADE	-11.916
▁Ombudsman	-11.916
▁Pellegrino	-11.916
▁Penguin	-11.916
▁RPG	-11.916
▁Representative	-11.916
▁Sophie	-11.916
▁Strasbourg	-11.916
▁TOEFL	-11.916
▁Voodoo	-11.916
▁WHY	-11.916
▁Wurtz	-11.916
▁Xanth	-11.916
▁Yoruba	-11.916
▁anniversary	-11.916
▁assault	-11.916
▁beneficial	-11.916
▁boundaries	-11.916
▁centuries	-11.916
▁condescending	-11.916
▁consistency	-11.916
▁decrease	-11.916
▁deprivation	-11.916
▁devotion	-11.916
▁diameter	-11.916
▁diamond	-11.916
▁dissappointed	-11.916
▁embark	-11.916
▁enthralling	-11.916
▁enthusiasm	-11.916
▁execution	-11.916
▁feminist	-11.916
▁fisheries	-11.916
▁flannel	-11.916
▁gadget	-11.916
▁ghetto	-11.916
▁gimmick	-11.916
▁gruesome	-11.916
▁incompetence	-11.916
▁inequalities	-11.916
▁influential	-11.916
▁irresponsible	-11.916
▁juvenile	-11.916
▁legislature	-11.916
▁liberty	-11.916
▁mundane	-11.916
▁neglect	-11.916
▁nepotism	-11.916
▁prosecution	-11.916
▁reception	-11.916
▁redundant	-11.916
▁screenwriter	-11.916
▁scrutiny	-11.916
▁shrink	-11.916
▁sloppy	-11.916
▁smoking	-11.916
▁spiral	-11.916
▁stilted	-11.916
▁theoretical	-11.916
▁tragedies	-11.916
▁unanswered	-11.916
▁unwatchable	-11.916
▁variation	-11.916
▁vigilant	-11.916
▁volunteers	-11.916
▁widespread	-11.916
▁yield	-11.916
▁zoom	-11.916
▁Blah	-11.916
▁Cameron	-11.916
▁Clavell	-11.916
▁Hitler	-11.916
▁Rosalin	-11.916
▁Sugar	-11.916
▁Zero	-11.916
▁chief	-11.916
▁churn	-11.916
▁comfy	-11.916
▁equation	-11.916
▁hardcover	-11.916
▁histories	-11.916
▁silence	-11.916
▁subscription	-11.916
▁utilis	-11.916
▁Alliance	-11.916
▁Berend	-11.916
▁Gault	-11.916
▁emissions	-11.916
▁empathy	-11.916
▁;-)	-11.916
▁Arriv	-11.916
esthetic	-11.916
▁tactics	-11.916
▁Learn	-11.916
▁Zoe	-11.916
Incredibl	-11.916
▁biological	-11.916
▁Islam	-11.916
▁Albanians	-11.916
▁Current	-11.916
▁Worst	-11.916
retarded	-11.916
skirt	-11.916
▁overdue	-11.916
▁ICON	-11.916
▁contemplate	-11.916
▁wierd	-11.916
▁Texas	-11.916
▁sinister	-11.916
▁silent	-11.9161
▁detach	-11.9161
▁theatrical	-11.9161
▁gym	-11.9161
▁catalogue	-11.9161
▁specify	-11.9161
▁Enough	-11.9161
▁ballroom	-11.9161
▁deteriorat	-11.9161
▁trigger	-11.9161
▁exposition	-11.9161
▁KEEP	-11.9161
▁secular	-11.9161
▁supernatural	-11.9161
▁Alaska	-11.9161
▁tongue	-11.9161
▁proactive	-11.9161
▁tolerable	-11.9161
▁wipe	-11.9161
▁noisy	-11.9161
▁omitted	-11.9161
▁excelent	-11.9161
▁glam	-11.9161
▁Mills	-11.9161
▁$$	-11.9161
▁supervise	-11.9161
▁straightforward	-11.9161
▁drastically	-11.9161
ehind	-11.9161
▁suction	-11.9161
▁Bruce	-11.9161
▁restrictions	-11.9161
▁scarier	-11.9161
▁musicianship	-11.9161
▁descent	-11.9161
▁jewel	-11.9161
numbing	-11.9161
▁kidding	-11.9161
▁thigh	-11.9161
▁Flu	-11.9161
▁seminar	-11.9161
▁1960	-11.9161
▁Curie	-11.9161
▁Review	-11.9161
▁Elmo	-11.9161
▁entries	-11.9161
▁toxic	-11.9161
▁libro	-11.9161
▁Harmon	-11.9161
▁implie	-11.9162
▁Xmas	-11.9162
▁permission	-11.9162
▁devise	-11.9162
▁earpiece	-11.9162
▁retirement	-11.9162
▁tribe	-11.9162
▁lemon	-11.9162
▁Six	-11.9162
holic	-11.9162
▁reinstall	-11.9162
▁4.5	-11.9162
Marlon	-11.9162
▁slam	-11.9162
▁export	-11.9162
▁manifesto	-11.9162
▁allusions	-11.9162
VIII	-11.9163
▁hatred	-11.9163
cular	-11.9163
▁Dawn	-11.9163
▁citizenship	-11.9163
▁Funny	-11.9163
▁Medical	-11.9163
▁jail	-11.9163
▁batman	-11.9163
▁wannabe	-11.9163
▁mankind	-11.9163
▁cabinet	-11.9163
▁sightings	-11.9163
▁$100	-11.9163
▁Track	-11.9163
▁Cross	-11.9163
▁clock	-11.9164
▁posture	-11.9164
▁WTO	-11.9164
▁glorious	-11.9164
▁Dala	-11.9164
▁256	-11.9165
▁HATE	-11.9165
▁temptation	-11.9165
▁940	-11.9165
▁scripture	-11.9165
▁storytelling	-11.9165
▁Simpl	-11.9165
▁poetic	-11.9165
▁ballet	-11.9165
▁plight	-11.9165
▁unemployed	-11.9165
▁Dummies	-11.9166
▁Ulysses	-11.9166
▁flesh	-11.9166
▁assets	-11.9166
▁lime	-11.9166
▁viruses	-11.9166
▁audiobook	-11.9166
▁preference	-11.9166
scariest	-11.9166
▁witches	-11.9166
▁mystical	-11.9166
▁hrs	-11.9167
▁stockings	-11.9167
▁ZR	-11.9167
▁Tina	-11.9167
▁insane	-11.9167
▁regretted	-11.9167
▁fought	-11.9167
▁pursuit	-11.9167
stein	-11.9168
▁(...)	-11.9168
▁revive	-11.9168
▁bash	-11.9168
▁Trick	-11.9168
▁Saw	-11.9168
SELF	-11.9169
▁peripheral	-11.9169
▁releasing	-11.9169
▁songwriter	-11.9169
▁logo	-11.9169
▁dominated	-11.9169
▁attraction	-11.917
▁punches	-11.917
ITY	-11.917
▁peak	-11.917
▁THESE	-11.917
▁contest	-11.917
▁1,000	-11.917
▁Pack	-11.9171
▁popularity	-11.9171
▁MAT	-11.9171
▁Caan	-11.9171
▁durability	-11.9171
▁Surf	-11.9171
▁quantity	-11.9172
▁Jose	-11.9172
▁adjustable	-11.9172
▁Problem	-11.9173
▁Kelly	-11.9173
▁meantime	-11.9175
▁WOW	-11.9175
▁stretches	-11.9175
▁cynical	-11.9176
▁Flyboys	-11.9176
▁southern	-11.9176
orah	-11.9176
▁replay	-11.9177
▁vary	-11.9178
▁30%	-11.9178
▁suspended	-11.9179
▁attaches	-11.9179
▁Cake	-11.9179
▁Box	-11.9179
▁irony	-11.918
paid	-11.9181
▁likewise	-11.9181
▁strive	-11.9181
▁settled	-11.9181
▁fist	-11.9182
blue	-11.9182
▁deem	-11.9182
▁perpetrated	-11.9183
maniac	-11.9183
artsy	-11.9184
▁QUE	-11.9184
▁trait	-11.9185
▁Carrot	-11.9186
▁pickup	-11.9186
▁matches	-11.9187
▁banal	-11.9187
▁sax	-11.9188
▁speeches	-11.919
awn	-11.919
▁Same	-11.919
ECA	-11.919
▁funky	-11.9191
▁moderate	-11.9191
▁Eva	-11.9192
▁Leave	-11.9192
▁writt	-11.9192
▁troops	-11.9193
▁feeder	-11.9193
▁devastating	-11.9194
▁fable	-11.9194
▁rac	-11.9194
shore	-11.9195
▁annotat	-11.9195
ICE	-11.9197
▁enforced	-11.9197
▁CON	-11.9199
▁banned	-11.9199
▁vent	-11.92
nthrop	-11.9201
▁CHA	-11.9203
▁Original	-11.9203
laugh	-11.9203
▁retailer	-11.9203
ham	-11.9206
▁Line	-11.9206
▁cried	-11.9206
▁Recommended	-11.9207
▁lend	-11.9208
▁loser	-11.921
▁bloody	-11.9211
▁38	-11.9211
AIL	-11.9221
aught	-11.9223
▁FM	-11.9226
▁cheer	-11.9226
▁restored	-11.9227
▁softer	-11.9228
best	-11.9228
▁aunt	-11.9229
▁curse	-11.9232
▁Rest	-11.9233
▁doubtless	-11.9233
▁formally	-11.9234
▁exec	-11.9234
▁diagrams	-11.9235
▁relaxing	-11.9237
▁farce	-11.9239
ambo	-11.9242
ldom	-11.9242
▁lov	-11.9244
PART	-11.9245
▁adequately	-11.9248
▁gory	-11.9248
▁disappeared	-11.9252
▁Ball	-11.9253
▁clients	-11.9256
▁scandals	-11.9256
▁Alas	-11.9258
▁visually	-11.9258
▁Matt	-11.9258
▁cookie	-11.9259
▁pursued	-11.9262
opper	-11.9264
▁Gary	-11.9265
▁healthy	-11.9267
▁Trans	-11.927
▁regulator	-11.9271
▁lu	-11.9272
▁predecessors	-11.9277
▁statistics	-11.9277
▁objections	-11.9278
▁tar	-11.9279
▁shifting	-11.9279
finitely	-11.928
▁Amy	-11.9283
▁Hor	-11.9285
▁thrilling	-11.9285
▁dude	-11.9288
▁GB	-11.929
▁cope	-11.9291
▁insulting	-11.9292
▁MB	-11.9294
▁definet	-11.9295
▁hum	-11.9298
▁supplies	-11.9299
▁medication	-11.9301
▁lab	-11.9302
ennis	-11.9305
▁organis	-11.9306
▁murdered	-11.9307
mple	-11.9309
▁Dur	-11.9311
▁listener	-11.9322
▁herb	-11.9323
▁filler	-11.9324
▁loosely	-11.9324
▁Shipp	-11.933
▁norm	-11.9331
such	-11.9331
▁accurately	-11.9335
▁earthquakes	-11.9342
▁segments	-11.9342
▁occurr	-11.9343
vy	-11.9348
▁pal	-11.935
cription	-11.9353
aked	-11.9358
▁probe	-11.9359
▁threatens	-11.9362
nut	-11.9364
▁budd	-11.9364
▁picky	-11.9365
aggie	-11.9365
▁manipulate	-11.9371
ctive	-11.9376
▁Daughters	-11.9385
▁terrorists	-11.9385
▁Wave	-11.9388
▁McC	-11.9396
lley	-11.9398
▁organic	-11.9398
▁unsur	-11.94
▁ministers	-11.9406
▁Waits	-11.9407
▁associations	-11.9407
▁warrant	-11.9412
FOR	-11.9412
▁needle	-11.9416
▁bum	-11.9422
▁listeners	-11.9425
rap	-11.9427
▁cl	-11.9429
▁screams	-11.9429
▁pipe	-11.943
▁featured	-11.9434
▁wordy	-11.9436
▁appropriately	-11.9443
▁193	-11.9443
▁neighbours	-11.945
▁strings	-11.945
▁predictions	-11.9451
▁trim	-11.9457
▁specialist	-11.9464
▁pressing	-11.9467
affe	-11.9467
▁deriv	-11.9474
late	-11.9478
blown	-11.9482
▁pas	-11.9491
fig	-11.9495
▁swi	-11.9511
▁stressing	-11.9511
aut	-11.9513
ppen	-11.9514
▁rhythms	-11.9515
▁internally	-11.9518
itch	-11.9518
▁arena	-11.9529
▁bumps	-11.9529
▁aliens	-11.9534
▁Palestinians	-11.9537
▁Dreams	-11.9537
▁judgements	-11.9538
)]	-11.9549
▁crossed	-11.955
▁Wa	-11.9553
▁squares	-11.9559
▁boo	-11.956
▁thou	-11.9565
▁answered	-11.9565
▁Buyer	-11.9573
▁closes	-11.9573
▁idiots	-11.9575
▁requesting	-11.9587
▁95	-11.959
▁profits	-11.9603
▁inserts	-11.9605
▁$3	-11.9606
Can	-11.9611
Pass	-11.9613
big	-11.9631
▁sadde	-11.9637
▁hopeless	-11.9639
winded	-11.9654
owing	-11.9657
ido	-11.9658
▁axe	-11.9662
▁compress	-11.9666
▁log	-11.9668
arian	-11.9669
▁Notes	-11.9672
ndy	-11.9675
▁maker	-11.9681
ital	-11.9686
▁Brave	-11.9688
▁dip	-11.9706
corn	-11.9714
▁ratio	-11.9721
▁inventor	-11.9727
aving	-11.9731
posed	-11.9733
standing	-11.9747
Dr	-11.9748
▁united	-11.9752
▁Hello	-11.9755
▁Ob	-11.9783
ode	-11.9794
▁$300	-11.9809
▁shredd	-11.9815
hang	-11.9816
▁PRO	-11.9824
▁relie	-11.984
▁elevate	-11.9841
either	-11.9843
▁pricey	-11.9863
▁Name	-11.9863
ttle	-11.9872
▁Rat	-11.9879
07	-11.9886
manship	-11.9898
boo	-11.9913
▁cycl	-11.9922
chan	-11.9949
▁Amo	-11.9952
accessi	-11.996
ook	-11.9985
▁voter	-11.9989
smith	-11.9991
ecc	-11.9991
▁WW	-12
▁becu	-12.0005
▁Roo	-12.0011
▁sticker	-12.0013
Note	-12.0026
▁HI	-12.0033
▁fest	-12.0033
▁39	-12.0038
lf	-12.0044
▁virtu	-12.0051
▁container	-12.0062
lous	-12.0065
▁Rope	-12.0065
▁Bit	-12.0067
mour	-12.0073
Mart	-12.0078
owl	-12.0078
building	-12.0098
signed	-12.0103
version	-12.0104
▁Effect	-12.0105
ask	-12.0109
fying	-12.0112
▁AF	-12.0115
post	-12.0118
▁$35	-12.0119
▁Brand	-12.0124
ermost	-12.0131
crib	-12.0131
▁Danger	-12.0136
▁hall	-12.014
nnie	-12.0159
▁soooo	-12.017
▁BT	-12.0174
elli	-12.0199
▁shap	-12.0208
500	-12.0217
tempo	-12.0231
▁nerve	-12.0233
▁reservation	-12.0234
▁condo	-12.0235
▁bolt	-12.0235
▁robot	-12.0236
▁ballad	-12.0237
▁scientist	-12.0239
▁recipe	-12.0241
▁slides	-12.0255
▁payment	-12.0263
loria	-12.027
▁substanti	-12.0284
▁inflat	-12.0292
▁wri	-12.0297
▁lib	-12.0302
almart	-12.0306
▁ignor	-12.0312
▁ev	-12.0319
▁addict	-12.0324
▁north	-12.033
1/2"	-12.0335
hoe	-12.0346
▁compar	-12.0346
makers	-12.0347
▁resembl	-12.0349
▁judg	-12.0354
▁hav	-12.0357
special	-12.0359
zio	-12.0361
▁Rob	-12.0361
sumption	-12.0362
▁fascinat	-12.0362
▁dispos	-12.0367
know	-12.0372
cope	-12.0376
▁profession	-12.0377
▁bias	-12.0377
mond	-12.0377
mission	-12.0379
urate	-12.0379
discover	-12.0379
indulgent	-12.038
Book	-12.038
pregnancy	-12.0381
▁announce	-12.0381
people	-12.0381
[...]	-12.0381
Mothman	-12.0382
Magic	-12.0382
favour	-12.0382
normal	-12.0382
Black	-12.0382
Guy	-12.0382
Stay	-12.0382
adventure	-12.0382
frame	-12.0382
protect	-12.0382
intellectual	-12.0382
different	-12.0382
help	-12.0382
found	-12.0382
Save	-12.0383
Like	-12.0383
mix	-12.0384
▁Child	-12.0384
having	-12.0384
finish	-12.0385
▁fortunate	-12.0386
(2)	-12.0387
▁unanimous	-12.0387
▁cam	-12.0388
enchant	-12.0389
▁disadvantage	-12.0389
▁estimate	-12.039
▁delete	-12.039
▁recommen	-12.039
soft	-12.0391
about	-12.0392
Time	-12.0392
ille	-12.0393
▁slid	-12.0393
▁biograph	-12.0395
▁250	-12.0398
▁contradict	-12.0399
scene	-12.0399
feel	-12.0403
▁territori	-12.0405
▁Flash	-12.0407
▁sophomor	-12.0407
▁illuminat	-12.0408
▁Francis	-12.0409
▁disgrace	-12.0409
▁drastic	-12.0409
luetooth	-12.041
à	-12.041
▁AGAIN	-12.041
▁Escadrille	-12.041
▁Florette	-12.041
▁Holiday	-12.041
▁Optimus	-12.041
▁elastic	-12.041
▁symphon	-12.041
Behrendt	-12.041
\	-12.041
^	-12.041
}	-12.041
á	-12.041
▁1982	-12.041
▁Apparently	-12.041
▁Argentin	-12.041
▁Biscay	-12.041
▁Bolkestein	-12.041
▁Burmese	-12.041
▁Burrough	-12.041
▁Collins	-12.041
▁Crazy	-12.041
▁Désir	-12.041
▁Evita	-12.041
▁Fellowship	-12.041
▁Fischler	-12.041
▁Gerald	-12.041
▁Houston	-12.041
▁Kyoto	-12.041
▁LISTEN	-12.041
▁LaBeouf	-12.041
▁Large	-12.041
▁Lebanon	-12.041
▁Lincoln	-12.041
▁Luftwaffe	-12.041
▁Luxembourg	-12.041
▁McCartney	-12.041
▁McKellen	-12.041
▁Mexican	-12.041
▁Muslim	-12.041
▁Neanderthal	-12.041
▁Nicoletta	-12.041
▁Nielson	-12.041
▁PEOPLE	-12.041
▁PERSON	-12.041
▁PHARE	-12.041
▁PICTURE	-12.041
▁Perabo	-12.041
▁Period	-12.041
▁Poettering	-12.041
▁Prophecies	-12.041
▁Resolution	-12.041
▁Samsung	-12.041
▁Saturday	-12.041
▁Speaking	-12.041
▁Swedish	-12.041
▁Swoboda	-12.041
▁System	-12.041
▁VIDEO	-12.041
▁Vienna	-12.041
▁WHICH	-12.041
▁Zealand	-12.041
▁Ziggy	-12.041
▁abstract	-12.041
▁anxiety	-12.041
▁artifact	-12.041
▁assurance	-12.041
▁attorney	-12.041
▁cautious	-12.041
▁chlorine	-12.041
▁chuckle	-12.041
▁controversy	-12.041
▁convoluted	-12.041
▁debunk	-12.041
▁destined	-12.041
▁dilemma	-12.041
▁districts	-12.041
▁dogfight	-12.041
▁dominant	-12.041
▁eloquent	-12.041
▁exaggerated	-12.041
▁exotic	-12.041
▁expansion	-12.041
▁fifties	-12.041
▁flood	-12.041
▁galactic	-12.041
▁helicopter	-12.041
▁hitherto	-12.041
▁horrendous	-12.041
▁hurdle	-12.041
▁imperative	-12.041
▁impetus	-12.041
▁irritated	-12.041
▁john	-12.041
▁legitimacy	-12.041
▁linguist	-12.041
▁liquid	-12.041
▁malfunction	-12.041
▁moisturizer	-12.041
▁parameter	-12.041
▁postcard	-12.041
▁productivity	-12.041
▁raider	-12.041
▁rehash	-12.041
▁removable	-12.041
▁rhetoric	-12.041
▁sensitivity	-12.041
▁sensor	-12.041
▁sophisticat	-12.041
▁statute	-12.041
▁stereotypical	-12.041
▁sturdi	-12.041
▁suspicion	-12.041
▁symptom	-12.041
▁tunnel	-12.041
▁varies	-12.041
▁vegan	-12.041
▁vigorous	-12.041
▁violation	-12.041
▁voyage	-12.041
▁worries	-12.041
▁wreck	-12.041
<	-12.041
heavier	-12.041
▁512	-12.041
▁Aussie	-12.041
▁Batman	-12.041
▁Binchy	-12.041
▁Huppert	-12.041
▁Leinen	-12.041
▁OEM	-12.041
▁Schwartz	-12.041
▁Typical	-12.041
▁calculat	-12.041
▁concealer	-12.041
▁dismay	-12.041
▁fiscal	-12.041
▁orginal	-12.041
▁prescribe	-12.041
▁shelves	-12.041
▁whistle	-12.041
▁Edward	-12.041
▁Isaac	-12.041
▁downhill	-12.041
▁filth	-12.041
▁forensic	-12.041
▁intolerable	-12.041
▁prelim	-12.041
▁slack	-12.041
▁Palance	-12.041
▁Price	-12.041
▁google	-12.041
▁personnel	-12.041
▁practicing	-12.041
▁problematic	-12.041
▁retroactive	-12.041
Sheikh	-12.041
▁Emily	-12.041
▁Flint	-12.041
▁density	-12.041
▁AIDS	-12.041
▁rewarded	-12.041
▁tangle	-12.041
▁whining	-12.041
▁Change	-12.041
▁awsome	-12.041
▁contemplating	-12.041
▁intrest	-12.041
▁ABC	-12.041
▁Felicia	-12.041
▁rewarding	-12.041
▁crown	-12.041
▁hypocrisy	-12.041
▁pitiful	-12.041
▁excruciating	-12.041
▁rugged	-12.041
▁Montgomery	-12.041
▁arrest	-12.041
▁telephone	-12.041
▁portrait	-12.041
nostic	-12.041
▁flute	-12.041
▁grandmother	-12.041
▁saint	-12.041
▁horrid	-12.041
▁faint	-12.0411
▁inequality	-12.0411
▁ANYTHING	-12.0411
▁dictatorship	-12.0411
▁mugs	-12.0411
▁obsession	-12.0411
▁rattle	-12.0411
▁Revolution	-12.0411
▁nonsensical	-12.0411
▁admission	-12.0411
▁Post	-12.0411
▁verify	-12.0411
▁alliance	-12.0411
▁foresee	-12.0411
▁clinic	-12.0411
centric	-12.0411
▁debt	-12.0411
▁poison	-12.0411
://	-12.0411
▁padding	-12.0411
▁Space	-12.0411
▁disconnect	-12.0411
▁flee	-12.0411
MOST	-12.0411
▁counterpart	-12.0411
▁Carlton	-12.0411
▁1975	-12.0411
▁systematically	-12.0411
▁mobility	-12.0411
▁Christina	-12.0411
▁Evans	-12.0411
▁percentage	-12.0411
▁renovat	-12.0411
▁deceptive	-12.0411
▁railway	-12.0411
▁china	-12.0411
▁IMO	-12.0411
▁ownership	-12.0411
▁THRE	-12.0411
▁Radical	-12.0411
▁widescreen	-12.0411
▁THOUGHT	-12.0411
▁rope	-12.0411
▁homosexuality	-12.0412
▁Coleman	-12.0412
▁Close	-12.0412
▁nonexistent	-12.0412
▁horrific	-12.0412
▁unheard	-12.0412
▁rival	-12.0412
▁hound	-12.0412
▁spill	-12.0412
BOX	-12.0412
Love	-12.0412
▁Clinton	-12.0412
▁conceive	-12.0412
▁Atlantic	-12.0412
▁NYC	-12.0412
▁Peck	-12.0412
▁capability	-12.0412
▁Trek	-12.0412
▁Ultimate	-12.0413
▁Bayles	-12.0413
▁coincidence	-12.0413
▁HIM	-12.0413
▁Knight	-12.0413
▁Stick	-12.0413
▁anticipation	-12.0413
▁2007	-12.0413
▁Courtney	-12.0413
▁Mule	-12.0414
▁Karas	-12.0414
▁grey	-12.0414
▁pending	-12.0414
▁Witch	-12.0414
▁Ryan	-12.0414
▁panel	-12.0414
▁scandalous	-12.0414
▁consolidation	-12.0414
▁;)	-12.0414
▁worldwide	-12.0414
▁wholehearted	-12.0415
▁captivated	-12.0415
their	-12.0415
ouble	-12.0415
▁foolish	-12.0415
▁breakdown	-12.0415
▁jeopardise	-12.0415
▁Leader	-12.0415
▁persuade	-12.0415
▁corset	-12.0415
▁Mix	-12.0415
▁mock	-12.0415
▁Lady	-12.0416
▁compen	-12.0416
▁Drama	-12.0416
▁Eyes	-12.0416
▁worship	-12.0416
▁1967	-12.0416
▁Father	-12.0416
▁Target	-12.0416
▁sponsor	-12.0416
▁Search	-12.0416
urf	-12.0416
▁gig	-12.0417
▁downfall	-12.0417
▁personalities	-12.0417
▁circulation	-12.0417
▁racial	-12.0417
▁Strong	-12.0417
▁TRY	-12.0417
▁HERE	-12.0417
▁laud	-12.0417
▁mentality	-12.0417
▁Smart	-12.0417
▁Silver	-12.0418
▁Fourth	-12.0418
▁settlement	-12.0418
▁showcase	-12.0418
▁confrontation	-12.0418
▁BORE	-12.0418
▁Alternat	-12.0418
▁rash	-12.0418
▁strangers	-12.0418
▁restart	-12.0418
wick	-12.0418
▁restock	-12.0418
▁basement	-12.0418
▁bulky	-12.0418
▁tread	-12.0419
▁vice	-12.0419
▁Howard	-12.0419
UAL	-12.0419
▁Atea	-12.0419
▁funnie	-12.0419
▁FO	-12.042
▁Doug	-12.042
▁rib	-12.042
▁decline	-12.042
▁Finnegan	-12.042
▁Death	-12.042
▁ebook	-12.0421
▁remixes	-12.0421
▁boredom	-12.0421
▁assent	-12.0422
▁****	-12.0422
▁Face	-12.0422
▁Attic	-12.0423
▁snob	-12.0424
▁Slow	-12.0424
▁rubbed	-12.0424
▁cloud	-12.0424
▁Words	-12.0424
▁swiftly	-12.0425
▁Continuum	-12.0425
▁esteem	-12.0425
fish	-12.0425
▁158	-12.0426
packed	-12.0426
▁Cris	-12.0426
See	-12.0426
▁Goodman	-12.0427
▁powerbook	-12.0428
▁Human	-12.0428
▁Marie	-12.0428
▁accommodate	-12.0428
▁weep	-12.0428
▁pronounced	-12.0429
▁violated	-12.0429
▁capitalist	-12.043
▁Merc	-12.043
▁playback	-12.0431
▁Cole	-12.0431
▁gradually	-12.0431
▁DJ	-12.0431
▁formatting	-12.0431
▁Director	-12.0431
▁Manon	-12.0432
▁Buff	-12.0433
▁premi	-12.0433
▁cream	-12.0434
▁wedge	-12.0435
▁strain	-12.0435
▁lyrical	-12.0435
▁Fate	-12.0435
ifty	-12.0436
▁lion	-12.0436
adeon	-12.0436
▁resumed	-12.0437
God	-12.0437
▁stupidity	-12.0438
▁usefulness	-12.0439
▁Tate	-12.044
ando	-12.044
▁hardback	-12.044
▁Dave	-12.0441
Star	-12.0442
▁childish	-12.0443
▁BAND	-12.0444
corporation	-12.0445
▁proclaim	-12.0445
▁Hutt	-12.0446
▁mildly	-12.0447
▁Fla	-12.0447
▁councils	-12.0447
▁Hall	-12.0447
▁comprise	-12.0448
▁arranged	-12.0449
96	-12.0451
▁startling	-12.0451
▁integrate	-12.0451
▁prominent	-12.0451
▁army	-12.0452
uxe	-12.0453
▁restor	-12.0454
▁strongest	-12.0454
▁$200	-12.0455
▁Eby	-12.0455
▁forests	-12.0456
▁dictator	-12.0456
▁LONG	-12.0458
▁THING	-12.0459
▁Hardly	-12.0462
CN	-12.0463
▁mixes	-12.0465
▁elegan	-12.0465
▁misses	-12.0466
▁Pay	-12.0466
text	-12.0467
▁criticis	-12.0468
▁Simpsons	-12.0471
▁resemble	-12.0472
▁Jude	-12.0472
▁duration	-12.0473
▁$4	-12.0473
▁quoted	-12.0473
▁lap	-12.0474
▁Carl	-12.0476
Only	-12.0479
ummy	-12.048
▁flame	-12.048
▁survived	-12.048
▁banging	-12.0483
▁someday	-12.0484
▁@	-12.0484
▁workbook	-12.0487
tuit	-12.0489
illion	-12.049
▁SW	-12.0492
▁corp	-12.0492
▁adjectives	-12.0495
▁constraints	-12.0495
▁rendered	-12.0496
▁exer	-12.0499
jet	-12.05
▁efficiently	-12.0501
▁respectable	-12.0501
Update	-12.0502
mann	-12.0505
▁regrettabl	-12.0509
▁spy	-12.051
▁operated	-12.0511
▁secretly	-12.0512
▁boob	-12.0512
▁mixer	-12.0518
24	-12.0519
▁condemned	-12.0519
▁foul	-12.0521
▁imply	-12.0529
▁Allen	-12.0531
▁rear	-12.0535
▁secured	-12.054
▁Dad	-12.054
▁Mom	-12.0542
▁manually	-12.0542
▁neighbors	-12.0544
moral	-12.0554
▁82	-12.0557
▁jet	-12.0558
▁farming	-12.0558
▁Reding	-12.0559
▁boxes	-12.0562
never	-12.0563
ratic	-12.0563
▁marginal	-12.0565
EAST	-12.0566
▁cracked	-12.0566
▁HO	-12.0575
▁vet	-12.0576
▁tilt	-12.058
▁promoted	-12.0591
▁issu	-12.0593
▁recomended	-12.0594
▁nicer	-12.0601
▁moreover	-12.0606
▁homeless	-12.0607
▁JET	-12.0608
inch	-12.0614
scend	-12.0616
cen	-12.0617
▁Kids	-12.0618
▁distortions	-12.0618
▁herbs	-12.0619
▁achievements	-12.0621
▁prospects	-12.0629
▁transit	-12.0634
▁plainly	-12.064
▁watchable	-12.064
▁strangely	-12.0642
▁quarters	-12.0642
unny	-12.0642
▁buffs	-12.0642
▁laces	-12.0645
wrapping	-12.0646
▁mal	-12.0647
hum	-12.0654
baked	-12.0654
▁mul	-12.0655
agger	-12.0662
llor	-12.0666
▁Fede	-12.0672
▁PL	-12.0678
▁scrapp	-12.0679
mid	-12.0679
▁Rox	-12.0681
xie	-12.0683
▁fundamentally	-12.0685
ended	-12.0697
▁Pat	-12.0699
UCK	-12.0699
ister	-12.0702
▁protected	-12.0703
▁Shin	-12.0709
▁socialist	-12.0713
▁mastered	-12.0722
▁plu	-12.0738
▁Mostly	-12.074
pard	-12.0744
ncidentally	-12.075
vez	-12.0753
▁(5	-12.0771
▁symbolic	-12.0773
▁mic	-12.0773
▁Tra	-12.0781
rang	-12.08
EEN	-12.0811
pun	-12.0816
▁SOL	-12.0816
▁depress	-12.0821
▁12"	-12.0824
▁dictate	-12.0837
utting	-12.0837
▁prep	-12.0842
▁clearer	-12.085
thin	-12.0865
setting	-12.0878
▁Sting	-12.09
rian	-12.0905
ncient	-12.0909
ience	-12.0911
ulated	-12.0931
▁dub	-12.0944
▁catche	-12.0953
▁cure	-12.0956
gro	-12.0967
spective	-12.0971
▁ce	-12.0974
▁bas	-12.0975
neous	-12.0975
hak	-12.0978
▁croc	-12.0997
▁$80	-12.0998
zen	-12.1006
▁Kno	-12.101
EU	-12.1013
OK	-12.1028
ANY	-12.1047
fan	-12.1094
▁Deb	-12.1168
Link	-12.1174
▁argu	-12.1181
▁Mou	-12.1185
▁Han	-12.1188
RED	-12.1194
ould	-12.1202
▁Start	-12.1206
▁Anna	-12.121
▁Prof	-12.1216
lusive	-12.1222
▁Reno	-12.1227
▁fal	-12.1233
▁OOP	-12.1241
sually	-12.125
pressive	-12.125
▁Off	-12.1258
▁Luk	-12.1266
PC	-12.1277
▁46	-12.1287
Nord	-12.1314
▁ECS	-12.1319
FF	-12.1323
250	-12.1337
▁Low	-12.135
Stranger	-12.1367
THER	-12.1372
pper	-12.1372
care	-12.1399
issa	-12.147
apo	-12.1482
▁vest	-12.1526
▁Lov	-12.1535
▁Ou	-12.1536
▁wir	-12.1542
cord	-12.1562
▁Eli	-12.1562
Neil	-12.1564
▁81	-12.1571
minute	-12.1588
probably	-12.1597
odern	-12.1607
Sex	-12.1611
logical	-12.1616
lms	-12.162
author	-12.1622
Pros	-12.1626
orial	-12.1626
34	-12.1633
▁scifi	-12.1642
▁supplie	-12.1648
▁breathe	-12.166
▁Baskerville	-12.1663
▁tack	-12.1663
▁taxpayer	-12.1663
▁Record	-12.1664
▁refugee	-12.1668
▁arrangement	-12.1669
▁negotiation	-12.167
han	-12.1671
▁MEP	-12.1673
▁Shu	-12.1676
▁shine	-12.1677
▁passage	-12.1682
band	-12.1683
roma	-12.1688
spiring	-12.1697
ö	-12.17
▁combin	-12.1706
clude	-12.1721
▁rotat	-12.1728
▁nud	-12.1736
▁crop	-12.1737
▁commen	-12.1738
▁FIN	-12.1743
writing	-12.175
▁disciplin	-12.1753
▁complet	-12.1761
▁compr	-12.1769
▁Gala	-12.1772
wise	-12.1779
ival	-12.1783
friend	-12.1786
▁imagin	-12.1786
duh	-12.179
▁Thin	-12.1791
▁construct	-12.1802
▁retro	-12.1802
OSE	-12.1804
▁quo	-12.1805
▁crush	-12.1806
1984	-12.1806
charge	-12.1807
moving	-12.1808
interesting	-12.1808
polluter	-12.1809
disciplin	-12.1809
breaking	-12.1809
happy	-12.1809
Shame	-12.181
connect	-12.181
crafted	-12.181
balanced	-12.181
Easy	-12.181
Anyway	-12.181
Little	-12.1811
QUE	-12.1811
establish	-12.1811
familiar	-12.1811
Perhaps	-12.1811
heavy	-12.1811
language	-12.1811
social	-12.1811
plug	-12.1811
movie	-12.1811
finding	-12.1811
felt	-12.1811
▁bless	-12.1811
Marquez	-12.1811
▁Grant	-12.1811
sorry	-12.1812
because	-12.1812
Nothing	-12.1812
wide	-12.1813
since	-12.1813
high	-12.1813
again	-12.1813
same	-12.1813
driven	-12.1813
▁advertise	-12.1814
small	-12.1814
create	-12.1814
▁unsuccessful	-12.1815
▁gradual	-12.1815
Rock	-12.1815
wire	-12.1816
money	-12.1817
▁violate	-12.1818
wow	-12.1818
▁recieve	-12.1819
▁pronounce	-12.1819
Never	-12.1819
Most	-12.1821
wait	-12.1821
▁villa	-12.1825
▁greed	-12.1826
▁quantit	-12.1826
nstallation	-12.1829
▁Drive	-12.1829
▁HU	-12.1831
sexual	-12.1831
▁Constitution	-12.1832
▁utopia	-12.1832
otte	-12.1832
▁Clear	-12.1832
Get	-12.1833
eference	-12.1833
AKE	-12.1834
Day	-12.1834
▁gramma	-12.1834
▁thankful	-12.1836
IGHT	-12.1836
▁Secret	-12.1837
awned	-12.1837
grow	-12.1837
▁Turk	-12.1837
requisite	-12.1838
▁ponder	-12.1838
▁Egypt	-12.1838
▁sovereign	-12.1838
ossip	-12.1838
▁systematic	-12.1838
elcro	-12.1838
▁Opera	-12.1838
alloween	-12.1838
▁Que	-12.1838
inksys	-12.1839
▁circula	-12.1839
▁catalog	-12.1839
efinately	-12.1839
▁Gil	-12.1839
▁horizon	-12.1839
▁vulnerab	-12.1839
▁Standard	-12.1839
ROCK	-12.1839
▁occupation	-12.1839
Guarantee	-12.1839
dieval	-12.1839
simplified	-12.1839
ç	-12.1839
ü	-12.1839
▁ALSO	-12.1839
▁Adriatic	-12.1839
▁Alpha	-12.1839
▁BEWARE	-12.1839
▁Bruckheimer	-12.1839
▁CHARACTER	-12.1839
▁Caribbean	-12.1839
▁Chronicles	-12.1839
▁Civil	-12.1839
▁Collection	-12.1839
▁Communist	-12.1839
▁Cultural	-12.1839
▁DIFFERENT	-12.1839
▁Disappointed	-12.1839
▁Disrespect	-12.1839
▁EAGGF	-12.1839
▁Eurodac	-12.1839
▁GARP	-12.1839
▁Guinea	-12.1839
▁Guinness	-12.1839
▁Huntington	-12.1839
▁Industry	-12.1839
▁JFK	-12.1839
▁Jordan	-12.1839
▁Kennedy	-12.1839
▁Leonard	-12.1839
▁Nikon	-12.1839
▁Palestine	-12.1839
▁Particular	-12.1839
▁Quaestors	-12.1839
▁REVIEW	-12.1839
▁STUPID	-12.1839
▁Service	-12.1839
▁Stardust	-12.1839
▁Switzerland	-12.1839
▁TISM	-12.1839
▁Timothy	-12.1839
▁Trevor	-12.1839
▁YEARS	-12.1839
▁Yoga	-12.1839
▁abundant	-12.1839
▁apologies	-12.1839
▁applause	-12.1839
▁champion	-12.1839
▁claustrophobic	-12.1839
▁clumsy	-12.1839
▁cologne	-12.1839
▁comprehensible	-12.1839
▁contraven	-12.1839
▁cumbersome	-12.1839
▁deficiencies	-12.1839
▁dependency	-12.1839
▁dismantle	-12.1839
▁disrespect	-12.1839
▁empathize	-12.1839
▁enclos	-12.1839
▁evolving	-12.1839
▁excellence	-12.1839
▁fluctuat	-12.1839
▁fragile	-12.1839
▁galaxy	-12.1839
▁gigantic	-12.1839
▁glory	-12.1839
▁glucose	-12.1839
▁grief	-12.1839
▁immature	-12.1839
▁implausible	-12.1839
▁inexplicabl	-12.1839
▁kettle	-12.1839
▁knob	-12.1839
▁lackluster	-12.1839
▁laundry	-12.1839
▁luxury	-12.1839
▁manoeuvre	-12.1839
▁multinational	-12.1839
▁nowadays	-12.1839
▁plausible	-12.1839
▁radiator	-12.1839
▁redemption	-12.1839
▁remedy	-12.1839
▁repercussions	-12.1839
▁rewrite	-12.1839
▁simplicity	-12.1839
▁terrain	-12.1839
▁triumph	-12.1839
▁unimaginative	-12.1839
▁unpleasant	-12.1839
▁unquestionabl	-12.1839
▁vegetarian	-12.1839
▁width	-12.1839
▁1911	-12.1839
▁Assante	-12.1839
▁BDSM	-12.1839
▁Cooder	-12.1839
▁GIRL	-12.1839
▁Hundred	-12.1839
▁INTEREST	-12.1839
▁Kirk	-12.1839
▁Lapinator	-12.1839
▁Lennon	-12.1839
▁Lillian	-12.1839
▁Seldon	-12.1839
▁Wilbur	-12.1839
▁arthritis	-12.1839
▁bestseller	-12.1839
▁crippl	-12.1839
▁dinosaur	-12.1839
▁gamble	-12.1839
▁intensify	-12.1839
▁intolerance	-12.1839
▁intricate	-12.1839
▁maddening	-12.1839
▁merchandise	-12.1839
▁orgasm	-12.1839
▁outraged	-12.1839
▁paranoid	-12.1839
▁pedantic	-12.1839
▁penetrat	-12.1839
▁physics	-12.1839
▁province	-12.1839
▁rarity	-12.1839
▁replied	-12.1839
▁robbed	-12.1839
▁snuggly	-12.1839
▁stunt	-12.1839
▁villian	-12.1839
▁wrought	-12.1839
Margret	-12.1839
▁Helquist	-12.1839
▁Living	-12.1839
▁Radio	-12.1839
▁accelerate	-12.1839
▁airwaves	-12.1839
▁dreary	-12.1839
▁imitation	-12.1839
▁invisible	-12.1839
▁precision	-12.1839
▁prevail	-12.1839
▁sparse	-12.1839
▁troubleshoot	-12.1839
▁whimsical	-12.1839
▁:-(	-12.1839
▁Celia	-12.1839
▁Columb	-12.1839
▁ROCKS	-12.1839
▁apprais	-12.1839
▁domestic	-12.1839
▁inhabitants	-12.1839
▁FRM	-12.1839
▁Network	-12.1839
▁agency	-12.1839
▁dossier	-12.1839
▁glean	-12.1839
▁Heroes	-12.1839
▁Ladies	-12.1839
▁SAW	-12.1839
▁bundle	-12.1839
▁DISAPPOINTED	-12.1839
▁Wickham	-12.1839
▁voye	-12.1839
▁Paramount	-12.1839
▁sappy	-12.1839
▁Ahern	-12.1839
▁Terminator	-12.1839
▁bathroom	-12.1839
▁Climb	-12.1839
▁hysterical	-12.1839
erobed	-12.1839
▁Alexand	-12.1839
▁Church	-12.1839
▁blatant	-12.1839
▁odor	-12.1839
MPEG	-12.1839
▁jamming	-12.1839
UGH	-12.1839
▁Danube	-12.1839
▁colo	-12.1839
▁multifunctional	-12.1839
▁resonate	-12.1839
(10/10)	-12.1839
▁Nomad	-12.1839
▁alleged	-12.1839
▁woeful	-12.1839
▁Alien	-12.1839
▁Solid	-12.1839
▁genetic	-12.1839
▁lipstick	-12.1839
▁turkey	-12.1839
▁foremost	-12.1839
▁revolve	-12.1839
▁Firewire	-12.1839
▁Pony	-12.1839
▁greasy	-12.1839
▁microphone	-12.1839
▁verbal	-12.1839
▁abroad	-12.1839
▁cliff	-12.1839
▁modified	-12.1839
▁modification	-12.1839
▁Progress	-12.1839
▁lunchbox	-12.1839
▁Warner	-12.1839
▁bellydance	-12.1839
▁1-2	-12.1839
▁ASAP	-12.1839
▁tiresome	-12.1839
▁leftovers	-12.1839
▁rewards	-12.1839
▁Rhapsody	-12.1839
▁grandfather	-12.1839
▁latin	-12.1839
▁extremism	-12.1839
▁ELSE	-12.1839
▁Luther	-12.1839
▁Claire	-12.1839
▁magnet	-12.1839
▁immoral	-12.1839
▁specified	-12.1839
▁CSI	-12.1839
▁pacing	-12.1839
▁Nicol	-12.1839
▁stroke	-12.1839
▁Stalin	-12.1839
▁flush	-12.1839
llington	-12.1839
▁yawn	-12.1839
▁irregularities	-12.184
▁shapewear	-12.184
▁reunit	-12.184
▁yarn	-12.184
▁clunk	-12.184
▁banana	-12.184
▁reconciliation	-12.184
▁Rivendell	-12.184
▁availability	-12.184
▁pleasing	-12.184
▁Altitude	-12.184
huh	-12.184
▁Garden	-12.184
▁enlightenment	-12.184
▁mistress	-12.184
▁Undergrou	-12.184
▁Legend	-12.184
▁gossip	-12.184
▁faci	-12.184
▁Normal	-12.184
▁bunny	-12.184
▁resent	-12.184
▁Francisco	-12.184
▁apologis	-12.184
▁orchestration	-12.184
▁bibliography	-12.184
▁Xbox	-12.184
▁flashlight	-12.184
▁Moura	-12.184
▁Country	-12.184
▁Viking	-12.184
▁towel	-12.184
▁SHOW	-12.184
▁chaos	-12.184
▁consciousness	-12.184
▁obstruct	-12.184
▁Turkish	-12.184
▁romp	-12.184
▁peice	-12.184
▁heartbreaking	-12.184
▁RIGHT	-12.184
mburg	-12.184
▁snapping	-12.1841
▁Romantic	-12.1841
▁Usher	-12.1841
▁civilisation	-12.1841
▁lump	-12.1841
▁blurry	-12.1841
▁Town	-12.1841
▁republic	-12.1841
▁Ella	-12.1841
▁misery	-12.1841
both	-12.1841
▁INST	-12.1841
▁adultery	-12.1841
▁uninstall	-12.1841
▁exhaustive	-12.1841
▁rotation	-12.1841
▁Boston	-12.1841
▁torso	-12.1841
▁invasion	-12.1841
▁denominator	-12.1841
▁interrupted	-12.1841
▁neighborhood	-12.1842
▁2008	-12.1842
▁confuse	-12.1842
tomic	-12.1842
▁geek	-12.1842
▁inventive	-12.1842
▁limp	-12.1842
▁terrorism	-12.1842
▁weld	-12.1842
▁Duran	-12.1842
▁differentiate	-12.1842
▁Born	-12.1842
▁Doctor	-12.1842
atrix	-12.1843
▁fruition	-12.1843
▁WELL	-12.1843
▁peek	-12.1843
▁percent	-12.1843
▁Deep	-12.1843
▁conversion	-12.1843
▁Spiderman	-12.1843
▁disposable	-12.1843
▁provoke	-12.1843
▁Dali	-12.1843
▁exploitation	-12.1843
▁electricity	-12.1843
▁cement	-12.1843
▁purist	-12.1843
▁guts	-12.1843
▁REM	-12.1844
▁discern	-12.1844
▁Belly	-12.1844
▁unrelated	-12.1844
▁cinematic	-12.1844
▁jumble	-12.1844
▁unbearable	-12.1844
urgical	-12.1844
▁75%	-12.1844
▁skinny	-12.1844
▁Marine	-12.1844
▁Sixth	-12.1844
▁NONE	-12.1844
▁Umbr	-12.1844
▁territories	-12.1845
▁assert	-12.1845
▁highschool	-12.1845
▁Warning	-12.1845
▁LJS	-12.1845
▁browser	-12.1845
▁Rumours	-12.1846
▁Violet	-12.1846
▁intensive	-12.1846
▁handsome	-12.1846
96/	-12.1846
▁LJ	-12.1846
▁healing	-12.1847
▁enlarge	-12.1847
▁uninspired	-12.1847
▁Gopi	-12.1847
▁earlie	-12.1848
▁SOUND	-12.1848
▁brit	-12.1848
▁loan	-12.1848
▁astrology	-12.1848
▁Franka	-12.1848
▁confirmation	-12.1849
▁chicken	-12.1849
▁employers	-12.1849
▁trio	-12.1849
▁assembly	-12.1849
▁backbone	-12.185
▁vous	-12.185
▁exhibition	-12.185
▁unlock	-12.185
▁Pink	-12.185
▁exile	-12.185
▁Job	-12.185
▁golden	-12.185
▁spooky	-12.1851
▁Lafayette	-12.1851
▁infinit	-12.1851
▁Sword	-12.1851
▁Khan	-12.1852
▁paradoxical	-12.1852
▁cleansing	-12.1852
▁280	-12.1852
▁greedy	-12.1853
▁Dull	-12.1853
▁discriminat	-12.1853
▁utopian	-12.1853
▁cargo	-12.1853
▁sexuality	-12.1853
▁muddled	-12.1854
▁patches	-12.1854
▁homework	-12.1854
RIP	-12.1854
utility	-12.1855
▁participants	-12.1855
▁refresher	-12.1855
▁eastern	-12.1856
▁Metal	-12.1856
▁Press	-12.1856
▁distinction	-12.1856
▁Singer	-12.1857
▁Ross	-12.1857
▁eaten	-12.1857
▁Everyman	-12.1858
▁federalist	-12.1858
▁masses	-12.1858
▁GRE	-12.1858
science	-12.1858
▁Catch	-12.1858
▁withdrawn	-12.1859
▁stall	-12.1859
▁bull	-12.186
▁conspir	-12.186
AID	-12.186
▁hopeful	-12.1861
▁Robin	-12.1861
▁pave	-12.1862
▁15%	-12.1862
Here	-12.1863
OOM	-12.1863
▁overlap	-12.1863
▁deployed	-12.1864
▁delegate	-12.1864
▁cage	-12.1865
▁hyper	-12.1865
▁workplace	-12.1865
Lyn	-12.1865
▁NY	-12.1866
▁dolls	-12.1866
▁thankfully	-12.1867
eezy	-12.1867
▁correctness	-12.1868
▁enchanted	-12.1868
▁Dede	-12.187
▁clone	-12.187
buy	-12.1871
▁deepen	-12.1871
ALS	-12.1873
▁travelers	-12.1873
▁crushed	-12.1874
▁10%	-12.1875
▁actresses	-12.1875
▁postponed	-12.1876
▁temper	-12.1876
▁Want	-12.1876
▁faded	-12.1877
burn	-12.188
▁disposed	-12.188
crook	-12.1883
▁equipp	-12.1884
▁Bru	-12.1885
▁stark	-12.1885
▁myths	-12.1885
▁meals	-12.1886
▁outlined	-12.1888
▁Along	-12.1888
▁Dogg	-12.1888
HD	-12.1889
▁socialism	-12.189
▁scent	-12.1891
▁blessing	-12.1892
▁assembled	-12.1892
▁senseless	-12.1892
arcel	-12.1893
▁FIND	-12.1893
▁lecture	-12.1893
▁Andrew	-12.1893
▁assumption	-12.1894
▁muy	-12.1896
▁Creat	-12.1897
▁til	-12.1898
▁hid	-12.1899
▁addicting	-12.19
eduction	-12.19
▁Force	-12.19
▁fastest	-12.19
Your	-12.19
▁shy	-12.1901
▁Hold	-12.1901
▁Aust	-12.1902
▁reinforced	-12.1905
▁dial	-12.1905
▁clo	-12.1907
citing	-12.1908
pressed	-12.1908
▁cater	-12.1909
▁wrist	-12.1912
shame	-12.1913
Men	-12.1916
▁bruis	-12.1916
▁threatening	-12.1916
posit	-12.1916
▁tribu	-12.1917
▁witnessed	-12.1917
▁nominate	-12.1917
CES	-12.1919
huck	-12.1921
opy	-12.1921
▁absorbing	-12.1924
▁val	-12.1928
▁blindly	-12.193
▁advised	-12.193
taking	-12.1931
▁tackl	-12.1933
▁mud	-12.1934
▁polluter	-12.1935
▁muscles	-12.1938
▁waterways	-12.1938
▁breeding	-12.194
▁Holy	-12.1944
▁hunting	-12.1948
-13	-12.1949
▁Bless	-12.1949
etti	-12.195
Smoke	-12.1951
▁inserted	-12.1952
▁Pier	-12.1953
▁Haunt	-12.1954
▁graceful	-12.1956
▁engineering	-12.1956
easy	-12.1959
▁anytime	-12.1961
▁Ron	-12.1964
▁bedding	-12.1965
▁messy	-12.1965
:*	-12.1968
▁doom	-12.1968
▁oddly	-12.1969
▁streaming	-12.1972
▁bogg	-12.1976
SF	-12.198
▁Ko	-12.1986
▁conform	-12.1986
▁adjusted	-12.1987
entrepreneurship	-12.1988
▁atheist	-12.199
▁attended	-12.1993
illow	-12.1995
▁bugg	-12.1995
god	-12.2001
▁recorder	-12.2001
▁Elle	-12.2002
▁Mak	-12.2005
▁Listening	-12.2006
LOOKING	-12.2007
▁Chr	-12.2007
▁facilitat	-12.2013
▁tricked	-12.2013
fashioned	-12.2014
▁spoiler	-12.2015
▁revealing	-12.2015
▁painfully	-12.2017
cademy	-12.2018
23	-12.2019
VO	-12.202
tight	-12.2029
wool	-12.2033
▁mig	-12.2034
▁accordingly	-12.2034
▁SM	-12.2036
▁disco	-12.2044
CAL	-12.2054
atric	-12.206
angling	-12.207
▁DIDN	-12.2073
▁proportional	-12.2077
▁LO	-12.2081
▁playable	-12.2082
▁Lion	-12.2091
▁sim	-12.2091
▁#3	-12.2094
exist	-12.2101
Del	-12.2103
▁cracking	-12.2112
▁bites	-12.2119
▁Babe	-12.2124
▁Alan	-12.213
▁advocat	-12.2132
▁emphasised	-12.2134
▁revi	-12.2134
▁Near	-12.2138
cist	-12.2141
class	-12.2141
itle	-12.2148
rmed	-12.215
▁gen	-12.2156
tracted	-12.2161
▁divers	-12.2163
▁poly	-12.2183
▁bru	-12.2185
ezu	-12.2192
▁Cur	-12.2195
omething	-12.2204
▁disp	-12.2226
▁1999/21	-12.2231
produced	-12.2235
▁tame	-12.2238
▁sec	-12.224
▁Artist	-12.2249
ctually	-12.2252
▁singular	-12.2262
▁rob	-12.2265
cumbe	-12.2266
▁drip	-12.2273
▁controll	-12.2293
ummed	-12.2299
AYS	-12.2316
RAY	-12.2329
LED	-12.2335
UV	-12.2336
▁acce	-12.2337
▁Gill	-12.2359
▁vibrate	-12.2361
WWE	-12.2361
▁indicat	-12.2366
lush	-12.2371
43	-12.2384
▁mish	-12.2385
▁definat	-12.239
▁fav	-12.2398
99	-12.24
▁harmoni	-12.2413
haha	-12.2439
▁denounce	-12.2449
▁esp	-12.2452
dressing	-12.2478
▁spineless	-12.2481
Ann	-12.2482
▁$25	-12.2497
gard	-12.2515
cient	-12.252
endo	-12.2521
▁Winn	-12.2527
AIR	-12.2531
▁minu	-12.2536
icon	-12.2547
▁fla	-12.2561
▁curl	-12.2562
▁Sav	-12.2575
active	-12.258
OTH	-12.2582
UC	-12.2597
▁Spen	-12.261
clean	-12.2631
7%	-12.2636
ISH	-12.2651
▁resid	-12.2701
4%	-12.2702
27	-12.2705
▁tab	-12.2706
▁puzzl	-12.2714
▁irrational	-12.272
LF	-12.2723
▁Port	-12.2728
▁85	-12.2729
COME	-12.274
▁modernise	-12.2751
horn	-12.2752
▁Minn	-12.2758
29	-12.2778
serving	-12.278
Runn	-12.2781
▁Logi	-12.2782
▁blonde	-12.279
fro	-12.2809
orientat	-12.2816
vested	-12.2838
inducing	-12.2852
▁$9	-12.2855
▁industrialis	-12.2856
▁submitt	-12.2856
TON	-12.2859
▁Carol	-12.2876
thou	-12.289
▁summ	-12.2896
pas	-12.2929
▁Romania	-12.2929
79	-12.2935
kki	-12.2935
▁cue	-12.2944
▁idio	-12.2944
ternal	-12.2946
early	-12.2953
▁Kn	-12.2958
existent	-12.2983
raw	-12.2984
▁surge	-12.2985
▁44	-12.2991
▁Nam	-12.3005
(1999)0	-12.301
FYI	-12.3022
▁Claud	-12.3064
woo	-12.3072
chill	-12.3074
800	-12.3091
TEL	-12.3099
preservation	-12.3112
▁67	-12.3129
▁Eco	-12.3137
liners	-12.3148
raz	-12.3148
Call	-12.3156
▁offset	-12.3182
▁license	-12.3182
▁nin	-12.3183
cessa	-12.3194
layer	-12.3202
▁Ear	-12.3203
▁entr	-12.3208
▁wil	-12.3212
herent	-12.3216
!!!!!!!!!	-12.3228
amil	-12.3232
pocalyptic	-12.3248
▁sap	-12.3253
▁sue	-12.3255
hipped	-12.3259
▁mod	-12.3271
▁fave	-12.3272
▁km	-12.3274
iture	-12.3282
▁demi	-12.3293
▁Spar	-12.33
▁neighbor	-12.3326
▁predecessor	-12.3328
▁statistic	-12.3328
▁strike	-12.3329
▁eargel	-12.3331
▁typo	-12.3331
▁Balkan	-12.3333
▁explosion	-12.3333
▁objection	-12.3333
▁creature	-12.3334
▁election	-12.3336
▁transformer	-12.3341
▁Leo	-12.3351
irbed	-12.3355
intend	-12.3367
cuse	-12.3368
▁activ	-12.3379
▁deflat	-12.3384
gol	-12.3385
MAS	-12.3385
▁Soft	-12.3389
history	-12.3389
hell	-12.3392
arrel	-12.3399
placement	-12.3401
▁decor	-12.3402
oyo	-12.3409
▁secur	-12.3413
▁chop	-12.3416
fascist	-12.3417
Every	-12.3419
▁disturb	-12.3421
▁haunt	-12.3423
earth	-12.3424
sound	-12.3429
▁grind	-12.343
▁brow	-12.3431
▁Water	-12.3438
▁motivat	-12.3446
▁devastat	-12.3454
wave	-12.3455
▁gather	-12.3455
▁overwhelm	-12.3456
▁shove	-12.3461
cream	-12.3465
▁condens	-12.3471
▁perpetrat	-12.3471
▁identifi	-12.3472
bird	-12.3472
▁Kris	-12.3474
necessary	-12.3475
consuming	-12.3475
Frank	-12.3476
PRO	-12.3476
Brave	-12.3476
product	-12.3476
Nazi	-12.3476
Culture	-12.3477
shirt	-12.3477
Movie	-12.3477
inflate	-12.3477
electronic	-12.3477
paper	-12.3477
hammer	-12.3477
govern	-12.3477
famous	-12.3477
Watch	-12.3477
fighting	-12.3477
structure	-12.3477
purpose	-12.3477
[	-12.3477
service	-12.3477
release	-12.3477
budget	-12.3477
battery	-12.3477
beautiful	-12.3477
death	-12.3478
video	-12.3478
meaning	-12.3478
album	-12.3478
mentioned	-12.3478
control	-12.3478
learn	-12.3478
follow	-12.3478
should	-12.3478
▁squa	-12.3478
would	-12.3479
keep	-12.348
group	-12.348
NEW	-12.3481
▁abrupt	-12.3481
SSE	-12.3482
▁Photo	-12.3482
financial	-12.3482
reference	-12.3482
forget	-12.3482
left	-12.3483
urban	-12.3483
glass	-12.3483
▁frank	-12.3483
▁discourage	-12.3484
▁investigate	-12.3484
super	-12.3484
creation	-12.3484
▁decorate	-12.3484
sense	-12.3484
GET	-12.3485
suppose	-12.3485
Back	-12.3487
▁paradox	-12.349
▁transform	-12.3491
ota	-12.3491
▁extraordinar	-12.3492
▁dirt	-12.3493
▁loyal	-12.3493
Does	-12.3494
wear	-12.3494
▁lone	-12.3494
▁intellect	-12.3496
modern	-12.3496
5-000	-12.3497
traight	-12.3497
▁constitution	-12.3498
trip	-12.3499
▁stole	-12.3499
▁Charl	-12.3499
▁manifest	-12.3502
▁betray	-12.3503
▁investigati	-12.3503
olitical	-12.3504
▁homosexual	-12.3504
ommunication	-12.3504
▁cabin	-12.3504
lectric	-12.3504
much	-12.3504
rocodile	-12.3505
/10)	-12.3505
▁Victor	-12.3505
▁priv	-12.3505
▁pixel	-12.3505
humbs	-12.3505
▁Temp	-12.3505
▁Break	-12.3505
▁nickel	-12.3505
5-03	-12.3506
▁Naader	-12.3506
▁Creamer	-12.3506
▁ENJOY	-12.3506
▁Gallery	-12.3506
▁Hodge	-12.3506
▁Hyacinth	-12.3506
▁Journey	-12.3506
▁Junk	-12.3506
▁Kincaid	-12.3506
▁LuPone	-12.3506
▁Massacre	-12.3506
▁Polidoro	-12.3506
▁beneficiar	-12.3506
▁fragment	-12.3506
▁imprison	-12.3506
▁mystic	-12.3506
▁shampoo	-12.3506
▁spontane	-12.3506
▁zipper	-12.3506
5-012	-12.3506
Plath	-12.3506
Urberville	-12.3506
compromising	-12.3506
twelve	-12.3506
utumn	-12.3506
¡	-12.3506
▁AWAY	-12.3506
▁Adventure	-12.3506
▁Agency	-12.3506
▁Answer	-12.3506
▁Assembly	-12.3506
▁Bertolucci	-12.3506
▁Bloom	-12.3506
▁Bourlanges	-12.3506
▁Breathing	-12.3506
▁Burgess	-12.3506
▁CRAP	-12.3506
▁Cambridge	-12.3506
▁Captain	-12.3506
▁Colombia	-12.3506
▁Cowboy	-12.3506
▁Crespo	-12.3506
▁Crystal	-12.3506
▁DEFIN	-12.3506
▁Dictionary	-12.3506
▁EIDOS	-12.3506
▁EXTREME	-12.3506
▁Eargels	-12.3506
▁Eleanor	-12.3506
▁Emperor	-12.3506
▁Exotic	-12.3506
▁FALL	-12.3506
▁FANTASTIC	-12.3506
▁FEEL	-12.3506
▁Fantastic	-12.3506
▁Florida	-12.3506
▁GLAD	-12.3506
▁GeForce	-12.3506
▁Gimli	-12.3506
▁JUNK	-12.3506
▁JUVENILE	-12.3506
▁Juvenile	-12.3506
▁Maastricht	-12.3506
▁Magnum	-12.3506
▁Margaret	-12.3506
▁Marlowe	-12.3506
▁Marshall	-12.3506
▁Medicine	-12.3506
▁Memphis	-12.3506
▁Metallica	-12.3506
▁Mexico	-12.3506
▁Mitchum	-12.3506
▁Museum	-12.3506
▁NGOs	-12.3506
▁Napier	-12.3506
▁Pakistan	-12.3506
▁Phillips	-12.3506
▁Protection	-12.3506
▁Protocol	-12.3506
▁Rangers	-12.3506
▁Rashel	-12.3506
▁Reynolds	-12.3506
▁Rhythm	-12.3506
▁STOP	-12.3506
▁Schreyer	-12.3506
▁Society	-12.3506
▁Stalingrad	-12.3506
▁Stereo	-12.3506
▁Strauss	-12.3506
▁Support	-12.3506
▁TALK	-12.3506
▁Tolkien	-12.3506
▁Tuesday	-12.3506
▁Twilight	-12.3506
▁Vivitar	-12.3506
▁WONDER	-12.3506
▁WORTH	-12.3506
▁Wagner	-12.3506
▁Whale	-12.3506
▁ZERO	-12.3506
▁adhesive	-12.3506
▁adolescent	-12.3506
▁adverse	-12.3506
▁allegations	-12.3506
▁aluminum	-12.3506
▁ambiguity	-12.3506
▁anatomy	-12.3506
▁approximation	-12.3506
▁arbitrary	-12.3506
▁arrogant	-12.3506
▁automated	-12.3506
▁avalanche	-12.3506
▁bookshelves	-12.3506
▁celiac	-12.3506
▁cocktail	-12.3506
▁coexistence	-12.3506
▁competitor	-12.3506
▁compound	-12.3506
▁comprehension	-12.3506
▁consequently	-12.3506
▁deceiving	-12.3506
▁decipher	-12.3506
▁democracies	-12.3506
▁departure	-12.3506
▁desirable	-12.3506
▁destructive	-12.3506
▁doctrine	-12.3506
▁eMarks	-12.3506
▁eject	-12.3506
▁embarass	-12.3506
▁energetic	-12.3506
▁enshrine	-12.3506
▁enthralled	-12.3506
▁epidemic	-12.3506
▁exquisite	-12.3506
▁facilities	-12.3506
▁facinating	-12.3506
▁fallacies	-12.3506
▁fluid	-12.3506
▁gesture	-12.3506
▁grotesque	-12.3506
▁humiliat	-12.3506
▁hutch	-12.3506
▁iTunes	-12.3506
▁identification	-12.3506
▁improper	-12.3506
▁infrared	-12.3506
▁insipid	-12.3506
▁intensity	-12.3506
▁judiciary	-12.3506
▁ladder	-12.3506
▁legislate	-12.3506
▁liberties	-12.3506
▁libraries	-12.3506
▁lodged	-12.3506
▁lounge	-12.3506
▁majestic	-12.3506
▁massager	-12.3506
▁nomination	-12.3506
▁nostalgic	-12.3506
▁observator	-12.3506
▁ocean	-12.3506
▁painstaking	-12.3506
▁periphery	-12.3506
▁phrasing	-12.3506
▁plethora	-12.3506
▁pompous	-12.3506
▁portfolio	-12.3506
▁profanity	-12.3506
▁qualify	-12.3506
▁recyclable	-12.3506
▁restraint	-12.3506
▁rhymes	-12.3506
▁sardonic	-12.3506
▁savor	-12.3506
▁scroll	-12.3506
▁sibling	-12.3506
▁simplification	-12.3506
▁sketches	-12.3506
▁societal	-12.3506
▁subordinate	-12.3506
▁suffice	-12.3506
▁supreme	-12.3506
▁synergy	-12.3506
▁syntax	-12.3506
▁tantrum	-12.3506
▁terrified	-12.3506
▁thermometer	-12.3506
▁triangle	-12.3506
▁unattractive	-12.3506
▁understatement	-12.3506
▁unequivoca	-12.3506
▁unfunny	-12.3506
▁unimportant	-12.3506
▁unlikable	-12.3506
▁unreliable	-12.3506
▁upgrading	-12.3506
▁upheld	-12.3506
▁ventriloquist	-12.3506
▁victory	-12.3506
▁vignette	-12.3506
▁Adult	-12.3506
▁EMU	-12.3506
▁Field	-12.3506
▁Google	-12.3506
▁JOB	-12.3506
▁Megatron	-12.3506
▁NBC	-12.3506
▁Quinn	-12.3506
▁Sicily	-12.3506
▁Steiner	-12.3506
▁Tomato	-12.3506
▁Writing	-12.3506
▁advisor	-12.3506
▁bleeding	-12.3506
▁brittle	-12.3506
▁devolve	-12.3506
▁disciple	-12.3506
▁leaf	-12.3506
▁nominee	-12.3506
▁ratify	-12.3506
▁salvation	-12.3506
▁squander	-12.3506
▁statue	-12.3506
▁twofold	-12.3506
▁uncontroll	-12.3506
▁uncover	-12.3506
▁unplayable	-12.3506
▁Ghost	-12.3506
▁furious	-12.3506
▁intuitive	-12.3506
▁module	-12.3506
▁oppression	-12.3506
▁sneak	-12.3506
▁styling	-12.3506
▁unequal	-12.3506
▁spoon	-12.3506
▁FAN	-12.3506
▁Genesis	-12.3506
▁aggressive	-12.3506
▁republicans	-12.3506
▁staple	-12.3506
▁upload	-12.3506
▁instinct	-12.3506
▁monies	-12.3506
▁3/4	-12.3506
▁8-10	-12.3506
▁Iraq	-12.3506
▁RTS	-12.3506
▁burst	-12.3506
▁decay	-12.3506
▁german	-12.3506
▁reluctantly	-12.3506
▁stead	-12.3506
▁KIND	-12.3506
▁supervisor	-12.3506
▁ALW	-12.3506
▁mejor	-12.3506
▁sanity	-12.3506
▁unforgiv	-12.3506
▁Colon	-12.3506
▁backyard	-12.3506
▁differentiation	-12.3506
▁evocati	-12.3506
▁mercy	-12.3506
hantom	-12.3506
▁Above	-12.3506
▁Maeve	-12.3506
▁alleviat	-12.3506
▁demographic	-12.3506
▁"1984"	-12.3506
▁2/3	-12.3506
▁nurtur	-12.3506
Chicken	-12.3506
▁dried	-12.3506
▁outlawed	-12.3506
▁boiling	-12.3506
▁Jacob	-12.3506
atriarch	-12.3506
▁furniture	-12.3506
▁Federal	-12.3506
▁MANSON	-12.3506
▁therapist	-12.3506
▁libertarian	-12.3506
▁TACIS	-12.3506
▁Gillain	-12.3506
▁aspire	-12.3506
▁lapses	-12.3506
▁monkey	-12.3506
purple	-12.3506
▁flew	-12.3506
▁Gregory	-12.3506
▁hazardous	-12.3506
▁Heights	-12.3506
▁kidnap	-12.3506
▁kiss	-12.3506
▁memorize	-12.3506
▁$$$	-12.3506
▁STAY	-12.3506
▁aviation	-12.3506
▁straw	-12.3506
▁matress	-12.3506
▁gauge	-12.3506
▁ANYONE	-12.3506
▁dissatisfaction	-12.3506
▁extol	-12.3506
▁inspectors	-12.3506
▁1969	-12.3506
▁EVERYONE	-12.3506
▁Melville	-12.3506
▁characteristics	-12.3506
▁Wolverine	-12.3506
▁RECOMMENDED	-12.3506
▁antivirus	-12.3506
▁concluding	-12.3506
▁Lanka	-12.3506
▁chock	-12.3506
▁juris	-12.3506
▁embarrassing	-12.3506
▁scarlet	-12.3506
▁urging	-12.3506
▁recapture	-12.3506
▁carriage	-12.3506
▁Ronson	-12.3506
paint	-12.3506
▁Joseph	-12.3506
ABY	-12.3506
inolta	-12.3506
▁sheep	-12.3506
▁submission	-12.3506
▁skit	-12.3506
▁Dario	-12.3506
▁stir	-12.3506
▁liberalisation	-12.3506
▁pedal	-12.3506
▁venge	-12.3506
▁browsing	-12.3506
▁Inspir	-12.3506
▁cheek	-12.3506
▁torque	-12.3506
▁phrasebook	-12.3506
▁Type	-12.3506
▁Taz	-12.3506
▁Norway	-12.3506
▁1962	-12.3507
▁barrel	-12.3507
▁occurrence	-12.3507
▁patron	-12.3507
▁Lucy	-12.3507
▁Gaza	-12.3507
▁Busines	-12.3507
▁NIGHT	-12.3507
▁fridge	-12.3507
▁hollow	-12.3507
▁persuasion	-12.3507
▁shouting	-12.3507
▁popcorn	-12.3507
▁Burn	-12.3507
▁enlist	-12.3507
▁Corky	-12.3507
▁minimis	-12.3507
▁Gilman	-12.3507
▁poop	-12.3507
▁angst	-12.3507
▁eternal	-12.3507
▁Wiley	-12.3507
▁Comfortable	-12.3507
▁discription	-12.3507
▁motherhood	-12.3507
▁Harper	-12.3507
▁employability	-12.3507
▁italian	-12.3507
▁Tree	-12.3507
▁transformation	-12.3508
▁Starship	-12.3508
▁2009	-12.3508
▁Common	-12.3508
▁tiger	-12.3508
▁riddle	-12.3508
NBA	-12.3508
▁trademark	-12.3508
▁prophetic	-12.3508
▁orchestrated	-12.3508
▁roof	-12.3508
▁quantities	-12.3508
▁unlimited	-12.3508
riterion	-12.3508
▁Theater	-12.3508
▁vain	-12.3508
▁completion	-12.3508
▁1930	-12.3508
▁bush	-12.3508
▁earphone	-12.3508
▁flies	-12.3508
NCE	-12.3508
▁Gene	-12.3509
▁Useless	-12.3509
▁Anything	-12.3509
▁HOWEVER	-12.3509
▁Pinochet	-12.3509
▁sacrifice	-12.3509
▁Voivod	-12.3509
▁accessories	-12.3509
▁Graham	-12.3509
CUT	-12.3509
▁Regardless	-12.3509
▁glossary	-12.3509
▁endorsement	-12.3509
▁resistance	-12.3509
▁lining	-12.3509
▁knockoff	-12.3509
▁Thankfully	-12.3509
▁pivotal	-12.3509
▁undeniable	-12.3509
▁limb	-12.3509
▁tying	-12.3509
▁quant	-12.3509
-078	-12.3509
▁Self	-12.3509
▁Ipod	-12.3509
▁coastline	-12.351
▁tail	-12.351
Hollies	-12.351
▁Feel	-12.351
▁1.2	-12.351
CHANGE	-12.351
▁dining	-12.351
▁Levon	-12.351
▁vein	-12.351
▁bait	-12.351
▁dependent	-12.3511
ULA	-12.3511
▁Copy	-12.3511
Give	-12.3511
▁feast	-12.3511
▁Full	-12.3511
▁Ugh	-12.3512
▁breathless	-12.3512
▁itunes	-12.3512
▁parade	-12.3512
▁Jax	-12.3512
▁sixties	-12.3512
▁enchant	-12.3512
▁pause	-12.3512
▁stolen	-12.3513
15-20	-12.3513
▁READING	-12.3513
month	-12.3513
▁accessory	-12.3513
▁Gramm	-12.3513
▁atrocit	-12.3513
▁tailor	-12.3513
▁este	-12.3513
▁Cape	-12.3513
▁Cannon	-12.3513
▁Johnny	-12.3513
▁Rich	-12.3513
▁Monk	-12.3513
▁household	-12.3513
▁lovebird	-12.3514
▁melodic	-12.3514
▁reggae	-12.3514
▁defense	-12.3514
Fascis	-12.3514
▁adam	-12.3514
▁barns	-12.3514
▁Pump	-12.3514
▁Sub	-12.3514
▁flatten	-12.3514
▁equit	-12.3515
▁exclude	-12.3515
▁communitisation	-12.3515
▁ADD	-12.3515
▁harmonies	-12.3515
▁unjustified	-12.3515
nzel	-12.3516
putable	-12.3516
▁'80	-12.3516
▁soulful	-12.3516
▁SEA	-12.3516
▁fray	-12.3516
▁wax	-12.3516
▁Hits	-12.3517
▁capitalism	-12.3517
▁headway	-12.3517
▁shiny	-12.3517
▁Body	-12.3517
▁postage	-12.3518
turner	-12.3518
▁WON	-12.3518
▁stitches	-12.3518
▁weaknesses	-12.3518
▁Train	-12.3519
▁180	-12.3519
▁Romance	-12.3519
atchet	-12.3519
▁disguised	-12.3519
▁psychology	-12.3519
▁glider	-12.352
▁profitable	-12.352
▁peers	-12.352
llusion	-12.352
▁Later	-12.352
▁binder	-12.352
▁ensu	-12.3521
▁Helm	-12.3521
▁brainless	-12.3521
▁Lev	-12.3521
dobe	-12.3521
▁copyright	-12.3522
▁scorn	-12.3522
▁buggy	-12.3522
▁prohibited	-12.3522
▁Shelter	-12.3522
▁cramm	-12.3522
▁unused	-12.3522
▁STARS	-12.3522
▁Duck	-12.3523
▁jacket	-12.3523
▁arisen	-12.3523
▁stinker	-12.3523
▁86	-12.3524
Boy	-12.3524
▁Sara	-12.3524
atcave	-12.3524
mostly	-12.3524
ordered	-12.3525
▁phil	-12.3525
▁handbook	-12.3526
▁instrumentation	-12.3526
▁agony	-12.3526
▁LACK	-12.3526
▁PSE	-12.3527
▁FX	-12.3527
▁Eighty	-12.3527
▁emit	-12.3527
▁photographed	-12.3527
▁Down	-12.3528
▁DONE	-12.3528
▁authorise	-12.3528
▁flowers	-12.3528
▁vocalist	-12.3528
▁Angeles	-12.3529
▁duo	-12.3529
sounding	-12.353
▁Alice	-12.353
raham	-12.3531
▁broaden	-12.3532
▁individuality	-12.3532
OUGHT	-12.3532
▁Rio	-12.3532
▁Wiccan	-12.3532
▁thrust	-12.3533
gid	-12.3534
▁unsuccessfully	-12.3534
▁completly	-12.3534
▁Bela	-12.3534
▁appointed	-12.3535
▁hardship	-12.3535
▁Pick	-12.3535
litary	-12.3535
▁contributor	-12.3535
▁gener	-12.3535
▁Herr	-12.3535
▁Dead	-12.3535
road	-12.3536
▁consuming	-12.3536
EGAN	-12.3536
▁mathematical	-12.3537
▁sceptical	-12.3537
▁detector	-12.3537
▁compos	-12.3538
▁explaination	-12.3538
▁Folk	-12.3538
least	-12.3538
water	-12.3539
▁fortunately	-12.3539
Try	-12.3539
▁bath	-12.3539
▁contin	-12.3539
▁isolated	-12.3539
▁rationale	-12.354
▁hp	-12.3541
▁condensed	-12.3541
▁como	-12.3541
Hell	-12.3541
▁Noble	-12.3543
▁Cities	-12.3543
▁enlightened	-12.3543
▁fantastical	-12.3544
▁motivated	-12.3544
▁overrid	-12.3546
▁Frankly	-12.3547
▁washes	-12.3547
▁indulgent	-12.3548
▁weaving	-12.3548
▁41	-12.3552
▁turnout	-12.3553
▁fetched	-12.3553
▁dough	-12.3553
▁stricter	-12.3553
▁tacti	-12.3555
▁sword	-12.3558
▁blush	-12.3559
simo	-12.3559
vation	-12.3559
▁Dover	-12.356
▁heft	-12.356
▁spear	-12.3561
▁conscious	-12.3562
migration	-12.3562
▁Bern	-12.3565
▁beep	-12.3567
▁provisional	-12.3568
stay	-12.357
▁coaster	-12.3572
▁Battle	-12.3573
▁mir	-12.3574
▁hideous	-12.3575
▁brighter	-12.3575
▁widened	-12.3576
▁clearance	-12.3576
▁beleiv	-12.3576
IAL	-12.3577
▁Bander	-12.3577
▁publicity	-12.3578
▁novelty	-12.358
31	-12.358
▁sway	-12.3586
▁relaxed	-12.3587
▁Relati	-12.3588
▁fundamentalist	-12.3588
▁Away	-12.3591
▁FF	-12.3592
▁overlooked	-12.3592
▁coin	-12.3594
▁switche	-12.3595
▁Curt	-12.3596
▁passes	-12.3596
▁endlessly	-12.3597
▁Acting	-12.3598
▁progresses	-12.3598
pity	-12.3601
▁emo	-12.3602
▁brass	-12.3604
Chrissy	-12.361
▁Him	-12.361
▁supportive	-12.361
▁dodg	-12.3615
west	-12.3616
▁priceless	-12.3616
▁AIR	-12.3624
▁fullest	-12.3627
▁richer	-12.3628
apid	-12.3629
▁triple	-12.3629
▁Won	-12.3632
▁plotless	-12.3633
▁tackled	-12.3637
▁rotate	-12.3637
▁Immortal	-12.3644
▁accomplishment	-12.3645
▁plea	-12.3647
▁hinge	-12.365
▁(2)	-12.3653
ij	-12.3654
press	-12.3657
▁Laur	-12.3658
▁offens	-12.366
▁postpone	-12.366
▁lucki	-12.3666
RAM	-12.3667
▁simpler	-12.3671
review	-12.368
▁Picture	-12.3681
▁resolv	-12.3691
estig	-12.3695
rvilles	-12.3696
linear	-12.3703
Hood	-12.3704
▁tru	-12.3707
▁ATT	-12.3713
(1)	-12.3717
ORE	-12.3723
mmmmm	-12.3727
▁slapp	-12.3732
ruel	-12.3734
▁consol	-12.3736
▁Door	-12.3751
▁prolif	-12.3752
▁admirer	-12.3753
▁pub	-12.3757
▁pau	-12.3765
▁reissu	-12.3769
▁mil	-12.3775
▁marr	-12.3801
▁BLUE	-12.3804
▁influenc	-12.3809
▁gripe	-12.3833
teller	-12.3833
▁licens	-12.384
▁OVER	-12.384
▁rel	-12.3876
▁burner	-12.3888
▁respectful	-12.3891
▁digress	-12.3893
predictability	-12.3895
rose	-12.3901
▁GOD	-12.3904
ssions	-12.3905
▁mai	-12.3912
kh	-12.3917
▁cruis	-12.3927
▁drawer	-12.3938
69	-12.3944
own	-12.3945
▁XX	-12.3955
DON	-12.3964
ritt	-12.3967
Claude	-12.3969
64	-12.3988
▁stumbl	-12.3994
Eye	-12.3998
lap	-12.4005
▁jew	-12.4036
▁coincid	-12.4037
twee	-12.4051
▁skate	-12.4061
Wide	-12.4061
asque	-12.4062
▁PRE	-12.4077
▁babbl	-12.409
▁BOOKS	-12.409
lvin	-12.4115
03	-12.4146
▁cram	-12.4147
tica	-12.4172
▁trace	-12.4183
CORE	-12.4185
aka	-12.4199
MON	-12.4224
▁evaluate	-12.4227
▁persist	-12.423
gently	-12.4232
▁1999/212	-12.4242
ASK	-12.4269
58	-12.4276
▁blond	-12.4277
OOK	-12.4279
ellen	-12.4284
unction	-12.434
ocr	-12.4351
▁compet	-12.4373
▁SHO	-12.4388
▁SUR	-12.4406
▁47	-12.4429
▁minimalis	-12.4438
▁NP	-12.4443
▁guid	-12.4447
nz	-12.4448
▁fiddle	-12.4454
EAVE	-12.4481
9.99	-12.45
bach	-12.4507
▁festiv	-12.4511
GR	-12.4522
mother	-12.4542
▁Core	-12.4556
▁trap	-12.4558
tip	-12.4559
▁Fol	-12.4565
▁bounce	-12.4611
aid	-12.4616
▁hostil	-12.4617
▁Due	-12.4623
FULL	-12.4642
▁arra	-12.466
▁congratulat	-12.4669
▁squeez	-12.4684
hart	-12.4697
▁archiv	-12.4714
▁Rate	-12.4724
audi	-12.4733
▁optic	-12.4743
▁lag	-12.4805
▁lever	-12.4807
wish	-12.4809
▁Phar	-12.4826
▁TAC	-12.4839
sector	-12.4841
▁Yu	-12.4841
ETS	-12.4853
BEL	-12.489
▁inspect	-12.4892
spected	-12.4894
▁Mario	-12.4897
Harle	-12.4903
nstalled	-12.4912
▁reproduce	-12.4924
▁retrospecti	-12.4933
kens	-12.4943
edited	-12.4961
8(	-12.4964
ologist	-12.4977
▁Fu	-12.4998
ube	-12.5039
Teen	-12.5066
father	-12.5086
▁sham	-12.5089
historical	-12.5092
▁inaccurac	-12.5092
defined	-12.51
▁posi	-12.5128
brid	-12.513
IAN	-12.5134
▁Bab	-12.5138
▁BLU	-12.5153
ferred	-12.5171
300	-12.5175
▁$7	-12.5184
efl	-12.5205
▁enthusiastic	-12.5205
▁epi	-12.521
bar	-12.5231
▁Dann	-12.5255
▁deploy	-12.5256
aunted	-12.5276
▁reinforc	-12.5277
elf	-12.528
▁Stop	-12.5283
intentioned	-12.5284
cross	-12.529
▁volt	-12.5312
nalysis	-12.5316
▁scandal	-12.5321
▁client	-12.5328
▁lawyer	-12.533
▁thumb	-12.5333
▁weapon	-12.5335
▁merger	-12.5336
▁Year	-12.5339
▁ju	-12.5344
filled	-12.5345
complete	-12.5353
▁lb	-12.5354
roscope	-12.5356
▁compel	-12.5365
▁Tak	-12.5374
changing	-12.5384
▁backward	-12.5394
▁arriv	-12.5403
Error	-12.5403
▁recogniz	-12.5419
▁enlighten	-12.5419
abridge	-12.5421
▁annoy	-12.5423
2.0	-12.5424
▁custo	-12.5452
▁infant	-12.5455
BSE	-12.5455
▁mislead	-12.5458
▁appoint	-12.5467
▁interfer	-12.5469
▁suspend	-12.5471
▁remaster	-12.5471
▁copie	-12.5472
limited	-12.5474
virus	-12.5476
▁accommodat	-12.5476
Flyboys	-12.5476
integrat	-12.5476
2011	-12.5476
absorb	-12.5476
effect	-12.5476
▁Bibl	-12.5476
Recommend	-12.5476
shadow	-12.5476
liberal	-12.5477
translated	-12.5477
White	-12.5477
Enjoy	-12.5477
[...]
